<pad>	0
<unk>	0
<s>	0
</s>	0
<0x00>	0
<0x01>	0
<0x02>	0
<0x03>	0
<0x04>	0
<0x05>	0
<0x06>	0
<0x07>	0
<0x08>	0
<0x09>	0
<0x0A>	0
<0x0B>	0
<0x0C>	0
<0x0D>	0
<0x0E>	0
<0x0F>	0
<0x10>	0
<0x11>	0
<0x12>	0
<0x13>	0
<0x14>	0
<0x15>	0
<0x16>	0
<0x17>	0
<0x18>	0
<0x19>	0
<0x1A>	0
<0x1B>	0
<0x1C>	0
<0x1D>	0
<0x1E>	0
<0x1F>	0
<0x20>	0
<0x21>	0
<0x22>	0
<0x23>	0
<0x24>	0
<0x25>	0
<0x26>	0
<0x27>	0
<0x28>	0
<0x29>	0
<0x2A>	0
<0x2B>	0
<0x2C>	0
<0x2D>	0
<0x2E>	0
<0x2F>	0
<0x30>	0
<0x31>	0
<0x32>	0
<0x33>	0
<0x34>	0
<0x35>	0
<0x36>	0
<0x37>	0
<0x38>	0
<0x39>	0
<0x3A>	0
<0x3B>	0
<0x3C>	0
<0x3D>	0
<0x3E>	0
<0x3F>	0
<0x40>	0
<0x41>	0
<0x42>	0
<0x43>	0
<0x44>	0
<0x45>	0
<0x46>	0
<0x47>	0
<0x48>	0
<0x49>	0
<0x4A>	0
<0x4B>	0
<0x4C>	0
<0x4D>	0
<0x4E>	0
<0x4F>	0
<0x50>	0
<0x51>	0
<0x52>	0
<0x53>	0
<0x54>	0
<0x55>	0
<0x56>	0
<0x57>	0
<0x58>	0
<0x59>	0
<0x5A>	0
<0x5B>	0
<0x5C>	0
<0x5D>	0
<0x5E>	0
<0x5F>	0
<0x60>	0
<0x61>	0
<0x62>	0
<0x63>	0
<0x64>	0
<0x65>	0
<0x66>	0
<0x67>	0
<0x68>	0
<0x69>	0
<0x6A>	0
<0x6B>	0
<0x6C>	0
<0x6D>	0
<0x6E>	0
<0x6F>	0
<0x70>	0
<0x71>	0
<0x72>	0
<0x73>	0
<0x74>	0
<0x75>	0
<0x76>	0
<0x77>	0
<0x78>	0
<0x79>	0
<0x7A>	0
<0x7B>	0
<0x7C>	0
<0x7D>	0
<0x7E>	0
<0x7F>	0
<0x80>	0
<0x81>	0
<0x82>	0
<0x83>	0
<0x84>	0
<0x85>	0
<0x86>	0
<0x87>	0
<0x88>	0
<0x89>	0
<0x8A>	0
<0x8B>	0
<0x8C>	0
<0x8D>	0
<0x8E>	0
<0x8F>	0
<0x90>	0
<0x91>	0
<0x92>	0
<0x93>	0
<0x94>	0
<0x95>	0
<0x96>	0
<0x97>	0
<0x98>	0
<0x99>	0
<0x9A>	0
<0x9B>	0
<0x9C>	0
<0x9D>	0
<0x9E>	0
<0x9F>	0
<0xA0>	0
<0xA1>	0
<0xA2>	0
<0xA3>	0
<0xA4>	0
<0xA5>	0
<0xA6>	0
<0xA7>	0
<0xA8>	0
<0xA9>	0
<0xAA>	0
<0xAB>	0
<0xAC>	0
<0xAD>	0
<0xAE>	0
<0xAF>	0
<0xB0>	0
<0xB1>	0
<0xB2>	0
<0xB3>	0
<0xB4>	0
<0xB5>	0
<0xB6>	0
<0xB7>	0
<0xB8>	0
<0xB9>	0
<0xBA>	0
<0xBB>	0
<0xBC>	0
<0xBD>	0
<0xBE>	0
<0xBF>	0
<0xC0>	0
<0xC1>	0
<0xC2>	0
<0xC3>	0
<0xC4>	0
<0xC5>	0
<0xC6>	0
<0xC7>	0
<0xC8>	0
<0xC9>	0
<0xCA>	0
<0xCB>	0
<0xCC>	0
<0xCD>	0
<0xCE>	0
<0xCF>	0
<0xD0>	0
<0xD1>	0
<0xD2>	0
<0xD3>	0
<0xD4>	0
<0xD5>	0
<0xD6>	0
<0xD7>	0
<0xD8>	0
<0xD9>	0
<0xDA>	0
<0xDB>	0
<0xDC>	0
<0xDD>	0
<0xDE>	0
<0xDF>	0
<0xE0>	0
<0xE1>	0
<0xE2>	0
<0xE3>	0
<0xE4>	0
<0xE5>	0
<0xE6>	0
<0xE7>	0
<0xE8>	0
<0xE9>	0
<0xEA>	0
<0xEB>	0
<0xEC>	0
<0xED>	0
<0xEE>	0
<0xEF>	0
<0xF0>	0
<0xF1>	0
<0xF2>	0
<0xF3>	0
<0xF4>	0
<0xF5>	0
<0xF6>	0
<0xF7>	0
<0xF8>	0
<0xF9>	0
<0xFA>	0
<0xFB>	0
<0xFC>	0
<0xFD>	0
<0xFE>	0
<0xFF>	0
▁	-3.22825
.	-3.45365
,	-3.57768
▁ı	-3.90089
▁i	-4.01341
▁e	-4.42591
▁ve	-4.57498
▁da	-4.58944
▁de	-4.6056
▁a	-4.69837
▁bir	-4.71993
▁lar	-4.72133
▁in	-4.73405
▁si	-4.76141
▁an	-4.78216
▁nda	-4.79722
▁sı	-4.80614
▁ları	-4.80942
▁ler	-4.8349
▁ol	-4.8886
▁en	-4.91066
▁n	-4.91602
▁u	-4.91723
▁leri	-4.94284
▁ma	-4.96658
n	-5.00438
▁ın	-5.08283
▁nde	-5.08722
▁nı	-5.09627
▁m	-5.14173
▁bu	-5.23285
▁nin	-5.25277
▁ne	-5.27122
▁il	-5.30161
▁ni	-5.32319
▁ki	-5.35606
▁na	-5.47758
▁iç	-5.55286
▁ü	-5.56208
▁me	-5.58269
nın	-5.62812
▁li	-5.63807
▁yap	-5.68494
▁ya	-5.70722
▁ye	-5.71361
▁lı	-5.80378
▁ıl	-5.84087
▁lik	-5.89068
▁den	-5.96411
dığ	-5.97317
duğ	-6.01018
▁un	-6.01796
▁arak	-6.03507
▁al	-6.04573
▁nu	-6.05157
▁lık	-6.05395
▁yıl	-6.10888
▁diğ	-6.12706
▁dan	-6.14318
▁le	-6.19969
▁la	-6.20562
▁ce	-6.21639
▁yan	-6.25435
▁di	-6.30668
▁im	-6.31665
▁ed	-6.32941
▁su	-6.33958
▁mak	-6.34181
▁ön	-6.34739
▁"	-6.3499
▁t	-6.3664
▁yer	-6.38352
"	-6.40959
▁ara	-6.41016
▁te	-6.44828
▁çok	-6.45841
▁gel	-6.46613
▁ta	-6.47325
▁iş	-6.47352
▁(	-6.47874
ndan	-6.4887
▁ım	-6.49605
▁ver	-6.4967
▁gün	-6.50914
▁yla	-6.51296
▁“	-6.51814
:	-6.51986
▁cı	-6.53574
)	-6.53722
lığ	-6.54967
-	-6.54993
▁daha	-6.55799
▁et	-6.56838
k	-6.58526
▁sonra	-6.58945
”	-6.6007
i	-6.61472
▁lu	-6.61493
yle	-6.61692
▁başka	-6.64556
▁mek	-6.65348
▁geç	-6.65807
▁türkiye	-6.65868
tığ	-6.68015
▁bul	-6.68584
▁ci	-6.69748
▁o	-6.71055
liğ	-6.71234
▁üzer	-6.71776
▁büyük	-6.72399
▁yi	-6.72456
▁gör	-6.76279
▁-	-6.77975
▁is	-6.78216
▁çalış	-6.78467
▁son	-6.79509
nun	-6.79779
a	-6.79845
▁çık	-6.82994
▁ca	-6.83426
e	-6.85395
▁kendi	-6.85563
▁yeni	-6.86653
▁konu	-6.86738
imiz	-6.87124
▁dedi	-6.87402
▁gibi	-6.8822
▁ilk	-6.88509
▁cu	-6.9033
▁yüz	-6.90737
▁kadar	-6.9149
acak	-6.91524
tiğ	-6.91976
000	-6.92352
▁el	-6.92559
▁her	-6.92608
ımız	-6.95369
008	-6.96013
▁um	-6.96496
▁taraf	-6.97035
▁karşı	-6.99181
▁bin	-6.9926
▁kişi	-7.00881
▁yı	-7.02203
▁ay	-7.03474
▁sa	-7.04142
▁var	-7.04282
▁ar	-7.0501
▁ev	-7.06984
▁yol	-7.08903
▁biz	-7.09942
▁yen	-7.10809
▁yaşa	-7.11185
eceğ	-7.11818
▁iki	-7.1212
▁ülke	-7.12534
▁ama	-7.13005
▁ir	-7.13822
▁belediye	-7.13944
▁ecek	-7.14638
▁söyledi	-7.14942
▁maç	-7.18698
▁tan	-7.19242
▁zaman	-7.19524
▁bölge	-7.19546
acağ	-7.19596
▁bil	-7.19724
▁ben	-7.19965
▁kal	-7.21218
▁dünya	-7.21759
▁‘	-7.23119
▁ad	-7.23181
t	-7.234
▁özel	-7.23789
▁baş	-7.23902
▁türk	-7.24401
▁ifade	-7.24738
▁dı	-7.25034
▁siz	-7.27048
▁kullan	-7.27147
▁süre	-7.2731
▁dır	-7.29756
▁gerek	-7.302
▁bakan	-7.30265
▁alt	-7.30794
▁izmir	-7.31159
▁karar	-7.31301
▁iyi	-7.31593
▁erek	-7.32485
▁er	-7.32496
▁sıra	-7.33349
▁3	-7.33404
▁ilgili	-7.33441
▁orta	-7.34755
▁etti	-7.35545
m	-7.35789
▁genel	-7.36793
▁takım	-7.37293
?	-7.37312
▁ten	-7.38174
▁lan	-7.38978
▁başkan	-7.40074
▁önem	-7.40129
▁açıkla	-7.40268
▁iste	-7.40494
▁ancak	-7.40605
▁tir	-7.40718
▁2	-7.4095
miş	-7.42297
▁mış	-7.42398
▁insan	-7.42417
▁parti	-7.42452
▁k	-7.43122
▁ilçe	-7.43187
▁kadın	-7.43218
▁sayı	-7.433
▁olay	-7.44529
▁söz	-7.4553
▁ard	-7.45871
▁yaş	-7.46326
▁se	-7.47007
▁ün	-7.47448
dık	-7.47643
▁kat	-7.47711
▁milyon	-7.47905
▁gir	-7.47995
▁tarih	-7.4804
iyor	-7.48237
▁belir	-7.48387
▁merkez	-7.48396
▁devam	-7.48633
▁tüm	-7.4924
▁1	-7.49288
▁nü	-7.50018
▁dik	-7.50327
▁durum	-7.50527
▁istanbul	-7.51346
▁düzenle	-7.52042
▁dir	-7.52957
▁görev	-7.53217
▁müdür	-7.53607
▁oyun	-7.5503
▁devlet	-7.55334
▁r	-7.56967
▁değil	-7.57124
nden	-7.57654
▁çek	-7.58044
▁oldu	-7.59188
▁başla	-7.60207
▁ır	-7.6035
▁çocuk	-7.60754
da	-7.60789
▁kur	-7.61159
▁güven	-7.61587
▁art	-7.62249
▁konuştu	-7.62735
▁yardım	-7.62806
▁aç	-7.63284
▁yok	-7.63642
lar	-7.64715
ı	-7.64799
▁z	-7.65425
▁ul	-7.65724
▁bak	-7.65987
▁polis	-7.6654
▁at	-7.67292
;	-7.67314
▁4	-7.67531
▁luk	-7.67587
▁getir	-7.68004
▁çin	-7.68076
▁bugün	-7.6862
▁hayat	-7.68727
▁yönetim	-7.69569
▁eğitim	-7.69678
▁diğer	-7.69727
▁şey	-7.69743
▁sür	-7.70644
▁‘‘	-7.70941
▁film	-7.71752
▁kent	-7.71755
lüğ	-7.72306
▁aynı	-7.72766
▁futbol	-7.73083
▁5	-7.74299
s	-7.75326
ler	-7.75521
▁alan	-7.75572
▁sız	-7.76373
▁bilgi	-7.76541
▁ıp	-7.7658
▁aday	-7.77141
▁halk	-7.77436
r	-7.77461
▁üye	-7.77561
▁yakın	-7.77842
▁fark	-7.77893
▁hakkı	-7.78189
...	-7.78385
▁çi	-7.79066
▁ilişki	-7.79248
▁dış	-7.79347
▁nedeniyle	-7.79471
▁söyle	-7.79955
▁hafta	-7.80248
de	-7.81376
abil	-7.82383
▁böyle	-7.82544
▁üniversite	-7.8269
▁10	-7.83203
▁spor	-7.83557
▁ceza	-7.83606
▁başarı	-7.84051
in	-7.84164
▁hizmet	-7.85302
▁ayrı	-7.85311
▁tek	-7.85918
sı	-7.86114
▁daş	-7.86125
▁konuş	-7.86131
▁seçim	-7.86143
▁tır	-7.86205
▁dur	-7.86847
▁lü	-7.87033
▁sağ	-7.8733
▁dön	-7.87757
▁tur	-7.87893
▁aile	-7.87924
▁yaz	-7.88025
▁hem	-7.88098
▁saat	-7.88213
▁proje	-7.88285
▁düğ	-7.88489
▁sağla	-7.88631
▁hava	-7.88937
▁hastane	-7.8905
di	-7.89542
▁haber	-7.8958
▁öğrenci	-7.90054
▁oyna	-7.9008
▁eş	-7.90647
▁kurul	-7.91547
▁ül	-7.91667
▁göster	-7.918
▁anla	-7.91838
▁sahip	-7.92084
▁fazla	-7.92158
▁topla	-7.92388
▁vatan	-7.9246
▁eski	-7.92469
en	-7.92927
▁ıyor	-7.92955
▁şekil	-7.93243
▁duk	-7.93507
▁toplantı	-7.93606
▁dil	-7.94037
▁ankara	-7.94192
er	-7.94239
▁dür	-7.94973
▁genç	-7.95035
▁ip	-7.95318
▁avrupa	-7.9537
▁leş	-7.95639
▁gid	-7.96266
▁yüksek	-7.9631
▁bazı	-7.9641
▁miz	-7.9665
▁savaş	-7.96756
▁kız	-7.96972
▁dün	-7.97845
▁hak	-7.98052
luğ	-7.98302
▁ak	-7.98512
▁okul	-7.99379
▁düş	-7.99396
▁belirtti	-7.99467
▁sor	-7.99656
▁başbakan	-8.00043
▁sade	-8.00332
li	-8.00854
▁kazan	-8.01164
▁bura	-8.01461
ın	-8.01518
▁du	-8.01793
▁soru	-8.01885
▁geliş	-8.02145
▁cü	-8.02382
▁gazete	-8.02841
erek	-8.04067
ğ	-8.04317
▁lük	-8.04459
▁adam	-8.04768
▁kez	-8.05336
▁deniz	-8.05417
▁para	-8.05487
▁ziyaret	-8.05895
▁lig	-8.05921
▁güzel	-8.06588
▁ikinci	-8.06592
▁göz	-8.06625
▁abd	-8.0708
▁dönem	-8.07153
▁mahkeme	-8.07161
▁şu	-8.07183
▁len	-8.0755
▁uzun	-8.07902
▁üst	-8.08343
o	-8.0838
▁lira	-8.08685
▁bas	-8.09368
▁göre	-8.09681
▁oluş	-8.10397
▁mücadele	-8.10764
▁arkadaş	-8.10858
▁veya	-8.10875
▁destek	-8.11238
▁san	-8.11551
▁tık	-8.11823
▁on	-8.12093
si	-8.12123
b	-8.1226
▁sun	-8.12437
ği	-8.12446
▁dikkat	-8.12558
▁verdi	-8.12672
▁grup	-8.13111
▁gerçekleş	-8.13193
▁öl	-8.13336
▁milli	-8.13417
ma	-8.13806
▁teknik	-8.13973
▁sen	-8.14044
▁şöyle	-8.15103
▁zor	-8.15231
ya	-8.15546
▁gül	-8.15994
▁kim	-8.16188
▁ık	-8.16522
▁6	-8.16723
▁sezon	-8.16864
▁suriye	-8.17203
▁doğru	-8.18014
▁can	-8.18233
▁açık	-8.18255
▁şirket	-8.18503
ye	-8.18572
l	-8.19386
▁tı	-8.19419
▁iddia	-8.19645
▁sistem	-8.19927
▁ırak	-8.19947
ümüz	-8.20014
d	-8.20127
▁sü	-8.20472
▁yazı	-8.20526
▁saldırı	-8.20709
▁gece	-8.20908
▁7	-8.20952
an	-8.2099
▁20	-8.21063
▁suç	-8.21364
▁üç	-8.21575
▁açıklamada	-8.21737
▁ti	-8.21977
y	-8.21987
▁yara	-8.22356
▁dakika	-8.22496
▁ulaş	-8.22705
▁ali	-8.23128
▁meydan	-8.23457
▁köy	-8.23748
▁ekip	-8.23774
▁mehmet	-8.24112
▁kaynak	-8.2422
▁değiş	-8.24365
▁yaklaşık	-8.24748
▁şimdi	-8.25403
▁taşı	-8.25523
▁oy	-8.25838
▁geldi	-8.26911
▁bütün	-8.27244
p	-8.27261
▁araç	-8.27421
▁çevre	-8.27467
▁çı	-8.27545
laş	-8.28154
▁tür	-8.28572
▁milyar	-8.29069
▁git	-8.29089
▁bırak	-8.29207
▁boy	-8.29541
▁koru	-8.2989
!	-8.30182
▁hali	-8.30184
▁hareket	-8.30503
▁edildi	-8.3084
▁yu	-8.31058
te	-8.31359
bu	-8.3163
▁bekle	-8.319
▁hükümet	-8.32015
▁aldı	-8.32179
▁chp	-8.32387
z	-8.32456
▁tut	-8.32927
▁dava	-8.32955
▁mahalle	-8.33211
u	-8.33301
▁kabul	-8.33595
▁banka	-8.33749
▁ağır	-8.33789
▁baba	-8.33894
▁hiç	-8.33967
▁isim	-8.34025
yacağ	-8.34657
▁geri	-8.34668
▁başladı	-8.34806
▁yaptı	-8.3485
▁sonuç	-8.34948
▁örgüt	-8.35108
çok	-8.35237
▁operasyon	-8.353
▁hasta	-8.35879
▁*	-8.35989
▁dr	-8.36063
nün	-8.36148
/	-8.36149
▁mi	-8.3634
▁anne	-8.36564
şehir	-8.36744
▁silah	-8.36769
▁ora	-8.36771
▁kaza	-8.37001
▁tören	-8.37393
▁iz	-8.37613
▁değer	-8.37872
▁bölüm	-8.37888
▁bun	-8.37948
▁ürün	-8.38143
▁30	-8.38267
▁ça	-8.38453
▁araştır	-8.38577
▁g	-8.38883
▁ış	-8.3891
▁cumhuriyet	-8.38974
▁sonuc	-8.38974
▁terör	-8.39124
▁ur	-8.39353
▁askeri	-8.3956
ları	-8.39781
▁hedef	-8.39863
▁hazır	-8.39964
▁rağmen	-8.39986
▁mustafa	-8.4
▁puan	-8.40233
dir	-8.40353
▁az	-8.40489
lı	-8.40715
▁kaydetti	-8.41518
▁8	-8.41657
▁erdoğan	-8.41913
▁suz	-8.41967
▁kısa	-8.42093
▁kaç	-8.4218
▁oda	-8.42312
▁100	-8.42804
▁çıktı	-8.42878
▁grub	-8.42952
▁küçük	-8.4299
▁sınır	-8.43268
▁top	-8.43287
▁sanat	-8.43289
▁yarı	-8.43357
▁duy	-8.43379
▁görüş	-8.434
▁16	-8.43555
▁meclis	-8.43619
▁yetki	-8.43647
dı	-8.44121
▁üm	-8.44317
▁hiçbir	-8.44785
▁çe	-8.45316
▁öde	-8.4576
muş	-8.45762
▁saha	-8.46008
▁mız	-8.46201
yacak	-8.46683
me	-8.46999
▁program	-8.47153
▁fotoğraf	-8.47233
▁erkek	-8.47443
▁bina	-8.47514
▁dol	-8.47596
▁bağlı	-8.47916
▁kapsam	-8.47954
▁d	-8.48034
un	-8.48296
▁gerçek	-8.48851
sel	-8.4902
▁kültür	-8.49164
▁herkes	-8.49307
▁gönder	-8.49474
▁uluslarara	-8.49663
▁güç	-8.49691
▁ait	-8.49727
▁savun	-8.50092
▁tam	-8.50321
▁emniyet	-8.50615
▁yürü	-8.50996
▁yoğun	-8.51234
▁lider	-8.51367
▁sorun	-8.51783
▁seç	-8.51792
▁bulundu	-8.51845
▁sosyal	-8.51915
▁sat	-8.52054
yerek	-8.52179
▁neden	-8.52205
▁temsil	-8.52265
▁asker	-8.52279
▁transfer	-8.52364
▁ortak	-8.52488
▁yat	-8.53032
▁hız	-8.53113
▁oku	-8.53158
▁dolar	-8.53422
▁kapı	-8.53668
la	-8.54255
▁vali	-8.54273
iniz	-8.54313
▁ses	-8.54321
▁düşün	-8.55345
▁belirtildi	-8.55381
▁izle	-8.55853
▁yapı	-8.55947
▁içeri	-8.55965
▁ticaret	-8.56775
▁15	-8.57027
▁12	-8.57176
▁şampiyon	-8.57379
▁hep	-8.57746
▁vergi	-8.57945
▁uygulama	-8.57966
▁kes	-8.5804
▁ödül	-8.58159
▁sanayi	-8.58183
▁kar	-8.5821
▁yıldız	-8.58213
▁sev	-8.58238
▁up	-8.58279
ınız	-8.58385
▁yasa	-8.58602
ebil	-8.5861
▁ünlü	-8.59048
▁akşam	-8.59064
▁nasıl	-8.59084
▁otur	-8.59142
▁üretim	-8.5919
▁mutlu	-8.59306
▁tedavi	-8.59346
▁hale	-8.59523
▁nokta	-8.59628
▁yön	-8.59634
▁tik	-8.59655
▁beşiktaş	-8.59891
▁koy	-8.60102
),	-8.60118
▁yönelik	-8.60462
▁engel	-8.60477
▁çeşit	-8.60505
▁plan	-8.6052
▁pazar	-8.60715
▁firma	-8.60716
▁öğren	-8.60861
▁hazırla	-8.60994
▁kan	-8.61176
▁olacak	-8.61492
▁niz	-8.61693
▁s	-8.61707
▁milletvekili	-8.6172
▁fiyat	-8.62094
aa	-8.62146
."	-8.62535
▁ilgi	-8.62578
▁madde	-8.6282
▁şubat	-8.63112
▁bit	-8.636
▁görüşme	-8.63621
leri	-8.63756
▁b	-8.64755
▁incele	-8.64758
▁belirle	-8.65016
umuz	-8.6538
▁çünkü	-8.65558
▁mı	-8.65589
▁ban	-8.65617
▁satış	-8.65715
▁tanı	-8.65803
▁direktör	-8.66224
nin	-8.66713
▁kuru	-8.669
▁ölüm	-8.66918
▁üş	-8.67149
▁say	-8.67211
▁gözaltı	-8.67329
▁yayın	-8.67478
▁karşılaş	-8.67741
▁9	-8.68707
▁mart	-8.68757
dır	-8.6905
▁galatasaray	-8.6915
▁ordu	-8.69299
▁bildirildi	-8.69414
▁sektör	-8.69467
▁kardeş	-8.69586
▁eylem	-8.69744
▁toplum	-8.69842
▁derece	-8.70202
▁tartış	-8.70912
▁otomobil	-8.71146
▁ahmet	-8.71373
▁ek	-8.71619
▁hukuk	-8.71979
▁ediyor	-8.72148
arak	-8.72153
▁almanya	-8.72161
▁nız	-8.72955
▁şunlar	-8.73151
▁tepki	-8.7316
▁sabah	-8.73646
▁siyasi	-8.73669
▁yaban	-8.73693
▁zarar	-8.74059
▁olimpiyat	-8.74075
▁bildirdi	-8.74255
▁terörist	-8.74537
▁kuzey	-8.74922
▁işbirliği	-8.75288
▁site	-8.7576
▁kin	-8.75846
▁sık	-8.76152
'	-8.76829
▁park	-8.76981
▁yani	-8.77199
▁sahne	-8.77557
▁şube	-8.77594
▁sarı	-8.77634
▁turizm	-8.77746
▁ekonomi	-8.77812
▁prof	-8.77915
▁telefon	-8.78112
▁fenerbahçe	-8.7816
▁ekonomik	-8.78211
▁açıkladı	-8.78462
▁ik	-8.78512
▁kapa	-8.78907
▁oğl	-8.79183
ik	-8.79412
▁bi	-8.79629
▁sahib	-8.79648
▁salon	-8.79672
▁eylül	-8.79729
at	-8.79805
▁uz	-8.8017
▁metre	-8.80259
▁dolayı	-8.8031
ta	-8.80526
ne	-8.80607
▁şekl	-8.80659
▁inan	-8.81008
ş	-8.81103
▁güney	-8.81176
▁china	-8.81525
▁sevgi	-8.81566
▁ab	-8.81814
▁hat	-8.81966
▁tamam	-8.81975
▁öğretmen	-8.82066
g	-8.82785
▁piyasa	-8.82877
▁hal	-8.8288
▁mu	-8.83689
▁dışişleri	-8.83849
▁kupa	-8.83949
▁uygula	-8.84053
▁katkı	-8.84202
▁etki	-8.84407
▁25	-8.84571
▁gol	-8.84601
▁anlam	-8.84705
▁yüksel	-8.84764
▁izin	-8.84806
▁uygun	-8.84807
▁belirt	-8.84905
▁çift	-8.84996
▁kara	-8.85097
▁patla	-8.85153
▁y	-8.85187
.”	-8.85234
▁soruşturma	-8.85306
▁ayrıl	-8.85431
yeceğ	-8.85772
▁50	-8.86002
yecek	-8.86121
▁katıldı	-8.86199
▁sokak	-8.87201
▁beraber	-8.87664
▁yarat	-8.87799
▁kuruluş	-8.87894
▁pek	-8.88174
▁taraftar	-8.88248
▁tl	-8.88717
▁serbest	-8.88761
▁bayram	-8.88944
▁kanun	-8.89164
▁açı	-8.89425
▁beijing	-8.89694
▁şehir	-8.89949
▁ız	-8.90029
▁kayded	-8.90083
▁ba	-8.90376
▁rapor	-8.90417
▁sıkıntı	-8.90619
▁cumhurbaşkanı	-8.90664
▁kadro	-8.90697
▁asl	-8.90716
▁kulüp	-8.90745
▁kötü	-8.90745
▁oran	-8.90846
▁antalya	-8.91213
▁imza	-8.91487
▁doğ	-8.91614
▁faaliyet	-8.91623
▁kitap	-8.91637
▁kolay	-8.91726
▁atatürk	-8.91815
▁14	-8.91893
▁sav	-8.92115
▁tespit	-8.92188
▁bilim	-8.92253
ü	-8.92301
▁hemen	-8.92306
▁uzman	-8.92318
▁servis	-8.92377
▁sürü	-8.92525
▁h	-8.92557
▁aydın	-8.92577
▁komutan	-8.93044
et	-8.93075
le	-8.93168
▁mayıs	-8.93249
▁büyü	-8.93522
▁millet	-8.93526
▁tesis	-8.93883
▁çözüm	-8.9426
▁iran	-8.9437
▁f	-8.94474
dan	-8.94742
▁gın	-8.94915
▁rusya	-8.94988
▁müdahale	-8.95256
▁yaşam	-8.95321
▁yarak	-8.95638
▁ateş	-8.95775
▁temmuz	-8.95846
▁arka	-8.96025
▁şarkı	-8.96278
▁19	-8.96468
▁kriz	-8.96496
▁enerji	-8.96523
▁çocuğ	-8.96813
▁ileri	-8.96822
lu	-8.96936
▁öz	-8.96974
▁gemi	-8.96984
▁görüntü	-8.97177
▁bulunuyor	-8.97465
▁politika	-8.97818
▁ücret	-8.97922
▁resm	-8.9799
▁zaten	-8.98013
▁haziran	-8.98036
▁internet	-8.98129
▁teklif	-8.98381
▁tamamla	-8.98425
▁yemek	-8.98529
▁anayasa	-8.98563
▁çekti	-8.98628
den	-8.98839
▁bel	-8.98969
▁teşekkür	-8.99143
oğlu	-8.99196
▁biraz	-8.99304
▁kafa	-8.99329
▁doğu	-8.99552
▁birinci	-8.99659
▁barış	-8.99838
▁jandarma	-9.0017
▁dört	-9.0025
▁dağ	-9.00419
▁17	-9.00597
▁sivil	-9.0078
▁18	-9.00821
▁ince	-9.01295
▁parça	-9.01311
▁talep	-9.01327
bil	-9.01436
▁uçak	-9.01777
▁kurtar	-9.01836
▁toprak	-9.01866
▁tekrar	-9.01964
▁anadolu	-9.02373
▁saatler	-9.0248
▁istedi	-9.02491
▁kır	-9.02517
▁yarış	-9.0252
▁vurgula	-9.02767
▁derneğ	-9.03175
▁ihale	-9.03299
▁kredi	-9.03642
▁11	-9.03714
▁şehit	-9.03761
▁kamp	-9.04011
hangi	-9.04195
öğretim	-9.04248
▁dü	-9.04562
▁müzik	-9.04727
▁doğum	-9.04782
▁kale	-9.05006
▁gündem	-9.05031
▁euro	-9.05314
▁işlem	-9.05554
▁tehlike	-9.05576
▁13	-9.05598
▁götür	-9.05613
▁kuvvet	-9.05754
▁teknoloji	-9.05957
▁temel	-9.06076
▁kart	-9.06117
▁uyor	-9.06361
▁federasyon	-9.06471
▁yorum	-9.06771
spor	-9.06931
h	-9.06963
▁mesaj	-9.0756
▁cadde	-9.07606
c	-9.07621
▁ihracat	-9.07661
▁şiddet	-9.07707
na	-9.07783
▁kulübü	-9.07843
▁40	-9.07864
▁özgür	-9.07867
▁için	-9.07883
▁dinle	-9.07909
▁başkent	-9.08129
▁getirdi	-9.08229
▁batı	-9.0823
▁sevk	-9.08442
ıcı	-9.08479
▁uyarı	-9.08517
ce	-9.08576
▁ciddi	-9.08811
▁liste	-9.08837
▁ingiliz	-9.08873
▁karşıyaka	-9.08966
al	-9.09118
▁amaç	-9.09144
▁yönetici	-9.09289
▁yıp	-9.09391
▁itibaren	-9.09455
▁fuar	-9.09506
yi	-9.09751
▁mal	-9.09752
▁amerika	-9.09768
▁işaret	-9.0988
▁birbir	-9.10012
▁sınıf	-9.10019
▁aşk	-9.10032
ir	-9.10095
▁belli	-9.10465
▁bey	-9.10977
▁artış	-9.11171
▁seviye	-9.11193
▁kimse	-9.11456
▁uzak	-9.11791
▁ocak	-9.11865
▁verildi	-9.11943
▁olur	-9.12055
▁demir	-9.12145
ca	-9.12254
▁kulüb	-9.12329
▁dağıt	-9.12441
▁the	-9.12555
▁güçlü	-9.12657
▁orman	-9.12718
yor	-9.12884
▁kontrol	-9.12884
ün	-9.12912
▁tarım	-9.13245
ç	-9.13337
▁otel	-9.13338
▁hayvan	-9.13357
▁fransa	-9.13842
▁açılış	-9.14265
▁taş	-9.14415
▁büyükelçi	-9.14438
▁ağustos	-9.14481
▁ingiltere	-9.14557
▁ekib	-9.14769
▁alındı	-9.1506
▁yapıldı	-9.15074
▁hasan	-9.15116
▁beş	-9.152
cı	-9.15266
▁ici	-9.15689
▁teslim	-9.15718
▁trafik	-9.15731
▁hüseyin	-9.15765
▁dahil	-9.15785
▁murat	-9.15794
▁televizyon	-9.15818
▁abdnin	-9.16007
▁yanlış	-9.16491
▁elektrik	-9.16584
▁gösteri	-9.16897
▁dizi	-9.17035
ar	-9.17069
▁siyaset	-9.17093
▁kay	-9.17193
▁basketbol	-9.17396
▁birkaç	-9.18239
terek	-9.18543
▁yatırım	-9.18615
▁baskı	-9.19039
▁amerikan	-9.19062
▁vur	-9.19111
▁belge	-9.19117
▁nisan	-9.19211
▁israil	-9.19222
▁yerel	-9.19368
▁desteğ	-9.1951
▁personel	-9.19662
▁kayıt	-9.19713
üyor	-9.19762
▁takip	-9.20374
▁sağlık	-9.20445
▁28	-9.20462
▁ür	-9.20849
▁istiyoruz	-9.21045
▁fakülte	-9.21047
▁arac	-9.21157
▁ise	-9.2117
▁avukat	-9.21204
▁veri	-9.21264
▁öyle	-9.21289
▁sert	-9.21426
▁kesim	-9.21576
▁üçüncü	-9.21726
▁lise	-9.21798
iş	-9.21859
▁saye	-9.2212
▁boz	-9.22158
du	-9.22163
▁24	-9.22291
el	-9.22357
▁renk	-9.22404
▁kilometre	-9.22415
▁inşaat	-9.22449
▁kemal	-9.22493
▁düzey	-9.22637
▁eser	-9.22803
▁komisyon	-9.22832
C	-9.23146
▁numara	-9.2324
yse	-9.23316
▁şart	-9.23475
▁erke	-9.23616
▁giy	-9.23897
▁yarın	-9.23915
▁şüphe	-9.23919
▁22	-9.24098
▁yeşil	-9.24178
▁model	-9.24469
▁konser	-9.24536
▁all	-9.24539
▁öte	-9.2457
▁kanser	-9.25095
▁kasım	-9.25232
lik	-9.25256
▁acı	-9.253
▁defa	-9.25316
▁ders	-9.25421
▁kamu	-9.25492
▁acil	-9.25507
▁sıcak	-9.25536
▁ayak	-9.25628
▁beri	-9.25951
▁önle	-9.26078
▁adalet	-9.26209
▁yurt	-9.26371
ki	-9.26594
▁galibiyet	-9.26643
▁henüz	-9.26702
▁fakat	-9.26822
sal	-9.27002
▁imkan	-9.27141
▁nere	-9.27386
▁uş	-9.27395
iz	-9.27538
▁pkk	-9.27577
▁ulusal	-9.27611
▁duygu	-9.27652
▁olan	-9.27744
▁davet	-9.2788
▁çalışan	-9.27923
▁güc	-9.28008
▁idare	-9.2819
ınca	-9.28229
▁yalnız	-9.28253
ti	-9.28411
▁ka	-9.28802
▁vurguladı	-9.28913
▁saygı	-9.29251
▁tercih	-9.29391
▁ytl	-9.29476
▁ibrahim	-9.29481
▁ilerle	-9.29673
▁faiz	-9.3013
▁risk	-9.30393
▁500	-9.30479
sa	-9.30504
▁başvuru	-9.30688
▁tuğ	-9.30694
▁otobüs	-9.31069
▁abdullah	-9.31142
▁eğ	-9.3119
▁mısır	-9.31194
▁hapis	-9.31545
▁kaybet	-9.31612
▁ege	-9.3165
▁ihtiyaç	-9.31888
▁köprü	-9.31949
▁gelir	-9.31974
▁ışid	-9.32014
▁geçti	-9.32197
▁örnek	-9.32338
▁gezi	-9.32555
▁hata	-9.3257
▁çerçeve	-9.32602
▁kap	-9.32618
ni	-9.32757
▁akp	-9.32813
▁çaba	-9.32848
▁2.	-9.33112
▁ism	-9.33175
▁unut	-9.3323
▁doğal	-9.33473
2	-9.33532
▁c	-9.33903
▁miktar	-9.34075
dha	-9.34673
▁tu	-9.34689
▁bomba	-9.34994
▁doktor	-9.35042
▁yaka	-9.35079
▁kaldı	-9.35122
▁geniş	-9.35146
▁şahin	-9.35219
▁yılmaz	-9.3523
▁zirve	-9.35292
man	-9.35352
▁trilyon	-9.35389
▁malzeme	-9.35737
▁meslek	-9.35865
▁merak	-9.35902
▁deprem	-9.36374
▁hesap	-9.36396
▁hatırla	-9.36567
▁adet	-9.3662
▁medya	-9.3663
▁kesin	-9.36636
▁vardır	-9.36739
▁iktidar	-9.37312
▁cenaze	-9.37444
▁bilgisayar	-9.3745
▁hepsi	-9.37607
▁turist	-9.37786
▁kullandı	-9.37887
▁boş	-9.38003
▁turnuva	-9.38075
▁sol	-9.38289
▁daire	-9.3835
▁not	-9.38409
▁vardı	-9.3845
A	-9.38487
▁duruşma	-9.38506
▁güneş	-9.38667
▁hayır	-9.38823
▁heyet	-9.38836
▁yıldırım	-9.38932
▁ömer	-9.38957
▁recep	-9.38984
▁üre	-9.39007
▁fatih	-9.3905
▁new	-9.3912
▁islam	-9.39318
▁biri	-9.39786
tüğ	-9.39788
▁as	-9.39797
▁yanıt	-9.398
mıştır	-9.39927
▁kol	-9.40028
▁yarışma	-9.40065
▁sin	-9.40129
▁aziz	-9.40208
▁200	-9.40278
▁taban	-9.40283
▁dost	-9.40349
▁dük	-9.40388
’	-9.40476
▁ihtiyac	-9.40503
▁katılım	-9.40627
▁uğra	-9.40675
▁düşük	-9.40702
▁şans	-9.40854
▁araba	-9.4094
▁cuma	-9.41043
▁gösterdi	-9.41362
▁sefer	-9.4139
▁paris	-9.41466
▁paket	-9.41757
ında	-9.41802
▁beyaz	-9.41896
▁tbmm	-9.42451
▁kısm	-9.42469
▁muhabir	-9.42519
▁basın	-9.42565
▁gizli	-9.42589
▁bağlantı	-9.42941
▁oluyor	-9.43059
▁rese	-9.43136
▁tatil	-9.43165
▁ismail	-9.43209
▁sınav	-9.43211
▁27	-9.43271
▁hır	-9.43335
▁kanal	-9.4339
▁performans	-9.43462
▁hangi	-9.43859
tir	-9.43925
▁mümkün	-9.43951
▁diyarbakır	-9.44008
▁masa	-9.44038
▁yönet	-9.44135
▁esnaf	-9.44413
▁gerekiyor	-9.44489
▁kon	-9.44554
▁saç	-9.44833
▁plaka	-9.44862
▁tıp	-9.44901
▁ha	-9.44922
▁demokrasi	-9.44978
▁darbe	-9.45012
▁rakam	-9.45133
ederek	-9.45481
▁çal	-9.45513
▁değerlen	-9.45516
▁tahmin	-9.45557
ip	-9.45616
▁yöntem	-9.45652
▁geliyor	-9.45778
▁istifa	-9.45809
▁anlattı	-9.45855
kü	-9.4598
▁yakala	-9.46162
▁for	-9.46397
▁kitab	-9.46459
▁paylaş	-9.46497
▁kamera	-9.46553
oğ	-9.46798
▁olsun	-9.46799
▁çağ	-9.46887
▁gerekçesi	-9.46971
▁sal	-9.47079
▁tak	-9.4723
rken	-9.47431
▁cevap	-9.47512
▁road	-9.47541
▁şampiyona	-9.4785
▁ışık	-9.47859
▁müş	-9.47928
▁tabii	-9.47946
on	-9.47956
▁23	-9.47968
▁eksik	-9.47994
▁onur	-9.47994
bkz	-9.48341
▁cinayet	-9.48414
▁bağla	-9.48474
▁cami	-9.48535
yış	-9.48663
▁tutuk	-9.48707
▁kaymakam	-9.49025
▁eyalet	-9.49068
▁yağış	-9.49198
▁kamuoyu	-9.49241
▁sayfa	-9.49264
▁mevcut	-9.49329
▁bal	-9.49564
▁rus	-9.49585
se	-9.49599
▁çağrı	-9.49623
▁sürek	-9.49762
▁kaydedildi	-9.49775
▁60	-9.49841
▁allah	-9.49925
▁olarak	-9.50008
▁şehr	-9.50022
f	-9.5004
▁çıkar	-9.50117
▁kongre	-9.50201
▁uza	-9.50219
▁bursa	-9.50235
▁bülen	-9.50241
RI	-9.50318
▁kapalı	-9.50437
▁tane	-9.5053
▁çöz	-9.50572
▁kırmızı	-9.50666
▁normal	-9.50908
▁şikayet	-9.50947
▁ilaç	-9.50989
▁kampanya	-9.51044
rights	-9.51066
▁radio	-9.51068
International	-9.51069
▁anlaşma	-9.51167
▁kilo	-9.51184
▁işletme	-9.51304
▁yetiş	-9.51366
▁yargı	-9.51401
▁karış	-9.51432
▁harca	-9.51559
▁hesab	-9.5191
▁uyuşturucu	-9.51994
rved	-9.51995
▁kalk	-9.52316
com	-9.52389
▁muz	-9.5242
▁süreç	-9.52921
▁tayyip	-9.52952
ildi	-9.53112
▁gaziantep	-9.53151
▁2013	-9.5333
▁konferans	-9.53353
▁av	-9.53426
▁karşıla	-9.5346
▁osman	-9.53523
▁tip	-9.53582
▁destekle	-9.53646
▁olabilir	-9.53763
▁çetin	-9.53784
▁alıyor	-9.53823
▁2012	-9.53827
▁konsey	-9.53892
▁emekli	-9.53894
▁benze	-9.54139
▁girişim	-9.54282
▁memur	-9.54487
▁kalite	-9.54522
▁net	-9.54602
▁hoca	-9.54604
▁uçağ	-9.54705
▁sar	-9.54768
▁din	-9.54793
▁tehdit	-9.54886
▁belde	-9.54893
▁sinema	-9.54895
▁bornova	-9.55043
yip	-9.55114
▁geçmiş	-9.55256
su	-9.55355
▁ist	-9.55497
saray	-9.55523
▁devre	-9.5559
iyet	-9.55715
▁koşul	-9.55759
ö	-9.55811
▁kurban	-9.55812
▁lazım	-9.55815
▁trabzonspor	-9.55816
▁hakim	-9.55839
▁marka	-9.55847
▁2014	-9.5585
ken	-9.55968
▁hisse	-9.5598
▁siyah	-9.5603
▁bol	-9.56175
▁ekipleri	-9.56249
▁bahçe	-9.56298
▁kural	-9.56397
▁21	-9.56425
▁kurtul	-9.56471
▁tabi	-9.56589
yici	-9.56649
▁falan	-9.56697
▁itiraz	-9.56757
▁kırsal	-9.56795
▁emin	-9.56806
▁protesto	-9.56817
▁gram	-9.57024
▁rekor	-9.57051
▁rahat	-9.57096
im	-9.57125
▁çarp	-9.57152
▁uy	-9.57538
▁fransız	-9.57737
▁olası	-9.57738
▁dolayısıyla	-9.57742
▁rakip	-9.57881
▁olduğunu	-9.57903
▁gaz	-9.57997
▁of	-9.58054
▁ağaç	-9.58327
▁sakat	-9.58375
▁fırsat	-9.58624
▁nüfus	-9.58691
▁istiyorum	-9.58733
▁mali	-9.58824
▁adana	-9.58919
▁kurs	-9.59003
▁kaybed	-9.59096
▁ton	-9.59167
▁kazandı	-9.5966
▁londra	-9.59727
▁adliye	-9.59746
▁saray	-9.59826
▁test	-9.5984
▁rol	-9.60019
▁ilan	-9.60206
▁hafif	-9.60211
can	-9.60368
▁yazar	-9.60446
▁akl	-9.60454
▁görün	-9.60605
▁edecek	-9.60721
ay	-9.60744
▁deplasman	-9.60802
▁değerlendirme	-9.61108
▁asıl	-9.61125
▁mü	-9.61157
▁çiçek	-9.61264
▁ayrıca	-9.61611
▁aş	-9.61718
▁makam	-9.61842
▁edin	-9.61902
ci	-9.61966
▁yunanistan	-9.62079
▁italya	-9.6211
▁süper	-9.62145
▁fabrika	-9.62211
▁huzur	-9.62284
▁26	-9.62292
ndı	-9.6236
um	-9.62677
▁motor	-9.62786
▁gönül	-9.62903
▁süt	-9.63095
▁aktar	-9.63278
▁1.	-9.6337
040	-9.63646
▁deri	-9.63705
▁temas	-9.63738
▁çay	-9.63832
▁albüm	-9.63838
uz	-9.63847
▁york	-9.63888
▁ediyorum	-9.63907
▁borsa	-9.64014
▁yaralandı	-9.64069
ecek	-9.64182
▁bm	-9.64286
ka	-9.64311
▁taleb	-9.64435
▁pay	-9.6444
▁sekreter	-9.64483
▁petrol	-9.64554
▁azal	-9.64587
▁kenar	-9.64898
▁kavga	-9.64908
▁kaya	-9.6501
▁organiz	-9.65023
▁müşteri	-9.65038
▁öneri	-9.65044
ydi	-9.65106
ek	-9.65164
▁yor	-9.65211
▁ikili	-9.65298
▁35	-9.65521
▁konuk	-9.65632
ge	-9.65719
▁çoğu	-9.65724
v	-9.65899
▁dergi	-9.65923
▁reform	-9.65947
▁şiir	-9.65962
▁dışarı	-9.66167
▁dair	-9.66551
▁yük	-9.6668
▁van	-9.66747
▁kıyı	-9.66963
▁ihbar	-9.67022
▁füze	-9.67022
▁belirlendi	-9.67043
▁sebep	-9.67047
▁halde	-9.67068
▁maddi	-9.67181
▁üretici	-9.67208
▁tv	-9.67285
▁organizasyon	-9.67314
▁70	-9.67406
▁liman	-9.67539
▁gitti	-9.6761
▁komite	-9.67741
▁ada	-9.6778
▁asya	-9.67852
▁doğa	-9.68016
▁buluş	-9.68082
▁zengin	-9.68082
▁filistin	-9.6811
▁itfaiye	-9.68134
▁takdir	-9.68146
3	-9.68171
▁hediye	-9.682
▁tiyatro	-9.68268
ünce	-9.68276
▁mağaza	-9.68779
▁fayda	-9.6879
ak	-9.68799
▁2005	-9.68802
▁biçim	-9.69169
▁gıda	-9.69209
▁müslüman	-9.69234
▁ümit	-9.69386
▁teşkilat	-9.69436
▁eşit	-9.69457
▁3.	-9.69868
▁sürdü	-9.6987
es	-9.70239
▁reklam	-9.70376
▁sermaye	-9.7039
▁cinsel	-9.70843
▁cam	-9.70881
▁çiz	-9.70892
▁abdde	-9.71035
▁hakem	-9.71141
▁uç	-9.71313
▁bağımsız	-9.71465
▁mutlaka	-9.7149
▁vade	-9.71491
▁cezaevi	-9.71539
▁afganistan	-9.71551
▁bebek	-9.71621
▁heyecan	-9.72083
inde	-9.72167
▁girdi	-9.72286
▁rahatsız	-9.72305
▁dönüş	-9.72316
▁ölü	-9.72323
▁gereğ	-9.72347
▁dolu	-9.72384
▁gider	-9.72517
▁planla	-9.72589
▁istikrar	-9.72638
▁akıl	-9.72664
▁bütçe	-9.72669
5	-9.72761
▁gen	-9.72839
dur	-9.72954
▁korku	-9.73351
▁seyir	-9.73592
▁umut	-9.73648
tepe	-9.73651
▁buldu	-9.73714
▁cumartesi	-9.73757
▁edebiyat	-9.73763
▁yargılan	-9.73829
▁denetim	-9.73866
▁diyor	-9.73872
▁kürt	-9.74255
▁veriyor	-9.74396
S	-9.74656
▁zan	-9.74756
▁tasarı	-9.74783
▁gez	-9.74789
▁önlem	-9.74793
▁hanım	-9.74902
▁gun	-9.75019
▁devrim	-9.75048
▁finans	-9.75137
▁malı	-9.75166
▁bilet	-9.75193
▁ediliyor	-9.75275
▁yaklaş	-9.75348
▁aşama	-9.75505
▁yağ	-9.7578
▁sözleşme	-9.76114
▁başvur	-9.76379
▁ham	-9.76501
▁iptal	-9.76537
▁etkile	-9.76731
bahçe	-9.76799
lık	-9.76813
ri	-9.77016
lerce	-9.77203
▁ameliyat	-9.77258
▁tahliye	-9.7726
▁temiz	-9.77274
▁ramazan	-9.77286
▁antrenman	-9.77286
ydı	-9.77329
▁şoför	-9.77352
▁ticari	-9.77383
▁ayağ	-9.77412
▁selçuk	-9.7742
▁80	-9.7757
▁ucu	-9.77903
▁soy	-9.78116
1	-9.7819
▁kariyer	-9.78378
▁inşa	-9.78495
▁muğla	-9.78497
▁alışveriş	-9.78513
▁ambulans	-9.78631
▁metin	-9.78692
▁iletişim	-9.78723
▁beklenti	-9.78834
▁yararlan	-9.78857
▁sigara	-9.78943
▁dal	-9.79357
▁yalçın	-9.79386
▁akdeniz	-9.79714
▁yüzyıl	-9.79766
▁değildir	-9.79914
▁dans	-9.80084
▁mühendis	-9.80818
▁mensup	-9.80836
▁uyum	-9.80881
▁aykırı	-9.80918
▁karadeniz	-9.80918
▁fikir	-9.80919
▁hikaye	-9.80933
▁bekleniyor	-9.80936
▁daya	-9.80951
▁baykal	-9.80952
▁heykel	-9.81029
▁konya	-9.81045
▁kıbrıs	-9.81097
▁muhalefet	-9.81102
▁miras	-9.81175
▁dev	-9.81262
ıyor	-9.81424
asyon	-9.81453
▁kamyon	-9.81466
▁ysa	-9.81514
▁vekil	-9.81577
▁nite	-9.81684
▁/	-9.81786
▁üz	-9.81898
4	-9.81921
aj	-9.82093
▁aşağı	-9.82136
▁kayseri	-9.82167
▁makine	-9.82193
▁ortalama	-9.82203
▁yapılacak	-9.82211
yıcı	-9.82215
▁trafiğ	-9.82216
ıp	-9.82359
▁ilgilen	-9.82384
▁müzakere	-9.82482
▁2004	-9.82524
▁yönetme	-9.82611
▁kral	-9.82627
▁kış	-9.82677
▁sın	-9.83026
▁kira	-9.83107
▁bedel	-9.8321
tır	-9.83211
türk	-9.83261
▁pozisyon	-9.8333
▁strateji	-9.83422
il	-9.83446
▁engelle	-9.83457
▁pazartesi	-9.83463
▁cihaz	-9.83465
ılıçdaroğ	-9.83478
ör	-9.83479
▁sahil	-9.83546
▁arazi	-9.8357
▁civar	-9.83826
▁ağrı	-9.84136
▁maaş	-9.84145
ist	-9.84173
▁300	-9.84186
▁cep	-9.84247
E	-9.84263
▁eleştir	-9.84388
bir	-9.84501
▁kılıç	-9.84615
▁yeter	-9.84678
▁bayrak	-9.84692
▁havalimanı	-9.84715
▁ilginç	-9.84783
▁saniye	-9.84822
▁demokratik	-9.85122
▁galeri	-9.85229
▁namaz	-9.85245
▁yık	-9.85306
▁komşu	-9.8557
▁aslan	-9.85703
▁bağış	-9.85862
▁antrenör	-9.85997
▁45	-9.85999
▁29	-9.86007
▁endeks	-9.86011
www	-9.86012
://	-9.86012
▁koca	-9.86013
▁duvar	-9.86019
▁tecavüz	-9.86096
▁hürriyet	-9.8615
▁brezilya	-9.86204
mektedir	-9.8622
▁john	-9.8627
ve	-9.86481
▁forma	-9.86544
yarak	-9.86554
▁konak	-9.86855
▁tutar	-9.86894
▁amac	-9.86903
▁ruh	-9.86991
▁90	-9.87021
▁çatışma	-9.87125
▁yet	-9.87253
▁düşünce	-9.87257
▁göç	-9.87306
▁tüketici	-9.8733
▁ediyoruz	-9.87417
▁emre	-9.87543
▁yürütül	-9.87584
▁cem	-9.87614
▁yay	-9.87807
▁danışman	-9.88099
▁enflasyon	-9.88146
▁seri	-9.88155
han	-9.88185
▁artık	-9.88239
▁peş	-9.88477
ine	-9.88489
▁afrika	-9.88754
▁öğrenil	-9.88779
▁tenis	-9.88782
▁başar	-9.88965
▁bodrum	-9.8897
▁ölçü	-9.8912
to	-9.89122
▁tanık	-9.89151
▁tekne	-9.89229
▁uyar	-9.89229
▁ş	-9.89591
▁borç	-9.89604
▁maden	-9.8967
▁tanıtım	-9.89952
▁öztürk	-9.90028
▁japonya	-9.90029
▁çap	-9.90129
is	-9.90135
▁sendika	-9.90179
▁dikkati	-9.90294
▁süleyman	-9.9034
▁kapasite	-9.90571
▁birim	-9.90709
▁imam	-9.90786
▁v	-9.91021
son	-9.91025
▁mezar	-9.91061
▁2008	-9.91101
kan	-9.91363
▁sohbet	-9.91365
▁kutla	-9.9137
▁doğrultu	-9.91386
▁özdemir	-9.91388
▁parlamento	-9.9147
▁rekabet	-9.91471
▁dalga	-9.91515
▁şeker	-9.91519
▁2007	-9.91559
▁kültürel	-9.91686
urtdışı	-9.91854
▁konut	-9.92029
▁31	-9.92155
▁depo	-9.92303
▁hayal	-9.9234
yınca	-9.92396
▁2006	-9.92508
▁yaşandı	-9.92725
genelkurmay	-9.92773
▁kategori	-9.92773
▁eğlence	-9.92778
▁ruhsat	-9.92808
ing	-9.9281
▁gökhan	-9.9281
st	-9.92847
doğu	-9.92939
mi	-9.93024
türkiye	-9.93041
▁uğur	-9.93125
▁zafer	-9.93165
maktadır	-9.93302
▁şen	-9.93418
ngshan	-9.93572
▁sh	-9.93706
▁çeşme	-9.9385
lan	-9.93906
yla	-9.94084
▁semt	-9.94149
▁başsavcı	-9.94176
egedesons	-9.9418
▁madalya	-9.9418
▁bünye	-9.94181
▁ardından	-9.94185
▁tahsis	-9.94186
▁helikopter	-9.94214
▁değin	-9.94222
▁tren	-9.9426
▁duman	-9.94306
▁bayan	-9.94309
▁yeterli	-9.94364
▁kaybetti	-9.94478
▁rum	-9.94548
▁karakter	-9.94551
▁bağ	-9.9458
▁şam	-9.94691
▁sürüyor	-9.94719
▁p	-9.9476
▁sergi	-9.9491
▁rektör	-9.94964
yiz	-9.94997
▁yim	-9.95103
▁mekan	-9.95103
it	-9.95235
▁ter	-9.95245
▁saatte	-9.95359
▁itibari	-9.95488
▁denge	-9.95508
dim	-9.95576
▁mahkum	-9.95614
▁istasyon	-9.95623
▁müze	-9.95632
▁sürpriz	-9.95646
▁trabzon	-9.95689
▁üzerine	-9.95716
▁2010	-9.95731
▁2015	-9.95737
▁laf	-9.95761
▁eskişehir	-9.95813
▁diye	-9.9601
▁döndü	-9.96042
▁400	-9.9611
▁dahi	-9.96119
▁yak	-9.9642
▁başlattı	-9.96534
▁kum	-9.96647
▁bar	-9.96663
▁ekledi	-9.96678
▁gök	-9.96706
bey	-9.96733
▁gösteriyor	-9.96734
▁adres	-9.96822
▁kedi	-9.96871
▁vazgeç	-9.9696
▁tecrübe	-9.97059
▁orhan	-9.97065
nda	-9.97088
▁çarşamba	-9.97093
▁amerikalı	-9.97112
▁yağmur	-9.97152
▁gördü	-9.97199
▁seans	-9.97231
▁esas	-9.97318
▁camia	-9.97363
▁mersin	-9.9752
▁ayır	-9.97773
▁beğen	-9.98215
▁yansı	-9.98238
▁problem	-9.98276
▁öldü	-9.98288
▁yapacak	-9.98343
▁attı	-9.98353
▁kuş	-9.98423
▁maliyet	-9.9843
▁boyut	-9.98503
▁tedbir	-9.98522
▁düşünüyorum	-9.98532
▁talimat	-9.98532
▁soğuk	-9.98557
unuz	-9.98586
▁sezer	-9.98602
▁sakin	-9.98632
▁ithalat	-9.98699
▁zorun	-9.98709
▁aşırı	-9.98719
▁j	-9.98766
▁osmanlı	-9.98856
tı	-9.98958
üp	-9.99193
▁düzenlendi	-9.99343
▁geçirdi	-9.9948
▁slogan	-9.99527
▁koalisyon	-9.9958
▁davran	-9.99692
▁ulaştı	-9.99784
metrekare	-10.0001
▁tazminat	-10.0002
▁altyapı	-10.0012
▁yayınla	-10.0015
▁mezun	-10.005
▁milletvekil	-10.005
▁organ	-10.0055
▁kaçak	-10.0059
yı	-10.0069
▁göçmen	-10.0069
▁to	-10.0069
mış	-10.0086
dari	-10.0103
ra	-10.011
▁kalp	-10.0113
▁tüket	-10.0115
▁kork	-10.0145
▁muhtar	-10.0146
▁benzer	-10.015
cumhurbaşkanlığı	-10.0154
▁dosya	-10.0155
▁öğle	-10.0155
▁yusuf	-10.0163
▁toprağ	-10.0164
▁bazen	-10.0165
▁yapıyor	-10.0167
▁boğaz	-10.0171
▁edirne	-10.0176
re	-10.019
▁iade	-10.0195
▁gin	-10.0208
▁stad	-10.0209
▁koç	-10.0213
ini	-10.0221
▁yasal	-10.0235
▁adli	-10.0248
▁gurur	-10.0265
▁ö	-10.0273
▁cephe	-10.0305
▁mektup	-10.0308
▁kaldırıldı	-10.0308
▁kasaba	-10.0308
▁senaryo	-10.0311
▁düştü	-10.0312
▁tırman	-10.0317
▁göl	-10.0323
▁sultan	-10.0326
▁mağdur	-10.0331
ilirken	-10.0334
▁uc	-10.0339
▁sevin	-10.0371
▁bunlar	-10.0375
▁önemli	-10.0377
▁cesed	-10.0391
ır	-10.0444
▁getirildi	-10.0449
▁açıldı	-10.0451
▁çalıştı	-10.0453
▁or	-10.0453
▁memleket	-10.0459
▁çatı	-10.046
▁perşembe	-10.0464
▁çizgi	-10.0465
▁karayolu	-10.0465
▁engin	-10.0474
▁bilimsel	-10.048
▁nükle	-10.0481
▁özür	-10.0482
▁shi	-10.0483
▁endişe	-10.0488
▁bırakıldı	-10.0495
▁düşman	-10.0531
ba	-10.0545
▁ilhan	-10.0548
▁sok	-10.0549
kar	-10.055
▁sergile	-10.0563
▁eder	-10.0574
▁roman	-10.0588
▁tel	-10.0589
▁bile	-10.0601
▁hayran	-10.0613
▁tat	-10.0617
▁bekliyoruz	-10.0623
▁döviz	-10.0623
dam	-10.0632
▁profesyonel	-10.0637
▁manisa	-10.0638
▁radyo	-10.0641
▁demokrat	-10.0649
▁K	-10.065
▁yaşlı	-10.0652
▁sinan	-10.0655
▁mesele	-10.0686
köy	-10.0711
▁gerçeğ	-10.0715
yet	-10.0716
▁üretil	-10.0722
▁final	-10.0729
tif	-10.0739
▁geleneksel	-10.074
▁tuz	-10.0753
▁yetkilileri	-10.0754
▁terk	-10.0763
▁üstlen	-10.0766
us	-10.0768
▁çıkıyor	-10.0768
▁maliye	-10.0782
▁geçirildi	-10.0785
▁erzurum	-10.0786
▁ortam	-10.0786
zat	-10.0786
▁davranış	-10.0787
▁düz	-10.0792
▁köpek	-10.0801
▁set	-10.0809
sinde	-10.0867
▁he	-10.0868
▁onay	-10.0904
▁skor	-10.0907
▁arap	-10.0908
▁be	-10.0926
▁tasarım	-10.0929
▁gür	-10.0942
▁ajans	-10.0942
▁zorla	-10.0946
▁hindistan	-10.0948
▁tü	-10.0949
▁garanti	-10.0958
▁gerçekleşti	-10.0983
▁meli	-10.0984
▁koş	-10.0991
▁cok	-10.0994
ben	-10.1003
iye	-10.1012
▁muhammed	-10.1017
general	-10.1054
▁tanrı	-10.1055
▁http	-10.1056
ji	-10.107
sever	-10.1087
▁açtı	-10.1103
▁yunan	-10.1108
▁bisiklet	-10.1114
▁memnuniyet	-10.1115
▁doku	-10.1123
▁bebe	-10.1126
▁yo	-10.1128
▁2011	-10.1129
landı	-10.113
▁katliam	-10.1135
▁resim	-10.1148
▁atla	-10.1156
tan	-10.116
▁olacaktır	-10.116
öz	-10.1169
▁bay	-10.1186
▁ekle	-10.1191
▁arada	-10.1197
▁tepe	-10.1202
▁kop	-10.1205
▁pilot	-10.123
▁dile	-10.1233
gi	-10.1251
ttin	-10.1255
▁yalan	-10.1256
▁büro	-10.1269
▁üyeleri	-10.1271
▁yükseldi	-10.1271
▁mhp	-10.1283
▁alternatif	-10.1284
▁hasar	-10.1285
▁rejim	-10.1288
▁zorlu	-10.1292
▁çıkardı	-10.1293
▁egemen	-10.1294
▁kırık	-10.1303
▁2003	-10.1304
▁unsur	-10.1304
▁çiftçi	-10.1318
yüş	-10.1323
▁verecek	-10.134
ver	-10.1348
▁standart	-10.1387
▁has	-10.1406
▁kavuş	-10.1407
▁kıyafet	-10.145
▁olmaz	-10.1451
larda	-10.1451
▁bitlis	-10.1457
▁birlikte	-10.1457
▁rüzgar	-10.146
▁teşvik	-10.146
▁aliağa	-10.1461
▁2000	-10.1461
▁yasak	-10.1465
▁dua	-10.1465
▁rüya	-10.1473
her	-10.1473
oz	-10.1486
▁tribün	-10.149
▁roma	-10.1499
▁meyve	-10.1512
▁durumda	-10.1514
▁niye	-10.1522
ur	-10.153
▁adım	-10.1552
▁vakf	-10.1557
ton	-10.156
miştir	-10.1586
ıldı	-10.159
▁dere	-10.1601
▁gerçekleştiril	-10.1618
▁erkan	-10.1619
▁kızıl	-10.1622
▁kocaoğ	-10.1631
▁aracılığıyla	-10.1632
▁nöbet	-10.1632
▁sponsor	-10.1632
▁kelime	-10.1632
▁karakol	-10.1632
▁etraf	-10.1632
▁serdar	-10.1632
▁yemeğ	-10.1633
▁tablo	-10.1634
▁müsabaka	-10.1636
▁miting	-10.1637
▁savundu	-10.1637
▁hisset	-10.1642
▁edeceğiz	-10.1643
▁ayşe	-10.1644
▁ekran	-10.1645
▁tarz	-10.1645
nde	-10.1648
▁baraj	-10.1649
lü	-10.1673
▁modern	-10.169
▁düzen	-10.1703
▁ettiler	-10.1713
▁çoğun	-10.1724
?"	-10.1725
▁dök	-10.1739
▁küresel	-10.1763
▁ukrayna	-10.1781
▁çinli	-10.1797
▁köşe	-10.1808
▁oğuz	-10.1811
aş	-10.1811
▁vizyon	-10.1812
▁imparator	-10.1815
▁intihar	-10.1815
▁önder	-10.1823
▁taciz	-10.1829
▁Washington	-10.1829
▁gazi	-10.1834
▁sigorta	-10.1837
16	-10.1837
▁çanakkale	-10.1844
▁eşya	-10.1844
▁tamamladı	-10.185
▁istiyor	-10.1861
▁sunuz	-10.1872
▁hoş	-10.1885
▁fikr	-10.1905
▁olmadı	-10.191
▁kod	-10.1923
idir	-10.1952
▁hatay	-10.1952
▁tutuklandı	-10.1956
▁bıçak	-10.1962
▁hüküm	-10.1967
▁örneğ	-10.1982
▁ağz	-10.1989
▁efsane	-10.199
▁levent	-10.1992
▁taliban	-10.1992
▁demirtaş	-10.1993
▁dayanışma	-10.1996
▁pakistan	-10.1996
▁avantaj	-10.1997
▁şok	-10.2001
▁ayakkabı	-10.2002
▁video	-10.2004
▁yaparken	-10.2004
▁ölen	-10.2015
▁ayrıldı	-10.2021
▁inşallah	-10.2025
▁olduğu	-10.2041
▁golü	-10.2044
▁müsteşar	-10.205
▁arzu	-10.2072
0	-10.2082
▁ekmek	-10.2109
▁söylüyor	-10.2127
▁zam	-10.2142
▁1.5	-10.2165
▁yetenek	-10.2177
▁hazine	-10.2179
▁nehr	-10.218
▁yavaş	-10.2181
▁tara	-10.2186
▁psikolojik	-10.2188
▁ayhan	-10.219
▁dernek	-10.219
▁kimyasal	-10.2197
▁gümrük	-10.2198
▁tüp	-10.2202
▁forum	-10.2207
▁yapacağız	-10.2209
▁milliyet	-10.2221
▁torba	-10.2226
▁gerekir	-10.2235
▁alacak	-10.2252
▁yönetimi	-10.2269
▁kalem	-10.2277
▁34	-10.2279
izm	-10.2289
▁şaş	-10.229
inin	-10.2308
tik	-10.2333
▁açığ	-10.234
j	-10.2347
▁analiz	-10.2354
▁250	-10.2357
▁mez	-10.2362
▁kayıp	-10.2365
▁akademi	-10.2366
▁kalaba	-10.2366
▁olağanüstü	-10.2366
▁uzay	-10.2368
▁arınç	-10.2369
▁verilecek	-10.2369
▁samsun	-10.237
▁kömür	-10.237
▁150	-10.2371
▁amir	-10.2372
▁festivali	-10.2375
▁ters	-10.2377
▁toplumsal	-10.2382
▁olmuştur	-10.2383
ması	-10.2383
▁nihat	-10.2387
▁çete	-10.2388
▁detay	-10.2389
▁resmi	-10.2396
▁yatak	-10.24
miz	-10.2411
▁sürdürdü	-10.2415
as	-10.2418
▁bursaspor	-10.242
▁afet	-10.2426
▁bor	-10.2428
▁ihtimali	-10.2436
▁tavsiye	-10.2447
▁tanış	-10.2466
▁dedim	-10.2496
▁ettik	-10.252
▁tamamlanma	-10.2525
▁evren	-10.2531
▁düğün	-10.2532
ıdır	-10.2535
lanma	-10.2538
▁cevab	-10.2548
▁yumurta	-10.2558
▁belirsiz	-10.256
▁kutu	-10.2561
▁minibüs	-10.2563
▁mardin	-10.2563
▁pamuk	-10.257
▁aksi	-10.2578
▁ispanya	-10.2579
▁2009	-10.2579
▁imzala	-10.2594
paşa	-10.2597
▁pas	-10.2598
▁yım	-10.2602
▁denildi	-10.2611
8	-10.2612
yan	-10.2624
▁han	-10.2634
ım	-10.2639
▁55	-10.2647
▁olması	-10.2655
▁ağ	-10.2656
▁konuşmad	-10.266
▁yetkililer	-10.2661
▁çalışıyor	-10.2662
x	-10.2663
▁1000	-10.271
niz	-10.2719
(	-10.2719
▁italyan	-10.2742
▁platform	-10.2751
haber	-10.2753
▁işadam	-10.2753
▁sahte	-10.2754
▁moskova	-10.2754
▁istihbarat	-10.2755
▁prim	-10.2755
▁güreş	-10.276
R	-10.2762
▁re	-10.2762
▁şanlıurfa	-10.2775
▁yitir	-10.2778
▁iddiası	-10.2786
▁işyeri	-10.2787
▁l	-10.2797
larında	-10.2799
▁tibet	-10.2801
▁sel	-10.2802
▁bahar	-10.2807
▁2002	-10.2811
▁yapan	-10.2817
▁ısrar	-10.2838
acağız	-10.284
▁harita	-10.2841
▁göğüs	-10.2853
▁opera	-10.2871
▁mavi	-10.2887
▁yayımlan	-10.2898
▁ladin	-10.293
▁halil	-10.2935
▁istih	-10.2936
altı	-10.2943
▁paşa	-10.2953
▁yavuz	-10.2954
▁bağdat	-10.2955
▁uygur	-10.2956
▁voleybol	-10.2959
▁basit	-10.2959
▁ziraat	-10.2961
kent	-10.2961
▁rakib	-10.2961
▁moda	-10.2964
▁foto	-10.2966
▁dokuz	-10.2968
▁apart	-10.2968
▁finale	-10.2969
mıştı	-10.2973
▁salih	-10.2984
▁kaybol	-10.2986
▁duyarlı	-10.3004
▁kanat	-10.3006
▁yaklaşım	-10.3012
lanıyor	-10.3016
lerini	-10.3028
▁hac	-10.3034
İ	-10.3038
▁bakanı	-10.3081
ten	-10.3085
▁erdi	-10.3096
▁abdül	-10.3101
▁şırnak	-10.3117
▁futbolcu	-10.3121
▁harekat	-10.3151
▁120	-10.3153
▁sebeb	-10.3154
▁aleyh	-10.3161
▁minik	-10.3161
▁özkan	-10.3162
▁körfez	-10.3163
▁siirt	-10.3164
▁hamile	-10.3164
▁değişik	-10.3165
▁hassas	-10.3169
▁avusturya	-10.317
▁ilke	-10.3173
▁2001	-10.3176
▁eleştiri	-10.3178
hane	-10.3179
▁elektronik	-10.3181
▁bekliyor	-10.3182
▁facebook	-10.3188
▁4.	-10.3203
▁fatura	-10.3206
▁ağa	-10.3209
▁hissed	-10.3212
▁robert	-10.3214
▁adı	-10.3225
▁fen	-10.3232
başı	-10.3259
▁hu	-10.3283
çe	-10.3292
tu	-10.33
▁tutuklan	-10.3301
sin	-10.3314
M	-10.332
▁emir	-10.3326
K	-10.3328
▁çatış	-10.3331
▁km	-10.3343
▁uyan	-10.3345
▁göm	-10.3346
.(	-10.3353
▁burak	-10.3355
▁şarap	-10.3357
▁röportaj	-10.3362
dik	-10.3363
▁memnun	-10.3365
▁kilise	-10.3367
▁potansiyel	-10.3367
▁sakarya	-10.3367
▁üzüntü	-10.3372
▁galip	-10.3372
▁kaybı	-10.3375
▁çalışıyoruz	-10.3375
▁edilir	-10.3389
6	-10.3389
▁evet	-10.339
▁bush	-10.339
irken	-10.3397
▁çelik	-10.3399
▁maske	-10.3415
▁kutlama	-10.3425
yince	-10.3444
▁havuz	-10.3461
▁çöp	-10.3479
▁kahraman	-10.3481
▁tem	-10.3485
▁istek	-10.3501
▁cık	-10.3518
▁öngör	-10.3533
imha	-10.3539
▁atlet	-10.3544
▁prens	-10.3548
▁so	-10.3551
▁kaptan	-10.3553
▁doğan	-10.3565
▁döv	-10.3568
▁and	-10.3576
▁hollanda	-10.3577
▁sürdürüyor	-10.3579
▁olanak	-10.3579
▁tekstil	-10.358
▁gasp	-10.358
▁şükr	-10.3584
▁aktardı	-10.3584
▁direniş	-10.3586
▁halep	-10.3601
▁michael	-10.3602
▁ge	-10.3606
▁usta	-10.3613
▁yakış	-10.3617
▁kaliteli	-10.3618
▁vurgu	-10.362
ırken	-10.3622
▁adresi	-10.3635
dür	-10.3637
▁panel	-10.3642
▁saldırgan	-10.3653
▁yaptık	-10.368
▁sıkış	-10.3734
▁hayati	-10.3737
▁ke	-10.3757
po	-10.377
▁gayret	-10.3782
▁sokağ	-10.3785
▁cesaret	-10.3797
▁fatma	-10.3797
▁patron	-10.3799
▁çevir	-10.3799
▁düzenli	-10.38
▁toplantısında	-10.38
▁holding	-10.3802
▁diş	-10.3803
▁müftü	-10.3806
▁saddam	-10.3811
▁yazdı	-10.3812
▁sivas	-10.3816
▁vaka	-10.3819
▁arafat	-10.3822
▁tahri	-10.3822
▁32	-10.3831
▁adeta	-10.3832
yo	-10.3836
▁fizik	-10.3838
▁altay	-10.3851
▁aşık	-10.3853
▁gergin	-10.386
▁hedefle	-10.386
lere	-10.3863
▁şe	-10.3864
▁zeytin	-10.3868
▁kasa	-10.387
▁kaynağ	-10.3888
▁aksu	-10.39
os	-10.392
ali	-10.3923
7	-10.3938
▁don	-10.3963
▁mevki	-10.3976
▁çizdi	-10.398
▁yukar	-10.3983
▁kapsa	-10.3985
ko	-10.3987
mesi	-10.3993
▁mayın	-10.4
▁duyuru	-10.401
▁42	-10.4011
uyruk	-10.4013
▁mesafe	-10.4015
▁erdem	-10.4016
mak	-10.4019
▁ihraç	-10.4019
▁tavır	-10.4019
▁matematik	-10.4022
▁kamyonet	-10.4022
▁nefes	-10.4024
▁muhalif	-10.4024
▁uyku	-10.4025
▁avustralya	-10.4026
▁yahudi	-10.4026
çeyrek	-10.4033
▁uefa	-10.4034
▁plaj	-10.4034
▁ertuğrul	-10.4034
▁arslan	-10.4037
bel	-10.4042
00	-10.4043
▁sus	-10.4043
▁vs	-10.4044
▁ünal	-10.4048
▁geçerli	-10.4049
▁arasında	-10.4051
▁sırt	-10.4052
▁rıza	-10.4052
sut	-10.4059
▁volkan	-10.4061
▁gerile	-10.4062
▁tad	-10.4079
ha	-10.409
▁mahmut	-10.4094
▁ihlal	-10.4104
▁seks	-10.4114
yız	-10.4114
▁no	-10.4117
▁öner	-10.4123
shan	-10.4124
cak	-10.4124
▁65	-10.4143
▁yapış	-10.4157
▁ortaokul	-10.4159
larını	-10.4171
▁istatistik	-10.4181
yeni	-10.4191
sın	-10.4214
lerde	-10.4221
▁köpeğ	-10.4231
▁gelecek	-10.4239
▁kitle	-10.4244
▁çevik	-10.4247
▁dilekçe	-10.4247
▁koltuk	-10.4247
▁vize	-10.4247
▁müdürlüğü	-10.4248
▁mağlup	-10.4252
▁hatırlattı	-10.4252
▁anket	-10.4253
▁kök	-10.4259
▁belirtiliyor	-10.4263
▁litre	-10.4265
.30	-10.4269
▁polat	-10.4271
▁yasağ	-10.4274
▁bakanlığı	-10.4284
▁götürüldü	-10.4286
10	-10.4294
so	-10.4295
▁ercan	-10.4296
ruz	-10.4303
T	-10.4314
▁turan	-10.4319
▁cik	-10.4323
▁kahve	-10.4327
▁uyu	-10.4331
▁efe	-10.4336
▁tasar	-10.4341
ze	-10.4347
▁yönetmen	-10.435
nız	-10.4355
▁yakalandı	-10.437
▁suriyeli	-10.4371
▁özge	-10.4393
▁kore	-10.4393
iç	-10.4394
sidir	-10.4396
▁ayrıntı	-10.4399
▁işgal	-10.4407
yak	-10.4415
▁star	-10.4421
▁efendi	-10.4423
▁bilinç	-10.4436
9	-10.4443
▁müziğ	-10.4445
▁kere	-10.4452
▁malatya	-10.4478
▁yoktu	-10.4479
▁duyurdu	-10.4479
▁ispanyol	-10.448
▁beden	-10.4481
▁koydu	-10.4482
▁ışığ	-10.4482
▁2-1	-10.4483
▁köken	-10.4483
▁felaket	-10.4485
▁birşey	-10.4485
▁niyet	-10.4486
▁yapılıyor	-10.449
▁dağıl	-10.4492
▁cemal	-10.4492
be	-10.4498
▁icra	-10.4499
oto	-10.4499
▁belçika	-10.4504
▁efes	-10.4504
▁olmuştu	-10.4504
▁kadir	-10.4525
▁alkol	-10.4527
▁idam	-10.4528
▁kişisel	-10.4542
▁cd	-10.455
▁yitirdi	-10.4552
▁600	-10.4555
▁kaz	-10.4581
▁75	-10.4586
▁insani	-10.4591
▁sorgu	-10.4597
▁imar	-10.4601
det	-10.4608
▁bildiri	-10.4615
▁ımf	-10.4628
▁üstün	-10.463
▁gösterge	-10.4636
▁derken	-10.464
▁çu	-10.464
▁toplantıda	-10.4653
ol	-10.4657
▁başardı	-10.4661
▁devr	-10.4671
▁bitki	-10.4673
▁yarar	-10.468
▁suçlama	-10.4681
▁isteyen	-10.4701
▁clinton	-10.4702
▁kavram	-10.4703
▁mimar	-10.4703
▁değerlendiril	-10.4707
▁restoran	-10.4712
▁har	-10.4714
ını	-10.4715
▁disiplin	-10.4717
▁şaşkın	-10.4717
▁kaçakçı	-10.4717
▁çukur	-10.4723
▁ermenistan	-10.4725
▁geleni	-10.4732
▁acaba	-10.4733
▁yedek	-10.4737
▁balıkesir	-10.4737
▁klasik	-10.4742
▁etmişti	-10.4742
▁eden	-10.4745
▁katil	-10.4749
▁moral	-10.4752
▁ofis	-10.4753
▁günay	-10.4762
▁oynadı	-10.4762
▁çarşı	-10.4776
):	-10.4777
▁irade	-10.4779
▁post	-10.4779
syon	-10.4786
▁buz	-10.4792
▁kas	-10.4804
mek	-10.4837
▁samimi	-10.484
▁saf	-10.4841
evi	-10.4853
sında	-10.487
▁yaşadı	-10.4876
▁36	-10.488
▁koltuğ	-10.4888
▁ata	-10.4898
▁karşıt	-10.4921
▁takımı	-10.493
▁misafir	-10.4961
▁havaalanı	-10.4962
▁kritik	-10.4962
▁eren	-10.4964
▁tokat	-10.4967
▁rakibi	-10.4968
▁endüstri	-10.4969
▁metro	-10.4969
▁1-0	-10.498
▁raporda	-10.4986
▁yararlı	-10.4998
▁menajer	-10.5003
▁yü	-10.5004
▁önerge	-10.5006
mez	-10.5007
▁deneyim	-10.5017
▁çekiyor	-10.5019
yucu	-10.5023
ür	-10.5024
▁39	-10.5034
▁deli	-10.5047
▁çağır	-10.5055
kırmızı	-10.5063
trilyon	-10.5066
bugün	-10.5069
▁zincir	-10.507
▁bale	-10.5077
▁kontrolün	-10.5078
▁adil	-10.5097
bi	-10.5107
▁sarıgül	-10.512
ön	-10.5121
ruf	-10.5126
▁antik	-10.5128
▁belirledi	-10.5158
yıp	-10.5165
▁49	-10.5204
▁mektub	-10.5205
▁ulus	-10.5211
▁kütüphane	-10.5211
▁oktay	-10.5211
▁hakkari	-10.5211
▁yenilgi	-10.5211
▁keyif	-10.5212
▁erdal	-10.5212
▁cümle	-10.5213
▁özcan	-10.5214
▁diz	-10.5216
▁harika	-10.5217
▁işadamı	-10.5218
▁sivasspor	-10.5218
▁ergin	-10.5222
▁belirlenme	-10.5225
▁gümüş	-10.5228
▁bekir	-10.5228
▁torun	-10.5229
▁lisans	-10.5229
▁nesil	-10.523
▁aktif	-10.5238
▁kaçtı	-10.5249
▁anı	-10.527
50	-10.5276
lıdır	-10.5292
▁izledi	-10.5296
▁ila	-10.5297
▁ber	-10.5298
▁isviçre	-10.5305
pınar	-10.5306
vid	-10.5333
▁belediyesi	-10.5336
▁arttı	-10.5344
▁çıkacak	-10.5349
tü	-10.5353
erken	-10.5362
türki	-10.5367
▁coşku	-10.5372
▁pur	-10.5378
rak	-10.5391
baş	-10.54
▁önce	-10.5406
lerinde	-10.5407
▁112	-10.5409
▁ze	-10.5412
▁çam	-10.5418
▁gar	-10.5425
▁almıştı	-10.5434
▁tarif	-10.5435
▁peki	-10.5438
ıyorum	-10.5444
ünüz	-10.5455
▁korunma	-10.5465
▁kocaeli	-10.5466
▁merkel	-10.5467
▁tarla	-10.5468
▁emlak	-10.5468
▁fidan	-10.547
▁mutfak	-10.5474
▁radikal	-10.5474
▁eşcinsel	-10.5474
▁kenan	-10.5474
▁japon	-10.5481
▁doğalgaz	-10.5482
▁kalkınma	-10.5496
▁kader	-10.5497
derken	-10.5502
40	-10.5507
ço	-10.5513
▁ekibi	-10.5515
?”	-10.5516
▁kanıt	-10.5517
▁dolaş	-10.5527
▁olmalı	-10.553
▁plak	-10.5544
▁bağımlı	-10.5548
say	-10.5549
▁kontrolü	-10.5551
▁edit	-10.5552
▁suçla	-10.5556
▁doç	-10.5561
▁kartal	-10.557
▁olmuş	-10.559
çi	-10.559
▁taşıyor	-10.559
▁alev	-10.5594
▁netice	-10.5597
▁bo	-10.5599
kale	-10.562
▁oldum	-10.5622
▁çare	-10.5633
▁sağlıyor	-10.5637
or	-10.5646
sun	-10.5651
▁uğraş	-10.5652
ufak	-10.5666
▁yetkili	-10.5669
▁kararı	-10.567
lama	-10.5671
ıl	-10.5678
beke	-10.5684
▁33	-10.5696
I	-10.5704
▁alın	-10.5707
▁siniz	-10.5708
▁tatbikat	-10.5723
▁aygün	-10.5724
▁şükür	-10.5731
▁yöre	-10.5731
▁yargıtay	-10.5731
▁selam	-10.5731
▁statü	-10.5732
▁Web	-10.5735
▁süz	-10.5735
▁menderes	-10.5737
▁akpnin	-10.5737
▁yoktur	-10.5741
▁albay	-10.5743
▁hazırlanıyor	-10.5744
▁şener	-10.5744
mız	-10.5746
▁kalbi	-10.5747
▁urla	-10.575
▁resmen	-10.5751
▁kor	-10.5752
▁taksi	-10.5752
▁ingilizce	-10.5756
▁muhteşem	-10.5759
▁keçi	-10.5759
▁yapıyoruz	-10.5763
▁48	-10.5781
▁dsp	-10.5783
▁vücud	-10.5797
▁beyan	-10.5799
biz	-10.5853
▁koşu	-10.5867
sız	-10.5868
▁37	-10.5873
▁taksit	-10.5875
▁kıl	-10.5881
▁gerekçe	-10.5884
▁etkisi	-10.5902
ıyla	-10.5905
▁somut	-10.5909
leme	-10.5913
▁şah	-10.593
▁golcü	-10.5932
ia	-10.5935
ama	-10.594
▁aracı	-10.5965
▁google	-10.5969
▁kopyala	-10.5971
▁twitt	-10.598
▁ermeni	-10.5984
▁yavru	-10.5993
▁tezkere	-10.5996
▁mağara	-10.5997
▁zira	-10.5999
▁akraba	-10.6001
▁tahvil	-10.6001
▁parlak	-10.6005
▁müthiş	-10.6007
▁okyanus	-10.6007
▁laik	-10.6007
▁şef	-10.6008
▁fon	-10.6011
▁çadır	-10.6017
▁morg	-10.6017
▁yiğit	-10.6019
▁uçuş	-10.602
▁senet	-10.6026
▁tutuklu	-10.6031
▁günü	-10.6036
▁damar	-10.6045
▁ko	-10.6045
▁bat	-10.6084
▁yönel	-10.6085
▁aldık	-10.6109
nur	-10.6129
▁rastla	-10.6142
ev	-10.6147
▁arz	-10.6148
▁co	-10.6158
dağ	-10.6161
▁türkü	-10.6168
▁derin	-10.6176
▁nato	-10.6178
▁edilecek	-10.6179
▁bulut	-10.6182
ğı	-10.6188
▁ettim	-10.6189
▁arif	-10.6195
udi	-10.6197
D	-10.621
▁men	-10.6215
yağı	-10.622
▁özgü	-10.6228
lerinin	-10.6229
▁eleman	-10.6252
▁beslenme	-10.6261
▁mit	-10.6262
eysel	-10.6262
▁zeyne	-10.6277
▁öykü	-10.6278
▁iskender	-10.6279
▁bulgaristan	-10.6279
▁celal	-10.6279
▁hakaret	-10.6279
▁bulunmaktadır	-10.6279
▁rakı	-10.628
▁lacivert	-10.628
▁bdp	-10.6282
▁2-0	-10.6282
▁olağan	-10.6284
▁hikmet	-10.6285
▁pencere	-10.6286
▁şair	-10.6286
▁zeki	-10.6288
▁ceng	-10.6288
▁babacan	-10.6289
▁profil	-10.629
▁parmak	-10.63
▁profesör	-10.6301
▁mantık	-10.6302
▁güvence	-10.6303
▁dördün	-10.631
▁dikkatli	-10.6327
▁komuta	-10.6333
▁dilek	-10.6337
▁yas	-10.6345
▁51	-10.6348
▁izn	-10.6352
lendi	-10.6352
▁sez	-10.6355
▁play	-10.6364
▁dayalı	-10.6376
▁başlıyor	-10.6383
▁avcı	-10.6383
▁istendi	-10.6391
sınız	-10.6398
ça	-10.641
▁sığın	-10.641
▁bağır	-10.6411
lari	-10.6416
ab	-10.6424
▁dar	-10.6438
▁çakı	-10.6444
▁şiş	-10.6445
▁nev	-10.6446
▁alkış	-10.6446
▁lim	-10.6447
beyaz	-10.6449
▁koyun	-10.6459
izmir	-10.646
▁meme	-10.6476
up	-10.6478
▁mersi	-10.6483
başkan	-10.6483
AR	-10.6488
▁maz	-10.6493
▁yuva	-10.6495
▁seyahat	-10.6507
ık	-10.6512
▁ok	-10.6514
▁değildi	-10.6521
▁ssk	-10.6525
▁ederk	-10.6529
▁imzalan	-10.654
▁ziya	-10.6541
▁vurdu	-10.655
▁motosiklet	-10.656
▁itiraf	-10.6564
▁yozgat	-10.6564
▁mükemmel	-10.6564
▁forvet	-10.6564
▁indirim	-10.6565
▁yelken	-10.6565
▁şengül	-10.6565
▁blok	-10.6566
▁marş	-10.6567
▁siyasal	-10.6569
▁700	-10.657
▁amatör	-10.6571
▁gönderildi	-10.6571
▁azerbaycan	-10.6571
▁hücre	-10.6571
▁pankart	-10.6571
▁tünel	-10.6571
▁herhalde	-10.6572
▁koku	-10.6576
▁nehir	-10.6577
▁isveç	-10.6579
▁tabur	-10.6582
▁kazakistan	-10.6584
▁boru	-10.6584
▁merkezi	-10.6594
▁marmara	-10.6595
▁hekim	-10.6598
▁yapılır	-10.66
▁deney	-10.6601
▁vitamin	-10.6605
▁algı	-10.6609
▁kiraz	-10.6611
▁abi	-10.6625
▁anti	-10.6631
▁salı	-10.6631
▁kaçın	-10.6632
▁kurt	-10.6637
▁felsefe	-10.6654
▁isyan	-10.6655
▁ilet	-10.6661
▁hap	-10.6673
▁suy	-10.6693
▁gecik	-10.6704
▁söylediler	-10.6713
▁karşılaştı	-10.6717
▁pınar	-10.6717
▁durak	-10.673
off	-10.6747
lerin	-10.6749
▁naz	-10.675
▁öngörü	-10.6753
▁diren	-10.6754
▁özer	-10.6756
sıyla	-10.6757
dünya	-10.6758
▁W	-10.6759
▁sil	-10.6776
men	-10.678
mada	-10.6796
acaktır	-10.6803
ıyoruz	-10.6813
siz	-10.6821
taş	-10.6822
▁gelen	-10.6852
▁robot	-10.6854
▁çök	-10.6855
dü	-10.6857
▁yaprak	-10.6858
▁cennet	-10.6858
▁norveç	-10.6859
▁putin	-10.6862
▁olurken	-10.6865
▁refah	-10.6865
▁mevsim	-10.6866
▁fahri	-10.6866
▁zhang	-10.6866
▁değerlendirdi	-10.6866
▁şov	-10.6867
▁kooperatif	-10.687
▁ortağı	-10.6871
▁kurulu	-10.6871
▁demirel	-10.6872
▁başlandı	-10.6872
▁teşhis	-10.6872
▁1999	-10.6874
▁giyim	-10.6875
▁ilkokul	-10.6875
▁esna	-10.6877
▁iftar	-10.6878
▁mesela	-10.6878
▁yürürlü	-10.6879
▁sekiz	-10.6879
▁times	-10.6884
▁ağız	-10.6886
▁5.	-10.6887
▁belirli	-10.6895
▁esad	-10.6897
▁özen	-10.6904
▁olduk	-10.6907
▁devir	-10.6908
▁karı	-10.6909
▁gü	-10.691
▁lüks	-10.6921
▁roket	-10.6935
▁direk	-10.6941
gü	-10.6944
ul	-10.6945
ların	-10.6946
diğini	-10.6953
siniz	-10.6986
▁pis	-10.6997
▁konusu	-10.6998
▁oyuncu	-10.7011
▁çarptı	-10.7022
▁burn	-10.7032
▁sap	-10.7034
düğünü	-10.7035
▁alet	-10.7036
▁gönderdi	-10.7038
▁ipek	-10.706
▁yargıla	-10.706
▁katılımı	-10.7061
özel	-10.7071
▁oğul	-10.7076
şu	-10.7078
▁sinir	-10.709
daş	-10.7106
tek	-10.7106
az	-10.7123
▁uzlaş	-10.7128
iyorum	-10.7128
ikna	-10.7129
▁komut	-10.7144
▁hükm	-10.7159
▁narlıdere	-10.7162
▁seminer	-10.7162
▁cerrah	-10.7162
▁ecevit	-10.7162
▁polonya	-10.7162
▁kemer	-10.7162
▁kursiyer	-10.7162
hücum	-10.7162
▁mantar	-10.7162
▁alkollü	-10.7162
▁nobel	-10.7162
eğilim	-10.7162
▁atalay	-10.7162
▁george	-10.7162
▁enstitü	-10.7163
▁gölge	-10.7163
▁dükkan	-10.7163
▁inanıyorum	-10.7163
▁aktaş	-10.7165
▁8.	-10.7166
▁penaltı	-10.7169
▁necati	-10.7169
▁defans	-10.717
▁akpınar	-10.717
▁elbette	-10.7172
▁sandalye	-10.7172
▁temizle	-10.7173
▁yanıtladı	-10.7174
▁abnin	-10.7174
▁altın	-10.7177
▁tıbb	-10.7182
▁erol	-10.7188
▁maalesef	-10.7194
▁cemil	-10.7194
▁romanya	-10.72
▁içinde	-10.7214
▁ailesi	-10.7222
▁2.5	-10.7222
sat	-10.7224
▁abdye	-10.7234
▁toplam	-10.7249
ova	-10.7253
▁üzere	-10.7255
▁anıt	-10.7269
▁birara	-10.7271
ziyer	-10.7284
▁küme	-10.7298
▁lezzet	-10.7307
▁52	-10.7322
gül	-10.7322
id	-10.7339
▁dib	-10.734
▁bıraktı	-10.7341
▁alır	-10.7346
▁adlandırıl	-10.7352
let	-10.7361
▁islami	-10.7365
▁kullanılır	-10.7375
ue	-10.7386
▁balkan	-10.7392
▁adıyaman	-10.7407
bura	-10.7408
▁1997	-10.7415
▁buca	-10.7428
▁boşan	-10.7438
▁sunu	-10.7446
▁öfke	-10.7453
▁bini	-10.7457
▁rahatla	-10.746
oordinatör	-10.7462
▁kanad	-10.7464
▁gözyaş	-10.7467
▁militan	-10.7473
▁telekom	-10.7474
▁arabistan	-10.7474
▁kuşadası	-10.7474
▁meşale	-10.7474
▁vakit	-10.7474
▁atila	-10.7474
▁fener	-10.7475
▁düşüş	-10.7475
▁iklim	-10.7475
▁2020	-10.7475
▁jüri	-10.7475
▁popüler	-10.7475
▁kısım	-10.7476
▁ederim	-10.7476
▁belirtirken	-10.7477
▁kararname	-10.7478
▁arkadaşları	-10.7478
▁diliyorum	-10.7478
▁kocaoğlu	-10.7479
▁kuzu	-10.7481
▁geçiyor	-10.7482
▁biber	-10.7483
▁bilmiyorum	-10.7484
▁terim	-10.7487
daha	-10.7488
▁sedat	-10.7489
▁ted	-10.7489
▁bahçeli	-10.7491
ıntı	-10.7491
▁saati	-10.7491
▁inanç	-10.7493
B	-10.7494
▁mert	-10.7494
▁kuşku	-10.7496
▁değilim	-10.7497
▁atina	-10.75
▁market	-10.7505
▁özerk	-10.7506
▁kaygı	-10.7506
▁kağıt	-10.7508
▁stres	-10.7508
▁stat	-10.7509
▁tok	-10.7519
ecektir	-10.753
ara	-10.7532
▁boya	-10.7533
▁latin	-10.7536
▁düzenledi	-10.754
▁aktör	-10.7554
▁anlaşıl	-10.7557
▁projesi	-10.7561
ley	-10.7573
▁sergilen	-10.7574
wood	-10.7582
▁yardımı	-10.7587
▁nuri	-10.7599
▁uzaklaş	-10.7605
▁satı	-10.7609
▁genc	-10.7615
▁sakla	-10.7626
▁tamamlandı	-10.7627
▁mahsu	-10.7629
terin	-10.7634
▁utan	-10.7643
▁katılan	-10.7659
▁S	-10.7667
▁otop	-10.7682
baba	-10.7701
▁ekipler	-10.7707
▁karşılan	-10.7716
▁vücu	-10.7716
▁gözlem	-10.7727
▁A	-10.7747
▁öldürülme	-10.7755
▁ahlak	-10.7767
▁tanımla	-10.7768
tr	-10.7776
▁1998	-10.7787
sine	-10.7791
▁yarattı	-10.7795
▁zeka	-10.7796
▁taze	-10.7796
▁arjantin	-10.7797
▁astsubay	-10.7797
▁istiklal	-10.7797
▁meksika	-10.7797
▁süresince	-10.7797
▁branş	-10.7797
▁düşünüyoruz	-10.7797
▁hagi	-10.7798
▁üste	-10.7799
ian	-10.7799
▁sabri	-10.7799
▁kontrolde	-10.7799
▁kayserispor	-10.78
▁jean	-10.78
▁şif	-10.78
▁ibadet	-10.7804
▁muayene	-10.7804
▁faruk	-10.7804
▁karanlık	-10.7805
▁turgut	-10.7805
▁öncü	-10.7805
▁önemlidir	-10.7807
▁kare	-10.7809
land	-10.781
▁bulun	-10.7811
▁bulunur	-10.7813
▁tuvalet	-10.7818
▁kuruldu	-10.7818
▁türel	-10.7822
▁tük	-10.7828
hamur	-10.7836
▁şut	-10.7847
▁simge	-10.786
▁düzel	-10.787
▁festival	-10.7879
▁bela	-10.79
▁kutsal	-10.79
lil	-10.7909
dığını	-10.7912
▁kab	-10.7947
▁disk	-10.7962
▁hatırlat	-10.7972
▁ser	-10.7975
▁araştırma	-10.7981
am	-10.799
ücü	-10.799
▁nabu	-10.7995
▁salla	-10.7996
gram	-10.8003
okul	-10.8026
udur	-10.8028
ijing	-10.8038
▁bitti	-10.8042
▁kir	-10.8047
▁ırk	-10.8055
▁yakaladı	-10.8057
alışkan	-10.8066
▁şi	-10.8071
▁ağla	-10.808
▁x	-10.8083
va	-10.8083
san	-10.8088
▁cins	-10.8103
maz	-10.8105
ad	-10.8108
ayet	-10.811
▁seçenek	-10.8111
▁yanıtla	-10.8116
▁yücel	-10.8118
▁yaygın	-10.8121
▁skandal	-10.8123
▁husus	-10.8124
▁mermi	-10.8127
▁per	-10.8128
▁karargah	-10.8128
▁mekanizma	-10.813
▁muhtelif	-10.813
▁ömür	-10.813
▁hektar	-10.813
▁meteoroloji	-10.813
▁portekiz	-10.813
▁emrah	-10.813
▁bakırköy	-10.813
▁hayvancılık	-10.813
▁karabağ	-10.8131
▁imalat	-10.8131
▁korkut	-10.8131
▁müraca	-10.8131
▁çiğli	-10.8131
▁ilave	-10.8132
▁dürüst	-10.8132
gişe	-10.8132
▁açıklamasında	-10.8133
▁ger	-10.8134
▁vural	-10.8136
▁vicdan	-10.8136
▁gidiyor	-10.8136
▁telaf	-10.8136
▁davutoğ	-10.8137
▁seferihisar	-10.8138
▁direksiyon	-10.8139
▁ağabey	-10.8139
▁tunç	-10.8139
abilirsiniz	-10.8139
ret	-10.814
▁manevi	-10.8141
▁kapatılma	-10.8143
kur	-10.8144
▁subay	-10.815
▁klima	-10.815
▁kusur	-10.8151
▁genelge	-10.8151
▁chavez	-10.8152
▁bergama	-10.8152
▁danıştay	-10.8152
do	-10.8154
▁çekildi	-10.8154
▁feda	-10.8157
▁43	-10.8159
▁diplomat	-10.816
▁herşey	-10.8167
▁yakalanma	-10.817
▁alırken	-10.817
tur	-10.8174
▁yaşıyor	-10.8186
▁geçit	-10.8189
nca	-10.8198
▁yürek	-10.8198
▁hele	-10.8198
ilmektedir	-10.8205
▁kort	-10.8212
▁kurtuluş	-10.8213
▁takvim	-10.8216
▁sta	-10.822
▁desteği	-10.8221
▁degil	-10.8222
cu	-10.8226
2,5	-10.8227
▁saptan	-10.8232
▁veren	-10.8233
▁yaptım	-10.8233
▁nec	-10.8241
lig	-10.825
▁kendisi	-10.8251
ital	-10.8272
▁verir	-10.8292
▁gidecek	-10.8303
▁kın	-10.8323
▁arı	-10.8338
▁verdik	-10.8338
▁1-1	-10.8342
vi	-10.8351
ro	-10.8355
malıyız	-10.8373
▁emr	-10.8376
▁üs	-10.8379
▁izmirli	-10.838
▁beyazlı	-10.8387
▁ergen	-10.8397
▁genişle	-10.8399
▁bölümü	-10.8404
leniyor	-10.8413
▁yaparak	-10.8418
▁giderk	-10.8419
mektir	-10.8423
▁rize	-10.8431
kadir	-10.8432
gel	-10.8439
▁konsolos	-10.844
▁denir	-10.8443
▁gökçe	-10.8445
dr	-10.8451
ser	-10.8461
▁afiş	-10.8462
▁ittifak	-10.8464
▁golle	-10.8467
▁ithal	-10.8471
▁diyalog	-10.8475
▁gelenek	-10.8475
▁fosil	-10.8475
▁kolej	-10.8475
▁burcu	-10.8475
▁selaha	-10.8475
▁idman	-10.8475
▁tempo	-10.8476
▁filan	-10.8477
▁finansman	-10.8477
gün	-10.8478
perde	-10.8478
▁villa	-10.8481
▁mevzu	-10.8483
▁blair	-10.8483
▁tarafından	-10.8487
▁veysel	-10.8489
▁ceb	-10.849
▁şan	-10.8491
▁antalyaspor	-10.8491
▁57	-10.8493
▁zayıf	-10.8495
▁harun	-10.8497
▁foça	-10.8497
▁başkanı	-10.8497
nı	-10.8501
▁hz	-10.8502
▁kulak	-10.8527
▁br	-10.8548
▁38	-10.8552
▁görünüyor	-10.8554
▁atan	-10.856
▁gören	-10.856
▁görüldü	-10.8572
▁arena	-10.8573
tür	-10.8576
▁selim	-10.8581
▁ülker	-10.8584
lara	-10.8586
▁beton	-10.8587
▁çakır	-10.8594
▁B	-10.8594
▁başlatıldı	-10.8601
▁şeref	-10.8604
▁görüyor	-10.8605
▁boşal	-10.8606
▁olacağız	-10.8609
▁berk	-10.8616
▁D	-10.8624
▁gazetesi	-10.8631
▁eşi	-10.8635
▁dindar	-10.8636
ılmaktadır	-10.8637
yer	-10.864
▁istemi	-10.8641
şer	-10.8647
▁etap	-10.8663
▁gerçekleştirdi	-10.8668
▁pi	-10.869
▁leh	-10.87
liği	-10.8704
geç	-10.8705
▁stadyum	-10.8712
mis	-10.8715
ke	-10.8717
▁takvi	-10.872
▁bilinc	-10.8723
hai	-10.8728
▁ford	-10.8748
▁hatırlatıl	-10.8765
ham	-10.8769
mişti	-10.878
iji	-10.8782
▁hatt	-10.879
▁11.	-10.8792
istanbul	-10.8798
▁protokol	-10.8799
▁hacmi	-10.8804
*	-10.8804
▁camii	-10.8805
fer	-10.8809
▁çağırdı	-10.8814
▁işyer	-10.8814
ana	-10.8818
▁sordu	-10.8821
▁1994	-10.8824
▁kafe	-10.8825
▁rehber	-10.8825
▁web	-10.8828
▁kemik	-10.883
▁bayındır	-10.8832
▁danimarka	-10.8832
▁koordinasyon	-10.8832
▁portakal	-10.8832
▁zevk	-10.8832
▁denktaş	-10.8832
▁teminat	-10.8832
▁taşkın	-10.8832
▁kaide	-10.8832
▁sırrı	-10.8833
▁denizlispor	-10.8833
▁carlos	-10.8833
maktır	-10.8834
▁haluk	-10.8834
▁burs	-10.8834
▁stok	-10.8834
▁hatıra	-10.8835
▁yakıt	-10.8835
▁sebebiyle	-10.8835
▁tavuk	-10.8835
▁tahsil	-10.8837
▁gönl	-10.8838
▁tunceli	-10.8839
▁elazığ	-10.8839
▁gündüz	-10.884
▁şeffaf	-10.884
▁marmaris	-10.884
▁otomatik	-10.884
▁1996	-10.8843
hem	-10.8843
▁nur	-10.8843
▁çelen	-10.8843
▁gördüm	-10.8849
ran	-10.8851
▁edilmiştir	-10.8856
▁çince	-10.8864
▁olmayan	-10.8867
▁pil	-10.8868
▁birey	-10.887
▁paralel	-10.887
▁mahkemesi	-10.8884
▁beğeni	-10.8886
▁inönü	-10.889
▁peli	-10.8893
▁kilit	-10.8897
▁milan	-10.8899
▁tank	-10.8901
▁masum	-10.8902
▁toz	-10.8902
▁tutukla	-10.8903
▁laboratuvar	-10.8908
▁asansör	-10.8915
12	-10.8919
▁sait	-10.8925
lerdir	-10.8936
▁800	-10.8939
ına	-10.8948
▁halinde	-10.8952
▁ot	-10.8956
▁sistemi	-10.8962
▁çü	-10.8965
▁real	-10.897
▁tanıtıl	-10.8973
▁çıplak	-10.8976
▁olamaz	-10.899
iyoruz	-10.8998
larıyla	-10.9003
co	-10.9005
▁görüştü	-10.9014
▁zem	-10.9015
dar	-10.9019
▁grubu	-10.903
▁çağrıl	-10.9033
▁hay	-10.9034
istik	-10.9036
▁va	-10.9043
▁donanım	-10.9049
▁holl	-10.9055
yol	-10.9068
▁kayb	-10.9085
▁kruv	-10.9093
▁elbise	-10.9101
lığı	-10.9109
▁dolandırıcı	-10.9122
gari	-10.9125
▁350	-10.9126
▁sene	-10.9131
▁tanım	-10.9139
▁oto	-10.9149
▁düzenlenme	-10.9155
kaya	-10.9159
▁başlayacak	-10.9166
uş	-10.9167
sini	-10.9169
▁sera	-10.9181
▁osc	-10.9202
▁başlangıç	-10.9202
▁istikamet	-10.9202
▁coğrafya	-10.9202
▁muame	-10.9202
▁merdiven	-10.9202
▁mermer	-10.9202
▁layık	-10.9202
▁boğaziçi	-10.9202
▁otoyol	-10.9202
▁itibarıyla	-10.9203
▁balbay	-10.9203
▁tugay	-10.9203
▁çamaşır	-10.9203
▁vadi	-10.9203
▁periyot	-10.9204
▁davutoğlu	-10.9204
▁akhisar	-10.9204
▁kuşak	-10.9204
▁düzgün	-10.9204
▁burun	-10.9205
▁nitekim	-10.9205
▁alçak	-10.9206
▁lojman	-10.9207
▁taktik	-10.9207
▁tarımsal	-10.9208
▁basama	-10.9211
▁hristiyan	-10.9211
▁kütahya	-10.9211
▁yürüdü	-10.9211
▁ihmal	-10.9212
▁alarm	-10.9212
▁çıkarken	-10.9213
▁görülüyor	-10.9214
▁dershane	-10.9214
▁ergün	-10.9214
▁muhtemelen	-10.9215
▁ytlye	-10.9217
▁giysi	-10.9219
▁ortadoğu	-10.922
▁bıçakla	-10.9221
▁diyorlar	-10.9224
▁berlin	-10.9227
gazi	-10.9229
▁uşak	-10.9234
rd	-10.9235
▁öcalan	-10.9235
▁hamit	-10.9243
▁metal	-10.9243
ız	-10.9245
▁gelin	-10.9261
▁46	-10.9269
▁katılacak	-10.9273
malıdır	-10.9273
▁es	-10.9273
▁işveren	-10.9276
▁stand	-10.928
▁başvurdu	-10.9281
krem	-10.9292
▁saatleri	-10.9298
▁oba	-10.93
▁kars	-10.9303
rk	-10.9329
sına	-10.933
▁sağladı	-10.9335
▁ayva	-10.9339
kobi	-10.9351
abilir	-10.9363
lerine	-10.9367
▁tabanlı	-10.9372
▁karaman	-10.9373
if	-10.9382
▁do	-10.9404
▁filmi	-10.9407
rf	-10.9437
der	-10.944
ünite	-10.9448
▁aşı	-10.9451
▁çarptırıl	-10.9462
tnik	-10.9467
▁mesa	-10.9471
▁53	-10.9472
▁kalacak	-10.9474
▁direkt	-10.9476
yen	-10.9498
bur	-10.9498
▁dediler	-10.9499
▁yurd	-10.95
▁pa	-10.9501
▁yangın	-10.9523
▁geçen	-10.9523
dere	-10.9524
▁sevinç	-10.9532
tony	-10.9537
▁sundu	-10.9537
▁uzmanlar	-10.9539
▁baz	-10.9544
▁akın	-10.9554
▁bozuk	-10.9564
dk	-10.9565
ullah	-10.9568
▁kabin	-10.9575
▁tuk	-10.9579
▁tekrarla	-10.9579
▁saldırdı	-10.9582
encere	-10.9583
▁iskele	-10.9584
▁mobil	-10.9585
▁sabır	-10.9586
▁güzergah	-10.9587
▁komando	-10.9587
▁köfte	-10.9587
▁mülteci	-10.9587
▁stüdyo	-10.9587
▁virüs	-10.9587
▁yanısıra	-10.9587
▁bombardıman	-10.9587
▁ehliyet	-10.9587
▁facia	-10.9587
propagan	-10.9587
▁piyade	-10.9587
▁zonguldak	-10.9587
▁korkunç	-10.9587
▁hint	-10.9587
▁beşinci	-10.9587
▁alsancak	-10.9587
▁yakup	-10.9588
▁paul	-10.9588
ahramanmaraş	-10.9588
▁esrar	-10.9588
▁erzincan	-10.959
▁fırt	-10.959
▁madrid	-10.9591
▁ürdün	-10.9594
▁element	-10.9596
▁asayiş	-10.9596
▁karaburun	-10.9596
▁sopa	-10.9597
▁entry	-10.9597
▁avro	-10.9599
▁atlas	-10.9599
▁belgesel	-10.9599
▁nefret	-10.9599
▁rahmet	-10.96
▁biyolojik	-10.9601
▁elçi	-10.9607
▁çalışırken	-10.9608
▁yaşanan	-10.9609
▁kırmızılı	-10.9609
▁mimari	-10.9611
lo	-10.9612
▁city	-10.9612
▁şenol	-10.9613
▁64	-10.9617
▁sıfır	-10.9617
leştirme	-10.962
▁karaca	-10.9626
▁pahalı	-10.9632
▁keşke	-10.9632
ilk	-10.9634
▁bulvar	-10.9635
▁kimya	-10.9636
▁ocağ	-10.9637
▁pe	-10.9643
tak	-10.9644
▁grand	-10.9645
▁kafile	-10.9648
ina	-10.9649
mil	-10.965
▁istedim	-10.965
▁vefat	-10.9651
▁isa	-10.9651
▁seven	-10.9653
▁yasin	-10.9661
ıta	-10.9662
▁veli	-10.9665
▁sanal	-10.9671
▁boğul	-10.9674
erman	-10.9675
ch	-10.9676
▁form	-10.968
▁fas	-10.9681
▁hamza	-10.9683
▁jud	-10.9687
▁7.	-10.9688
▁makale	-10.9698
maç	-10.9702
▁bildir	-10.9709
bat	-10.9712
▁6.	-10.9715
gu	-10.972
masıdır	-10.973
▁uygulanma	-10.9742
▁olmak	-10.9744
▁yayla	-10.9745
▁uydu	-10.9755
▁jet	-10.9756
▁anap	-10.9762
hır	-10.9778
▁alay	-10.9782
dat	-10.9784
▁şişe	-10.9792
alım	-10.9805
▁gerçi	-10.9811
rio	-10.9812
▁bot	-10.9828
▁kurumsal	-10.9832
▁abla	-10.9845
etik	-10.986
▁birik	-10.9863
ok	-10.9865
gil	-10.9866
▁nedir	-10.9872
ebilir	-10.9876
▁oluştu	-10.9877
▁tez	-10.988
▁hacı	-10.9893
for	-10.9897
▁bankası	-10.9906
▁artıyor	-10.9908
▁uyardı	-10.9908
▁44	-10.9916
ed	-10.9926
luk	-10.9944
▁95	-10.9949
▁reddet	-10.995
▁tema	-10.9956
▁serve	-10.9961
ilerek	-10.9961
eğ	-10.997
yabil	-10.9973
▁yayımla	-10.998
▁damga	-10.9982
▁masraf	-10.9984
▁pişman	-10.9987
▁liverpool	-10.9987
▁turkcell	-10.9987
▁monica	-10.9987
▁powell	-10.9987
▁sünnet	-10.9987
▁zırh	-10.9987
▁mesleğ	-10.9987
▁akbulut	-10.9987
▁zihniyet	-10.9987
▁restorasyon	-10.9987
▁bordo	-10.9987
▁mitoloji	-10.9987
▁1991	-10.9987
▁akıntı	-10.9988
▁lütfen	-10.9989
▁kuyu	-10.999
▁infaz	-10.9994
▁trt	-10.9994
▁tabut	-10.9995
▁coğrafi	-10.9997
▁kahvaltı	-10.9997
▁mağlubiyet	-10.9997
▁microsoft	-10.9997
▁fuhuş	-10.9997
▁münih	-10.9997
▁james	-10.9997
▁kuyruk	-11.0002
▁pist	-11.0006
▁çözülme	-11.0008
▁okur	-11.0012
▁yoksul	-11.0013
ılmıştır	-11.0013
▁hül	-11.0015
▁unvan	-11.002
▁çalışkan	-11.002
▁finalde	-11.002
sak	-11.0031
▁gençler	-11.0033
▁olmadığını	-11.0034
yıl	-11.004
ladim	-11.0043
▁vermişti	-11.0047
▁ışın	-11.0047
▁tarık	-11.0048
vat	-11.005
ner	-11.0053
medi	-11.0058
ksiyon	-11.0059
▁demişti	-11.0063
▁77	-11.0065
▁66	-11.0081
▁bilal	-11.0085
isabet	-11.0085
▁açıklanma	-11.0087
▁seyred	-11.0092
▁us	-11.0104
▁ac	-11.0106
▁yatağ	-11.0115
▁koyu	-11.0118
gı	-11.012
▁9.	-11.0131
nırken	-11.0142
▁bayrağı	-11.0154
▁meğ	-11.0159
▁heyeti	-11.0171
▁hain	-11.0193
lardır	-11.02
▁biridir	-11.0202
lidir	-11.0228
▁bekl	-11.0228
yon	-11.0231
sb	-11.0234
30	-11.0237
kil	-11.0251
▁yasakla	-11.0255
▁kurmay	-11.0265
100	-11.0272
allah	-11.0284
▁başlar	-11.0292
▁ediyorlar	-11.0294
▁eksi	-11.0295
▁81	-11.0299
▁işte	-11.03
▁ja	-11.0301
▁kaydet	-11.0306
▁rand	-11.0309
ğen	-11.0313
▁ayrım	-11.0313
▁18.	-11.0326
▁anımsa	-11.0328
▁by	-11.0332
madı	-11.0343
▁geriledi	-11.0344
▁ulan	-11.0354
▁love	-11.0358
mon	-11.0358
har	-11.0373
ilmiştir	-11.0373
▁keyf	-11.0387
abd	-11.0402
the	-11.0403
▁başantrenör	-11.0404
▁jintao	-11.0404
▁papandreu	-11.0404
▁homs	-11.0404
▁ressam	-11.0404
▁yalova	-11.0404
▁rehabilitasyon	-11.0404
▁global	-11.0404
▁çankaya	-11.0404
▁küfür	-11.0404
▁kadıköy	-11.0404
▁konsantr	-11.0404
▁arkeoloji	-11.0404
▁hariç	-11.0404
▁ateşkes	-11.0405
▁iddianame	-11.0405
▁1,5	-11.0406
▁inanıyoruz	-11.0406
▁planlanıyor	-11.0408
▁tansiyon	-11.0408
▁tayfu	-11.0408
▁irlanda	-11.0408
▁kapandı	-11.041
▁kulağ	-11.0411
▁1995	-11.0412
▁meslektaş	-11.0412
▁çolak	-11.0414
▁pirinç	-11.0414
▁fırtına	-11.0414
▁edilen	-11.0416
▁kemalpaşa	-11.0416
▁garip	-11.0416
▁gelmişti	-11.0417
▁yayınevi	-11.0417
▁tbmmye	-11.0418
▁şerit	-11.0418
▁feth	-11.0421
rev	-11.0425
▁ödenme	-11.0426
▁muhtemel	-11.0427
▁Win	-11.043
▁fena	-11.0431
▁ebru	-11.0431
▁kobani	-11.0431
▁buluştu	-11.0433
▁fiziksel	-11.0435
▁gelmiştir	-11.0445
rtesi	-11.0448
▁zab	-11.0451
▁54	-11.0452
▁port	-11.046
kon	-11.048
▁bbc	-11.0485
▁bucaspor	-11.0486
▁dk	-11.0493
▁los	-11.0495
▁tekin	-11.0495
▁kiev	-11.0496
pa	-11.0496
▁tck	-11.0515
▁olup	-11.0519
▁öğrenciler	-11.052
▁hükümeti	-11.0533
▁müezzinoğ	-11.0543
▁coşkun	-11.0547
▁yargılanma	-11.0549
▁vakti	-11.0552
▁alaka	-11.0553
▁diledi	-11.0554
▁kalan	-11.0555
▁akı	-11.0578
▁yaratı	-11.0578
▁gay	-11.0585
ot	-11.0586
▁vatandaşlar	-11.0587
meliyiz	-11.059
▁kına	-11.0594
▁kalıyor	-11.0595
▁beyn	-11.0595
▁besle	-11.0612
▁atama	-11.0613
▁cezalandırılma	-11.0625
▁incir	-11.0626
ney	-11.0629
▁çarpı	-11.0637
▁yöneticileri	-11.0638
▁taner	-11.0653
yin	-11.066
▁ona	-11.0672
▁bulunan	-11.0672
▁geliştirilme	-11.0673
▁patri	-11.0679
▁tart	-11.0696
▁anlamı	-11.0711
hat	-11.0714
sen	-11.0718
üs	-11.0724
▁goller	-11.0733
lek	-11.0736
gen	-11.0738
▁hakkında	-11.0739
ince	-11.0756
▁bölü	-11.0762
▁kazı	-11.0763
▁yöntemi	-11.0764
▁beceri	-11.0766
▁dağıldı	-11.078
▁koleksiyon	-11.0792
▁karşıladı	-11.0792
▁ray	-11.0794
▁başladık	-11.0802
▁paylaştı	-11.0809
▁koro	-11.0813
▁kdv	-11.0816
▁gurbet	-11.0822
asip	-11.0826
▁güncel	-11.0827
▁poz	-11.0828
▁kutladı	-11.0836
▁liberal	-11.0836
▁yüce	-11.0837
▁tavr	-11.0837
▁fethiye	-11.0838
álá	-11.0838
▁peynir	-11.0838
▁ribaunt	-11.0838
▁şimşek	-11.0838
▁buğday	-11.0838
▁fevzi	-11.0838
▁macera	-11.0838
▁temenni	-11.0838
▁gözetim	-11.0838
▁17.00	-11.0839
▁tebliğ	-11.0839
▁zorundayız	-11.0839
▁yarımada	-11.0839
▁sabancı	-11.0839
▁hanedan	-11.084
▁bozdağ	-11.084
▁biliniyor	-11.084
▁2-3	-11.0841
köle	-11.0841
60	-11.0841
▁kocaman	-11.0841
▁manisaspor	-11.0842
▁görüyoruz	-11.0843
▁solak	-11.0844
▁tahir	-11.0844
▁kulis	-11.0846
▁metn	-11.0847
▁bill	-11.0847
▁ığdır	-11.0848
▁nice	-11.0848
▁müttefik	-11.0849
▁lübnan	-11.0849
▁anahtar	-11.0849
▁uludağ	-11.0849
▁usame	-11.085
▁somali	-11.0852
▁hafıza	-11.0852
▁vereceğiz	-11.0853
▁çanta	-11.0854
▁arıza	-11.0854
fik	-11.0855
▁böl	-11.0857
▁sunuyor	-11.0858
▁örneğin	-11.0859
▁rehin	-11.086
▁kıta	-11.0861
▁kerem	-11.0862
press	-11.0864
▁çalışacağız	-11.0864
▁56	-11.0866
▁hizbullah	-11.0867
▁sırbistan	-11.0867
▁ederiz	-11.0867
▁gittim	-11.0869
▁dert	-11.0874
▁oluşturuyor	-11.0876
▁hayali	-11.0877
▁takibe	-11.0878
▁katar	-11.0879
▁kurak	-11.0882
konsolos	-11.0884
▁tamir	-11.0885
▁çıkarıldı	-11.0889
hayır	-11.0889
evet	-11.089
▁nakil	-11.0895
▁gözük	-11.0902
▁oyuncak	-11.0902
yebil	-11.0904
▁Diyarbakırspor	-11.0905
▁bok	-11.0905
▁ideolojik	-11.0909
▁yapmıştı	-11.091
tork	-11.0911
almıştır	-11.092
▁krit	-11.0924
▁ala	-11.0924
▁ceset	-11.0942
▁sakatlan	-11.0969
▁hayr	-11.0969
▁47	-11.0974
▁Williams	-11.0976
▁alevi	-11.0978
fren	-11.0981
▁bacak	-11.0983
ry	-11.0997
▁diyen	-11.0997
▁63	-11.1006
sosyalist	-11.1007
▁eğlen	-11.1023
▁güler	-11.1026
▁ah	-11.1028
▁çığ	-11.1032
▁göt	-11.1039
▁sey	-11.1052
▁mükellef	-11.1067
▁ayıp	-11.1068
soy	-11.1069
▁aras	-11.1071
▁yaşanıyor	-11.1074
▁ölçek	-11.1075
▁dvd	-11.108
▁güçleri	-11.1083
-0	-11.1083
abiliyor	-11.1092
▁batılı	-11.1092
mayın	-11.1093
!"	-11.1093
▁pole	-11.1101
▁kalmadı	-11.1102
kapı	-11.1113
▁barındır	-11.1113
bo	-11.1122
çin	-11.1127
go	-11.1129
▁pop	-11.1134
▁gan	-11.1147
eri	-11.1148
ılabilir	-11.1151
lak	-11.116
▁sırada	-11.1176
gay	-11.1177
demir	-11.1182
▁kontroller	-11.1183
▁değerlendirilme	-11.1194
▁onayla	-11.1196
fir	-11.1199
▁çile	-11.1202
mer	-11.1204
necek	-11.1219
▁kızıla	-11.1229
▁diyet	-11.123
.*	-11.1232
▁yükle	-11.1232
▁öldürüldü	-11.1234
▁futbolcular	-11.1234
tör	-11.1236
sü	-11.1238
▁sure	-11.1241
▁she	-11.1243
sey	-11.1246
▁diploma	-11.1258
▁çeyr	-11.126
▁reng	-11.1264
dig	-11.1273
▁mecbur	-11.1275
▁fel	-11.1284
▁defter	-11.1284
▁akademisyen	-11.1289
▁psikoloji	-11.1289
▁ajan	-11.129
▁afgan	-11.1293
▁rütbe	-11.1293
▁deyrezzor	-11.1293
▁mutfağ	-11.1293
▁otomotiv	-11.1293
▁tişört	-11.1293
▁yasemin	-11.1293
▁müjde	-11.1293
▁derhal	-11.1293
▁vakıf	-11.1293
▁ptt	-11.1293
istiyan	-11.1293
▁kraliçe	-11.1293
▁espri	-11.1293
▁suretiyle	-11.1293
▁tedarik	-11.1293
▁kırıkkale	-11.1294
▁kerim	-11.1294
▁duyuyorum	-11.1294
▁eroin	-11.1294
▁kaldırım	-11.1294
▁bono	-11.1296
▁abone	-11.1296
▁piyano	-11.1297
▁çınar	-11.1298
▁sabit	-11.13
▁darp	-11.13
▁yaşıyoruz	-11.1303
▁fi	-11.1303
▁sonsuz	-11.1303
▁sertifika	-11.1304
▁arsenal	-11.1304
▁sebze	-11.1305
▁biliyorum	-11.1305
▁gürkan	-11.1305
▁yumuşak	-11.1305
▁kıyasla	-11.1307
▁bingöl	-11.1307
▁kargo	-11.1307
▁cesur	-11.1311
▁gazze	-11.1316
▁sergen	-11.1317
ismar	-11.1317
▁kene	-11.1318
▁kazanç	-11.1319
▁almış	-11.1319
▁kumar	-11.1321
▁sneijder	-11.1323
▁traktör	-11.1323
▁hırs	-11.1324
▁tüken	-11.1324
▁talip	-11.1325
▁fırla	-11.1327
▁bakı	-11.1331
şim	-11.1332
▁küpe	-11.1335
▁umre	-11.1335
▁kirala	-11.1339
▁satır	-11.1341
▁yum	-11.1343
▁soyun	-11.1344
eybatı	-11.1344
▁jose	-11.1345
daki	-11.135
büyük	-11.1351
▁gökçek	-11.1354
lük	-11.1363
ancak	-11.1364
ankara	-11.1369
▁ro	-11.1371
mışlardır	-11.1373
▁rolü	-11.1373
▁sofra	-11.1375
▁kadınlar	-11.1375
▁alanya	-11.1376
ck	-11.1378
fi	-11.1384
▁kule	-11.1385
▁aldılar	-11.1386
▁kurşun	-11.1387
numun	-11.1391
▁denizli	-11.14
▁getiriyor	-11.1401
▁bacağ	-11.1403
▁hamam	-11.1411
▁140	-11.1416
▁belirtiyor	-11.1417
▁daim	-11.1418
▁çavuş	-11.1419
▁ra	-11.1421
▁tüsiad	-11.1422
▁yorul	-11.1426
▁demektir	-11.1429
tım	-11.143
▁köse	-11.1431
▁aldım	-11.1435
▁açıklamıştı	-11.1436
▁za	-11.1438
▁tasarla	-11.145
baro	-11.1461
ıraklı	-11.1462
malı	-11.1465
▁başer	-11.1479
▁değiştir	-11.1487
▁Wu	-11.1491
van	-11.1495
▁belirter	-11.1496
▁85	-11.1502
▁elif	-11.1504
▁suyu	-11.1504
▁karşılaşacak	-11.1507
▁giren	-11.1513
▁maçı	-11.1515
▁emri	-11.1521
▁sk	-11.1523
▁hadi	-11.1528
▁pan	-11.1531
erkan	-11.154
▁kurtarılama	-11.1545
taslak	-11.1548
▁62	-11.1548
▁sami	-11.1552
▁vb	-11.157
▁bayrağ	-11.1573
▁yetiştiril	-11.1579
▁76	-11.1583
▁konum	-11.1588
tim	-11.1589
▁oluşturdu	-11.1592
iang	-11.1592
rim	-11.1628
▁danış	-11.1629
cılar	-11.1632
▁danışma	-11.1636
31	-11.1663
▁güçlendir	-11.1667
ül	-11.167
adem	-11.1674
▁mc	-11.168
▁104	-11.168
riz	-11.1686
▁kayboldu	-11.1694
▁olsa	-11.1701
▁odası	-11.1703
▁umud	-11.1707
▁sevda	-11.1712
melidir	-11.172
▁yandan	-11.172
▁ece	-11.1724
▁dikili	-11.1724
▁cm	-11.1724
2)	-11.1729
▁aydınlat	-11.1746
▁korsan	-11.175
▁çalışmaları	-11.1753
acağım	-11.1755
sinin	-11.1759
▁arşiv	-11.1761
▁nişan	-11.1764
▁karayol	-11.1768
▁abluka	-11.1769
▁gövde	-11.1769
▁kırklareli	-11.1769
▁nijerya	-11.1769
▁santimetre	-11.1769
▁macaristan	-11.1769
▁tablet	-11.1769
▁şantiye	-11.1769
▁yeteneğ	-11.1769
▁çiller	-11.1769
▁bulunuldu	-11.1769
▁nikah	-11.1769
▁1993	-11.1769
▁maraton	-11.1769
▁faktör	-11.1769
▁köşk	-11.1769
fıfa	-11.177
▁tahra	-11.177
▁kuzeybatı	-11.177
▁gerilla	-11.177
▁romantik	-11.177
▁izmit	-11.177
▁tekirdağ	-11.177
▁sözkonu	-11.1771
▁hdp	-11.1771
▁gerilim	-11.1771
▁harç	-11.1771
▁musunuz	-11.1771
▁nakliye	-11.1772
▁yaygınlaş	-11.1772
▁seçeneğ	-11.1772
▁devrildi	-11.1772
▁hesapla	-11.1774
▁demirci	-11.1774
▁dinamik	-11.1774
▁çorum	-11.1775
▁magazin	-11.1775
▁frank	-11.1775
▁gereken	-11.1777
▁gözyaşı	-11.1778
▁özetle	-11.1779
▁donanma	-11.1779
▁çöl	-11.1781
▁rtük	-11.1781
▁transit	-11.1781
▁presti	-11.1781
▁türban	-11.1782
▁sırasında	-11.1782
▁hergün	-11.1784
unda	-11.1786
▁teori	-11.1788
▁limit	-11.1789
▁sürekli	-11.1789
▁birliği	-11.1794
zi	-11.1795
burg	-11.1798
▁durdurulma	-11.1798
▁1980	-11.18
▁manzara	-11.1801
▁çukurova	-11.1801
▁soma	-11.1803
▁broş	-11.1808
▁temsilcileri	-11.181
üm	-11.1811
ammer	-11.1816
▁erhan	-11.1818
▁tire	-11.1819
▁dehşet	-11.1821
▁etmektedir	-11.1823
▁cihan	-11.1827
yüz	-11.1837
▁festivalin	-11.1837
pos	-11.184
▁işit	-11.1846
▁boğa	-11.1847
yargı	-11.185
▁tuttu	-11.185
lendirme	-11.1851
no	-11.1854
em	-11.1859
terör	-11.1863
▁imkb	-11.1863
▁bek	-11.1866
▁kapla	-11.1874
bun	-11.1874
▁sorgula	-11.1877
▁teker	-11.1878
▁öğreti	-11.1882
▁yapar	-11.1888
rem	-11.1894
▁dij	-11.1896
▁beste	-11.1899
▁mum	-11.1906
▁ortada	-11.1907
▁çak	-11.1909
▁cip	-11.1922
eceğiz	-11.193
▁kurum	-11.1933
eski	-11.1936
▁çocukları	-11.1944
▁alaa	-11.1948
▁spd	-11.1958
oğul	-11.1965
▁yapay	-11.1969
▁06	-11.1976
▁21.	-11.1985
▁karşılandı	-11.1988
mediğini	-11.1993
▁general	-11.2
▁68	-11.2015
▁93	-11.2022
▁alem	-11.2033
▁fikre	-11.2038
▁maria	-11.2051
▁ağırla	-11.2061
▁iptali	-11.2066
he	-11.2066
▁far	-11.2069
▁adamları	-11.2069
▁kaba	-11.2091
lay	-11.2092
▁yanlı	-11.2093
▁derneği	-11.2095
sra	-11.2099
▁13.	-11.21
ize	-11.21
15	-11.2101
▁ihsanoğ	-11.2104
▁başkanvekil	-11.2108
▁yama	-11.2117
▁ibaret	-11.2118
▁alış	-11.2128
▁hsyk	-11.213
bit	-11.213
▁sirke	-11.2134
▁melih	-11.2136
▁hic	-11.2136
▁dera	-11.2151
▁(8	-11.2152
hur	-11.2163
len	-11.2166
▁mikro	-11.2173
▁kaldırdı	-11.2175
▁pet	-11.218
▁hattı	-11.2188
▁bolu	-11.2191
▁mahmud	-11.2197
▁duru	-11.221
▁eriş	-11.2212
▁ato	-11.2214
▁topladı	-11.2216
▁tüketim	-11.2221
▁iletti	-11.2228
▁par	-11.223
▁çıkan	-11.2235
▁edilmesi	-11.2236
▁2-	-11.224
▁etmedi	-11.2252
▁st	-11.2262
▁bulunmuştu	-11.2264
▁olmayacak	-11.2267
▁teşkil	-11.2267
▁peygamber	-11.2268
opotam	-11.2269
▁konsept	-11.2269
▁piriştina	-11.2269
▁silisyum	-11.2269
▁soykırım	-11.2269
▁vapur	-11.2269
▁çılgın	-11.2269
▁armağan	-11.2269
▁ayçiçeği	-11.2269
▁işkence	-11.2269
▁bürokrat	-11.2269
▁yetiştirici	-11.2269
▁kıdem	-11.2269
▁çabuk	-11.2269
▁soygun	-11.2269
▁emanet	-11.2269
▁otopark	-11.2269
▁sonbahar	-11.2269
▁suikast	-11.227
▁ikram	-11.227
▁avşar	-11.227
▁konvoy	-11.227
▁razı	-11.227
▁rahim	-11.227
▁müteahhit	-11.227
▁ceylan	-11.227
▁izlenim	-11.2271
▁tüfek	-11.2271
▁molla	-11.2271
▁erbakan	-11.2271
aziantepspor	-11.2271
▁geleneğ	-11.2272
▁cihaner	-11.2273
▁ısınma	-11.2274
▁selçuklu	-11.2275
▁gölet	-11.2276
▁piyan	-11.2279
▁ulusu	-11.2279
▁paylaşım	-11.228
▁cizre	-11.2281
▁metreküp	-11.2281
▁tutanak	-11.2281
▁1990	-11.2282
▁redded	-11.2283
▁pekin	-11.2286
▁iktisat	-11.2286
▁kılın	-11.2287
EDE	-11.2289
▁işlev	-11.2289
▁ilçesinde	-11.2291
▁golün	-11.2293
▁yaptığı	-11.2293
▁Wei	-11.2293
jen	-11.2298
▁panik	-11.2298
▁plastik	-11.2299
▁müfettiş	-11.2299
▁black	-11.2302
▁diyanet	-11.2302
▁rock	-11.2302
▁kktc	-11.2306
▁83	-11.2307
▁ihanet	-11.2307
▁sinop	-11.2308
▁3-1	-11.2308
sanız	-11.2314
ber	-11.2317
▁ismi	-11.232
▁manyeti	-11.2324
▁tavan	-11.2325
▁buhar	-11.2329
▁obama	-11.2332
▁ulu	-11.2333
▁kaldım	-11.2334
ua	-11.2343
▁söylemişti	-11.2344
▁kül	-11.2347
▁ulusoy	-11.2351
▁cenazesi	-11.2357
▁sözleri	-11.2357
▁çoban	-11.236
▁alıyoruz	-11.236
▁aktivite	-11.2363
▁mobilya	-11.2372
▁yanık	-11.2372
öğret	-11.2373
▁alkan	-11.2373
▁fer	-11.2374
▁dyp	-11.238
▁sayısı	-11.2382
▁yayınladı	-11.2387
bay	-11.2387
▁af	-11.2389
▁misyon	-11.239
yaklaşık	-11.2391
chp	-11.2394
▁komik	-11.2397
▁dos	-11.2398
irgin	-11.2402
▁hızlandır	-11.2402
▁zehir	-11.2408
çeşme	-11.2411
arken	-11.2416
▁politik	-11.2416
üç	-11.2419
▁twitterda	-11.2427
▁kalmıştı	-11.2435
▁aysal	-11.2438
ahmet	-11.2445
▁oyuncular	-11.2446
▁türkiyenin	-11.2451
▁abdi	-11.2455
▁yang	-11.2457
▁bank	-11.2465
▁bahsed	-11.2468
▁mo	-11.2474
adet	-11.2486
▁taşıdı	-11.2488
▁verdim	-11.2488
genç	-11.2494
▁kuşat	-11.251
emir	-11.2518
gar	-11.2518
▁alınacak	-11.2521
▁ölümü	-11.2528
▁dışında	-11.2531
nacak	-11.2545
▁düşünüyor	-11.2547
ett	-11.2548
▁mil	-11.2554
aylin	-11.2562
▁kıymet	-11.2563
evu	-11.2566
▁muhafaza	-11.2569
▁fp	-11.2571
rettin	-11.2594
▁ettiği	-11.2605
laştırma	-11.2611
mus	-11.2614
ligi	-11.2617
ırak	-11.2632
ıldığını	-11.2643
▁üzerinde	-11.2648
▁bileşi	-11.2651
▁başlamıştı	-11.2657
▁özlem	-11.2667
▁sonucu	-11.2668
▁anlatıyor	-11.2679
▁seba	-11.268
star	-11.2687
lardan	-11.2691
ilmi	-11.2693
suz	-11.2704
▁söyledim	-11.2706
▁esen	-11.2707
▁1-	-11.2717
▁denk	-11.2725
▁etmiş	-11.2725
▁istedik	-11.2727
▁jo	-11.2729
▁zanlı	-11.2731
▁asist	-11.2736
eceğini	-11.2739
▁balo	-11.2746
▁sinirlen	-11.2747
uğgeneral	-11.2752
▁hati	-11.2756
▁kalkın	-11.2758
lanırken	-11.2759
▁ekse	-11.2773
▁atmosfer	-11.2776
▁89	-11.2776
▁merh	-11.2776
▁vesile	-11.2785
▁chpd	-11.2789
ydu	-11.279
▁etmesi	-11.2793
▁söyleşi	-11.2793
kara	-11.2794
▁dinç	-11.2795
▁çirkin	-11.2795
ecronomicon	-11.2795
▁ahşap	-11.2795
▁kuaför	-11.2795
▁lojistik	-11.2795
▁manchester	-11.2795
▁mucize	-11.2795
▁orkestra	-11.2795
▁pasaport	-11.2795
▁resepsiyon	-11.2795
▁rövanş	-11.2795
▁intikam	-11.2795
▁tescil	-11.2795
▁Sarı	-11.2795
▁çağatay	-11.2796
▁titiz	-11.2796
▁tohum	-11.2796
▁tezahürat	-11.2796
▁toyota	-11.2796
▁burdur	-11.2796
▁altınordu	-11.2796
▁derbi	-11.2797
▁insanlar	-11.2797
▁anlaşmazlı	-11.2797
▁unakıtan	-11.2798
▁affleck	-11.2798
▁kablo	-11.2798
▁istemiyorum	-11.28
▁acar	-11.28
▁uysal	-11.2801
▁sakız	-11.2802
▁akdağ	-11.2802
▁avlu	-11.2803
▁ceviz	-11.2806
▁durumunda	-11.2808
▁biliyoruz	-11.2808
▁referandum	-11.2808
▁hoşgörü	-11.2808
▁estetik	-11.2809
▁şura	-11.2809
▁veriliyor	-11.2809
çekme	-11.2811
▁badem	-11.2812
▁yükümlü	-11.2813
▁adanaspor	-11.2815
▁hani	-11.2821
dım	-11.2821
▁makina	-11.2822
▁düşüyor	-11.2822
▁tolga	-11.2822
▁leke	-11.2822
▁batman	-11.2823
▁bur	-11.2824
lie	-11.283
▁küba	-11.2833
▁pul	-11.2835
ting	-11.2837
▁ünsal	-11.284
▁besin	-11.2843
▁varil	-11.2846
▁versiyon	-11.2849
▁palinoloji	-11.2853
ren	-11.2855
yurt	-11.2855
-16	-11.2857
▁bilge	-11.2859
larının	-11.286
▁tim	-11.2861
▁alp	-11.2865
▁yaralanma	-11.2866
▁etmek	-11.2866
▁olanağ	-11.2869
▁fiil	-11.2876
asya	-11.2879
seç	-11.2885
▁varsa	-11.2893
▁mark	-11.2905
▁ku	-11.2912
▁yapmış	-11.2913
ane	-11.292
süz	-11.292
▁hazırlanma	-11.2923
▁kullanan	-11.293
dor	-11.2935
▁gor	-11.2935
▁değ	-11.2937
▁bileşen	-11.2939
▁hamas	-11.294
▁kaynaklar	-11.2941
ford	-11.2944
▁vermiş	-11.2947
avrupa	-11.2947
▁mor	-11.2958
25	-11.296
ard	-11.2973
▁96	-11.298
▁rengi	-11.2993
▁geldim	-11.2993
▁atıldı	-11.2994
▁oldular	-11.2998
▁aradı	-11.3001
▁thy	-11.3007
▁po	-11.3008
ala	-11.3012
tar	-11.3013
▁riva	-11.3023
▁tümü	-11.3025
cuk	-11.3034
▁borçlan	-11.3036
leşme	-11.3039
▁değiliz	-11.3047
▁cesedi	-11.305
nce	-11.3053
monte	-11.3056
▁keskin	-11.3056
▁fu	-11.3059
▁kesti	-11.3062
▁gördük	-11.3064
▁boyn	-11.3065
▁cumhuriyeti	-11.3067
▁ertele	-11.3073
▁gideril	-11.3074
▁nes	-11.3092
itap	-11.3095
▁meşru	-11.3097
top	-11.3104
‘	-11.3111
▁şık	-11.3113
zon	-11.3119
▁devredil	-11.3121
▁chelsea	-11.3123
lim	-11.3123
▁mont	-11.3127
rah	-11.3131
ladı	-11.3146
▁imzaladı	-11.3147
▁tebri	-11.3154
▁ebu	-11.3157
▁sürecek	-11.317
▁anlat	-11.3173
▁dayı	-11.3178
▁vermedi	-11.3179
▁kaf	-11.3187
▁mevkiin	-11.3189
▁sadık	-11.3191
▁doğrula	-11.3207
zade	-11.3219
▁sıvı	-11.322
▁hatip	-11.3223
▁kasımpaşa	-11.3223
yat	-11.3226
cağ	-11.325
mistir	-11.3259
elim	-11.3264
dığı	-11.3285
nik	-11.3286
▁2017	-11.3291
▁tüy	-11.3319
▁delege	-11.3321
▁karma	-11.3322
rina	-11.3328
-15	-11.3331
meden	-11.3332
dışı	-11.3333
▁1-2	-11.3335
▁söndürül	-11.3339
▁zorunda	-11.3344
▁14.	-11.3345
diana	-11.3347
▁bahane	-11.3348
arım	-11.3349
nderlecht	-11.3351
▁akciğer	-11.3351
▁bıçağ	-11.3351
▁kastamonu	-11.3351
▁kasırga	-11.3351
▁kennedy	-11.3351
▁pırlanta	-11.3351
▁yanukoviç	-11.3351
▁ıhlamur	-11.3351
▁canavar	-11.3351
▁kepçe	-11.3351
▁aptal	-11.3351
▁feribot	-11.3351
▁soğan	-11.3351
▁galiba	-11.3351
▁müzisyen	-11.3351
▁tabela	-11.3351
▁barcelona	-11.3351
▁başesgioğlu	-11.3351
▁asfalt	-11.3351
▁tütüncü	-11.3351
▁gürcistan	-11.3351
▁şaban	-11.3351
▁formül	-11.3351
▁zihin	-11.3351
▁berber	-11.3351
▁aykut	-11.3351
▁bardak	-11.3351
▁hükümdar	-11.3352
▁alınırken	-11.3352
▁viyana	-11.3352
▁seferber	-11.3352
▁diego	-11.3352
▁karbon	-11.3352
▁milletvekilliği	-11.3352
▁atilla	-11.3352
▁evvel	-11.3352
▁irtibat	-11.3353
▁evlat	-11.3353
▁çarpıştı	-11.3353
▁lastiğ	-11.3353
▁osmaniye	-11.3354
▁aydoğan	-11.3354
▁giriş	-11.3355
▁hakimiyet	-11.3355
▁abbas	-11.3356
▁mensubu	-11.3356
▁aksoy	-11.3356
▁standard	-11.3356
tapınak	-11.3356
▁filo	-11.3356
▁sırp	-11.3357
çuk	-11.3357
formula	-11.3358
▁sakinleri	-11.3358
▁nakli	-11.336
bana	-11.3361
▁çekin	-11.3362
▁fa	-11.3362
▁frankfurt	-11.3365
▁motivasyon	-11.3365
▁tuncay	-11.3365
▁gizem	-11.3365
▁patates	-11.3365
▁kosova	-11.3365
▁cehennem	-11.3365
▁hamburg	-11.3365
▁güzelbahçe	-11.3366
▁(5)	-11.3367
▁dunya	-11.3368
kad	-11.3368
▁oylama	-11.337
▁alper	-11.3371
▁diyorum	-11.3373
▁dene	-11.3375
▁ertan	-11.3376
▁travma	-11.3377
önü	-11.3378
fail	-11.338
▁kazım	-11.338
▁taksim	-11.338
▁beşir	-11.338
9.00	-11.3381
▁ertelenme	-11.3383
▁87	-11.3384
▁derviş	-11.3388
▁ciro	-11.3388
▁yandaş	-11.3389
▁gayri	-11.3389
▁karşılanma	-11.3389
▁eyüp	-11.339
injiang	-11.3391
za	-11.3392
▁14.00	-11.3395
▁beyoğlu	-11.3399
▁partisi	-11.3401
▁61	-11.3403
▁göztepe	-11.3404
▁tutun	-11.3407
ezdin	-11.3408
▁kompleks	-11.341
4-5	-11.3413
▁gülümse	-11.3413
▁sağlayacak	-11.3415
▁atölye	-11.3417
▁kimi	-11.3419
▁vazgeçti	-11.3422
▁kaplan	-11.3425
deki	-11.3425
▁balon	-11.3427
▁kev	-11.3436
▁soner	-11.3438
▁3-	-11.3441
ph	-11.3442
▁duruyor	-11.3446
▁şeyh	-11.3446
▁aut	-11.3451
▁donatıl	-11.3452
▁ettiğini	-11.3456
veri	-11.3459
tam	-11.3462
▁hav	-11.3466
▁üss	-11.3467
▁aldat	-11.347
▁almadı	-11.347
▁olmalıdır	-11.3471
gir	-11.3473
▁öldürdü	-11.3474
▁gelmedi	-11.3479
▁kul	-11.3479
▁demet	-11.3487
ryüzü	-11.3491
che	-11.3492
▁T	-11.3499
▁58	-11.3505
ülke	-11.3516
▁yapılmadı	-11.3516
sim	-11.3519
yani	-11.3522
ani	-11.3524
▁rica	-11.353
ış	-11.3534
devlet	-11.3535
▁usul	-11.3541
▁özçe	-11.3543
liler	-11.3556
sını	-11.3566
▁oral	-11.3571
▁kam	-11.3572
▁gele	-11.3575
insan	-11.3575
▁tutuş	-11.3581
▁67	-11.3585
kadın	-11.3586
yum	-11.3586
ster	-11.3586
sas	-11.3589
istan	-11.3601
▁finali	-11.3605
kaz	-11.3614
▁tümen	-11.3618
▁yuvarlak	-11.362
▁41	-11.3627
▁yedi	-11.3629
rides	-11.3636
▁uğru	-11.3639
▁finalin	-11.364
▁programı	-11.3646
▁bayi	-11.3648
▁güngör	-11.365
▁ölç	-11.3658
mlu	-11.3667
▁kavuştu	-11.3673
larla	-11.3674
▁gore	-11.3676
▁hane	-11.3678
tmen	-11.3678
▁komed	-11.368
▁kate	-11.3683
▁ideal	-11.3685
▁kutlan	-11.3685
▁oynuyor	-11.3697
▁odaklan	-11.3707
▁73	-11.3711
iliyor	-11.3712
▁nazi	-11.3712
ağı	-11.3713
amil	-11.3715
ürüldü	-11.3716
▁katılıyor	-11.3723
cük	-11.3733
▁jones	-11.3733
ger	-11.374
▁orijinal	-11.3748
▁William	-11.3754
▁sos	-11.3756
76	-11.3756
ğu	-11.376
75	-11.3775
▁kala	-11.3783
▁çalı	-11.379
▁seribaş	-11.3791
▁3.5	-11.3794
▁deneme	-11.3817
▁ispat	-11.3818
▁club	-11.3822
ic	-11.3827
dra	-11.3838
▁angeles	-11.3852
▁oturdu	-11.3862
▁başkanlığı	-11.3862
▁belirti	-11.3874
▁23.	-11.3892
▁hazırladı	-11.3901
▁82	-11.3916
▁araçları	-11.3917
▁görevlendiril	-11.3918
▁cafe	-11.3921
▁götürdü	-11.3925
▁gayrimenkul	-11.3931
▁dram	-11.3931
▁kağıd	-11.3933
▁ısı	-11.3933
▁kapattı	-11.3934
▁konuldu	-11.3934
▁parlament	-11.3935
▁---	-11.3936
▁şarj	-11.3939
▁akaryakıt	-11.3939
▁başsağlığı	-11.3939
▁beyzbol	-11.3939
▁bonservis	-11.3939
▁gürültü	-11.3939
▁tahakkuk	-11.3939
▁çember	-11.3939
▁teyze	-11.3939
▁lokanta	-11.3939
▁tarsus	-11.3939
▁muvazzaf	-11.3939
▁kukla	-11.3939
▁şahıs	-11.3939
▁sipariş	-11.3939
▁hormon	-11.3939
▁sempozyum	-11.3939
▁ömr	-11.3939
▁serhat	-11.394
▁depremzede	-11.394
▁ıslah	-11.394
▁bronz	-11.394
▁levha	-11.394
▁eczane	-11.394
▁yazıcıoğlu	-11.394
▁tapu	-11.3941
▁albayrak	-11.3941
▁kısır	-11.3941
▁doping	-11.3941
▁kerry	-11.3942
▁söylenti	-11.3942
▁porno	-11.3942
▁güray	-11.3942
▁buruk	-11.3943
▁partizan	-11.3943
▁130	-11.3944
▁surat	-11.3947
▁sabahatti	-11.3947
▁sanatkar	-11.3948
don	-11.3949
▁ersoy	-11.3951
▁450	-11.3952
▁alex	-11.3952
▁eşref	-11.3954
▁mandriva	-11.3954
▁federal	-11.3954
▁power	-11.3954
aşist	-11.3954
▁dgm	-11.3955
▁uçtu	-11.3955
▁tele	-11.3956
▁nakit	-11.3957
▁kudüs	-11.3958
ter	-11.3958
▁konyaspor	-11.3959
▁lastik	-11.3962
▁aksaray	-11.3962
.9	-11.3963
iğne	-11.3967
▁kabine	-11.3967
▁veriyoruz	-11.397
▁esir	-11.397
▁yurtiçi	-11.3973
▁ağar	-11.3974
askı	-11.3974
▁seine	-11.3975
▁sındır	-11.3976
▁yumruk	-11.3978
▁ankaragü	-11.3978
▁cimnastik	-11.3979
▁fantasti	-11.398
▁anlayışı	-11.3981
ilebilir	-11.3981
▁plaz	-11.3982
▁avm	-11.3983
amca	-11.3985
▁ekim	-11.3987
▁türü	-11.3988
▁900	-11.3989
min	-11.399
zzet	-11.3993
bakteri	-11.3997
▁çamur	-11.4004
▁idris	-11.4004
yken	-11.4007
▁guzel	-11.4007
▁önerdi	-11.4008
▁günaydın	-11.4013
▁alacağız	-11.4017
▁türkoğlu	-11.4018
▁yapıt	-11.4018
▁ekmeğ	-11.4019
▁beslen	-11.4025
▁anımsat	-11.4029
▁musul	-11.403
▁ezan	-11.4031
▁bulunacak	-11.4032
▁zehirlen	-11.4035
çoğu	-11.4036
nim	-11.4037
▁91	-11.4038
▁tanığ	-11.4043
ss	-11.4044
bö	-11.4045
▁kurtardı	-11.4049
▁odak	-11.405
▁dönemde	-11.4058
▁etmiştir	-11.4067
▁verdiler	-11.4073
▁kası	-11.4075
leştirdi	-11.4076
▁ınter	-11.4088
▁ga	-11.4088
dem	-11.4092
my	-11.4095
masında	-11.4097
▁youtube	-11.4108
▁damla	-11.4121
▁medeniy	-11.4122
üldü	-11.4124
▁susam	-11.4124
28	-11.4124
▁isteğ	-11.4125
▁gönderilme	-11.4135
▁söylem	-11.4138
by	-11.4139
▁hong	-11.414
fuk	-11.4141
şah	-11.4142
bank	-11.4144
▁hala	-11.4149
beşiktaş	-11.4153
▁koyuyor	-11.4154
-19	-11.4155
▁alınmıştı	-11.4156
parti	-11.4157
artık	-11.4159
lerle	-11.416
almanya	-11.4162
W	-11.4162
▁çekiş	-11.4163
emez	-11.4167
larıdır	-11.4168
▁sürükle	-11.417
’’	-11.4177
▁59	-11.4181
▁şekilde	-11.4183
▁tüf	-11.4186
zer	-11.4186
▁karn	-11.4187
▁kaş	-11.4193
▁oranı	-11.4202
▁nadir	-11.4205
▁durağ	-11.4207
göz	-11.4212
▁kurgu	-11.422
tes	-11.4225
▁oluşturulma	-11.4234
▁okudu	-11.4236
madan	-11.4238
▁budur	-11.424
▁safi	-11.4241
▁cinsiyet	-11.4242
▁sergiledi	-11.4247
▁hil	-11.4274
ıpkı	-11.4275
▁oluşuyor	-11.4277
tıklarını	-11.4285
▁ç	-11.4286
▁yapılması	-11.4294
▁10.	-11.4298
name	-11.43
▁kast	-11.4304
emedim	-11.431
▁trans	-11.4316
▁sınırla	-11.4335
▁sığ	-11.4339
▁türkmen	-11.434
▁çalışacak	-11.4344
▁bakanlık	-11.4355
▁olsay	-11.4358
-2	-11.4359
▁çıkmıştı	-11.4361
▁band	-11.4362
▁71	-11.4377
ülüyor	-11.438
▁oldug	-11.4387
üst	-11.4397
▁mana	-11.4404
met	-11.4406
▁toplan	-11.4411
47	-11.4411
sek	-11.4414
ut	-11.4416
▁takas	-11.4417
▁sis	-11.4422
▁yüzey	-11.4436
▁değişti	-11.4439
▁110	-11.4442
▁olanı	-11.4452
▁bahset	-11.4454
24	-11.4461
▁savunuyor	-11.4472
▁toplandı	-11.4476
▁kanıtla	-11.4481
▁şaka	-11.4489
▁yenilen	-11.4492
▁karıştı	-11.4492
▁askerler	-11.4497
-100	-11.4508
▁indi	-11.4509
▁akgün	-11.451
▁sır	-11.451
larına	-11.4511
mayı	-11.4512
▁bana	-11.4521
niversitesi	-11.4523
▁ile	-11.4528
▁paha	-11.4543
▁öcal	-11.4546
▁mutlak	-11.4552
ga	-11.4554
▁otorite	-11.4558
▁acenta	-11.456
▁edilmişti	-11.456
▁kafkas	-11.4561
▁Belediyespor	-11.4564
▁kavşak	-11.4564
▁kübra	-11.4564
▁özkök	-11.4564
▁bedava	-11.4564
maksimum	-11.4564
▁kamalak	-11.4564
▁tüpraş	-11.4564
▁keşif	-11.4564
▁yarbay	-11.4564
▁özbekistan	-11.4564
çiçeğ	-11.4564
▁övgü	-11.4564
▁çağlayan	-11.4565
▁Wallace	-11.4565
▁sönmez	-11.4565
▁gündoğdu	-11.4565
▁kucağ	-11.4565
▁oruç	-11.4565
▁ikramiye	-11.4565
▁barbar	-11.4565
▁hamle	-11.4565
▁fırat	-11.4565
▁intikal	-11.4565
▁zarif	-11.4566
▁semih	-11.4566
▁rizespor	-11.4566
▁daniel	-11.4566
çuval	-11.4566
▁grip	-11.4567
▁tunus	-11.4567
smart	-11.4567
▁mezuniyet	-11.4567
▁derd	-11.4567
▁aynen	-11.4568
▁harry	-11.4568
▁mutsuz	-11.4568
▁eklendi	-11.4569
▁ciddiyet	-11.4569
▁sümer	-11.4569
▁World	-11.4569
muştu	-11.4569
▁kirli	-11.4569
▁yıka	-11.457
▁alınıyor	-11.4571
▁yargıç	-11.4572
▁yayınlandı	-11.4575
▁shang	-11.4578
▁fast	-11.4578
▁sırasıyla	-11.4579
▁vahim	-11.4579
▁yuanxiao	-11.458
▁lodos	-11.458
▁mezhep	-11.458
▁folk	-11.458
▁davul	-11.458
▁tatmin	-11.458
▁manken	-11.4583
▁samsunspor	-11.4584
▁mevlü	-11.4585
▁sichuan	-11.4585
cü	-11.4589
▁ihti	-11.4589
▁kullanıldı	-11.459
▁kanada	-11.4591
▁ismet	-11.4591
ludere	-11.4592
▁go	-11.4597
▁gerekmektedir	-11.4599
▁durmuş	-11.4599
▁cenk	-11.4599
atılım	-11.4601
▁kepe	-11.4601
ledi	-11.4602
▁altınor	-11.4606
▁kontenjan	-11.4606
▁cezayir	-11.4606
▁öteki	-11.4606
▁kabiliyet	-11.4607
▁fakir	-11.4607
▁yelek	-11.4617
▁istediler	-11.4619
▁saka	-11.462
▁ergenekon	-11.4622
larara	-11.4628
▁bereket	-11.4634
65	-11.4634
▁boyle	-11.4638
▁kalkan	-11.4639
▁tabir	-11.464
▁lok	-11.4645
▁oksi	-11.465
oy	-11.4655
▁böbre	-11.4655
▁erdoğanın	-11.4657
anyum	-11.4663
▁hızı	-11.4663
xx	-11.4666
ueen	-11.467
▁cari	-11.4679
▁aksa	-11.4684
▁Wor	-11.4686
▁ödene	-11.4688
▁yenilenme	-11.4692
▁çeviri	-11.4696
tiner	-11.4699
▁buzlan	-11.4715
▁kör	-11.4716
nazi	-11.472
▁namı	-11.4727
▁şeytan	-11.4736
▁şüphelen	-11.4736
laşma	-11.4738
▁hd	-11.4738
ıyorlar	-11.4745
▁ntv	-11.4751
▁akpli	-11.4754
aygın	-11.4788
▁mıdır	-11.4792
▁martin	-11.4793
▁mavili	-11.4793
▁sloganı	-11.4795
▁his	-11.4795
sincan	-11.4801
hayat	-11.4805
▁olun	-11.4805
▁tarama	-11.4807
▁verirk	-11.4812
▁zenginleştir	-11.4814
▁algıla	-11.4815
▁idra	-11.4822
hiç	-11.4825
▁kullanılıyor	-11.4835
liydi	-11.4844
▁mülkiye	-11.4848
▁ji	-11.4851
▁dönüştürül	-11.4859
▁talebi	-11.486
▁oldugu	-11.4861
▁kaçağ	-11.4862
▁kuyum	-11.4868
▁çıkarıl	-11.4869
▁süs	-11.4871
lardı	-11.4873
dedi	-11.4874
▁seyret	-11.4877
ov	-11.488
▁kıy	-11.4881
▁tay	-11.4881
mo	-11.4882
▁mevkii	-11.4885
▁tatlı	-11.4887
▁tıklay	-11.4887
▁müs	-11.4894
amaz	-11.4898
▁sıfat	-11.4918
yoruz	-11.4924
▁tuna	-11.4929
▁kun	-11.4936
▁kullanıyor	-11.4937
▁220	-11.4937
▁iniş	-11.4949
▁avr	-11.495
▁batu	-11.495
tekin	-11.4962
▁atıl	-11.4963
▁golde	-11.4964
▁gizle	-11.4971
▁rota	-11.4971
▁mah	-11.4986
▁olurdu	-11.4986
ymış	-11.5011
▁heye	-11.5016
aç	-11.5019
▁döşe	-11.502
ap	-11.5023
-4	-11.5028
▁fid	-11.5031
11	-11.5034
▁papa	-11.504
▁1992	-11.504
▁yansıdı	-11.505
▁ikiz	-11.5053
▁izleye	-11.5055
▁fe	-11.5056
▁bü	-11.5058
8.00	-11.5063
yar	-11.507
kend	-11.507
▁ertelen	-11.5079
start	-11.5081
biye	-11.5087
▁yendi	-11.5088
yap	-11.509
▁abdden	-11.51
66	-11.5114
disyon	-11.5118
▁fiş	-11.5123
▁çapa	-11.5125
▁usulü	-11.5127
▁feri	-11.513
▁pekiştir	-11.5131
▁kopya	-11.5141
▁olursa	-11.5142
▁dip	-11.5144
ski	-11.5147
▁sak	-11.5149
▁kristal	-11.5162
▁1500	-11.5163
▁pr	-11.5165
th	-11.5166
ayında	-11.517
▁tev	-11.5178
cık	-11.518
lendir	-11.518
slak	-11.5188
▁azı	-11.5193
▁örtü	-11.5196
nike	-11.5196
▁ahmed	-11.5196
▁ihrac	-11.5206
▁gelmez	-11.5207
▁gaye	-11.5214
▁bombala	-11.5215
▁kararlaştırdı	-11.5215
leş	-11.5216
fuz	-11.5217
mahalle	-11.5223
▁kavşağ	-11.5223
▁fonksiyon	-11.5223
▁muhamme	-11.5227
▁çıkmış	-11.5228
▁göğs	-11.5229
uhasebe	-11.523
▁hapse	-11.523
▁alüminyum	-11.5231
▁dinozor	-11.5231
▁doküman	-11.5231
▁domates	-11.5231
▁hemşire	-11.5231
▁hijyen	-11.5231
▁kahkaha	-11.5231
▁senarist	-11.5231
▁çavdar	-11.5231
▁üniforma	-11.5231
▁şarampol	-11.5231
▁tofaş	-11.5231
▁beraat	-11.5231
▁nihayet	-11.5231
▁fındık	-11.5231
▁palmiye	-11.5231
▁selanik	-11.5231
▁hidrojen	-11.5231
▁tufan	-11.5231
▁taziye	-11.5231
▁yunus	-11.5231
▁limited	-11.5231
▁temsilcisi	-11.5231
▁tütün	-11.5232
▁1981	-11.5232
▁sağanak	-11.5232
▁hedefliyoruz	-11.5233
▁solcu	-11.5233
▁yanıtlarken	-11.5233
▁mutluyum	-11.5233
▁murdoch	-11.5233
▁gebe	-11.5233
▁prensip	-11.5234
▁sarıkaya	-11.5234
▁bekliyorum	-11.5234
▁kurultay	-11.5234
▁konsol	-11.5234
▁çıray	-11.5234
▁5-10	-11.5235
▁basket	-11.5235
▁afyonkarahisar	-11.5235
▁kabuğ	-11.5235
▁yaprağ	-11.5235
▁seyit	-11.5235
▁karışık	-11.5235
▁istemiyoruz	-11.5236
▁diyebiliriz	-11.5238
▁haberdar	-11.5238
▁stant	-11.5239
▁gidiyoruz	-11.5239
▁tahta	-11.524
▁isterim	-11.524
▁one	-11.5241
▁bandırma	-11.5243
▁20.00	-11.5244
▁önlenme	-11.5245
▁müşavir	-11.5246
▁esne	-11.5247
▁tüccar	-11.5247
▁vahşet	-11.5247
▁ceyhan	-11.5247
▁zico	-11.5247
▁yokuş	-11.5247
▁çiğdem	-11.5247
▁online	-11.5248
zire	-11.525
▁botaş	-11.525
▁merci	-11.5251
▁garni	-11.5252
castro	-11.5254
▁erteledi	-11.5255
arapça	-11.5255
▁ogün	-11.5256
▁tanker	-11.5257
▁E	-11.5257
▁taşınma	-11.5259
▁çalışıyorlar	-11.526
▁varol	-11.5261
▁altında	-11.5262
▁elvan	-11.5263
▁ister	-11.5263
▁gitar	-11.5264
▁damat	-11.5264
lerden	-11.5269
▁mutab	-11.527
▁tabiat	-11.527
▁parmağ	-11.5273
▁peru	-11.5276
▁üzüm	-11.5276
▁yapılmıştır	-11.5276
▁açıyor	-11.5277
▁edecektir	-11.528
▁kaynakları	-11.5281
diklerini	-11.5283
▁dizel	-11.5288
▁müdahalesi	-11.5294
▁bakkal	-11.5295
▁gibiydi	-11.5296
▁hüsn	-11.5296
▁iranlı	-11.5296
6.4	-11.5297
▁denetleme	-11.5298
▁best	-11.5298
▁united	-11.53
arka	-11.5301
▁sapta	-11.5301
nu	-11.5305
▁linux	-11.5305
dıklarını	-11.5306
▁cev	-11.5311
▁irfan	-11.5312
▁ülkü	-11.5321
▁etmiyor	-11.5321
▁ova	-11.5322
▁ambar	-11.5323
▁bilmiyor	-11.5327
Bu	-11.533
tra	-11.5334
▁rüşvet	-11.5335
▁iletiş	-11.5338
lor	-11.5339
▁tarife	-11.5339
▁durur	-11.5339
▁hp	-11.5352
▁bilir	-11.5354
mmy	-11.5354
▁yaptılar	-11.5359
▁ilham	-11.5361
▁festivalde	-11.5361
asil	-11.5365
▁bosna	-11.5366
▁dj	-11.5366
▁nimet	-11.5367
▁kár	-11.5369
▁krem	-11.537
inda	-11.5372
bitkisel	-11.5372
▁oynayacak	-11.5379
▁94	-11.538
▁lala	-11.5381
ray	-11.5386
▁özgüven	-11.5394
tah	-11.5396
sunam	-11.5396
üstü	-11.5399
▁you	-11.5399
▁sökül	-11.5408
▁yuan	-11.5412
2006	-11.5419
▁ferya	-11.5426
▁''	-11.5427
80	-11.5427
ey	-11.5433
▁imra	-11.5437
ER	-11.5446
tığını	-11.5454
nıyor	-11.5454
▁onaylan	-11.5455
amerika	-11.5457
▁komitesi	-11.5466
-12	-11.5472
▁atanma	-11.5476
▁atak	-11.5479
ris	-11.5488
▁toplantısı	-11.5488
▁haci	-11.5501
▁buluyor	-11.5506
▁bulacak	-11.551
▁tas	-11.5511
ebilme	-11.5513
▁toplanma	-11.5517
▁nitele	-11.5524
▁yapmadı	-11.5525
mamıştır	-11.5525
ora	-11.5531
▁alaça	-11.5533
ssü	-11.5536
kardeş	-11.5538
▁verilmedi	-11.554
lanmıştır	-11.554
fenerbahçe	-11.5541
▁rolün	-11.5542
lerara	-11.5543
sahip	-11.5544
şar	-11.5547
abiliriz	-11.5551
park	-11.5553
amıyor	-11.5557
▁dinledi	-11.556
vatan	-11.5564
anne	-11.5569
▁cemaat	-11.5595
ja	-11.5597
▁etkinlik	-11.5597
▁neo	-11.56
▁yaratıyor	-11.5601
sif	-11.5608
▁mod	-11.5611
akat	-11.5613
▁*:	-11.5614
▁hızlı	-11.5622
ile	-11.5623
ttı	-11.5623
▁100.	-11.5641
▁şirketi	-11.5652
▁çim	-11.5653
▁der	-11.566
34	-11.5661
ona	-11.5663
tireceğiz	-11.5664
▁doğuş	-11.5669
.’’	-11.5675
▁kura	-11.5679
nmıştı	-11.5681
:00	-11.5688
▁sy	-11.5691
ent	-11.5699
ilecek	-11.5701
ucu	-11.5706
mezler	-11.5719
madım	-11.5721
ale	-11.5724
▁ediyordu	-11.5725
▁şüpheli	-11.5725
▁tarafı	-11.5727
▁gücü	-11.5732
▁tmsf	-11.574
▁stadı	-11.5741
▁azaltıl	-11.5743
▁müzikal	-11.5745
uyoruz	-11.5762
fa	-11.577
lenen	-11.577
makta	-11.5773
▁annesi	-11.5774
▁mel	-11.5775
▁bekledi	-11.5779
unca	-11.578
tki	-11.5781
ou	-11.5788
▁kayna	-11.5793
eşin	-11.5795
▁kaldık	-11.5796
▁vermesi	-11.5804
▁ner	-11.5808
tırıldı	-11.5818
rdistan	-11.5832
miyor	-11.5837
▁sur	-11.5843
▁yinele	-11.5844
▁sıva	-11.5844
▁atay	-11.5851
90	-11.5853
layacağız	-11.5853
▁jia	-11.5856
bolu	-11.5857
▁6-1	-11.5863
gat	-11.5873
lacivertli	-11.5874
ues	-11.5875
▁pat	-11.5879
çı	-11.5886
sinda	-11.5887
▁gereksi	-11.589
▁uyg	-11.5896
▁270	-11.5901
▁uzer	-11.5907
▁favori	-11.5907
▁kökl	-11.5907
▁ez	-11.5908
▁operatör	-11.5914
▁gökalp	-11.5914
▁tra	-11.5918
ışkan	-11.5921
▁vi	-11.5921
tso	-11.5922
▁dilenci	-11.5922
▁güçlendirme	-11.5926
hi	-11.5928
tma	-11.5936
▁iktisa	-11.5938
▁reuters	-11.594
▁koridor	-11.594
▁bakır	-11.5941
▁sendrom	-11.5942
***	-11.5942
▁vahşi	-11.5944
▁piercing	-11.5944
▁karabük	-11.5944
▁zeybek	-11.5944
▁galibi	-11.5945
▁taahhüt	-11.5945
▁viktor	-11.5945
▁endonezya	-11.5945
▁susurluk	-11.5945
▁vazife	-11.5945
▁diktatör	-11.5945
▁cenevre	-11.5945
▁hokey	-11.5945
▁onkoloji	-11.5945
▁kortej	-11.5945
▁thomas	-11.5945
▁lokomotif	-11.5945
▁pembe	-11.5945
▁kürsü	-11.5945
▁macias	-11.5945
▁poşet	-11.5945
affer	-11.5945
▁kolombiya	-11.5945
▁suruç	-11.5946
▁durduruldu	-11.5946
▁makedonya	-11.5946
▁yorgan	-11.5946
▁bulunduğunu	-11.5946
▁gürsoy	-11.5946
▁13.00	-11.5946
▁fox	-11.5946
▁şerif	-11.5946
▁tatlıses	-11.5946
▁erciyesspor	-11.5946
▁hissediyorum	-11.5946
▁alpay	-11.5946
▁ihtiyat	-11.5947
▁gölbaşı	-11.5947
▁yüreğir	-11.5947
▁enjekt	-11.5947
▁tavşan	-11.5947
▁pür	-11.5947
▁idl	-11.5947
▁scott	-11.5947
▁görüyorum	-11.5948
▁şahit	-11.5948
▁ferrar	-11.5948
▁şentürk	-11.5948
▁söylüyorum	-11.5948
▁düşünmüyorum	-11.5948
▁kocaelispor	-11.5949
▁girecek	-11.5949
▁sanmıyorum	-11.5949
▁onarım	-11.595
▁eziyet	-11.5951
▁kayısı	-11.5951
▁beko	-11.5952
▁anımsattı	-11.5953
▁hür	-11.5953
▁havayol	-11.5953
▁(22)	-11.5954
▁geçmişti	-11.5954
▁aydınlık	-11.5954
▁belirtiyorlar	-11.5954
▁sanatsever	-11.5955
▁tabanca	-11.5956
mıyorum	-11.5956
▁crown	-11.5957
▁aslında	-11.5957
▁malum	-11.5957
▁1960	-11.5959
▁fua	-11.596
▁yüreğ	-11.5961
▁günah	-11.5962
▁bulgu	-11.5963
▁kılavuz	-11.5963
▁singapur	-11.5963
▁cil	-11.5963
▁sperm	-11.5963
▁animasyon	-11.5963
▁mursi	-11.5963
▁leonard	-11.5963
skişehirspo	-11.5963
▁cska	-11.5963
▁afyon	-11.5963
▁selvi	-11.5963
▁berlusconi	-11.5964
▁izsu	-11.5964
▁söyleniyor	-11.5965
uldu	-11.5966
▁fare	-11.5966
▁ılıcak	-11.5967
▁akçay	-11.5967
ılıyor	-11.5968
▁pazarlama	-11.5968
▁keşfed	-11.5968
▁tartan	-11.5969
▁hükmetti	-11.5969
▁erme	-11.597
▁yaralılar	-11.5973
▁İ	-11.5976
▁down	-11.5977
▁desteklenme	-11.5979
▁pozi	-11.5979
aziz	-11.5979
▁patladı	-11.5982
▁dna	-11.5984
▁girmesi	-11.5985
ide	-11.5987
▁yaşar	-11.599
▁şirin	-11.5991
▁16.00	-11.5993
▁yürütüyor	-11.5995
▁barışçı	-11.5996
▁öğrendi	-11.5997
▁cop	-11.5998
üksel	-11.5999
▁ulke	-11.6001
▁unesco	-11.6003
▁paf	-11.6004
▁karne	-11.6004
knik	-11.6005
▁dursun	-11.6005
▁hatun	-11.6006
▁yapalım	-11.6007
▁reddetti	-11.6007
lt	-11.6012
▁file	-11.6012
gaz	-11.6013
▁buluşacak	-11.6015
emedi	-11.6018
▁golleri	-11.6019
▁duyar	-11.602
para	-11.6022
▁karaciğer	-11.6025
▁merhaba	-11.6025
▁güçlen	-11.6026
▁elmas	-11.6027
kış	-11.6028
dvd	-11.6029
rato	-11.6038
▁çevr	-11.6039
bet	-11.6043
▁sunulacak	-11.6045
▁twitter	-11.6046
nomina	-11.6049
hisar	-11.6056
▁lokal	-11.6058
yu	-11.6058
▁konulma	-11.6059
3-5	-11.6065
▁organi	-11.607
▁yunanlı	-11.607
▁tuzak	-11.6072
▁amaçlıyor	-11.6081
nya	-11.6084
▁bach	-11.6094
▁pasif	-11.6096
▁benimse	-11.6103
meli	-11.611
▁özle	-11.6111
▁kah	-11.6132
ılma	-11.6134
art	-11.6135
▁başladım	-11.6137
▁yılında	-11.6138
▁bant	-11.6141
▁gu	-11.6142
▁biliyor	-11.6146
-14	-11.6147
▁eri	-11.6157
▁yapmak	-11.6173
20	-11.6175
▁ego	-11.6179
▁kabu	-11.618
landırıldı	-11.6181
▁tang	-11.6183
▁74	-11.6187
▁takibi	-11.6191
▁gizlen	-11.6194
▁çiğ	-11.6199
▁kazanacak	-11.62
▁yasaklan	-11.6201
şet	-11.6213
abilecek	-11.6215
lin	-11.6227
▁boşaltıl	-11.6227
▁topal	-11.6235
▁yapmıştır	-11.6237
ender	-11.625
▁üretimi	-11.6253
▁şerid	-11.6258
▁öv	-11.6259
14	-11.6261
▁ordusu	-11.6263
36	-11.6263
▁gro	-11.6264
▁bağlanma	-11.6264
▁karate	-11.6266
▁moderniz	-11.6267
▁ülkeleri	-11.6273
▁kek	-11.6273
▁medeni	-11.6278
▁macun	-11.6282
▁86	-11.6284
▁petk	-11.6287
Türkiye	-11.629
şehri	-11.6292
savaş	-11.6293
▁zamm	-11.6294
▁yaşayan	-11.63
▁doz	-11.6303
▁batur	-11.6304
telefon	-11.6305
gerçek	-11.6308
futbol	-11.631
▁kalın	-11.6316
▁hawk	-11.6317
▁taşındı	-11.6324
▁demek	-11.6327
▁bon	-11.6337
sizlik	-11.6345
▁bağlam	-11.6346
▁ru	-11.6357
▁yasama	-11.6357
▁demiryo	-11.6357
▁pier	-11.6363
▁--	-11.6365
▁seda	-11.6369
▁kot	-11.6369
▁kapak	-11.6378
yaka	-11.6387
48	-11.6394
sağ	-11.6416
▁red	-11.6426
▁fil	-11.6429
▁çocuklar	-11.6436
sil	-11.6442
▁opti	-11.6445
▁dolay	-11.6445
▁olmasın	-11.6457
▁pani	-11.646
ıydı	-11.6461
▁müezzin	-11.6461
▁pu	-11.6462
▁ihlali	-11.6465
▁huzurev	-11.6465
ena	-11.6465
▁karan	-11.6474
▁arkadaşlar	-11.648
▁söndürm	-11.6481
▁kilis	-11.6483
▁muhabbet	-11.6484
acaksınız	-11.6486
▁guc	-11.6489
▁kutlu	-11.6493
▁sürücü	-11.6499
▁katıl	-11.65
▁tutuklanma	-11.6501
cüsü	-11.6503
▁kandır	-11.6511
jing	-11.6512
▁fes	-11.6522
zor	-11.6522
-25	-11.6523
leriyle	-11.6524
▁liu	-11.6543
▁soğu	-11.6549
▁bos	-11.6555
▁mantığ	-11.6556
27	-11.6569
▁öğret	-11.6578
▁hi	-11.6579
▁lütf	-11.6585
▁makul	-11.6595
ılır	-11.6602
▁istem	-11.6607
▁ürünleri	-11.6609
▁fre	-11.6621
oyal	-11.6627
▁şarkıları	-11.6631
ah	-11.6633
▁0	-11.6635
▁geldik	-11.6642
çu	-11.6649
▁War	-11.6649
▁yıldön	-11.6651
demirspor	-11.666
▁yatıyor	-11.6665
▁verilir	-11.6674
▁boğuş	-11.6682
▁itibar	-11.6684
▁sof	-11.6686
▁avukatları	-11.6689
▁konseri	-11.6691
aile	-11.6694
uğ	-11.6697
▁tehdid	-11.6698
sret	-11.6699
▁eğit	-11.6699
▁şö	-11.67
▁tuncel	-11.6701
▁edebilir	-11.6701
▁del	-11.6702
▁figür	-11.6703
▁başlangıc	-11.6704
işare	-11.6704
▁kordon	-11.6705
▁alparsl	-11.6711
bağ	-11.6712
▁dayanıklı	-11.6712
▁premi	-11.6714
▁barzani	-11.6714
▁midibüs	-11.6714
▁ribaund	-11.6714
▁rumsfeld	-11.6714
▁çikolata	-11.6714
▁lopez	-11.6714
▁vasıta	-11.6714
▁silopi	-11.6714
▁ötürü	-11.6714
▁aşçı	-11.6714
▁muhtaç	-11.6714
onfederasyon	-11.6714
▁tuhaf	-11.6714
▁ereğli	-11.6714
▁kapanış	-11.6714
▁başörtüsü	-11.6714
▁muharebe	-11.6714
▁epey	-11.6715
▁hakikat	-11.6715
▁viski	-11.6715
▁abdurrah	-11.6715
▁street	-11.6715
▁durdurdu	-11.6715
▁olcay	-11.6715
▁mutluyuz	-11.6715
▁lewinsky	-11.6715
▁demeç	-11.6715
nternation	-11.6715
▁cevher	-11.6715
▁dinçöz	-11.6715
▁bayraktar	-11.6715
▁zübeyde	-11.6715
▁bildiriliyor	-11.6715
▁ayşegül	-11.6715
▁kıskanç	-11.6716
▁sünni	-11.6716
▁saint	-11.6716
▁bulunurken	-11.6716
▁devral	-11.6716
▁planlıyoruz	-11.6716
▁spoi	-11.6716
▁açıkhava	-11.6716
▁fethiyespor	-11.6717
▁ferhat	-11.6717
cılık	-11.6717
▁gönen	-11.6717
▁petek	-11.6717
▁altınok	-11.6717
▁bostan	-11.6717
▁justin	-11.6717
▁pota	-11.6717
▁havza	-11.6717
▁mümkündür	-11.6717
▁sabot	-11.6717
▁2023	-11.6717
▁soba	-11.6717
▁anlatırken	-11.6718
▁kalabalık	-11.6718
▁yardımcısı	-11.6718
▁açıkgöz	-11.6718
savar	-11.6718
▁viya	-11.6719
▁evrim	-11.6719
şattı	-11.6719
▁ahmedinejad	-11.6719
▁çayır	-11.6719
▁çakıcı	-11.6719
joker	-11.6719
▁saban	-11.6719
▁erişim	-11.6721
▁bedensel	-11.6721
▁edilmiş	-11.6722
▁logo	-11.6722
▁istisna	-11.6722
lasman	-11.6723
▁hollandalı	-11.6723
▁kozak	-11.6724
▁misiniz	-11.6724
▁dicle	-11.6724
▁adamı	-11.6724
▁atandı	-11.6725
▁bilimadam	-11.6725
▁pide	-11.6725
▁boyner	-11.6726
▁esp	-11.6726
▁helal	-11.6726
menkul	-11.6726
▁taktir	-11.6726
▁zehr	-11.6726
▁temizlik	-11.6727
▁belgrad	-11.6728
thelma	-11.6728
▁ulaşım	-11.6729
▁aksine	-11.673
▁yazarı	-11.673
▁550	-11.673
▁öğrendim	-11.6732
pe	-11.6732
▁clintonın	-11.6732
▁kıskan	-11.6733
▁ucuz	-11.6733
▁beylerbeyi	-11.6734
▁konteyn	-11.6734
▁mübarek	-11.6734
▁odtü	-11.6734
▁talabani	-11.6734
▁kalori	-11.6734
▁özbek	-11.6735
▁fetih	-11.6735
▁bmW	-11.6735
▁kırdı	-11.6736
▁nesne	-11.6736
zhou	-11.674
▁johnson	-11.6741
▁restor	-11.6745
▁anormal	-11.6748
▁içeriyor	-11.6751
▁hasılat	-11.6753
▁yanıl	-11.6754
▁flaş	-11.6755
▁konuşma	-11.6756
▁orduspor	-11.6757
▁bilinmiyor	-11.6758
▁gülay	-11.676
seniz	-11.6762
▁tlye	-11.6762
dönüm	-11.6765
▁başkanları	-11.6766
▁mercan	-11.677
▁düşünül	-11.6772
▁ozan	-11.6773
▁yeşim	-11.6774
▁kısmen	-11.6775
▁derecesi	-11.6776
▁eroğ	-11.6778
▁bağladı	-11.6779
▁benim	-11.6779
bahatti	-11.6779
▁carl	-11.6781
▁meral	-11.6784
▁muhar	-11.6784
▁dubai	-11.6788
▁özgürlük	-11.6788
atör	-11.679
▁limon	-11.6795
▁davaz	-11.6795
▁siper	-11.6797
alt	-11.6801
▁selamla	-11.6801
▁beklenen	-11.6802
▁sembolü	-11.6803
▁yök	-11.6806
hap	-11.6807
▁araştırılma	-11.6807
▁dtp	-11.6808
▁öd	-11.6812
▁gelmektedir	-11.6813
▁yapıyorum	-11.6818
▁akça	-11.6824
▁rest	-11.6832
▁gittik	-11.6837
▁talat	-11.6837
sov	-11.6838
tay	-11.6842
/...	-11.6843
ünü	-11.6844
▁gaza	-11.6847
▁hib	-11.6847
ğini	-11.6849
▁ib	-11.6851
tel	-11.6851
▁oluşur	-11.6852
▁teleferi	-11.6854
▁özdağ	-11.6857
angela	-11.6857
bizans	-11.6859
▁ayna	-11.6861
▁alfa	-11.6864
▁verici	-11.6865
▁caner	-11.6866
▁elebaş	-11.6866
▁mülk	-11.6869
▁kapat	-11.687
▁dönüştü	-11.6873
▁prati	-11.6879
▁170	-11.688
▁seram	-11.6882
▁sema	-11.6883
ebilirsiniz	-11.6885
▁durdu	-11.6886
▁raf	-11.6889
▁okuma	-11.6894
▁harbi	-11.6895
dağı	-11.6895
ecik	-11.6898
▁kozm	-11.69
ndığını	-11.6901
▁skorer	-11.6918
yun	-11.6922
▁getiri	-11.6923
70	-11.6927
▁babası	-11.6931
,4	-11.6932
▁tuzla	-11.6932
▁koşar	-11.6934
tirdi	-11.694
▁madem	-11.694
▁bayıl	-11.6944
mızda	-11.6949
▁nabi	-11.6952
▁duş	-11.6956
landırma	-11.6963
35	-11.697
▁yetmez	-11.6974
▁normalde	-11.6979
▁yöneltil	-11.6983
▁tartıştı	-11.6986
▁baki	-11.7004
▁ço	-11.7008
▁takdi	-11.7017
▁richard	-11.7026
▁yoğunlaş	-11.703
▁menfaatler	-11.7031
▁kenti	-11.7032
..."	-11.7034
23	-11.7034
▁sabun	-11.7034
nasyonal	-11.7036
amp	-11.7037
▁sığına	-11.7041
▁301	-11.705
▁paylaşıl	-11.705
▁kanda	-11.7053
▁nuh	-11.706
▁bmn	-11.7061
-11	-11.7065
▁72	-11.7065
ion	-11.7065
▁tüt	-11.7066
▁komüni	-11.7066
▁çorba	-11.7066
bar	-11.7068
▁ısır	-11.7072
▁cor	-11.7076
▁bağışla	-11.7085
▁arkadaşı	-11.7089
▁duran	-11.7092
▁nd	-11.7095
▁ayar	-11.7096
▁giden	-11.7096
72	-11.7099
▁yıkıldı	-11.7099
din	-11.7102
duyu	-11.7119
samet	-11.7124
yel	-11.7126
ez	-11.7126
▁farklı	-11.7129
▁nerede	-11.7131
takım	-11.7144
rusya	-11.7146
genel	-11.7146
rant	-11.7159
▁öğrencileri	-11.7161
▁kesi	-11.7168
▁lo	-11.7174
ilir	-11.7176
ağ	-11.7176
▁hur	-11.7178
laik	-11.718
▁nas	-11.7187
▁öden	-11.7189
gözü	-11.7193
-10	-11.72
▁salt	-11.7208
amze	-11.7214
kız	-11.7215
sül	-11.7219
flas	-11.7244
mavi	-11.7255
▁off	-11.7256
sinler	-11.7258
▁haller	-11.7261
af	-11.7263
▁sek	-11.7265
▁yöneticiler	-11.7276
board	-11.728
650	-11.7284
▁20.	-11.7289
yalım	-11.729
mik	-11.7292
▁tıkan	-11.7293
▁kırk	-11.7293
▁kaşığ	-11.7297
ıyorsunuz	-11.7307
sunda	-11.7309
▁sakın	-11.7317
64	-11.732
▁yaklaştı	-11.7322
▁işgalin	-11.7323
acağını	-11.7328
abi	-11.7332
▁koz	-11.7332
cip	-11.7333
▁onayladı	-11.7339
▁yuz	-11.7342
61	-11.7344
def	-11.7344
▁denetle	-11.7345
▁eti	-11.7346
mayız	-11.7346
▁çar	-11.7347
▁78	-11.7352
▁15.	-11.7357
▁gösterir	-11.7362
▁kü	-11.7365
sina	-11.7366
▁bari	-11.7368
▁almaktadır	-11.7375
▁süh	-11.7377
▁seçilme	-11.738
uyla	-11.7381
▁gala	-11.7384
▁bulamadı	-11.7391
43	-11.7391
▁edebil	-11.7392
malarda	-11.7398
ysa	-11.7406
▁cilv	-11.7414
▁polisi	-11.7415
▁sam	-11.7418
▁savrul	-11.7419
▁kati	-11.7421
lanmıştı	-11.7423
çam	-11.7423
▁şeb	-11.7424
▁jeo	-11.7425
▁bele	-11.7426
lılar	-11.7427
TA	-11.7436
▁sesi	-11.7443
▁abdul	-11.7447
▁eric	-11.7456
▁jac	-11.7459
▁bilen	-11.7462
kul	-11.7462
ade	-11.7469
▁melek	-11.7469
▁ekme	-11.7473
▁ekin	-11.7475
▁fc	-11.7477
▁öp	-11.7478
▁mut	-11.7483
▁başlamış	-11.7485
cül	-11.7489
del	-11.749
retta	-11.7492
▁şeria	-11.7495
▁4.5	-11.75
▁görkem	-11.7501
▁sahipleri	-11.7502
imizdir	-11.7506
▁değerlendiriyor	-11.7508
▁engelleme	-11.751
▁periyod	-11.7515
▁sunuldu	-11.7516
▁vil	-11.7517
▁besi	-11.7518
▁hakları	-11.7519
▁çevirdi	-11.7527
▁chris	-11.753
▁dog	-11.7532
lıyor	-11.7534
▁veda	-11.7536
▁kalmış	-11.7536
▁makyaj	-11.7541
▁metaller	-11.7543
▁Wood	-11.7544
▁çarpış	-11.7547
▁paraşüt	-11.7547
▁hidro	-11.7547
▁kurdu	-11.7548
▁inkılap	-11.7548
▁mütalaa	-11.7548
▁aşiret	-11.7548
▁başhekim	-11.7548
▁hanukiya	-11.7548
▁heinemann	-11.7548
▁husumet	-11.7548
▁jiechi	-11.7548
▁malezya	-11.7548
▁tekvando	-11.7548
▁teçhizat	-11.7548
▁şelale	-11.7548
▁amerikyum	-11.7548
▁bilirkişi	-11.7548
▁digitürk	-11.7548
▁jeffrey	-11.7548
▁renault	-11.7548
▁konfeksiyon	-11.7548
▁trakya	-11.7548
▁tüzmen	-11.7548
▁ahlat	-11.7548
▁üsküdar	-11.7548
▁nobre	-11.7548
▁ilkuçan	-11.7548
▁menemen	-11.7548
▁akşener	-11.7548
▁delikanlı	-11.7548
craft	-11.7548
▁moore	-11.7548
▁şapka	-11.7548
▁defnedil	-11.7548
▁kanalizasyon	-11.7548
▁duyurmuştu	-11.7548
▁meşhur	-11.7548
▁yuvarlandı	-11.7548
lifornia	-11.7548
▁öngörülüyor	-11.7548
▁bjk	-11.7548
▁batarya	-11.7549
▁niğde	-11.7549
▁kahvehane	-11.7549
▁manav	-11.7549
▁safha	-11.7549
▁gebze	-11.7549
▁hess	-11.7549
▁rakka	-11.7549
hret	-11.7549
▁süvey	-11.7549
▁cahil	-11.755
▁düşündüm	-11.755
▁çekirdek	-11.755
▁arçelik	-11.755
maoist	-11.755
▁jeoloji	-11.755
etti	-11.755
▁konaklama	-11.7551
▁kademe	-11.7551
▁boyunca	-11.7551
▁kavak	-11.7551
▁köksal	-11.7551
▁sarf	-11.7552
▁kocatepe	-11.7552
▁6-4	-11.7552
▁salgı	-11.7552
▁kahir	-11.7552
▁bulunduğu	-11.7553
▁pasta	-11.7553
▁çizildi	-11.7554
▁satılıyor	-11.7554
▁yurtsever	-11.7554
▁topbaş	-11.7555
▁milano	-11.7556
▁mısınız	-11.7556
▁cap	-11.7556
▁reyhan	-11.7557
rezervasyon	-11.7557
▁kırım	-11.7557
▁20.30	-11.7558
-1	-11.7558
▁entegr	-11.7559
▁geçiriyor	-11.7559
▁şehid	-11.7559
▁pano	-11.756
▁sonunda	-11.7562
duğunu	-11.7564
▁çoğ	-11.7566
▁çubuk	-11.7567
▁hırsızlık	-11.7567
▁eur	-11.7567
▁slam	-11.7568
▁tesadüf	-11.7569
▁arboretum	-11.7569
▁iyimser	-11.7569
▁pentagon	-11.7569
▁geyik	-11.7569
▁etiket	-11.757
▁anemi	-11.757
▁yapılırken	-11.757
▁çıkmadı	-11.757
▁1982	-11.757
▁ayarla	-11.757
▁çalışması	-11.757
▁mgk	-11.7571
▁saraç	-11.7571
▁başlaması	-11.7571
▁cilt	-11.7571
▁yirmi	-11.7572
gerçekleştirilme	-11.7574
▁seviyorum	-11.7574
▁zil	-11.7575
▁sauna	-11.7575
▁dündar	-11.7577
▁kullanırken	-11.7577
▁tesisat	-11.7578
▁sakal	-11.7578
▁terörizm	-11.7579
ovic	-11.7579
▁ersun	-11.758
▁akpye	-11.7581
▁abde	-11.7582
▁orkin	-11.7583
▁yapabiliriz	-11.759
▁doldurdu	-11.759
ng	-11.7594
▁hissi	-11.7596
▁indirdi	-11.7597
▁hayda	-11.7597
▁bozulma	-11.76
▁radar	-11.7601
mb	-11.7601
▁kurtuldu	-11.7602
▁ankaraspor	-11.7602
ayım	-11.7603
▁dezavantaj	-11.7605
▁body	-11.7605
▁(6)	-11.7605
74	-11.7608
▁norm	-11.7609
▁bilgiç	-11.7609
▁daima	-11.7611
▁uzatılma	-11.7613
▁sanatçı	-11.7614
▁süreçte	-11.7614
▁emel	-11.7615
▁bayramı	-11.7616
per	-11.7619
▁tezgah	-11.7621
▁yapıyorlar	-11.7621
ıyordu	-11.7622
▁faz	-11.7624
▁dinleti	-11.7624
▁okya	-11.7625
aşılma	-11.763
▁ederler	-11.7631
▁prosedür	-11.7631
▁şii	-11.7631
▁vermiştir	-11.7633
▁oluyoruz	-11.7633
▁durumu	-11.7635
▁varken	-11.7637
▁mesir	-11.7638
stim	-11.7639
▁mars	-11.7639
▁bozdu	-11.7641
▁gem	-11.7641
iydi	-11.7642
▁appiah	-11.7642
▁çalışanları	-11.7651
▁elbet	-11.7653
▁oyunları	-11.7655
▁içerir	-11.7655
mayacaktır	-11.7662
▁eroğlu	-11.7664
▁peri	-11.7666
▁yaşarken	-11.7667
▁topuz	-11.7668
▁verin	-11.767
▁sürüklen	-11.7673
▁Wi	-11.7673
▁aralık	-11.7675
niyor	-11.7676
ençlerbir	-11.7677
kelebek	-11.7678
▁yaptırdı	-11.7682
rack	-11.7683
▁grafik	-11.7686
▁çeşitli	-11.7688
▁asistan	-11.7689
▁news	-11.7691
▁enter	-11.7695
▁imaj	-11.7696
kabus	-11.7698
eğer	-11.7701
▁konuşuyor	-11.7704
▁dink	-11.7706
▁tefe	-11.7709
hit	-11.7711
▁haz	-11.7713
▁hakan	-11.7714
▁adlandırılır	-11.7715
ds	-11.7716
▁gad	-11.7717
▁sorgulan	-11.7718
▁benzi	-11.7722
▁giderilme	-11.7723
▁hill	-11.7729
hak	-11.7737
kı	-11.774
▁öldürül	-11.7742
kif	-11.7744
▁uçar	-11.7746
ilip	-11.7749
▁480	-11.7752
set	-11.7754
▁col	-11.7765
▁kişinin	-11.7769
▁pompa	-11.7771
▁rey	-11.7772
▁sarılı	-11.7772
▁çalıştık	-11.7776
▁verip	-11.7777
avon	-11.7779
▁azın	-11.778
▁parke	-11.7782
▁giriyor	-11.7787
▁oluştur	-11.7788
rih	-11.7791
ly	-11.7794
▁çalışmalar	-11.7798
▁birbiri	-11.7806
lh	-11.781
moon	-11.7811
▁hortum	-11.7815
▁aldığı	-11.7815
07	-11.7818
ary	-11.7819
▁üzülme	-11.7819
▁petrolü	-11.7821
▁brita	-11.783
mişlerdi	-11.783
▁ihsan	-11.7835
▁pen	-11.7839
▁hasek	-11.784
▁live	-11.7841
iyorlar	-11.7841
hu	-11.7849
▁elma	-11.7849
▁yürürk	-11.7855
ambu	-11.7857
▁ekşi	-11.7859
ebiliyor	-11.7861
▁102	-11.7863
▁yankı	-11.7865
net	-11.7878
▁kanaat	-11.788
▁başrol	-11.7882
mıyor	-11.7887
▁arsa	-11.7887
▁balık	-11.7889
müştür	-11.7892
▁kuran	-11.7892
▁takımları	-11.7897
tıp	-11.7901
beyazlılar	-11.7903
iran	-11.7904
lendirilme	-11.7904
mişlerdir	-11.7904
▁seyya	-11.7906
▁burada	-11.7912
▁ört	-11.7914
kodu	-11.7914
▁türkan	-11.7915
▁4-	-11.792
beş	-11.7922
▁performansı	-11.7926
▁1.3	-11.7929
fil	-11.7943
İstanbul	-11.7946
▁raporu	-11.795
oloji	-11.7951
▁kalktı	-11.7953
▁çıktık	-11.7955
mizi	-11.797
▁karama	-11.7972
▁manu	-11.7986
▁birol	-11.7986
▁zo	-11.7987
88	-11.7993
nem	-11.7996
▁kendileri	-11.7998
-30	-11.8003
▁hedefliyor	-11.8003
▁kararda	-11.8017
▁içer	-11.8017
▁sağlanacak	-11.8018
jat	-11.8019
▁söyl	-11.8027
halk	-11.8029
alan	-11.8033
▁ret	-11.8033
▁ming	-11.8035
▁şeri	-11.8036
ildiğini	-11.8041
yim	-11.8043
görev	-11.8046
beyazlı	-11.8046
demokratik	-11.8051
hoş	-11.8051
dad	-11.8051
kürt	-11.8054
bazı	-11.8058
https	-11.8063
ayn	-11.8064
söz	-11.8068
▁katledil	-11.8069
▁esin	-11.8072
▁nitelendir	-11.8076
iyordu	-11.8078
▁zamanda	-11.8078
▁akalın	-11.8091
otop	-11.8091
olay	-11.8099
lacivertliler	-11.8107
uk	-11.8111
▁telaş	-11.8112
sade	-11.8115
▁kok	-11.8116
▁fin	-11.8117
▁uğurla	-11.8122
▁dekor	-11.8124
2011	-11.8126
▁kask	-11.8139
▁faul	-11.8143
▁ambargo	-11.8145
▁album	-11.8148
açık	-11.815
ses	-11.8162
▁püskürt	-11.8164
▁terzi	-11.8167
▁kefe	-11.8172
▁kadr	-11.8175
▁çocuğu	-11.8176
amadı	-11.8182
▁istemiyor	-11.8185
▁neşe	-11.8191
edip	-11.8192
▁açıklamaları	-11.8192
▁kuma	-11.8193
yö	-11.8199
▁charles	-11.8222
▁fotograf	-11.8228
▁filiz	-11.8236
▁ihtimalle	-11.8245
▁ezel	-11.8249
2013	-11.8255
▁stone	-11.8261
▁isti	-11.8262
▁taşır	-11.8262
▁ster	-11.8272
▁artır	-11.8275
▁1200	-11.8299
leke	-11.8303
▁kazak	-11.8305
▁kapatıldı	-11.8309
op	-11.8309
▁gec	-11.8313
▁ezgi	-11.8317
▁yönelt	-11.8322
mıştım	-11.8326
▁12.	-11.8334
▁dikil	-11.8334
cal	-11.8335
▁biten	-11.8343
ceğiz	-11.8344
▁birisi	-11.8344
dum	-11.8347
▁gelişme	-11.8348
cap	-11.8348
emeyecek	-11.835
▁işçi	-11.835
▁val	-11.8356
▁kaybetmişti	-11.836
▁bitirdi	-11.8365
▁gelmesi	-11.8373
▁kararlaştırıl	-11.8389
▁büyüle	-11.8389
▁10.00	-11.839
▁sıçra	-11.8394
boy	-11.8394
çık	-11.84
arbede	-11.8406
▁kesilme	-11.8407
▁yerinde	-11.8407
▁res	-11.8408
▁aileler	-11.8409
▁gülb	-11.8411
taç	-11.8418
▁tanrıça	-11.8418
▁dinam	-11.8422
ort	-11.8424
yk	-11.8427
lenme	-11.8427
6.5	-11.8427
▁kupası	-11.843
▁kesildi	-11.843
ük	-11.8434
▁mail	-11.8435
▁1987	-11.8439
▁ken	-11.844
▁sinyaller	-11.8441
▁bara	-11.8441
▁sonuçlandı	-11.8442
▁marie	-11.8444
▁mizah	-11.8445
▁soruştur	-11.8448
laştırıldı	-11.8449
▁demirör	-11.845
▁shanghai	-11.845
tty	-11.8453
▁rüşt	-11.8456
▁speküla	-11.8457
▁deklarasyon	-11.8457
▁fragman	-11.8457
▁muhafız	-11.8457
▁ruihua	-11.8457
telekomünikasyon	-11.8457
▁anıtkabir	-11.8457
▁arındırıl	-11.8457
▁greenpeace	-11.8457
▁gökbakar	-11.8457
▁karikatür	-11.8457
▁kayınvalide	-11.8457
▁lucescu	-11.8457
▁nişasta	-11.8457
▁shakespeare	-11.8457
▁teşebbüs	-11.8457
▁zavallı	-11.8457
▁zekeriya	-11.8457
▁kırgızistan	-11.8457
▁nezaket	-11.8457
▁rıdv	-11.8457
▁mozart	-11.8457
▁katolik	-11.8457
▁kurdele	-11.8457
▁straw	-11.8457
▁psikolog	-11.8457
▁niyazi	-11.8457
▁techno	-11.8457
▁sebasti	-11.8457
▁Wick	-11.8457
national	-11.8457
▁kunter	-11.8457
▁temkin	-11.8457
▁android	-11.8457
▁pendik	-11.8457
▁yaralanan	-11.8457
▁hırvatistan	-11.8457
▁sırtüstü	-11.8457
▁keleş	-11.8457
▁yattara	-11.8457
▁kutluyorum	-11.8457
▁medrese	-11.8457
▁kızılcık	-11.8457
▁hamilton	-11.8457
▁yanardağ	-11.8457
▁tongw	-11.8457
▁ötv	-11.8457
▁vinç	-11.8457
▁dalgıç	-11.8457
▁hitit	-11.8458
▁berbat	-11.8458
▁rutin	-11.8458
▁nispet	-11.8458
▁hüs	-11.8458
▁yoğurt	-11.8458
▁konuşurken	-11.8458
▁bilinir	-11.8458
▁daily	-11.8458
▁kestane	-11.8458
▁11.00	-11.8458
▁sanırım	-11.8459
▁göstergesidir	-11.8459
hüzün	-11.8459
▁faris	-11.846
▁fellu	-11.846
▁sevgilisi	-11.846
▁duydum	-11.846
▁bld	-11.846
▁çiğne	-11.8461
▁klini	-11.8461
tası	-11.8461
▁malatyaspor	-11.8462
▁karataş	-11.8462
▁açılacak	-11.8462
▁kurulmuştur	-11.8462
▁milas	-11.8462
▁üçgen	-11.8463
▁steve	-11.8463
▁hall	-11.8463
▁sığır	-11.8464
▁sorgulama	-11.8464
▁anlaştı	-11.8464
▁ımfnin	-11.8464
▁kapağı	-11.8465
▁ferdi	-11.8465
▁uğradı	-11.8465
▁beh	-11.8466
▁batak	-11.8467
▁salata	-11.8467
mazken	-11.8467
▁getireceğiz	-11.8467
▁küçül	-11.8467
▁fadi	-11.8467
▁3-4	-11.8467
▁görmedim	-11.8468
▁mekanik	-11.8468
yaş	-11.8468
▁vatandaş	-11.8469
▁karahan	-11.8469
▁tayfur	-11.847
▁tarafindan	-11.847
▁kürk	-11.847
▁havayo	-11.847
▁kong	-11.8471
▁tacik	-11.8472
▁necme	-11.8472
▁teşekkürler	-11.8473
▁ytlyi	-11.8473
▁teft	-11.8473
▁şahs	-11.8474
afiz	-11.8475
▁korkmaz	-11.8476
▁trend	-11.8477
▁buzul	-11.8477
▁doğdu	-11.8477
▁kazanırken	-11.8478
▁kızı	-11.8478
nevruz	-11.8479
▁doktorlar	-11.8479
▁erciyes	-11.8479
masıyla	-11.8479
▁azaldı	-11.8479
▁litvanya	-11.848
▁smith	-11.848
▁çelebi	-11.848
▁ypg	-11.848
▁çelişki	-11.8481
▁antonio	-11.8481
▁diliyoruz	-11.8481
▁fişek	-11.8481
▁1969	-11.8482
▁anons	-11.8482
▁asena	-11.8483
uela	-11.8483
▁değindi	-11.8484
▁göreceğiz	-11.8485
ılacak	-11.8485
▁sahibiz	-11.8485
▁rume	-11.8486
▁fez	-11.8486
▁yüzücü	-11.8486
▁(4)	-11.8486
layarak	-11.8488
▁sün	-11.8489
▁gezen	-11.8492
▁casus	-11.8492
▁olsaydı	-11.8495
▁gelince	-11.8498
▁dönecek	-11.8498
▁plus	-11.8498
gal	-11.8498
▁binbaşı	-11.8499
▁çalışıyorum	-11.8499
▁oynarken	-11.85
▁sahiptir	-11.8501
▁yüzbaşı	-11.8502
▁üvey	-11.8503
▁akım	-11.8503
▁arıyor	-11.8504
▁koruyor	-11.8504
▁sivri	-11.8505
▁kurtarılma	-11.8506
kuşağ	-11.8509
cial	-11.8511
▁kibar	-11.8514
▁makro	-11.8516
amble	-11.8517
▁anka	-11.8517
▁kosgeb	-11.852
▁köln	-11.852
▁şafak	-11.852
▁1989	-11.852
icolas	-11.8521
▁bilanço	-11.8521
▁geçecek	-11.8529
▁sevgili	-11.853
▁abdyi	-11.8531
▁şeriat	-11.8532
▁04	-11.8533
▁barın	-11.8535
▁vermek	-11.8536
formasyon	-11.8537
▁başaran	-11.8537
üel	-11.8537
▁istanbulda	-11.8539
▁telefonu	-11.8541
red	-11.8546
▁show	-11.8546
▁sömürge	-11.8549
▁parker	-11.8549
▁eğlendi	-11.8549
▁kenya	-11.855
▁yorumla	-11.8555
▁altıpar	-11.8557
ambia	-11.8562
ici	-11.8565
miyoruz	-11.8566
▁simit	-11.8567
▁müz	-11.8567
mit	-11.8572
▁saman	-11.8574
▁bulunamadı	-11.8576
▁isteyenler	-11.8576
▁gözü	-11.8579
nis	-11.8581
▁gösterildi	-11.8584
▁paten	-11.8585
▁(12	-11.8585
▁bri	-11.8592
bize	-11.8593
▁gürcü	-11.8599
▁peşmerge	-11.8602
▁görüşülm	-11.8604
lıyorum	-11.8605
ffet	-11.8606
▁medica	-11.8607
▁toplantıya	-11.8609
▁tff	-11.8614
katkıları	-11.8616
lıyoruz	-11.8618
▁süsle	-11.8623
mikrofo	-11.8627
▁bağışlan	-11.8633
▁ikmal	-11.8634
▁yanında	-11.8647
▁gösterdik	-11.8648
▁bence	-11.8648
▁gereği	-11.8655
▁devrilme	-11.8655
▁kumanda	-11.8661
buyuk	-11.8663
ğını	-11.8667
32	-11.8668
▁16.	-11.868
▁konuşmasın	-11.8688
▁yazıyor	-11.8689
▁yapabil	-11.869
tırken	-11.8693
▁hareketi	-11.8696
aga	-11.8699
▁bang	-11.87
▁düşünen	-11.871
▁hitabe	-11.8711
uhu	-11.8715
▁84	-11.8718
▁kışla	-11.8721
▁kabart	-11.8725
bek	-11.8741
▁karala	-11.8743
eşsiz	-11.8744
▁olmadığı	-11.8744
▁soruyor	-11.8748
▁yar	-11.8764
▁gelmiyor	-11.8765
ıı	-11.8771
▁kazanan	-11.8774
▁etkiledi	-11.8776
▁kullanıl	-11.878
▁önemse	-11.8785
▁ödülü	-11.8792
▁98	-11.8793
▁Wan	-11.8795
▁yönetti	-11.8801
▁gre	-11.8802
zan	-11.8804
ito	-11.8814
▁çıta	-11.8814
üt	-11.8814
▁ch	-11.8815
▁kabullen	-11.8821
98	-11.8824
▁hacıoğ	-11.8828
▁aileleri	-11.8828
▁muradi	-11.8828
ata	-11.8837
▁becer	-11.884
▁universit	-11.8844
▁halka	-11.8844
▁kürd	-11.8846
▁tasarlan	-11.8852
▁defile	-11.8853
▁büyükşeh	-11.8862
menor	-11.8863
indedir	-11.8865
▁komisyonu	-11.8868
guard	-11.887
meyin	-11.8873
▁milletvekilleri	-11.8875
▁getirmişti	-11.8883
au	-11.8883
▁naci	-11.8885
▁sözcü	-11.8886
tuk	-11.8887
ers	-11.8891
maya	-11.8899
▁gösteriliyor	-11.89
▁töreni	-11.8904
kat	-11.8908
jp	-11.8912
▁geçi	-11.8921
▁god	-11.8921
▁yavaşla	-11.8921
▁dikkatsiz	-11.8928
▁çekmişti	-11.8929
▁isterk	-11.8944
▁öngörüyor	-11.8945
▁ag	-11.8946
güdüm	-11.8946
▁düzenlen	-11.8954
▁olmasi	-11.8956
▁kulvar	-11.8965
oyun	-11.8965
▁halay	-11.8966
▁yasaklanma	-11.8966
iki	-11.8968
bm	-11.8977
▁pin	-11.898
▁vecd	-11.8984
▁yakınları	-11.8984
▁Türkiye	-11.8986
acun	-11.8987
▁değiştirilme	-11.8989
▁girer	-11.8995
▁108	-11.9013
bas	-11.9023
çalışma	-11.9023
şma	-11.9026
hükümet	-11.9026
tuğ	-11.9027
▁bota	-11.9028
diler	-11.9029
▁istiyorsun	-11.903
yaz	-11.9033
▁kov	-11.9034
eğit	-11.9041
▁6-7	-11.9046
tarih	-11.9047
▁gold	-11.905
uluslarara	-11.9053
küçük	-11.9053
başarı	-11.9053
hiçbir	-11.9054
▁örgütü	-11.9054
şi	-11.9054
galeri	-11.9055
yaban	-11.9055
▁javi	-11.9056
▁79	-11.9057
▁3,5	-11.9057
mart	-11.9058
▁dou	-11.906
aydın	-11.9061
▁murad	-11.9062
format	-11.9063
▁mobe	-11.9064
▁sahi	-11.907
ebilecek	-11.9071
muştur	-11.9073
▁takim	-11.9073
pit	-11.9076
▁aski	-11.9078
53	-11.9083
heim	-11.9084
koç	-11.9088
aslan	-11.9088
▁paketi	-11.9091
▁kud	-11.91
▁çetinka	-11.9103
▁rezil	-11.9104
▁vaat	-11.9107
▁topluluk	-11.9111
▁düşürdü	-11.9118
tuna	-11.912
tırılması	-11.9127
medik	-11.9128
dak	-11.913
cele	-11.9131
▁sever	-11.9149
▁ödüllendiril	-11.915
batı	-11.9154
▁daral	-11.916
▁gidi	-11.9162
▁işgali	-11.9163
sar	-11.9168
has	-11.9174
▁santral	-11.9175
▁stra	-11.9176
ston	-11.9176
dılar	-11.9179
▁hande	-11.9181
▁pamu	-11.9183
▁beni	-11.9187
ram	-11.9192
cat	-11.9192
▁mis	-11.9196
giderken	-11.9202
meyecek	-11.9204
tun	-11.9207
▁rich	-11.9211
▁diri	-11.9215
yazı	-11.922
▁geli	-11.9227
mur	-11.9228
▁krizi	-11.9237
gara	-11.9242
▁ödedi	-11.9242
lta	-11.9245
▁muhabiri	-11.9249
▁tsk	-11.9257
▁yil	-11.9264
vay	-11.9272
▁dönerk	-11.9277
▁izliyor	-11.9281
die	-11.9287
▁açmıştı	-11.9287
▁bedr	-11.9289
▁lot	-11.9303
mda	-11.9306
▁ural	-11.9307
nmaktadır	-11.931
▁kabil	-11.9314
▁olmuyor	-11.9315
▁rio	-11.9315
▁bık	-11.9324
▁gb	-11.9326
var	-11.933
▁yerleştiril	-11.9333
▁2-2	-11.9334
het	-11.9337
cast	-11.9342
▁88	-11.9346
▁gerçekleştirdik	-11.9347
▁reha	-11.9349
sik	-11.9351
▁kendimi	-11.9352
▁çan	-11.9354
▁dedik	-11.9356
des	-11.9356
dun	-11.9357
▁saatin	-11.936
▁yenildi	-11.9362
likleri	-11.9367
▁nsu	-11.9367
▁halı	-11.9372
▁sakinleş	-11.9379
▁olacaklar	-11.9382
▁finan	-11.9387
▁protokolü	-11.939
rex	-11.9398
95	-11.9399
▁yönü	-11.9399
dayken	-11.9403
uin	-11.9411
▁240	-11.9412
▁yazmış	-11.9418
orta	-11.9421
▁soyad	-11.9424
▁tutku	-11.9424
▁gönderdik	-11.9426
▁inisiyatif	-11.943
▁inanıyor	-11.9432
▁ilahi	-11.9432
dbp	-11.9441
▁rag	-11.9441
▁semboller	-11.9442
▁çor	-11.9444
▁brown	-11.9446
▁dikkatle	-11.9447
▁hayaller	-11.9447
enerbahçe	-11.9451
▁yoksa	-11.9451
▁santra	-11.9452
▁sarsıntı	-11.9452
▁isfah	-11.9453
▁alfabe	-11.9454
▁batuh	-11.9454
▁salgın	-11.9454
▁sabıka	-11.9454
▁hous	-11.9455
▁america	-11.9457
kıvılcım	-11.9457
▁cindoruk	-11.9457
▁galapagos	-11.9457
▁journal	-11.9457
▁juventus	-11.9457
▁moldova	-11.9457
▁nostalji	-11.9457
▁oryantal	-11.9457
▁parfüm	-11.9457
▁senfoni	-11.9457
▁silivri	-11.9457
▁sinemia	-11.9457
▁vatikan	-11.9457
▁yerasimos	-11.9457
▁yuşçenko	-11.9457
ercedes	-11.9457
▁köpük	-11.9457
▁valencia	-11.9457
.02.2010	-11.9457
▁antibiyotik	-11.9457
▁infilak	-11.9457
▁lloyd	-11.9457
▁madonna	-11.9457
▁fernand	-11.9457
▁moğol	-11.9457
▁teorem	-11.9457
▁satranç	-11.9457
▁süreyya	-11.9457
▁carter	-11.9457
▁steph	-11.9457
gezegen	-11.9457
▁inegöl	-11.9457
▁çorap	-11.9457
▁bölükbaşı	-11.9457
▁karpuz	-11.9457
▁votka	-11.9457
▁topsakal	-11.9457
▁anonim	-11.9457
▁tekno	-11.9457
pomem	-11.9457
▁kütle	-11.9457
▁family	-11.9457
▁pyd	-11.9457
▁tanzanya	-11.9457
▁bektaş	-11.9457
▁fsm	-11.9457
▁pazaryeri	-11.9458
▁sürdüreceğiz	-11.9458
▁alerji	-11.9458
▁burhan	-11.9458
▁premium	-11.9458
▁edward	-11.9458
▁dağıtılacak	-11.9458
▁masaüstü	-11.9458
▁havut	-11.9458
▁kızıldağ	-11.9458
▁münir	-11.9458
▁üzgün	-11.9458
▁venez	-11.9459
▁rüştü	-11.9459
▁akdoğan	-11.9459
▁apron	-11.9459
▁2019	-11.9459
▁bilgin	-11.9459
▁vardiya	-11.9459
▁1948	-11.9459
▁arama	-11.9459
▁staj	-11.9459
▁gömlek	-11.9459
▁görüşünde	-11.9459
▁biçer	-11.9459
▁yaşıt	-11.9459
▁ökmen	-11.9459
▁naklen	-11.946
▁ilaçlama	-11.946
▁oscar	-11.946
▁(29)	-11.946
▁koray	-11.946
▁uyurken	-11.9461
▁çeçen	-11.9461
▁fırın	-11.9461
▁refik	-11.9462
▁tahki	-11.9462
▁hadise	-11.9462
▁yaşantı	-11.9462
▁gsm	-11.9463
▁ertelendi	-11.9463
▁amd	-11.9463
▁dağıtım	-11.9464
▁hatib	-11.9464
▁zihn	-11.9464
▁çatlak	-11.9464
▁terket	-11.9464
▁üstlenecek	-11.9464
▁(27)	-11.9464
▁kefa	-11.9464
▁yapılan	-11.9465
▁üreten	-11.9465
▁ayrılırken	-11.9465
▁komiser	-11.9465
miyorum	-11.9465
üj	-11.9465
▁varmış	-11.9466
▁endeksi	-11.9466
▁kelam	-11.9467
▁akkaya	-11.9467
▁sıyrıl	-11.9467
▁artarken	-11.9467
▁(20)	-11.9467
:‘‘	-11.9468
uc	-11.9469
▁asır	-11.9469
asa	-11.9469
▁parkur	-11.9469
▁düşeni	-11.9469
▁nevşehir	-11.9469
▁tahsilat	-11.9469
iza	-11.9469
lord	-11.9469
▁şamdan	-11.9469
▁isveçli	-11.947
▁yayımlandı	-11.947
▁kutan	-11.947
▁atarken	-11.9471
▁dogru	-11.9472
▁serdi	-11.9472
▁ziyade	-11.9473
▁karasu	-11.9473
▁çalışılıyor	-11.9473
▁(28)	-11.9474
▁başlanacak	-11.9474
▁zeynel	-11.9474
▁korunması	-11.9475
yacaktır	-11.9475
▁referan	-11.9475
▁hapsi	-11.9475
▁yasası	-11.9475
▁çırak	-11.9476
▁rampa	-11.9477
▁galat	-11.9477
▁vesilesi	-11.9478
▁sağlamak	-11.9478
▁icraat	-11.9479
▁vatansever	-11.9481
sol	-11.9481
▁seyr	-11.9482
▁leopar	-11.9482
▁göteborg	-11.9482
▁yahoo	-11.9482
▁cüzdan	-11.9482
▁rastgele	-11.9482
▁15.00	-11.9483
▁jessi	-11.9483
▁özellikleri	-11.9483
▁bozkurt	-11.9483
▁koma	-11.9483
▁açıktır	-11.9483
▁mendil	-11.9484
▁marco	-11.9484
▁genelev	-11.9485
ryst	-11.9485
▁sarp	-11.9489
▁gömül	-11.9489
▁reyon	-11.949
▁edilebilir	-11.949
▁çıkmaz	-11.9491
▁seslendir	-11.9492
13	-11.9492
▁komedyen	-11.9494
▁koştu	-11.9495
▁dolgu	-11.9495
▁çıkacaktır	-11.9501
▁pala	-11.9501
▁silvan	-11.9501
▁kısmet	-11.9502
▁bekleyen	-11.9502
▁yetindi	-11.9503
les	-11.9507
▁ödeyecek	-11.9507
lım	-11.9508
▁işgü	-11.9508
▁bros	-11.9509
▁mms	-11.951
▁misin	-11.9511
demre	-11.9512
▁ajansı	-11.9516
hile	-11.9517
▁uzaklaştı	-11.9517
▁attım	-11.9518
▁ekipmanları	-11.9519
▁konuşur	-11.9524
▁kaos	-11.9524
51	-11.9525
▁mensupları	-11.9525
▁Eskişehirspor	-11.9527
xi	-11.9528
▁halaçoğ	-11.9528
▁1988	-11.9528
▁ıntel	-11.9529
▁dağıttı	-11.9533
digi	-11.9533
68	-11.9537
▁türkistan	-11.954
▁geliştir	-11.9542
verdi	-11.9543
▁erecek	-11.9544
▁taşer	-11.9548
▁meğer	-11.9549
bak	-11.9549
▁tansu	-11.955
▁titre	-11.955
thy	-11.9552
▁kardeşler	-11.9555
▁pl	-11.9558
▁dolma	-11.956
▁kampı	-11.9562
▁olabilirdi	-11.9564
▁dağcı	-11.9564
▁halife	-11.9565
▁chpye	-11.9566
antep	-11.9568
▁döşen	-11.9568
▁gözüküyor	-11.9571
▁şor	-11.9572
▁henry	-11.9573
▁aihm	-11.9573
“	-11.9573
▁talih	-11.9576
▁canik	-11.9577
▁tutuyor	-11.9577
.''	-11.9577
▁namus	-11.9577
▁şevk	-11.958
▁biriydi	-11.9587
▁toparla	-11.9591
▁ispatla	-11.9593
▁katılmadı	-11.9594
▁geçildi	-11.9595
▁ekstr	-11.9596
▁ileti	-11.9598
▁deste	-11.9603
▁temizlen	-11.9603
▁stop	-11.9603
▁uçur	-11.9611
deş	-11.9612
▁bekliyordu	-11.9612
▁nazar	-11.9614
▁kaçır	-11.9615
lerinden	-11.9619
▁tamer	-11.962
ehdi	-11.9621
▁vefa	-11.9624
9)	-11.9629
▁0.5	-11.9629
tgb	-11.9633
▁firması	-11.9634
▁fır	-11.9636
▁hazırlandı	-11.9637
amadık	-11.9638
▁şark	-11.9643
▁imkansız	-11.9646
▁bulunmuyor	-11.9647
▁hiz	-11.9648
▁harf	-11.9648
▁dağıtılma	-11.9657
ola	-11.9658
akp	-11.966
▁kontr	-11.9661
over	-11.9662
▁hos	-11.9662
iyim	-11.9663
▁kaydedilme	-11.9666
▁konuşlandır	-11.9667
▁gelip	-11.9668
▁burası	-11.9668
rgül	-11.9671
▁özelleştirilme	-11.9673
▁2005-	-11.9674
▁üstlendi	-11.9675
▁götürülme	-11.9675
▁engelledi	-11.9676
▁charli	-11.9677
▁evlad	-11.9678
▁çifti	-11.968
▁olmaktır	-11.9685
▁08	-11.9693
▁gine	-11.9693
▁istiyorlar	-11.9697
▁olanlar	-11.9704
▁nurh	-11.9706
ang	-11.9711
mix	-11.9711
mamalı	-11.9714
▁290	-11.9717
tl	-11.9717
▁kaldırıl	-11.9719
▁atta	-11.972
una	-11.9727
▁kalma	-11.9728
▁kabulü	-11.9731
▁ox	-11.974
3-2	-11.9741
amadım	-11.9743
kai	-11.9744
▁passi	-11.9746
▁farkı	-11.9755
▁krali	-11.9755
▁yener	-11.9756
▁ezil	-11.9757
▁bild	-11.9763
▁taşıt	-11.9765
▁gazeteci	-11.9767
▁sağlanıyor	-11.9769
▁uzatıl	-11.9782
free	-11.979
tarak	-11.9793
▁kub	-11.9794
▁veriler	-11.9794
91	-11.9803
▁sunacak	-11.981
gin	-11.981
▁myk	-11.9816
kap	-11.9816
▁29.	-11.982
▁kaydı	-11.9824
▁saz	-11.9827
yorum	-11.983
dus	-11.9831
▁çevril	-11.9837
▁geliştirilmesi	-11.9841
mediler	-11.9852
▁lif	-11.986
ex	-11.9866
▁yapabiliyor	-11.9868
▁parla	-11.9869
ünde	-11.9869
▁napoli	-11.9874
ilen	-11.9877
mayacağız	-11.988
▁sağlam	-11.9881
▁pes	-11.9882
▁olayı	-11.9886
▁yeral	-11.9895
▁santo	-11.9898
▁canlandır	-11.9898
lıkları	-11.9909
praz	-11.9912
▁şak	-11.9912
▁baska	-11.9915
DE	-11.9917
▁muhafazak	-11.992
uyor	-11.9921
▁cr	-11.9924
huy	-11.9927
his	-11.9932
▁5.5	-11.9934
brik	-11.9934
1)	-11.9941
▁rob	-11.9942
fiye	-11.9953
▁ağırladı	-11.9956
▁nakledil	-11.9959
lenmiştir	-11.9963
▁olabil	-11.9965
▁hakemler	-11.9967
▁(21	-11.9971
▁kings	-11.9974
▁faydalan	-11.9974
▁bakın	-11.9974
▁barak	-11.9974
▁içerisinde	-11.9978
glas	-11.9979
▁motif	-11.998
▁giray	-11.9987
otto	-11.9988
81	-11.9998
22	-12
memiştir	-12
tık	-12.0003
kea	-12.0003
ilton	-12.0005
▁sony	-12.0005
▁bastı	-12.0006
▁(6	-12.0009
▁yalanla	-12.001
▁soylu	-12.0011
▁ihlaller	-12.0012
bata	-12.0012
▁bekar	-12.0018
fis	-12.0019
beni	-12.002
öğren	-12.0023
▁projeleri	-12.0028
eke	-12.0032
▁kanama	-12.0032
▁kaçırdı	-12.0036
▁smdk	-12.0039
attar	-12.0043
üdür	-12.0055
▁atar	-12.0058
iyorsunuz	-12.0059
▁tav	-12.0061
uyorum	-12.0066
▁zerr	-12.0067
ebir	-12.0069
▁verebil	-12.007
diğ	-12.0071
▁gi	-12.0072
latif	-12.0077
▁harfi	-12.0081
▁yana	-12.0081
unu	-12.0082
▁mülki	-12.0084
▁baca	-12.0089
▁iti	-12.009
rirken	-12.0097
▁tura	-12.0097
▁kişiler	-12.0103
▁hoşlan	-12.0103
▁yolu	-12.0106
▁maca	-12.0106
▁zedele	-12.0107
bul	-12.0108
▁alexand	-12.0109
▁yıldır	-12.0115
▁bağırdı	-12.0115
kez	-12.0117
tip	-12.0119
▁imzalama	-12.0119
bridge	-12.0124
drew	-12.0131
▁görür	-12.0134
ruh	-12.0135
gane	-12.014
yönet	-12.0142
▁madsen	-12.0145
kreş	-12.0147
twitter	-12.015
hava	-12.0151
macun	-12.0158
▁psikiyatri	-12.0158
▁ısıt	-12.0159
▁şeh	-12.0163
tabii	-12.0163
▁fuarı	-12.0163
doç	-12.0163
galatasaray	-12.0165
ekonomik	-12.0166
çünkü	-12.0166
kaçak	-12.0167
vergi	-12.0167
başbakan	-12.0168
abdnin	-12.0168
yıldız	-12.0171
▁birbirleri	-12.0173
▁hit	-12.0175
▁kucak	-12.018
▁sc	-12.0181
▁kese	-12.0182
3.4	-12.0182
matra	-12.0183
abilecekler	-12.0201
rek	-12.0204
las	-12.0209
sit	-12.0213
▁kus	-12.0216
▁ey	-12.0217
menin	-12.0218
▁ork	-12.0219
▁nema	-12.022
▁prix	-12.0235
kuş	-12.0239
day	-12.0241
▁geçerk	-12.0243
▁elleri	-12.0244
ılabiliyor	-12.0247
▁düşmesi	-12.0248
▁planlıyor	-12.0248
96	-12.0257
▁arma	-12.026
▁gelmiş	-12.026
chen	-12.0263
▁etme	-12.0265
▁bırakıyor	-12.0266
▁imkanları	-12.0272
vit	-12.0275
▁simon	-12.0281
rekor	-12.0281
▁açıklama	-12.0291
sp	-12.0296
amayız	-12.0299
eh	-12.0309
▁ris	-12.0309
▁sürücüler	-12.0324
▁etkiliyor	-12.0327
▁öks	-12.0336
dullah	-12.0338
▁colo	-12.034
▁eklenti	-12.034
hir	-12.0341
fet	-12.0344
çay	-12.0346
elek	-12.035
deydi	-12.0361
97	-12.0363
49	-12.0366
ışık	-12.0366
▁atıyor	-12.0367
▁başlığı	-12.0371
fterdar	-12.0381
era	-12.0385
asuman	-12.0386
rum	-12.0388
dost	-12.0388
hya	-12.0389
▁etmedik	-12.0394
▁aşıl	-12.0397
▁oluşturuldu	-12.04
▁1,3	-12.0403
▁kısıtla	-12.0409
▁kalpler	-12.0412
▁görüşü	-12.0416
liktir	-12.0428
▁küf	-12.0429
tkı	-12.043
▁ky	-12.0434
▁sinyali	-12.0436
▁lah	-12.0443
▁döner	-12.0447
▁kadarı	-12.0454
▁versin	-12.0455
▁17.	-12.046
▁tanıt	-12.0461
▁aşağıla	-12.0466
ld	-12.0472
▁bad	-12.0472
▁beraberlik	-12.048
▁tanıştı	-12.0481
üyordu	-12.0484
uç	-12.0487
▁soktu	-12.0488
-18	-12.0488
▁ref	-12.0503
▁işler	-12.0507
▁1961	-12.0507
key	-12.0508
▁tahammül	-12.0508
cek	-12.051
teki	-12.0517
▁cezalandırıl	-12.0521
▁geçer	-12.0524
saade	-12.0525
evler	-12.0531
▁basını	-12.0531
▁trave	-12.0537
▁bakıyor	-12.0538
▁ekipman	-12.0541
ntele	-12.0542
imi	-12.0545
ırmızı	-12.0548
rablus	-12.0548
▁klib	-12.0549
▁evlendi	-12.055
▁geoffroy	-12.0552
▁makarov	-12.0553
▁biyoloji	-12.0554
▁mola	-12.0555
zıt	-12.0558
▁ibare	-12.0559
▁aldığını	-12.0561
gun	-12.0562
başbak	-12.0565
▁mürettebat	-12.0565
prag	-12.0565
▁tahsi	-12.0566
emiyoruz	-12.0566
rgun	-12.0566
▁gerçekleştir	-12.0567
rahm	-12.0567
hbi	-12.0567
▁bambaşka	-12.0568
▁filozof	-12.0568
▁konsorsiyum	-12.0568
▁moderatör	-12.0568
▁akvaryum	-12.0568
▁beylikdüzü	-12.0568
▁boutaris	-12.0568
▁chuanyu	-12.0568
▁cömert	-12.0568
▁defne	-12.0568
▁dekonjestan	-12.0568
▁eczacıbaşı	-12.0568
▁fasulye	-12.0568
▁galápagos	-12.0568
▁jiabao	-12.0568
▁menopoz	-12.0568
▁muhtıra	-12.0568
▁perspektif	-12.0568
▁schumacher	-12.0568
▁slovenya	-12.0568
▁taahhüd	-12.0568
▁brothers	-12.0568
▁greenspan	-12.0568
▁helmsley	-12.0568
▁matbaa	-12.0568
▁Weinstein	-12.0568
▁börek	-12.0568
▁harmandalı	-12.0568
▁howard	-12.0568
▁nezaret	-12.0568
▁kahverengi	-12.0568
▁kuneva	-12.0568
▁college	-12.0568
▁griff	-12.0568
▁nikáh	-12.0568
▁buzdolabı	-12.0568
▁yepyeni	-12.0568
▁balçova	-12.0568
▁finlandiya	-12.0568
▁çözünür	-12.0568
▁karabiber	-12.0568
▁antlaşma	-12.0568
▁(36)	-12.0568
▁tacikistan	-12.0568
aşmüzakereci	-12.0568
▁(32)	-12.0568
▁davenport	-12.0568
▁cevahir	-12.0568
▁lyrics	-12.0568
▁selvitopu	-12.0568
▁grace	-12.0568
▁ilahiyat	-12.0568
behçet	-12.0568
▁acayip	-12.0568
▁gekas	-12.0568
▁homo	-12.0568
▁jcr	-12.0568
▁refakat	-12.0568
▁bebeğe	-12.0568
▁lahana	-12.0568
▁capital	-12.0568
▁mumcu	-12.0568
▁(23)	-12.0568
▁emıtt	-12.0568
▁gerede	-12.0568
▁altıntop	-12.0569
▁göğebakan	-12.0569
▁harici	-12.0569
▁hobi	-12.0569
▁protein	-12.0569
▁minare	-12.0569
▁anapara	-12.0569
▁sempati	-12.0569
▁ipekçi	-12.0569
▁peters	-12.0569
▁bardem	-12.0569
▁yorgun	-12.0569
▁pişmanım	-12.0569
▁dokunulmaz	-12.0569
▁teselli	-12.0569
▁aksünger	-12.0569
▁2018	-12.057
▁furk	-12.057
▁yumuşat	-12.057
▁ikamet	-12.057
▁cevapladı	-12.057
vizo	-12.057
▁hazal	-12.057
▁övün	-12.057
▁hazırlıyor	-12.057
▁aslinda	-12.057
▁destekleyen	-12.0571
▁karagöz	-12.0571
▁(35)	-12.0571
▁kongar	-12.0571
▁karatay	-12.0571
▁kayapınar	-12.0571
▁yazdırdı	-12.0572
▁havayolları	-12.0572
▁kalitesiz	-12.0572
▁akkuş	-12.0572
▁21.30	-12.0572
▁müşerref	-12.0572
▁Wend	-12.0572
▁stoper	-12.0572
▁reca	-12.0572
▁yazıldı	-12.0572
güzar	-12.0572
▁sosyet	-12.0572
▁özkaya	-12.0574
▁ödenecek	-12.0574
▁guy	-12.0574
▁kongo	-12.0574
▁şahsen	-12.0574
▁çerçevesinde	-12.0574
▁gribi	-12.0574
▁colin	-12.0574
▁güvenilir	-12.0575
▁karamanlı	-12.0575
▁sayesinde	-12.0575
▁afp	-12.0575
▁19.30	-12.0575
▁yemekhane	-12.0575
▁korkusu	-12.0576
▁sabih	-12.0576
▁altındağ	-12.0576
▁yalancı	-12.0576
▁ilişkileri	-12.0576
▁tavuğ	-12.0576
▁edremit	-12.0576
▁porto	-12.0577
▁unutmayın	-12.0578
▁sağlayacağız	-12.0578
▁kutlandı	-12.0578
▁doğruladı	-12.0579
▁vita	-12.0579
▁kurumu	-12.0579
▁lynn	-12.0579
▁haşla	-12.058
ih	-12.058
▁elazığspor	-12.058
▁hazırız	-12.0581
▁belirlenecek	-12.0581
bbet	-12.0581
▁theron	-12.0581
▁browne	-12.0581
opec	-12.0582
▁şili	-12.0582
▁odabaşı	-12.0582
ere	-12.0583
▁yorgo	-12.0583
pas	-12.0584
▁akbaş	-12.0585
▁alıkoy	-12.0586
▁etmiyoruz	-12.0586
▁demirören	-12.0587
▁denizaltı	-12.0588
▁golf	-12.0589
▁haklı	-12.0589
▁vermeyeceğiz	-12.0589
▁eliza	-12.059
▁yüzük	-12.059
▁maliki	-12.059
baz	-12.0591
▁saklı	-12.0591
klavye	-12.0591
▁gerekiyordu	-12.0592
vivo	-12.0592
▁kovalama	-12.0593
▁çekerken	-12.0593
ametti	-12.0594
▁iştah	-12.0595
▁adına	-12.0595
▁cumhur	-12.0597
▁22.00	-12.0597
▁bulbasaur	-12.0597
▁ceyhun	-12.0597
▁meçhul	-12.0597
▁ruhani	-12.0597
▁lüksemburg	-12.0597
▁çerkez	-12.0597
▁musalla	-12.0597
▁düzenek	-12.0597
▁tertip	-12.0597
▁münch	-12.0598
▁tello	-12.0598
▁şahsiyet	-12.0598
▁seslendirdi	-12.0598
▁saygun	-12.0599
▁harp	-12.0599
▁solana	-12.06
▁taşıyan	-12.0601
▁küre	-12.0601
▁şöle	-12.0602
▁green	-12.0602
▁parsel	-12.0602
▁louise	-12.0602
▁106	-12.0603
▁göstermektedir	-12.0603
▁yetin	-12.0603
▁yığıl	-12.0604
▁kervan	-12.0604
▁mehme	-12.0604
▁iskelet	-12.0605
▁pişiril	-12.0605
▁agres	-12.0606
▁bahçeci	-12.0607
▁haydar	-12.0607
▁sporcu	-12.0607
▁umuyorum	-12.0607
▁soyer	-12.0607
▁özhan	-12.0608
▁(25)	-12.0609
lyon	-12.0609
▁lakap	-12.0609
▁track	-12.0611
rojin	-12.0612
▁maraş	-12.0612
gele	-12.0612
▁elektron	-12.0614
▁terminal	-12.0615
▁tic	-12.0616
üzel	-12.0617
mesine	-12.0618
▁mafya	-12.0619
▁said	-12.062
abilirim	-12.062
isyen	-12.0622
▁gidip	-12.0623
▁stil	-12.0624
▁nedenle	-12.0624
▁haliç	-12.0625
▁vira	-12.0626
▁yaşında	-12.0626
▁anlaşması	-12.0627
▁jü	-12.0628
▁diyoruz	-12.0628
▁hilal	-12.063
▁oluruz	-12.0631
▁4-1	-12.0631
▁99	-12.0631
▁gr	-12.0632
▁mono	-12.0633
▁muhata	-12.0634
▁akyürek	-12.0635
medim	-12.0636
▁kaçınılmaz	-12.0636
▁cengiz	-12.0637
▁bloom	-12.0639
▁artar	-12.064
▁artması	-12.0641
▁kom	-12.0643
▁kapatıl	-12.0643
▁öbür	-12.0646
▁başlarken	-12.0646
▁bgst	-12.0647
▁jinx	-12.0647
▁balyoz	-12.0647
▁taşma	-12.0647
▁roland	-12.0649
▁1970	-12.0649
▁bora	-12.065
▁harab	-12.0651
▁multinet	-12.0651
▁eşek	-12.0652
▁ödemiş	-12.0653
tti	-12.0657
rit	-12.0659
▁güvenç	-12.0662
▁artırdı	-12.0662
▁farkli	-12.0664
liyoruz	-12.0666
yeceğiz	-12.0667
▁sadece	-12.0667
▁bez	-12.0668
▁diyar	-12.0669
▁destan	-12.067
▁evka	-12.0672
▁misal	-12.0672
▁olgu	-12.0673
▁andy	-12.0676
▁havale	-12.0677
▁neW	-12.0677
masın	-12.0678
▁(7)	-12.0681
tham	-12.0683
bal	-12.0684
▁idil	-12.0685
▁ri	-12.0685
▁attık	-12.0685
▁yapılmaktadır	-12.0687
peg	-12.0688
▁düşünün	-12.0694
▁dow	-12.0694
▁onlari	-12.0696
▁donald	-12.0696
▁ösym	-12.0698
▁savunan	-12.0698
▁tomas	-12.0699
▁yazıcı	-12.07
▁once	-12.07
▁yansıtıyor	-12.0701
▁rumen	-12.0702
▁beyin	-12.0703
▁işitme	-12.0707
▁görünce	-12.0714
▁sokulma	-12.0717
▁herif	-12.0718
▁olacaktı	-12.0719
▁fal	-12.072
ft	-12.0723
▁termal	-12.0725
▁türbe	-12.0725
▁19.	-12.0727
eş	-12.0729
ilmis	-12.0738
▁bölgesi	-12.0743
▁erbil	-12.0744
▁döşeme	-12.0745
▁alacaklar	-12.0748
▁stan	-12.0748
▁rodrig	-12.0752
▁toros	-12.0753
▁olacağım	-12.0755
▁sanki	-12.0757
▁roller	-12.0759
▁cella	-12.0762
▁gözetle	-12.0762
yacağız	-12.0765
▁gitmiş	-12.0765
ğe	-12.0767
▁artik	-12.077
▁kitaplar	-12.077
▁işbir	-12.0772
▁istiyordu	-12.0774
▁gülün	-12.0782
▁taslağı	-12.0782
▁kını	-12.0784
diği	-12.0788
▁alıyorum	-12.0789
hong	-12.0791
nabilme	-12.0797
▁yakin	-12.0798
▁yedik	-12.0798
tüt	-12.0813
lis	-12.0814
▁sağlar	-12.0814
▁asit	-12.0817
▁7.5	-12.0822
▁dig	-12.0827
▁barbaros	-12.0827
▁mudur	-12.0829
eşme	-12.0838
▁olmalıyız	-12.0841
400	-12.0843
asus	-12.0843
▁yılan	-12.0844
▁musa	-12.0846
▁döktü	-12.0846
▁yorulma	-12.0847
▁bob	-12.085
çü	-12.0859
▁kür	-12.0863
▁hedefi	-12.0866
▁yapmaktadır	-12.0868
▁850	-12.0868
▁oyuncuları	-12.0874
▁ipadi	-12.0875
▁fo	-12.0876
▁finaller	-12.0885
▁suçladı	-12.0886
akınca	-12.0889
lenir	-12.0892
teri	-12.0894
tk	-12.0898
▁sanayii	-12.0899
▁erik	-12.0904
aplı	-12.0905
▁daum	-12.0907
▁atmıştı	-12.0907
ud	-12.0908
sha	-12.0911
▁2.7	-12.0915
▁söylüyorlar	-12.0915
▁başroller	-12.0917
ans	-12.0921
iyat	-12.0921
rica	-12.0923
▁arter	-12.0925
▁altun	-12.0929
▁isteği	-12.093
▁bab	-12.0934
▁ney	-12.0934
larak	-12.0938
▁muhi	-12.094
pazarı	-12.0941
▁yıkı	-12.0942
▁izban	-12.0943
▁güvenen	-12.0955
büt	-12.0959
▁bildirmişti	-12.096
hk	-12.096
▁önal	-12.0964
ation	-12.0964
▁soz	-12.0964
▁istemez	-12.0965
zar	-12.0973
ada	-12.0976
mpb	-12.0976
and	-12.0978
▁kota	-12.0986
▁litera	-12.0987
▁ataş	-12.0992
▁balta	-12.0995
fr	-12.0995
yın	-12.0995
▁gibidir	-12.0995
four	-12.0999
▁sahibi	-12.1
▁kıs	-12.1001
▁ayrılır	-12.1004
▁ayrıntılar	-12.1009
▁özet	-12.101
▁şa	-12.1012
▁bilgiler	-12.1017
eceğim	-12.1018
▁yaya	-12.1024
zam	-12.1026
▁öneriyor	-12.1026
▁gerileme	-12.103
▁silk	-12.1037
▁çaldı	-12.1038
elli	-12.1042
▁(1	-12.1044
▁eğitil	-12.1044
▁vahi	-12.1045
rom	-12.1046
meyebilir	-12.1046
▁ayı	-12.1047
w	-12.1058
beth	-12.106
▁teması	-12.1065
▁bırakılmıştı	-12.1072
▁nitelendiril	-12.1076
rus	-12.108
auf	-12.1082
▁makinesi	-12.1082
▁92	-12.1083
.6	-12.1088
deniz	-12.1088
▁alması	-12.1089
abilme	-12.109
sco	-12.1091
▁yalvar	-12.1091
▁atlanti	-12.1093
▁fey	-12.1096
▁oluşturul	-12.1097
sh	-12.1103
▁getirir	-12.1105
larini	-12.1106
33	-12.1107
atıp	-12.1108
▁pana	-12.1109
▁xxx	-12.1114
▁halkı	-12.1115
▁parçala	-12.1116
ao	-12.1121
▁jon	-12.1122
▁sağlıklı	-12.1125
▁toki	-12.1127
▁feh	-12.113
lüğü	-12.113
▁appleı	-12.1131
nato	-12.1133
org	-12.1134
▁midir	-12.1137
dığında	-12.1139
▁25.	-12.114
▁hacmin	-12.1148
üş	-12.1155
▁am	-12.1155
arenk	-12.1157
▁ulaşabil	-12.1158
yordum	-12.116
▁anlatacak	-12.1161
▁maket	-12.1161
amazsınız	-12.1162
▁adler	-12.1162
▁insanları	-12.1163
▁pir	-12.1166
▁söylerk	-12.1166
▁fit	-12.1175
▁karşılaştırma	-12.1182
imet	-12.1184
▁akpde	-12.1189
iridy	-12.1196
▁hayret	-12.1196
▁yazılı	-12.1197
▁özelliği	-12.1205
▁başara	-12.121
▁gezdi	-12.1212
▁değerlendir	-12.1212
▁yapabilme	-12.1222
sman	-12.1222
mayacak	-12.1223
▁turk	-12.1224
res	-12.1225
▁şehri	-12.1229
azerice	-12.123
▁w	-12.1239
▁çimen	-12.1239
▁rea	-12.124
▁inat	-12.1247
▁alınması	-12.125
kışık	-12.125
ırsınız	-12.1252
▁kurulacak	-12.1254
37	-12.1257
oter	-12.1264
▁tram	-12.127
▁pres	-12.1271
▁araçlar	-12.1271
▁başında	-12.1271
ymiş	-12.1274
▁önlen	-12.1276
▁kartlar	-12.1277
▁öztek	-12.1277
▁sıfatı	-12.1285
mum	-12.129
▁(2	-12.1295
▁çarpıt	-12.1299
ato	-12.13
▁(14	-12.1301
▁gunn	-12.1302
▁alamadı	-12.1308
omen	-12.1315
vme	-12.1315
fo	-12.1323
▁tc	-12.133
▁haddi	-12.1333
▁taşla	-12.1337
▁sürdürül	-12.1338
1959	-12.1343
▁kurtulmuş	-12.1343
▁lamb	-12.1344
muyor	-12.1347
▁yaşlan	-12.135
▁5-	-12.1354
out	-12.1357
▁markası	-12.1363
▁vite	-12.1364
▁sara	-12.1366
all	-12.1368
▁delik	-12.1372
58	-12.1375
aday	-12.1377
▁oyn	-12.1377
kendi	-12.1379
islam	-12.1385
rez	-12.1388
▁izlenme	-12.1391
▁env	-12.1397
-5	-12.1398
yük	-12.14
akıl	-12.1401
▁mir	-12.1403
ılması	-12.1404
▁21.00	-12.1407
kutsal	-12.1408
polis	-12.1409
▁alkışla	-12.141
beton	-12.1412
taraf	-12.1412
bölge	-12.1413
bilgi	-12.1413
özgür	-12.1413
israil	-12.1413
sevgi	-12.1414
ulusal	-12.1414
güzel	-12.1414
mehmet	-12.1414
▁king	-12.1414
elektrik	-12.1414
hukuk	-12.1414
ms	-12.1415
yunanistan	-12.1415
sigara	-12.1416
herkes	-12.1416
erkek	-12.1417
sav	-12.1417
▁kos	-12.142
nos	-12.1427
anado	-12.1427
.5	-12.1427
bour	-12.1428
saha	-12.143
▁örgütleri	-12.1435
▁akay	-12.1438
zaman	-12.1439
daydı	-12.1453
ibe	-12.1453
▁çıkartıl	-12.1459
pet	-12.1459
mp	-12.146
▁müvekkil	-12.1462
▁masal	-12.1463
▁jer	-12.1464
-24	-12.1466
▁indirilme	-12.1467
tro	-12.1468
▁gil	-12.1472
adil	-12.1474
06	-12.1476
-3	-12.1477
eli	-12.1478
mekke	-12.1481
dj	-12.1491
ted	-12.1499
layan	-12.1504
▁160	-12.1504
,5	-12.1505
▁ıvysaur	-12.1513
▁song	-12.1513
▁gerçekleştirece	-12.1514
▁ho	-12.1524
lenirken	-12.1527
▁sektörü	-12.1532
ülya	-12.1538
mezken	-12.1542
▁düzenlemesi	-12.1543
oel	-12.1549
▁op	-12.1549
▁ihtila	-12.1551
▁tabak	-12.1555
▁1.8	-12.156
yang	-12.1563
▁ef	-12.157
▁belirtilmişti	-12.1575
▁açıklaması	-12.1575
politik	-12.1588
▁resimler	-12.1588
dal	-12.1591
▁taka	-12.1596
▁edilebil	-12.16
zap	-12.1604
▁anaf	-12.1605
lendirilecek	-12.1608
lke	-12.1609
▁fert	-12.1612
azi	-12.1623
ığ	-12.1626
▁etmez	-12.1627
▁uçağı	-12.1632
ts	-12.1638
▁kaps	-12.1639
▁dondurm	-12.1642
▁yasaklı	-12.165
tch	-12.1653
▁fet	-12.1653
▁yansıt	-12.1654
ku	-12.1654
erk	-12.1657
▁ören	-12.1668
▁boğ	-12.1668
sta	-12.1668
mamak	-12.1671
▁kıran	-12.1673
dows	-12.1676
▁güçlendirilme	-12.1679
▁perakende	-12.168
olünü	-12.1682
▁edemez	-12.1684
ello	-12.1688
▁yandex	-12.169
▁haberal	-12.169
▁salak	-12.1692
▁düşer	-12.1693
MA	-12.1693
▁işçiler	-12.1696
▁kurutul	-12.1696
▁reddedil	-12.1698
▁oluşturur	-12.1699
▁töre	-12.1699
utku	-12.1701
▁girişimi	-12.1703
lyan	-12.1709
alatasaray	-12.171
atik	-12.1716
ırlar	-12.1716
▁zü	-12.1717
▁kalmıyor	-12.1719
▁yoğunlaştır	-12.1723
▁karsi	-12.1726
rich	-12.1728
▁duba	-12.1729
▁uyulma	-12.1733
irsiniz	-12.1737
▁vaziyet	-12.1737
uba	-12.1738
▁edecekler	-12.1742
▁dokun	-12.1742
stür	-12.1748
▁kamh	-12.175
▁aoç	-12.1752
sib	-12.1754
▁sıkıştı	-12.1762
▁arayan	-12.1766
▁affet	-12.177
▁eh	-12.1773
▁bl	-12.178
oks	-12.1781
▁gömü	-12.1782
ahrett	-12.1782
▁arnavut	-12.1782
▁yerleşti	-12.1789
meyen	-12.1791
▁rose	-12.1791
▁almak	-12.1792
▁serge	-12.1792
ban	-12.1793
▁etsin	-12.1793
▁tanınma	-12.1797
8.4	-12.1797
isidir	-12.1797
▁12.00	-12.1797
▁edebi	-12.1797
madığını	-12.1798
mut	-12.1799
uyordu	-12.18
diye	-12.18
ct	-12.18
▁sosyoloji	-12.1801
▁otomobi	-12.1801
ntegra	-12.1803
▁firar	-12.1803
▁bülten	-12.1804
▁rezerv	-12.1804
▁kesinleşti	-12.1806
htar	-12.1808
ablo	-12.1809
andırıcı	-12.1813
miyordu	-12.1814
Amerika	-12.1814
▁hikáye	-12.1814
▁zanned	-12.1814
▁sürmüştü	-12.1814
▁bikini	-12.1814
▁okundu	-12.1815
▁kandil	-12.1815
▁zorundadır	-12.1816
▁sarkozy	-12.1816
beledi	-12.1817
▁tanrıku	-12.1817
ebze	-12.1817
▁çeliş	-12.1817
▁maydanoz	-12.1818
▁renminbi	-12.1818
artholomeos	-12.1818
meşgul	-12.1818
orospu	-12.1818
▁Müdürlüğü	-12.1818
▁copeland	-12.1818
▁doodle	-12.1818
▁ebeveyn	-12.1818
▁eşofman	-12.1818
▁firefox	-12.1818
▁freedos	-12.1818
▁gergedan	-12.1818
▁glazer	-12.1818
▁güvercin	-12.1818
▁hutbe	-12.1818
▁jamaika	-12.1818
▁keçeci	-12.1818
▁koordine	-12.1818
▁kışanak	-12.1818
▁mirzakhani	-12.1818
▁mücevher	-12.1818
▁partner	-12.1818
▁röntgen	-12.1818
▁snow	-12.1818
▁tebessüm	-12.1818
▁temayül	-12.1818
▁toshiba	-12.1818
▁yelpaze	-12.1818
▁şizofren	-12.1818
köktendin	-12.1818
▁blatter	-12.1818
▁kargaşa	-12.1818
▁kiremit	-12.1818
▁kokain	-12.1818
▁pantolon	-12.1818
▁yumurtla	-12.1818
▁panayır	-12.1818
▁sachs	-12.1818
▁filtre	-12.1818
▁fıkra	-12.1818
▁ihtişam	-12.1818
▁enfeksiyo	-12.1818
▁hamaney	-12.1818
▁başbuğ	-12.1818
▁kaplumbağa	-12.1818
▁myers	-12.1818
▁parola	-12.1818
▁yugoslav	-12.1818
▁rekolte	-12.1818
▁analist	-12.1818
▁connery	-12.1818
▁erdinç	-12.1818
▁hiraki	-12.1818
▁slovakya	-12.1818
▁giresun	-12.1818
▁gezinti	-12.1818
▁guardian	-12.1818
▁dublör	-12.1818
▁aviv	-12.1818
▁tüfeği	-12.1818
▁redhack	-12.1818
▁caydır	-12.1818
▁otogar	-12.1818
▁menşe	-12.1818
▁sesleniyorum	-12.1818
▁karmaşık	-12.1818
liesing	-12.1818
▁balayı	-12.1818
▁hatırlıyorum	-12.1818
▁topyek	-12.1818
▁doçent	-12.1818
▁strange	-12.1818
▁cmyk	-12.1818
▁bartın	-12.1818
▁soyguncu	-12.1818
önizleme	-12.1819
▁iskoçya	-12.1819
▁yüzünden	-12.1819
▁karabıyık	-12.1819
▁bünya	-12.1819
▁atınç	-12.1819
▁otosan	-12.1819
▁horoz	-12.1819
▁23.00	-12.1819
▁depre	-12.1819
▁forex	-12.1819
▁bilmem	-12.1819
▁olursunuz	-12.1819
▁yaşındayken	-12.1819
▁gümüşova	-12.1819
orm	-12.1819
▁1985	-12.1819
▁yığın	-12.1819
▁yeşilçam	-12.182
▁yıprat	-12.182
eblebi	-12.182
▁1933	-12.182
▁1977	-12.182
▁bükte	-12.182
▁sarkozynin	-12.182
▁vasat	-12.182
▁turşak	-12.182
▁karabükspor	-12.182
▁yonca	-12.182
▁1905	-12.182
▁tezcan	-12.182
▁konuşuluyor	-12.182
▁rayonu	-12.1821
▁göktaşı	-12.1821
▁dalış	-12.1821
▁oynatıl	-12.1821
▁gökbel	-12.1821
iths	-12.1821
▁kohl	-12.1821
aliyev	-12.1821
▁yenile	-12.1821
▁eşdeğer	-12.1821
▁anlatıldı	-12.1822
▁cephane	-12.1822
▁durumdayız	-12.1822
▁6-3	-12.1822
▁golsüz	-12.1822
▁yankesici	-12.1822
▁duyuyoruz	-12.1822
▁1972	-12.1822
▁beğendik	-12.1822
▁dururken	-12.1822
▁bağımsızlığı	-12.1823
▁isfahan	-12.1823
▁mavericks	-12.1823
▁pepe	-12.1823
▁lady	-12.1823
▁çıkaracağız	-12.1823
▁joel	-12.1823
▁hurma	-12.1823
▁bitişi	-12.1823
▁çıkardık	-12.1824
▁bilirim	-12.1824
▁dW	-12.1824
nisy	-12.1824
▁urasil	-12.1824
▁sağlayacaktır	-12.1824
▁oyuncusu	-12.1824
▁koyalım	-12.1825
▁koçak	-12.1825
▁tanıtılma	-12.1825
▁üzüldüm	-12.1825
▁karadağ	-12.1825
▁halter	-12.1825
▁çöktü	-12.1826
▁akbank	-12.1826
▁titani	-12.1826
▁bag	-12.1826
▁siyasetçi	-12.1826
▁konuşmuştu	-12.1826
▁bilemiyorum	-12.1826
▁cnn	-12.1827
▁onaylanma	-12.1827
▁üzüldü	-12.1827
▁çağrıldı	-12.1827
▁2004-200	-12.1827
▁halkbank	-12.1828
▁adapt	-12.1828
▁santim	-12.1829
▁keşfet	-12.1829
▁yaramaz	-12.1829
▁edilmelidir	-12.1831
▁yapacağım	-12.1831
mos	-12.1831
▁yaptigi	-12.1831
çomü	-12.1832
▁yillar	-12.1832
▁367	-12.1832
▁bakalım	-12.1834
▁amr	-12.1834
▁yetkilisi	-12.1834
▁olabilme	-12.1835
▁hıyar	-12.1835
▁seçkin	-12.1835
▁pak	-12.1835
▁ekva	-12.1835
▁bulunuyoruz	-12.1836
▁ulaşırken	-12.1836
▁florid	-12.1836
▁miller	-12.1836
▁doğra	-12.1837
▁bulunmuştur	-12.1837
▁gününde	-12.1837
▁taht	-12.1838
▁(26)	-12.1838
▁terry	-12.1839
▁(19)	-12.184
▁soros	-12.184
▁bican	-12.184
▁vermeyin	-12.184
▁edeceğim	-12.1841
sk	-12.1841
bb	-12.1842
▁ceket	-12.1844
taşeron	-12.1844
▁3.2	-12.1845
▁vurguluyor	-12.1847
▁1963	-12.1847
▁first	-12.1847
▁oğlum	-12.1847
▁arpa	-12.1848
▁ersan	-12.1848
▁cogu	-12.1848
59	-12.1849
▁aydınspor	-12.185
▁ertaş	-12.185
▁anavatan	-12.185
▁kullanır	-12.1851
▁kalsedon	-12.1851
▁mevduat	-12.1851
▁rachel	-12.1851
▁ronaldinho	-12.1851
▁barbie	-12.1851
▁baklava	-12.1851
▁kadife	-12.1851
▁akkaş	-12.1851
▁kıyamet	-12.1851
▁bmgk	-12.1851
▁tweet	-12.1851
▁psv	-12.1852
▁libya	-12.1852
▁kullanımı	-12.1852
▁kalmaz	-12.1852
▁tüylü	-12.1852
▁duty	-12.1852
▁sağlayan	-12.1853
▁arkadaşım	-12.1853
▁tower	-12.1853
▁atıf	-12.1854
▁gtk	-12.1854
▁sarıca	-12.1854
▁tarkan	-12.1854
▁kuyrukluyıldız	-12.1855
▁dallas	-12.1855
▁melodi	-12.1855
irk	-12.1855
▁zordur	-12.1856
▁dramatik	-12.1856
▁gösterileri	-12.1857
▁öğrendik	-12.1858
▁darwin	-12.1858
▁davetiye	-12.1859
▁bom	-12.1859
▁dersiniz	-12.186
▁yenigün	-12.1861
▁edelim	-12.1861
▁karmaş	-12.1861
▁sağlandı	-12.1862
▁özek	-12.1863
▁gerçekleşecek	-12.1864
▁tetikle	-12.1864
▁verilmiştir	-12.1865
▁(21)	-12.1865
▁yöneltti	-12.1866
▁cansun	-12.1867
▁nicol	-12.1867
▁yapısı	-12.187
▁fig	-12.1873
▁çıkıyoruz	-12.1873
gov	-12.1875
▁"3	-12.1875
▁gittiler	-12.1876
▁çetiner	-12.1877
▁yaşadım	-12.1879
▁bulgar	-12.1879
▁çilek	-12.1881
▁ödüyor	-12.1881
▁ırmak	-12.1882
▁polemi	-12.1884
-64	-12.1884
▁kad	-12.1886
▁bakırcı	-12.1888
▁sp	-12.189
▁rap	-12.1892
▁bağlıdır	-12.1894
▁çıkacağız	-12.1894
meyeceğiz	-12.1894
▁ölçüt	-12.1895
▁günlerde	-12.1895
▁veriyorum	-12.1896
▁gösterdiler	-12.1897
▁karşısında	-12.1898
▁savaşma	-12.1899
▁cra	-12.1899
▁baskısı	-12.1901
▁oluyorlar	-12.1901
doha	-12.1902
ösem	-12.1904
▁sanıklar	-12.1904
▁anladım	-12.1905
▁disney	-12.1908
▁trafo	-12.1908
▁spot	-12.1908
▁tariş	-12.1909
acaklar	-12.1909
▁1974	-12.1909
▁garson	-12.1911
▁ayaz	-12.1911
▁phil	-12.1912
▁zalim	-12.1912
deyk	-12.1912
▁yaptığını	-12.1914
▁timur	-12.1915
hiti	-12.1915
▁bandır	-12.1917
▁nazik	-12.1917
ene	-12.1917
▁ibn	-12.1917
▁dize	-12.1918
▁dilim	-12.1921
▁çebi	-12.1922
▁kokteyl	-12.1923
▁durna	-12.1924
▁buldum	-12.1924
sling	-12.1928
▁1950	-12.1929
▁zorlanma	-12.1929
▁bega	-12.1931
▁haç	-12.1931
▁amk	-12.1931
▁gidiş	-12.1935
cağız	-12.1936
▁biriyim	-12.1937
ğünü	-12.1937
▁davası	-12.1937
▁fuarda	-12.1938
▁vergisi	-12.1938
▁nitelen	-12.1939
▁şüphesi	-12.194
▁mahcu	-12.1943
▁della	-12.1944
▁hum	-12.1946
▁long	-12.1948
▁nesli	-12.1948
▁sala	-12.1952
▁abartı	-12.1953
▁oturan	-12.1957
▁kolon	-12.1958
▁ysk	-12.1959
▁tanıttı	-12.1959
21	-12.1961
▁Whe	-12.1963
▁teras	-12.1965
▁çhsdk	-12.1967
▁guven	-12.1967
▁yansıtma	-12.1967
atırcıoğlu	-12.1969
adam	-12.1971
▁bardağ	-12.1972
▁reddedilme	-12.1973
▁müe	-12.1974
▁hazir	-12.1976
-40	-12.1979
▁yaparlar	-12.1982
▁yayılma	-12.1984
kondu	-12.1984
▁kı	-12.1985
▁ııı	-12.1986
▁hende	-12.1988
jami	-12.1993
6-2	-12.1993
▁:)	-12.1994
tiriyoruz	-12.1995
▁çıkması	-12.1995
▁karşılaştırıl	-12.1998
▁ps	-12.2004
▁pW	-12.2013
▁ayrılacak	-12.2014
ogging	-12.2014
trin	-12.2016
▁kubat	-12.2017
▁dok	-12.2019
▁müdürü	-12.2021
elele	-12.2021
▁başlatılma	-12.2022
▁güzi	-12.2023
▁melo	-12.2023
▁tatı	-12.2024
▁santralleri	-12.2024
▁abdu	-12.2025
▁donu	-12.2025
▁toni	-12.2027
▁Wars	-12.2029
▁döneminde	-12.2031
▁tekme	-12.2033
▁peder	-12.2033
▁adedi	-12.2037
▁halman	-12.2037
▁angay	-12.2037
▁etkilendi	-12.2045
thing	-12.205
▁eker	-12.2053
▁night	-12.2058
eren	-12.2062
▁edilmeli	-12.2062
lamaz	-12.2065
zir	-12.2067
▁çeker	-12.2068
▁hor	-12.207
▁takılıyor	-12.2071
▁fıstı	-12.2073
▁kün	-12.2076
ET	-12.2078
▁davada	-12.208
rçin	-12.2082
▁harekátı	-12.2085
▁1.7	-12.2085
abat	-12.2089
▁bozul	-12.209
▁kuze	-12.2091
▁katılması	-12.2094
▁yapabilir	-12.2097
▁cash	-12.2098
ılmıyor	-12.2098
akut	-12.2107
▁ram	-12.2107
aket	-12.2109
▁geldiler	-12.2109
▁getirecek	-12.211
eff	-12.2111
▁taraftarı	-12.2117
ünkü	-12.2124
kas	-12.2125
▁yönetil	-12.2127
aybar	-12.2127
8.5	-12.213
öy	-12.2131
▁iyidir	-12.2133
▁yırtı	-12.2141
▁şehmu	-12.2142
gan	-12.2143
▁fosf	-12.2145
▁koza	-12.2146
erra	-12.2147
▁tri	-12.2149
▁aker	-12.2149
▁sean	-12.2151
▁cafer	-12.2152
mayi	-12.2156
▁konservatu	-12.2157
▁dedirt	-12.2162
▁kenter	-12.2165
▁toparlan	-12.2166
▁heves	-12.217
▁kase	-12.2175
▁iddiaları	-12.2177
emiyorum	-12.2177
yabiliriz	-12.2179
tırma	-12.2183
▁sarsıl	-12.2184
iro	-12.2189
anti	-12.2189
▁egz	-12.219
▁ron	-12.2191
▁190	-12.2194
▁terked	-12.2198
▁sergiliyor	-12.2198
ldi	-12.22
kışladı	-12.22
lanır	-12.2202
edi	-12.2203
56	-12.2204
lyo	-12.2204
▁brad	-12.2207
▁bamb	-12.2207
kaset	-12.2208
haydi	-12.2209
wa	-12.2211
trik	-12.2212
▁reşit	-12.2212
BA	-12.2213
memişti	-12.2216
▁nurkan	-12.2217
mento	-12.2217
29	-12.222
nif	-12.2221
▁dairesi	-12.2222
▁serinle	-12.2227
94	-12.2229
▁122	-12.223
azmi	-12.223
▁traj	-12.2235
▁vardir	-12.2238
▁belki	-12.2239
zig	-12.224
cle	-12.2241
▁takımlar	-12.2244
▁gülen	-12.2244
rs	-12.2244
▁güncelleme	-12.2255
▁üzereyk	-12.2255
▁balat	-12.2261
▁artırıyor	-12.2261
play	-12.2265
▁vo	-12.2265
▁aga	-12.2267
▁doya	-12.2267
▁merkezinde	-12.227
▁giydi	-12.2272
abildi	-12.2273
nmis	-12.2273
pal	-12.2274
▁ikaz	-12.2278
▁gs	-12.2279
lanmış	-12.2281
▁sürer	-12.2285
▁nedeni	-12.2285
hor	-12.229
▁yükseltil	-12.229
▁devril	-12.2293
▁olaylar	-12.2297
amber	-12.2301
▁edil	-12.2302
yım	-12.2306
uad	-12.231
▁kesiş	-12.2311
▁umar	-12.232
ru	-12.2325
▁ker	-12.2326
▁kreş	-12.233
▁97	-12.2334
▁kavra	-12.2339
laştırdı	-12.2344
▁iştirak	-12.2349
▁üniversitesi	-12.235
▁alabil	-12.2351
▁adayı	-12.2353
▁belirtmişti	-12.2357
yacağım	-12.2359
▁tarihi	-12.2359
urum	-12.2359
▁altı	-12.2367
▁tutul	-12.2368
2002	-12.237
▁0,6	-12.2372
-6	-12.2379
▁savcılar	-12.2383
viz	-12.2384
▁şal	-12.2385
45	-12.2386
▁mega	-12.239
▁karıştır	-12.2391
tane	-12.2392
urg	-12.2395
linç	-12.2397
7-8	-12.2398
▁birlik	-12.2409
▁sürat	-12.2412
▁alip	-12.2413
▁yetiştir	-12.2414
bin	-12.2416
anı	-12.2418
▁izmirde	-12.2419
▁sand	-12.2424
▁parçası	-12.2425
üyoruz	-12.2425
▁festivaller	-12.243
▁bucak	-12.2435
fett	-12.244
▁os	-12.245
ege	-12.2451
▁xx	-12.2452
bina	-12.2455
▁dina	-12.2457
▁inceledi	-12.246
6)	-12.246
▁geçtiğini	-12.246
çed	-12.2469
kır	-12.2472
▁etmey	-12.2474
yarı	-12.2477
▁sorusun	-12.2481
▁rant	-12.2484
mayan	-12.2485
▁operası	-12.2485
vir	-12.2488
▁lisa	-12.2492
▁anna	-12.2494
▁karıştırı	-12.25
rlar	-12.2503
ite	-12.2511
landırılma	-12.2514
şti	-12.2515
ebe	-12.2517
▁yönünde	-12.2519
▁tes	-12.252
▁berd	-12.2521
rdek	-12.2521
▁çıkarıyor	-12.2523
▁istina	-12.2524
▁amacı	-12.2526
▁kris	-12.2531
▁efendim	-12.2541
▁kaynaş	-12.2542
hav	-12.2543
▁kaçırma	-12.2557
larin	-12.2557
▁seviş	-12.2561
2004	-12.2561
inder	-12.2562
onu	-12.2566
ebilirim	-12.2568
▁odağ	-12.2569
▁yapması	-12.2572
▁olmasını	-12.2573
mı	-12.2576
▁tartışma	-12.2577
800	-12.2578
▁evde	-12.2579
▁salonu	-12.2581
mediği	-12.2584
▁doy	-12.2585
yunca	-12.2589
▁apple	-12.259
ness	-12.2591
cg	-12.2592
ese	-12.2597
▁ayri	-12.2597
kol	-12.26
tv	-12.2601
▁altan	-12.2603
lenecek	-12.2603
lerdi	-12.2612
eing	-12.2618
▁gazeteciler	-12.2621
1973	-12.2622
sıydı	-12.2625
olum	-12.2628
▁ast	-12.263
▁kari	-12.2634
rten	-12.2634
suri	-12.2637
.500	-12.2638
▁almayın	-12.2639
▁fl	-12.2639
▁çörek	-12.2641
rey	-12.2645
▁sonucun	-12.2654
-17	-12.266
ket	-12.2663
▁keş	-12.2668
5.4	-12.2672
▁yarım	-12.2674
asıl	-12.268
mayalım	-12.2681
▁tava	-12.2681
ders	-12.2681
asım	-12.2682
▁filmleri	-12.2684
gate	-12.2685
uruz	-12.2686
▁old	-12.2691
▁yapıyordu	-12.2693
ümraniy	-12.2695
larinda	-12.2697
▁yüzde	-12.2704
▁enric	-12.2707
ıyım	-12.2707
▁inter	-12.2707
spo	-12.2708
sınlar	-12.271
''	-12.2713
▁kurulması	-12.2715
laştırıyor	-12.2716
▁üret	-12.2722
▁söylenir	-12.2724
▁pla	-12.2724
▁kalır	-12.2725
sic	-12.2726
▁sürerk	-12.2727
▁gemisi	-12.2733
laf	-12.2746
adli	-12.2749
-21	-12.2749
saydı	-12.275
soru	-12.2751
seni	-12.2759
▁barışc	-12.2767
▁kırp	-12.2772
sef	-12.2777
▁avlan	-12.2778
▁alanlar	-12.2781
▁narko	-12.2788
▁kaybettik	-12.2788
▁uygulanacak	-12.279
şeh	-12.2793
▁üyesi	-12.2795
2014	-12.2798
seks	-12.28
şimdi	-12.2805
kit	-12.2806
▁maze	-12.2807
rtel	-12.2808
▁136	-12.2809
▁corp	-12.281
üzer	-12.2811
▁che	-12.2811
▁götürüyor	-12.2813
şilyurt	-12.2816
▁yırt	-12.2818
belki	-12.2821
▁atacak	-12.2821
şnin	-12.2823
▁sanılıyor	-12.2824
▁söyler	-12.2827
▁haftason	-12.2828
▁260	-12.2829
▁gündoğ	-12.283
youtube	-12.2831
arız	-12.2831
indeyiz	-12.2831
göl	-12.2833
çavuş	-12.2834
tüsiad	-12.2834
sahibi	-12.2838
torba	-12.284
traj	-12.284
bursaspor	-12.284
bayram	-12.2841
efendi	-12.2841
proje	-12.2841
tbmm	-12.2842
mahkeme	-12.2842
özge	-12.2842
▁dostlar	-12.2842
meclis	-12.2842
şehit	-12.2843
atatürk	-12.2843
yılmaz	-12.2843
belediye	-12.2843
sanayi	-12.2844
yeşil	-12.2845
pkk	-12.2847
teknik	-12.2848
yerel	-12.2848
emzi	-12.2853
başkanı	-12.2855
aynı	-12.2856
▁law	-12.2857
değer	-12.2857
▁olmasay	-12.2857
italya	-12.2857
▁fay	-12.2859
aşk	-12.2867
hasta	-12.2871
mıyoruz	-12.2873
rin	-12.2874
kurt	-12.2874
böyle	-12.2876
sert	-12.2876
▁1.1	-12.2886
turk	-12.289
veya	-12.2891
amıyorum	-12.2892
▁1.4	-12.2896
lov	-12.2897
▁kattı	-12.2897
▁kullanılmış	-12.2903
mk	-12.2904
▁fla	-12.2906
▁jor	-12.2907
▁144	-12.2908
▁demokratikleş	-12.291
eraton	-12.2917
▁135	-12.2922
▁kitabı	-12.2925
mö	-12.2933
ktif	-12.2937
ındadır	-12.294
▁pm	-12.294
▁haberi	-12.2947
▁görevliler	-12.2949
tin	-12.2958
▁düşünü	-12.2959
▁kopu	-12.296
▁gevşe	-12.2961
ste	-12.2961
▁gerçekleşmişti	-12.2962
tos	-12.2962
▁rah	-12.2964
jit	-12.2967
▁iletil	-12.2969
▁umursa	-12.297
▁türküler	-12.2974
▁hamzaoğ	-12.2976
imam	-12.2978
▁köylüler	-12.2982
abileceğini	-12.2986
▁bro	-12.2988
▁bahçeşeh	-12.2989
▁geçir	-12.2994
▁134	-12.2997
▁115	-12.2998
sti	-12.3
▁bere	-12.3001
▁ulaşılabil	-12.3007
▁muha	-12.3015
sy	-12.3017
içi	-12.302
acılı	-12.3023
▁karat	-12.3025
▁dolap	-12.3027
▁4,5	-12.3028
▁girişimleri	-12.3043
▁yasakladı	-12.3043
▁aranıyor	-12.3044
▁bernard	-12.3047
▁özgül	-12.3049
ırız	-12.3054
kılma	-12.3055
vari	-12.3056
ig	-12.3063
▁dizisi	-12.3063
▁krema	-12.3066
gm	-12.307
ors	-12.3073
ıyorduk	-12.308
▁aksama	-12.308
▁çıkış	-12.3084
nel	-12.3084
acil	-12.3087
▁yazmıştı	-12.3088
▁dikkatin	-12.309
▁taraftarlar	-12.3095
tika	-12.3096
▁280	-12.3097
▁fırlat	-12.3098
▁diyordu	-12.3099
▁operasyonu	-12.3102
▁rady	-12.3103
▁yarıştı	-12.3106
▁denetlen	-12.311
▁yürütülme	-12.3115
▁simav	-12.3116
▁personeli	-12.3118
▁180	-12.3126
hay	-12.3131
▁etkilen	-12.3132
▁105	-12.3132
yüp	-12.3133
▁açıklamalar	-12.3137
müş	-12.3138
▁disko	-12.3139
▁humu	-12.314
▁elinde	-12.3147
▁sana	-12.3147
▁şeyler	-12.3148
▁baha	-12.315
▁büyücü	-12.3154
83	-12.3164
▁iphone	-12.3164
▁kullanıla	-12.3167
▁morali	-12.3168
tari	-12.3173
Ak	-12.3173
▁yatırıldı	-12.3178
▁hasıla	-12.3179
▁bağlandı	-12.3182
▁press	-12.3185
ümeyye	-12.3186
▁kıvır	-12.3188
▁polisler	-12.3191
gon	-12.3194
▁bilemem	-12.3196
.’	-12.3199
▁kulu	-12.3205
▁super	-12.3209
▁birlikleri	-12.321
▁edilirk	-12.3213
mu	-12.3213
▁günde	-12.3214
▁kovala	-12.3217
kamu	-12.3222
porta	-12.3225
▁sinyal	-12.3226
▁1986	-12.3227
▁refleks	-12.3228
▁yetiştirilme	-12.3228
▁şerbet	-12.3229
7)	-12.3232
▁sağlığı	-12.3232
▁eleni	-12.3234
▁anavat	-12.3234
▁fırlatıl	-12.3234
▁hafız	-12.3234
isio	-12.3234
cente	-12.3236
▁öym	-12.3236
▁onu	-12.3237
▁akçak	-12.3238
▁harfler	-12.324
pd	-12.3241
llo	-12.3241
▁lincoln	-12.3242
▁carre	-12.3244
olunay	-12.3244
▁hez	-12.3245
cumhurbaş	-12.3246
▁prodük	-12.3246
▁özgüv	-12.3246
▁başörtü	-12.3246
▁Cumhurbaşkanı	-12.3246
▁Watson	-12.3246
▁adrenalin	-12.3246
▁akabinde	-12.3246
▁alaturka	-12.3246
▁beasts	-12.3246
▁bönge	-12.3246
▁cilento	-12.3246
▁ekosistem	-12.3246
▁eldiven	-12.3246
▁hububat	-12.3246
▁iftira	-12.3246
▁kebap	-12.3246
▁kerkük	-12.3246
▁krause	-12.3246
▁körüstan	-12.3246
▁lipsky	-12.3246
▁miguel	-12.3246
▁netanyahu	-12.3246
▁palandöken	-12.3246
▁pirzola	-12.3246
▁pistorius	-12.3246
▁spivakov	-12.3246
▁steinmeier	-12.3246
▁stewart	-12.3246
▁sömürü	-12.3246
▁trafford	-12.3246
▁uruguay	-12.3246
▁çarşaf	-12.3246
▁broadway	-12.3246
▁enstrüman	-12.3246
▁kalsiyum	-12.3246
▁löw	-12.3246
▁mountain	-12.3246
▁söyleyeyim	-12.3246
▁vasıf	-12.3246
uickt	-12.3246
▁anestezi	-12.3246
▁braudy	-12.3246
▁briegel	-12.3246
▁bşb	-12.3246
▁cetvel	-12.3246
▁chirac	-12.3246
▁dilipak	-12.3246
▁mühimmat	-12.3246
▁tüzük	-12.3246
▁oecd	-12.3247
▁omega	-12.3247
▁ustaömer	-12.3247
▁03.00	-12.3247
▁eshot	-12.3247
▁değnek	-12.3247
Ancak	-12.3247
▁manastır	-12.3247
▁nazarbayev	-12.3247
▁coach	-12.3247
▁sarmısa	-12.3247
▁sparta	-12.3247
▁konstan	-12.3247
▁üslup	-12.3247
▁netcad	-12.3247
Trabzonspor	-12.3247
▁aselsan	-12.3247
▁linyitspor	-12.3247
▁koçyiğit	-12.3247
▁yousef	-12.3247
▁photos	-12.3247
▁vitrin	-12.3247
▁tadilat	-12.3247
▁arabulu	-12.3247
▁garcia	-12.3247
▁mahrum	-12.3247
▁clark	-12.3247
▁geçireceğiz	-12.3247
▁kısıtlı	-12.3247
▁lawren	-12.3247
▁horok	-12.3247
▁provokasyon	-12.3247
▁kuçma	-12.3247
▁dsl	-12.3247
▁kemoterap	-12.3247
▁kidman	-12.3247
▁09.00	-12.3247
▁pebb	-12.3247
▁zakai	-12.3247
▁şarab	-12.3247
▁moloz	-12.3247
▁08.00	-12.3247
▁başındayız	-12.3247
▁çelikkol	-12.3247
▁zaaf	-12.3247
gökyüzü	-12.3247
▁katsayı	-12.3247
▁durusoy	-12.3247
▁değirmenci	-12.3247
▁farkındalık	-12.3247
▁kabahat	-12.3247
prodüksiyon	-12.3247
▁forbes	-12.3247
▁dambura	-12.3247
▁doulos	-12.3247
▁gürses	-12.3247
▁johannes	-12.3247
▁özgeçmiş	-12.3247
▁canlandırıyor	-12.3247
▁yoğrul	-12.3247
▁balkır	-12.3247
▁adapazarı	-12.3247
▁pinto	-12.3247
▁sancar	-12.3247
▁hindu	-12.3247
▁hollande	-12.3247
▁hotz	-12.3247
▁parıl	-12.3247
▁1979	-12.3248
▁denizatı	-12.3248
▁banvit	-12.3248
▁hostes	-12.3248
▁demirkol	-12.3248
rof	-12.3248
▁java	-12.3248
▁zarf	-12.3248
▁rayon	-12.3248
▁kızgın	-12.3248
farsça	-12.3248
▁pervane	-12.3248
▁aWac	-12.3248
▁ağaçlandırma	-12.3248
▁kaygan	-12.3248
▁kontağ	-12.3248
▁balkız	-12.3248
▁diyelim	-12.3248
▁1983	-12.3248
▁şensoy	-12.3248
▁jordan	-12.3248
▁istinaden	-12.3248
▁kemeraltı	-12.3248
▁bahadır	-12.3248
▁reşat	-12.3248
▁akrep	-12.3248
▁palin	-12.3248
▁klip	-12.3248
▁öksüz	-12.3249
▁1949	-12.3249
▁seyhan	-12.3249
▁cannes	-12.3249
▁tayvan	-12.3249
▁ibret	-12.3249
nabız	-12.3249
▁parçasıdır	-12.3249
ergis	-12.3249
▁zıpla	-12.3249
▁anlaşılmaktadır	-12.3249
▁theodor	-12.3249
▁bırakılırken	-12.325
▁faal	-12.325
▁kılınçdoğ	-12.325
▁1947	-12.325
rabia	-12.325
▁cazip	-12.325
▁dumas	-12.325
▁yuvarlağ	-12.325
▁sunulması	-12.325
▁örgütlenme	-12.325
▁şaşırdım	-12.3251
▁savunuldu	-12.3251
▁çavuşoğlu	-12.3251
▁türbin	-12.3251
▁beşok	-12.3251
▁tavla	-12.3251
▁henri	-12.3251
▁donanim	-12.3251
▁oynayacağız	-12.3251
▁barınma	-12.3252
▁(34)	-12.3252
▁toplatıl	-12.3252
▁ciğer	-12.3252
▁tercüman	-12.3252
▁kestel	-12.3252
▁mevla	-12.3252
▁bölümünde	-12.3252
▁olmayabilir	-12.3252
elope	-12.3252
▁çarpışma	-12.3252
▁yatarken	-12.3253
▁tatar	-12.3253
▁tamamlanacak	-12.3253
▁lakers	-12.3253
▁cihad	-12.3253
▁açısından	-12.3253
▁satıldı	-12.3253
▁paparaz	-12.3253
▁demirbaş	-12.3254
▁yonga	-12.3254
▁beklemiyordu	-12.3254
▁sağlanması	-12.3254
▁pekdaş	-12.3254
▁omuz	-12.3254
▁pektaş	-12.3254
▁petra	-12.3255
▁rover	-12.3255
▁cezaalan	-12.3255
▁açılır	-12.3256
▁akropoli	-12.3256
▁kürşa	-12.3256
▁mamül	-12.3256
▁selamet	-12.3256
▁yayımladı	-12.3256
miyet	-12.3256
▁ağaoğlu	-12.3256
▁takson	-12.3256
▁öğretmenevi	-12.3256
▁kaçış	-12.3257
▁coştur	-12.3257
▁kıymetli	-12.3257
değerlendirirken	-12.3257
▁öymen	-12.3258
▁(33)	-12.3258
▁aktiv	-12.3258
▁çatal	-12.3258
▁getiriliyor	-12.3259
▁türkeş	-12.3259
suna	-12.326
▁mouche	-12.326
▁257	-12.326
▁bilmiyoruz	-12.326
▁eminim	-12.326
sonu	-12.3262
▁uzantı	-12.3262
▁zahmet	-12.3262
shi	-12.3262
▁devretti	-12.3262
▁zhu	-12.3262
▁okay	-12.3263
▁sosyalizm	-12.3264
▁boks	-12.3264
▁pc	-12.3264
ndirildi	-12.3265
▁harfleri	-12.3265
▁yağcı	-12.3266
▁odun	-12.3266
▁geoffroyi	-12.3267
▁finalist	-12.3267
pool	-12.3267
▁alınan	-12.3267
▁bulmuştur	-12.3267
▁çalışmıyor	-12.3268
▁muhsin	-12.3268
rmağ	-12.3268
▁annan	-12.3268
▁ishak	-12.3268
▁kafes	-12.3269
▁burns	-12.3269
▁rakısı	-12.3269
▁bariz	-12.327
▁kasap	-12.327
▁yağdırdı	-12.327
▁destekleme	-12.327
▁etmiyorum	-12.327
▁ideoloji	-12.327
▁hüsr	-12.327
▁server	-12.3271
▁yapılmış	-12.3271
cıları	-12.3271
▁1923	-12.3272
▁tokalaş	-12.3272
▁gelenler	-12.3273
▁kütük	-12.3273
▁kalyon	-12.3273
▁buluyorum	-12.3274
sf	-12.3275
▁küçümse	-12.3275
▁gerektiğini	-12.3276
▁ekonomist	-12.3276
▁yoksun	-12.3277
▁Wall	-12.3279
▁repli	-12.3279
▁şarkıcı	-12.3281
▁göstermiştir	-12.3281
▁151	-12.3281
▁teklifi	-12.3282
▁müzesi	-12.3282
▁yapmıyoruz	-12.3282
▁biletix	-12.3282
▁hafiflet	-12.3283
▁sordum	-12.3283
zin	-12.3284
eter	-12.3284
▁obje	-12.3285
▁mlkp	-12.3285
▁malesef	-12.3285
▁perişan	-12.3285
▁lazio	-12.3285
▁julian	-12.3285
▁pürüz	-12.3285
▁taklit	-12.3285
▁çamdib	-12.3285
▁imdb	-12.3285
▁kaşif	-12.3285
▁kuveyt	-12.3285
▁çomar	-12.3286
▁ediyorsun	-12.3286
▁açacağız	-12.3286
▁scha	-12.3286
▁kavrul	-12.3287
▁polik	-12.3287
▁hikayesi	-12.3287
▁lewis	-12.3288
▁öğü	-12.3289
▁tvye	-12.3289
▁kırılma	-12.3289
▁topçu	-12.3289
zih	-12.3289
ius	-12.3289
▁şahsi	-12.3289
▁7-5	-12.329
▁sentez	-12.329
▁kızım	-12.329
:‘	-12.329
▁ürünler	-12.3291
oksit	-12.3291
meyelim	-12.3291
▁sinüs	-12.3292
▁nazilli	-12.3293
▁azeri	-12.3293
▁rs	-12.3294
▁senegal	-12.3294
▁epik	-12.3295
▁özden	-12.3295
gökova	-12.3295
▁atı	-12.3295
▁ederse	-12.3295
epsi	-12.3296
▁onem	-12.3296
vedi	-12.3297
▁müsta	-12.3298
▁chang	-12.3298
▁ortalaması	-12.3298
▁inek	-12.3298
▁kardeşim	-12.3299
▁kendisine	-12.3301
▁seher	-12.3301
▁dalgı	-12.3302
▁biçimi	-12.3302
▁gidildi	-12.3304
▁bıraktım	-12.3306
▁230	-12.3306
meye	-12.3307
▁karşıyız	-12.3307
masına	-12.3308
▁mordoğa	-12.331
imdir	-12.3311
▁uğurlandı	-12.3313
▁yüksektir	-12.3314
ğil	-12.3315
▁köylü	-12.3315
other	-12.3317
spil	-12.3319
▁aksak	-12.332
▁değişikliği	-12.3322
▁içindedir	-12.3322
▁sağlarken	-12.3323
▁kucakla	-12.3323
▁ünvan	-12.3323
▁peşinde	-12.3324
▁sancak	-12.3326
gnu	-12.3327
▁ekoloji	-12.3328
▁civan	-12.3328
siyahlılar	-12.3328
▁yokken	-12.3333
▁azot	-12.3335
▁116	-12.3337
yırtıl	-12.3338
eksiksiz	-12.3338
▁geçiren	-12.3338
▁tasvi	-12.334
▁anlattılar	-12.334
▁bahsi	-12.3341
▁akhan	-12.3341
orland	-12.3343
▁302	-12.3346
▁vezir	-12.3349
▁jiang	-12.3349
▁azim	-12.335
▁Diyarbakır	-12.335
▁olurum	-12.3351
▁komplo	-12.3351
▁payı	-12.3351
▁pfdk	-12.3351
▁olmamalı	-12.3356
▁berivan	-12.3356
‘‘	-12.3357
▁azdır	-12.3358
▁hey	-12.3359
ilme	-12.3359
aziosmanpaşa	-12.336
▁bakış	-12.3361
-1,	-12.3362
▁sökü	-12.3364
99	-12.3365
▁açıklarken	-12.3365
▁atağ	-12.3366
▁diyecek	-12.3367
▁değişir	-12.3368
kal	-12.3368
▁mika	-12.3368
▁proto	-12.3369
▁35.	-12.337
▁mila	-12.3371
▁yaralama	-12.3372
▁vekalet	-12.3374
enna	-12.3374
▁dayanıyor	-12.3376
▁gazı	-12.3376
▁kavasoğ	-12.3378
sıya	-12.3379
von	-12.338
ho	-12.338
▁ilgisi	-12.338
▁sistemleri	-12.3381
▁planı	-12.3382
rfi	-12.3383
▁oysa	-12.3386
▁rid	-12.3387
▁arttırma	-12.3387
sehir	-12.3388
▁mamuller	-12.3388
▁maçında	-12.339
▁bahsetti	-12.3392
-55	-12.3396
▁yemin	-12.3398
illa	-12.3398
lutaş	-12.3402
▁değiştirme	-12.3403
▁canlı	-12.3404
▁eğlendir	-12.3405
▁girdim	-12.3405
▁umke	-12.3408
zmi	-12.3409
şirva	-12.341
▁yapabilirsiniz	-12.341
stem	-12.341
▁benziyor	-12.3413
.15	-12.3417
greb	-12.3418
▁michel	-12.3422
cy	-12.3425
▁azaltma	-12.3425
▁4-3	-12.3429
9.5	-12.343
▁miktarı	-12.3432
gah	-12.3435
69	-12.3436
iyordum	-12.344
▁çeşidi	-12.3441
turku	-12.3442
-20	-12.3443
loss	-12.3444
▁reis	-12.3447
▁cup	-12.3447
▁zayıfla	-12.3451
▁yürür	-12.3452
▁satılma	-12.3452
ırsa	-12.3456
▁uçakları	-12.3456
beşpar	-12.3456
idze	-12.3457
▁özdeşleş	-12.346
▁sağol	-12.3462
▁zanlılar	-12.3464
▁zal	-12.3465
▁googleda	-12.3466
raz	-12.3471
▁ziyarette	-12.3473
▁tuzağ	-12.3473
▁çark	-12.3473
▁katledildi	-12.3474
▁sport	-12.3475
çarşı	-12.3476
▁fed	-12.3477
aşlık	-12.3478
▁noktada	-12.348
▁mike	-12.3484
▁eym	-12.3487
▁fran	-12.3488
▁geçmesi	-12.3489
▁49.	-12.3489
▁alba	-12.3492
▁lou	-12.3492
pat	-12.3492
▁duayen	-12.3494
!!	-12.3494
▁anlaşılma	-12.3497
▁yelkovan	-12.3503
▁169	-12.3503
alıp	-12.3504
▁halt	-12.3506
▁çakmak	-12.3506
iyle	-12.351
▁media	-12.3513
▁çekil	-12.3513
ındayım	-12.3513
▁olmus	-12.3514
bne	-12.3518
▁güçlenme	-12.352
▁cinema	-12.3521
▁santa	-12.3522
▁(8)	-12.3523
▁siren	-12.3524
▁müsa	-12.3525
▁başl	-12.3525
▁gas	-12.3527
▁esra	-12.3531
eceği	-12.3535
Dİ	-12.3536
▁yazarları	-12.3538
▁uygulaması	-12.3538
▁oturacak	-12.3543
tırıcı	-12.3543
ath	-12.3546
▁anılır	-12.3547
▁izni	-12.3556
▁imtiyaz	-12.356
▁sened	-12.3561
▁geliştirdi	-12.3563
▁olacağını	-12.3563
▁joa	-12.3565
▁astronomi	-12.3565
!..	-12.3569
▁yakıştır	-12.3569
▁daralt	-12.357
▁hanif	-12.3573
▁hakka	-12.3575
lenecektir	-12.3575
tetik	-12.3576
320	-12.3576
▁bitir	-12.3577
▁sapla	-12.3579
▁düşen	-12.358
▁büyülü	-12.3584
▁ölüyor	-12.3584
▁bürün	-12.3589
ladığı	-12.36
edd	-12.3601
tum	-12.3603
▁acıma	-12.3603
▁kaleli	-12.3606
▁esk	-12.361
▁ıvysaurı	-12.361
▁protokolün	-12.3613
▁aydınlatma	-12.3613
laj	-12.3615
▁kazın	-12.3616
▁bazi	-12.3616
▁görevlileri	-12.3617
▁bilin	-12.3618
▁çalışır	-12.3623
tabaka	-12.3623
▁8,	-12.3624
▁banyo	-12.3624
ardım	-12.3624
Mİ	-12.3627
▁yahu	-12.363
uan	-12.3634
▁öze	-12.3634
▁brü	-12.3635
▁posta	-12.3636
▁değiller	-12.364
tat	-12.3647
▁çıktım	-12.3649
tılırken	-12.365
▁yaşayacak	-12.365
▁derle	-12.3652
▁soyle	-12.3655
cesinde	-12.3656
nd	-12.3663
▁ren	-12.367
may	-12.3671
▁ülkede	-12.3677
zen	-12.3679
beyazıt	-12.368
▁çabası	-12.3682
ardı	-12.3686
▁log	-12.3687
▁(4	-12.369
tion	-12.3694
▁bunu	-12.3696
▁beklenir	-12.3698
▁tol	-12.37
▁haşim	-12.3701
kör	-12.3703
▁uyarlan	-12.3709
diniz	-12.3713
▁görülür	-12.3714
▁ihtimal	-12.3716
exic	-12.3717
▁gidin	-12.372
▁şer	-12.3721
▁sefa	-12.3724
17	-12.373
▁okumuş	-12.3733
lamba	-12.3738
▁hamd	-12.3745
ılıyordu	-12.3747
▁evli	-12.3751
▁blu	-12.3751
▁asli	-12.3753
▁tümer	-12.3758
▁kutluyor	-12.3761
tor	-12.3766
▁jenni	-12.3769
▁(19	-12.377
0-50	-12.3772
▁vid	-12.3772
▁şahan	-12.3774
ruva	-12.3775
▁hazırlanırke	-12.3775
tirirken	-12.3778
arta	-12.3778
şam	-12.378
▁dead	-12.3781
dyum	-12.3793
emre	-12.3796
▁chemi	-12.3796
laz	-12.3799
▁uzlaşma	-12.38
▁söylemiş	-12.3801
▁ilerliyor	-12.3802
▁2011-201	-12.3808
ersane	-12.3813
▁bre	-12.3818
▁gerçekçi	-12.382
▁muzik	-12.382
▁mira	-12.3824
kanlı	-12.384
▁alınır	-12.384
▁çeken	-12.3842
dist	-12.3848
tb	-12.3848
odyum	-12.3854
sson	-12.3856
▁kof	-12.3856
Türk	-12.3859
▁yapmaz	-12.3859
tayız	-12.3863
41	-12.3864
▁oluşturduk	-12.3864
▁vuruş	-12.3871
▁drive	-12.3871
▁aroma	-12.3875
▁konakla	-12.3878
▁sansür	-12.3878
meleri	-12.3878
sunuz	-12.3884
729	-12.3887
amazlar	-12.3895
,6	-12.39
▁kaldırılması	-12.3903
▁savcı	-12.391
▁185	-12.3911
yay	-12.3913
▁mühür	-12.3915
meyiz	-12.3931
lanması	-12.3938
▁göbeğ	-12.3941
▁908	-12.3943
▁yanaş	-12.3954
▁zap	-12.3956
▁karamanoğ	-12.3957
av	-12.3957
▁dönemi	-12.396
eyim	-12.3962
ful	-12.3964
▁toro	-12.3965
▁kut	-12.3968
ix	-12.3968
▁istemeyen	-12.397
▁yerde	-12.3974
▁inanc	-12.3975
▁vardi	-12.3977
evli	-12.3986
▁komşuları	-12.3991
▁babam	-12.3993
▁komün	-12.3998
bü	-12.4001
pi	-12.4005
tirildi	-12.4007
cl	-12.4009
rız	-12.4015
▁Wb	-12.4017
vana	-12.4018
utoğlu	-12.4023
bon	-12.4026
▁lacivertliler	-12.4028
iyer	-12.403
▁yakalan	-12.4034
▁tanıtı	-12.4034
maları	-12.404
çılar	-12.4044
▁75.	-12.4044
▁salın	-12.4053
▁verdiği	-12.4053
larından	-12.4056
▁sorunları	-12.4059
ilmedi	-12.406
▁karıştırıl	-12.406
▁meclisi	-12.4066
▁sıkıştırıl	-12.4066
redd	-12.4067
ecektim	-12.4075
kçe	-12.4079
oba	-12.4081
▁özal	-12.4084
eti	-12.4087
vas	-12.4088
▁selcu	-12.4088
▁mann	-12.4089
ano	-12.4092
▁7,5	-12.4096
uss	-12.4097
▁sine	-12.4101
▁demiş	-12.4106
▁mary	-12.4106
ağa	-12.4107
▁paylaşıyor	-12.4114
▁etab	-12.4118
▁kadı	-12.4118
▁kullanılabil	-12.4123
▁1.6	-12.4131
▁metropol	-12.4135
▁pişir	-12.414
ılacağını	-12.4148
▁kahveci	-12.415
▁kırıldı	-12.416
▁kıldı	-12.4161
hey	-12.4164
cileri	-12.4164
▁kısalt	-12.4165
lyas	-12.4165
▁türkiyede	-12.4167
▁alınabil	-12.4169
idas	-12.4172
▁listesi	-12.4173
▁read	-12.4176
mük	-12.4177
▁izdi	-12.418
Sİ	-12.4182
uncer	-12.4182
taki	-12.4188
▁takib	-12.4194
▁kapasitesi	-12.4199
sem	-12.4203
bizi	-12.4204
adı	-12.4207
stik	-12.4208
lığıdır	-12.4208
5.1	-12.4208
▁ste	-12.4213
bain	-12.4216
▁çıktığı	-12.4216
▁yansıtıl	-12.4217
▁patlatıl	-12.4223
▁diken	-12.4224
▁mür	-12.4224
lla	-12.4224
▁küs	-12.4231
▁(3	-12.4235
ünlüğü	-12.4236
bl	-12.4237
▁soundtrack	-12.4238
▁kert	-12.4239
▁hun	-12.4241
hc	-12.4243
erfi	-12.4244
▁dönüyor	-12.4244
▁christ	-12.4254
ring	-12.4255
spd	-12.4272
▁perv	-12.4272
yır	-12.4277
▁yedir	-12.4279
cil	-12.428
▁mirza	-12.4281
▁derler	-12.4294
▁hels	-12.4295
▁ayin	-12.4299
▁edilme	-12.4301
▁yolladı	-12.4302
▁özü	-12.4302
▁hatır	-12.4305
340	-12.4306
▁tehlikesi	-12.4308
▁şems	-12.4311
▁kristali	-12.4316
▁düşünmüyor	-12.4317
▁adını	-12.4317
▁nük	-12.4321
▁bulunmakta	-12.4323
▁slav	-12.4325
▁masaj	-12.4325
lışı	-12.4326
43-	-12.4334
omi	-12.4335
▁şakı	-12.4338
zede	-12.4341
▁olma	-12.4341
▁onaylandı	-12.4342
ılırken	-12.4342
▁akış	-12.4345
▁girmiş	-12.4346
are	-12.4349
▁christoph	-12.435
▁yaşıyorlar	-12.4353
▁mani	-12.4359
▁sac	-12.436
leştirilecek	-12.4361
güney	-12.4363
▁kısmı	-12.4366
▁sindir	-12.4367
▁kuruluşları	-12.437
▁mecburiyet	-12.4371
tüik	-12.4373
▁cheng	-12.4375
▁unuttu	-12.4377
gor	-12.438
▁sag	-12.438
çer	-12.4384
▁olamadı	-12.4394
▁çıldır	-12.4399
▁uzaklaştırıl	-12.44
▁erit	-12.4406
birlik	-12.4407
eceksin	-12.4413
▁mesajı	-12.4416
back	-12.4419
▁öldüğü	-12.4419
▁yapmay	-12.4421
iti	-12.4422
05	-12.4422
kaza	-12.4423
bow	-12.4423
▁cazi	-12.4424
afet	-12.4426
,3	-12.4426
spin	-12.4427
▁vin	-12.4428
git	-12.4428
▁245	-12.4428
▁kard	-12.443
▁çıkmıyor	-12.4431
▁laden	-12.4432
▁elendi	-12.4434
▁olmayı	-12.4437
vey	-12.4437
▁kurumlar	-12.4438
▁çamlı	-12.4439
yapıl	-12.4439
▁113	-12.4442
▁yaşadık	-12.4444
lıktır	-12.4444
alet	-12.4446
▁paylaşılma	-12.4446
▁egzo	-12.4452
amiral	-12.446
maması	-12.446
eur	-12.4463
halka	-12.4467
servatuvar	-12.4469
pehlivan	-12.4471
▁ped	-12.4477
nternet	-12.4484
kıran	-12.4484
hsyk	-12.4489
adalet	-12.449
üfe	-12.449
konu	-12.4493
mond	-12.4495
▁360	-12.4496
▁neyse	-12.4499
değiş	-12.4502
binler	-12.4503
fatura	-12.4506
güven	-12.4506
▁imzası	-12.4506
http	-12.4507
doğru	-12.4507
örgüt	-12.4507
düzen	-12.4508
resmi	-12.4508
bornova	-12.4508
sosyal	-12.4509
fotoğraf	-12.4509
emniyet	-12.4509
tibet	-12.4509
▁305	-12.4509
siyasi	-12.451
akşam	-12.451
taraftar	-12.451
ju	-12.4511
mhp	-12.4511
fakat	-12.4512
▁jel	-12.4512
suriye	-12.4513
umut	-12.4514
kimse	-12.4515
rm	-12.4515
▁duyu	-12.4516
olur	-12.4517
aktör	-12.4518
fiyat	-12.4521
tacağız	-12.4522
siyah	-12.4523
şahin	-12.4523
ug	-12.4524
uluyor	-12.4524
inci	-12.4525
▁pekün	-12.4525
onur	-12.4526
masının	-12.4526
sanat	-12.4527
alındığını	-12.4528
kalp	-12.4531
gr	-12.4532
yetki	-12.4532
kaf	-12.4534
suç	-12.4537
▁holmes	-12.4538
ortak	-12.4539
hut	-12.454
aşa	-12.4553
ılamadı	-12.4555
▁bost	-12.4555
▁sars	-12.4558
rt	-12.4561
▁elen	-12.4563
54	-12.4565
▁kızartıl	-12.4568
azad	-12.4577
etki	-12.4577
▁domin	-12.4578
▁rakamlar	-12.4585
eceksiniz	-12.4586
ars	-12.4588
old	-12.4596
nasıl	-12.4597
▁heyecanlan	-12.4599
19	-12.4599
▁175	-12.4606
aziantepspo	-12.4606
tistik	-12.4608
mışlar	-12.4611
▁107	-12.4616
▁demi	-12.462
▁görülebil	-12.4621
▁çürü	-12.4622
▁enerjisi	-12.4626
▁rami	-12.4627
yok	-12.4633
nie	-12.4634
▁koyar	-12.4636
ırım	-12.4637
tt	-12.4637
kay	-12.4637
▁sorduk	-12.464
▁147	-12.4642
adayı	-12.4647
▁süratle	-12.4648
2000	-12.4651
▁ısın	-12.4655
▁çel	-12.4655
fel	-12.4657
ville	-12.4658
gür	-12.4661
▁beklenirk	-12.4662
vc	-12.4668
Irak	-12.4669
▁tb	-12.4671
▁feshedil	-12.4672
tiler	-12.4674
▁tar	-12.4678
uyorsunuz	-12.4679
rik	-12.468
▁kurduk	-12.468
▁141	-12.4685
lem	-12.4689
▁helen	-12.4689
hamam	-12.469
not	-12.469
▁doğrusu	-12.4691
▁cani	-12.4691
▁flor	-12.4692
▁kel	-12.4693
▁teknolojisi	-12.4694
▁taha	-12.4694
5)	-12.4697
pare	-12.4697
til	-12.4703
kin	-12.4704
▁birleşti	-12.4714
kule	-12.4715
▁C	-12.4725
▁edildiği	-12.4725
zmir	-12.4727
▁177	-12.4729
sıkı	-12.4735
▁geçiril	-12.4736
▁540	-12.4737
▁ölmüş	-12.4737
ikin	-12.4737
ono	-12.4737
lma	-12.4738
pass	-12.474
bah	-12.4742
▁ikisi	-12.4745
▁7-	-12.4748
abilirdi	-12.4749
klerini	-12.475
▁pre	-12.4759
▁savunu	-12.4765
480	-12.4769
▁mürekke	-12.477
▁ios	-12.4774
▁2010-	-12.4774
▁oyle	-12.4774
duk	-12.4775
▁doru	-12.4776
▁goster	-12.4778
▁yüzden	-12.478
acı	-12.478
▁genişl	-12.4781
hh	-12.4783
arl	-12.4784
▁bed	-12.4785
▁emil	-12.4786
▁koruma	-12.4786
▁başvurul	-12.4789
ration	-12.4791
eriz	-12.4793
luğu	-12.4794
▁sürdürecek	-12.4795
▁bog	-12.4798
ahan	-12.4798
▁hab	-12.4803
▁gösterecek	-12.4805
▁gelebilir	-12.4806
▁mili	-12.481
▁saldırma	-12.4814
▁143	-12.4819
▁asılma	-12.482
abilmek	-12.4822
şe	-12.4824
naz	-12.4825
eterya	-12.4826
cd	-12.4827
zni	-12.4831
▁olmasa	-12.4835
güneş	-12.4835
tmedi	-12.4835
▁kazanıyor	-12.4838
▁hü	-12.4839
▁erba	-12.4841
▁fotoğrafları	-12.4842
▁elektro	-12.4842
▁171	-12.4846
▁işletil	-12.4848
▁garant	-12.4849
▁6-	-12.485
▁mich	-12.4851
▁yüküm	-12.4855
▁halis	-12.4855
davra	-12.4858
rul	-12.4865
pen	-12.4866
▁yetişti	-12.4866
anjin	-12.487
▁dayana	-12.487
▁3.8	-12.4871
▁almıyor	-12.4872
▁kayı	-12.4875
▁yapıldığı	-12.4876
▁sporcular	-12.488
işme	-12.4881
kuşu	-12.4882
▁hırsız	-12.4882
▁bask	-12.4882
▁tark	-12.4887
▁tapın	-12.4897
▁iştira	-12.4898
▁guru	-12.4898
▁kuyru	-12.4899
▁fizi	-12.49
acıklı	-12.4902
▁mö	-12.4902
usluk	-12.4905
▁farkında	-12.4906
ersiz	-12.4906
▁popül	-12.4906
▁idmanyur	-12.4907
▁peterson	-12.4908
▁hemşeri	-12.4908
▁teşekkü	-12.4908
unanistan	-12.4908
8-9	-12.4908
ograph	-12.4908
İR	-12.4909
▁gerizeka	-12.4909
▁verilmişti	-12.4909
▁fish	-12.4909
▁Wolf	-12.491
eus	-12.491
71	-12.491
▁(25	-12.491
▁ökm	-12.491
iao	-12.4911
▁sunulma	-12.4911
▁electr	-12.4912
▁ecza	-12.4912
▁psiko	-12.4912
▁aştı	-12.4912
▁incelenme	-12.4913
utubet	-12.4913
opsiyon	-12.4913
rasshoppers	-12.4913
dilcevaz	-12.4913
kidolindo	-12.4913
▁Massachusetts	-12.4913
▁Wimbledon	-12.4913
▁alpagut	-12.4913
▁bonzai	-12.4913
▁burjuva	-12.4913
▁centilmen	-12.4913
▁chicago	-12.4913
▁crocker	-12.4913
▁darüşşafaka	-12.4913
▁drogba	-12.4913
▁ekspres	-12.4913
▁gibson	-12.4913
▁grindelwald	-12.4913
▁göbek	-12.4913
▁hasankeyf	-12.4913
▁jinping	-12.4913
▁klasiği	-12.4913
▁kulaçoğlu	-12.4913
▁lamassoure	-12.4913
▁levallois	-12.4913
▁lezbiyen	-12.4913
▁mahçup	-12.4913
▁manganez	-12.4913
▁mağrur	-12.4913
▁mickey	-12.4913
▁muhakkak	-12.4913
▁müjdat	-12.4913
▁münhasır	-12.4913
▁nürnberg	-12.4913
▁orleans	-12.4913
▁ravenna	-12.4913
▁sawatzki	-12.4913
▁sümbül	-12.4913
▁tretuar	-12.4913
▁tsarnaev	-12.4913
▁vietnam	-12.4913
▁çipras	-12.4913
▁amonyak	-12.4913
▁radionomy	-12.4913
▁seagate	-12.4913
▁siralamasi	-12.4913
▁valentino	-12.4913
▁budapeş	-12.4913
▁dardanel	-12.4913
▁daşdelen	-12.4913
▁gültiken	-12.4913
▁kravitz	-12.4913
▁maymun	-12.4913
▁tigana	-12.4913
▁fünye	-12.4913
▁inadına	-12.4913
▁ındependent	-12.4913
▁Wright	-12.4913
▁country	-12.4913
▁embriyo	-12.4913
▁engangela	-12.4913
▁kapusuz	-12.4913
▁kolektif	-12.4913
▁mürşit	-12.4913
▁sivok	-12.4913
▁şımarık	-12.4913
▁dedektif	-12.4913
▁engizek	-12.4913
▁pakdil	-12.4913
▁chaplin	-12.4913
▁cimbom	-12.4913
▁gurme	-12.4913
▁kompresör	-12.4913
▁tekinarslan	-12.4913
▁sihirbaz	-12.4913
▁diyaloğ	-12.4913
▁dilaver	-12.4913
▁mezheb	-12.4913
▁continental	-12.4913
▁party	-12.4913
▁2012-13	-12.4913
▁sondaj	-12.4913
Akhisar	-12.4913
▁beach	-12.4913
▁doblo	-12.4913
▁tiryaki	-12.4913
indsurf	-12.4913
▁garrick	-12.4913
ABD	-12.4913
▁yerleşke	-12.4913
▁talihsiz	-12.4913
abyad	-12.4913
▁karanfil	-12.4913
thaad	-12.4913
▁business	-12.4913
▁pilav	-12.4913
kalaşnikof	-12.4913
▁martinez	-12.4913
▁belirlenmişti	-12.4913
▁Karaosmanoğlu	-12.4913
anat	-12.4913
▁ensari	-12.4913
▁lucas	-12.4913
▁stajyer	-12.4914
▁yanılgı	-12.4914
▁ımdb	-12.4914
▁söyleyebilirim	-12.4914
▁döküman	-12.4914
▁otoban	-12.4914
▁vesayet	-12.4914
▁rooney	-12.4914
▁otlat	-12.4914
▁garros	-12.4914
▁yanındayız	-12.4914
▁anarşi	-12.4914
▁okutul	-12.4914
▁bağlanır	-12.4914
▁dream	-12.4914
gediz	-12.4914
▁prensib	-12.4914
eğmen	-12.4914
▁forrest	-12.4914
▁doğrultusunda	-12.4914
▁anaokulu	-12.4914
▁cunku	-12.4914
▁livane	-12.4914
▁(31	-12.4914
▁sahtecilik	-12.4914
▁özdilek	-12.4914
▁yapılmayacak	-12.4914
aliforni	-12.4914
▁mithat	-12.4914
▁torna	-12.4914
pahi	-12.4914
▁ilkbahar	-12.4914
▁saruç	-12.4914
▁parite	-12.4914
▁1955	-12.4914
▁1978	-12.4914
▁turkiye	-12.4914
▁judeh	-12.4915
▁magic	-12.4915
▁kavur	-12.4915
▁osmaneli	-12.4915
▁simonsen	-12.4915
▁rahip	-12.4915
▁şekerbank	-12.4915
▁apne	-12.4915
▁atagün	-12.4915
▁1967	-12.4915
▁uyandırdı	-12.4915
▁aydoğ	-12.4915
▁esnasında	-12.4915
▁1956	-12.4915
▁bulunabilir	-12.4915
▁çağırıyoruz	-12.4915
▁imalathane	-12.4915
▁teknisyen	-12.4915
▁düzenliyoruz	-12.4915
▁bayülgen	-12.4915
▁1768	-12.4915
▁sophie	-12.4915
cüh	-12.4916
▁kanyılmaz	-12.4916
▁konkova	-12.4916
▁gezgin	-12.4916
▁bulunmadım	-12.4916
▁oluşurken	-12.4916
▁1918	-12.4916
▁muhte	-12.4916
▁ilgilendir	-12.4916
▁tereyağı	-12.4916
▁libero	-12.4916
▁kamerun	-12.4916
▁joey	-12.4916
▁özaydın	-12.4916
▁severim	-12.4916
▁bulls	-12.4916
▁sevilla	-12.4916
▁belirtirk	-12.4917
▁sirkül	-12.4917
▁sinyalini	-12.4917
▁tayland	-12.4917
▁muaf	-12.4917
▁üslub	-12.4917
▁tanrıkulu	-12.4917
homa	-12.4917
▁galler	-12.4917
▁mozaik	-12.4917
▁1975	-12.4918
▁(43)	-12.4918
hal	-12.4918
ıfat	-12.4918
▁haram	-12.4918
▁zsch	-12.4918
▁boynuz	-12.4918
▁uygulanıyor	-12.4918
▁cihangir	-12.4918
▁özsoy	-12.4919
▁öyküsü	-12.4919
▁örneğidir	-12.4919
▁tanınıyor	-12.4919
▁paylaşıyoruz	-12.4919
▁1928	-12.4919
share	-12.4919
▁edilemez	-12.4919
▁sürdürüyoruz	-12.4919
▁kuşkan	-12.492
▁yönlendirilme	-12.492
▁minogue	-12.492
▁memnunum	-12.492
▁sollama	-12.492
▁mütevaz	-12.492
▁ilgilendiriyor	-12.492
▁şirinyer	-12.492
▁venezüel	-12.492
▁roger	-12.492
fıba	-12.492
▁aykaç	-12.492
▁kanadalı	-12.4921
▁konumunda	-12.4921
▁düşünülür	-12.4921
▁doğrult	-12.4921
▁kenetlen	-12.4921
▁(18)	-12.4921
▁harman	-12.4921
▁basketbolcu	-12.4921
▁direnç	-12.4921
▁dilerim	-12.4921
▁todd	-12.4922
▁yapılacaktır	-12.4922
▁hitler	-12.4922
▁kafkasya	-12.4922
▁akyaka	-12.4922
▁nabz	-12.4922
sizliği	-12.4923
▁anderson	-12.4923
▁christie	-12.4923
▁yakut	-12.4923
▁şear	-12.4923
▁hapsed	-12.4923
ökçe	-12.4923
▁şaşırtı	-12.4924
▁yuzden	-12.4924
▁6-0	-12.4924
▁peni	-12.4924
▁kova	-12.4924
▁sevindim	-12.4924
▁ağca	-12.4925
▁varsayıl	-12.4925
▁tanımaz	-12.4925
amıyoruz	-12.4925
▁ultra	-12.4925
▁sonuncu	-12.4925
▁afrodi	-12.4925
▁palace	-12.4925
▁hattat	-12.4925
▁kibrit	-12.4926
▁rahmi	-12.4926
▁omuri	-12.4926
▁sevindirdi	-12.4926
▁misak	-12.4926
▁değişmedi	-12.4927
▁ertegün	-12.4927
▁ruhsal	-12.4927
▁tutuldu	-12.4927
▁düzce	-12.4927
▁kalkav	-12.4927
▁akyüz	-12.4928
▁öpücü	-12.4928
▁soruyorum	-12.4928
▁toplanan	-12.4928
▁yayınlanacak	-12.4928
▁yanlıştır	-12.4929
▁kazandık	-12.4929
▁sicilya	-12.493
▁sürdürürk	-12.493
▁kayhan	-12.493
▁eşitlik	-12.493
▁zaf	-12.4931
▁mızrak	-12.4931
▁akyol	-12.4931
▁sembolik	-12.4932
▁basina	-12.4932
▁çeyreğ	-12.4932
▁öldürülmesi	-12.4932
▁albert	-12.4933
▁horon	-12.4933
▁sanıyorum	-12.4934
▁firari	-12.4935
▁kümeli	-12.4935
▁menü	-12.4936
▁diyorsunuz	-12.4936
▁edemedi	-12.4937
▁cruz	-12.4937
▁çivi	-12.4937
▁182	-12.4937
▁şoförü	-12.4938
▁131	-12.4938
lon	-12.4938
▁bahanesi	-12.4938
▁çekerk	-12.4938
▁morgan	-12.4939
uhal	-12.4939
▁olmalıydı	-12.4939
▁joz	-12.4939
▁militanları	-12.4939
▁alırız	-12.4939
▁bleu	-12.4939
▁hizla	-12.4939
▁oyunu	-12.494
▁yapılmıştı	-12.494
▁özak	-12.494
▁ezber	-12.494
▁değerlendirildi	-12.494
▁padi	-12.4941
▁hudu	-12.4941
▁empo	-12.4941
▁penis	-12.4942
▁leone	-12.4942
malısınız	-12.4943
hengshantou	-12.4944
▁getiriyorlar	-12.4944
held	-12.4944
▁jener	-12.4945
▁adale	-12.4945
▁bölgede	-12.4945
▁menzi	-12.4945
▁iltica	-12.4946
▁çakar	-12.4946
▁gösteriyoruz	-12.4946
▁gereklidir	-12.4947
▁çalıştay	-12.4948
▁aktarılma	-12.4948
ics	-12.4948
eyl	-12.4948
▁kamer	-12.4948
▁semai	-12.4949
▁ışıl	-12.495
▁roketatar	-12.495
▁çekiyorum	-12.495
▁tanıkları	-12.495
▁konuşacağız	-12.4951
Dr	-12.4951
▁otobüsü	-12.4952
▁252	-12.4953
▁gelişti	-12.4953
▁alışık	-12.4954
▁offi	-12.4954
▁gerekirdi	-12.4955
▁ödev	-12.4955
▁sebebi	-12.4956
▁çıkabil	-12.4957
▁şaşır	-12.4957
▁şike	-12.4957
▁hızır	-12.4958
▁eglen	-12.4958
▁ltd	-12.4959
▁bulamıyor	-12.4959
▁daşöz	-12.4959
▁bbp	-12.4959
▁hackerlar	-12.4959
▁rihanna	-12.4959
▁amorti	-12.4959
▁habitat	-12.4959
▁tcdd	-12.4959
▁sgk	-12.4959
▁arinna	-12.4959
▁galile	-12.4959
▁easy	-12.4959
▁ogretmen	-12.4959
▁kronik	-12.496
▁dhkp	-12.496
▁özgener	-12.4961
▁15-20	-12.4961
▁238	-12.4961
▁pilsen	-12.4961
▁goet	-12.4962
▁beşik	-12.4962
▁5.2	-12.4963
▁hans	-12.4963
▁sistemler	-12.4963
nkirch	-12.4964
▁karton	-12.4964
▁tekel	-12.4964
▁swe	-12.4964
▁bilinen	-12.4965
▁kalacaktır	-12.4965
▁tuğla	-12.4966
▁çıkabilir	-12.4966
totaliter	-12.4966
anus	-12.4967
▁drama	-12.4967
▁aybaba	-12.4967
▁başpınar	-12.4967
▁vatandaşlarımız	-12.4968
▁pisa	-12.4968
akliyat	-12.4969
▁bahseder	-12.4969
▁kaynar	-12.497
▁gerekmez	-12.4971
▁şudur	-12.4971
▁uslu	-12.4972
▁örgü	-12.4974
▁enginar	-12.4974
▁polisiye	-12.4974
▁ilçesi	-12.4974
▁butto	-12.4975
▁kombin	-12.4975
▁sporcuları	-12.4975
▁turbo	-12.4975
misyon	-12.4976
▁mahallesi	-12.4977
▁yapmıyor	-12.4978
▁görüntülenme	-12.4978
ccini	-12.4979
▁ürünü	-12.4979
▁kabak	-12.498
▁çoğul	-12.498
▁kemalist	-12.4981
▁renna	-12.4981
yder	-12.4983
▁por	-12.4983
▁talay	-12.4984
▁sarfett	-12.4984
▁tanesi	-12.4984
▁kıyas	-12.4985
▁(14)	-12.4986
▁rush	-12.4986
▁taylan	-12.4987
▁bölgelerde	-12.4987
▁takma	-12.4988
orgh	-12.4989
jest	-12.4989
▁saplan	-12.4991
sch	-12.4992
▁silikon	-12.4993
▁kaldırılırke	-12.4994
▁şişman	-12.4995
▁büyükdağ	-12.4995
▁verileri	-12.4996
▁öldürme	-12.4997
▁aradım	-12.4998
▁kalıyorlar	-12.5002
▁büyükbaş	-12.5003
▁vermemeli	-12.5004
▁içindir	-12.5004
6.9	-12.5005
▁emma	-12.5007
▁öldürülmüştü	-12.5007
▁durumdur	-12.5009
▁poli	-12.5011
-50	-12.5012
▁ödülleri	-12.5012
▁gezmiş	-12.5013
▁1.20	-12.5013
▁talak	-12.5014
▁anlatılan	-12.5014
▁düzenledik	-12.5016
▁almışlardır	-12.5016
▁tamdır	-12.5016
alıncak	-12.5018
▁akışık	-12.5019
byl	-12.5019
▁periyo	-12.5019
▁liderleri	-12.502
lerimiz	-12.502
▁scor	-12.5021
▁bosch	-12.5021
▁dick	-12.5022
rude	-12.5022
▁puanlama	-12.5022
mamız	-12.5023
▁delir	-12.5026
950	-12.5026
▁kuvvetli	-12.5027
▁cour	-12.5028
▁maksat	-12.5029
▁lys	-12.5034
▁öss	-12.5037
▁köpeği	-12.5038
ktris	-12.5038
▁faşizm	-12.5039
▁antdob	-12.5039
▁enjeksiyon	-12.5039
▁food	-12.5039
▁aciz	-12.5039
▁ganymede	-12.5039
▁fbı	-12.504
▁tkp	-12.504
▁rick	-12.5041
▁turka	-12.5044
▁elit	-12.5045
▁savaşı	-12.5045
▁yerler	-12.5046
▁kezman	-12.5046
▁işkur	-12.5049
.45	-12.5049
ummer	-12.505
sbo	-12.505
▁fire	-12.5051
▁kuba	-12.5052
▁okuyan	-12.5054
▁mücahi	-12.5055
▁usai	-12.5056
▁kaldır	-12.5059
▁geliyorlar	-12.5059
▁kısı	-12.5059
nacaktır	-12.506
▁gps	-12.5066
zgın	-12.5069
▁inanan	-12.5069
▁saatle	-12.5071
▁yapmayın	-12.5075
▁hen	-12.5079
▁dayat	-12.5081
▁morit	-12.5082
og	-12.5083
erşe	-12.5084
▁baran	-12.5085
ifre	-12.5088
▁sına	-12.5088
▁görülmüştü	-12.5089
▁krat	-12.509
▁more	-12.5091
▁artışı	-12.5099
▁görecek	-12.5099
▁jack	-12.5099
likte	-12.5099
cso	-12.51
efil	-12.5102
▁stoa	-12.5102
▁urgan	-12.5103
maktı	-12.5103
DİR	-12.5104
▁seçilmişti	-12.5107
▁demeyin	-12.5108
▁seydi	-12.511
tas	-12.5111
▁üretiyor	-12.5113
ozel	-12.5117
▁angel	-12.5119
▁rehav	-12.5119
talk	-12.5119
▁izfaş	-12.5121
▁stev	-12.5121
▁karavan	-12.5122
mişler	-12.5123
▁mevlana	-12.5123
haberleşme	-12.5123
▁verirler	-12.5124
▁kartı	-12.5125
▁sosyo	-12.5126
▁anılma	-12.5126
▁bıçakladı	-12.5127
▁sorunu	-12.5128
roz	-12.5128
▁odur	-12.5128
▁keyfi	-12.5129
▁ustun	-12.513
▁olmamıştır	-12.5131
▁eşleri	-12.5131
▁yayınlan	-12.5131
sait	-12.5133
▁(2)	-12.5134
▁nick	-12.5134
▁düzenleyecek	-12.5135
▁4)	-12.5137
▁medo	-12.5137
▁saldırıları	-12.5138
▁tero	-12.5143
▁bakıcı	-12.5143
▁your	-12.5143
▁allen	-12.5143
epe	-12.5144
yapılabilecek	-12.5145
▁fb	-12.5147
▁şartnam	-12.5148
nter	-12.515
deh	-12.5152
▁fevk	-12.5156
ff	-12.5157
▁(!)	-12.5158
yd	-12.516
▁sıkı	-12.5161
▁thk	-12.5162
▁41.	-12.5163
▁sayılmaz	-12.5164
▁sön	-12.5167
▁firmalar	-12.5168
▁kadin	-12.5168
▁bond	-12.517
▁dayatma	-12.5172
▁tazele	-12.5173
▁sürün	-12.5174
▁ipad	-12.5175
▁iphoneu	-12.5175
agon	-12.5176
avuk	-12.5177
8.7	-12.5178
▁bulduk	-12.5179
▁burk	-12.5181
▁serik	-12.5186
▁9,	-12.5186
issa	-12.5187
ayin	-12.5187
▁aslı	-12.5188
▁çektim	-12.519
▁rau	-12.519
▁size	-12.519
▁beat	-12.5191
85	-12.5196
eni	-12.5201
ilmesi	-12.5205
▁chat	-12.5206
▁parası	-12.5209
▁69	-12.5211
▁gösterim	-12.5211
▁pistons	-12.5212
▁şeydir	-12.5213
▁ateşi	-12.5213
▁ayla	-12.5214
kına	-12.5215
ball	-12.5216
oib	-12.5216
▁tori	-12.5217
▁arıcı	-12.5218
umudu	-12.522
dri	-12.5221
biri	-12.5222
▁büyütme	-12.5227
▁alanda	-12.5227
▁osb	-12.5229
▁erden	-12.5231
▁zamanlar	-12.5231
470	-12.5233
kac	-12.5234
▁zeytinci	-12.5238
▁yorumladı	-12.524
▁okuyor	-12.5241
yy	-12.5242
▁bırakın	-12.5243
▁başrolde	-12.5244
pak	-12.5245
tılıyor	-12.5249
▁kazıl	-12.525
▁yönlendiril	-12.525
ıyız	-12.5252
ebilmektedir	-12.5253
▁org	-12.5253
▁olmaları	-12.526
▁kendini	-12.5262
▁yatırdı	-12.5263
▁katı	-12.5264
▁satıl	-12.5265
hum	-12.5268
▁yaman	-12.5269
oytek	-12.527
▁1-1.	-12.5271
▁bark	-12.5271
▁beraberindeki	-12.5271
▁8.2	-12.5278
89	-12.5281
akil	-12.5281
▁kapma	-12.5283
▁sha	-12.5284
io	-12.5285
ider	-12.5286
▁izleyecek	-12.5289
▁çabaları	-12.529
ladılar	-12.5291
▁afad	-12.5292
▁dp	-12.5295
▁kana	-12.5297
kanma	-12.5298
cant	-12.5298
nebilir	-12.5302
brad	-12.5302
pert	-12.5303
▁holmesu	-12.5304
ırt	-12.5305
ilebilme	-12.5306
▁gürca	-12.5307
cısı	-12.5309
▁kaşg	-12.5311
▁soğut	-12.5315
lendirici	-12.5316
bis	-12.5317
▁çırpın	-12.5317
▁bulunduk	-12.532
▁öğe	-12.5327
▁futbolcuları	-12.5327
▁ass	-12.533
lamayacak	-12.533
▁sch	-12.5331
▁andrea	-12.5332
▁ibrahimi	-12.5332
▁ilişkiler	-12.5332
▁atlı	-12.5338
▁alanı	-12.5341
▁bük	-12.5342
▁götürülürk	-12.5342
one	-12.5343
viye	-12.5344
▁yolları	-12.5346
▁mahsul	-12.5348
▁sonraki	-12.5348
▁toma	-12.5351
tina	-12.5352
olog	-12.5355
▁düren	-12.5363
▁peda	-12.5364
▁mke	-12.5364
▁hyun	-12.5373
keme	-12.5374
▁pehlivan	-12.5376
0-200	-12.5378
▁malzemeleri	-12.5378
▁kılıyor	-12.5382
▁dusun	-12.5382
vre	-12.5383
719	-12.5383
ölürk	-12.5384
MI	-12.5385
antepe	-12.5385
▁önemsiyor	-12.5386
▁okla	-12.5389
▁mhpde	-12.5391
▁bırakmadı	-12.5392
▁biter	-12.5393
zot	-12.5396
▁oluşturabilir	-12.5401
yp	-12.5403
dışiş	-12.5404
cit	-12.5412
leridir	-12.5416
▁yaktı	-12.5419
▁silahları	-12.5422
▁(24	-12.5422
▁takın	-12.5426
ava	-12.5428
nov	-12.5429
▁yattı	-12.5435
saç	-12.5436
argo	-12.5442
ıtma	-12.5444
dugu	-12.5445
▁geçtik	-12.5448
dis	-12.5448
yeceğim	-12.5456
▁civarında	-12.546
kovan	-12.546
▁açan	-12.5463
▁ankarada	-12.5464
nması	-12.547
girt	-12.5471
3)	-12.5475
▁tecr	-12.5475
zur	-12.5482
vu	-12.5484
▁cebel	-12.5487
ebildi	-12.5489
▁yetkin	-12.5491
▁çıkarttı	-12.5494
▁emzi	-12.5495
▁taşımaktadır	-12.5497
lıp	-12.5505
▁şirketleri	-12.5505
▁chi	-12.5508
uyordum	-12.551
onel	-12.5514
isa	-12.5515
▁kitapları	-12.5516
ıcık	-12.5522
▁sandık	-12.5526
▁inceleme	-12.553
nite	-12.5537
▁buldan	-12.5537
▁başlat	-12.554
-22	-12.5541
371	-12.5545
örg	-12.5545
nneanne	-12.5546
▁kazanır	-12.555
kos	-12.5551
yürek	-12.5562
▁101	-12.5565
▁malt	-12.5567
mane	-12.5582
yebiliriz	-12.5587
▁sağladık	-12.5601
▁göstergesi	-12.5605
rut	-12.5608
▁ihtiyar	-12.5608
▁aşkın	-12.5613
▁harcanma	-12.5614
niyet	-12.5615
▁tapınağı	-12.5617
away	-12.5617
▁büke	-12.5619
▁ümran	-12.562
▁dokunma	-12.563
▁patlama	-12.563
indeydi	-12.5631
zo	-12.5631
▁afa	-12.5636
tani	-12.5637
▁bişey	-12.5638
▁okullar	-12.5638
▁hazırladık	-12.5639
▁drew	-12.564
▁bridge	-12.564
▁sarık	-12.5645
▁yakalanmıştı	-12.5647
avier	-12.5647
sna	-12.5649
▁açıklan	-12.5655
▁melis	-12.5659
meyecektir	-12.566
▁yao	-12.5663
▁çekilir	-12.5665
▁alınama	-12.5671
sam	-12.5675
▁sarkı	-12.5679
iwa	-12.5679
▁3,8	-12.5679
▁sec	-12.568
▁cath	-12.5681
▁6.2	-12.5681
▁berha	-12.5682
▁yut	-12.5683
▁sıraladı	-12.5684
▁poke	-12.5688
▁civarı	-12.569
▁üzel	-12.5692
120	-12.5692
▁dolaşıyor	-12.5693
▁192	-12.5696
yik	-12.5697
▁amba	-12.5698
7.4	-12.5699
▁pro	-12.57
erry	-12.5702
dirilirken	-12.5703
ılmıştı	-12.5707
argı	-12.5709
vil	-12.5709
▁paz	-12.571
fen	-12.5711
itz	-12.5715
▁kaçmadı	-12.572
▁görmez	-12.5721
▁dönüştür	-12.5726
▁bizde	-12.5726
yalı	-12.5727
▁yetiştirme	-12.5728
▁girmedi	-12.5729
▁beze	-12.5732
87	-12.5744
▁cezası	-12.5745
ariyer	-12.5747
rspor	-12.5749
liyle	-12.5751
2009	-12.5751
▁evinde	-12.5757
▁nişanlan	-12.5759
enko	-12.5762
obb	-12.5763
▁yükleni	-12.5765
▁sib	-12.5767
▁kalmayacak	-12.577
▁istemişti	-12.577
▁fitn	-12.5772
sor	-12.5773
▁ark	-12.5783
390	-12.5784
▁edemiyor	-12.5787
▁kav	-12.5787
▁lion	-12.5791
ılamaz	-12.5792
▁kayd	-12.5794
geri	-12.5803
▁420	-12.5808
▁seyahatler	-12.5811
▁sıktı	-12.5812
▁anima	-12.5819
tal	-12.5821
▁kibir	-12.5822
▁seçti	-12.5824
ahiye	-12.5831
ambala	-12.5838
▁manga	-12.5839
urdum	-12.5845
eceg	-12.5853
cock	-12.5854
mişiz	-12.5856
▁fat	-12.5857
▁kitabev	-12.5863
92	-12.5868
▁sözü	-12.5871
▁bağdaş	-12.5873
▁ju	-12.5876
▁kitabevi	-12.5878
▁gültek	-12.5878
▁rou	-12.5881
laştır	-12.5881
▁bug	-12.5882
▁muazz	-12.5883
▁keit	-12.5883
▁etmesin	-12.5887
▁doğruluyor	-12.5887
▁düşüncesi	-12.5892
▁seyretti	-12.5893
▁pit	-12.5901
siyan	-12.5907
zı	-12.5909
aşı	-12.5909
▁çinliler	-12.5909
▁tamamlanması	-12.5913
val	-12.5914
▁kapatıyor	-12.5917
▁imzalanma	-12.5932
▁çalışıyordu	-12.5936
▁karşılaşma	-12.5938
▁apa	-12.5941
▁piş	-12.5948
▁aym	-12.5949
fra	-12.595
urlar	-12.5965
▁bilmeyen	-12.5976
ust	-12.5977
▁misi	-12.5979
▁zey	-12.5982
tılı	-12.5984
▁serp	-12.599
iff	-12.5994
▁etabı	-12.5999
ox	-12.6
emiyor	-12.6
▁ec	-12.6012
▁sina	-12.6012
▁bulan	-12.6018
▁rahatsızlan	-12.602
▁denek	-12.6023
▁turh	-12.6025
▁kanı	-12.6027
ag	-12.6031
miştim	-12.6031
mal	-12.6031
▁126	-12.6031
ac	-12.6033
▁şama	-12.6034
▁gerçin	-12.6035
▁izley	-12.6038
▁gorev	-12.6046
▁doyur	-12.6047
zami	-12.605
▁düzeltil	-12.6056
nica	-12.6057
ral	-12.6059
▁bakar	-12.6062
igan	-12.6065
sinti	-12.6069
▁ihtimaller	-12.607
▁salat	-12.607
▁3,2	-12.6075
rius	-12.6075
▁mini	-12.6075
▁kalkıyor	-12.6075
uluç	-12.6076
▁13:	-12.6079
▁kentte	-12.6079
610	-12.6081
tırdı	-12.6081
▁uzaklaştır	-12.6081
▁menfaat	-12.6085
▁abat	-12.6087
los	-12.6087
avio	-12.6087
▁süslen	-12.6091
▁nail	-12.6092
lıyız	-12.6094
we	-12.6094
▁cikar	-12.6095
nglin	-12.6095
ülür	-12.6096
▁denet	-12.61
▁tıklayın	-12.6108
▁center	-12.6109
yabilir	-12.6109
tre	-12.611
kow	-12.6112
arı	-12.6112
01	-12.6113
sus	-12.6115
▁cudi	-12.6118
▁devred	-12.6118
permarket	-12.6119
fe	-12.6123
▁caddesi	-12.6124
▁pap	-12.613
▁tec	-12.613
▁trav	-12.6139
rc	-12.614
▁mario	-12.614
368	-12.6145
iğ	-12.6153
▁ayet	-12.6156
pto	-12.6157
tlyi	-12.6157
sur	-12.6159
▁ayırdı	-12.616
▁M	-12.6161
▁yapabilecekler	-12.6164
eceklerdir	-12.6165
8)	-12.6167
▁kisi	-12.6167
mam	-12.6168
od	-12.6169
▁konferansı	-12.6173
lkin	-12.6173
▁sarki	-12.6174
lıklar	-12.6175
▁bilinmekte	-12.6182
▁21:	-12.6185
-2014	-12.6186
ll	-12.6189
leşiyor	-12.6191
▁kısıtlama	-12.6193
▁rkn	-12.6197
▁zer	-12.6201
yabilecek	-12.6201
▁yel	-12.6205
sir	-12.6211
aşım	-12.6211
zum	-12.6216
▁gul	-12.6219
▁durabil	-12.6228
ual	-12.6231
▁beklerk	-12.6232
mar	-12.6238
düğü	-12.6239
metre	-12.6242
ntos	-12.6243
lme	-12.6248
esto	-12.6249
▁tvn	-12.6253
▁yaşamak	-12.6261
landırıl	-12.6262
yorlar	-12.6264
▁yenileme	-12.6265
▁dönüştürülm	-12.6268
rya	-12.6272
moro	-12.6272
▁görünür	-12.6274
▁islem	-12.628
▁maxi	-12.628
▁güncelle	-12.628
abildiler	-12.6294
▁geçirmiş	-12.6299
cioğlu	-12.6301
ıd	-12.6311
▁okuyun	-12.6312
gol	-12.6315
▁630	-12.6318
▁bolt	-12.6319
dek	-12.6322
▁alma	-12.6324
temiz	-12.6326
▁askerleri	-12.6327
▁keser	-12.6331
03	-12.6333
luyor	-12.6334
▁azalması	-12.6341
ıman	-12.6341
▁çevrele	-12.6343
lahat	-12.6346
▁eğilme	-12.6348
▁güçlendiril	-12.635
▁224	-12.6354
▁güt	-12.6357
▁hol	-12.6359
▁sih	-12.636
rsın	-12.6361
▁kullanıyorlar	-12.6363
▁çekir	-12.6367
▁8,8	-12.6368
▁musk	-12.6371
▁ölür	-12.6372
pua	-12.6375
odo	-12.6377
lanarak	-12.6379
▁167	-12.6384
▁2,2	-12.6385
▁geldiği	-12.6385
çakmak	-12.639
doğan	-12.6391
▁bırakacak	-12.6391
ayrı	-12.6392
kın	-12.6393
▁generaller	-12.6395
araba	-12.64
▁karşılıyor	-12.6403
ırdı	-12.6408
▁4.9	-12.6412
nmıyor	-12.6413
hein	-12.6416
tirilecek	-12.6419
geb	-12.6424
tıyor	-12.6425
ulmuştur	-12.6425
fih	-12.6427
▁gitmesi	-12.6427
2.3	-12.6428
baraka	-12.6434
▁(198	-12.6435
▁karam	-12.6441
kár	-12.6449
heart	-12.6451
▁boo	-12.6452
▁şubesi	-12.6453
▁değişiklik	-12.6456
büs	-12.6458
robi	-12.6459
bang	-12.6461
▁há	-12.6462
Ankara	-12.6464
gide	-12.6465
2007	-12.6466
▁tül	-12.6466
afad	-12.6474
giz	-12.6477
imtiyaz	-12.6478
▁öğrenin	-12.6478
hizmet	-12.6482
işte	-12.6482
▁kuruluşu	-12.6483
▁harekát	-12.6484
▁sök	-12.6485
anıt	-12.6485
turizm	-12.6485
▁ölçüm	-12.6486
iha	-12.6488
▁konuşul	-12.6489
masını	-12.6489
ydü	-12.649
▁(15	-12.649
merkez	-12.6492
mülk	-12.6492
▁yönlendirme	-12.6493
▁tutuluyor	-12.6494
▁sayıyor	-12.6496
bosna	-12.6497
posta	-12.6498
imkb	-12.6501
kurtar	-12.6501
▁geçirdik	-12.6501
pasif	-12.6501
ölç	-12.6502
bucaspor	-12.6502
şirket	-12.6502
▁muh	-12.6503
bbc	-12.6504
▁vaha	-12.6505
önem	-12.6505
çöp	-12.6505
▁mücadelesi	-12.6506
karşı	-12.6506
modern	-12.6506
çanakkale	-12.6507
fizik	-12.6507
dalga	-12.6507
cenaze	-12.6508
komşu	-12.6508
komutan	-12.6508
meslek	-12.6508
kültürel	-12.6508
demokrasi	-12.6509
ingiltere	-12.6509
yanlış	-12.6509
dört	-12.6509
karşıyaka	-12.6509
sokak	-12.6509
serbest	-12.6509
transfer	-12.6509
esco	-12.651
vard	-12.651
çift	-12.651
hakim	-12.6511
kötü	-12.6511
silah	-12.6511
mışsın	-12.6512
cea	-12.6513
milliyet	-12.6514
seçim	-12.6514
bilek	-12.6514
liga	-12.6516
konut	-12.6517
babam	-12.6521
parça	-12.6523
selam	-12.6523
ağır	-12.6527
forma	-12.6527
▁sayılıyor	-12.6528
mekte	-12.6528
▁aksam	-12.6529
▁hazırlıklar	-12.6532
okya	-12.6534
▁mirası	-12.6537
▁ulaşamadı	-12.6539
▁durdurma	-12.6544
hadi	-12.6546
cemi	-12.6548
hli	-12.6549
▁aksat	-12.655
saat	-12.6552
▁sonrası	-12.6552
mica	-12.6553
ony	-12.6553
izasyon	-12.6554
ezik	-12.6555
530	-12.6555
rton	-12.6557
▁newt	-12.6559
şit	-12.6561
noz	-12.6561
aşık	-12.6562
▁ex	-12.6563
zane	-12.6565
başka	-12.6566
anya	-12.6569
dev	-12.6569
▁cemaati	-12.6569
▁gökde	-12.657
ılmış	-12.6574
cidir	-12.6574
▁bakılıyor	-12.6575
deyim	-12.6576
▁yaşamı	-12.6581
943	-12.6584
▁çalışanı	-12.6584
▁etmeyin	-12.6584
uruldu	-12.6588
▁kaldırıyor	-12.6592
siyle	-12.6595
▁yürüyor	-12.6598
ima	-12.6598
▁cha	-12.6601
eng	-12.6603
▁baktı	-12.6608
▁andre	-12.6612
peş	-12.6613
ntv	-12.6617
▁garr	-12.662
rse	-12.6621
▁1.2	-12.6621
cra	-12.6624
▁tanıtla	-12.6625
▁(197	-12.6629
cep	-12.6631
▁zannet	-12.6632
mye	-12.6634
▁grubun	-12.6637
leyin	-12.6641
▁caz	-12.6643
▁kelebe	-12.6646
bant	-12.6646
ırçın	-12.6647
berk	-12.6647
▁akb	-12.665
4)	-12.6652
ıştırıl	-12.6652
▁yapılmaz	-12.6653
acağı	-12.6653
kıf	-12.6654
/84	-12.6655
▁askerlerin	-12.6655
lusi	-12.6656
▁taarruz	-12.6658
klarını	-12.6658
▁melt	-12.6659
ps	-12.666
cam	-12.6661
▁erg	-12.6661
3.8	-12.6661
buz	-12.6664
ömi	-12.6666
▁aytek	-12.6669
abilirler	-12.6672
Bir	-12.6673
row	-12.6676
▁mia	-12.6678
rım	-12.6686
rçın	-12.6691
pgi	-12.6692
▁kavuşacak	-12.6701
▁götürecek	-12.6702
▁chrome	-12.6705
ebat	-12.6707
▁pers	-12.6708
▁popul	-12.6711
maktadırlar	-12.6719
phone	-12.672
stre	-12.6728
karı	-12.6732
amerikan	-12.6732
▁goz	-12.6734
▁büyüdü	-12.6736
▁çat	-12.6736
▁sayılır	-12.6737
alp	-12.6738
aman	-12.6741
▁kri	-12.6742
▁okula	-12.6744
▁önünde	-12.6745
▁mus	-12.6746
▁114	-12.6748
▁dest	-12.6751
▁kazanmıştı	-12.6755
▁arık	-12.676
▁özkal	-12.6764
▁kazanmak	-12.6766
ılım	-12.6768
birliği	-12.6768
ahad	-12.6773
less	-12.6775
gg	-12.6776
end	-12.678
▁sergisi	-12.6784
▁çıkarılmıştı	-12.6784
▁çekecek	-12.6788
siyon	-12.6793
0-15	-12.6793
obra	-12.6794
▁masla	-12.6794
▁serisi	-12.6796
▁43.	-12.6796
▁araştırması	-12.6796
sche	-12.6801
▁dolaştı	-12.6804
200	-12.6805
sprey	-12.6806
yabiliyor	-12.6806
▁düşünmüyoru	-12.6807
-130	-12.6809
▁Wen	-12.681
koy	-12.681
▁ısırma	-12.6814
ity	-12.6817
▁bekledik	-12.682
▁kaynat	-12.6822
▁üretme	-12.6823
▁sanık	-12.6824
▁hocalar	-12.6826
▁girebil	-12.6828
hrey	-12.6828
▁unutmay	-12.683
▁sağlamıştı	-12.683
internet	-12.683
▁düşecek	-12.6831
▁abart	-12.6832
▁ayırt	-12.6833
▁açıklanır	-12.6842
▁kıpır	-12.6844
eliha	-12.6846
▁küçü	-12.6846
0-25	-12.6847
▁göksu	-12.6849
olu	-12.6851
age	-12.6852
▁(26	-12.6852
▁kabar	-12.6856
▁kapan	-12.6857
09	-12.6858
ırsak	-12.6858
ml	-12.6859
akdi	-12.6861
illiyet	-12.6861
▁görü	-12.6864
dolf	-12.6867
▁saldıra	-12.6867
▁oynayan	-12.6868
▁Ba	-12.6868
▁kiraladı	-12.6869
▁uygul	-12.6871
▁izlerk	-12.6871
▁marifet	-12.6872
ktedir	-12.6873
lasyon	-12.6874
▁başardık	-12.6875
▁sokuyor	-12.6875
well	-12.6878
▁söylendi	-12.6878
▁hatırlatma	-12.688
▁lobi	-12.688
▁düşünceleri	-12.6881
şak	-12.6884
▁oluyordu	-12.6886
▁değişecek	-12.6887
▁tıkla	-12.6889
engiz	-12.6889
▁bağlama	-12.6889
ismis	-12.6889
▁tuval	-12.6892
▁kapad	-12.6893
▁kuram	-12.6895
▁Me	-12.6896
onik	-12.6896
tem	-12.6897
▁yükseltilme	-12.6898
▁donan	-12.6898
▁zorladı	-12.69
▁değirmen	-12.69
enformasyon	-12.6901
▁yaparsın	-12.6902
▁farz	-12.6905
▁Wohlleb	-12.6908
▁ithaf	-12.6908
▁bocoly	-12.6909
▁tayfa	-12.6909
ns	-12.6909
▁zi	-12.691
▁özellikle	-12.691
▁genişletil	-12.691
▁ferma	-12.6911
kariye	-12.6912
ilistin	-12.6912
▁serseri	-12.6912
▁estet	-12.6912
▁lokum	-12.6912
lev	-12.6912
▁deterjan	-12.6913
▁merzifon	-12.6913
▁vugrinec	-12.6913
Beşiktaş	-12.6913
tmmob	-12.6913
İsrail	-12.6913
▁Bakanlığı	-12.6913
▁Sarıibrahimoğlu	-12.6913
▁Wizards	-12.6913
▁azevedo	-12.6913
▁birdenbire	-12.6913
▁coulthard	-12.6913
▁custom	-12.6913
▁etimesgut	-12.6913
▁etiyopya	-12.6913
▁fadıl	-12.6913
▁fantezi	-12.6913
▁ferguson	-12.6913
▁fizyoloji	-12.6913
▁gabriel	-12.6913
▁gilberto	-12.6913
▁iğrenç	-12.6913
▁klestil	-12.6913
▁kronoloji	-12.6913
▁lavrov	-12.6913
▁mansfield	-12.6913
▁matthew	-12.6913
▁mcavoy	-12.6913
▁minyatür	-12.6913
▁mourinho	-12.6913
▁mukherjii	-12.6913
▁nusaybin	-12.6913
▁pipis	-12.6913
▁potter	-12.6913
▁poyraz	-12.6913
[...]
