{
  "version": "1.0",
  "truncation": null,
  "padding": null,
  "added_tokens": [
    {
      "id": 0,
      "content": "<pad>",
      "single_word": false,
      "lstrip": false,
      "rstrip": false,
      "normalized": false,
      "special": true
    },
    {
      "id": 1,
      "content": "<unk>",
      "single_word": false,
      "lstrip": false,
      "rstrip": false,
      "normalized": false,
      "special": true
    },
    {
      "id": 2,
      "content": "<s>",
      "single_word": false,
      "lstrip": false,
      "rstrip": false,
      "normalized": false,
      "special": true
    },
    {
      "id": 3,
      "content": "</s>",
      "single_word": false,
      "lstrip": false,
      "rstrip": false,
      "normalized": false,
      "special": true
    }
  ],
  "normalizer": null,
  "pre_tokenizer": {
    "type": "ByteLevel",
    "add_prefix_space": false,
    "trim_offsets": true,
    "use_regex": true
  },
  "post_processor": {
    "type": "ByteLevel",
    "add_prefix_space": true,
    "trim_offsets": false,
    "use_regex": true
  },
  "decoder": {
    "type": "ByteLevel",
    "add_prefix_space": true,
    "trim_offsets": true,
    "use_regex": true
  },
  "model": {
    "type": "BPE",
    "dropout": null,
    "unk_token": null,
    "continuing_subword_prefix": null,
    "end_of_word_suffix": null,
    "fuse_unk": false,
    "byte_fallback": false,
    "ignore_merges": false,
    "vocab": {
      "<pad>": 0,
      "<unk>": 1,
      "<s>": 2,
      "</s>": 3,
      "!": 4,
      "\"": 5,
      "#": 6,
      "$": 7,
      "%": 8,
      "&": 9,
      "'": 10,
      "(": 11,
      ")": 12,
      "*": 13,
      "+": 14,
      ",": 15,
      "-": 16,
      ".": 17,
      "/": 18,
      "0": 19,
      "1": 20,
      "2": 21,
      "3": 22,
      "4": 23,
      "5": 24,
      "6": 25,
      "7": 26,
      "8": 27,
      "9": 28,
      ":": 29,
      ";": 30,
      "<": 31,
      "=": 32,
      ">": 33,
      "?": 34,
      "@": 35,
      "A": 36,
      "B": 37,
      "C": 38,
      "D": 39,
      "E": 40,
      "F": 41,
      "G": 42,
      "H": 43,
      "I": 44,
      "J": 45,
      "K": 46,
      "L": 47,
      "M": 48,
      "N": 49,
      "O": 50,
      "P": 51,
      "Q": 52,
      "R": 53,
      "S": 54,
      "T": 55,
      "U": 56,
      "V": 57,
      "W": 58,
      "X": 59,
      "Y": 60,
      "Z": 61,
      "[": 62,
      "\\": 63,
      "]": 64,
      "^": 65,
      "_": 66,
      "`": 67,
      "a": 68,
      "b": 69,
      "c": 70,
      "d": 71,
      "e": 72,
      "f": 73,
      "g": 74,
      "h": 75,
      "i": 76,
      "j": 77,
      "k": 78,
      "l": 79,
      "m": 80,
      "n": 81,
      "o": 82,
      "p": 83,
      "q": 84,
      "r": 85,
      "s": 86,
      "t": 87,
      "u": 88,
      "v": 89,
      "w": 90,
      "x": 91,
      "y": 92,
      "z": 93,
      "{": 94,
      "|": 95,
      "}": 96,
      "~": 97,
      "¡": 98,
      "¢": 99,
      "£": 100,
      "¤": 101,
      "¥": 102,
      "¦": 103,
      "§": 104,
      "¨": 105,
      "©": 106,
      "ª": 107,
      "«": 108,
      "¬": 109,
      "®": 110,
      "¯": 111,
      "°": 112,
      "±": 113,
      "²": 114,
      "³": 115,
      "´": 116,
      "µ": 117,
      "¶": 118,
      "·": 119,
      "¸": 120,
      "¹": 121,
      "º": 122,
      "»": 123,
      "¼": 124,
      "½": 125,
      "¾": 126,
      "¿": 127,
      "À": 128,
      "Á": 129,
      "Â": 130,
      "Ã": 131,
      "Ä": 132,
      "Å": 133,
      "Æ": 134,
      "Ç": 135,
      "È": 136,
      "É": 137,
      "Ê": 138,
      "Ë": 139,
      "Ì": 140,
      "Í": 141,
      "Î": 142,
      "Ï": 143,
      "Ð": 144,
      "Ñ": 145,
      "Ò": 146,
      "Ó": 147,
      "Ô": 148,
      "Õ": 149,
      "Ö": 150,
      "×": 151,
      "Ø": 152,
      "Ù": 153,
      "Ú": 154,
      "Û": 155,
      "Ü": 156,
      "Ý": 157,
      "Þ": 158,
      "ß": 159,
      "à": 160,
      "á": 161,
      "â": 162,
      "ã": 163,
      "ä": 164,
      "å": 165,
      "æ": 166,
      "ç": 167,
      "è": 168,
      "é": 169,
      "ê": 170,
      "ë": 171,
      "ì": 172,
      "í": 173,
      "î": 174,
      "ï": 175,
      "ð": 176,
      "ñ": 177,
      "ò": 178,
      "ó": 179,
      "ô": 180,
      "õ": 181,
      "ö": 182,
      "÷": 183,
      "ø": 184,
      "ù": 185,
      "ú": 186,
      "û": 187,
      "ü": 188,
      "ý": 189,
      "þ": 190,
      "ÿ": 191,
      "Ā": 192,
      "ā": 193,
      "Ă": 194,
      "ă": 195,
      "Ą": 196,
      "ą": 197,
      "Ć": 198,
      "ć": 199,
      "Ĉ": 200,
      "ĉ": 201,
      "Ċ": 202,
      "ċ": 203,
      "Č": 204,
      "č": 205,
      "Ď": 206,
      "ď": 207,
      "Đ": 208,
      "đ": 209,
      "Ē": 210,
      "ē": 211,
      "Ĕ": 212,
      "ĕ": 213,
      "Ė": 214,
      "ė": 215,
      "Ę": 216,
      "ę": 217,
      "Ě": 218,
      "ě": 219,
      "Ĝ": 220,
      "ĝ": 221,
      "Ğ": 222,
      "ğ": 223,
      "Ġ": 224,
      "ġ": 225,
      "Ģ": 226,
      "ģ": 227,
      "Ĥ": 228,
      "ĥ": 229,
      "Ħ": 230,
      "ħ": 231,
      "Ĩ": 232,
      "ĩ": 233,
      "Ī": 234,
      "ī": 235,
      "Ĭ": 236,
      "ĭ": 237,
      "Į": 238,
      "į": 239,
      "İ": 240,
      "ı": 241,
      "Ĳ": 242,
      "ĳ": 243,
      "Ĵ": 244,
      "ĵ": 245,
      "Ķ": 246,
      "ķ": 247,
      "ĸ": 248,
      "Ĺ": 249,
      "ĺ": 250,
      "Ļ": 251,
      "ļ": 252,
      "Ľ": 253,
      "ľ": 254,
      "Ŀ": 255,
      "ŀ": 256,
      "Ł": 257,
      "ł": 258,
      "Ń": 259,
      "Ä±": 260,
      "ar": 261,
      "Ã¼": 262,
      "an": 263,
      "er": 264,
      "in": 265,
      "ÅŁ": 266,
      "Ġb": 267,
      "Ä±n": 268,
      "en": 269,
      "ÄŁ": 270,
      "Ġk": 271,
      "il": 272,
      "Ã§": 273,
      "Ġd": 274,
      "ir": 275,
      "Ġy": 276,
      "Ġs": 277,
      "al": 278,
      "ak": 279,
      "Ã¶": 280,
      "Ġg": 281,
      "lar": 282,
      "el": 283,
      "Ġo": 284,
      "ek": 285,
      "ay": 286,
      "et": 287,
      "Ġv": 288,
      "un": 289,
      "Ġt": 290,
      "as": 291,
      "da": 292,
      "Ġi": 293,
      "de": 294,
      "iy": 295,
      "la": 296,
      "âĢ": 297,
      "or": 298,
      "es": 299,
      "ler": 300,
      "at": 301,
      "on": 302,
      "ĠB": 303,
      "Ġh": 304,
      "di": 305,
      "dÄ±": 306,
      "Ġve": 307,
      "Ġbir": 308,
      "am": 309,
      "ur": 310,
      "Ġm": 311,
      "le": 312,
      "im": 313,
      "ĠA": 314,
      "ik": 315,
      "aÅŁ": 316,
      "Ä±l": 317,
      "Ã¼n": 318,
      "ĠÃ§": 319,
      "Ġol": 320,
      "Ã¼r": 321,
      "em": 322,
      "âĢĻ": 323,
      "iz": 324,
      "ul": 325,
      "Ä±k": 326,
      "Ä°": 327,
      "Ġde": 328,
      "Ä±r": 329,
      "ĠK": 330,
      "is": 331,
      "ap": 332,
      "az": 333,
      "ey": 334,
      "Ä±ÅŁ": 335,
      "ed": 336,
      "ĠT": 337,
      "ĠÃ¶": 338,
      "ĠS": 339,
      "ah": 340,
      "iÅŁ": 341,
      "ad": 342,
      "ĠM": 343,
      "um": 344,
      "li": 345,
      "Ġil": 346,
      "Ä±nÄ±": 347,
      "aÄŁ": 348,
      "Ġp": 349,
      "Ä±m": 350,
      "ol": 351,
      "Ä±nda": 352,
      "ini": 353,
      "ĠgÃ¶": 354,
      "dan": 355,
      "du": 356,
      "it": 357,
      "Ã¼z": 358,
      "Ġ1": 359,
      "st": 360,
      "ĠD": 361,
      "ĠÄ°": 362,
      "ab": 363,
      "Ġal": 364,
      "Ġyap": 365,
      "ok": 366,
      "Ġf": 367,
      "ine": 368,
      "Ä±y": 369,
      "ĠÅŁ": 370,
      "ce": 371,
      "lan": 372,
      "ĠÃ": 373,
      "ti": 374,
      "ĠiÃ§": 375,
      "Ġar": 376,
      "ma": 377,
      "inde": 378,
      "Ġbu": 379,
      "ĠG": 380,
      "lÄ±": 381,
      "Ã¼k": 382,
      "ev": 383,
      "asÄ±": 384,
      "esi": 385,
      "ĠE": 386,
      "ĠH": 387,
      "den": 388,
      "ĠY": 389,
      "Ġn": 390,
      "ac": 391,
      "aÃ§": 392,
      "larÄ±": 393,
      "Ġda": 394,
      "iye": 395,
      "Ä±z": 396,
      "tÄ±": 397,
      "larÄ±n": 398,
      "iler": 399,
      "00": 400,
      "inin": 401,
      "Ã¼l": 402,
      "iyor": 403,
      "uy": 404,
      "uz": 405,
      "ĠbaÅŁ": 406,
      "eler": 407,
      "Ġ2": 408,
      "alar": 409,
      "af": 410,
      "uÅŁ": 411,
      "Ã¼m": 412,
      "ĠgÃ¶r": 413,
      "ÄŁi": 414,
      "oÄŁ": 415,
      "ÄŁÄ±": 416,
      "ĠiÃ§in": 417,
      "Ġson": 418,
      "Ġkar": 419,
      "ya": 420,
      "Ã¼y": 421,
      "us": 422,
      "Ġet": 423,
      "av": 424,
      "ec": 425,
      "leri": 426,
      "ĠâĢ": 427,
      "eÃ§": 428,
      "ut": 429,
      "Ġr": 430,
      "Ġan": 431,
      "Ġgel": 432,
      "ĠP": 433,
      "ĠÃ¶n": 434,
      "Ã¶n": 435,
      "Ä±na": 436,
      "dÄ±r": 437,
      "Ġz": 438,
      "Ä±s": 439,
      "ez": 440,
      "Ġver": 441,
      "ĠO": 442,
      "ĠC": 443,
      "Ġkon": 444,
      "Ã¼rk": 445,
      "'d": 446,
      "uk": 447,
      "Ġoldu": 448,
      "Ġed": 449,
      "lik": 450,
      "ta": 451,
      "anÄ±": 452,
      "Ġile": 453,
      "Ã¶y": 454,
      "Ġ(": 455,
      "Ã¼ÅŁ": 456,
      "mak": 457,
      "eÅŁ": 458,
      "ĠyÄ±l": 459,
      "ĠF": 460,
      "ilm": 461,
      "Ä±ndan": 462,
      "Ġay": 463,
      "eki": 464,
      "tir": 465,
      "dir": 466,
      "om": 467,
      "Ä±yor": 468,
      "aki": 469,
      "aya": 470,
      "Ġger": 471,
      "op": 472,
      "te": 473,
      "larak": 474,
      "len": 475,
      "Ġtar": 476,
      "Åŀ": 477,
      "unu": 478,
      "ĠTÃ¼rk": 479,
      "lam": 480,
      "Ä±nÄ±n": 481,
      "ĠÃĩ": 482,
      "tan": 483,
      "Ġolarak": 484,
      "Ġbil": 485,
      "Ġin": 486,
      "lu": 487,
      "ĠaÃ§": 488,
      "ĠdeÄŁ": 489,
      "Ġbel": 490,
      "Ġ\"": 491,
      "se": 492,
      "ĠR": 493,
      "ib": 494,
      "laÅŁ": 495,
      "Ġen": 496,
      "Ġbul": 497,
      "Ġyer": 498,
      "yon": 499,
      "Ġor": 500,
      "Ã¶r": 501,
      "ĠiÅŁ": 502,
      "tÄ±r": 503,
      "lÄ±k": 504,
      "Ġc": 505,
      "ki": 506,
      "ada": 507,
      "Ã¶yle": 508,
      "me": 509,
      "Ġkad": 510,
      "cak": 511,
      "ra": 512,
      "ĠolduÄŁ": 513,
      "man": 514,
      "ro": 515,
      "ayÄ±": 516,
      "ĠsÃ¼r": 517,
      "ĠBu": 518,
      "aha": 519,
      "ĠÃ§ok": 520,
      "ken": 521,
      "Ġkal": 522,
      "ĠÃ§Ä±k": 523,
      "..": 524,
      "Ġolan": 525,
      "masÄ±": 526,
      "Ġist": 527,
      "eni": 528,
      "nin": 529,
      "Ġ-": 530,
      "ili": 531,
      "ĠyaÅŁ": 532,
      "Ġkur": 533,
      "ĠBaÅŁ": 534,
      "mek": 535,
      "ĠgeÃ§": 536,
      "ĠN": 537,
      "âĢĿ": 538,
      "ĠâĢľ": 539,
      "Ġyar": 540,
      "ca": 541,
      "ĠgÃ¼n": 542,
      "Ġ19": 543,
      "ede": 544,
      "lerin": 545,
      "ĠÃ§al": 546,
      "ÄŁini": 547,
      "Ġken": 548,
      "eb": 549,
      "ru": 550,
      "ĠÃĸ": 551,
      "mÄ±ÅŁ": 552,
      "Ġvar": 553,
      "mas": 554,
      "alÄ±": 555,
      "ildi": 556,
      "Ġdaha": 557,
      "iyle": 558,
      "Ġbulun": 559,
      "let": 560,
      "eh": 561,
      "ĠÅŀ": 562,
      "ip": 563,
      "eye": 564,
      "ĠÃ§alÄ±ÅŁ": 565,
      "ibi": 566,
      "ci": 567,
      "ecek": 568,
      "eden": 569,
      "ĠÃ¼z": 570,
      "isi": 571,
      "ĠAn": 572,
      "cu": 573,
      "daki": 574,
      "Ä±lan": 575,
      "eri": 576,
      "dÄ±ÄŁÄ±": 577,
      "Ġbelir": 578,
      "Ã¼yÃ¼k": 579,
      "ĠL": 580,
      "Ġtop": 581,
      "os": 582,
      "Ġ3": 583,
      "larÄ±nÄ±": 584,
      "ans": 585,
      "ayan": 586,
      "ĠTÃ¼rkiye": 587,
      "dÄ±ÄŁ": 588,
      "Ġel": 589,
      "acak": 590,
      "Ã¼t": 591,
      "Ġkul": 592,
      "asÄ±nda": 593,
      "Ã¶l": 594,
      "ilen": 595,
      "ĠyÃ¶n": 596,
      "erk": 597,
      "uÅŁt": 598,
      "ĠkarÅŁ": 599,
      "ĠÃ¼zer": 600,
      "ih": 601,
      "miÅŁ": 602,
      "unda": 603,
      "ist": 604,
      "Ġgibi": 605,
      "Ġoy": 606,
      "ece": 607,
      "ade": 608,
      "Ä±yla": 609,
      "ilir": 610,
      "Ã¶z": 611,
      "ama": 612,
      "leÅŁ": 613,
      "oy": 614,
      "iyet": 615,
      "Ġsonra": 616,
      "san": 617,
      "deki": 618,
      "ĠV": 619,
      "Ġad": 620,
      "cÄ±": 621,
      "Ġsor": 622,
      "ark": 623,
      "Ġmil": 624,
      "edi": 625,
      "Ġdev": 626,
      "ĠâĢĺ": 627,
      "Ġkadar": 628,
      "Ġkay": 629,
      "lÃ¼": 630,
      "imiz": 631,
      "kan": 632,
      "unun": 633,
      "Ġtaraf": 634,
      "aman": 635,
      "ĠdÃ¼ÅŁ": 636,
      "Ġhal": 637,
      "erek": 638,
      "Ġise": 639,
      "ĠdÃ¶n": 640,
      "ĠyÃ¼z": 641,
      "ÄŁr": 642,
      "Ġkat": 643,
      "nÄ±n": 644,
      "Ġuy": 645,
      "art": 646,
      "ic": 647,
      "Ġkullan": 648,
      "Ã¼Ã§": 649,
      "Ġgerek": 650,
      "inden": 651,
      "Ġyak": 652,
      "ĠsÃ¶yle": 653,
      "ĠU": 654,
      "ĠaÃ§Ä±k": 655,
      "ers": 656,
      "Ġyan": 657,
      "eli": 658,
      "Ġtek": 659,
      "ep": 660,
      "eÄŁ": 661,
      "id": 662,
      "Ġu": 663,
      "Ġdur": 664,
      "lara": 665,
      "Ä±mÄ±z": 666,
      "lerini": 667,
      "Ġher": 668,
      "Ġon": 669,
      "dÃ¼r": 670,
      "ĠÃ¶z": 671,
      "Ġat": 672,
      "arak": 673,
      "malar": 674,
      "Ġyaz": 675,
      "lem": 676,
      "ten": 677,
      "ĠbÃ¼yÃ¼k": 678,
      "Ġa": 679,
      "arÄ±": 680,
      "sa": 681,
      "Ä±lÄ±": 682,
      "gi": 683,
      "ef": 684,
      "Ġsah": 685,
      "kanÄ±": 686,
      "dÄ±m": 687,
      "ara": 688,
      "yi": 689,
      "iÃ§": 690,
      "met": 691,
      "ĠsaÄŁ": 692,
      "Ġdedi": 693,
      "etim": 694,
      "Ġilk": 695,
      "Ġ20": 696,
      "ĠEr": 697,
      "Ġak": 698,
      "men": 699,
      "ĠdoÄŁ": 700,
      "uyor": 701,
      "ot": 702,
      "Ġbin": 703,
      "Ġzaman": 704,
      "dÃ¼": 705,
      "akan": 706,
      "aÄŁÄ±": 707,
      "Ġolm": 708,
      "Ġkap": 709,
      "ĠkiÅŁ": 710,
      "Ġyeni": 711,
      "Ġort": 712,
      "ĠÃ¼l": 713,
      "ĠbÃ¶l": 714,
      "est": 715,
      "Ġ4": 716,
      "Ġ5": 717,
      "ÄŁu": 718,
      "Ġetti": 719,
      "Ġpro": 720,
      "ĠAl": 721,
      "Ġola": 722,
      "iv": 723,
      "ĠI": 724,
      "una": 725,
      "Ġgen": 726,
      "Ġhak": 727,
      "ĠdÃ¼z": 728,
      "Ã¼c": 729,
      "ĠAr": 730,
      "tr": 731,
      "dÄ±ÄŁÄ±nÄ±": 732,
      "ladÄ±": 733,
      "Ġgir": 734,
      "ĠBir": 735,
      "iniz": 736,
      "ĠolduÄŁunu": 737,
      "kin": 738,
      "ĠÃľ": 739,
      "Ã¼s": 740,
      "Ġas": 741,
      "ter": 742,
      "Ġilg": 743,
      "Ġev": 744,
      "Ġhay": 745,
      "Ġl": 746,
      "000": 747,
      "Ġek": 748,
      "Ġyol": 749,
      "ĠdeÄŁil": 750,
      "diÄŁi": 751,
      "ĠtarafÄ±ndan": 752,
      "if": 753,
      "Ġben": 754,
      "Ġkendi": 755,
      "Ġneden": 756,
      "der": 757,
      "Ġtak": 758,
      "ĠsÄ±r": 759,
      "lat": 760,
      "etir": 761,
      "larÄ±nÄ±n": 762,
      "ĠyaptÄ±": 763,
      "ĠdÃ¼n": 764,
      "Ä±sÄ±": 765,
      "Ġuz": 766,
      "sel": 767,
      "Ġalan": 768,
      "larda": 769,
      "oc": 770,
      "lama": 771,
      "ĠÃ¶nem": 772,
      "ĠÃ¼lk": 773,
      "Ä±ldÄ±": 774,
      "Ġdiye": 775,
      "ĠbaÄŁ": 776,
      "ster": 777,
      "Ã§ek": 778,
      "Ġgetir": 779,
      "ĠkarÅŁÄ±": 780,
      "ĠÃ¶ÄŁr": 781,
      "por": 782,
      "esinde": 783,
      "Ġinsan": 784,
      "tÄ±k": 785,
      "Ġbelirt": 786,
      "ne": 787,
      "iÄŁ": 788,
      "Ġes": 789,
      "uÅŁtur": 790,
      "ĠgÃ¶re": 791,
      "eyi": 792,
      "Ġne": 793,
      "eleri": 794,
      "rup": 795,
      "Ä±ndaki": 796,
      "bir": 797,
      "tik": 798,
      "han": 799,
      "Ġsan": 800,
      "lÄ±ÄŁÄ±": 801,
      "asyon": 802,
      "Ġsay": 803,
      "anÄ±n": 804,
      "aat": 805,
      "enin": 806,
      "ĠÃ§ek": 807,
      "Ãľ": 808,
      "...": 809,
      "ĠolduÄŁu": 810,
      "ĠseÃ§": 811,
      "Ġyok": 812,
      "elik": 813,
      "ĠgÃ¶ster": 814,
      "maya": 815,
      "Ġiki": 816,
      "uh": 817,
      "dik": 818,
      "Ġbiz": 819,
      "lay": 820,
      "Ġden": 821,
      "adan": 822,
      "ĠÅŁek": 823,
      "ĠsÃ¶z": 824,
      "Ã¼yor": 825,
      "mir": 826,
      "mesi": 827,
      "ĠBaÅŁkanÄ±": 828,
      "ĠBel": 829,
      "ĠJ": 830,
      "Ġ200": 831,
      "gu": 832,
      "liÄŁi": 833,
      "ley": 834,
      "aret": 835,
      "Ġyet": 836,
      "rÄ±": 837,
      "Ġsu": 838,
      "Ġot": 839,
      "ĠgerÃ§ek": 840,
      "acaÄŁ": 841,
      "ekt": 842,
      "ĠAy": 843,
      "ĠÃ¶zel": 844,
      "ĠZ": 845,
      "nÄ±": 846,
      "dÄ±k": 847,
      "Ġalt": 848,
      "Ġif": 849,
      "si": 850,
      "re": 851,
      "ye": 852,
      "Ġdurum": 853,
      "Ġkaz": 854,
      "Ã§e": 855,
      "lere": 856,
      "ĠyÃ¼k": 857,
      "AR": 858,
      "gÃ¼n": 859,
      "stan": 860,
      "Ġsev": 861,
      "ĠÃ¶l": 862,
      "iyat": 863,
      "ĠsÃ¶yledi": 864,
      "Ġpar": 865,
      "ĠÃ¶nce": 866,
      "oz": 867,
      "Ġ6": 868,
      "ĠalÄ±n": 869,
      "ĠÃ¼r": 870,
      "ing": 871,
      "'t": 872,
      "Ġtem": 873,
      "bul": 874,
      "ĠÄ°l": 875,
      "up": 876,
      "Ġ'": 877,
      "ĠÃĸz": 878,
      "tar": 879,
      "tÃ¼r": 880,
      "ĠdÃ¼zen": 881,
      "iÅŁtir": 882,
      "Ġama": 883,
      "azÄ±": 884,
      "ileri": 885,
      "ĠAB": 886,
      "na": 887,
      "lerinin": 888,
      "Ġtarih": 889,
      "Ġbas": 890,
      "erkez": 891,
      "Ġbak": 892,
      "Ġok": 893,
      "Ġtam": 894,
      "Ġsav": 895,
      "Ġbirlik": 896,
      "Ġder": 897,
      "alan": 898,
      "ram": 899,
      "Ġhar": 900,
      "mes": 901,
      "Ġilgili": 902,
      "ulu": 903,
      "larÄ±na": 904,
      "ĠarasÄ±nda": 905,
      "ayÄ±n": 906,
      "bol": 907,
      "Ġhem": 908,
      "ran": 909,
      "Ġtut": 910,
      "Ġce": 911,
      "sun": 912,
      "Ġiyi": 913,
      "usu": 914,
      "ĠGen": 915,
      "iyas": 916,
      "ĠgÃ¶rev": 917,
      "ĠÄ°n": 918,
      "Ġiz": 919,
      "oÄŁlu": 920,
      "AN": 921,
      "imi": 922,
      "ĠdÃ¶nem": 923,
      "Ġgelen": 924,
      "rak": 925,
      "ĠbÃ¶lg": 926,
      "Ã¼v": 927,
      "Ã¼nÃ¼": 928,
      "Ã¼st": 929,
      "ĠÃ¶nemli": 930,
      "Ġih": 931,
      "Ä±la": 932,
      "ka": 933,
      "ĠgÃ¶z": 934,
      "ob": 935,
      "Ġki": 936,
      "ĠAv": 937,
      "oÅŁ": 938,
      "lÄ±ÄŁ": 939,
      "ĠÄ°z": 940,
      "Ġdevam": 941,
      "nun": 942,
      "ĠyÃ¼zde": 943,
      "Ġis": 944,
      "alÄ±k": 945,
      "ĠÃ¶ÄŁren": 946,
      "008": 947,
      "ĠÅŁey": 948,
      "lerde": 949,
      "hur": 950,
      "Ġdo": 951,
      "dur": 952,
      "Ġter": 953,
      "Ġser": 954,
      "ĠKar": 955,
      "Ġ201": 956,
      "tÃ¼": 957,
      "ĠiÃ§inde": 958,
      "008000": 959,
      "ĠÄ°s": 960,
      "Ġam": 961,
      "Ġkarar": 962,
      "ĠdÄ±ÅŁ": 963,
      "eti": 964,
      "Ġsonu": 965,
      "ĠdÃ¼ÅŁÃ¼n": 966,
      "aber": 967,
      "ehir": 968,
      "Ġ7": 969,
      "Ġeden": 970,
      "edir": 971,
      "Ä±p": 972,
      "ocuk": 973,
      "dar": 974,
      "stanbul": 975,
      "Ä±nÄ±z": 976,
      "ĠeÄŁ": 977,
      "leÅŁtir": 978,
      "Ġoyun": 979,
      "atÄ±r": 980,
      "ĠyapÄ±lan": 981,
      "Ġduy": 982,
      "larÄ±nda": 983,
      "iÄŁer": 984,
      "ĠAk": 985,
      "ĠaÄŁ": 986,
      "Ġmilyon": 987,
      "Ġfark": 988,
      "umhur": 989,
      "ER": 990,
      "lerine": 991,
      "ĠÃĩin": 992,
      "ub": 993,
      "Ġifade": 994,
      "Ġtan": 995,
      "meye": 996,
      "sÄ±z": 997,
      "Ã¼nde": 998,
      "iyorum": 999,
      "Ã¼ven": 1000,
      "Ġkor": 1001,
      "raf": 1002,
      "uÅŁtu": 1003,
      "ov": 1004,
      "ĠBeled": 1005,
      "ĠKur": 1006,
      "Ġhas": 1007,
      "Ġzor": 1008,
      "ĠtaÅŁ": 1009,
      "mer": 1010,
      "ĠÄ°zmir": 1011,
      "ĠaÅŁ": 1012,
      "Ġveya": 1013,
      "ĠhiÃ§": 1014,
      "Ġdem": 1015,
      "Ġbek": 1016,
      "Ġhaz": 1017,
      "ĠÄ°stanbul": 1018,
      "Ġim": 1019,
      "âĢĺ": 1020,
      "ĠmaÃ§": 1021,
      "ÄŁÃ¼": 1022,
      "ilerin": 1023,
      "Ġaz": 1024,
      "Ġya": 1025,
      "ĠgÃ¶rÃ¼ÅŁ": 1026,
      "Ġbirlikte": 1027,
      "Ġdil": 1028,
      "ĠyÄ±lÄ±nda": 1029,
      "uv": 1030,
      "nde": 1031,
      "Ã¼p": 1032,
      "ĠyapÄ±l": 1033,
      "lendir": 1034,
      "atÄ±": 1035,
      "ĠOr": 1036,
      "ig": 1037,
      "ĠtÃ¼m": 1038,
      "olo": 1039,
      "maz": 1040,
      "dÄ±ndan": 1041,
      "gil": 1042,
      "indeki": 1043,
      "Ġbulundu": 1044,
      "ĠkonuÅŁ": 1045,
      "Ã¼dÃ¼r": 1046,
      "Ã¢": 1047,
      "Ġkazan": 1048,
      "liÄŁ": 1049,
      "ĠÃ§Ä±kar": 1050,
      "Ġkurul": 1051,
      "ĠÃ¶r": 1052,
      "ĠÅŁekil": 1053,
      "Ġfaz": 1054,
      "Ä±mÄ±": 1055,
      "ilecek": 1056,
      "lardan": 1057,
      "Ġsahip": 1058,
      "Ġsal": 1059,
      "Ġsaat": 1060,
      "ĠdeÄŁer": 1061,
      "ĠkÃ¶": 1062,
      "ĠW": 1063,
      "larla": 1064,
      "ilik": 1065,
      "Ġ8": 1066,
      "Ġ10": 1067,
      "mam": 1068,
      "Ġark": 1069,
      "ĠeÅŁ": 1070,
      "alarÄ±": 1071,
      "ĠÃ¼zerine": 1072,
      "Ä±lÄ±k": 1073,
      "Ġede": 1074,
      "iyon": 1075,
      "amp": 1076,
      "Ġetk": 1077,
      "ĠiliÅŁ": 1078,
      "ĠaynÄ±": 1079,
      "Ġdav": 1080,
      "ĠhazÄ±r": 1081,
      "ĠABD": 1082,
      "itim": 1083,
      "Ġsat": 1084,
      "Ġkes": 1085,
      "Ġkab": 1086,
      "Ġdik": 1087,
      "Ġkim": 1088,
      "esine": 1089,
      "sek": 1090,
      "ĠardÄ±ndan": 1091,
      "ĠKon": 1092,
      "ĠdeÄŁiÅŁ": 1093,
      "Ġgit": 1094,
      "ĠkÄ±s": 1095,
      "luk": 1096,
      "Ãĩ": 1097,
      "âĢĻâĢĻ": 1098,
      "ivers": 1099,
      "ĠdiÄŁer": 1100,
      "od": 1101,
      "gan": 1102,
      "eyen": 1103,
      "makta": 1104,
      "iversit": 1105,
      "onom": 1106,
      "ĠÃ¶nc": 1107,
      "atan": 1108,
      "ĠÃ§ocuk": 1109,
      "utbol": 1110,
      "Ġfilm": 1111,
      "Ġdol": 1112,
      "ĠÅŁekilde": 1113,
      "Ã¼tÃ¼n": 1114,
      "likle": 1115,
      "Ġhayat": 1116,
      "Ġtoplan": 1117,
      "ĠGenel": 1118,
      "lerinde": 1119,
      "tal": 1120,
      "Ġkr": 1121,
      "lÃ¼k": 1122,
      "Ġgeldi": 1123,
      "siz": 1124,
      "ĠâĢĺâĢĺ": 1125,
      "kÃ¼": 1126,
      "Ġolma": 1127,
      "ank": 1128,
      "Ġkonu": 1129,
      "Ġbur": 1130,
      "ket": 1131,
      "ĠyaptÄ±ÄŁÄ±": 1132,
      "det": 1133,
      "ĠÃ¼st": 1134,
      "adece": 1135,
      "Ġfazla": 1136,
      "ĠGÃ¼n": 1137,
      "ĠCumhur": 1138,
      "ĠÃ¼y": 1139,
      "Ġhakk": 1140,
      "azet": 1141,
      "ilmesi": 1142,
      "oÄŁan": 1143,
      "rans": 1144,
      "Ġ18": 1145,
      "iyoruz": 1146,
      "ent": 1147,
      "masÄ±nÄ±": 1148,
      "daÅŁ": 1149,
      "ĠMil": 1150,
      "Ġmes": 1151,
      "Ġkan": 1152,
      "oloj": 1153,
      "istem": 1154,
      "ĠEn": 1155,
      "Ġolmak": 1156,
      "Ġart": 1157,
      "ilece": 1158,
      "Ġtes": 1159,
      "baÅŁ": 1160,
      "ĠBaÅŁkan": 1161,
      "Ġboy": 1162,
      "nak": 1163,
      "nda": 1164,
      "ĠtakÄ±m": 1165,
      "Ã¼ne": 1166,
      "layan": 1167,
      "iliyor": 1168,
      "rupa": 1169,
      "Ġbulunan": 1170,
      "eniz": 1171,
      "kat": 1172,
      "ĠulaÅŁ": 1173,
      "Ġik": 1174,
      "ĠBur": 1175,
      "Ġtamam": 1176,
      "Ġbun": 1177,
      "ri": 1178,
      "usunda": 1179,
      "mi": 1180,
      "Ġhaf": 1181,
      "ĠÃ§alÄ±ÅŁmalar": 1182,
      "Ãĸ": 1183,
      "Ġ9": 1184,
      "Ã§i": 1185,
      "ge": 1186,
      "istan": 1187,
      "ĠgÃ¼ven": 1188,
      "ika": 1189,
      "ĠgÃ¼Ã§": 1190,
      "ĠkadÄ±n": 1191,
      "Ã§a": 1192,
      "esini": 1193,
      "ĠÃ¼Ã§": 1194,
      "ana": 1195,
      "esinin": 1196,
      "mÄ±ÅŁtÄ±r": 1197,
      "Ã¼kÃ¼m": 1198,
      "Ġsen": 1199,
      "ĠsÄ±k": 1200,
      "estek": 1201,
      "izmet": 1202,
      "Ġvur": 1203,
      "Ġolay": 1204,
      "Ä±rak": 1205,
      "ĠbazÄ±": 1206,
      "ret": 1207,
      "orm": 1208,
      "ektÃ¶r": 1209,
      "Ġverdi": 1210,
      "Ġolur": 1211,
      "Ġbilg": 1212,
      "Ġyas": 1213,
      "Ġmerkez": 1214,
      "asÄ±na": 1215,
      "ĠkonuÅŁtu": 1216,
      "Ġkend": 1217,
      "ulan": 1218,
      "ĠtÃ¼r": 1219,
      "Ġkol": 1220,
      "Ġhav": 1221,
      "ĠgeliÅŁ": 1222,
      "bilir": 1223,
      "Ġsiz": 1224,
      "ĠgÃ¶n": 1225,
      "bar": 1226,
      "adam": 1227,
      "yal": 1228,
      "ĠMÃ¼dÃ¼r": 1229,
      "Ġolacak": 1230,
      "ide": 1231,
      "olis": 1232,
      "ĠbugÃ¼n": 1233,
      "Ġsiyas": 1234,
      "Ġdikkat": 1235,
      "acÄ±": 1236,
      "masÄ±na": 1237,
      "Ġdestek": 1238,
      "Ġmad": 1239,
      "Ġer": 1240,
      "Ġli": 1241,
      "Ġask": 1242,
      "ĠbÄ±rak": 1243,
      "Ġtel": 1244,
      "ĠyÃ¼r": 1245,
      "Ġem": 1246,
      "),": 1247,
      "Ġsistem": 1248,
      "Ġgenel": 1249,
      "Ġistedi": 1250,
      "ĠAmer": 1251,
      "ĠAvrupa": 1252,
      "Ġsadece": 1253,
      "Ġ15": 1254,
      "Ġbile": 1255,
      "Ġnedeniyle": 1256,
      "ahk": 1257,
      "Ġhalk": 1258,
      "meler": 1259,
      "Ġmuh": 1260,
      "Ġancak": 1261,
      "adaÅŁ": 1262,
      "gel": 1263,
      "ĠÃ§ev": 1264,
      "Ġtab": 1265,
      "lenen": 1266,
      "Ġuyg": 1267,
      "Ġdevlet": 1268,
      "Ġgid": 1269,
      "tÄ±ÄŁÄ±": 1270,
      "Ã¼zel": 1271,
      "ĠkaÃ§": 1272,
      "ĠyaklaÅŁ": 1273,
      "HP": 1274,
      "ĠDev": 1275,
      "abilir": 1276,
      "ĠkÄ±z": 1277,
      "ĠBakan": 1278,
      "rÄ±ca": 1279,
      "gÄ±": 1280,
      "Ġmet": 1281,
      "Ġfutbol": 1282,
      "ust": 1283,
      "Ġbildir": 1284,
      "ĠbaÅŁar": 1285,
      "Ġtur": 1286,
      "bakan": 1287,
      "ĠÃ¼zere": 1288,
      "ĠyardÄ±m": 1289,
      "umu": 1290,
      "mem": 1291,
      "may": 1292,
      "ĠgeÃ§ir": 1293,
      "ali": 1294,
      "ĠdoÄŁru": 1295,
      "ĠPar": 1296,
      "ĠBÃ¼yÃ¼k": 1297,
      "ĠÃľn": 1298,
      "kara": 1299,
      "tÄ±ÄŁ": 1300,
      "cek": 1301,
      "Ġkez": 1302,
      "ĠoluÅŁtur": 1303,
      "asar": 1304,
      "lah": 1305,
      "Ġhizmet": 1306,
      "ĠYar": 1307,
      "ĠÃ¼n": 1308,
      "ĠmÃ¼": 1309,
      "ĠgÃ¶rÃ¼n": 1310,
      "Ġbiri": 1311,
      "Ġoyn": 1312,
      "bet": 1313,
      "Ġid": 1314,
      "larÄ±ndan": 1315,
      "endi": 1316,
      "ĠBiz": 1317,
      "ĠAncak": 1318,
      "ĠkiÅŁi": 1319,
      "lak": 1320,
      "maktadÄ±r": 1321,
      "ĠgeÃ§en": 1322,
      "Ġortaya": 1323,
      "lanan": 1324,
      "eket": 1325,
      "ĠseÃ§im": 1326,
      "asÄ±nÄ±": 1327,
      "ĠdÃ¼ny": 1328,
      "asÄ±l": 1329,
      "Ġcez": 1330,
      "Ä°N": 1331,
      "ĠyaÅŁam": 1332,
      "tin": 1333,
      "ĠyÃ¶netim": 1334,
      "ĠÄ°ÅŁ": 1335,
      "ĠbÃ¶yle": 1336,
      "ĠAs": 1337,
      "Ġekonom": 1338,
      "gin": 1339,
      "Ġayr": 1340,
      "ĠyakÄ±n": 1341,
      "EN": 1342,
      "Ġkom": 1343,
      "doÄŁan": 1344,
      "Ġ199": 1345,
      "Ġproj": 1346,
      "ĠyanÄ±": 1347,
      "ĠkatÄ±l": 1348,
      "ĠarkadaÅŁ": 1349,
      "okt": 1350,
      "Ġedildi": 1351,
      "lerinden": 1352,
      "Ġhat": 1353,
      "ĠyÃ¶net": 1354,
      "olu": 1355,
      "Ġkabul": 1356,
      "ele": 1357,
      "Ġtekn": 1358,
      "Ġbit": 1359,
      "ebilir": 1360,
      "ĠyÃ¼ksek": 1361,
      "Ã¼ltÃ¼r": 1362,
      "ĠBen": 1363,
      "Ġyapan": 1364,
      "ĠÅŁu": 1365,
      "Ġeki": 1366,
      "Ġdin": 1367,
      "eme": 1368,
      "ĠyaÅŁan": 1369,
      "ĠiÃ§er": 1370,
      "Ġkit": 1371,
      "ÄŁimiz": 1372,
      "ĠAma": 1373,
      "Äŀ": 1374,
      "larÄ±mÄ±z": 1375,
      "Ġeski": 1376,
      "Ġsonr": 1377,
      "sal": 1378,
      "ĠsÄ±n": 1379,
      "ĠmÃ¼z": 1380,
      "lum": 1381,
      "ĠbaÅŁka": 1382,
      "Ġkoy": 1383,
      "kinci": 1384,
      "sam": 1385,
      "unlarÄ±": 1386,
      "ĠAt": 1387,
      "Ã¼mÃ¼z": 1388,
      "Ġplan": 1389,
      "ĠÅŁÃ¶yle": 1390,
      "ĠYÄ±l": 1391,
      "atandaÅŁ": 1392,
      "lerle": 1393,
      "he": 1394,
      "ĠbaÅŁladÄ±": 1395,
      "ĠHal": 1396,
      "ĠBak": 1397,
      "rar": 1398,
      "mayÄ±": 1399,
      "aÅŁtÄ±r": 1400,
      "Ġadam": 1401,
      "per": 1402,
      "Ġiddi": 1403,
      "gram": 1404,
      "Ä°R": 1405,
      "AL": 1406,
      "oli": 1407,
      "Ã¶k": 1408,
      "lim": 1409,
      "lerden": 1410,
      "ĠhÃ¼kÃ¼m": 1411,
      "Ġanlam": 1412,
      "ĠAnkara": 1413,
      "ĠDÃ¼n": 1414,
      "yar": 1415,
      "Ġgazet": 1416,
      "Ġmut": 1417,
      "AK": 1418,
      "ĠsuÃ§": 1419,
      "Ġinan": 1420,
      "Ġhaber": 1421,
      "Ġkam": 1422,
      "ĠÃ¼zerinde": 1423,
      "ĠPro": 1424,
      "Ä±lmasÄ±": 1425,
      "Ġtal": 1426,
      "Ġ12": 1427,
      "ĠsavaÅŁ": 1428,
      "arasÄ±": 1429,
      "ĠkÄ±r": 1430,
      "Ä±ya": 1431,
      "ale": 1432,
      "ahat": 1433,
      "vek": 1434,
      "asÄ±nÄ±n": 1435,
      "ĠAK": 1436,
      "ĠgÃ¶nder": 1437,
      "Ġmi": 1438,
      "cel": 1439,
      "van": 1440,
      "ĠÅŁir": 1441,
      "imdi": 1442,
      "Ã¼cad": 1443,
      "ĠbÃ¼tÃ¼n": 1444,
      "elerin": 1445,
      "ĠfarklÄ±": 1446,
      "ĠsÄ±": 1447,
      "Ġanlat": 1448,
      "Ġuzun": 1449,
      "Ġyay": 1450,
      "ĠolmasÄ±": 1451,
      "ĠCh": 1452,
      "Ġail": 1453,
      "ĠeÄŁitim": 1454,
      "uslar": 1455,
      "edef": 1456,
      "Ġtah": 1457,
      "okr": 1458,
      "ĠnasÄ±l": 1459,
      "Ã¼nÃ¼n": 1460,
      "urt": 1461,
      "kil": 1462,
      "muÅŁ": 1463,
      "Ġdiy": 1464,
      "Ġkonusunda": 1465,
      "ĠoluÅŁ": 1466,
      "ĠÃ§Ã¶z": 1467,
      "suz": 1468,
      "ĠbaÅŁkan": 1469,
      "Ä±lacak": 1470,
      "Ġkendis": 1471,
      "ÄŁim": 1472,
      "oÄŁu": 1473,
      "ĠuÃ§": 1474,
      "oÄŁun": 1475,
      "Ã¼b": 1476,
      "ĠgÃ¼zel": 1477,
      "aban": 1478,
      "Ã¼nkÃ¼": 1479,
      "ĠÄ°ngil": 1480,
      ".\"": 1481,
      "ĠErdoÄŁan": 1482,
      "ÄŁunu": 1483,
      "ĠgerÃ§ekleÅŁtir": 1484,
      "Ã§ok": 1485,
      "ĠterÃ¶r": 1486,
      "ĠSan": 1487,
      "Ã§Ä±": 1488,
      "Ġuygu": 1489,
      "Ã¼f": 1490,
      "ĠhÄ±z": 1491,
      "ĠDevlet": 1492,
      "Ġziy": 1493,
      "Ġhareket": 1494,
      "ilmiÅŁ": 1495,
      "ĠaÃ§Ä±klama": 1496,
      "taÅŁ": 1497,
      "Ä±cÄ±": 1498,
      "IN": 1499,
      "Ġiht": 1500,
      "ĠHas": 1501,
      "ĠAlman": 1502,
      "ij": 1503,
      "pr": 1504,
      "Ġyerine": 1505,
      "Ġfa": 1506,
      "Ġhep": 1507,
      "ĠvatandaÅŁ": 1508,
      "ĠDem": 1509,
      "Ġla": 1510,
      "Ġ16": 1511,
      "manÄ±n": 1512,
      "Ä±yorum": 1513,
      "ĠSon": 1514,
      "osyal": 1515,
      "ĠBaÅŁbakan": 1516,
      "ch": 1517,
      "ener": 1518,
      "mekt": 1519,
      "Ġres": 1520,
      "Ġmal": 1521,
      "ĠtoplantÄ±": 1522,
      "ĠAd": 1523,
      "tern": 1524,
      "ilere": 1525,
      "vet": 1526,
      "Ġediyor": 1527,
      "ĠsaldÄ±r": 1528,
      "kÄ±": 1529,
      "lis": 1530,
      "eg": 1531,
      "ĠBelediye": 1532,
      "min": 1533,
      "mez": 1534,
      "Ġpolis": 1535,
      "letvek": 1536,
      "ayÄ±s": 1537,
      "ĠÃľniversit": 1538,
      "medi": 1539,
      "izi": 1540,
      "azar": 1541,
      "ĠgenÃ§": 1542,
      "ĠEk": 1543,
      "tu": 1544,
      "ĠSur": 1545,
      "Ġ11": 1546,
      "alt": 1547,
      "ĠaldÄ±": 1548,
      "ĠyayÄ±n": 1549,
      "Ġsorun": 1550,
      "Ã¼Ã§Ã¼k": 1551,
      "ĠanlaÅŁ": 1552,
      "Ġgrup": 1553,
      "iyesi": 1554,
      "Ġ*": 1555,
      "ĠOs": 1556,
      "Ä°L": 1557,
      "Ġav": 1558,
      "Ġolduk": 1559,
      "ang": 1560,
      "Ġhedef": 1561,
      "tiÄŁini": 1562,
      "miÅŁtir": 1563,
      "sin": 1564,
      "ĠmÃ¼cad": 1565,
      "ĠCHP": 1566,
      "Ġisim": 1567,
      "atik": 1568,
      "Ġey": 1569,
      "caÄŁ": 1570,
      "ĠaÃ§Ä±klam": 1571,
      "dÃ¼l": 1572,
      "Ġsun": 1573,
      "Ġaday": 1574,
      "isinde": 1575,
      "ĠKom": 1576,
      "umlu": 1577,
      "ĠdÃ¼nya": 1578,
      "ĠAli": 1579,
      "ledi": 1580,
      "Ġul": 1581,
      "rub": 1582,
      "ĠBil": 1583,
      "ĠKo": 1584,
      "ize": 1585,
      "uslararasÄ±": 1586,
      "tiÄŁi": 1587,
      "etin": 1588,
      "ĠbÃ¶lÃ¼m": 1589,
      "Ġziyaret": 1590,
      "undan": 1591,
      "ĠEs": 1592,
      "ĠsayÄ±": 1593,
      "Ġmilyar": 1594,
      "ĠsÃ¼re": 1595,
      "Ä±yoruz": 1596,
      "ĠIrak": 1597,
      "ĠyatÄ±r": 1598,
      "ĠAb": 1599,
      "ĠilÃ§": 1600,
      "akat": 1601,
      "ĠSav": 1602,
      "og": 1603,
      "lÃ¼ÄŁÃ¼": 1604,
      "Ġgelir": 1605,
      "ezon": 1606,
      "ĠAmerik": 1607,
      "mektedir": 1608,
      "ver": 1609,
      "erkes": 1610,
      "ĠMeh": 1611,
      "aba": 1612,
      "Ġbilin": 1613,
      "Ġcan": 1614,
      "sil": 1615,
      "Ġdolar": 1616,
      "Ġkaynak": 1617,
      "ĠmÄ±": 1618,
      "ĠÃ¶ÄŁrenc": 1619,
      "eydan": 1620,
      "Ġkil": 1621,
      "ĠFrans": 1622,
      "ĠteÅŁ": 1623,
      "Ġbar": 1624,
      "ĠTop": 1625,
      "unca": 1626,
      "cÃ¼": 1627,
      "Ġlir": 1628,
      "duÄŁu": 1629,
      "ĠraÄŁ": 1630,
      "cÄ±sÄ±": 1631,
      "las": 1632,
      "Ġ17": 1633,
      "aj": 1634,
      "ĠRus": 1635,
      "Ġyeniden": 1636,
      "ĠKay": 1637,
      "eÅŁit": 1638,
      "Ġedilen": 1639,
      "19": 1640,
      "Ġbunu": 1641,
      "landÄ±": 1642,
      "ĠhiÃ§bir": 1643,
      "leme": 1644,
      "ĠhakkÄ±nda": 1645,
      "tÄ±m": 1646,
      "ĠCumhuriyet": 1647,
      "ĠEÄŁ": 1648,
      "ince": 1649,
      "ĠÅŁirket": 1650,
      "Ġmak": 1651,
      "siniz": 1652,
      "ĠsÃ¼rdÃ¼r": 1653,
      "elim": 1654,
      "Ġyine": 1655,
      "Ġbunun": 1656,
      "isyon": 1657,
      "uyla": 1658,
      "Ġoyuncu": 1659,
      "Ġsil": 1660,
      "ĠdeÄŁerlendir": 1661,
      "''": 1662,
      "Ġprogram": 1663,
      "acaÄŁÄ±": 1664,
      "ĠiliÅŁk": 1665,
      "ĠraÄŁmen": 1666,
      "eda": 1667,
      "Ġspor": 1668,
      "Ġbelirten": 1669,
      "ĠMerkez": 1670,
      "Ġbenim": 1671,
      "masÄ±nÄ±n": 1672,
      "Ġkav": 1673,
      "Ġsanat": 1674,
      "Ä±sÄ±nda": 1675,
      "Ġikinci": 1676,
      "ĠsonuÃ§": 1677,
      "Ġbelirtti": 1678,
      "acaÄŁÄ±nÄ±": 1679,
      "ĠgÃ¼nÃ¼": 1680,
      "dum": 1681,
      "20": 1682,
      "ĠbirÃ§ok": 1683,
      "landÄ±r": 1684,
      "ina": 1685,
      "ĠsÄ±nÄ±r": 1686,
      "ĠkaldÄ±r": 1687,
      "fer": 1688,
      "Ä±ÅŁtÄ±r": 1689,
      "ĠÅŀub": 1690,
      "Ġkent": 1691,
      "ĠTek": 1692,
      "ha": 1693,
      "Ġiti": 1694,
      "Ä±ÅŁÄ±": 1695,
      "Ä±lÄ±r": 1696,
      "ĠbaÄŁlÄ±": 1697,
      "Ġbey": 1698,
      "oÄŁraf": 1699,
      "EL": 1700,
      "OR": 1701,
      "Ġman": 1702,
      "iÅŁim": 1703,
      "olitik": 1704,
      "larÄ±yla": 1705,
      "ĠaÄŁÄ±r": 1706,
      "Ġdir": 1707,
      "Ġistem": 1708,
      "Ġdak": 1709,
      "Ġeder": 1710,
      "Ġsezon": 1711,
      "ĠdeÄŁiÅŁik": 1712,
      "ĠyaklaÅŁÄ±k": 1713,
      "ni": 1714,
      "ĠÃ¼ret": 1715,
      "Ġun": 1716,
      "ĠsÃ¶y": 1717,
      "ren": 1718,
      "AT": 1719,
      "ĠÃ¶rg": 1720,
      "afa": 1721,
      "alat": 1722,
      "ampiyon": 1723,
      "Ä±t": 1724,
      "eci": 1725,
      "Ġses": 1726,
      "iyi": 1727,
      "alet": 1728,
      "Ġmev": 1729,
      "uma": 1730,
      "Ġyen": 1731,
      "ekli": 1732,
      "ĠOsman": 1733,
      "asÄ±ndaki": 1734,
      "fa": 1735,
      "dÃ¼ÄŁ": 1736,
      "Ġoran": 1737,
      "ĠBakanÄ±": 1738,
      "Ġhafta": 1739,
      "ĠartÄ±k": 1740,
      "ĠÃ§aÄŁ": 1741,
      "Bu": 1742,
      "ĠBÃ¶l": 1743,
      "ĠgÃ¶rÃ¼l": 1744,
      "Ġ30": 1745,
      "Ġsavun": 1746,
      "apor": 1747,
      "Ġtoplum": 1748,
      "ĠÃ§eÅŁit": 1749,
      "ĠaltÄ±nda": 1750,
      "ÅŁehir": 1751,
      "Ġyem": 1752,
      "Ġerk": 1753,
      "Ġitibar": 1754,
      "izm": 1755,
      "ĠBay": 1756,
      "ĠDer": 1757,
      "ĠbÃ¼y": 1758,
      "can": 1759,
      "ĠMehmet": 1760,
      "ĠTar": 1761,
      "Ġpart": 1762,
      "Ġekip": 1763,
      "adi": 1764,
      "Ġ14": 1765,
      "Ġbah": 1766,
      "mÃ¼ÅŁ": 1767,
      "ĠÃľniversitesi": 1768,
      "ĠEl": 1769,
      "br": 1770,
      "Ġimz": 1771,
      "yen": 1772,
      "Ã¼sÃ¼": 1773,
      "laÅŁtÄ±r": 1774,
      "abancÄ±": 1775,
      "ahal": 1776,
      "Ġbeled": 1777,
      "of": 1778,
      "Ġokul": 1779,
      "Ä±lÄ±ÄŁ": 1780,
      "Ġasker": 1781,
      "lamak": 1782,
      "ĠyaÄŁ": 1783,
      "ĠadÄ±": 1784,
      "Ġtart": 1785,
      "ĠHer": 1786,
      "ĠÃ§evr": 1787,
      "ĠMar": 1788,
      "lerimiz": 1789,
      "Ä±lmÄ±ÅŁ": 1790,
      "Ġ198": 1791,
      "Ġhast": 1792,
      "enk": 1793,
      "deÅŁ": 1794,
      "yan": 1795,
      "ayet": 1796,
      "Ġengel": 1797,
      "lendi": 1798,
      "uyu": 1799,
      "alarÄ±n": 1800,
      "ĠaraÅŁtÄ±r": 1801,
      "Ġetmek": 1802,
      "Ġgeri": 1803,
      "ĠSuriye": 1804,
      "din": 1805,
      "ĠTem": 1806,
      "uan": 1807,
      "ĠTur": 1808,
      "ĠÃ§Ä±ktÄ±": 1809,
      "umuz": 1810,
      "ĠParti": 1811,
      "duk": 1812,
      "leyen": 1813,
      "ĠyÃ¼ksel": 1814,
      "ĠNe": 1815,
      "Ã¼nden": 1816,
      "isinin": 1817,
      "ĠÃ§Ä±kan": 1818,
      "Ġ13": 1819,
      "Ġber": 1820,
      "nek": 1821,
      "ĠKan": 1822,
      "ĠÃ§alÄ±ÅŁan": 1823,
      "ĠkÃ¶y": 1824,
      "ĠtartÄ±ÅŁ": 1825,
      "inci": 1826,
      "Ġbizim": 1827,
      "Ġkaydet": 1828,
      "ĠsaÄŁlÄ±k": 1829,
      "ĠEm": 1830,
      "Ġedilm": 1831,
      "ĠBelediyesi": 1832,
      "Ġbor": 1833,
      "uzey": 1834,
      "ÄŁine": 1835,
      "ĠDÃ¼nya": 1836,
      "alarÄ±nda": 1837,
      "Ã®": 1838,
      "Ġsab": 1839,
      "Ġsin": 1840,
      "AY": 1841,
      "ĠDr": 1842,
      "Ġotur": 1843,
      "ĠyatÄ±rÄ±m": 1844,
      "ahkem": 1845,
      "lo": 1846,
      "ĠEy": 1847,
      "dÄ±n": 1848,
      "madan": 1849,
      "ji": 1850,
      "ĠyÃ¶nelik": 1851,
      "ĠkÄ±sa": 1852,
      "ĠkÃ¼ltÃ¼r": 1853,
      "ĠaraÃ§": 1854,
      "ukuk": 1855,
      "Ġdah": 1856,
      "ĠGÃ¼l": 1857,
      "Ġhis": 1858,
      "Ġpara": 1859,
      "aten": 1860,
      "EK": 1861,
      ".âĢĿ": 1862,
      "Ġait": 1863,
      "ĠSer": 1864,
      "ĠsÄ±rasÄ±nda": 1865,
      "ĠAh": 1866,
      "trol": 1867,
      "ber": 1868,
      "Ġpay": 1869,
      "ĠKurulu": 1870,
      "ĠÃ¼lkeler": 1871,
      "LAR": 1872,
      "ĠBunun": 1873,
      "Ġhey": 1874,
      "uluk": 1875,
      "Ġihtiy": 1876,
      "AS": 1877,
      "lÃ¼l": 1878,
      "Ġortak": 1879,
      "tim": 1880,
      "Ġbelirterek": 1881,
      "Ġkapsam": 1882,
      "Ġ''": 1883,
      "ĠyaÅŁa": 1884,
      "Ġtoplam": 1885,
      "Ä°Y": 1886,
      "acaÄŁÄ±z": 1887,
      "Ġ25": 1888,
      "Ġsilah": 1889,
      "Ġbenz": 1890,
      "ĠDÄ±ÅŁ": 1891,
      "ĠbulunduÄŁu": 1892,
      "Ġpolitik": 1893,
      "ĠdÃ¶nÃ¼ÅŁ": 1894,
      "ĠkÃ¼Ã§Ã¼k": 1895,
      "isini": 1896,
      "ĠÅŁark": 1897,
      "Ġyarat": 1898,
      "ĠkoÅŁ": 1899,
      "eÅŁtir": 1900,
      "yle": 1901,
      "ĠsektÃ¶r": 1902,
      "sÄ±": 1903,
      "Ġmu": 1904,
      "meyi": 1905,
      "ĠUl": 1906,
      "ĠBey": 1907,
      "tem": 1908,
      "Ġrahat": 1909,
      "bah": 1910,
      "asa": 1911,
      "Ġtep": 1912,
      "Ġteh": 1913,
      "ĠadlÄ±": 1914,
      "ani": 1915,
      "ĠiÅŁlem": 1916,
      "ET": 1917,
      "ĠAyrÄ±ca": 1918,
      "diler": 1919,
      "Ä±ma": 1920,
      "arb": 1921,
      "siyon": 1922,
      "efon": 1923,
      "Ġmem": 1924,
      "ES": 1925,
      "ĠYÃ¶n": 1926,
      "kÄ±n": 1927,
      "sunuz": 1928,
      "tif": 1929,
      "Ġfiyat": 1930,
      "sik": 1931,
      "tur": 1932,
      "ĠgÃ¼nde": 1933,
      "ĠDeniz": 1934,
      "azi": 1935,
      "Ã¶rt": 1936,
      "amaz": 1937,
      "tiv": 1938,
      "Ġsok": 1939,
      "obil": 1940,
      "ĠÃ¶ldÃ¼r": 1941,
      "Ġveren": 1942,
      "eclis": 1943,
      "ĠÃ§ar": 1944,
      "ĠhatÄ±r": 1945,
      "ĠOy": 1946,
      "Ġherkes": 1947,
      "Ġoper": 1948,
      "ĠÃĸn": 1949,
      "ĠHaz": 1950,
      "Ġdile": 1951,
      "ova": 1952,
      "ton": 1953,
      "Ġkurum": 1954,
      "ĠBakanlÄ±ÄŁÄ±": 1955,
      "akip": 1956,
      "ayÄ±p": 1957,
      "su": 1958,
      "ĠYor": 1959,
      "Ġmeydan": 1960,
      "unan": 1961,
      "elen": 1962,
      "ĠyoÄŁun": 1963,
      "Ġerkek": 1964,
      "mesini": 1965,
      "Ġkayde": 1966,
      "Ġbab": 1967,
      "ĠvardÄ±r": 1968,
      "ĠÄ°lk": 1969,
      "eder": 1970,
      "Ġac": 1971,
      "Ġfutbolcu": 1972,
      "ĠOn": 1973,
      "spor": 1974,
      "Ġsey": 1975,
      "Ġkonusu": 1976,
      "ĠÃ¶zellikle": 1977,
      "ĠdeÄŁiÅŁtir": 1978,
      "Ä°Z": 1979,
      "ĠsÄ±ra": 1980,
      "ĠiliÅŁkin": 1981,
      "ĠaÃ§Ä±klamada": 1982,
      "malarÄ±": 1983,
      "Ġanda": 1984,
      "leriyle": 1985,
      "Ġincel": 1986,
      "AM": 1987,
      "ijing": 1988,
      "Ġuygulam": 1989,
      "Ä±ntÄ±": 1990,
      "aÅŁa": 1991,
      "ladÄ±ÄŁÄ±": 1992,
      "ĠÃ¶de": 1993,
      "Ġkontrol": 1994,
      "tay": 1995,
      "Ġzar": 1996,
      "ag": 1997,
      "vur": 1998,
      "gÄ±n": 1999,
      "eyin": 2000,
      "Ã¶ren": 2001,
      "ektr": 2002,
      "Ġkaydetti": 2003,
      "AÅŀ": 2004,
      "ĠyarÄ±ÅŁ": 2005,
      "ari": 2006,
      "ĠÅŁeh": 2007,
      "ola": 2008,
      "Ġhes": 2009,
      "Ġdiyor": 2010,
      "ula": 2011,
      "Ġpek": 2012,
      "ati": 2013,
      "Ġkamu": 2014,
      "Ġolsun": 2015,
      "Ġfin": 2016,
      "ort": 2017,
      "Ġhemen": 2018,
      "Ġsosyal": 2019,
      "Ġkut": 2020,
      "ser": 2021,
      "Ġtelefon": 2022,
      "ĠÃ¼retim": 2023,
      "Ġseb": 2024,
      "ustafa": 2025,
      "ÄŁiniz": 2026,
      "edav": 2027,
      "Ġ197": 2028,
      "Ġuzak": 2029,
      "ast": 2030,
      "ĠbaÄŁlan": 2031,
      "ĠAf": 2032,
      "ĠMart": 2033,
      "miÅŁti": 2034,
      "Ġdevr": 2035,
      "eÅŁik": 2036,
      "Ġonun": 2037,
      "hal": 2038,
      "ÄŁiz": 2039,
      "esiyle": 2040,
      "Ġnokt": 2041,
      "elere": 2042,
      "iÅŁleri": 2043,
      "ĠCumhurbaÅŁ": 2044,
      "Ġotom": 2045,
      "ÅŁam": 2046,
      "dam": 2047,
      "Ġgi": 2048,
      "ĠÃĸzel": 2049,
      "Ġgol": 2050,
      "Ġj": 2051,
      "ĠÄ°ngiliz": 2052,
      "ON": 2053,
      "Ä±yÄ±": 2054,
      "Ġbilgi": 2055,
      "Ġtasar": 2056,
      "esel": 2057,
      "ĠfÄ±r": 2058,
      "ĠgeniÅŁ": 2059,
      "lÃ¼ÄŁ": 2060,
      "Ġboyunca": 2061,
      "ĠÃ¼rÃ¼n": 2062,
      "ĠDemir": 2063,
      "ĠYeni": 2064,
      "ĠÃ¶rgÃ¼t": 2065,
      "day": 2066,
      "ĠyaÅŁÄ±ndaki": 2067,
      "Ã¼mÃ¼": 2068,
      "Ġsit": 2069,
      "ĠDaha": 2070,
      "ĠÃ¼lke": 2071,
      "Ġfot": 2072,
      "oh": 2073,
      "ow": 2074,
      "AD": 2075,
      "ĠBÃ¼yÃ¼kÅŁehir": 2076,
      "ĠkarÅŁÄ±laÅŁ": 2077,
      "kÃ¼n": 2078,
      "ĠinÅŁ": 2079,
      "ĠOk": 2080,
      "ĠboÅŁ": 2081,
      "Ġtat": 2082,
      "Ġburada": 2083,
      "etr": 2084,
      "ant": 2085,
      "Ġpat": 2086,
      "Ġbirbir": 2087,
      "emiz": 2088,
      "Ġtemsil": 2089,
      "mÄ±ÅŁtÄ±": 2090,
      "Ġper": 2091,
      "ĠBar": 2092,
      "ii": 2093,
      "ĠbaÅŁvur": 2094,
      "ĠÃ§eÅŁitli": 2095,
      "letvekili": 2096,
      "ĠMÃ¼dÃ¼rlÃ¼ÄŁÃ¼": 2097,
      "ĠettiÄŁi": 2098,
      "dÃ¼ÄŁÃ¼": 2099,
      "Ġtekrar": 2100,
      "Ä±rken": 2101,
      "ĠaÃ§Ä±l": 2102,
      "izyon": 2103,
      "dim": 2104,
      "icaret": 2105,
      "ĠKor": 2106,
      "Ġrek": 2107,
      "Ġsiyasi": 2108,
      "ĠbasÄ±n": 2109,
      "aliyet": 2110,
      "ilerine": 2111,
      "Ġuygun": 2112,
      "ĠverdiÄŁi": 2113,
      "Ġfir": 2114,
      "Ġoluyor": 2115,
      "ĠdÄ±ÅŁÄ±nda": 2116,
      "Ġsoru": 2117,
      "ĠgeliÅŁtir": 2118,
      "ĠbaÅŁlat": 2119,
      "ĠMustafa": 2120,
      "gÃ¼r": 2121,
      "Ġyor": 2122,
      "ĠYardÄ±m": 2123,
      "bi": 2124,
      "ĠkardeÅŁ": 2125,
      "tÄ±ÄŁÄ±nÄ±": 2126,
      "Ġzamanda": 2127,
      "Ġolabilir": 2128,
      "Ġbilim": 2129,
      "ĠayrÄ±": 2130,
      "usal": 2131,
      "madÄ±": 2132,
      "sÄ±n": 2133,
      "elerini": 2134,
      "ocu": 2135,
      "ĠÃ§iz": 2136,
      "Ġmer": 2137,
      "Ġhan": 2138,
      "Ġboz": 2139,
      "luÄŁu": 2140,
      "Ġamac": 2141,
      "yÄ±l": 2142,
      "Ġberaber": 2143,
      "Ã¼cÃ¼": 2144,
      "Ġgez": 2145,
      "alarda": 2146,
      "Ã¼ncÃ¼": 2147,
      "lin": 2148,
      "Ġbilm": 2149,
      "ĠarasÄ±ndaki": 2150,
      "ĠkiÅŁinin": 2151,
      "ilerinin": 2152,
      "Ġgrub": 2153,
      "Ġtemel": 2154,
      "Ġkalan": 2155,
      "ĠkuruluÅŁ": 2156,
      "Ġsar": 2157,
      "ĠdÃ¼zenlenen": 2158,
      "muz": 2159,
      "niyet": 2160,
      "elerde": 2161,
      "Ġyazar": 2162,
      "ĠyaptÄ±k": 2163,
      "Ġgelecek": 2164,
      "Ġkolay": 2165,
      "TÃ¼rk": 2166,
      "alÄ±m": 2167,
      "Ġyani": 2168,
      "ĠBe": 2169,
      "ĠÅŁekl": 2170,
      "lÄ±yor": 2171,
      "Ġcin": 2172,
      "Ä±sÄ±ndan": 2173,
      "EM": 2174,
      "Ġoperasyon": 2175,
      "Ġelde": 2176,
      "ĠgerÃ§ekleÅŁ": 2177,
      "eÅŁiktaÅŁ": 2178,
      "Ġbana": 2179,
      "Ġcid": 2180,
      "ĠHay": 2181,
      "Ġbay": 2182,
      "ĠÅŁimdi": 2183,
      "Ġederek": 2184,
      "ilerini": 2185,
      "Ġele": 2186,
      "any": 2187,
      "ĠyapÄ±lacak": 2188,
      "lek": 2189,
      "ED": 2190,
      "ĠaldÄ±ÄŁÄ±": 2191,
      "Ã¼mkÃ¼n": 2192,
      "ĠKr": 2193,
      "Ġteknik": 2194,
      "tep": 2195,
      "piyat": 2196,
      "uvvet": 2197,
      "kaÃ§": 2198,
      "ift": 2199,
      "ĠÅŁehir": 2200,
      "talya": 2201,
      "Ġtav": 2202,
      "ĠgeÃ§ti": 2203,
      "Ġpazar": 2204,
      "ĠyabancÄ±": 2205,
      "ala": 2206,
      "ĠÃĩÃ¼nkÃ¼": 2207,
      "ĠMuh": 2208,
      "ost": 2209,
      "ĠEylÃ¼l": 2210,
      "Ġyapmak": 2211,
      "Ġkesin": 2212,
      "Ġ100": 2213,
      "Ġsak": 2214,
      "Ġ196": 2215,
      "Ġyetkil": 2216,
      "ĠparÃ§": 2217,
      "ĠgerektiÄŁini": 2218,
      "Ġdes": 2219,
      "Ġner": 2220,
      "ĠÃ¶ner": 2221,
      "eÄŁin": 2222,
      "unuz": 2223,
      "ayacak": 2224,
      "ĠoÄŁ": 2225,
      "Ä±lÄ±yor": 2226,
      "iran": 2227,
      "Ġkitap": 2228,
      "Ġolmayan": 2229,
      "Ġekonomik": 2230,
      "mada": 2231,
      "meden": 2232,
      "Ġorgan": 2233,
      "ÄŁinde": 2234,
      "ĠÃ¼niversit": 2235,
      "Ġrapor": 2236,
      "ĠyÄ±llÄ±k": 2237,
      "kenin": 2238,
      "elerinin": 2239,
      "dÃ¼k": 2240,
      "Ġdemokr": 2241,
      "mesine": 2242,
      "ĠAz": 2243,
      "esinden": 2244,
      "eÄŁi": 2245,
      "son": 2246,
      "ĠÅŁunlarÄ±": 2247,
      "Ġtr": 2248,
      "Ġkamp": 2249,
      "Ġtedav": 2250,
      "lif": 2251,
      "ĠeleÅŁtir": 2252,
      "ĠOsmanlÄ±": 2253,
      "ĠfotoÄŁraf": 2254,
      "ileceÄŁini": 2255,
      "ĠKad": 2256,
      "ĠsatÄ±ÅŁ": 2257,
      "Ġbeklen": 2258,
      "ĠHav": 2259,
      "ĠmÃ¼mkÃ¼n": 2260,
      "ĠayrÄ±ca": 2261,
      "Ġhiss": 2262,
      "Ġ0": 2263,
      "Ġhukuk": 2264,
      "ĠgÃ¶tÃ¼r": 2265,
      "ĠKal": 2266,
      "ĠolmadÄ±ÄŁÄ±nÄ±": 2267,
      "oloji": 2268,
      "ĠBr": 2269,
      "Ġpiyas": 2270,
      "malÄ±": 2271,
      "Ġmen": 2272,
      "ĠuÄŁr": 2273,
      "Ġsonunda": 2274,
      "ĠtanÄ±": 2275,
      "Ġ50": 2276,
      "Ġkaybet": 2277,
      "Ġhava": 2278,
      "ici": 2279,
      "latan": 2280,
      "efer": 2281,
      "Ã¼len": 2282,
      "yÄ±": 2283,
      "ĠProf": 2284,
      "Ġhastan": 2285,
      "enerbah": 2286,
      "ĠyÃ¼rÃ¼t": 2287,
      "Ġyat": 2288,
      "Ġarada": 2289,
      "ĠhÃ¼kÃ¼met": 2290,
      "ĠkararÄ±": 2291,
      "UR": 2292,
      "ĠdÃ¶nemde": 2293,
      "Ġedecek": 2294,
      "ĠÅŀubat": 2295,
      "ileceÄŁi": 2296,
      "lardÄ±r": 2297,
      "ĠayÄ±nda": 2298,
      "Ġetkin": 2299,
      "Ġsonucu": 2300,
      "adaki": 2301,
      "Ġgiy": 2302,
      "Ġonu": 2303,
      "ĠKÃ¼r": 2304,
      "uldu": 2305,
      "Ġyal": 2306,
      "Ġcev": 2307,
      "par": 2308,
      "ĠBank": 2309,
      "Ġadet": 2310,
      "Ġfaaliyet": 2311,
      "ĠKul": 2312,
      "ĠEv": 2313,
      "Ġmas": 2314,
      "ĠSh": 2315,
      "ĠAmerikalÄ±": 2316,
      "Ä°K": 2317,
      "Ġkonuda": 2318,
      "luÄŁ": 2319,
      "Ġbiraz": 2320,
      "50": 2321,
      "Ġkork": 2322,
      "ĠTr": 2323,
      "Ġann": 2324,
      "emal": 2325,
      "ĠRo": 2326,
      "ĠvardÄ±": 2327,
      "ĠgÃ¼venlik": 2328,
      "layacak": 2329,
      "akta": 2330,
      "adolu": 2331,
      "akk": 2332,
      "nÄ±z": 2333,
      "Ġst": 2334,
      "Ġgerekiyor": 2335,
      "ĠÃ¶lÃ¼m": 2336,
      "miyor": 2337,
      "ĠYunan": 2338,
      "Ġdayan": 2339,
      "ĠpaylaÅŁ": 2340,
      "Ġsiyaset": 2341,
      "Ä±lÄ±ÄŁÄ±": 2342,
      "erli": 2343,
      "Ġverildi": 2344,
      "Ġod": 2345,
      "abÄ±": 2346,
      "ĠartÄ±r": 2347,
      "ĠRusya": 2348,
      "lemek": 2349,
      "Ġmeydana": 2350,
      "ĠHan": 2351,
      "ĠtÃ¼k": 2352,
      "ĠUz": 2353,
      "Ġtutuk": 2354,
      "ĠyapÄ±": 2355,
      "ternet": 2356,
      "ĠAhmet": 2357,
      "ĠuluslararasÄ±": 2358,
      "Ġgereken": 2359,
      "IR": 2360,
      "nik": 2361,
      "Ä°M": 2362,
      "Ġeylem": 2363,
      "ĠyaÅŁayan": 2364,
      "ĠtanÄ±m": 2365,
      "ĠGeÃ§": 2366,
      "Ġsahibi": 2367,
      "sat": 2368,
      "ĠAlmanya": 2369,
      "Ġtarihinde": 2370,
      "Ġgider": 2371,
      "Ġmez": 2372,
      "ĠdolayÄ±": 2373,
      "ĠMayÄ±s": 2374,
      "gesi": 2375,
      "ĠsÄ±rada": 2376,
      "ĠÃ¶ÄŁret": 2377,
      "aÄŁa": 2378,
      "Ã¼lt": 2379,
      "ĠMÃ¼dÃ¼rÃ¼": 2380,
      "aÅŁÄ±": 2381,
      "Ä±zÄ±": 2382,
      "ĠEÄŁitim": 2383,
      "asÄ±yla": 2384,
      "ĠÃ§Ã¶zÃ¼m": 2385,
      "ĠolacaÄŁ": 2386,
      "ĠmÃ¼cadele": 2387,
      "Ġmod": 2388,
      "pit": 2389,
      "ĠMilli": 2390,
      "asyonu": 2391,
      "Ġtarihi": 2392,
      "ba": 2393,
      "Ġnedenle": 2394,
      "ĠyanÄ±t": 2395,
      "Ġrol": 2396,
      "ĠÃ§alÄ±ÅŁma": 2397,
      "Ġlira": 2398,
      "ĠHar": 2399,
      "ĠbaÅŁlam": 2400,
      "ĠmÃ¼da": 2401,
      "30": 2402,
      "Ġders": 2403,
      "Ġab": 2404,
      "ĠadÄ±m": 2405,
      "for": 2406,
      "Ġuygulan": 2407,
      "ilmek": 2408,
      "inc": 2409,
      "ĠSu": 2410,
      "Ġverilen": 2411,
      "dÄ±klarÄ±": 2412,
      "ĠÃ¼nlÃ¼": 2413,
      "Ä±nÄ±f": 2414,
      "Ġolup": 2415,
      "Ġyapar": 2416,
      "ĠTak": 2417,
      "ĠyapÄ±yor": 2418,
      "Ġmik": 2419,
      "Ġyana": 2420,
      "Ġbelediye": 2421,
      "ĠKas": 2422,
      "hangi": 2423,
      "Ġizin": 2424,
      "osu": 2425,
      "ile": 2426,
      "lÄ±ÅŁ": 2427,
      "Ġorta": 2428,
      "ĠBeÅŁiktaÅŁ": 2429,
      "menin": 2430,
      "ĠamaÃ§": 2431,
      "Ġkir": 2432,
      "Ġdahil": 2433,
      "Ġkaf": 2434,
      "Ġmadde": 2435,
      "Ġiler": 2436,
      "Ġdal": 2437,
      "Ġkas": 2438,
      "ĠMan": 2439,
      "isine": 2440,
      "Ġbakan": 2441,
      "ga": 2442,
      "asÄ±ndan": 2443,
      "liyor": 2444,
      "Ġgeliyor": 2445,
      "ĠSaÄŁ": 2446,
      "Ġzaten": 2447,
      "ĠPart": 2448,
      "ĠsayÄ±da": 2449,
      "Ġhalinde": 2450,
      "mayan": 2451,
      "Ġdiz": 2452,
      "Ġzarar": 2453,
      "Ġof": 2454,
      "ĠdÃ¶rt": 2455,
      "iddet": 2456,
      "Ä±rÄ±": 2457,
      "ĠiÅŁaret": 2458,
      "ĠkÄ±y": 2459,
      "Ġolsa": 2460,
      "Ġyurt": 2461,
      "Ġ%": 2462,
      "ĠHastan": 2463,
      "enerbahÃ§e": 2464,
      "ĠbiÃ§": 2465,
      "AB": 2466,
      "ĠBirliÄŁi": 2467,
      "Ġelektr": 2468,
      "evi": 2469,
      "ĠÃ§ocu": 2470,
      "diklerini": 2471,
      "Ġtalep": 2472,
      "ere": 2473,
      "Ġana": 2474,
      "ej": 2475,
      "Ġortam": 2476,
      "ĠnÃ¼f": 2477,
      "AP": 2478,
      "ĠyÃ¼zyÄ±l": 2479,
      "LER": 2480,
      "Ġgece": 2481,
      "ia": 2482,
      "Ġmo": 2483,
      "Ġceza": 2484,
      "ĠiÃ§erisinde": 2485,
      "ard": 2486,
      "ĠMerkezi": 2487,
      "Ä°S": 2488,
      "Ġbeni": 2489,
      "cih": 2490,
      "ĠmÃ¼zik": 2491,
      "Ġordu": 2492,
      "ĠYap": 2493,
      "ht": 2494,
      "Ġgec": 2495,
      "ĠmaÄŁ": 2496,
      "rik": 2497,
      "Ġisteyen": 2498,
      "meyen": 2499,
      "Ġkapat": 2500,
      "Ġaskeri": 2501,
      "dÄ±klarÄ±nÄ±": 2502,
      "ĠHol": 2503,
      "mey": 2504,
      "Ġciddi": 2505,
      "ĠalÄ±nan": 2506,
      "ĠSel": 2507,
      "alara": 2508,
      "Ä±da": 2509,
      "evizyon": 2510,
      "ĠbaÅŁarÄ±lÄ±": 2511,
      "Ġko": 2512,
      "lÄ±nda": 2513,
      "Ã¼ler": 2514,
      "atÃ¼rk": 2515,
      "ĠÄ°Ã§": 2516,
      "Ġ194": 2517,
      "ime": 2518,
      "ĠbaÅŁÄ±na": 2519,
      "Ġderece": 2520,
      "liÄŁini": 2521,
      "Ġ21": 2522,
      "diÄŁini": 2523,
      "ĠAnadolu": 2524,
      "Ġit": 2525,
      "Ġdakik": 2526,
      "meleri": 2527,
      "isan": 2528,
      "ĠÃ¶nceki": 2529,
      "alarÄ±nÄ±n": 2530,
      "olojik": 2531,
      "Ġanlay": 2532,
      "taj": 2533,
      "ĠSar": 2534,
      "onu": 2535,
      "anlÄ±": 2536,
      "eng": 2537,
      "ĠyaptÄ±ÄŁ": 2538,
      "ĠÅŁampiyon": 2539,
      "ĠâĢĻ": 2540,
      "gul": 2541,
      "ĠIn": 2542,
      "ĠÃĸr": 2543,
      "Ġbelli": 2544,
      "edeki": 2545,
      "ĠSal": 2546,
      "Ġbulunuyor": 2547,
      "Ġaktar": 2548,
      "Ġ24": 2549,
      "Ä±nca": 2550,
      "asaray": 2551,
      "ayÄ±t": 2552,
      "alatasaray": 2553,
      "Ġitibaren": 2554,
      "ĠCumhurbaÅŁkanÄ±": 2555,
      "Ġkayb": 2556,
      "Ã¼yorum": 2557,
      "Ġtespit": 2558,
      "iliÄŁi": 2559,
      "Ġdavran": 2560,
      "ĠkÃ¶tÃ¼": 2561,
      "ekk": 2562,
      "oman": 2563,
      "Ġettik": 2564,
      "ĠÃ¶nÃ¼nde": 2565,
      "Ä±ldÄ±ÄŁÄ±": 2566,
      "ĠbirkaÃ§": 2567,
      "ĠYardÄ±mcÄ±sÄ±": 2568,
      "ĠÃ§arp": 2569,
      "ayi": 2570,
      "ĠYÃ¶netim": 2571,
      "ĠdÃ¼nyanÄ±n": 2572,
      "ĠGÃ¶k": 2573,
      "ilem": 2574,
      "Ġtercih": 2575,
      "Ġolab": 2576,
      "lÃ¼m": 2577,
      "eceÄŁi": 2578,
      "Ġyemek": 2579,
      "ĠÃ¼lkenin": 2580,
      "ĠsÄ±nÄ±f": 2581,
      "ĠaÃ§Ä±sÄ±ndan": 2582,
      "Ġbelirtildi": 2583,
      "ahall": 2584,
      "ĠdeÄŁildir": 2585,
      "ĠÃ¼c": 2586,
      "bay": 2587,
      "eor": 2588,
      "rail": 2589,
      "cut": 2590,
      "ĠakÅŁam": 2591,
      "Ġbank": 2592,
      "Ġteklif": 2593,
      "utan": 2594,
      "ĠadÄ±na": 2595,
      "Ġtoprak": 2596,
      "âĢ¦": 2597,
      "ĠiÅŁbir": 2598,
      "alarÄ±nÄ±": 2599,
      "Ġpuan": 2600,
      "Ġdeniz": 2601,
      "Ġeser": 2602,
      "ĠBeijing": 2603,
      "Ġlider": 2604,
      "ĠGenÃ§": 2605,
      "ĠBun": 2606,
      "Ġhaline": 2607,
      "IK": 2608,
      "liler": 2609,
      "lerce": 2610,
      "tere": 2611,
      "Ġnit": 2612,
      "Ġherhangi": 2613,
      "ĠOcak": 2614,
      "'s": 2615,
      "ĠsÄ±cak": 2616,
      "Ġiddia": 2617,
      "Ġmark": 2618,
      "ĠTemmuz": 2619,
      "ĠalÄ±ÅŁ": 2620,
      "Ġotomobil": 2621,
      "ĠÃ¶dÃ¼l": 2622,
      "ĠHaziran": 2623,
      "med": 2624,
      "zÄ±m": 2625,
      "ĠTay": 2626,
      "ĠsÃ¼rec": 2627,
      "Ġfor": 2628,
      "ĠAKP": 2629,
      "dikleri": 2630,
      "Ġinsanlar": 2631,
      "sen": 2632,
      "ĠTer": 2633,
      "ÃľR": 2634,
      "ĠyaÅŁanan": 2635,
      "Ġyandan": 2636,
      "ĠsoruÅŁtur": 2637,
      "ĠDav": 2638,
      "neÄŁi": 2639,
      "ĠÃ¶yle": 2640,
      "ĠamacÄ±yla": 2641,
      "inÃ§": 2642,
      "ĠyalnÄ±z": 2643,
      "gr": 2644,
      "gen": 2645,
      "ĠdaÄŁ": 2646,
      "Ġtrans": 2647,
      "ĠX": 2648,
      "Ġsem": 2649,
      "ĠBÃ¶yle": 2650,
      "ĠÃ¶rnek": 2651,
      "aka": 2652,
      "ĠOlim": 2653,
      "anan": 2654,
      "ĠbaÅŁlayan": 2655,
      "Ġener": 2656,
      "ĠdeÄŁiÅŁiklik": 2657,
      "Ä±sÄ±nÄ±": 2658,
      "ĠFransa": 2659,
      "ĠFransÄ±z": 2660,
      "ĠyanlÄ±ÅŁ": 2661,
      "Ġlis": 2662,
      "caÄŁÄ±": 2663,
      "Ġikti": 2664,
      "ĠOt": 2665,
      "ĠyanÄ±nda": 2666,
      "ĠLi": 2667,
      "nden": 2668,
      "ĠBor": 2669,
      "ĠÅŁeklinde": 2670,
      "TL": 2671,
      "Ġmesaj": 2672,
      "asi": 2673,
      "Ġedi": 2674,
      "ĠÄ°ran": 2675,
      "Ġileri": 2676,
      "luluk": 2677,
      "IL": 2678,
      "ĠiÅŁlet": 2679,
      "Ġarac": 2680,
      "Ġdair": 2681,
      "dÄ±rÄ±m": 2682,
      "ĠkatÄ±ldÄ±": 2683,
      "ĠbeÅŁ": 2684,
      "lisi": 2685,
      "uya": 2686,
      "ĠgiriÅŁ": 2687,
      "masÄ±yla": 2688,
      "Ġindir": 2689,
      "Ġistiyor": 2690,
      "ĠkapsamÄ±nda": 2691,
      "isk": 2692,
      "Ġ22": 2693,
      "Ġ40": 2694,
      "Ġilet": 2695,
      "Ġhale": 2696,
      "ĠYÄ±lmaz": 2697,
      "ĠÅŁart": 2698,
      "Ġe": 2699,
      "Ġalb": 2700,
      "yo": 2701,
      "ĠÃ¶lÃ§": 2702,
      "ĠÅŁiddet": 2703,
      "ĠtÃ¶ren": 2704,
      "Ġpr": 2705,
      "ilerek": 2706,
      "ĠÃ§at": 2707,
      ").": 2708,
      "Ġbize": 2709,
      "oktor": 2710,
      "ĠÃ¶ne": 2711,
      "Ġtakip": 2712,
      "ĠÄ°slam": 2713,
      "ĠmÃ¼cadel": 2714,
      "imde": 2715,
      "Ġyarar": 2716,
      "Ġcam": 2717,
      "ÄŁust": 2718,
      "ĠFenerbahÃ§e": 2719,
      "Ġhap": 2720,
      "ĠaltÄ±na": 2721,
      "cÄ±lÄ±k": 2722,
      "eceÄŁini": 2723,
      "air": 2724,
      "ĠyÄ±lÄ±": 2725,
      "alam": 2726,
      "ĠdoÄŁr": 2727,
      "ĠYÃ¼k": 2728,
      "ĠÃ¼zerinden": 2729,
      "ĠAtatÃ¼rk": 2730,
      "elerine": 2731,
      "ĠbaÄŁÄ±m": 2732,
      "ayla": 2733,
      "Ġkarak": 2734,
      "ator": 2735,
      "ĠkaldÄ±": 2736,
      "emi": 2737,
      "cusu": 2738,
      "ivil": 2739,
      "ĠGÃ¶r": 2740,
      "ĠalÄ±yor": 2741,
      "ansÄ±": 2742,
      "Ġihr": 2743,
      "Ġdok": 2744,
      "Ġuyar": 2745,
      "ĠMeclis": 2746,
      "ĠgeÃ§miÅŁ": 2747,
      "teki": 2748,
      "Ġberi": 2749,
      "ĠdÃ¼zey": 2750,
      "ÄŁustos": 2751,
      "Ã¡": 2752,
      "ĠSpor": 2753,
      "ĠkayÄ±t": 2754,
      "ĠsaÄŁlan": 2755,
      "dÃ¼ÄŁÃ¼nÃ¼": 2756,
      "ĠkÄ±sm": 2757,
      "ĠYaÅŁ": 2758,
      "BM": 2759,
      "zÄ±": 2760,
      "Ġic": 2761,
      "ĠÃ§ift": 2762,
      "elerinde": 2763,
      "ud": 2764,
      "ĠyerleÅŁ": 2765,
      "Ġolmam": 2766,
      "Ġunut": 2767,
      "Ġ,": 2768,
      "imizin": 2769,
      "iydi": 2770,
      "ĠOlimpiyat": 2771,
      "Ġgal": 2772,
      "ĠsayÄ±sÄ±": 2773,
      "Ġbuna": 2774,
      "sanÄ±z": 2775,
      "gar": 2776,
      "Ġzorunda": 2777,
      "ĠBal": 2778,
      "ĠAÄŁustos": 2779,
      "ĠÃ¶zgÃ¼r": 2780,
      "Ġhesap": 2781,
      "masÄ±nda": 2782,
      "Ġdurumda": 2783,
      "ullah": 2784,
      "taki": 2785,
      "ĠGÃ¼ven": 2786,
      "UN": 2787,
      "Ä±ÅŁÄ±k": 2788,
      "ĠaÃ§Ä±kladÄ±": 2789,
      "ĠÃĩok": 2790,
      "Ġmek": 2791,
      "amam": 2792,
      "Ġmerkezi": 2793,
      "Ġyapacak": 2794,
      "ĠRes": 2795,
      "ĠyÄ±k": 2796,
      "Ġsol": 2797,
      "ĠDoÄŁ": 2798,
      "lÄ±ÄŁÄ±nÄ±": 2799,
      "lediÄŁi": 2800,
      "ĠdoÄŁal": 2801,
      "Ġhayvan": 2802,
      "onya": 2803,
      "eyle": 2804,
      "gun": 2805,
      "ĠartÄ±ÅŁ": 2806,
      "ĠyÃ¶ntem": 2807,
      "ĠKarÅŁ": 2808,
      "ation": 2809,
      "Ã¼le": 2810,
      "Ġkendisine": 2811,
      "Ġgerekir": 2812,
      "abilecek": 2813,
      "ndan": 2814,
      "ĠtÃ¼rk": 2815,
      "Ġprot": 2816,
      "Ġkah": 2817,
      "ĠateÅŁ": 2818,
      "ĠKemal": 2819,
      "ĠÃľl": 2820,
      "ĠAÃ§": 2821,
      "eÅŁil": 2822,
      "tÄ±n": 2823,
      "ĠMahkem": 2824,
      "Ġgetirdi": 2825,
      "ĠÃ§Ã¼nkÃ¼": 2826,
      "ĠAmerika": 2827,
      "ĠGÃ¼ney": 2828,
      "ĠsÃ¶yleyen": 2829,
      "ĠÄ°m": 2830,
      "adem": 2831,
      "ĠGalatasaray": 2832,
      "tiler": 2833,
      "ĠoluÅŁan": 2834,
      "Ä±sÄ±nÄ±n": 2835,
      "lulu": 2836,
      "anÄ±ÅŁ": 2837,
      "ĠkuÅŁ": 2838,
      "ĠkatkÄ±": 2839,
      "Ä±sÄ±na": 2840,
      "Ġmed": 2841,
      "Ġolmaz": 2842,
      "Ġsonuc": 2843,
      "Ã¼yle": 2844,
      "rek": 2845,
      "yla": 2846,
      "enÃ¼z": 2847,
      "Ġw": 2848,
      "Ġara": 2849,
      "Ġparti": 2850,
      "best": 2851,
      "ĠsaldÄ±rÄ±": 2852,
      "ĠKaz": 2853,
      "Ġkurtar": 2854,
      "imin": 2855,
      "ĠVal": 2856,
      "ĠbaÅŁÄ±nda": 2857,
      "ucu": 2858,
      "ĠyapÄ±ldÄ±": 2859,
      "Ġsoy": 2860,
      "Ġfik": 2861,
      "Ġyaralan": 2862,
      "ĠAÄŁ": 2863,
      "ĠBer": 2864,
      "Ġip": 2865,
      "ond": 2866,
      "Ġdon": 2867,
      "Ġkayded": 2868,
      "ve": 2869,
      "ĠBugÃ¼n": 2870,
      "yip": 2871,
      "Ġyorum": 2872,
      "sak": 2873,
      "ĠHÃ¼s": 2874,
      "ĠtÃ¼rlÃ¼": 2875,
      "Ġverilm": 2876,
      "Ġbildirdi": 2877,
      "ĠyÄ±ldÄ±r": 2878,
      "ĠyÃ¶netic": 2879,
      "ĠKÄ±r": 2880,
      "ĠYÄ±ldÄ±rÄ±m": 2881,
      "TÃ¼rkiye": 2882,
      "ĠlazÄ±m": 2883,
      "ĠSt": 2884,
      "ĠHalk": 2885,
      "sÄ±nÄ±z": 2886,
      "Ġiy": 2887,
      "ĠÄ°srail": 2888,
      "ĠsÃ¼rekli": 2889,
      "ou": 2890,
      "ĠÄ±s": 2891,
      "Ġ192": 2892,
      "40": 2893,
      "ĠEkim": 2894,
      "ĠTan": 2895,
      "Ġona": 2896,
      "Ġsabah": 2897,
      "anlar": 2898,
      "ektedir": 2899,
      "UL": 2900,
      "Ġmillet": 2901,
      "ÄŁin": 2902,
      "Ġinternet": 2903,
      "ĠUy": 2904,
      "mÄ±yor": 2905,
      "Ġresmi": 2906,
      "Ġedece": 2907,
      "ĠMal": 2908,
      "Ġbom": 2909,
      "10": 2910,
      "ĠCez": 2911,
      "Ġruh": 2912,
      "ĠÄ°ngiltere": 2913,
      "ĠKÃ¼ltÃ¼r": 2914,
      "ĠdÃ¶neminde": 2915,
      "ĠyaptÄ±r": 2916,
      "ormal": 2917,
      "ĠDÄ±ÅŁiÅŁleri": 2918,
      "ĠGel": 2919,
      "Ġgerekli": 2920,
      "Ä±lÄ±Ã§": 2921,
      "Ġmevcut": 2922,
      "Ġyerde": 2923,
      "ĠKasÄ±m": 2924,
      "dÄ±ÄŁÄ±mÄ±z": 2925,
      "iyatro": 2926,
      "ĠKoca": 2927,
      "atÃ¶r": 2928,
      "Ġ23": 2929,
      "ĠkiÅŁiler": 2930,
      "ĠdaÄŁÄ±": 2931,
      "DE": 2932,
      "ĠChina": 2933,
      "Ã§esi": 2934,
      "ĠGÃ¼r": 2935,
      "Ġlist": 2936,
      "Ġhatta": 2937,
      "ayasa": 2938,
      "Ġdeste": 2939,
      "ĠGÃ¼nlÃ¼k": 2940,
      "Ġalmak": 2941,
      "ĠGazet": 2942,
      "iyeti": 2943,
      "ĠVe": 2944,
      "dal": 2945,
      "ĠsonrasÄ±": 2946,
      "ĠMur": 2947,
      "Ġkalk": 2948,
      "Ä°T": 2949,
      "masÄ±ndan": 2950,
      "Ã¶v": 2951,
      "ĠyÄ±ldÄ±": 2952,
      "ĠNisan": 2953,
      "zon": 2954,
      "uvar": 2955,
      "adde": 2956,
      "Ġvurgu": 2957,
      "ĠtaÅŁÄ±y": 2958,
      "ĠÃ¼cret": 2959,
      "erson": 2960,
      "ahim": 2961,
      "ĠHat": 2962,
      "isay": 2963,
      "Ġum": 2964,
      "DA": 2965,
      "ĠkoÅŁul": 2966,
      "Ġsek": 2967,
      "ĠyÄ±lda": 2968,
      "alarÄ±na": 2969,
      "Ġrak": 2970,
      "ĠBurcu": 2971,
      "Ġdemek": 2972,
      "ĠsÃ¼reÃ§": 2973,
      "meni": 2974,
      "ĠAralÄ±k": 2975,
      "ĠFat": 2976,
      "meli": 2977,
      "engin": 2978,
      "lilik": 2979,
      "Ġedeb": 2980,
      "ĠSen": 2981,
      "usun": 2982,
      "Ã¼ÄŁ": 2983,
      "ĠgÃ¼Ã§lÃ¼": 2984,
      "Ġkadro": 2985,
      "ekkÃ¼r": 2986,
      "tÃ¶r": 2987,
      "ĠBas": 2988,
      "ĠbaÅŁarÄ±": 2989,
      "ayÄ±sÄ±yla": 2990,
      "ĠDur": 2991,
      "Ġ195": 2992,
      "Ġgiz": 2993,
      "Ġdost": 2994,
      "emen": 2995,
      "Ġ193": 2996,
      "eyim": 2997,
      "ildiÄŁi": 2998,
      "ĠgÃ¶rÃ¼ntÃ¼": 2999,
      "ke": 3000,
      "ĠaÃ§Ä±": 3001,
      "ĠtoplantÄ±s": 3002,
      "Ġdiyen": 3003,
      "BMM": 3004,
      "ĠsÃ¶yl": 3005,
      "itesi": 3006,
      "Ġister": 3007,
      "Ġtraf": 3008,
      "Ġyere": 3009,
      "ĠiÅŁÃ§": 3010,
      "ker": 3011,
      "IM": 3012,
      "Ġaraya": 3013,
      "ĠÃ¼yesi": 3014,
      "mal": 3015,
      "dÄ±ÄŁÄ±m": 3016,
      "ĠBankasÄ±": 3017,
      "ĠÅŀimdi": 3018,
      "Ġgazetec": 3019,
      "ĠHak": 3020,
      "ĠKÄ±z": 3021,
      "ĠsÃ¼ren": 3022,
      "Ġdavet": 3023,
      "Ġrenk": 3024,
      "ĠYak": 3025,
      "larca": 3026,
      "ĠkarÅŁÄ±sÄ±nda": 3027,
      "ciler": 3028,
      "Ġnet": 3029,
      "be": 3030,
      "ĠCan": 3031,
      "Ġduyur": 3032,
      "Ġbildirildi": 3033,
      "Ġtelevizyon": 3034,
      "ĠUluslararasÄ±": 3035,
      "ĠyÄ±llarda": 3036,
      "Ġgitti": 3037,
      "Ġtehlik": 3038,
      "ĠKÃ¼rt": 3039,
      "Ġyerel": 3040,
      "ĠÅŀah": 3041,
      "gÃ¶r": 3042,
      "dÄ±ÄŁÄ±nda": 3043,
      "Ġtamamen": 3044,
      "parator": 3045,
      "Ä±ÅŁtÄ±": 3046,
      "ĠÅŁeyler": 3047,
      "Ġyav": 3048,
      "abzon": 3049,
      "Ã§ev": 3050,
      "ĠihtiyaÃ§": 3051,
      "ĠhÄ±zlÄ±": 3052,
      "Ġma": 3053,
      "ĠÃ§ab": 3054,
      "Ã¼mÃ¼zdeki": 3055,
      "anya": 3056,
      "Ã¼ndeki": 3057,
      "Ġdurumu": 3058,
      "ĠAmerikan": 3059,
      "Ġkriz": 3060,
      "ĠBazÄ±": 3061,
      "Ġ28": 3062,
      "ĠâĢĵ": 3063,
      "ĠMÃ¼z": 3064,
      "ĠÅŁarkÄ±": 3065,
      "ĠYorumu": 3066,
      "ĠÃ¶zellik": 3067,
      "Ġsahn": 3068,
      "amÄ±z": 3069,
      "ĠalÄ±ndÄ±": 3070,
      "bur": 3071,
      "Ġkuzey": 3072,
      "ĠbarÄ±ÅŁ": 3073,
      "tÄ±lar": 3074,
      "ĠsÄ±kÄ±ntÄ±": 3075,
      "Ġtesis": 3076,
      "ĠSÃ¶z": 3077,
      "Ġtec": 3078,
      "Ä±sÄ±r": 3079,
      "ÄŁÄ±n": 3080,
      "iyan": 3081,
      "Ġkuvvet": 3082,
      "ĠTel": 3083,
      "ĠYTL": 3084,
      "ĠAydÄ±n": 3085,
      "ww": 3086,
      "ĠTBMM": 3087,
      "ĠterÃ¶rist": 3088,
      "duÄŁ": 3089,
      "Ġle": 3090,
      "ĠolmadÄ±ÄŁÄ±": 3091,
      "dek": 3092,
      "ĠhenÃ¼z": 3093,
      "ĠuÃ§ak": 3094,
      "ĠteÅŁekkÃ¼r": 3095,
      "ĠBul": 3096,
      "Ġsorum": 3097,
      "Ġsig": 3098,
      "Ġsivil": 3099,
      "ĠkullanÄ±l": 3100,
      "eceÄŁiz": 3101,
      "ĠÄ°nsan": 3102,
      "Ġgide": 3103,
      "neÄŁin": 3104,
      "ĠHastanesi": 3105,
      "ladÄ±k": 3106,
      "ich": 3107,
      "ĠKap": 3108,
      "--": 3109,
      "ĠKuzey": 3110,
      "edik": 3111,
      "Ġgirdi": 3112,
      "ĠKÃ¶": 3113,
      "ĠLig": 3114,
      "Ġkurt": 3115,
      "Ä±yorlar": 3116,
      "Ġbes": 3117,
      "mesinin": 3118,
      "letvekil": 3119,
      "Ġtip": 3120,
      "ĠPaÅŁa": 3121,
      "akÄ±r": 3122,
      "abet": 3123,
      "uro": 3124,
      "ĠgÃ¶ren": 3125,
      "ĠKaynak": 3126,
      "Ġticaret": 3127,
      "ĠbÃ¼yÃ¼m": 3128,
      "AZ": 3129,
      "Ã»": 3130,
      "altÄ±na": 3131,
      "imizi": 3132,
      "Ġdoktor": 3133,
      "ĠÄ°st": 3134,
      "Ġserbest": 3135,
      "erÃ§ev": 3136,
      "endis": 3137,
      "ĠÃ§ekti": 3138,
      "Ġkims": 3139,
      "Ġgetiren": 3140,
      "mel": 3141,
      "ĠDoÄŁu": 3142,
      "Ġbundan": 3143,
      "Ġdef": 3144,
      "Ġcep": 3145,
      "Ġnum": 3146,
      "ĠÃ¶nlem": 3147,
      "Ġcumhur": 3148,
      "ĠyÃ¼zden": 3149,
      "sÄ±zlÄ±k": 3150,
      "leÅŁme": 3151,
      "ĠOl": 3152,
      "ĠkarÅŁÄ±lÄ±k": 3153,
      "Ġtemiz": 3154,
      "Ã¼ldÃ¼": 3155,
      "isayar": 3156,
      "aspor": 3157,
      "and": 3158,
      "ĠEmniyet": 3159,
      "ĠeÅŁi": 3160,
      "Ġmot": 3161,
      "ĠDerneÄŁi": 3162,
      "emin": 3163,
      "Ġvak": 3164,
      "akÃ¼lt": 3165,
      "ĠbaÅŁkanÄ±": 3166,
      "geÃ§": 3167,
      "ebi": 3168,
      "ĠsÃ¶yley": 3169,
      "dern": 3170,
      "Ġyetk": 3171,
      "Ġmodel": 3172,
      "ĠbaÅŁlan": 3173,
      "alama": 3174,
      "ĠinsanlarÄ±n": 3175,
      "ĠdÃ¼zenlen": 3176,
      "ĠOrt": 3177,
      "Bir": 3178,
      "Ġyarg": 3179,
      "ukat": 3180,
      "Ġveriyor": 3181,
      "dem": 3182,
      "Ã¼slÃ¼m": 3183,
      "ĠThe": 3184,
      "ĠSam": 3185,
      "ultan": 3186,
      "Ġoyna": 3187,
      "ĠKadÄ±n": 3188,
      "Ġtransfer": 3189,
      "Ġetkil": 3190,
      "Ġdakika": 3191,
      "ĠyayÄ±m": 3192,
      "Ġgiden": 3193,
      "madÄ±ÄŁÄ±nÄ±": 3194,
      "altÄ±": 3195,
      "Ġbaz": 3196,
      "erv": 3197,
      "ert": 3198,
      "ĠKÄ±lÄ±Ã§": 3199,
      "Ġsistemi": 3200,
      "Ġvaz": 3201,
      "res": 3202,
      "ĠKÄ±": 3203,
      "ĠbakÄ±m": 3204,
      "Ġalacak": 3205,
      "200": 3206,
      "fes": 3207,
      "ĠNew": 3208,
      "irken": 3209,
      "Ġteslim": 3210,
      "muÅŁtur": 3211,
      "Ġsinem": 3212,
      "iri": 3213,
      "Ġsefer": 3214,
      "Ġanlatan": 3215,
      "Ġdep": 3216,
      "ĠÃ§eken": 3217,
      "ĠMilletvekili": 3218,
      "acat": 3219,
      "ĠkatÄ±lan": 3220,
      "ĠÃ§erÃ§ev": 3221,
      "ĠettiÄŁini": 3222,
      "umsuz": 3223,
      "Ġkendini": 3224,
      "ĠTL": 3225,
      "ĠAbd": 3226,
      "ĠFeder": 3227,
      "Ġhangi": 3228,
      "ĠÄ°ki": 3229,
      "Ġifad": 3230,
      "ĠMahkemesi": 3231,
      "ĠborÃ§": 3232,
      "Ġdepr": 3233,
      "Ġfay": 3234,
      "Ġ500": 3235,
      "ĠKup": 3236,
      "Ġsayesinde": 3237,
      "Ġstr": 3238,
      "18": 3239,
      "ĠSor": 3240,
      "estiv": 3241,
      "ĠbaÅŁta": 3242,
      "dÄ±ÅŁ": 3243,
      "ĠTrabzon": 3244,
      "siy": 3245,
      "atif": 3246,
      "ĠÅŀampiyon": 3247,
      "Ġbelki": 3248,
      "ĠolduÄŁuna": 3249,
      "Ã¼ph": 3250,
      "Ġcevap": 3251,
      "cÄ±lar": 3252,
      "diÅŁ": 3253,
      "uÄŁ": 3254,
      "ĠalbÃ¼m": 3255,
      "pek": 3256,
      "ĠGazi": 3257,
      "ĠAynÄ±": 3258,
      "ĠkatÄ±lÄ±m": 3259,
      "ĠMad": 3260,
      "Ä°D": 3261,
      "larÄ±m": 3262,
      "An": 3263,
      "Ġtaraftar": 3264,
      "Ġbitir": 3265,
      "ĠÃ§alÄ±ÅŁmalarÄ±": 3266,
      "Ġhik": 3267,
      "esindeki": 3268,
      "Ġ2013": 3269,
      "ĠgÃ¼nlerde": 3270,
      "ĠHÃ¼seyin": 3271,
      "ĠyÄ±lÄ±n": 3272,
      "Ġbelg": 3273,
      "Ġkilom": 3274,
      "Ġkop": 3275,
      "ĠolmuÅŁtur": 3276,
      "ong": 3277,
      "Ġ27": 3278,
      "ĠHam": 3279,
      "Ġmar": 3280,
      "ĠSev": 3281,
      "ĠkÃ¼r": 3282,
      "ĠCem": 3283,
      "RI": 3284,
      "ĠBah": 3285,
      "Ġzengin": 3286,
      "MÄ°R": 3287,
      "ĠDE": 3288,
      "lÄ±ÄŁÄ±na": 3289,
      "Ġmahkem": 3290,
      "ĠÅŁik": 3291,
      "ĠÄ°lÃ§e": 3292,
      "ĠdÃ¼ÅŁÃ¼r": 3293,
      "15": 3294,
      "Ġform": 3295,
      "Ġ26": 3296,
      "ĠSin": 3297,
      "ĠkullanÄ±lan": 3298,
      "ai": 3299,
      "ĠKat": 3300,
      "com": 3301,
      "Ġkendisini": 3302,
      "duÄŁunu": 3303,
      "Ġmis": 3304,
      "Ġsona": 3305,
      "Ġolumlu": 3306,
      "Ä±mÄ±zÄ±": 3307,
      "ĠKam": 3308,
      "ebek": 3309,
      "ĠolmuÅŁ": 3310,
      "ĠBirleÅŁ": 3311,
      "ĠJap": 3312,
      "ĠilÃ§e": 3313,
      "say": 3314,
      "ĠÅŁah": 3315,
      "ÃľN": 3316,
      "imleri": 3317,
      "cisi": 3318,
      "Ġmahk": 3319,
      "ĠoldukÃ§a": 3320,
      "Ġtehdi": 3321,
      "ĠBaÄŁ": 3322,
      "Ġkayn": 3323,
      "Ã§ak": 3324,
      "imize": 3325,
      "ĠKÃ¶y": 3326,
      "Ġmesel": 3327,
      "Ä±ÅŁma": 3328,
      "ĠCumhuriyeti": 3329,
      "ĠTÃ¼m": 3330,
      "Ä±ydÄ±": 3331,
      "Ġuzman": 3332,
      "ĠGer": 3333,
      "ĠÂ": 3334,
      "ĠTarih": 3335,
      "manÄ±": 3336,
      "izik": 3337,
      "Ġbi": 3338,
      "uyorum": 3339,
      "Ġilan": 3340,
      "fi": 3341,
      "ndeki": 3342,
      "Ben": 3343,
      "Ġiktidar": 3344,
      "Ġir": 3345,
      "madÄ±ÄŁÄ±": 3346,
      "12": 3347,
      "ĠÄ°sp": 3348,
      "ĠÃ¶ÄŁretmen": 3349,
      "ĠKen": 3350,
      "Ġidar": 3351,
      "ĠaslÄ±nda": 3352,
      "mar": 3353,
      "OK": 3354,
      "ĠdÄ±ÅŁÄ±": 3355,
      "Ġmuhal": 3356,
      "ĠdÃ¼ÅŁÃ¼k": 3357,
      "ĠAÃ§Ä±k": 3358,
      "Ġkonser": 3359,
      "Ġsize": 3360,
      "sini": 3361,
      "aca": 3362,
      "ÄŁinin": 3363,
      "nan": 3364,
      "Ġvurgul": 3365,
      "Ġaf": 3366,
      "ĠdÃ¼ÅŁÃ¼nc": 3367,
      "Ä±nar": 3368,
      "ĠsaÄŁlam": 3369,
      "brahim": 3370,
      "Ġilgi": 3371,
      "ĠÃĩal": 3372,
      "Ġyakalan": 3373,
      "Ġvermek": 3374,
      "yalÄ±": 3375,
      "ĠCeza": 3376,
      "Ġediyorum": 3377,
      "kal": 3378,
      "Ġdiyerek": 3379,
      "amÄ±": 3380,
      "ĠFilm": 3381,
      "tren": 3382,
      "Ġkorum": 3383,
      "KK": 3384,
      "Ġbat": 3385,
      "Ġyans": 3386,
      "lÄ±ÄŁÄ±n": 3387,
      "ĠYani": 3388,
      "Ġnerede": 3389,
      "ult": 3390,
      "Ġkredi": 3391,
      "ĠTab": 3392,
      "kar": 3393,
      "Ġcen": 3394,
      "Ġgiren": 3395,
      "ĠgiriÅŁim": 3396,
      "ĠgÃ¶rÃ¼ÅŁmeler": 3397,
      "forman": 3398,
      "ite": 3399,
      "ĠgÃ¼ney": 3400,
      "ĠGrub": 3401,
      "Ġdenetim": 3402,
      "imler": 3403,
      "ĠÃĩocuk": 3404,
      "uÃ§": 3405,
      "ĠbÃ¼t": 3406,
      "ĠhayatÄ±nÄ±": 3407,
      "ĠhazÄ±rlÄ±k": 3408,
      "yet": 3409,
      "AC": 3410,
      "ĠBaÅŁkanlÄ±ÄŁÄ±": 3411,
      "ulmasÄ±": 3412,
      "ĠdÃ¼ÅŁtÃ¼": 3413,
      "ĠSaÄŁlÄ±k": 3414,
      "uar": 3415,
      "ĠmÃ¼dÃ¼r": 3416,
      "ebilecek": 3417,
      "cilik": 3418,
      "istik": 3419,
      "Ġhala": 3420,
      "ĠyazÄ±": 3421,
      "Ġseviy": 3422,
      "ĠOL": 3423,
      "Ġces": 3424,
      "Ġsene": 3425,
      "etrol": 3426,
      "Ġalanda": 3427,
      "ĠiÃ§ine": 3428,
      "Ġolumsuz": 3429,
      "Ġref": 3430,
      "Ġ2012": 3431,
      "ham": 3432,
      "Ġgaz": 3433,
      "mÄ±zÄ±": 3434,
      "Ġmilli": 3435,
      "Ġ60": 3436,
      "ĠyapÄ±lmasÄ±": 3437,
      "gisi": 3438,
      "ĠalÄ±r": 3439,
      "Ġbenzer": 3440,
      "Ġmetre": 3441,
      "ahallesi": 3442,
      "lÄ±ÄŁa": 3443,
      "Ġatan": 3444,
      "acaÄŁÄ±m": 3445,
      "ĠgÃ¶zaltÄ±na": 3446,
      "hale": 3447,
      "ĠbÃ¶lgede": 3448,
      "ĠAvust": 3449,
      "ĠyÄ±ldÄ±z": 3450,
      "ĠkiÅŁilik": 3451,
      "AH": 3452,
      "ĠSavaÅŁÄ±": 3453,
      "Ġham": 3454,
      "ĠhazÄ±rlan": 3455,
      "ĠyazÄ±lÄ±": 3456,
      "Ġred": 3457,
      "brÄ±s": 3458,
      "Ġzorun": 3459,
      "Ġah": 3460,
      "Ġnok": 3461,
      "ĠÃ¼lkede": 3462,
      "ĠEge": 3463,
      "EF": 3464,
      "Ġfil": 3465,
      "net": 3466,
      "ĠDiy": 3467,
      "ĠÃĸÄŁr": 3468,
      "Ġsonucunda": 3469,
      "ĠÃ§ocuÄŁ": 3470,
      "ĠgÃ¼c": 3471,
      "Ġzir": 3472,
      "Ġbunlar": 3473,
      "Ġbizi": 3474,
      "Ġfaiz": 3475,
      "ĠSosyal": 3476,
      "ĠÃ¶nÃ¼ne": 3477,
      "ĠPartisi": 3478,
      "AA": 3479,
      "Ġdam": 3480,
      "ĠkulÃ¼p": 3481,
      "Ġotob": 3482,
      "indi": 3483,
      "Ġalarak": 3484,
      "Ä±lab": 3485,
      "Ġyum": 3486,
      "Ġalk": 3487,
      "ĠFil": 3488,
      "Ġsur": 3489,
      "Ġfakat": 3490,
      "ildiÄŁini": 3491,
      "Ġistik": 3492,
      "ĠEÄŁer": 3493,
      "ĠÃĸdÃ¼l": 3494,
      "ĠYÃ¼ksek": 3495,
      "\",": 3496,
      "Ġetkili": 3497,
      "Ġsokak": 3498,
      "kur": 3499,
      "ĠSanat": 3500,
      "gal": 3501,
      "lev": 3502,
      "Ġnormal": 3503,
      "Ä±ldÄ±ÄŁÄ±nÄ±": 3504,
      "ĠMes": 3505,
      "layarak": 3506,
      "dÃ¼m": 3507,
      "ĠBunu": 3508,
      "EY": 3509,
      "nÃ¼n": 3510,
      "Biz": 3511,
      "ĠgÃ¶Ã§": 3512,
      "ĠgerekÃ§": 3513,
      "Ã§uk": 3514,
      "lacak": 3515,
      "arÄ±nda": 3516,
      "Ġmilletvekil": 3517,
      "mamasÄ±": 3518,
      "Ġistiyoruz": 3519,
      "kÄ±r": 3520,
      "ĠBuna": 3521,
      "liÄŁinde": 3522,
      "Ġyoktur": 3523,
      "land": 3524,
      "sizlik": 3525,
      "Ġdurdur": 3526,
      "Ġ/": 3527,
      "Ġorada": 3528,
      "Ġstan": 3529,
      "rin": 3530,
      "Ġkart": 3531,
      "ĠÄ°brahim": 3532,
      "Ġesn": 3533,
      "Ġ2014": 3534,
      "Ã¼per": 3535,
      "har": 3536,
      "Ġciv": 3537,
      "erken": 3538,
      "Ġyerinde": 3539,
      "Ġverecek": 3540,
      "Ġfel": 3541,
      "ĠÃ§evir": 3542,
      "EC": 3543,
      "Ġtepki": 3544,
      "ĠbaÅŁla": 3545,
      "Ġyasak": 3546,
      "rim": 3547,
      "Ġonay": 3548,
      "IÅŀ": 3549,
      "aket": 3550,
      "Ġitir": 3551,
      "Ä±mda": 3552,
      "ĠTayyip": 3553,
      "Ġ2007": 3554,
      "ĠetmiÅŁ": 3555,
      "ĠaltÄ±n": 3556,
      "mur": 3557,
      "uc": 3558,
      "Ġperson": 3559,
      "Ġistiyorum": 3560,
      "ĠII": 3561,
      "ĠHasan": 3562,
      "ilmiÅŁtir": 3563,
      ".âĢĻ": 3564,
      "kz": 3565,
      "Ġbelirlen": 3566,
      "Ä±yordu": 3567,
      "ĠAraÅŁtÄ±r": 3568,
      "Ġazal": 3569,
      "Ġkarakter": 3570,
      "Ġsap": 3571,
      "dat": 3572,
      "Ġelektrik": 3573,
      "ĠasÄ±l": 3574,
      "ight": 3575,
      "mÃ¼r": 3576,
      "Ġhaft": 3577,
      "Ġbeyaz": 3578,
      "ĠFakÃ¼lt": 3579,
      "Ġbilgisayar": 3580,
      "Ã¼nÃ¼z": 3581,
      "ĠaraÅŁtÄ±rma": 3582,
      "ĠRum": 3583,
      "Ġtedavi": 3584,
      "Ġpoz": 3585,
      "ĠPolis": 3586,
      "inizi": 3587,
      "ĠOlay": 3588,
      "Ġayak": 3589,
      "Ġperforman": 3590,
      "ĠLis": 3591,
      "ĠÃ¼yeleri": 3592,
      "ĠsonrasÄ±nda": 3593,
      "ĠdÃ¶v": 3594,
      "ĠmeÅŁ": 3595,
      "UM": 3596,
      "liye": 3597,
      "ĠiÅŁi": 3598,
      "ĠYas": 3599,
      "Ġmutlu": 3600,
      "ĠMurat": 3601,
      "iyorlar": 3602,
      "Ġmiktar": 3603,
      "elt": 3604,
      "ry": 3605,
      "lerdir": 3606,
      "ĠdÃ¼nyada": 3607,
      "blem": 3608,
      "ĠÃ¼Ã§Ã¼ncÃ¼": 3609,
      ".,": 3610,
      "lÄ±lÄ±k": 3611,
      "Ġdos": 3612,
      "Ä±mÄ±za": 3613,
      "Ã¼bÃ¼": 3614,
      "OL": 3615,
      "ĠnÃ¼fus": 3616,
      "Ġkelim": 3617,
      "ĠtaÅŁÄ±n": 3618,
      "iÅŁi": 3619,
      "ĠiÅŁte": 3620,
      "Ġilgilen": 3621,
      "tepe": 3622,
      "eksiyon": 3623,
      "Ġdefa": 3624,
      "ĠFutbol": 3625,
      "ĠMer": 3626,
      "ĠsaÃ§": 3627,
      "iir": 3628,
      "Ġmutlak": 3629,
      "Ġvergi": 3630,
      "Ġhapis": 3631,
      "ĠSultan": 3632,
      "ze": 3633,
      "Ġyolu": 3634,
      "ĠÅŁÃ¼ph": 3635,
      "ĠyapÄ±m": 3636,
      "ĠBurada": 3637,
      "ĠOrta": 3638,
      "ĠaltÄ±": 3639,
      "daÄŁ": 3640,
      "ĠKupasÄ±": 3641,
      "rika": 3642,
      "Ã¼yoruz": 3643,
      "ĠLe": 3644,
      "ĠBat": 3645,
      "ĠBM": 3646,
      "Ġvarsa": 3647,
      "ĠduruÅŁ": 3648,
      "ĠAbdullah": 3649,
      "ilyon": 3650,
      "dÄ±ÄŁÄ±na": 3651,
      "eyn": 3652,
      "Ġistih": 3653,
      "Ġhayal": 3654,
      "ĠolacaÄŁÄ±nÄ±": 3655,
      "ĠDiÄŁer": 3656,
      "ĠyargÄ±": 3657,
      "Ġedin": 3658,
      "Ġsizin": 3659,
      "ĠmÃ¼ÅŁ": 3660,
      "Ġhayata": 3661,
      "ĠBatÄ±": 3662,
      "Ġkendisi": 3663,
      "ĠalanÄ±": 3664,
      "Ġimza": 3665,
      "Ġmalz": 3666,
      "bu": 3667,
      "Ġyeri": 3668,
      "ĠsÄ±nav": 3669,
      "ĠaÅŁam": 3670,
      "Ġetmeye": 3671,
      "Ġisten": 3672,
      "Ġenerji": 3673,
      "ĠayÄ±r": 3674,
      "ĠKim": 3675,
      "Ġmekan": 3676,
      "ĠAnayasa": 3677,
      "Ġkurulan": 3678,
      "mayÄ±n": 3679,
      "ĠbaÄŁÄ±msÄ±z": 3680,
      "Ġdurumunda": 3681,
      "rum": 3682,
      "ĠgÃ¼nlÃ¼k": 3683,
      "sim": 3684,
      "Ġistif": 3685,
      "mayacak": 3686,
      "Ġyola": 3687,
      "Ġkimse": 3688,
      "Ġbirinci": 3689,
      "Ġmens": 3690,
      "ĠgÃ¶steren": 3691,
      "dak": 3692,
      "ĠSeÃ§": 3693,
      "ĠdirektÃ¶r": 3694,
      "ĠÅŁaÅŁ": 3695,
      "Ġsebep": 3696,
      "SK": 3697,
      "Ġ1000": 3698,
      "Ġekipleri": 3699,
      "ĠVer": 3700,
      "ĠdÃ¼zenlem": 3701,
      "ĠÃ§ap": 3702,
      "ĠkullandÄ±": 3703,
      "ĠKons": 3704,
      "Ã¼slÃ¼man": 3705,
      "ĠyardÄ±mcÄ±": 3706,
      "ell": 3707,
      "ĠYal": 3708,
      "ĠEski": 3709,
      "ĠadÄ±nÄ±": 3710,
      "Ġtahmin": 3711,
      "Ġserv": 3712,
      "ĠanlattÄ±": 3713,
      "ĠyÃ¼rÃ¼y": 3714,
      "kent": 3715,
      "ĠKÄ±brÄ±s": 3716,
      "ĠMahallesi": 3717,
      "ĠÃ¶ncesi": 3718,
      "andar": 3719,
      "ons": 3720,
      "Ġef": 3721,
      "Ġderin": 3722,
      "ĠhatÄ±rlat": 3723,
      "Ġpark": 3724,
      "iya": 3725,
      "ĠPark": 3726,
      "isyonu": 3727,
      "Ġeksik": 3728,
      "ĠhÃ¼c": 3729,
      "Ä±lÄ±m": 3730,
      "Ġ2005": 3731,
      "Ġbilinen": 3732,
      "Ġsonraki": 3733,
      "Ġeg": 3734,
      "ĠoÄŁlu": 3735,
      "Ġolmas": 3736,
      "ilim": 3737,
      "Ġ29": 3738,
      "Ġsalon": 3739,
      "Ġmilletvekili": 3740,
      "Ä±mÄ±zÄ±n": 3741,
      "ĠAN": 3742,
      "Ġsert": 3743,
      "Ġgar": 3744,
      "ĠtanÄ±n": 3745,
      "ST": 3746,
      "Ġetkinlik": 3747,
      "her": 3748,
      "Ġkamuoy": 3749,
      "istin": 3750,
      "ĠNur": 3751,
      "Ġtamamlan": 3752,
      "ĠilaÃ§": 3753,
      "laÅŁma": 3754,
      "sine": 3755,
      "riyet": 3756,
      "ĠtarÄ±m": 3757,
      "ĠAntalya": 3758,
      "Ġedilmesi": 3759,
      "ĠkonuÅŁan": 3760,
      "ĠgerÃ§ekten": 3761,
      "Ġihracat": 3762,
      "ĠÅŀu": 3763,
      "ĠsanatÃ§Ä±": 3764,
      "Ġhalde": 3765,
      "ĠÅŁeyi": 3766,
      "liÄŁe": 3767,
      "illi": 3768,
      "Ä±ldÄ±z": 3769,
      "iÄŁi": 3770,
      "ĠKent": 3771,
      "alim": 3772,
      "ĠGrubu": 3773,
      "ecep": 3774,
      "ĠyarÄ±n": 3775,
      "Ġharc": 3776,
      "Ġthe": 3777,
      "Ġbahs": 3778,
      "ĠhÃ¢": 3779,
      "ĠhastalÄ±k": 3780,
      "ĠyapmÄ±ÅŁ": 3781,
      "Ġkesim": 3782,
      "ĠgÃ¶sterdi": 3783,
      "ĠcanlÄ±": 3784,
      "ĠGÃ¼venlik": 3785,
      "eyece": 3786,
      "ĠBab": 3787,
      "ĠGÃ¶z": 3788,
      "ĠfÄ±rsat": 3789,
      "ron": 3790,
      "ÄŁe": 3791,
      "ĠhoÅŁ": 3792,
      "asal": 3793,
      "ĠPKK": 3794,
      "Ġolam": 3795,
      "ĠÃ§oÄŁun": 3796,
      "hi": 3797,
      "enc": 3798,
      "liÄŁin": 3799,
      "ĠFer": 3800,
      "Ġotel": 3801,
      "udi": 3802,
      "etik": 3803,
      "Ġdarb": 3804,
      "Ġyapmaya": 3805,
      "ĠbulunduÄŁunu": 3806,
      "Ġboyut": 3807,
      "Ġlig": 3808,
      "ĠPer": 3809,
      "isel": 3810,
      "ĠsatÄ±n": 3811,
      "veriÅŁ": 3812,
      "Ä°Åŀ": 3813,
      "Ġday": 3814,
      "Ġtez": 3815,
      "ĠCam": 3816,
      "Ä±lmaz": 3817,
      "ĠSayÄ±n": 3818,
      "Ġmemur": 3819,
      "ĠsÃ¶ylÃ¼yor": 3820,
      "Ġkm": 3821,
      "ersiz": 3822,
      "talyan": 3823,
      "ĠSay": 3824,
      "Ġgem": 3825,
      "Ġverir": 3826,
      "Ġmuhab": 3827,
      "ediÄŁi": 3828,
      "ĠFakÃ¼ltesi": 3829,
      "dasÄ±": 3830,
      "Ġmerak": 3831,
      "ayarak": 3832,
      "Ġnokta": 3833,
      "eyecek": 3834,
      "ĠAc": 3835,
      "amak": 3836,
      "ĠÃĩev": 3837,
      "Ġrakam": 3838,
      "Ġtas": 3839,
      "ĠTun": 3840,
      "sur": 3841,
      "ĠDoÄŁan": 3842,
      "ĠÄ°sv": 3843,
      "ĠpeÅŁ": 3844,
      "Ġ2008": 3845,
      "ĠYunanistan": 3846,
      "bkz": 3847,
      "Ġgiderek": 3848,
      "demir": 3849,
      "Ġ:": 3850,
      "mail": 3851,
      "ĠTicaret": 3852,
      "ĠYer": 3853,
      "ros": 3854,
      "Ġbelediy": 3855,
      "izasyon": 3856,
      "Ġ35": 3857,
      "ĠbÃ¶lge": 3858,
      "Ġtehdit": 3859,
      "mesiyle": 3860,
      "Ġistedik": 3861,
      "ĠOyunlarÄ±": 3862,
      "ĠBizim": 3863,
      "ĠAllah": 3864,
      "Ġfinal": 3865,
      "ban": 3866,
      "ĠvazgeÃ§": 3867,
      "yum": 3868,
      "ĠFatih": 3869,
      "Ġkorun": 3870,
      "ĠyaygÄ±n": 3871,
      "Ġnot": 3872,
      "Ġproblem": 3873,
      "16": 3874,
      "ĠÃĩaÄŁ": 3875,
      "imar": 3876,
      "Ġediliyor": 3877,
      "Ġnak": 3878,
      "ĠSÃ¼r": 3879,
      "ku": 3880,
      "ĠSiz": 3881,
      "larÄ±ndaki": 3882,
      "ilip": 3883,
      "liÄŁine": 3884,
      "Ġetme": 3885,
      "Ġaile": 3886,
      "ĠgÃ¼l": 3887,
      "ĠArap": 3888,
      "Ġgelenek": 3889,
      "ĠSarÄ±": 3890,
      "ĠAÅŁ": 3891,
      "ĠmÃ¼h": 3892,
      "Ġgay": 3893,
      "ĠaylÄ±k": 3894,
      "abrik": 3895,
      "elerle": 3896,
      "ĠtaÅŁÄ±yan": 3897,
      "ĠAziz": 3898,
      "ĠLigi": 3899,
      "ĠbalÄ±k": 3900,
      "ational": 3901,
      "bak": 3902,
      "Ġsorunu": 3903,
      "Ã¼mÃ¼zde": 3904,
      "Ġerken": 3905,
      "Ġtaz": 3906,
      "ecan": 3907,
      "ĠeÅŁit": 3908,
      "Ã§iler": 3909,
      "Ġproje": 3910,
      "ĠSab": 3911,
      "oÃ§": 3912,
      "ĠSa": 3913,
      "Ġkilo": 3914,
      "kel": 3915,
      "ĠRecep": 3916,
      "Ä±za": 3917,
      "Ġincelem": 3918,
      "Ġkural": 3919,
      "14": 3920,
      "arbakÄ±r": 3921,
      "ĠmaÃ§Ä±": 3922,
      "ĠFakat": 3923,
      "Ġmotor": 3924,
      "ĠyÃ¼zÃ¼nden": 3925,
      "Ġtatil": 3926,
      "ĠÄ°talya": 3927,
      "Ġton": 3928,
      "Ġyaparak": 3929,
      "Ġbal": 3930,
      "arken": 3931,
      "ĠHÃ¼kÃ¼m": 3932,
      "ĠyÃ¶netimi": 3933,
      "Ġarz": 3934,
      "yap": 3935,
      "ĠSez": 3936,
      "Ġgalib": 3937,
      "Ġ2004": 3938,
      "ĠDir": 3939,
      "Ġdakikada": 3940,
      "iyah": 3941,
      "ĠÅŁans": 3942,
      "ĠBin": 3943,
      "emez": 3944,
      "ĠKocaoÄŁlu": 3945,
      "Ġpsik": 3946,
      "ĠbunlarÄ±n": 3947,
      "Ġfilmi": 3948,
      "Ġ.": 3949,
      "ĠkaÃ§Ä±r": 3950,
      "ĠÃĸzellikle": 3951,
      "ÄŁur": 3952,
      "Ġtakdir": 3953,
      "Ġhakim": 3954,
      "ĠkeÅŁ": 3955,
      "ĠyaÅŁÄ±nda": 3956,
      "Ġfinans": 3957,
      "elerinden": 3958,
      "larÄ±mÄ±zÄ±n": 3959,
      "ĠmÃ¼dahale": 3960,
      "Ġavukat": 3961,
      "Ġ2002": 3962,
      "ĠTeknik": 3963,
      "Ġihal": 3964,
      "ĠolduklarÄ±nÄ±": 3965,
      "Ġmekt": 3966,
      "DI": 3967,
      "ĠolmasÄ±na": 3968,
      "Ġettir": 3969,
      "ĠanlayÄ±ÅŁ": 3970,
      "ĠÃ§oÄŁu": 3971,
      "artesi": 3972,
      "YOR": 3973,
      "ĠtoplantÄ±sÄ±nda": 3974,
      "Ġsp": 3975,
      "ĠgÃ¼ndeme": 3976,
      "itir": 3977,
      "anÄ±t": 3978,
      "Ġ2000": 3979,
      "mekte": 3980,
      "nam": 3981,
      "Ġbed": 3982,
      "ĠbabasÄ±": 3983,
      "Ġrisk": 3984,
      "ĠÃ§Ä±kÄ±ÅŁ": 3985,
      "Ġmemnun": 3986,
      "Ġnef": 3987,
      "ord": 3988,
      "ĠinÅŁa": 3989,
      "Ġedilir": 3990,
      "ĠhalkÄ±n": 3991,
      "yse": 3992,
      "Ġantren": 3993,
      "mamÄ±ÅŁ": 3994,
      "uzur": 3995,
      "ĠiÅŁbirliÄŁi": 3996,
      "ĠÃ¶ÄŁrenci": 3997,
      "Ġ2010": 3998,
      "Ġtabi": 3999,
      "Ġ2006": 4000,
      "ĠsoruÅŁturma": 4001,
      "ĠyavaÅŁ": 4002,
      "ohn": 4003,
      "ĠvurguladÄ±": 4004,
      "deniz": 4005,
      "Ġolursa": 4006,
      "urken": 4007,
      "ĠÄ°mparator": 4008,
      "Ã¼ny": 4009,
      "Ã¼rriyet": 4010,
      "ĠbulunmaktadÄ±r": 4011,
      "Ġturizm": 4012,
      "Ġkaydeden": 4013,
      "Ġanne": 4014,
      "etre": 4015,
      "lardÄ±": 4016,
      "ire": 4017,
      "ketbol": 4018,
      "Ġmodern": 4019,
      "Ä±lmÄ±ÅŁtÄ±r": 4020,
      "lamasÄ±": 4021,
      "ĠsoÄŁ": 4022,
      "Ġkanal": 4023,
      "isiyle": 4024,
      "ĠinÅŁaat": 4025,
      "memiÅŁ": 4026,
      "ĠÃ§aÄŁr": 4027,
      "13": 4028,
      "Ġmeclis": 4029,
      "ĠsÃ¼t": 4030,
      "etici": 4031,
      "ĠaralarÄ±nda": 4032,
      "ĠadayÄ±": 4033,
      "mit": 4034,
      "Ġtane": 4035,
      "Ġroman": 4036,
      "Ġ2003": 4037,
      "ĠgeliÅŁmeler": 4038,
      "ĠProj": 4039,
      "ĠAL": 4040,
      "ĠSÃ¼": 4041,
      "Ã¶ÄŁr": 4042,
      "iyordu": 4043,
      "ĠÃľÃ§": 4044,
      "17": 4045,
      "ĠkarÄ±ÅŁ": 4046,
      "ĠhÃ¼k": 4047,
      "keti": 4048,
      "ĠakÄ±l": 4049,
      "ilebilir": 4050,
      "landa": 4051,
      "ĠVak": 4052,
      "usunu": 4053,
      "Ġkalit": 4054,
      "Ġizley": 4055,
      "ĠaÃ§Ä±lÄ±ÅŁ": 4056,
      "ĠÃ¶den": 4057,
      "ĠyetiÅŁtir": 4058,
      "Ġuc": 4059,
      "ĠBÃ¶lgesi": 4060,
      "ÄŁinden": 4061,
      "Ġ80": 4062,
      "ĠÃ¶nÃ¼mÃ¼zdeki": 4063,
      "Ġplak": 4064,
      "ĠYah": 4065,
      "ĠÃ¶ÄŁrenciler": 4066,
      "ĠKarÅŁÄ±y": 4067,
      "ĠdaÄŁÄ±t": 4068,
      "ĠÃ§Ä±kart": 4069,
      "ĠmaÃ§ta": 4070,
      "ĠoranÄ±": 4071,
      "ĠMÄ±sÄ±r": 4072,
      "lenmesi": 4073,
      "ĠÄ°talyan": 4074,
      "bo": 4075,
      "abiliyor": 4076,
      "Ġlim": 4077,
      "ĠkazandÄ±": 4078,
      "DÄ°": 4079,
      "elikle": 4080,
      "nu": 4081,
      "iÃ§ek": 4082,
      "Ġ70": 4083,
      "ĠtaÅŁÄ±m": 4084,
      "Ġtepk": 4085,
      "ĠbeÄŁ": 4086,
      "ĠgeldiÄŁi": 4087,
      "rem": 4088,
      "ĠEuro": 4089,
      "ĠonlarÄ±n": 4090,
      "elerden": 4091,
      "ĠMen": 4092,
      "ĠtaÅŁÄ±": 4093,
      "ĠkÃ¶ÅŁ": 4094,
      "Ġfikir": 4095,
      "ĠedilmiÅŁ": 4096,
      "ĠdolarlÄ±k": 4097,
      "tÃ¼rk": 4098,
      "ĠLond": 4099,
      "eter": 4100,
      "ĠAm": 4101,
      "Ġdiren": 4102,
      "ĠMÃ¼": 4103,
      "ĠyalnÄ±zca": 4104,
      "Ġsizi": 4105,
      "Ġonlar": 4106,
      "ĠtakÄ±mÄ±": 4107,
      "Ġisimli": 4108,
      "ĠDemokr": 4109,
      "Ġetkilen": 4110,
      "Ġdemir": 4111,
      "ris": 4112,
      "ĠMa": 4113,
      "ĠkapÄ±": 4114,
      "ĠEÅŁ": 4115,
      "ĠMec": 4116,
      "ĠDiyarbakÄ±r": 4117,
      "Ġetmesi": 4118,
      "go": 4119,
      "Ġgur": 4120,
      "akar": 4121,
      "ĠÃ¶ÄŁ": 4122,
      "ĠBÃ¶ylece": 4123,
      "ĠÄ°lÃ§esi": 4124,
      "dip": 4125,
      "ĠGrup": 4126,
      "ever": 4127,
      "ĠKral": 4128,
      "malarÄ±n": 4129,
      "ĠeÄŁit": 4130,
      "Ġmutlaka": 4131,
      "yu": 4132,
      "Ġpan": 4133,
      "Ġdeprem": 4134,
      "ĠBÃ¼l": 4135,
      "qu": 4136,
      "ĠbunlarÄ±": 4137,
      "Ġfizik": 4138,
      "Ġyeterli": 4139,
      "ĠEkonom": 4140,
      "ĠGeÃ§en": 4141,
      "Ġsorumlu": 4142,
      "ĠsÃ¶ylen": 4143,
      "Ġez": 4144,
      "Ġtarz": 4145,
      "Ġpop": 4146,
      "ĠAsya": 4147,
      "iyer": 4148,
      "Ġ2009": 4149,
      "Ġban": 4150,
      "ĠRe": 4151,
      "enek": 4152,
      "abilirsiniz": 4153,
      "ĠÄ°ÅŁte": 4154,
      "Ġbomb": 4155,
      "Ġsevk": 4156,
      "ĠÃ¼zerindeki": 4157,
      "acÄ±lÄ±k": 4158,
      "uncu": 4159,
      "Ġsporcu": 4160,
      "iklet": 4161,
      "Ġpo": 4162,
      "ĠÄ°kinci": 4163,
      "ĠOrdu": 4164,
      "lÄ±kla": 4165,
      "tÄ±lÄ±": 4166,
      "dÄ±ktan": 4167,
      "Ġdava": 4168,
      "atej": 4169,
      "usuna": 4170,
      "ĠbÃ¼r": 4171,
      "ĠsÃ¼rede": 4172,
      "ĠyaÅŁadÄ±ÄŁÄ±": 4173,
      "ĠAltÄ±n": 4174,
      "Ġprofes": 4175,
      "ĠÄ°k": 4176,
      "ĠPek": 4177,
      "deri": 4178,
      "ĠÅŀahin": 4179,
      "Ġzam": 4180,
      "ĠCar": 4181,
      "ĠÅŀen": 4182,
      "LE": 4183,
      "ĠFran": 4184,
      "ipl": 4185,
      "AÄŀ": 4186,
      "estor": 4187,
      "Ġyolcu": 4188,
      "Ġmat": 4189,
      "Ġ2015": 4190,
      "ĠÅŁikayet": 4191,
      "ĠTaÅŁ": 4192,
      "liÄŁinin": 4193,
      "Ġeyalet": 4194,
      "Ġtiyatro": 4195,
      "ĠSek": 4196,
      "ezi": 4197,
      "Ġkurulu": 4198,
      "isyen": 4199,
      "ĠbuluÅŁ": 4200,
      "Ä±nday": 4201,
      "Ġkonum": 4202,
      "ĠbaskÄ±": 4203,
      "ĠgeldiÄŁini": 4204,
      "IZ": 4205,
      "Ġsayf": 4206,
      "Ġpetrol": 4207,
      "ĠMah": 4208,
      "Ġnes": 4209,
      "za": 4210,
      "ĠMHP": 4211,
      "Ġyasa": 4212,
      "Ġins": 4213,
      "ĠiÃ§eri": 4214,
      "ĠkullanÄ±m": 4215,
      "ĠalanÄ±nda": 4216,
      "Ġterk": 4217,
      "ĠÃ§atÄ±ÅŁ": 4218,
      "Ġpil": 4219,
      "ĠanlamÄ±na": 4220,
      "ĠyerleÅŁtir": 4221,
      "Ġfak": 4222,
      "ĠEt": 4223,
      "leyman": 4224,
      "ĠmaÃ§Ä±nda": 4225,
      "ĠbugÃ¼ne": 4226,
      "les": 4227,
      "ĠcezasÄ±": 4228,
      "ĠDol": 4229,
      "onik": 4230,
      "tÄ±klarÄ±nÄ±": 4231,
      "ternational": 4232,
      "lanmasÄ±": 4233,
      "ĠaÅŁk": 4234,
      "Ġkendilerine": 4235,
      "Ġ2011": 4236,
      "Ġnumar": 4237,
      "Ġsel": 4238,
      "ĠÃ¶ÄŁrenildi": 4239,
      "Ġmadd": 4240,
      "ĠAp": 4241,
      "ĠBenim": 4242,
      "mut": 4243,
      "ĠaÄŁaÃ§": 4244,
      "ĠKaynakÃ§a": 4245,
      "ĠalÄ±p": 4246,
      "tel": 4247,
      "ush": 4248,
      "ĠhakkÄ±": 4249,
      "Ġmill": 4250,
      "oca": 4251,
      "alya": 4252,
      "Ġtabii": 4253,
      "Ä±larak": 4254,
      "ĠyargÄ±lan": 4255,
      "int": 4256,
      "LÄ°": 4257,
      "gÃ¼": 4258,
      "ĠHava": 4259,
      "kr": 4260,
      "Ġted": 4261,
      "ĠYÃ¼z": 4262,
      "ĠAdan": 4263,
      "Ġkum": 4264,
      "Ġkavram": 4265,
      "Ä±sÄ±z": 4266,
      "ĠeÄŁer": 4267,
      "ĠkazandÄ±r": 4268,
      "ĠKarab": 4269,
      "Ġduyg": 4270,
      "Ġreklam": 4271,
      "Ġ90": 4272,
      "ĠmÃ¼t": 4273,
      "ĠKara": 4274,
      "lÄ±klÄ±": 4275,
      "Ã©": 4276,
      "caÄŁÄ±nÄ±": 4277,
      "Ġtrafik": 4278,
      "ĠadlandÄ±r": 4279,
      "ĠaÅŁaÄŁÄ±": 4280,
      "urum": 4281,
      "Ġcih": 4282,
      "edeni": 4283,
      "ĠgÃ¶revi": 4284,
      "ĠkapalÄ±": 4285,
      "Ġcenaz": 4286,
      "fak": 4287,
      "ĠsarÄ±": 4288,
      "Ġiptal": 4289,
      "ĠdÃ¶k": 4290,
      "Ã¼lÃ¼": 4291,
      "ĠBayram": 4292,
      "ndaki": 4293,
      "ÄŁa": 4294,
      "ĠinsanÄ±n": 4295,
      "ĠZir": 4296,
      "baÅŁÄ±": 4297,
      "Ġakl": 4298,
      "ĠÃ¼ye": 4299,
      "esiz": 4300,
      "AV": 4301,
      "ĠtÃ¼ket": 4302,
      "ĠÃ¶len": 4303,
      "ĠdÃ¼nyaya": 4304,
      "ĠgÃ¼ndem": 4305,
      "ezil": 4306,
      "ĠarasÄ±": 4307,
      "ĠonlarÄ±": 4308,
      "ĠKarÅŁÄ±yaka": 4309,
      "Ġdolu": 4310,
      "sta": 4311,
      "Ġpas": 4312,
      "ĠÅŀir": 4313,
      "Ġmakin": 4314,
      "ĠKulÃ¼bÃ¼": 4315,
      "isar": 4316,
      "Ġedip": 4317,
      "mediÄŁini": 4318,
      "lanmÄ±ÅŁ": 4319,
      "Ġismi": 4320,
      "undaki": 4321,
      "isa": 4322,
      "amadÄ±": 4323,
      "ĠAll": 4324,
      "Ġduygu": 4325,
      "Ġemek": 4326,
      "ger": 4327,
      "ĠkÄ±ÅŁ": 4328,
      "Ġseyir": 4329,
      "Ġprotest": 4330,
      "ĠÃ§alÄ±ÅŁÄ±yor": 4331,
      "ĠiliÅŁkiler": 4332,
      "ĠBÄ°R": 4333,
      "ĠTV": 4334,
      "Ġarab": 4335,
      "ĠInternational": 4336,
      "ĠToplan": 4337,
      "Ä±f": 4338,
      "Ġhuzur": 4339,
      "ĠÄ°Z": 4340,
      "ĠMillet": 4341,
      "ĠUlusal": 4342,
      "ĠÅŀeh": 4343,
      "ĠteÅŁkil": 4344,
      "Ġstand": 4345,
      "tp": 4346,
      "ĠQ": 4347,
      "are": 4348,
      "ĠFederasyonu": 4349,
      "Ġdoldur": 4350,
      "ĠdolaÅŁ": 4351,
      "Ġmensup": 4352,
      "Ġkitab": 4353,
      "Ġgizli": 4354,
      "ete": 4355,
      "Ġgenellikle": 4356,
      "rÃ¼b": 4357,
      "ĠBÃ¶lg": 4358,
      "raman": 4359,
      "Ġanlamda": 4360,
      "ĠrahatsÄ±z": 4361,
      "ĠdÄ±ÅŁarÄ±": 4362,
      "Ġyoksa": 4363,
      "Ġmedya": 4364,
      "ĠBÃ¼lent": 4365,
      "sinin": 4366,
      "ĠGir": 4367,
      "Ġelem": 4368,
      "ack": 4369,
      "hat": 4370,
      "ĠKol": 4371,
      "ĠkÄ±rmÄ±zÄ±": 4372,
      "Ä±mÄ±n": 4373,
      "Ä°ZMÄ°R": 4374,
      "tarÄ±": 4375,
      "ĠhÄ±r": 4376,
      "Ġkanun": 4377,
      "Ġdek": 4378,
      "sem": 4379,
      "ĠÃ¶ngÃ¶r": 4380,
      "uyoruz": 4381,
      "ĠYol": 4382,
      "Ġteknoloj": 4383,
      "ĠSah": 4384,
      "Ġrast": 4385,
      "ĠyaptÄ±klarÄ±": 4386,
      "RT": 4387,
      "ene": 4388,
      "meyecek": 4389,
      "Ġ202": 4390,
      "ĠalmÄ±ÅŁ": 4391,
      "Ġenf": 4392,
      "ĠkulÃ¼b": 4393,
      "Ġpersonel": 4394,
      "Ġmin": 4395,
      "ĠiletiÅŁim": 4396,
      "ĠYÄ±ldÄ±z": 4397,
      "ĠMÃ¼slÃ¼man": 4398,
      "ĠiÅŁe": 4399,
      "ĠiÃ§indeki": 4400,
      "Ġyasal": 4401,
      "Ġmah": 4402,
      "ĠhayÄ±r": 4403,
      "ĠsanÄ±k": 4404,
      "ĠÃ§Ä±kÄ±yor": 4405,
      "Ġasla": 4406,
      "ĠKa": 4407,
      "ĠeÄŁlen": 4408,
      "ekim": 4409,
      "Al": 4410,
      "ĠdavranÄ±ÅŁ": 4411,
      "ĠLondra": 4412,
      "ĠolmalÄ±": 4413,
      "ĠJohn": 4414,
      "ĠacÄ±": 4415,
      "ĠsaÄŁlamak": 4416,
      "ĠRoma": 4417,
      "sav": 4418,
      "allah": 4419,
      "ĠErz": 4420,
      "Ġvurgulayan": 4421,
      "Ã¶ÄŁretim": 4422,
      "Ġortalama": 4423,
      "ĠParis": 4424,
      "Ġherkesin": 4425,
      "Ġkapas": 4426,
      "ĠotobÃ¼s": 4427,
      "Ġdar": 4428,
      "Ġsonuna": 4429,
      "ĠÃĸte": 4430,
      "ĠoranÄ±nda": 4431,
      "Ġyitir": 4432,
      "ash": 4433,
      "Ġesas": 4434,
      "ĠMo": 4435,
      "Ġuygulama": 4436,
      "ĠgelmiÅŁ": 4437,
      "ĠBirleÅŁik": 4438,
      "Ġoyunc": 4439,
      "afer": 4440,
      "ĠsÃ¶zleÅŁ": 4441,
      "ĠÃ¶lÃ§Ã¼": 4442,
      "ock": 4443,
      "ĠÃ§erÃ§evesinde": 4444,
      "ĠKuvvet": 4445,
      "andarma": 4446,
      "Ġ300": 4447,
      "Ġcinsel": 4448,
      "addesi": 4449,
      "lanÄ±yor": 4450,
      "ĠFin": 4451,
      "ÃľK": 4452,
      "Ġkaydedildi": 4453,
      "ĠyÃ¶nÃ¼nde": 4454,
      "Ġdizi": 4455,
      "//": 4456,
      "antaj": 4457,
      "Ġperformans": 4458,
      "11": 4459,
      "ĠYork": 4460,
      "ĠTÄ±p": 4461,
      "ĠuÄŁraÅŁ": 4462,
      "Ġbol": 4463,
      "Ä±lÄ±p": 4464,
      "ĠGÃĸ": 4465,
      "ĠhastalÄ±": 4466,
      "Ġkuru": 4467,
      "ĠsaygÄ±": 4468,
      "ĠdolayÄ±sÄ±yla": 4469,
      "Ġediyoruz": 4470,
      "olog": 4471,
      "Ġrad": 4472,
      "ĠaÃ§Ä±lan": 4473,
      "ĠÃĸmer": 4474,
      "aÄŁÄ±n": 4475,
      "ĠsÃ¼reci": 4476,
      "Ä°YOR": 4477,
      "fÄ±": 4478,
      "ug": 4479,
      "ise": 4480,
      "lÄ±ÄŁÄ±nÄ±n": 4481,
      "ĠdÃ¼ÅŁÃ¼nÃ¼yorum": 4482,
      "ĠhÄ±zla": 4483,
      "Ġihtim": 4484,
      "ĠtanÄ±t": 4485,
      "Ġyuk": 4486,
      "ĠÃĩelik": 4487,
      "luluÄŁu": 4488,
      "ĠÅŁehit": 4489,
      "ĠKurul": 4490,
      "daroÄŁlu": 4491,
      "DP": 4492,
      "liy": 4493,
      "ĠGal": 4494,
      "ĠbiÃ§imde": 4495,
      "ĠSelÃ§uk": 4496,
      "ruk": 4497,
      "Ġdel": 4498,
      "Ã¼kle": 4499,
      "://": 4500,
      "ĠaÅŁÄ±rÄ±": 4501,
      "Ġbirey": 4502,
      "ĠÃ¼niversite": 4503,
      "enler": 4504,
      "ĠgÃ¶nÃ¼l": 4505,
      "avi": 4506,
      "Ġorman": 4507,
      "Ġkans": 4508,
      "ĠSil": 4509,
      "ĠÄ°yi": 4510,
      "bin": 4511,
      "teri": 4512,
      "ĠÃĸrneÄŁin": 4513,
      "mÃ¼ÅŁtÃ¼r": 4514,
      "yesi": 4515,
      "ĠcumhurbaÅŁ": 4516,
      "cÄ±lÄ±ÄŁ": 4517,
      "yanÄ±n": 4518,
      "ĠFilistin": 4519,
      "OÄŀ": 4520,
      "icari": 4521,
      "lardaki": 4522,
      "layÄ±p": 4523,
      "ĠyetiÅŁ": 4524,
      "ĠMus": 4525,
      "ĠSey": 4526,
      "ĠÄ°dar": 4527,
      "ĠendiÅŁ": 4528,
      "Ã¼stÃ¼": 4529,
      "ĠayÄ±": 4530,
      "Ġkendine": 4531,
      "sÃ¼z": 4532,
      "ĠÄ°d": 4533,
      "fet": 4534,
      "Ġkey": 4535,
      "ĠkayÄ±p": 4536,
      "Ġkonut": 4537,
      "dikten": 4538,
      "ĠSÃ¼leyman": 4539,
      "Ġmalzem": 4540,
      "ĠBoz": 4541,
      "ĠSÄ±r": 4542,
      "ĠKÃ¼Ã§Ã¼k": 4543,
      "Ġlideri": 4544,
      "ĠarttÄ±r": 4545,
      "ĠKoÃ§": 4546,
      "lili": 4547,
      "ĠtasarÄ±m": 4548,
      "ĠOÄŁ": 4549,
      "yer": 4550,
      "Ġhafif": 4551,
      "ĠHakan": 4552,
      "Ġortadan": 4553,
      "ding": 4554,
      "ĠKendi": 4555,
      "Ġfalan": 4556,
      "ĠDÃ¶n": 4557,
      "malarÄ±nÄ±": 4558,
      "Ġ45": 4559,
      "Ä°YE": 4560,
      "ĠattÄ±": 4561,
      "bey": 4562,
      "ĠmÃ¼dahal": 4563,
      "ĠÃ§aÄŁÄ±r": 4564,
      "ĠÅŁar": 4565,
      "Ġanla": 4566,
      "mis": 4567,
      "ĠAfrika": 4568,
      "Ġgrubu": 4569,
      "oya": 4570,
      "Ġtaleb": 4571,
      "Ġhisset": 4572,
      "cÄ±lÄ±ÄŁÄ±": 4573,
      "Ġism": 4574,
      "ĠdemiÅŁ": 4575,
      "ĠistediÄŁi": 4576,
      "ĠKit": 4577,
      "ĠÃľst": 4578,
      "ĠÃĸdÃ¼lÃ¼": 4579,
      "ĠbaÅŁk": 4580,
      "ĠBÃ¼tÃ¼n": 4581,
      "ĠSem": 4582,
      "rist": 4583,
      "Ä±yÄ±z": 4584,
      "ĠyÃ¶netmen": 4585,
      "emedi": 4586,
      "Ġmetrek": 4587,
      "ayÄ±m": 4588,
      "ĠSch": 4589,
      "imli": 4590,
      "ĠDair": 4591,
      "ĠkonuÅŁma": 4592,
      "ĠKÄ±zÄ±l": 4593,
      "Ġmuhalef": 4594,
      "TI": 4595,
      "ĠyarÄ±": 4596,
      "Ġokuy": 4597,
      "suzluk": 4598,
      "ĠRadi": 4599,
      "ĠÄ°smail": 4600,
      "Ġteor": 4601,
      "Ġbiliyor": 4602,
      "ĠÃ§Ä±kacak": 4603,
      "ĠilginÃ§": 4604,
      "rah": 4605,
      "andÄ±r": 4606,
      "ersin": 4607,
      "ĠSavaÅŁ": 4608,
      "Ġhikay": 4609,
      "Ġmahal": 4610,
      "ĠDeÄŁ": 4611,
      "ĠSanayi": 4612,
      "shan": 4613,
      "Ġederken": 4614,
      "Ġkalp": 4615,
      "Ġyetkilileri": 4616,
      "ĠBursa": 4617,
      "lenme": 4618,
      ".âĢĻâĢĻ": 4619,
      "Ġsermay": 4620,
      "ÃľRK": 4621,
      "ĠtecrÃ¼b": 4622,
      "ĠKonseyi": 4623,
      "liyoruz": 4624,
      "alarla": 4625,
      "ĠBAÅŀ": 4626,
      "oÄŁaz": 4627,
      "ata": 4628,
      "ĠMic": 4629,
      "meyece": 4630,
      "Ġada": 4631,
      "ĠKurt": 4632,
      "Ġyararlan": 4633,
      "ĠkÄ±zÄ±": 4634,
      "ĠdÃ¼ÅŁen": 4635,
      "Ä±lmasÄ±nÄ±": 4636,
      "Ġetkisi": 4637,
      "Ġdemokratik": 4638,
      "ĠsaÄŁlÄ±klÄ±": 4639,
      "Ġ2001": 4640,
      "Ġdahi": 4641,
      "ĠRoad": 4642,
      "bakanÄ±": 4643,
      "ĠTal": 4644,
      "ĠEf": 4645,
      "Ġsorunun": 4646,
      "form": 4647,
      "Ar": 4648,
      "cÃ¼sÃ¼": 4649,
      "ĠÅŁub": 4650,
      "slan": 4651,
      "ĠUzun": 4652,
      "Ġta": 4653,
      "lamaya": 4654,
      "Ġderec": 4655,
      "tÄ±klarÄ±": 4656,
      "ĠyeÅŁil": 4657,
      "iÅŁehir": 4658,
      "Ġsinema": 4659,
      "ĠAraÅŁtÄ±rma": 4660,
      "ilerle": 4661,
      "ĠOdasÄ±": 4662,
      "araj": 4663,
      "ĠkÄ±smÄ±": 4664,
      "ĠHÃ¼rriyet": 4665,
      "ĠYayÄ±n": 4666,
      "ĠiÅŁÃ§i": 4667,
      "Ġap": 4668,
      "Ġkup": 4669,
      "Ġters": 4670,
      "Ä±mÄ±zda": 4671,
      "Ġkem": 4672,
      "ĠkatÄ±ldÄ±ÄŁÄ±": 4673,
      "alardan": 4674,
      "Ġulusal": 4675,
      "Ġyapma": 4676,
      "25": 4677,
      "ĠiÅŁgal": 4678,
      "Ġbinlerce": 4679,
      "Ġsenar": 4680,
      "ĠTor": 4681,
      "ĠÃľr": 4682,
      "Ġdevletin": 4683,
      "ĠÅŀube": 4684,
      "ĠÄ°h": 4685,
      "Ġkurtul": 4686,
      "YA": 4687,
      "ĠbaÅŁvuru": 4688,
      "Ġyedi": 4689,
      "ĠbirleÅŁ": 4690,
      "ind": 4691,
      "Ġsaatlerinde": 4692,
      "ĠolacaktÄ±r": 4693,
      "larÄ±mÄ±zÄ±": 4694,
      "ĠRadio": 4695,
      "Ġand": 4696,
      "ĠgerekÃ§esiyle": 4697,
      "Ġ36": 4698,
      "Ġolmaya": 4699,
      "ĠYargÄ±": 4700,
      "ĠyÃ¶r": 4701,
      "ilerden": 4702,
      "Ġdedim": 4703,
      "ights": 4704,
      "our": 4705,
      "ill": 4706,
      "dÄ±lar": 4707,
      "lÄ±lar": 4708,
      "Ġbuldu": 4709,
      "Ġhac": 4710,
      "Ġbekleniyor": 4711,
      "ĠSol": 4712,
      "Ġhed": 4713,
      "Ġetraf": 4714,
      "hane": 4715,
      "yonel": 4716,
      "ĠÃ¶ldÃ¼": 4717,
      "Ġkok": 4718,
      "ner": 4719,
      "ĠdoÄŁum": 4720,
      "ĠSonra": 4721,
      "Ġ31": 4722,
      "amay": 4723,
      "ĠaldÄ±ÄŁÄ±nÄ±": 4724,
      "ĠbaÄŁlantÄ±": 4725,
      "lal": 4726,
      "tek": 4727,
      "ĠGÃ¶l": 4728,
      "ĠkarÅŁÄ±lan": 4729,
      "ena": 4730,
      "lerimizin": 4731,
      "ĠÃ¶ldÃ¼rÃ¼l": 4732,
      "jan": 4733,
      "ĠsÄ±f": 4734,
      "Ġokum": 4735,
      "ess": 4736,
      "Ġsakin": 4737,
      "Ã§isi": 4738,
      "ĠYaz": 4739,
      "ĠdoÄŁrudan": 4740,
      "ĠAfgan": 4741,
      "?\"": 4742,
      "ĠgÃ¼neÅŁ": 4743,
      "ÅŀÄ°D": 4744,
      "ĠSiv": 4745,
      "CRI": 4746,
      "Ġgelip": 4747,
      "ĠaydÄ±n": 4748,
      "ĠGÃ¶": 4749,
      "ĠsaÄŁlayan": 4750,
      "Ġneler": 4751,
      "Ġonlara": 4752,
      "manÄ±z": 4753,
      "layÄ±": 4754,
      "gili": 4755,
      "ĠbÃ¶lÃ¼mÃ¼": 4756,
      "Ġkamer": 4757,
      "Ġimkan": 4758,
      "ĠkÃ¶pr": 4759,
      "ĠMel": 4760,
      "ĠMeydan": 4761,
      "unma": 4762,
      "odrum": 4763,
      "Ġturist": 4764,
      "Ġ190": 4765,
      "ĠcivarÄ±nda": 4766,
      "kanlÄ±ÄŁÄ±": 4767,
      "ÄŁan": 4768,
      "ĠsÃ¼rdÃ¼": 4769,
      "Ä±labilir": 4770,
      "ĠSadece": 4771,
      "ĠGÃ¼neÅŁ": 4772,
      "ĠkÄ±": 4773,
      "ore": 4774,
      "Ġstratej": 4775,
      "soy": 4776,
      "Ġrej": 4777,
      "ĠHiÃ§": 4778,
      "BaÅŁ": 4779,
      "ĠolmasÄ±nÄ±": 4780,
      "stit": 4781,
      "ĠHem": 4782,
      "Ġdosy": 4783,
      "eydi": 4784,
      "ĠaltÄ±nÄ±": 4785,
      "Ġreform": 4786,
      "ĠÄ±ÅŁÄ±k": 4787,
      "Ġolun": 4788,
      "Ġnedeni": 4789,
      "ĠayrÄ±l": 4790,
      "Ġrestor": 4791,
      "Ġkampany": 4792,
      "ĠUn": 4793,
      "Ġsiyah": 4794,
      "ĠYet": 4795,
      "Ġib": 4796,
      "maktan": 4797,
      "mamÄ±z": 4798,
      "ĠgeÃ§tiÄŁimiz": 4799,
      "ital": 4800,
      "ĠgÃ¶rmek": 4801,
      "ĠRights": 4802,
      "ĠÃ¶ÄŁretim": 4803,
      "Ġbazen": 4804,
      "ĠÃ¼lkemiz": 4805,
      "mede": 4806,
      "ĠkomÅŁ": 4807,
      "Ġkilometre": 4808,
      "eyh": 4809,
      "eytin": 4810,
      "ĠdÃ¼ÄŁ": 4811,
      "ilmesini": 4812,
      "Ġyerini": 4813,
      "ĠMeclisi": 4814,
      "Ġsakat": 4815,
      "Ġunsur": 4816,
      "Ġfabrik": 4817,
      "ĠKÄ±lÄ±Ã§daroÄŁlu": 4818,
      "Ġsenin": 4819,
      "Ġkalab": 4820,
      "ĠkarÅŁÄ±ya": 4821,
      "Ġyalan": 4822,
      "ĠÃ§ocuklar": 4823,
      "Ġyeter": 4824,
      "ĠÂ©": 4825,
      "Ã¢r": 4826,
      "Ä°n": 4827,
      "ĠyÄ±llarÄ±": 4828,
      "aray": 4829,
      "ĠyÄ±llar": 4830,
      "uluyor": 4831,
      "ĠIÅŀÄ°D": 4832,
      "erved": 4833,
      "ĠKurumu": 4834,
      "Ġmey": 4835,
      "Ġtrilyon": 4836,
      "ĠShijing": 4837,
      "Ġ100040": 4838,
      "ĠgeÃ§iÅŁ": 4839,
      "ĠReserved": 4840,
      "ĠShijingshan": 4841,
      "ĠOnun": 4842,
      "Ġyolc": 4843,
      "laÅŁÄ±k": 4844,
      "Ġbayram": 4845,
      "ĠyaralÄ±": 4846,
      "ĠHaber": 4847,
      "ĠSad": 4848,
      "Ġfon": 4849,
      "ĠYAP": 4850,
      "ĠkiÅŁilerin": 4851,
      "emli": 4852,
      "ĠaÃ§tÄ±": 4853,
      "LI": 4854,
      "Ġsim": 4855,
      "Ġtest": 4856,
      "Ġmesaf": 4857,
      "iyim": 4858,
      "iplom": 4859,
      "Ġmit": 4860,
      "antep": 4861,
      "ĠDi": 4862,
      "ĠgerÃ§ekleÅŁtirilen": 4863,
      "ĠyaÄŁÄ±ÅŁ": 4864,
      "co": 4865,
      "ĠkullandÄ±ÄŁÄ±": 4866,
      "str": 4867,
      ".'": 4868,
      "lor": 4869,
      "ĠdoÄŁrult": 4870,
      "akistan": 4871,
      "ĠbakÄ±ÅŁ": 4872,
      "ĠÅŁaÅŁÄ±r": 4873,
      "Ġmakam": 4874,
      "199": 4875,
      "ilmektedir": 4876,
      "ĠKomisyonu": 4877,
      "ĠMev": 4878,
      "Ġrakip": 4879,
      "ĠalÄ±nmasÄ±": 4880,
      "lament": 4881,
      "ĠAdalet": 4882,
      "Ġbirisi": 4883,
      "Ġgidip": 4884,
      "80": 4885,
      "arÅŁ": 4886,
      "ĠrÃ¶": 4887,
      "isiz": 4888,
      "steri": 4889,
      "Ġtedbir": 4890,
      "Ġistifa": 4891,
      "TÄ°": 4892,
      "ĠKAR": 4893,
      "Ġneredeyse": 4894,
      "Ã§u": 4895,
      "Ġmor": 4896,
      "Ġharek": 4897,
      "Ġazalt": 4898,
      "ĠMac": 4899,
      "ĠVE": 4900,
      "ly": 4901,
      "ĠkanÄ±t": 4902,
      "Ġval": 4903,
      "ĠCaddesi": 4904,
      "seri": 4905,
      "ĠgÃ¶zlem": 4906,
      "ĠiÃ§eren": 4907,
      "ĠalÄ±ÅŁveriÅŁ": 4908,
      "oks": 4909,
      "EV": 4910,
      "ĠtakÄ±mÄ±n": 4911,
      "Ġitiraz": 4912,
      "ĠErk": 4913,
      "ĠÃ¶ncesinde": 4914,
      "Ġprotesto": 4915,
      "arlÄ±": 4916,
      "ĠkullanÄ±cÄ±": 4917,
      "ĠAdana": 4918,
      "one": 4919,
      "ĠbaÅŁlayacak": 4920,
      "do": 4921,
      "fik": 4922,
      "Ġsanayi": 4923,
      "ĠKarad": 4924,
      "Ġfayd": 4925,
      "ĠYan": 4926,
      "ĠbaÅŁlangÄ±": 4927,
      "lamada": 4928,
      "gre": 4929,
      "meniz": 4930,
      "ĠBelediy": 4931,
      "ĠKah": 4932,
      "vik": 4933,
      "alarÄ±ndan": 4934,
      "esin": 4935,
      "ona": 4936,
      "Ġdet": 4937,
      "ĠTÃ¼rkÃ§e": 4938,
      "mediÄŁi": 4939,
      "ĠDenizli": 4940,
      "âĢĿ,": 4941,
      "Ġserg": 4942,
      "ladÄ±ÄŁÄ±nÄ±": 4943,
      "ĠTat": 4944,
      "ĠbÃ¶lgesinde": 4945,
      "Ġamel": 4946,
      "Ġmuht": 4947,
      "ĠGÃ¼zel": 4948,
      "Ġbekliyor": 4949,
      "ĠkÃ¶ken": 4950,
      "ĠSekret": 4951,
      "Ġstat": 4952,
      "zer": 4953,
      "Ġelinde": 4954,
      "rol": 4955,
      "Ġlan": 4956,
      "ĠPol": 4957,
      "ĠhazÄ±rlanan": 4958,
      "amÄ±ÅŁ": 4959,
      "ĠTah": 4960,
      "ĠHep": 4961,
      "ĠYine": 4962,
      "Ġticari": 4963,
      "ĠNec": 4964,
      "lÄ±klar": 4965,
      "ĠSiyas": 4966,
      "Ġarama": 4967,
      "ĠyaptÄ±ÄŁÄ±nÄ±": 4968,
      "imizde": 4969,
      "ĠÃ§ocuklarÄ±n": 4970,
      "ĠBunlar": 4971,
      "ĠiÅŁin": 4972,
      "Ä±nÄ±zÄ±": 4973,
      "Ġalma": 4974,
      "utlu": 4975,
      "ayÄ±f": 4976,
      "ĠadamÄ±": 4977,
      "arÄ±m": 4978,
      "lanma": 4979,
      "ĠPat": 4980,
      "Ġevde": 4981,
      "ĠAkdeniz": 4982,
      "Ġdans": 4983,
      "okol": 4984,
      "ĠiÃ§i": 4985,
      "Ġoyuncusu": 4986,
      "ĠdoÄŁumlu": 4987,
      "Ġkendilerini": 4988,
      "nuv": 4989,
      "lÃ¢": 4990,
      "Ġoku": 4991,
      "**": 4992,
      "lav": 4993,
      "ĠKonak": 4994,
      "ĠkadÄ±nlar": 4995,
      "Ġgalibiyet": 4996,
      "ĠFu": 4997,
      "ĠsoÄŁuk": 4998,
      "ĠkarÅŁÄ±n": 4999,
      "ĠSo": 5000,
      "enn": 5001,
      "Ġku": 5002,
      "ĠJaponya": 5003,
      "sk": 5004,
      "Ã§eli": 5005,
      "ĠÃ¶y": 5006,
      "mamak": 5007,
      "Ġstandart": 5008,
      "lasik": 5009,
      "ĠinsanlarÄ±": 5010,
      "gur": 5011,
      "Ġsahiptir": 5012,
      "ĠTrabzonspor": 5013,
      "larken": 5014,
      "lilerin": 5015,
      "bat": 5016,
      "ĠgÃ¶l": 5017,
      "eth": 5018,
      "lemeye": 5019,
      "raz": 5020,
      "ĠyapÄ±ldÄ±ÄŁÄ±": 5021,
      "gÃ¼l": 5022,
      "ĠDil": 5023,
      "ĠolayÄ±": 5024,
      "Ġtemsilc": 5025,
      "Ġtor": 5026,
      "ĠAvustur": 5027,
      "ĠAslan": 5028,
      "ĠyÄ±lÄ±ndan": 5029,
      "ĠÃ§evre": 5030,
      "ĠBÃ¼yÃ¼kel": 5031,
      "imd": 5032,
      "inda": 5033,
      "ĠBush": 5034,
      "Ġbirinin": 5035,
      "ĠayrÄ±ldÄ±": 5036,
      "Ġsaf": 5037,
      "ĠtÄ±r": 5038,
      "Ġameliyat": 5039,
      "des": 5040,
      "Ġannesi": 5041,
      "ĠAla": 5042,
      "ĠolmadÄ±": 5043,
      "ASI": 5044,
      "Ġkrit": 5045,
      "ohbet": 5046,
      "ĠSÃ¼per": 5047,
      "ĠsaÄŁlay": 5048,
      "ĠÄ°spanya": 5049,
      "ĠgÃ¼r": 5050,
      "ĠsÃ¶zlerine": 5051,
      "ĠgÃ¶rdÃ¼k": 5052,
      "ĠFestiv": 5053,
      "aktadÄ±r": 5054,
      "ĠKÄ±s": 5055,
      "Ġbilgiler": 5056,
      "Ġbasit": 5057,
      "ĠYÃ¶net": 5058,
      "Ġdis": 5059,
      "Ġht": 5060,
      "Ġbilir": 5061,
      "Ġdolara": 5062,
      "ĠdanÄ±ÅŁ": 5063,
      "Ġsergil": 5064,
      "ĠÃ¶rgÃ¼tÃ¼": 5065,
      "Ġevlen": 5066,
      "ĠdÃ¶nemi": 5067,
      "ĠBundan": 5068,
      "Ġmaddi": 5069,
      "Ġgidiyor": 5070,
      "Ġaraz": 5071,
      "muÅŁtu": 5072,
      "Ġre": 5073,
      "ĠedildiÄŁi": 5074,
      "Ġgr": 5075,
      "Ġedilecek": 5076,
      "leyi": 5077,
      "ĠkÃ¼t": 5078,
      "ĠBek": 5079,
      "ĠPr": 5080,
      "ĠRob": 5081,
      "ĠbÃ¼ny": 5082,
      "amazan": 5083,
      "ĠÃľlk": 5084,
      "ĠkadÄ±nÄ±n": 5085,
      "ĠVali": 5086,
      "ĠhalkÄ±": 5087,
      "ĠLa": 5088,
      "Ġuzat": 5089,
      "abilmek": 5090,
      "ĠkadÄ±nlarÄ±n": 5091,
      "ĠbeÄŁen": 5092,
      "amayan": 5093,
      "Ġbask": 5094,
      "latform": 5095,
      "ĠdÃ¼zenlediÄŁi": 5096,
      "ĠBo": 5097,
      "ĠdeÄŁiÅŁiklikler": 5098,
      "Ġhttp": 5099,
      "ĠgÃ¶m": 5100,
      "ĠaÃ§Ä±dan": 5101,
      "ĠsÃ¼rÃ¼yor": 5102,
      "ĠdoÄŁrultusunda": 5103,
      "Ġistikrar": 5104,
      "ĠMuham": 5105,
      "ington": 5106,
      "ĠBrezil": 5107,
      "ĠÃ¶lÃ§Ã¼de": 5108,
      "ĠiÅŁler": 5109,
      "Ġkazanan": 5110,
      "Ġpaket": 5111,
      "Ġkesinlikle": 5112,
      "Ġkullanarak": 5113,
      "Ä±ndÄ±r": 5114,
      "abil": 5115,
      "ĠGaziantep": 5116,
      "red": 5117,
      "ĠIM": 5118,
      "ĠkÃ¼ltÃ¼rel": 5119,
      "Ġedebiyat": 5120,
      "ĠbaÅŁlay": 5121,
      "yÃ¼z": 5122,
      "ĠmÃ¼zak": 5123,
      "iyiz": 5124,
      "Ä°ÅŁ": 5125,
      "ĠÃ§oÄŁ": 5126,
      "Ġmeslek": 5127,
      "tuk": 5128,
      "ĠÅŁiir": 5129,
      "lÄ±ÄŁÄ±nda": 5130,
      "ileb": 5131,
      "Ġbulunur": 5132,
      "Ġtemas": 5133,
      "ĠdeÄŁin": 5134,
      "ilendir": 5135,
      "ĠkaÃ§ak": 5136,
      "sas": 5137,
      "afet": 5138,
      "Ä±rk": 5139,
      "Ġanal": 5140,
      "Ä±rÄ±m": 5141,
      "acaktÄ±r": 5142,
      "ĠdÃ¼ÅŁman": 5143,
      "Ġservis": 5144,
      "TE": 5145,
      "ĠyurtdÄ±ÅŁ": 5146,
      "Ġsunu": 5147,
      "ĠsayÄ±lÄ±": 5148,
      "Ġ32": 5149,
      "ovyet": 5150,
      "Ġheyecan": 5151,
      "Ġihtiyac": 5152,
      "paÅŁa": 5153,
      "ikat": 5154,
      "ĠMor": 5155,
      "ĠgÃ¶steriyor": 5156,
      "ĠÃ¼stÃ¼n": 5157,
      "ĠTurizm": 5158,
      "ordin": 5159,
      "ĠvermiÅŁ": 5160,
      "ĠihtiyacÄ±": 5161,
      "60": 5162,
      "ĠparÃ§asÄ±": 5163,
      "lÄ±klarÄ±": 5164,
      "bette": 5165,
      "arlar": 5166,
      "ĠtÄ±k": 5167,
      "gulan": 5168,
      "ayol": 5169,
      "Ġkara": 5170,
      "cin": 5171,
      "led": 5172,
      "ograf": 5173,
      "ĠdÃ¶nÃ¼ÅŁtÃ¼r": 5174,
      "bek": 5175,
      "Ġhalka": 5176,
      "Ġbuz": 5177,
      "AF": 5178,
      "ĠdesteÄŁi": 5179,
      "logan": 5180,
      "zi": 5181,
      "iber": 5182,
      "yor": 5183,
      "ĠDirektÃ¶r": 5184,
      "Ġekran": 5185,
      "Ġtalim": 5186,
      "Ġmus": 5187,
      "bank": 5188,
      "wit": 5189,
      "Ä±lmasÄ±na": 5190,
      "ĠYeÅŁil": 5191,
      "ck": 5192,
      "Ġdu": 5193,
      "Ġduvar": 5194,
      "Ġdiplom": 5195,
      "ĠTes": 5196,
      "ĠMak": 5197,
      "UZ": 5198,
      "ĠcÃ¼m": 5199,
      "ĠaÃ§Ä±klan": 5200,
      "Ġsevgil": 5201,
      "ĠÃ¶nde": 5202,
      "Ġsavunma": 5203,
      "Ġdini": 5204,
      "ĠilÃ§esinde": 5205,
      "ĠdÃ¶ndÃ¼": 5206,
      "Ġaltyap": 5207,
      "ĠKer": 5208,
      "ĠdÃ¼ÅŁÃ¼nÃ¼yor": 5209,
      "lerindeki": 5210,
      "ĠÃĩalÄ±ÅŁ": 5211,
      "TAN": 5212,
      "ĠyanÄ±na": 5213,
      "ĠÅŁiÅŁ": 5214,
      "Ġhalen": 5215,
      "Ġzih": 5216,
      "Ġmetr": 5217,
      "ĠArtÄ±k": 5218,
      "ĠyÃ¼rÃ¼yÃ¼ÅŁ": 5219,
      "Ã¼kleer": 5220,
      "iller": 5221,
      "ĠBaÅŁbakanÄ±": 5222,
      "Ġeve": 5223,
      "ĠtoplantÄ±da": 5224,
      "rens": 5225,
      "Ġkoruma": 5226,
      "mesinden": 5227,
      "ĠSp": 5228,
      "ĠFar": 5229,
      "Ġolmay": 5230,
      "malÄ±dÄ±r": 5231,
      "inize": 5232,
      "oyu": 5233,
      "omp": 5234,
      "ĠÃ§alÄ±ÅŁtÄ±r": 5235,
      "Ġkapan": 5236,
      "ĠCen": 5237,
      "Ġhab": 5238,
      "ĠÅŁirketi": 5239,
      "emiÅŁ": 5240,
      "mesinde": 5241,
      "kenti": 5242,
      "kÄ±rÄ±": 5243,
      "Ġ)": 5244,
      "ĠgÃ¼Ã§lendir": 5245,
      "erler": 5246,
      "Ġsuyu": 5247,
      "ĠsaÄŁlayacak": 5248,
      "Ġbilimsel": 5249,
      "Ã¶rÃ¼": 5250,
      "ĠVan": 5251,
      "Ġdevrim": 5252,
      "Ġsebeb": 5253,
      "eÅŁme": 5254,
      "ĠÃ¼lkelerin": 5255,
      "ĠHaf": 5256,
      "ĠPazar": 5257,
      "isinden": 5258,
      "ilmesine": 5259,
      "Ġgeleneksel": 5260,
      "Ġolmadan": 5261,
      "to": 5262,
      "ĠÅŁarkÄ±cÄ±": 5263,
      "Ġmahkeme": 5264,
      "lasyon": 5265,
      "ĠDa": 5266,
      "Ġtaban": 5267,
      "ĠTakÄ±m": 5268,
      "ĠinsanÄ±": 5269,
      "Ġtuz": 5270,
      "abilece": 5271,
      "larÄ±nÄ±z": 5272,
      "ann": 5273,
      "ĠgÃ¶rÃ¼len": 5274,
      "Ġbirer": 5275,
      "Ġodak": 5276,
      "Ġhepsi": 5277,
      "Ġesnaf": 5278,
      "DU": 5279,
      "MA": 5280,
      "Ġtoplu": 5281,
      "ĠyapÄ±lÄ±yor": 5282,
      "ĠEsk": 5283,
      "ĠUÄŁur": 5284,
      "ĠgÃ¼cÃ¼": 5285,
      "ĠmÃ¼k": 5286,
      "Ġzirv": 5287,
      "ĠÃ§alÄ±ÅŁmalarÄ±nÄ±": 5288,
      "ĠolduklarÄ±": 5289,
      "Ä±nÄ±zda": 5290,
      "Ġbelirlendi": 5291,
      "Ġdeng": 5292,
      "emek": 5293,
      "Ġcihaz": 5294,
      "atur": 5295,
      "Ġkullanan": 5296,
      "ĠhÃ¼kÃ¼metin": 5297,
      "Ġgelece": 5298,
      "ulacak": 5299,
      "Ġgetirildi": 5300,
      "tadÄ±": 5301,
      "ĠVar": 5302,
      "Ġekonomi": 5303,
      "ĠyayÄ±nlanan": 5304,
      "ĠÃ§ay": 5305,
      "Ġiyil": 5306,
      "Ġbirden": 5307,
      "Ġslogan": 5308,
      "sef": 5309,
      "ĠyazarÄ±": 5310,
      "ĠJo": 5311,
      "Ġkaybetti": 5312,
      "ĠgÃ¶rdÃ¼": 5313,
      "Ã¶rf": 5314,
      "lerken": 5315,
      "Ġniyet": 5316,
      "Ġonur": 5317,
      "Ġburaya": 5318,
      "Ġsinir": 5319,
      "Ġsana": 5320,
      "ĠbiÃ§im": 5321,
      "ĠToplantÄ±": 5322,
      "SY": 5323,
      "aladÄ±": 5324,
      "Ġyaparken": 5325,
      "Ġide": 5326,
      "ĠkiÅŁisel": 5327,
      "ĠKomutan": 5328,
      "Ãĩin": 5329,
      "ĠÃ§alÄ±ÅŁmasÄ±": 5330,
      "Ġyenil": 5331,
      "Ġpilot": 5332,
      "Ã¼mÃ¼ÅŁ": 5333,
      "Ġyerli": 5334,
      "Ġbirim": 5335,
      "ĠTim": 5336,
      "ĠMet": 5337,
      "Ġgenelinde": 5338,
      "Ġtoplumsal": 5339,
      "ĠbaÄŁlantÄ±lar": 5340,
      "Ġ189": 5341,
      "Ġdetay": 5342,
      "lasman": 5343,
      "Ġenerj": 5344,
      "ĠaÃ§Ä±ldÄ±": 5345,
      "Ġyoktu": 5346,
      "TÃľ": 5347,
      "ĠzayÄ±f": 5348,
      "ĠyÃ¼kselt": 5349,
      ".)": 5350,
      "Ġtren": 5351,
      "Ġraki": 5352,
      "Ġaram": 5353,
      "ĠyÃ¶nlendir": 5354,
      "Ġalkol": 5355,
      "ayas": 5356,
      "ĠadÄ±yla": 5357,
      "ĠÃĸrg": 5358,
      "Ã¼cu": 5359,
      "ĠbÄ±": 5360,
      "Ġbaba": 5361,
      "Ġfilmin": 5362,
      "ĠvatandaÅŁlarÄ±n": 5363,
      "Ġbirbirine": 5364,
      "masÄ±n": 5365,
      "ĠUr": 5366,
      "gener": 5367,
      "hang": 5368,
      "Ä±lÄ±ÄŁÄ±yla": 5369,
      "Ġorganizasyon": 5370,
      "ĠÅŀehir": 5371,
      "Ġbilgiye": 5372,
      "Ġheyet": 5373,
      "Ġbebek": 5374,
      "ĠistediÄŁini": 5375,
      "Ġkaps": 5376,
      "?âĢĿ": 5377,
      "Ġbirik": 5378,
      "ĠTh": 5379,
      "gah": 5380,
      "kurmay": 5381,
      "ĠLisesi": 5382,
      "Ġrekor": 5383,
      "Ġolanak": 5384,
      "ie": 5385,
      "Ġsohbet": 5386,
      "ĠyapÄ±lmÄ±ÅŁ": 5387,
      "ĠyaÄŁmur": 5388,
      "www": 5389,
      "ĠBodrum": 5390,
      "Ġkomut": 5391,
      "OB": 5392,
      "sÃ¼": 5393,
      "ĠÃ¼s": 5394,
      "ĠÃ¼retic": 5395,
      "ĠAfganistan": 5396,
      "Ġimk": 5397,
      "ĠKarak": 5398,
      "Ġdedik": 5399,
      "ane": 5400,
      "ĠpiÅŁ": 5401,
      "osk": 5402,
      "illa": 5403,
      "Ġalmaya": 5404,
      "ĠKaradeniz": 5405,
      "Ġforma": 5406,
      "EZ": 5407,
      "Ã¢n": 5408,
      "ĠcanlandÄ±r": 5409,
      "jiang": 5410,
      "ĠaracÄ±": 5411,
      "ilerinden": 5412,
      "ĠDÃ¼z": 5413,
      "Ä±nÄ±za": 5414,
      "Ġpozisyon": 5415,
      "ĠbaÅŁbakan": 5416,
      "Ġgerektir": 5417,
      "alandÄ±r": 5418,
      "ĠÄ°nÅŁ": 5419,
      "Ä±lacaÄŁÄ±": 5420,
      "Ġgitmek": 5421,
      "Ġ150": 5422,
      "LA": 5423,
      "ĠÃ§eki": 5424,
      "ĠHukuk": 5425,
      "Ġbest": 5426,
      "Ã»met": 5427,
      "Ġprofesyonel": 5428,
      "eliÄŁi": 5429,
      "ĠDanÄ±ÅŁ": 5430,
      "DEN": 5431,
      "adir": 5432,
      "ĠDen": 5433,
      "oni": 5434,
      "ood": 5435,
      "ĠmaÄŁaz": 5436,
      "70": 5437,
      "Ġtablo": 5438,
      "ĠDavut": 5439,
      "ĠBalÄ±k": 5440,
      "ĠyarÄ±m": 5441,
      "itler": 5442,
      "ĠHerkes": 5443,
      "Ġ34": 5444,
      "Ġumut": 5445,
      "DAN": 5446,
      "seniz": 5447,
      "ansÄ±z": 5448,
      "ĠsayÄ±sÄ±nÄ±n": 5449,
      "ĠteÅŁvik": 5450,
      "ĠKÃ¶yÃ¼": 5451,
      "isti": 5452,
      "ĠulaÅŁtÄ±": 5453,
      "ĠaykÄ±rÄ±": 5454,
      "amet": 5455,
      "lamÄ±ÅŁ": 5456,
      "ĠtanÄ±ÅŁ": 5457,
      "memesi": 5458,
      "ĠbaÄŁÄ±r": 5459,
      "ĠPort": 5460,
      "Ġgurur": 5461,
      "ĠNaz": 5462,
      "ĠAÄŁÄ±r": 5463,
      "dun": 5464,
      "ĠyÄ±lÄ±nÄ±n": 5465,
      "Ġakadem": 5466,
      "Ġx": 5467,
      "resi": 5468,
      "Ġvide": 5469,
      "Ã¼rken": 5470,
      "nova": 5471,
      "ĠSivas": 5472,
      "ĠHa": 5473,
      "ĠBarÄ±ÅŁ": 5474,
      "Ġus": 5475,
      "ĠyÄ±la": 5476,
      "elerek": 5477,
      "Ġreh": 5478,
      "car": 5479,
      "ĠdeÄŁerli": 5480,
      "ĠDaÄŁ": 5481,
      "likleri": 5482,
      "ĠKanunu": 5483,
      "ĠhÃ¼kÃ¼meti": 5484,
      "ĠHu": 5485,
      "ĠyaÅŁamÄ±nÄ±": 5486,
      "ĠmaÄŁdur": 5487,
      "Ġmektup": 5488,
      "vit": 5489,
      "ĠkaynaÄŁÄ±": 5490,
      "ĠhaklarÄ±": 5491,
      "Ġitibariyle": 5492,
      "ĠbahÃ§": 5493,
      "dÃ¼z": 5494,
      "Ġmuhabir": 5495,
      "ĠÄ°mparatorluÄŁu": 5496,
      "ĠgeÃ§erli": 5497,
      "ĠsanatÃ§": 5498,
      "Ġsahne": 5499,
      "ĠyansÄ±t": 5500,
      "Ã¼me": 5501,
      "ĠolacaÄŁÄ±": 5502,
      "ĠÃ¶t": 5503,
      "Ġemniyet": 5504,
      "ĠAnd": 5505,
      "Ġizledi": 5506,
      "Ġavantaj": 5507,
      "general": 5508,
      "Ġkonuk": 5509,
      "ĠgeliÅŁme": 5510,
      "Ġharekete": 5511,
      "ĠKomitesi": 5512,
      "cÄ±nÄ±n": 5513,
      "ulmuÅŁ": 5514,
      "ĠbaÅŁlÄ±yor": 5515,
      "ĠÄ°ngilizce": 5516,
      "ashington": 5517,
      "ales": 5518,
      "leyecek": 5519,
      "Ġ1999": 5520,
      "tre": 5521,
      "ediÄŁini": 5522,
      "ĠÃ§ocuklarÄ±": 5523,
      "doÄŁu": 5524,
      "ÅŁey": 5525,
      "Ġettiler": 5526,
      "ick": 5527,
      "ERÄ°": 5528,
      "ĠtanÄ±k": 5529,
      "ĠÄ°ST": 5530,
      "Ġ33": 5531,
      "ematik": 5532,
      "uf": 5533,
      "ĠkÃ¼resel": 5534,
      "Ġ400": 5535,
      "okul": 5536,
      "Ġhesab": 5537,
      "ĠÃĩetin": 5538,
      "eÄŁe": 5539,
      "ĠDolayÄ±sÄ±yla": 5540,
      "Er": 5541,
      "ĠsorunlarÄ±": 5542,
      "lerim": 5543,
      "ĠÃ§ocuÄŁu": 5544,
      "ĠHolding": 5545,
      "ĠkÄ±rsal": 5546,
      "ĠiliÅŁki": 5547,
      "Ġkendisinin": 5548,
      "Ġistihdam": 5549,
      "ilerde": 5550,
      "ice": 5551,
      "ĠhalkÄ±nÄ±n": 5552,
      "ĠprogramÄ±": 5553,
      "ĠyaklaÅŁÄ±m": 5554,
      "onun": 5555,
      "ĠAlan": 5556,
      "ĠRoman": 5557,
      "ĠAbdÃ¼l": 5558,
      "EFA": 5559,
      "ĠHÄ±r": 5560,
      "Ġuyum": 5561,
      "ĠyakÄ±ndan": 5562,
      "medim": 5563,
      "Ġoyunu": 5564,
      "Ġemekli": 5565,
      "Ġyoluyla": 5566,
      "Ġdemokrasi": 5567,
      "ĠuÃ§uÅŁ": 5568,
      "ĠbaÅŁkenti": 5569,
      "Ġkral": 5570,
      "Ġcami": 5571,
      "ĠkÃ¶k": 5572,
      "ĠbÃ¶lgeye": 5573,
      "ĠyerleÅŁim": 5574,
      "ĠKil": 5575,
      "fen": 5576,
      "ĠgÃ¶steri": 5577,
      "ĠgereÄŁi": 5578,
      "Ġsuy": 5579,
      "cÄ±k": 5580,
      "Ä±ÄŁ": 5581,
      "asÄ±z": 5582,
      "Ġoynam": 5583,
      "ĠdeÄŁildi": 5584,
      "ĠyukarÄ±": 5585,
      "ĠÃ§Ã¶k": 5586,
      "ĠmaaÅŁ": 5587,
      "ĠbaÅŁlar": 5588,
      "ĠHanÄ±m": 5589,
      "abileceÄŁi": 5590,
      "Ä±sÄ±t": 5591,
      "ĠÃ¶zgÃ¼rlÃ¼k": 5592,
      "Ġnoktada": 5593,
      "ĠkonuÅŁmada": 5594,
      "ĠbÃ¼yÃ¼me": 5595,
      "75": 5596,
      "Ġfestiv": 5597,
      "Ġkomp": 5598,
      "Ã¼lÃ¼yor": 5599,
      "ĠaracÄ±lÄ±ÄŁÄ±yla": 5600,
      "kray": 5601,
      "und": 5602,
      "yasal": 5603,
      "Ġmali": 5604,
      "Ġaktif": 5605,
      "Ġtoplant": 5606,
      "Ġbon": 5607,
      "ternatif": 5608,
      "Ġettiklerini": 5609,
      "ĠBaykal": 5610,
      "ĠVakfÄ±": 5611,
      "ĠkÄ±l": 5612,
      "ĠDin": 5613,
      "ĠÃ¶lÃ¼": 5614,
      "Ġayn": 5615,
      "Ġbasketbol": 5616,
      "ĠBÃ¶lge": 5617,
      "Ġten": 5618,
      "ilme": 5619,
      "Ġbiy": 5620,
      "Ġdeneyim": 5621,
      "sever": 5622,
      "zat": 5623,
      "Ġnedir": 5624,
      "lenmiÅŁ": 5625,
      "ACAK": 5626,
      "ole": 5627,
      "lanÄ±r": 5628,
      "Ġnitelik": 5629,
      "ĠbÃ¶ylece": 5630,
      "gaz": 5631,
      "Ġidi": 5632,
      "Ġayar": 5633,
      "ĠyaralandÄ±": 5634,
      "ĠmÃ¼ÅŁter": 5635,
      "usuf": 5636,
      "Ġcok": 5637,
      "indistan": 5638,
      "eral": 5639,
      "ĠgÃ¶rÃ¼nt": 5640,
      "Ġiken": 5641,
      "Ġverg": 5642,
      "ĠDe": 5643,
      "ĠÃĩinli": 5644,
      "ĠedildiÄŁini": 5645,
      "ĠGeor": 5646,
      "Ġhakem": 5647,
      "ĠbaÄŁÄ±ÅŁ": 5648,
      "yasÄ±": 5649,
      "Ġmec": 5650,
      "ĠKaya": 5651,
      "ĠMu": 5652,
      "Ġ1990": 5653,
      "ĠPo": 5654,
      "ÃĸZ": 5655,
      "ĠhÃ¼cr": 5656,
      "ĠÄ°lÃ§": 5657,
      "Ä±nÃ§": 5658,
      "lÃ¼ÄŁe": 5659,
      "LU": 5660,
      "ĠulaÅŁÄ±m": 5661,
      "bil": 5662,
      "ĠkarÄ±ÅŁtÄ±r": 5663,
      "ĠrÃ¼z": 5664,
      "acaÄŁÄ±na": 5665,
      "ĠKaymak": 5666,
      "ben": 5667,
      "diÄŁim": 5668,
      "Ġolim": 5669,
      "ĠFa": 5670,
      "Ġ1980": 5671,
      "Ġhissed": 5672,
      "ĠSovyet": 5673,
      "Ã¶yl": 5674,
      "ilirken": 5675,
      "ĠOkul": 5676,
      "ĠTiyatro": 5677,
      "ĠuyarÄ±": 5678,
      "Ġtutan": 5679,
      "Ġbedel": 5680,
      "ĠYav": 5681,
      "ĠyÃ¼zyÄ±lda": 5682,
      "ĠÃľyesi": 5683,
      "OT": 5684,
      "Ġdikkate": 5685,
      "usundaki": 5686,
      "ĠyapÄ±mÄ±": 5687,
      "Ã¼lmesi": 5688,
      "dere": 5689,
      "ĠyÄ±lÄ±na": 5690,
      "ĠEskiÅŁehir": 5691,
      "Ġverilecek": 5692,
      "ĠHizmet": 5693,
      "ĠdÃ¼ÅŁÃ¼ÅŁ": 5694,
      "ĠkiÅŁiye": 5695,
      "ĠÃĩan": 5696,
      "Ġbulundur": 5697,
      "Ġimzalan": 5698,
      "ĠeÄŁitimi": 5699,
      "doÄŁ": 5700,
      "kim": 5701,
      "Ġalg": 5702,
      "Ġgazeteci": 5703,
      "Ġsorumluluk": 5704,
      "ĠiÅŁadam": 5705,
      "ĠkarÅŁÄ±lÄ±ÄŁ": 5706,
      "Ġuzay": 5707,
      "ĠZaten": 5708,
      "ĠYen": 5709,
      "ĠDemirel": 5710,
      "tak": 5711,
      "anyol": 5712,
      "Ġkere": 5713,
      "ĠbirleÅŁtir": 5714,
      "emesi": 5715,
      "Ġicin": 5716,
      "ĠTÃľRK": 5717,
      "ĠGenelkurmay": 5718,
      "ĠverdiÄŁini": 5719,
      "ĠarkadaÅŁÄ±": 5720,
      "ĠTarÄ±m": 5721,
      "ĠDan": 5722,
      "IYOR": 5723,
      "ĠÃ§Ã¶": 5724,
      "Ġtrib": 5725,
      "ĠGar": 5726,
      "usunun": 5727,
      "LARI": 5728,
      "ĠMetin": 5729,
      "inal": 5730,
      "Ġemin": 5731,
      "ate": 5732,
      "ĠMez": 5733,
      "ĠWashington": 5734,
      "Ġvad": 5735,
      "ĠMas": 5736,
      "Ġpor": 5737,
      "Ġmuhalefet": 5738,
      "Ġseyahat": 5739,
      "ĠTerÃ¶r": 5740,
      "ĠTabii": 5741,
      "SÄ°": 5742,
      "Ġdey": 5743,
      "ĠManisa": 5744,
      "Ġmimar": 5745,
      "ĠÃ¶nceden": 5746,
      "tiÄŁimiz": 5747,
      "ĠetmiÅŁtir": 5748,
      "ĠiÅŁlev": 5749,
      "Ä±nan": 5750,
      "Ġteb": 5751,
      "SP": 5752,
      "lÄ±kta": 5753,
      "Ġkentin": 5754,
      "Ġbelirtilen": 5755,
      "meyin": 5756,
      "kun": 5757,
      "ĠÅŁer": 5758,
      "Ġekibi": 5759,
      "ĠGaz": 5760,
      "Ġacil": 5761,
      "ÄŁer": 5762,
      "ĠAlt": 5763,
      "ach": 5764,
      "malara": 5765,
      "Ġrekabet": 5766,
      "ĠgÃ¶rÃ¼yor": 5767,
      "ĠdeÄŁeri": 5768,
      "Ġdiyal": 5769,
      "ates": 5770,
      "Ġizlen": 5771,
      "ĠSamsun": 5772,
      "ĠKuvvetleri": 5773,
      "Ġ2020": 5774,
      "ferans": 5775,
      "ĠtÄ±p": 5776,
      "ĠÅŁef": 5777,
      "ABD": 5778,
      "ĠGenÃ§lik": 5779,
      "kaya": 5780,
      "Ġaray": 5781,
      "ĠValisi": 5782,
      "Ġolanlar": 5783,
      "Ġgerekti": 5784,
      "ĠkullanÄ±lÄ±r": 5785,
      "ĠUEFA": 5786,
      "Ġduruma": 5787,
      "Ġbeklent": 5788,
      "barat": 5789,
      "Ġmezun": 5790,
      "witter": 5791,
      "ĠVol": 5792,
      "dÃ¼n": 5793,
      "ĠgerektiÄŁi": 5794,
      "Ġdokun": 5795,
      "22": 5796,
      "ruf": 5797,
      "Ġsanay": 5798,
      "ĠMill": 5799,
      "ĠSeÃ§im": 5800,
      "embe": 5801,
      "Ġadalet": 5802,
      "Ġresim": 5803,
      "landÄ±ÄŁÄ±": 5804,
      "Ġtopr": 5805,
      "ĠMeydanÄ±": 5806,
      "Ġkaran": 5807,
      "egor": 5808,
      "ĠcoÄŁraf": 5809,
      "Ġdilek": 5810,
      "Ã§Ä±n": 5811,
      "Ġbirini": 5812,
      "ĠsÃ¼rdÃ¼rdÃ¼": 5813,
      "ĠHatta": 5814,
      "Ġkimsenin": 5815,
      "ĠÅŀampiyonasÄ±": 5816,
      "muyor": 5817,
      "ĠOper": 5818,
      "Ã¼mr": 5819,
      "Ġkaybol": 5820,
      "Ġzamanlar": 5821,
      "leyici": 5822,
      "cÄ±larÄ±n": 5823,
      "ĠPlan": 5824,
      "Ġ2016": 5825,
      "Ġgelin": 5826,
      "rom": 5827,
      "Ġderg": 5828,
      "ĠdÃ¶nemin": 5829,
      "ĠtÃ¼ketim": 5830,
      "pÄ±nar": 5831,
      "lerdeki": 5832,
      "ĠOb": 5833,
      "aÄŁÄ±nÄ±": 5834,
      "kor": 5835,
      "diniz": 5836,
      "elal": 5837,
      "ĠhayatÄ±": 5838,
      "ĠolaÄŁan": 5839,
      "Ġkendim": 5840,
      "Ġtakv": 5841,
      "Ġegemen": 5842,
      "Ġkonularda": 5843,
      "eleriyle": 5844,
      "eyse": 5845,
      "Ġdemokras": 5846,
      "ĠgÄ±da": 5847,
      "ĠBaÅŁsav": 5848,
      "yak": 5849,
      "ĠEnstit": 5850,
      "ĠÃ¶rgÃ¼tÃ¼n": 5851,
      "ĠSezer": 5852,
      "ĠXin": 5853,
      "Ġprojesi": 5854,
      "LAN": 5855,
      "Ġbelirli": 5856,
      "Ġsanki": 5857,
      "ĠÃ§alÄ±ÅŁmalarÄ±na": 5858,
      "vat": 5859,
      "ĠbatÄ±": 5860,
      "ĠGÃ¶n": 5861,
      "tansiy": 5862,
      "larÄ±mÄ±za": 5863,
      "Ġkapasit": 5864,
      "ecektir": 5865,
      "Ä±rlar": 5866,
      "Ġmaden": 5867,
      "ĠGazetesi": 5868,
      "ian": 5869,
      "ulur": 5870,
      "ĠsÃ¼redir": 5871,
      "ĠgÃ¶revini": 5872,
      "ĠbÃ¼yÃ¼": 5873,
      "ĠBornova": 5874,
      "ĠMuhammed": 5875,
      "ĠyaÅŁandÄ±": 5876,
      "Ġhayran": 5877,
      "th": 5878,
      "ĠÃ§ey": 5879,
      "ĠfÃ¼z": 5880,
      "ARA": 5881,
      "akkale": 5882,
      "ĠStadÄ±": 5883,
      "acaklarÄ±nÄ±": 5884,
      "dikal": 5885,
      "ĠtÃ¼rkiye": 5886,
      "Ġettim": 5887,
      "SB": 5888,
      "ĠUkray": 5889,
      "Ġoynan": 5890,
      "ebilirsiniz": 5891,
      "Ġverilmesi": 5892,
      "ino": 5893,
      "ĠAR": 5894,
      "Ġcinayet": 5895,
      "amÄ±yor": 5896,
      "ĠKuÅŁ": 5897,
      "ĠgeÃ§irdi": 5898,
      "ĠÃ¼retimi": 5899,
      "lab": 5900,
      "ĠTam": 5901,
      "ĠLim": 5902,
      "ĠEmre": 5903,
      "ĠYapÄ±lan": 5904,
      "Ġvir": 5905,
      "Ä±nÄ±yor": 5906,
      "lÄ±ca": 5907,
      "Ġvererek": 5908,
      "Ġmaliyet": 5909,
      "iki": 5910,
      "Ġyetkili": 5911,
      "ĠPa": 5912,
      "ĠyangÄ±n": 5913,
      "cil": 5914,
      "ĠMon": 5915,
      "ĠÃĸrgÃ¼t": 5916,
      "ĠJapon": 5917,
      "jen": 5918,
      "lerdi": 5919,
      "uÅŁturucu": 5920,
      "Ġkamyon": 5921,
      "ĠÄ°Åŀ": 5922,
      "Ġhasta": 5923,
      "iner": 5924,
      "ĠPeki": 5925,
      "ĠÅŁair": 5926,
      "ean": 5927,
      "ĠEngin": 5928,
      "Ġmezar": 5929,
      "ĠKav": 5930,
      "adÄ±n": 5931,
      "ĠYaklaÅŁÄ±k": 5932,
      "Ġucuz": 5933,
      "Ġha": 5934,
      "Ġtemin": 5935,
      "zet": 5936,
      "memek": 5937,
      "Ġtoplumun": 5938,
      "tor": 5939,
      "Ġolaylar": 5940,
      "ĠAvusturya": 5941,
      "Ġveri": 5942,
      "OM": 5943,
      "Ġhoc": 5944,
      "ĠHollanda": 5945,
      "ĠÄ±srar": 5946,
      "alesef": 5947,
      "Ġtazmin": 5948,
      "ĠedilmiÅŁtir": 5949,
      "Ġortada": 5950,
      "Ġkuruldu": 5951,
      "ĠKut": 5952,
      "ĠÃĸnc": 5953,
      "Ġdili": 5954,
      "Ġyolunda": 5955,
      "ÅŁi": 5956,
      "Ġsam": 5957,
      "Ġlok": 5958,
      "ĠbÃ¼tÃ§": 5959,
      "ĠYaÅŁar": 5960,
      "Ġoda": 5961,
      "Ġolimpiyat": 5962,
      "Ġgelerek": 5963,
      "ĠÄ°Ãĩ": 5964,
      "Ġtakdirde": 5965,
      "En": 5966,
      "ĠvÃ¼cu": 5967,
      "ĠRamazan": 5968,
      "ĠMat": 5969,
      "ĠalmasÄ±": 5970,
      "Ġistek": 5971,
      "24": 5972,
      "ĠsÄ±ralarÄ±nda": 5973,
      "ĠBulgar": 5974,
      "uman": 5975,
      "Ġetmektedir": 5976,
      "lamaz": 5977,
      "ĠKamu": 5978,
      "ĠMek": 5979,
      "ĠyazdÄ±": 5980,
      "Ġkomisyon": 5981,
      "Ġprotokol": 5982,
      "Ġseni": 5983,
      "Ġpol": 5984,
      "ĠÃ§alÄ±ÅŁtÄ±": 5985,
      "Ġekledi": 5986,
      "ĠKonya": 5987,
      "ĠÃ¼rÃ¼nleri": 5988,
      "Ġailesi": 5989,
      "Ġdalg": 5990,
      "ĠnÃ¼kleer": 5991,
      "usuz": 5992,
      "ĠbaÅŁladÄ±k": 5993,
      "ho": 5994,
      "ĠkaÃ§Ä±n": 5995,
      "ĠkomÅŁu": 5996,
      "ĠkalkÄ±n": 5997,
      "ĠsilahlÄ±": 5998,
      "Ġkahv": 5999,
      "kon": 6000,
      "dha": 6001,
      "Ġcezaev": 6002,
      "Ġredde": 6003,
      "Ġpotansiy": 6004,
      "ĠErkek": 6005,
      "ĠbÃ¶": 6006,
      "Ġyiye": 6007,
      "uzu": 6008,
      "ĠBeÅŁ": 6009,
      "ĠolayÄ±n": 6010,
      "isiklet": 6011,
      "Ġfuar": 6012,
      "ĠkalÄ±n": 6013,
      "Ġarka": 6014,
      "ĠYusuf": 6015,
      "ĠIÅŁ": 6016,
      "ĠinanÃ§": 6017,
      "Ġgidecek": 6018,
      "ĠYok": 6019,
      "ĠedeceÄŁiz": 6020,
      "Ġkurs": 6021,
      "ĠyÃ¼rÃ¼r": 6022,
      "tuÄŁ": 6023,
      "ĠsiyasetÃ§i": 6024,
      "ĠdoÄŁu": 6025,
      "EB": 6026,
      "laÅŁmasÄ±": 6027,
      "ĠÃ¶zelliÄŁi": 6028,
      "duklarÄ±": 6029,
      "Ä±b": 6030,
      "abileceÄŁini": 6031,
      "Ġfi": 6032,
      "Ġniye": 6033,
      "Ã¼ye": 6034,
      "ĠLev": 6035,
      "elidir": 6036,
      "Ä°H": 6037,
      "ĠÃ§Ä±kmÄ±ÅŁ": 6038,
      "Ġekib": 6039,
      "dev": 6040,
      "ĠKaf": 6041,
      "sul": 6042,
      "Ġteknoloji": 6043,
      "ĠkitabÄ±": 6044,
      "ĠSavunma": 6045,
      "ĠvatandaÅŁlar": 6046,
      "ÄŁra": 6047,
      "ĠyaÅŁlÄ±": 6048,
      "sinde": 6049,
      "Ġinti": 6050,
      "lerimizi": 6051,
      "Ġcem": 6052,
      "ĠSok": 6053,
      "ĠRapor": 6054,
      "ĠMersin": 6055,
      "siye": 6056,
      "osta": 6057,
      "eceÄŁim": 6058,
      "Ġdarbe": 6059,
      "ĠgÃ¶reve": 6060,
      "alel": 6061,
      "mÄ±z": 6062,
      "oda": 6063,
      "ĠTÃľ": 6064,
      "ĠyapmasÄ±": 6065,
      "tina": 6066,
      "Ġbozuk": 6067,
      "alarÄ±yla": 6068,
      "Ġkilometr": 6069,
      "Ġaktiv": 6070,
      "ĠFÄ±r": 6071,
      "ĠgeÃ§ici": 6072,
      "ESÄ°": 6073,
      "ĠiÅŁleri": 6074,
      "ĠOrhan": 6075,
      "ĠanlaÅŁma": 6076,
      "ĠHakk": 6077,
      "Ġdikkati": 6078,
      "ĠTakÄ±mÄ±": 6079,
      "ĠsÃ¶zlerini": 6080,
      "Ġvek": 6081,
      "Ġbilet": 6082,
      "ph": 6083,
      "sis": 6084,
      "ahkeme": 6085,
      "ĠGu": 6086,
      "Ä±lacaÄŁÄ±nÄ±": 6087,
      "Ġtoplanan": 6088,
      "Ġkanser": 6089,
      "gam": 6090,
      "espor": 6091,
      "ĠyaÅŁÄ±yor": 6092,
      "ĠinanÄ±yorum": 6093,
      "ĠDavutoÄŁlu": 6094,
      "ski": 6095,
      "Ġkentinde": 6096,
      "Ġheykel": 6097,
      "ein": 6098,
      "ĠEd": 6099,
      "Ã¼steÅŁ": 6100,
      "ĠBilim": 6101,
      "adoÄŁu": 6102,
      "Ġdurumun": 6103,
      "ĠÃ¶rt": 6104,
      "ĠBayrak": 6105,
      "ĠOkulu": 6106,
      "ĠÄ°sviÃ§": 6107,
      "ĠtoplantÄ±sÄ±": 6108,
      "elendir": 6109,
      "ĠsÃ¼reÃ§te": 6110,
      "ĠgÃ¶k": 6111,
      "Ġsigara": 6112,
      "Ġenflasyon": 6113,
      "ĠkatÄ±": 6114,
      "ATO": 6115,
      "ĠyÃ¼kseldi": 6116,
      "ĠdiÅŁ": 6117,
      "ĠyazdÄ±ÄŁÄ±": 6118,
      "ĠbugÃ¼nkÃ¼": 6119,
      "Ġbanka": 6120,
      "Ġmahalle": 6121,
      "ĠKÃ¼t": 6122,
      "aÄŁÄ±nÄ±n": 6123,
      "iÄŁe": 6124,
      "Ġbilgileri": 6125,
      "ĠkavuÅŁ": 6126,
      "ĠkaÄŁÄ±": 6127,
      "ĠBunlarÄ±n": 6128,
      "Ġokun": 6129,
      "usur": 6130,
      "mekten": 6131,
      "ĠgerÃ§ekleÅŁti": 6132,
      "ĠkaldÄ±ÄŁÄ±": 6133,
      "Ġfazl": 6134,
      "laÅŁtÄ±rma": 6135,
      "Ġgelmesi": 6136,
      "Ä°s": 6137,
      "Ġondan": 6138,
      "ĠÃ¶ÄŁrencisi": 6139,
      "ĠkÃ¶pek": 6140,
      "umartesi": 6141,
      "ĠÃ¼stÃ¼ne": 6142,
      "elli": 6143,
      "uyum": 6144,
      "ĠÃĩek": 6145,
      "ilmiÅŁti": 6146,
      "ĠmÃ¼hendis": 6147,
      "ĠgeÃ§er": 6148,
      "ĠamaÃ§lÄ±": 6149,
      "ĠÃ§iÃ§ek": 6150,
      "Ġdenildi": 6151,
      "ĠÃĸzgÃ¼r": 6152,
      "Ġzamanlarda": 6153,
      "lari": 6154,
      "ĠHey": 6155,
      "Ġihtimal": 6156,
      "23": 6157,
      "ĠDal": 6158,
      "ĠkardeÅŁi": 6159,
      "ahh": 6160,
      "ĠÃ§Ä±kardÄ±": 6161,
      "Ġkavg": 6162,
      "oto": 6163,
      "Ġsik": 6164,
      "Ġlisans": 6165,
      "ĠHÃ¼kÃ¼met": 6166,
      "adÄ±r": 6167,
      "ĠdeÄŁilim": 6168,
      "ĠMark": 6169,
      "ĠMaliye": 6170,
      "tis": 6171,
      "lediklerini": 6172,
      "Ġaran": 6173,
      "Ġ75": 6174,
      "ĠÃ§Ä±ktÄ±ÄŁÄ±": 6175,
      "ĠTurg": 6176,
      "ĠGerÃ§ek": 6177,
      "io": 6178,
      "Ġbulan": 6179,
      "bon": 6180,
      "lediÄŁini": 6181,
      "ĠSilah": 6182,
      "don": 6183,
      "ĠÃ¶ÄŁrencilerin": 6184,
      "ĠÄ°r": 6185,
      "Ġevinde": 6186,
      "ĠgÃ¶revl": 6187,
      "rid": 6188,
      "ĠHindistan": 6189,
      "ĠbÄ±Ã§ak": 6190,
      "Bah": 6191,
      "ĠkalmÄ±ÅŁ": 6192,
      "Ġolmayacak": 6193,
      "Ġevet": 6194,
      "ĠkaldÄ±rÄ±ldÄ±": 6195,
      "ĠYargÄ±tay": 6196,
      "aÄŁan": 6197,
      "Ġbeden": 6198,
      "Ġbuy": 6199,
      "imini": 6200,
      "ĠÃ§Ä±kÄ±p": 6201,
      "Ġhassas": 6202,
      "Ġgittik": 6203,
      "ĠÄ°spanyol": 6204,
      "ĠGÃ¼ler": 6205,
      "Ġyerlerde": 6206,
      "Ġtutuklu": 6207,
      "alimanÄ±": 6208,
      "ĠJandarma": 6209,
      "ĠGÃ¼nÃ¼": 6210,
      "Ġdonan": 6211,
      "Ġifadelerini": 6212,
      "ĠplakalÄ±": 6213,
      "45": 6214,
      "ĠaÃ§Ä±kÃ§a": 6215,
      "ĠyÄ±llardÄ±r": 6216,
      "ĠKayseri": 6217,
      "Ġistediklerini": 6218,
      "Ġkoc": 6219,
      "Ġtopu": 6220,
      "ĠtartÄ±ÅŁma": 6221,
      "Ä°z": 6222,
      "ĠyapÄ±ldÄ±ÄŁÄ±nÄ±": 6223,
      "ĠEner": 6224,
      "Ġdeplasman": 6225,
      "ĠbaÅŁÄ±": 6226,
      "desi": 6227,
      "ĠÃ§am": 6228,
      "memiz": 6229,
      "nÃ¼": 6230,
      "tion": 6231,
      "Ġrefer": 6232,
      "Ġayda": 6233,
      "Ġtutum": 6234,
      "Ġhizmeti": 6235,
      "ĠbÃ¶lÃ¼n": 6236,
      "leÅŁtirme": 6237,
      "ĠEce": 6238,
      "Ġevine": 6239,
      "Ġlaf": 6240,
      "ĠdÃ¼zenleme": 6241,
      "ĠhatÄ±rlatan": 6242,
      "UT": 6243,
      "Ġ1998": 6244,
      "ĠXinjiang": 6245,
      "ĠaralÄ±k": 6246,
      "Ġturnuv": 6247,
      "Ġalternatif": 6248,
      "Ġkenti": 6249,
      "Ġoynayan": 6250,
      "ĠÃ¼stlen": 6251,
      "Ġgeril": 6252,
      "UK": 6253,
      "Ġvit": 6254,
      "amik": 6255,
      "ĠoluÅŁtu": 6256,
      "ediler": 6257,
      "ĠyazÄ±k": 6258,
      "ĠParkÄ±": 6259,
      "makla": 6260,
      "ĠattÄ±ÄŁÄ±": 6261,
      "burg": 6262,
      "ĠPan": 6263,
      "ĠgÃ¶revli": 6264,
      "ĠZaman": 6265,
      "portaj": 6266,
      "ĠbaÅŁlattÄ±": 6267,
      "ĠÃĩevre": 6268,
      "Ġhadi": 6269,
      "ehri": 6270,
      "ĠkiÅŁiyi": 6271,
      "Ġyolda": 6272,
      "bÃ¼s": 6273,
      "Ġdenk": 6274,
      "ĠolduÄŁumuz": 6275,
      "ĠBeyaz": 6276,
      "ÅŁah": 6277,
      "Ġtap": 6278,
      "amuk": 6279,
      "ady": 6280,
      "ĠyÃ¶nde": 6281,
      "Ġust": 6282,
      "malarÄ±na": 6283,
      "ĠHalil": 6284,
      "ildik": 6285,
      "Ġ38": 6286,
      "ĠÄ°Ã§iÅŁleri": 6287,
      "Ġkimi": 6288,
      "Ġkoruy": 6289,
      "ĠoÄŁl": 6290,
      "Ġmerkezinde": 6291,
      "tesi": 6292,
      "Ġedilem": 6293,
      "Ġinsanlara": 6294,
      "ÃľZ": 6295,
      "Saray": 6296,
      "ĠsÃ¼rece": 6297,
      "ĠkÃ¶ylÃ¼": 6298,
      "ĠErzurum": 6299,
      "Ġhaberi": 6300,
      "ĠsÃ¼recinde": 6301,
      "ĠÃ¼lkeye": 6302,
      "ĠOrgan": 6303,
      "EÃĩ": 6304,
      "alisyon": 6305,
      "ĠKab": 6306,
      "ĠÃ§aba": 6307,
      "Ġadeta": 6308,
      "Ġanket": 6309,
      "layÄ±cÄ±": 6310,
      "ĠAj": 6311,
      "Ġkimlik": 6312,
      "Ġburadan": 6313,
      "idi": 6314,
      "Ġallah": 6315,
      "ĠgÃ¶rdÃ¼ÄŁ": 6316,
      "ĠdÃ¼zelt": 6317,
      "Ġengelli": 6318,
      "ĠAY": 6319,
      "Ġvermeye": 6320,
      "lÄ±ktan": 6321,
      "anlarÄ±n": 6322,
      "ĠDEÄŀ": 6323,
      "ĠSoy": 6324,
      "Ġince": 6325,
      "Ġkategor": 6326,
      "ĠbÃ¶lgesi": 6327,
      "avÃ¼z": 6328,
      "reti": 6329,
      "ĠsÃ¼resi": 6330,
      "Ġkahraman": 6331,
      "Ġtalimat": 6332,
      "ĠÃĩar": 6333,
      "Ġhastaneye": 6334,
      "Ã¼nist": 6335,
      "ĠCol": 6336,
      "ĠÅŁeker": 6337,
      "Ġmini": 6338,
      "melerini": 6339,
      "Ġkonuyu": 6340,
      "ĠzamanÄ±nda": 6341,
      "ĠÃĩanakkale": 6342,
      "bulans": 6343,
      "olar": 6344,
      "ebiliyor": 6345,
      "Ġkov": 6346,
      "ĠÃ§Ä±kmasÄ±": 6347,
      "Ġyenilen": 6348,
      "Ġtay": 6349,
      "ĠDaÄŁÄ±": 6350,
      "ĠyapacaÄŁÄ±": 6351,
      "ĠuÄŁra": 6352,
      "Ġyetersiz": 6353,
      "DK": 6354,
      "SA": 6355,
      "ette": 6356,
      "ĠMahkeme": 6357,
      "ĠÄ°sveÃ§": 6358,
      "va": 6359,
      "ĠdÃ¼k": 6360,
      "ĠAil": 6361,
      "ĠKes": 6362,
      "ĠkararÄ±nÄ±": 6363,
      "Ġkaybeden": 6364,
      "ukur": 6365,
      "Ġdenet": 6366,
      "Ġ65": 6367,
      "asÄ±n": 6368,
      "Ġoldum": 6369,
      "Ä±sÄ±nÄ±z": 6370,
      "ihat": 6371,
      "Ġnam": 6372,
      "ĠalÄ±m": 6373,
      "birliÄŁi": 6374,
      "duklarÄ±nÄ±": 6375,
      "Ġordus": 6376,
      "ĠsÃ¼rÃ¼cÃ¼": 6377,
      "ĠgeniÅŁlet": 6378,
      "ĠbaÅŁlamÄ±ÅŁ": 6379,
      "Ġbec": 6380,
      "Ġbelirlenen": 6381,
      "Ã¼cut": 6382,
      "zu": 6383,
      "Ġmarka": 6384,
      "kÃ¶y": 6385,
      "Ġmahall": 6386,
      "ĠKomutanlÄ±ÄŁÄ±": 6387,
      "ĠAdam": 6388,
      "ĠKart": 6389,
      "ĠbakÄ±mÄ±ndan": 6390,
      "ĠErmeni": 6391,
      "ĠilÃ§esi": 6392,
      "ĠÅŁimd": 6393,
      "Ġpiyasaya": 6394,
      "Ã¼mrÃ¼k": 6395,
      "Ġharit": 6396,
      "Ġharcam": 6397,
      "emeyen": 6398,
      "NA": 6399,
      "iÅŁk": 6400,
      "ĠÃ¼lkeleri": 6401,
      "ĠÄ°ÅŁleri": 6402,
      "ses": 6403,
      "ity": 6404,
      "priz": 6405,
      "ĠOÄŁuz": 6406,
      "ĠProgram": 6407,
      "ĠTeÅŁ": 6408,
      "Ġakr": 6409,
      "ARI": 6410,
      "ĠbÃ¶lÃ¼mÃ¼nde": 6411,
      "Ġreddet": 6412,
      "iciler": 6413,
      "Ġsezonunda": 6414,
      "ĠgÃ¶rÃ¼ÅŁme": 6415,
      "Ġvs": 6416,
      "Ġkrizi": 6417,
      "inizde": 6418,
      "adikal": 6419,
      "ĠanÄ±m": 6420,
      "Ã¶nÃ¼": 6421,
      "ĠaÃ§an": 6422,
      "ĠbazÄ±larÄ±": 6423,
      "ĠgetirdiÄŁi": 6424,
      "ĠAslÄ±nda": 6425,
      "Ġdeney": 6426,
      "tÄ±ÄŁÄ±mÄ±z": 6427,
      "ĠsÄ±kÄ±": 6428,
      "oft": 6429,
      "ĠolasÄ±": 6430,
      "Ġ55": 6431,
      "Ġantrenman": 6432,
      "keri": 6433,
      "Ġedebilir": 6434,
      "Ġliraya": 6435,
      "Ġ250": 6436,
      "kender": 6437,
      "ĠAvustr": 6438,
      "Ġoynay": 6439,
      "Ġiktid": 6440,
      "acÄ±k": 6441,
      "ĠbÃ¼rokr": 6442,
      "ĠArk": 6443,
      "ĠkÃ¶t": 6444,
      "ydi": 6445,
      "tanÄ±n": 6446,
      "elikop": 6447,
      "ĠOysa": 6448,
      "ĠoynadÄ±ÄŁÄ±": 6449,
      "Ġkeyif": 6450,
      "ĠÃ§el": 6451,
      "Ġbeklenen": 6452,
      "Ġyur": 6453,
      "Ġzeytin": 6454,
      "Ġkomutan": 6455,
      "Ġbeyin": 6456,
      "tÃ¼k": 6457,
      "Ġgenelde": 6458,
      "ĠÃ¶deme": 6459,
      "unlar": 6460,
      "ĠbaÅŁladÄ±ÄŁÄ±": 6461,
      "alÄ±lar": 6462,
      "ĠhaklÄ±": 6463,
      "Ġmetal": 6464,
      "ayolu": 6465,
      "ĠTÃ¼r": 6466,
      "Ġbenzeri": 6467,
      "Ġbence": 6468,
      "Ġoturan": 6469,
      "Ġefsan": 6470,
      "Ã§Ä±lÄ±k": 6471,
      "ĠSÄ±n": 6472,
      "ĠYazÄ±": 6473,
      "Ġsayg": 6474,
      "Ġmuhtem": 6475,
      "Ġikin": 6476,
      "ĠmaÃ§Ä±n": 6477,
      "ĠMaÃ§": 6478,
      "ĠÃ§alÄ±ÅŁmaya": 6479,
      "Ġtutar": 6480,
      "ĠbilinÃ§": 6481,
      "ĠdayalÄ±": 6482,
      "ĠolaylarÄ±": 6483,
      "ĠmÃ¼l": 6484,
      "ĠgerÃ§ekleÅŁen": 6485,
      "nci": 6486,
      "ĠBan": 6487,
      "opa": 6488,
      "Ġisimler": 6489,
      "ĠTekn": 6490,
      "Ġzorunlu": 6491,
      "ĠMem": 6492,
      "oper": 6493,
      "Ä±ldÄ±ÄŁÄ±nda": 6494,
      "ĠKÃ¶rf": 6495,
      "ĠTok": 6496,
      "Ġgergin": 6497,
      "ĠÃ¶zÃ¼r": 6498,
      "Ġgetirmek": 6499,
      "ĠBelÃ§": 6500,
      "Ġderken": 6501,
      "ĠbÃ¶lgenin": 6502,
      "ĠsÃ¶zÃ¼": 6503,
      "Ã¼lÃ¼k": 6504,
      "ĠyaÅŁat": 6505,
      "ĠArslan": 6506,
      "Ä±lÄ±rken": 6507,
      "ĠÅŁehri": 6508,
      "EP": 6509,
      "Ġbeyan": 6510,
      "ĠFestivali": 6511,
      "aÄŁÄ±na": 6512,
      "Ġyatak": 6513,
      "oo": 6514,
      "Ä±yÄ±m": 6515,
      "Ġtarif": 6516,
      "Ġbekleyen": 6517,
      "Ġsendik": 6518,
      "Ġbiridir": 6519,
      "Ġkariyer": 6520,
      "Ġzev": 6521,
      "Ġotop": 6522,
      "irler": 6523,
      "Ġmir": 6524,
      "ĠMed": 6525,
      "ĠAyÅŁ": 6526,
      "ĠHayat": 6527,
      "ayÄ±r": 6528,
      "landÄ±ÄŁÄ±nÄ±": 6529,
      "ĠUkrayna": 6530,
      "ilenin": 6531,
      "ĠdÃ¶nÃ¼ÅŁÃ¼m": 6532,
      "ĠkÄ±yafet": 6533,
      "Ġfelsef": 6534,
      "ĠEnstitÃ¼sÃ¼": 6535,
      "28": 6536,
      "ibet": 6537,
      "ĠaldÄ±k": 6538,
      "okulu": 6539,
      "ĠNATO": 6540,
      "engiz": 6541,
      "21": 6542,
      "ĠdÄ±ÅŁÄ±na": 6543,
      "ĠolmamasÄ±": 6544,
      "ĠSistem": 6545,
      "ĠkalÄ±r": 6546,
      "ĠolmuÅŁtu": 6547,
      "ĠFor": 6548,
      "leriniz": 6549,
      "Ġkimyasal": 6550,
      "Ġsemt": 6551,
      "Ġfutbolc": 6552,
      "ĠolduÄŁundan": 6553,
      "Ġ188": 6554,
      "ĠdÃ¶viz": 6555,
      "ĠSun": 6556,
      "ĠÄ±ÅŁÄ±": 6557,
      "ĠhakkÄ±nÄ±": 6558,
      "Ä°LER": 6559,
      "Ġrenkli": 6560,
      "ĠMÃ¼cad": 6561,
      "ĠalkÄ±ÅŁ": 6562,
      "Ġtarihli": 6563,
      "ĠÅŁehr": 6564,
      "rag": 6565,
      "ĠBoÄŁaz": 6566,
      "Ġcil": 6567,
      "35": 6568,
      "ester": 6569,
      "Ġsevin": 6570,
      "Ġolamaz": 6571,
      "ĠmÃ¼zaker": 6572,
      "pe": 6573,
      "Ġklasik": 6574,
      "ĠolduÄŁunun": 6575,
      "ĠOrman": 6576,
      "ĠdÃ¼r": 6577,
      "Ġfestival": 6578,
      "ĠdÃ¶r": 6579,
      "ĠMilletler": 6580,
      "ĠgeliÅŁmiÅŁ": 6581,
      "ĠdÃ¼zenlenecek": 6582,
      "Ġkorumak": 6583,
      "ÅŁek": 6584,
      "ĠyapÄ±yoruz": 6585,
      "Ġfer": 6586,
      "ĠArdÄ±ndan": 6587,
      "Ġ600": 6588,
      "ĠYÃ¼ksel": 6589,
      "ĠSekreteri": 6590,
      "lup": 6591,
      "Ġufak": 6592,
      "ĠkÄ±sÄ±m": 6593,
      "ĠbaÅŁarÄ±sÄ±z": 6594,
      "Ġgeride": 6595,
      "Ġkenar": 6596,
      "ĠÃľmit": 6597,
      "Ġbayan": 6598,
      "Ä±sÄ±yla": 6599,
      "ĠsaÄŁladÄ±": 6600,
      "Ġortamda": 6601,
      "ĠOrtadoÄŁu": 6602,
      "ĠdÃ¼zenlendi": 6603,
      "Ġbirinc": 6604,
      "ĠazÄ±ndan": 6605,
      "Ġsavundu": 6606,
      "ĠSinan": 6607,
      "Ġvermesi": 6608,
      "ĠAnn": 6609,
      "ĠÅŁirketin": 6610,
      "ĠApp": 6611,
      "var": 6612,
      "Ġgram": 6613,
      "imden": 6614,
      "alÄ±ÄŁÄ±": 6615,
      "Ġyerden": 6616,
      "Ġkoydu": 6617,
      "Ġikili": 6618,
      "ĠbaÅŁlangÄ±Ã§": 6619,
      "dÄ±ÄŁÄ±ndan": 6620,
      "Ġsevgi": 6621,
      "ĠÃ¼stÃ¼nde": 6622,
      "Ġbayr": 6623,
      "Ġpen": 6624,
      "ĠEmin": 6625,
      "ĠamacÄ±": 6626,
      "Ġgrubun": 6627,
      "ĠPap": 6628,
      "Ġyetkililer": 6629,
      "ĠboÄŁ": 6630,
      "Ġbulunduk": 6631,
      "Ġinceleme": 6632,
      "BUL": 6633,
      "ĠgÃ¼nden": 6634,
      "ĠarkasÄ±nda": 6635,
      "ĠtanÄ±tÄ±m": 6636,
      "ĠkalabalÄ±k": 6637,
      "ĠuyuÅŁturucu": 6638,
      "ĠÃĸztÃ¼rk": 6639,
      "Ġoynanan": 6640,
      "ĠkarÅŁÄ±lÄ±klÄ±": 6641,
      "ĠyapacaÄŁÄ±z": 6642,
      "Ġ48": 6643,
      "Ġhediye": 6644,
      "ami": 6645,
      "ĠkarÅŁÄ±l": 6646,
      "uÄŁla": 6647,
      "Ġbeb": 6648,
      "orta": 6649,
      "ĠÄ°L": 6650,
      "Ġmon": 6651,
      "ahmet": 6652,
      "ÃľL": 6653,
      "âĢĵ": 6654,
      "Ä±sÄ±ndaki": 6655,
      "ĠRobert": 6656,
      "Ġolas": 6657,
      "ĠgeÃ§iyor": 6658,
      "ĠfarkÄ±": 6659,
      "90": 6660,
      "emmel": 6661,
      "ĠBÃ¶lÃ¼mÃ¼": 6662,
      "ĠrÃ¶portaj": 6663,
      "eyt": 6664,
      "ĠÅŁof": 6665,
      "iplin": 6666,
      "ĠIMF": 6667,
      "Her": 6668,
      "ĠiÅŁyer": 6669,
      "ĠÅŁeyin": 6670,
      "Ġimha": 6671,
      "ĠMÃ¼zesi": 6672,
      "icdan": 6673,
      "ĠiliÅŁkileri": 6674,
      "ĠAT": 6675,
      "Ġsorunlar": 6676,
      "ier": 6677,
      "ÄŁimi": 6678,
      "lerinizi": 6679,
      "dÄ±ÄŁÄ±nÄ±n": 6680,
      "ex": 6681,
      "Ġdernek": 6682,
      "ĠhÃ¼kÃ»met": 6683,
      "ĠpopÃ¼ler": 6684,
      "ĠyapÄ±p": 6685,
      "afaz": 6686,
      "Ġetnik": 6687,
      "ĠOf": 6688,
      "ĠaktÃ¶r": 6689,
      "ĠgÃ¶sterdiÄŁi": 6690,
      "ĠsÄ±ÄŁÄ±n": 6691,
      "ĠUygur": 6692,
      "ĠÃ¼cretsiz": 6693,
      "78": 6694,
      "liliÄŁi": 6695,
      "ĠsÃ¶zleÅŁme": 6696,
      "Av": 6697,
      "edek": 6698,
      "ĠalmÄ±ÅŁtÄ±r": 6699,
      "Ġrez": 6700,
      "ĠNev": 6701,
      "ĠsÃ¶zleri": 6702,
      "ĠalÄ±narak": 6703,
      "Ġokur": 6704,
      "ĠgÃ¶revlendir": 6705,
      "ĠaÃ§Ä±klamasÄ±": 6706,
      "Ġvadeli": 6707,
      "uyordu": 6708,
      "rafik": 6709,
      "Ġtasarruf": 6710,
      "ĠÃ§ekiyor": 6711,
      "baycan": 6712,
      "labilir": 6713,
      "ĠBana": 6714,
      "ĠmÃ¼s": 6715,
      "ĠyÃ¶nel": 6716,
      "tÄ±ktan": 6717,
      "Ġokula": 6718,
      "Ne": 6719,
      "ĠAD": 6720,
      "azartesi": 6721,
      "ĠTH": 6722,
      "ĠtecavÃ¼z": 6723,
      "ĠDep": 6724,
      "Ġihlal": 6725,
      "Ġboyu": 6726,
      "ĠbaÅŁkanlÄ±k": 6727,
      "hisar": 6728,
      "ĠÅŀam": 6729,
      "ĠTunc": 6730,
      "Ġkurdu": 6731,
      "ĠtamamladÄ±": 6732,
      "ĠNor": 6733,
      "ĠalÄ±nacak": 6734,
      "ĠET": 6735,
      "ĠbÃ¼tÃ§e": 6736,
      "ĠdÃ¼zenli": 6737,
      "Ġmatematik": 6738,
      "adÄ±": 6739,
      "ĠkÄ±yÄ±": 6740,
      "ĠYurt": 6741,
      "leyerek": 6742,
      "ĠyÄ±llarÄ±nda": 6743,
      "Ġzorluk": 6744,
      "ĠKaÃ§": 6745,
      "ĠMir": 6746,
      "acan": 6747,
      "ĠgÃ¶rdÃ¼ÄŁÃ¼": 6748,
      "eyiz": 6749,
      "Ġsekiz": 6750,
      "los": 6751,
      "ilmesinin": 6752,
      "Ġkatli": 6753,
      "po": 6754,
      "we": 6755,
      "ĠPow": 6756,
      "ĠarttÄ±": 6757,
      "Ġederim": 6758,
      "ĠGeorge": 6759,
      "mara": 6760,
      "ĠAdnan": 6761,
      "ĠElektr": 6762,
      "Ġfirma": 6763,
      "26": 6764,
      "Ġetki": 6765,
      "Ġcumhuriyet": 6766,
      "ĠÃĩiÄŁ": 6767,
      "Ġolmaktan": 6768,
      "ĠKork": 6769,
      "Ġettikleri": 6770,
      "ĠArab": 6771,
      "Ġdevleti": 6772,
      "ĠTÃ¼rkmen": 6773,
      "ĠDirektÃ¶rÃ¼": 6774,
      "aydÄ±": 6775,
      "cÄ±larÄ±": 6776,
      "uyorlar": 6777,
      "ĠAzer": 6778,
      "ĠYa": 6779,
      "Ġfilmde": 6780,
      "ĠDevleti": 6781,
      "umun": 6782,
      "Ġmesela": 6783,
      "aÄŁÄ±nda": 6784,
      "malarda": 6785,
      "deres": 6786,
      "Ġbelirtiliyor": 6787,
      "malarÄ±nÄ±n": 6788,
      "ĠdediÄŁi": 6789,
      "ĠgÃ¶rdÃ¼m": 6790,
      "ĠÃ§alÄ±ÅŁÄ±yoruz": 6791,
      "ĠyapÄ±lÄ±r": 6792,
      "Ã¼mÃ¼ze": 6793,
      "):": 6794,
      "ĠÅŁok": 6795,
      "Ġifadesini": 6796,
      "Ġkaza": 6797,
      "ĠaÄŁz": 6798,
      "ĠyaptÄ±klarÄ±nÄ±": 6799,
      "Ġmaruz": 6800,
      "ĠEvet": 6801,
      "Ġverme": 6802,
      "ĠbulunmasÄ±": 6803,
      "ĠsÄ±nÄ±rlarÄ±": 6804,
      "ĠKore": 6805,
      "sey": 6806,
      "ĠKir": 6807,
      "ĠÃ§oÄŁunluk": 6808,
      "Ġayakk": 6809,
      "lÄ±lÄ±ÄŁ": 6810,
      "Ġartan": 6811,
      "ĠbaÅŁlÄ±klÄ±": 6812,
      "ĠgÃ¼nÃ¼mÃ¼zde": 6813,
      "Ġkulak": 6814,
      "lemiÅŁ": 6815,
      "Ġsahil": 6816,
      "ĠSak": 6817,
      "ansiyon": 6818,
      "ĠTarihi": 6819,
      "ĠtÃ¶r": 6820,
      "amayacak": 6821,
      "ĠUygu": 6822,
      "imizden": 6823,
      "Ġimparator": 6824,
      "Ä°zmir": 6825,
      "ĠÅŀÃ¼k": 6826,
      "likte": 6827,
      "ĠArÄ±nÃ§": 6828,
      "bor": 6829,
      "ĠsÃ¼rpriz": 6830,
      "eÄŁinde": 6831,
      "ĠÅŁehrin": 6832,
      "Ġhakaret": 6833,
      "Ġkendimi": 6834,
      "Ġambulans": 6835,
      "ĠMÃ¼zik": 6836,
      "ĠÃ§ekim": 6837,
      "ĠseÃ§ildi": 6838,
      "ĠMÃĸ": 6839,
      "ĠVen": 6840,
      "gresi": 6841,
      "Ġgayet": 6842,
      "ĠEkonomi": 6843,
      "ĠKitap": 6844,
      "ĠyapacaÄŁ": 6845,
      "Ġirade": 6846,
      "ĠmÃ¼r": 6847,
      "ĠÃ¶dey": 6848,
      "rat": 6849,
      "lex": 6850,
      "ĠÃĸN": 6851,
      "Ġbayrak": 6852,
      "ĠSalih": 6853,
      "Ä±ntÄ±lÄ±": 6854,
      "abilen": 6855,
      "ĠÃ§alÄ±ÅŁtÄ±ÄŁÄ±": 6856,
      "ĠHrist": 6857,
      "Ġmiting": 6858,
      "ĠÃ§Ä±karak": 6859,
      "ĠÃ¶v": 6860,
      "ilmez": 6861,
      "ĠeÅŁliÄŁinde": 6862,
      "iyeli": 6863,
      "----": 6864,
      "Ġbahset": 6865,
      "Ġkonuyla": 6866,
      "Ġ37": 6867,
      "Ġintihar": 6868,
      "ĠKoc": 6869,
      "ĠyÄ±ldan": 6870,
      "ĠaÃ§Ä±klandÄ±": 6871,
      "Ġadres": 6872,
      "Ġvatan": 6873,
      "Ġmac": 6874,
      "ĠalanlarÄ±": 6875,
      "ĠTemsil": 6876,
      "line": 6877,
      "Ġkod": 6878,
      "ulmaz": 6879,
      "ĠaÃ§tÄ±ÄŁÄ±": 6880,
      "ĠsuÃ§lam": 6881,
      "ĠBaÄŁdat": 6882,
      "ĠObama": 6883,
      "Ġlaik": 6884,
      "ĠHazine": 6885,
      "Ġradyo": 6886,
      "ĠÃ¶ÄŁle": 6887,
      "ĠÄ°ÃĩÄ°N": 6888,
      "ĠPh": 6889,
      "Ġevlilik": 6890,
      "ĠmillÃ®": 6891,
      "Ġbl": 6892,
      "Ġhelikop": 6893,
      "ĠDÃ¼ÅŁ": 6894,
      "ĠyapÄ±sÄ±": 6895,
      "yiz": 6896,
      "ĠyÃ¼zlerce": 6897,
      "ALI": 6898,
      "dayÄ±z": 6899,
      "ĠgÃ¶rÃ¼r": 6900,
      "ĠCo": 6901,
      "ÄŁrul": 6902,
      "Ġ|": 6903,
      "ĠPakistan": 6904,
      "Ġyolsuzluk": 6905,
      "ubu": 6906,
      "ĠÃľnlÃ¼": 6907,
      "Ġidari": 6908,
      "OS": 6909,
      "amasÄ±": 6910,
      "ĠyaÅŁama": 6911,
      "ĠkullanÄ±mÄ±": 6912,
      "Ġ1997": 6913,
      "Ġyakal": 6914,
      "ĠoluÅŁturan": 6915,
      "Ġhisse": 6916,
      "ĠsavaÅŁÄ±": 6917,
      "ĠTanrÄ±": 6918,
      "MAN": 6919,
      "ĠNo": 6920,
      "ĠÃ¶zen": 6921,
      "Ġikna": 6922,
      "ĠMÃ¼h": 6923,
      "Ġistasyon": 6924,
      "Ġiklim": 6925,
      "Ġaj": 6926,
      "ĠgÃ¶nderdi": 6927,
      "Ġsermaye": 6928,
      "ĠaldÄ±m": 6929,
      "ĠCumhurbaÅŁkanlÄ±ÄŁÄ±": 6930,
      "Ġelektronik": 6931,
      "ĠBasÄ±n": 6932,
      "Ġsos": 6933,
      "ĠÃ§ocuÄŁun": 6934,
      "ĠSig": 6935,
      "Ġsahipleri": 6936,
      "ĠkarÅŁÄ±sÄ±na": 6937,
      "ĠteÅŁkilat": 6938,
      "azarÄ±": 6939,
      "utin": 6940,
      "ĠliralÄ±k": 6941,
      "miyorum": 6942,
      "Ġvizyon": 6943,
      "ĠEdir": 6944,
      "ava": 6945,
      "Ã¼lebilir": 6946,
      "UÅŀ": 6947,
      "leniyor": 6948,
      "Ġparalel": 6949,
      "ĠÃ¼lkelerde": 6950,
      "bas": 6951,
      "Ã¼ntÃ¼": 6952,
      "eciler": 6953,
      "mesin": 6954,
      "Ġisyan": 6955,
      "Ġbekliyoruz": 6956,
      "Ġzinc": 6957,
      "ÃľÅŀ": 6958,
      "elle": 6959,
      "ĠTom": 6960,
      "Ġgeldik": 6961,
      "Ġgelince": 6962,
      "Ġhasar": 6963,
      "ĠcezalandÄ±r": 6964,
      "ĠEN": 6965,
      "ĠsÄ±fÄ±r": 6966,
      "Ġanaliz": 6967,
      "yol": 6968,
      "Ġelbette": 6969,
      "ĠyazÄ±lÄ±m": 6970,
      "Ġsabit": 6971,
      "leket": 6972,
      "Ġbe": 6973,
      "ĠÄ°lhan": 6974,
      "ĠnumaralÄ±": 6975,
      "adet": 6976,
      "Ġbahsed": 6977,
      "Ġbiliyorum": 6978,
      "saydÄ±": 6979,
      "Or": 6980,
      "ĠIs": 6981,
      "ĠbÃ¶lgedeki": 6982,
      "Ã¼ce": 6983,
      "Ġiyice": 6984,
      "ĠdeÄŁiÅŁim": 6985,
      "Ġtelefonu": 6986,
      "dÃ¼ncÃ¼": 6987,
      "Ġkuy": 6988,
      "etiyle": 6989,
      "Ġkalacak": 6990,
      "Ġlez": 6991,
      "Ġkurban": 6992,
      "Ġduyar": 6993,
      "ĠbÄ±raktÄ±": 6994,
      "Ġ1996": 6995,
      "ladÄ±klarÄ±nÄ±": 6996,
      "Ä°B": 6997,
      "ĠsÄ±nÄ±rlÄ±": 6998,
      "Ġgecik": 6999,
      "Ġkaliteli": 7000,
      "Ġnamaz": 7001,
      "Ġherkese": 7002,
      "ĠnoktasÄ±": 7003,
      "ĠkÄ±sÄ±t": 7004,
      "ĠGÃĸR": 7005,
      "Ġplatform": 7006,
      "Ġelinden": 7007,
      "Ġsad": 7008,
      "ĠYarÄ±ÅŁ": 7009,
      "ĠkÃ¶prÃ¼": 7010,
      "ĠaÅŁkÄ±n": 7011,
      "Ġ1994": 7012,
      "Ġbecer": 7013,
      "Ġkonusundaki": 7014,
      "ĠNeden": 7015,
      "ĠgÃ¶rÃ¼nce": 7016,
      "ĠgÃ¶rÃ¼ldÃ¼": 7017,
      "ĠKÃ¶pr": 7018,
      "yaspor": 7019,
      "ÅŁembe": 7020,
      "Ġzehir": 7021,
      "ĠÃĸnce": 7022,
      "ĠyaptÄ±m": 7023,
      "Ġuzan": 7024,
      "ĠgÃ¼venliÄŁi": 7025,
      "EG": 7026,
      "OP": 7027,
      "ĠyapmayÄ±": 7028,
      "astik": 7029,
      "ĠMÃ¼steÅŁ": 7030,
      "CI": 7031,
      "ĠKanun": 7032,
      "Ġsebebi": 7033,
      "ĠÃĸÄŁren": 7034,
      "ĠkÃ¶kenli": 7035,
      "ĠgÃ¼ncel": 7036,
      "Ġkasab": 7037,
      "Ġhatt": 7038,
      "Ġtipi": 7039,
      "Ġdiyorum": 7040,
      "ĠSaat": 7041,
      "Ġmutluluk": 7042,
      "lÃ¼ÄŁÃ¼ne": 7043,
      "Ġmuhalif": 7044,
      "ĠGo": 7045,
      "MS": 7046,
      "ĠbaÅŁlandÄ±": 7047,
      "ĠsÄ±rt": 7048,
      "ekom": 7049,
      "Ġanti": 7050,
      "ĠÃ¶ncelikle": 7051,
      "Ġob": 7052,
      "ĠSelim": 7053,
      "deb": 7054,
      "ima": 7055,
      "ĠbaÅŁkent": 7056,
      "ĠgÃ¼nler": 7057,
      "ĠSat": 7058,
      "Ġgetirilen": 7059,
      "iyel": 7060,
      "ĠÃ§if": 7061,
      "lamanÄ±n": 7062,
      "ĠSonuÃ§": 7063,
      "ĠdÃ¼zeyde": 7064,
      "anda": 7065,
      "luÄŁunu": 7066,
      "ĠÃ¶zet": 7067,
      "Ġweb": 7068,
      "atistik": 7069,
      "Ġhit": 7070,
      "ĠÅŁunu": 7071,
      "Ġesk": 7072,
      "ĠMc": 7073,
      "ĠdÄ±ÅŁÄ±ndaki": 7074,
      "Ġpartinin": 7075,
      "Ġkoalisyon": 7076,
      "ĠarkadaÅŁlarÄ±": 7077,
      "ĠgÃ¼venli": 7078,
      "ÅŁamba": 7079,
      "ĠayrÄ±ntÄ±": 7080,
      "ĠfiyatÄ±": 7081,
      "ĠVER": 7082,
      "Ġhata": 7083,
      "ĠÄ±rk": 7084,
      "ĠkapsamlÄ±": 7085,
      "Ġtemsilcisi": 7086,
      "ĠYavuz": 7087,
      "Ġtazminat": 7088,
      "lÃ¼ÄŁÃ¼nÃ¼": 7089,
      "ĠMenderes": 7090,
      "liÄŁiyle": 7091,
      "ĠKarÅŁÄ±": 7092,
      "ĠbÃ¼nyesinde": 7093,
      "Ġmusunuz": 7094,
      "Sen": 7095,
      "ĠDevletleri": 7096,
      "ĠKomut": 7097,
      "Ġceph": 7098,
      "Ġhizmete": 7099,
      "ĠAskeri": 7100,
      "Ġiade": 7101,
      "Ġsevg": 7102,
      "ĠYalÃ§Ä±n": 7103,
      "Ä°stanbul": 7104,
      "ĠYÃ¼r": 7105,
      "ĠBurs": 7106,
      "Ġvideo": 7107,
      "ĠBit": 7108,
      "ĠpayÄ±": 7109,
      "Ġusul": 7110,
      "ĠAzerbaycan": 7111,
      "Ġbisiklet": 7112,
      "ĠvÃ¼cut": 7113,
      "Bur": 7114,
      "rÃ¼": 7115,
      "Ä°l": 7116,
      "Ġbilmiyorum": 7117,
      "Ġmiktarda": 7118,
      "ĠgÃ¶nÃ¼llÃ¼": 7119,
      "bel": 7120,
      "ĠsatÄ±r": 7121,
      "Ġkanat": 7122,
      "ĠkatkÄ±da": 7123,
      "calan": 7124,
      "Ġeline": 7125,
      "ĠtavÄ±r": 7126,
      "ĠBahÃ§eli": 7127,
      "Ġverici": 7128,
      "Ġsessiz": 7129,
      "TC": 7130,
      "ĠdÃ¶nen": 7131,
      "ADI": 7132,
      "Ġkorku": 7133,
      "ĠGÃ¶khan": 7134,
      "Ġ1992": 7135,
      "hael": 7136,
      "27": 7137,
      "ĠTep": 7138,
      "Ġvicdan": 7139,
      "ĠUlu": 7140,
      "ĠDon": 7141,
      "ĠToprak": 7142,
      "ĠCon": 7143,
      "TA": 7144,
      "Ġdevreye": 7145,
      "Ġbaraj": 7146,
      "ĠDik": 7147,
      "uydu": 7148,
      "Ã¢h": 7149,
      "siyet": 7150,
      "Ġtad": 7151,
      "....": 7152,
      "ĠdÃ¼ÅŁÃ¼nce": 7153,
      "Ġsembol": 7154,
      "ĠKarar": 7155,
      "Ġbitk": 7156,
      "ĠkÃ¼Ã§": 7157,
      "ĠGEL": 7158,
      "Ġseslendir": 7159,
      "ows": 7160,
      "Ġizleyen": 7161,
      "ĠgÃ¶zden": 7162,
      "ĠBayramÄ±": 7163,
      "esir": 7164,
      "Ġayakta": 7165,
      "Ġtarihleri": 7166,
      "ĠeÅŁlik": 7167,
      "vert": 7168,
      "edat": 7169,
      "Ġekmek": 7170,
      "Ãĸz": 7171,
      "ĠDÃ¼nyanÄ±n": 7172,
      "ĠzamanÄ±": 7173,
      "ĠhÃ¼kÃ¼metinin": 7174,
      "Ġmilletvekilleri": 7175,
      "ĠÅŀirket": 7176,
      "Ġstratejik": 7177,
      "istler": 7178,
      "faiye": 7179,
      "Ġpolitika": 7180,
      "lanacak": 7181,
      "Ġkullanmak": 7182,
      "pat": 7183,
      "ĠsÄ±z": 7184,
      "Ġtaraftan": 7185,
      "EÅŀ": 7186,
      "ĠCev": 7187,
      "Ġdevir": 7188,
      "ĠSaray": 7189,
      "mÄ±yorum": 7190,
      "ĠÃ§evresinde": 7191,
      "Ä±lmÄ±ÅŁtÄ±": 7192,
      "luÄŁa": 7193,
      "ĠfaktÃ¶r": 7194,
      "ĠKÄ±sa": 7195,
      "iÅŁan": 7196,
      "Ġmadalya": 7197,
      "ĠÃ¶zellikleri": 7198,
      "ivan": 7199,
      "Ġ1991": 7200,
      "ĠgÃ¼ne": 7201,
      "ebilmek": 7202,
      "ĠtatlÄ±": 7203,
      "ĠGerek": 7204,
      "Ġcaz": 7205,
      "Ġsom": 7206,
      "ĠTwitter": 7207,
      "Ġsisteminin": 7208,
      "dÄ±ÅŁÄ±": 7209,
      "ĠBrezilya": 7210,
      "Ay": 7211,
      "mÃ¼yor": 7212,
      "ĠsorularÄ±nÄ±": 7213,
      "oskova": 7214,
      "ĠBirinci": 7215,
      "ĠtanrÄ±": 7216,
      "Ġhayatta": 7217,
      "berg": 7218,
      "ĠTut": 7219,
      "afir": 7220,
      "ĠseÃ§in": 7221,
      "ĠÃ§alÄ±ÅŁmalarÄ±nÄ±n": 7222,
      "ĠÃĩift": 7223,
      "Ġuygul": 7224,
      "ulduÄŁu": 7225,
      "Ġyerlere": 7226,
      "Ġvurgulan": 7227,
      "ĠÄ°ZMÄ°R": 7228,
      "ĠFik": 7229,
      "Ġyoksul": 7230,
      "29": 7231,
      "lusu": 7232,
      "Ġnas": 7233,
      "ĠolmayÄ±": 7234,
      "ĠÄ°ÅŁlet": 7235,
      "ĠOtel": 7236,
      "Ġalanlarda": 7237,
      "Ġkitl": 7238,
      "ĠbÃ¼yÃ¼y": 7239,
      "biy": 7240,
      "ĠulaÅŁtÄ±r": 7241,
      "ĠBizans": 7242,
      "rosoft": 7243,
      "KAN": 7244,
      "ts": 7245,
      "Ġaksine": 7246,
      "Ġ1995": 7247,
      "LERÄ°": 7248,
      "ĠÄ°t": 7249,
      "Ġmilliyet": 7250,
      "Ġbilen": 7251,
      "ogle": 7252,
      "Ġhus": 7253,
      "Ġvah": 7254,
      "ĠgÃ¶nderildi": 7255,
      "Ġhukuki": 7256,
      "Ġsebebiyle": 7257,
      "Ġ?": 7258,
      "Ä±sal": 7259,
      "Ġsantr": 7260,
      "ĠKarabaÄŁ": 7261,
      "Ġolunca": 7262,
      "ĠyaratÄ±": 7263,
      "ĠMÃ¼cadele": 7264,
      "ĠiÃ§inden": 7265,
      "ĠBuca": 7266,
      "ĠBirleÅŁmiÅŁ": 7267,
      "ĠKamp": 7268,
      "ĠimkanÄ±": 7269,
      "onsor": 7270,
      "anlarÄ±": 7271,
      "ĠKendis": 7272,
      "ĠanÄ±": 7273,
      "ĠhakkÄ±ndaki": 7274,
      "Ã§ilik": 7275,
      "emeyece": 7276,
      "emizde": 7277,
      "ĠgÃ¶rÃ¼ÅŁtÃ¼": 7278,
      "ĠgÃ¼Ã§leri": 7279,
      "ĠSerdar": 7280,
      "umlar": 7281,
      "ĠHayvan": 7282,
      "kest": 7283,
      "ledik": 7284,
      "ĠCuma": 7285,
      "Ġistis": 7286,
      "ĠgeldiÄŁinde": 7287,
      "ĠHavalimanÄ±": 7288,
      "Ġrejim": 7289,
      "ames": 7290,
      "ĠyÃ¶netiminin": 7291,
      "Ġyel": 7292,
      "Ġ1960": 7293,
      "Ġdemektir": 7294,
      "iban": 7295,
      "ĠOnlar": 7296,
      "ĠÃ§Ã¶p": 7297,
      "ĠÄ°sviÃ§re": 7298,
      "Ġsaha": 7299,
      "Ġ2017": 7300,
      "Ġocak": 7301,
      "Ä°NE": 7302,
      "ĠBalkan": 7303,
      "luluÄŁ": 7304,
      "ĠÅŁarap": 7305,
      "dil": 7306,
      "ĠÃ¶ncelik": 7307,
      "civert": 7308,
      "ĠyÃ¶nÃ¼ndeki": 7309,
      "ĠÄ°skender": 7310,
      "Ä±lma": 7311,
      "umda": 7312,
      "ĠTurk": 7313,
      "ĠBla": 7314,
      "ori": 7315,
      "Ġpah": 7316,
      "Ġsavunan": 7317,
      "ĠOtom": 7318,
      "ĠÃĸrgÃ¼tÃ¼": 7319,
      "ĠEngel": 7320,
      "âĢĻ,": 7321,
      "ĠYaÄŁ": 7322,
      "ĠDairesi": 7323,
      "mos": 7324,
      "ĠErmen": 7325,
      "ÃľM": 7326,
      "diÄŁimiz": 7327,
      "ĠarasÄ±na": 7328,
      "Ġyeten": 7329,
      "satÄ±": 7330,
      "ĠJin": 7331,
      "BahÃ§e": 7332,
      "Ġ39": 7333,
      "Ġsorusuna": 7334,
      "ĠsaÄŁlÄ±yor": 7335,
      "ĠSalonu": 7336,
      "ĠÄ°nan": 7337,
      "ĠkurÅŁ": 7338,
      "Ġbitti": 7339,
      "Ġmanz": 7340,
      "ĠbaÅŁÄ±ndan": 7341,
      "Ġyiyecek": 7342,
      "eÄŁini": 7343,
      "dÄ±ÄŁÄ±nÄ±z": 7344,
      "ANK": 7345,
      "ĠtaÅŁÄ±yor": 7346,
      "Ġbahis": 7347,
      "US": 7348,
      "ÄŁiyle": 7349,
      "ĠsÃ¼s": 7350,
      "ĠgÃ¼z": 7351,
      "mÃ¼ÅŁtÃ¼": 7352,
      "ĠEdirne": 7353,
      "ĠsaÄŁlar": 7354,
      "yaÅŁ": 7355,
      "alÄ±dÄ±r": 7356,
      "ĠdÃ¼ÅŁÃ¼nÃ¼l": 7357,
      "Ġprojeler": 7358,
      "ĠBaÅŁbakanlÄ±k": 7359,
      "illiam": 7360,
      "Ġfatur": 7361,
      "ĠitibarÄ±yla": 7362,
      "Ġ1970": 7363,
      "Ġbilgilendir": 7364,
      "leyin": 7365,
      "ney": 7366,
      "lemesi": 7367,
      "ĠcumhurbaÅŁkanÄ±": 7368,
      "Ġdenize": 7369,
      "ĠAhmed": 7370,
      "Ġfutbolcular": 7371,
      "Ġalana": 7372,
      "ĠeÅŁy": 7373,
      "Ġtaks": 7374,
      "ĠKulÃ¼p": 7375,
      "LIK": 7376,
      "ĠgÃ¶rÃ¼nÃ¼yor": 7377,
      "stil": 7378,
      "ĠÃ§aÄŁdaÅŁ": 7379,
      "ĠEmek": 7380,
      "ĠbÃ¶lgelerde": 7381,
      "Ġoyuncular": 7382,
      "Ġtavsiye": 7383,
      "Ġorganize": 7384,
      "ÄŁÃ¼nÃ¼": 7385,
      "Ġgazete": 7386,
      "Ġtahliye": 7387,
      "ĠOnur": 7388,
      "ĠyÃ¼zyÄ±lÄ±n": 7389,
      "Ã¼tfen": 7390,
      "aa": 7391,
      "ĠAlp": 7392,
      "ĠKON": 7393,
      "ĠAkadem": 7394,
      "ĠayrÄ±lan": 7395,
      "Ġkonferans": 7396,
      "ektaÅŁ": 7397,
      "INI": 7398,
      "Ġmaddesi": 7399,
      "Ġmekaniz": 7400,
      "div": 7401,
      "ĠCengiz": 7402,
      "eÅŁem": 7403,
      "ĠKonuÅŁ": 7404,
      "ĠÃ§apÄ±nda": 7405,
      "Ġ1993": 7406,
      "ĠÃ§aÄŁrÄ±": 7407,
      "Ġmaalesef": 7408,
      "Ġmerkezine": 7409,
      "tifak": 7410,
      "Ġtehlikeli": 7411,
      "Ġmobil": 7412,
      "ĠyapÄ±lab": 7413,
      "Ġnik": 7414,
      "ĠsonuÃ§lar": 7415,
      "Ġnefes": 7416,
      "Ġsergilen": 7417,
      "ekiz": 7418,
      "Ġvade": 7419,
      "Ġmol": 7420,
      "ĠgelmiÅŁtir": 7421,
      "ĠÃ§alÄ±ÅŁmak": 7422,
      "ĠVatandaÅŁ": 7423,
      "ĠÃ¼lkeyi": 7424,
      "ĠkÄ±rÄ±k": 7425,
      "Ġ=": 7426,
      "Ġyiy": 7427,
      "ĠAnt": 7428,
      "Ġsorgu": 7429,
      "Ġincelen": 7430,
      "Ġdiyalog": 7431,
      "LAM": 7432,
      "Ġutan": 7433,
      "Ġdediler": 7434,
      "ĠgÃ¶sterir": 7435,
      "Ġicra": 7436,
      "ĠTasar": 7437,
      "ĠTibet": 7438,
      "ĠHe": 7439,
      "Ġtalebi": 7440,
      "aÅŁÄ±k": 7441,
      "Ġfeder": 7442,
      "tÄ±cÄ±": 7443,
      "Ġgerekse": 7444,
      "ĠÅŁampiyonluk": 7445,
      "ĠÅŁiddetli": 7446,
      "ĠyayÄ±mlanan": 7447,
      "anti": 7448,
      "Ġgor": 7449,
      "ĠHik": 7450,
      "ĠkadÄ±nÄ±": 7451,
      "ĠeriÅŁ": 7452,
      "ÅŁet": 7453,
      "FA": 7454,
      "ĠsÃ¶": 7455,
      "ĠBakanlar": 7456,
      "Ġresmen": 7457,
      "Kar": 7458,
      "ĠnÃ¶": 7459,
      "ĠetmiÅŁti": 7460,
      "Ġertel": 7461,
      "Ġbomba": 7462,
      "ĠÃĸzdemir": 7463,
      "ĠayrÄ±m": 7464,
      "ĠsatÄ±ÅŁa": 7465,
      "ĠMoskova": 7466,
      "ĠÅŀim": 7467,
      "ĠseÃ§imi": 7468,
      "Ġfiziksel": 7469,
      "Ġzevk": 7470,
      "Ġves": 7471,
      "Ġantik": 7472,
      "ĠBerlin": 7473,
      "bal": 7474,
      "ĠCep": 7475,
      "ĠEcevit": 7476,
      "giliz": 7477,
      "ĠDel": 7478,
      "ĠcoÅŁ": 7479,
      "luÄŁun": 7480,
      "ĠadamlarÄ±": 7481,
      "uyucu": 7482,
      "Ġsip": 7483,
      "ĠsÃ¼per": 7484,
      "ĠgeleceÄŁi": 7485,
      "Ġuyan": 7486,
      "ĠÃ¼yelerinin": 7487,
      "ĠolmasÄ±nÄ±n": 7488,
      "Ä±ÅŁÄ±n": 7489,
      "ĠkalÄ±yor": 7490,
      "ĠEnerji": 7491,
      "Ġgirecek": 7492,
      "Ġordusu": 7493,
      "Ġleh": 7494,
      "ĠdireniÅŁ": 7495,
      "lÄ±yoruz": 7496,
      "ĠseÃ§ilen": 7497,
      "ĠÄ°pek": 7498,
      "abi": 7499,
      "Ġnih": 7500,
      "Ġparlament": 7501,
      "ĠyaÅŁadÄ±": 7502,
      "pt": 7503,
      "Ã§ilerin": 7504,
      "ĠÄ°N": 7505,
      "Ġoraya": 7506,
      "Ġgazetesi": 7507,
      "Ġskor": 7508,
      "ĠMuÄŁla": 7509,
      "Ġalak": 7510,
      "ĠsÃ¼rdÃ¼ren": 7511,
      "yolu": 7512,
      "ĠyÃ¼zey": 7513,
      "ĠkÃ¼f": 7514,
      "ĠYIL": 7515,
      "Ġ44": 7516,
      "abiliriz": 7517,
      "YON": 7518,
      "lon": 7519,
      "Ġyeme": 7520,
      "ĠAÃĩ": 7521,
      "emem": 7522,
      "ĠSabancÄ±": 7523,
      "Ġneyse": 7524,
      "ĠaylarÄ±nda": 7525,
      "ĠRef": 7526,
      "Ġdenir": 7527,
      "Ġdenilen": 7528,
      "Ġailesinin": 7529,
      "indan": 7530,
      "Ġidam": 7531,
      "yeni": 7532,
      "ĠDar": 7533,
      "Ġharf": 7534,
      "ĠbarÄ±ndÄ±r": 7535,
      "Ġhelikopter": 7536,
      "Ġtok": 7537,
      "Ġkalma": 7538,
      "ĠtarafÄ±": 7539,
      "ĠFo": 7540,
      "ĠbaÅŁkanlarÄ±": 7541,
      "Ġtit": 7542,
      "Ġ46": 7543,
      "Ġikisi": 7544,
      "Ġhaberine": 7545,
      "ĠgÃ¶nderilen": 7546,
      "Ġsitesi": 7547,
      "ĠBrit": 7548,
      "ĠsahipliÄŁi": 7549,
      "ĠmÃ¼zisyen": 7550,
      "oj": 7551,
      "ĠAngel": 7552,
      "Ġsahib": 7553,
      "Ġevren": 7554,
      "iÄŁin": 7555,
      "ĠhikÃ¢": 7556,
      "encer": 7557,
      "Ġren": 7558,
      "lamadÄ±": 7559,
      "ĠÃ§izg": 7560,
      "Ġkafa": 7561,
      "ĠortasÄ±nda": 7562,
      "ĠBununla": 7563,
      "halde": 7564,
      "Ġeklen": 7565,
      "Ġkoleksiyon": 7566,
      "ĠhÄ±zlandÄ±r": 7567,
      "ĠAÃ§Ä±klamada": 7568,
      "Ġzafer": 7569,
      "ĠSarayÄ±": 7570,
      "ĠYahudi": 7571,
      "Ġsahte": 7572,
      "eyerek": 7573,
      "ĠBalÄ±kesir": 7574,
      "ĠPas": 7575,
      "ĠVAR": 7576,
      "lanarak": 7577,
      "ĠmantÄ±k": 7578,
      "Ġduyurdu": 7579,
      "ĠGol": 7580,
      "gini": 7581,
      "ĠVek": 7582,
      "Ġ42": 7583,
      "ĠoluÅŁur": 7584,
      "ĠboÅŁan": 7585,
      "cÃ¼k": 7586,
      "Ġtuv": 7587,
      "ĠgÃ¶ÄŁ": 7588,
      "ĠAkÄ±n": 7589,
      "ĠnÃ¼fusu": 7590,
      "ĠStr": 7591,
      "ĠDoÃ§": 7592,
      "Ã¼ks": 7593,
      "ĠbulunduÄŁ": 7594,
      "Ġmoda": 7595,
      "Ġmahkum": 7596,
      "Ġistihbarat": 7597,
      "kas": 7598,
      "ĠMarmara": 7599,
      "ĠseÃ§enek": 7600,
      "Ġ186": 7601,
      "ĠsonuÃ§larÄ±": 7602,
      "lub": 7603,
      "layÄ±n": 7604,
      "ĠKilis": 7605,
      "iÃ§i": 7606,
      "unt": 7607,
      "Ġgeriye": 7608,
      "Ġbina": 7609,
      "Ä±ldÄ±k": 7610,
      "ĠanlatÄ±yor": 7611,
      "Ġuygulanan": 7612,
      "mÄ±zÄ±lÄ±": 7613,
      "ĠLat": 7614,
      "ĠyakÄ±ÅŁ": 7615,
      "ĠrÃ¼zgar": 7616,
      "Ġbizzat": 7617,
      "Ġ[": 7618,
      "ĠBursaspor": 7619,
      "anÄ±p": 7620,
      "ĠkatÄ±lacak": 7621,
      "indows": 7622,
      "gat": 7623,
      "mo": 7624,
      "etleri": 7625,
      "ĠyollarÄ±": 7626,
      "Ġpolisin": 7627,
      "ĠÃ§ekildi": 7628,
      "ĠaktardÄ±": 7629,
      "ĠsÃ¶yleyerek": 7630,
      "BA": 7631,
      "vel": 7632,
      "Ä±lmasÄ±nÄ±n": 7633,
      "ĠÃ§Ä±karÄ±": 7634,
      "ĠaltÄ±ndaki": 7635,
      "Ġihale": 7636,
      "Ġsesi": 7637,
      "Ġdom": 7638,
      "ĠProjesi": 7639,
      "KP": 7640,
      "Ġkaleci": 7641,
      "atÄ±rÄ±m": 7642,
      "ĠLevent": 7643,
      "iyede": 7644,
      "Ġkoltuk": 7645,
      "ĠkarÅŁÄ±lÄ±ÄŁÄ±nda": 7646,
      "amin": 7647,
      "lanmÄ±ÅŁtÄ±r": 7648,
      "ĠâĢĿ": 7649,
      "Ġch": 7650,
      "ĠKu": 7651,
      "ĠdoÄŁur": 7652,
      "sman": 7653,
      "ĠgerÃ§e": 7654,
      "ksiyon": 7655,
      "Ġtuttu": 7656,
      "Ġ2019": 7657,
      "Ġmesl": 7658,
      "Ġkendileri": 7659,
      "ĠFuarÄ±": 7660,
      "imle": 7661,
      "Ġetik": 7662,
      "Ġkatk": 7663,
      "ĠÅŀubesi": 7664,
      "ĠmÃ¼kemmel": 7665,
      "ĠAlex": 7666,
      "emiyor": 7667,
      "tefik": 7668,
      "ĠÃĩank": 7669,
      "ĠUÃ§": 7670,
      "ĠÃĸcalan": 7671,
      "enkul": 7672,
      "ĠyarattÄ±ÄŁÄ±": 7673,
      "ĠterÃ¶ristlerin": 7674,
      "Ġsir": 7675,
      "ĠÅŀanlÄ±": 7676,
      "ĠedeceÄŁini": 7677,
      "33": 7678,
      "ĠYang": 7679,
      "Ġbiliyoruz": 7680,
      "ĠyaptÄ±ÄŁÄ±mÄ±z": 7681,
      "ĠiÅŁletmeler": 7682,
      "ĠbirliÄŁi": 7683,
      "ĠAV": 7684,
      "iti": 7685,
      "veren": 7686,
      "ĠMadrid": 7687,
      "ĠKomutanÄ±": 7688,
      "ĠsÃ¶n": 7689,
      "ĠPet": 7690,
      "Ġmetin": 7691,
      "Ġaleyh": 7692,
      "ĠÃĩay": 7693,
      "ÄŁimizi": 7694,
      "Ġoranda": 7695,
      "ĠaÃ§Ä±klamasÄ±nda": 7696,
      "Ġliman": 7697,
      "anam": 7698,
      "ĠseÃ§imlerde": 7699,
      "Ġbirbirinden": 7700,
      "ĠBoy": 7701,
      "Ġeseri": 7702,
      "Ġgitar": 7703,
      "ĠdeÄŁiÅŁikliÄŁi": 7704,
      "Ã¼lecek": 7705,
      "ĠYerel": 7706,
      "ĠMut": 7707,
      "tikten": 7708,
      "ĠsektÃ¶rÃ¼nde": 7709,
      "Ġvakit": 7710,
      "ladÄ±m": 7711,
      "Ġbulunmak": 7712,
      "eÄŁine": 7713,
      "fed": 7714,
      "ĠHacÄ±": 7715,
      "aci": 7716,
      "Ġbulmak": 7717,
      "Ġ120": 7718,
      "ĠMit": 7719,
      "Ġgazetecilerin": 7720,
      "ĠasÄ±llÄ±": 7721,
      "Ġilgilendir": 7722,
      "Ġverdik": 7723,
      "Ġtarihinin": 7724,
      "Ġolmasa": 7725,
      "ĠSaddam": 7726,
      "ota": 7727,
      "Ä±lmaktadÄ±r": 7728,
      "ĠÃ¶ÄŁrencileri": 7729,
      "Ġpsikolojik": 7730,
      "ĠaltyapÄ±": 7731,
      "Ġ187": 7732,
      "Ġraporu": 7733,
      "ĠÅŀampiyonlar": 7734,
      "Ġsahaya": 7735,
      "ĠÃ§alÄ±ÅŁmalarÄ±n": 7736,
      "ĠNob": 7737,
      "ĠsektÃ¶rÃ¼": 7738,
      "Ã§Ã¼": 7739,
      "Ġradikal": 7740,
      "Ġhip": 7741,
      "Ġoradan": 7742,
      "ĠBirÃ§ok": 7743,
      "ĠTaraf": 7744,
      "Ġbulam": 7745,
      "ĠtÃ¼rÃ¼": 7746,
      "Ġnoktaya": 7747,
      "Ġismini": 7748,
      "veÃ§": 7749,
      "Ġgeleni": 7750,
      "ĠDavid": 7751,
      "Ġkadros": 7752,
      "ECEK": 7753,
      "ĠdanÄ±ÅŁman": 7754,
      "ĠBro": 7755,
      "eÄŁinin": 7756,
      "Ġ49": 7757,
      "ĠgirdiÄŁi": 7758,
      "ĠdavasÄ±": 7759,
      "ĠolaÄŁanÃ¼stÃ¼": 7760,
      "laj": 7761,
      "ĠÅŁeye": 7762,
      "ĠÃ¼retilen": 7763,
      "Ġgezeg": 7764,
      "ĠolabileceÄŁini": 7765,
      "Ġmetrekar": 7766,
      "DIR": 7767,
      "eygam": 7768,
      "ĠNer": 7769,
      "ĠAna": 7770,
      "Ġsiyasal": 7771,
      "ĠbaÅŁladÄ±ÄŁÄ±nÄ±": 7772,
      "ĠEsad": 7773,
      "Ġheyeti": 7774,
      "Ġ+": 7775,
      "Ä±lmaya": 7776,
      "ĠGeÃ§tiÄŁimiz": 7777,
      "ĠDemokrat": 7778,
      "Ġdegil": 7779,
      "alarca": 7780,
      "arka": 7781,
      "Ġyang": 7782,
      "ĠbÃ¶lgelerinde": 7783,
      "Ġmemleket": 7784,
      "zan": 7785,
      "ĠÃĩam": 7786,
      "ĠsÃ¼reli": 7787,
      "ĠBelki": 7788,
      "ĠGÃ¶rÃ¼ÅŁ": 7789,
      "ĠSinem": 7790,
      "ĠBos": 7791,
      "Ġoyunun": 7792,
      "ĠgidiÅŁ": 7793,
      "tip": 7794,
      "ĠNehri": 7795,
      "Ã§Ä±lar": 7796,
      "ĠgÃ¶Ã§men": 7797,
      ".''": 7798,
      "Ġedilerek": 7799,
      "Ġhali": 7800,
      "ĠtakÄ±ma": 7801,
      "Ġuygulamaya": 7802,
      "Ġressam": 7803,
      "ĠMahmut": 7804,
      "ĠÃ§Ä±ktÄ±ÄŁÄ±nÄ±": 7805,
      "ĠCin": 7806,
      "ica": 7807,
      "ĠhaksÄ±z": 7808,
      "Ġahlak": 7809,
      "jantin": 7810,
      "ĠED": 7811,
      "Ġbunlara": 7812,
      "Ġinsani": 7813,
      "ĠhazÄ±rladÄ±ÄŁÄ±": 7814,
      "ĠÃ§ocuklara": 7815,
      "Ġkilit": 7816,
      "ĠOrtak": 7817,
      "ĠSuÃ§": 7818,
      "ĠBulgaristan": 7819,
      "ĠSim": 7820,
      "Ġkoordin": 7821,
      "ĠadamÄ±n": 7822,
      "ee": 7823,
      "iden": 7824,
      "aydÄ±n": 7825,
      "ĠtÃ¼f": 7826,
      "ĠNasÄ±l": 7827,
      "ĠPaul": 7828,
      "au": 7829,
      "ink": 7830,
      "Ġentr": 7831,
      "Ġkred": 7832,
      "endim": 7833,
      "ĠSokak": 7834,
      "ĠalÄ±rken": 7835,
      "ceÄŁi": 7836,
      "ĠPen": 7837,
      "ĠZor": 7838,
      "SO": 7839,
      "errah": 7840,
      "ĠHalep": 7841,
      "Ġmay": 7842,
      "ĠMesel": 7843,
      "ĠGr": 7844,
      "Ġetmeyi": 7845,
      "ĠalanÄ±na": 7846,
      "adiÅŁah": 7847,
      "Ġzek": 7848,
      "ĠFel": 7849,
      "ĠNot": 7850,
      "Ġkutsal": 7851,
      "eceklerini": 7852,
      "Ġbilgilere": 7853,
      "tuÄŁrul": 7854,
      "ĠSabah": 7855,
      "ĠYÃĸ": 7856,
      "Ġ2018": 7857,
      "Ġnefret": 7858,
      "Yeni": 7859,
      "Ã§ileri": 7860,
      "ĠgÃ¶rÃ¼nÃ¼m": 7861,
      "Ġerkekler": 7862,
      "Ġyah": 7863,
      "olik": 7864,
      "ĠÄ°nternet": 7865,
      "ELER": 7866,
      "ĠIÅŁÄ±k": 7867,
      "anÄ±z": 7868,
      "andum": 7869,
      "iyse": 7870,
      "likler": 7871,
      "ĠdoÄŁan": 7872,
      "ĠbakÄ±n": 7873,
      "ĠaÃ§Ä±klamaya": 7874,
      "leyip": 7875,
      "ĠWilliam": 7876,
      "Ġith": 7877,
      "ĠHristiyan": 7878,
      "dÄ±nÄ±z": 7879,
      "otiv": 7880,
      "ĠÃĩiÃ§ek": 7881,
      "Ġmuhafaz": 7882,
      "ĠyÃ¶neticileri": 7883,
      "ĠÃ§ekerek": 7884,
      "Ä°NÄ°": 7885,
      "ĠBilg": 7886,
      "ĠulaÅŁan": 7887,
      "ĠdÃ¼rÃ¼st": 7888,
      "sh": 7889,
      "sÃ¼n": 7890,
      "ĠyÃ¼rÃ¼rlÃ¼ÄŁe": 7891,
      "medik": 7892,
      "ĠgÃ¼nleri": 7893,
      "osiklet": 7894,
      "ĠyaÅŁamak": 7895,
      "198": 7896,
      "Ġhaftada": 7897,
      "Ġima": 7898,
      "Ġevr": 7899,
      "ĠToplum": 7900,
      "ĠdoÄŁumlular": 7901,
      "ĠTesis": 7902,
      "ĠTC": 7903,
      "ĠGezi": 7904,
      "ĠOyuncu": 7905,
      "Ġresm": 7906,
      "aly": 7907,
      "ĠMimar": 7908,
      "Ġka": 7909,
      "ĠAA": 7910,
      "Ġsordu": 7911,
      "ĠÃ§ekir": 7912,
      "abilirler": 7913,
      "Ġsonradan": 7914,
      "ĠBelÃ§ika": 7915,
      "ĠÃ¼zÃ¼l": 7916,
      "ĠiÃ§erik": 7917,
      "INA": 7918,
      "ĠaracÄ±n": 7919,
      "ĠYasasÄ±": 7920,
      "Ġkritik": 7921,
      "Ġyetenek": 7922,
      "ĠbÃ¶yl": 7923,
      "Ġprens": 7924,
      "ĠalmaktadÄ±r": 7925,
      "ĠkaynaklarÄ±": 7926,
      "Ġsponsor": 7927,
      "ĠZiraat": 7928,
      "Ġkongr": 7929,
      "ĠyaÅŁay": 7930,
      "ĠgeÃ§iren": 7931,
      "Ġsahneye": 7932,
      "ĠyardÄ±mcÄ±sÄ±": 7933,
      "ĠÅŁif": 7934,
      "ĠsÃ¶ylemek": 7935,
      "Ġteker": 7936,
      "ahattin": 7937,
      "ĠGÃ¶rev": 7938,
      "ĠdÃ¶": 7939,
      "ĠÃĸzkan": 7940,
      "Ġerdi": 7941,
      "ladÄ±klarÄ±": 7942,
      "ĠsanatÃ§Ä±sÄ±": 7943,
      "dÃ¶n": 7944,
      "ĠatÄ±lan": 7945,
      "Ġ43": 7946,
      "ĠfarklÄ±lÄ±k": 7947,
      "ĠkurulmasÄ±": 7948,
      "ĠoluÅŁturduÄŁu": 7949,
      "ulduÄŁunu": 7950,
      "ĠkartÄ±": 7951,
      "ĠgeliÅŁim": 7952,
      "aylÄ±": 7953,
      "ave": 7954,
      "ĠÃĩak": 7955,
      "ĠolduÄŁum": 7956,
      "ĠCamii": 7957,
      "Ġselam": 7958,
      "ĠSonr": 7959,
      "ĠkÄ±yas": 7960,
      "DÃ¼n": 7961,
      "ĠKem": 7962,
      "ĠNik": 7963,
      "ĠbaÅŁarÄ±yla": 7964,
      "HA": 7965,
      "larÄ±nÄ±zÄ±": 7966,
      "ĠvuruÅŁ": 7967,
      "Ġmetro": 7968,
      "ĠplanÄ±": 7969,
      "Ġgruplar": 7970,
      "Ġbabam": 7971,
      "Ġgiderken": 7972,
      "ĠÄ°K": 7973,
      "ĠsaÄŁlanmasÄ±": 7974,
      "Ġfilan": 7975,
      "ĠayakkabÄ±": 7976,
      "arlÄ±ÄŁÄ±": 7977,
      "ĠSakar": 7978,
      "ĠgenÃ§ler": 7979,
      "ĠTuran": 7980,
      "ĠparayÄ±": 7981,
      "liyorum": 7982,
      "ĠGÃ¼Ã§": 7983,
      "Ġcik": 7984,
      "Ġcesaret": 7985,
      "ĠbaÅŁrol": 7986,
      "Ġonlarca": 7987,
      "ĠAvustralya": 7988,
      "ĠalÄ±ndÄ±ÄŁÄ±": 7989,
      "ĠarkadaÅŁlar": 7990,
      "ĠarkadaÅŁÄ±m": 7991,
      "MK": 7992,
      "Ġdikkatli": 7993,
      "ĠkaybÄ±": 7994,
      "Ġep": 7995,
      "ese": 7996,
      "Ġetkisiyle": 7997,
      "tÄ±ÄŁÄ±m": 7998,
      "ĠilÃ§ede": 7999,
      "ĠÄ°ddi": 8000,
      "ĠgÃ¶rÃ¼yoruz": 8001,
      "ĠyarÄ±sÄ±": 8002,
      "ĠÃĸyle": 8003,
      "ĠsÃ¶ylediÄŁi": 8004,
      "Ġpolise": 8005,
      "ĠKoruma": 8006,
      "Ġhastanede": 8007,
      "ĠistediÄŁiniz": 8008,
      "Ġprojenin": 8009,
      "ELÄ°": 8010,
      "Ã¼nce": 8011,
      "Ġgetirerek": 8012,
      "INDA": 8013,
      "Ġkavga": 8014,
      "ĠÃ§izgi": 8015,
      "ĠkolaylaÅŁtÄ±r": 8016,
      "duÄŁumuz": 8017,
      "ĠHiÃ§bir": 8018,
      "Ġcemaat": 8019,
      "iÄŁeri": 8020,
      "ĠyumuÅŁ": 8021,
      "yn": 8022,
      "Ġversiyon": 8023,
      "otik": 8024,
      "ĠUzman": 8025,
      "ĠMacar": 8026,
      "ĠFi": 8027,
      "ĠBasketbol": 8028,
      "Ġmel": 8029,
      "Ġrom": 8030,
      "ĠÃ¶zgÃ¼": 8031,
      "ĠolaylarÄ±n": 8032,
      "Ġsinyal": 8033,
      "Ġonunla": 8034,
      "ĠolmalarÄ±": 8035,
      "ĠGÄ±da": 8036,
      "ĠER": 8037,
      "ĠmÃ¼ziÄŁi": 8038,
      "beyaz": 8039,
      "Ġverdim": 8040,
      "Ġsezonu": 8041,
      "ĠMot": 8042,
      "ĠaldÄ±klarÄ±": 8043,
      "ĠArt": 8044,
      "ĠÃ¶nemlidir": 8045,
      "Ġligde": 8046,
      "ĠadlandÄ±rÄ±lan": 8047,
      "lob": 8048,
      "ĠyÃ¼rÃ¼tÃ¼len": 8049,
      "Ġmisafir": 8050,
      "Ġseyirc": 8051,
      "ĠTHY": 8052,
      "ĠkullanÄ±": 8053,
      "ĠsÃ¼rdÃ¼rÃ¼yor": 8054,
      "ĠihraÃ§": 8055,
      "book": 8056,
      "ĠMicrosoft": 8057,
      "Ġmeyve": 8058,
      "izmin": 8059,
      "Ġgazetecilere": 8060,
      "ĠoynadÄ±": 8061,
      "ĠhÃ¢lÃ¢": 8062,
      "LÄ°K": 8063,
      "ĠgÃ¶rÃ¼lÃ¼yor": 8064,
      "ĠÃ¶dÃ¼lÃ¼": 8065,
      "ĠTÃľRKÄ°YE": 8066,
      "!!": 8067,
      "Ġpank": 8068,
      "uÅŁtuk": 8069,
      "ĠparÃ§a": 8070,
      "Ġsigort": 8071,
      "ĠÃĩiÄŁli": 8072,
      "ĠbaÅŁkanlÄ±ÄŁÄ±": 8073,
      "etler": 8074,
      "Ġtaki": 8075,
      "ĠsÃ¼rÃ¼c": 8076,
      "Ġcenaze": 8077,
      "Ġyuv": 8078,
      "ĠDA": 8079,
      "Ġkons": 8080,
      "Ġkalem": 8081,
      "Ġto": 8082,
      "ĠbakÄ±nÄ±z": 8083,
      "ĠKullan": 8084,
      "yim": 8085,
      "ĠCih": 8086,
      "ĠsuÃ§undan": 8087,
      "ĠsÄ±v": 8088,
      "off": 8089,
      "lus": 8090,
      "ĠTÃ¼rkler": 8091,
      "Ġacaba": 8092,
      "EDÄ°": 8093,
      "ano": 8094,
      "ĠBU": 8095,
      "ĠHast": 8096,
      "ĠiyileÅŁtir": 8097,
      "ayÄ±k": 8098,
      "izmi": 8099,
      "tikleri": 8100,
      "ĠÃ§ak": 8101,
      "ĠServ": 8102,
      "ĠbabasÄ±nÄ±n": 8103,
      "ĠMichael": 8104,
      "Ġredded": 8105,
      "Ġkatliam": 8106,
      "ĠMÃ¼hendis": 8107,
      "ĠMÄ°T": 8108,
      "Ġdepo": 8109,
      "Ġpotansiyel": 8110,
      "ĠÃ¶nder": 8111,
      "ĠÃ¼rÃ¼nÃ¼": 8112,
      "ĠgittiÄŁi": 8113,
      "ĠkontrolÃ¼": 8114,
      "ĠTerim": 8115,
      "ĠYOK": 8116,
      "ĠgÃ¶zÃ¼k": 8117,
      "ĠbÃ¶lÃ¼mÃ¼nÃ¼": 8118,
      "Ġniteli": 8119,
      "ĠMalat": 8120,
      "ĠsÃ¼recek": 8121,
      "ĠkalÄ±cÄ±": 8122,
      "ĠatÄ±k": 8123,
      "Ġedit": 8124,
      "Ġmisiniz": 8125,
      "AÃĩ": 8126,
      "ĠfiyatlarÄ±": 8127,
      "Ġderecede": 8128,
      "iski": 8129,
      "ĠbinasÄ±": 8130,
      "ĠteÅŁh": 8131,
      "cal": 8132,
      "mayla": 8133,
      "Ġborc": 8134,
      "ĠkoÅŁullarÄ±": 8135,
      "melidir": 8136,
      "ila": 8137,
      "ĠErtuÄŁrul": 8138,
      "Ã¼phan": 8139,
      "Ġkimin": 8140,
      "Ġkaybed": 8141,
      "âĢľ": 8142,
      "apÄ±": 8143,
      "Ġzemin": 8144,
      "99": 8145,
      "dy": 8146,
      "isindeki": 8147,
      "ĠÃ¶ÄŁrenim": 8148,
      "ĠdÃ¼ÄŁÃ¼n": 8149,
      "ĠbirÅŁey": 8150,
      "ĠgeÃ§irdiÄŁi": 8151,
      "Ġdiyorlar": 8152,
      "emize": 8153,
      "uluÅŁ": 8154,
      "Ġevin": 8155,
      "Ġsenaryo": 8156,
      "ĠYAR": 8157,
      "Ġinc": 8158,
      "Ġkuvvetli": 8159,
      "Son": 8160,
      "The": 8161,
      "ĠÃĩÄ±k": 8162,
      "Ġendek": 8163,
      "Ġsahada": 8164,
      "ĠgÃ¶rÃ¼lÃ¼r": 8165,
      "ĠboÅŁalt": 8166,
      "ĠhastalÄ±ÄŁÄ±": 8167,
      "ĠKaymakam": 8168,
      "ĠsÃ¼rÃ¼k": 8169,
      "ĠkurduÄŁu": 8170,
      "ĠdÃ¶nemlerde": 8171,
      "Ġnesil": 8172,
      "ĠkaldÄ±ÄŁÄ±nÄ±": 8173,
      "amadÄ±ÄŁÄ±": 8174,
      "Ġetkilem": 8175,
      "Ġplana": 8176,
      "ĠyanÄ±tladÄ±": 8177,
      "Ġmilletin": 8178,
      "Ġkullanma": 8179,
      "Ġailenin": 8180,
      "ĠsÄ±ÄŁ": 8181,
      "Ġbireysel": 8182,
      "Ġelb": 8183,
      "ĠtakÄ±mÄ±nÄ±n": 8184,
      "ĠGÃ¶lÃ¼": 8185,
      "ĠvarlÄ±k": 8186,
      "Ġyolunu": 8187,
      "ife": 8188,
      "ĠanlamÄ±": 8189,
      "BugÃ¼n": 8190,
      "Ġyaralanan": 8191,
      "Ġdi": 8192,
      "ĠEg": 8193,
      "Ġediyorlar": 8194,
      "erkesi": 8195,
      "Ġdurumlarda": 8196,
      "Ġkarm": 8197,
      "Ġverimli": 8198,
      "ĠdÃ¼zenledi": 8199,
      "ĠhemÅŁ": 8200,
      "Ġteklifi": 8201,
      "ĠBaba": 8202,
      "ĠSON": 8203,
      "ĠChar": 8204,
      "Ġeuro": 8205,
      "ĠSendik": 8206,
      "orit": 8207,
      "ĠAdÄ±": 8208,
      "ĠÃĩeÅŁme": 8209,
      "ĠRektÃ¶r": 8210,
      "debiyat": 8211,
      "OC": 8212,
      "ÅŁÄ±": 8213,
      "ĠÃĸl": 8214,
      "Ġgetiriyor": 8215,
      "Ġ800": 8216,
      "ĠAteÅŁ": 8217,
      "edim": 8218,
      "AKAN": 8219,
      "Ġduygusal": 8220,
      "hiÅŁ": 8221,
      "Ġtoz": 8222,
      "ĠÃ§et": 8223,
      "ĠgÃ¼nÃ¼nde": 8224,
      "ĠaÅŁÄ±k": 8225,
      "Ġnitelendir": 8226,
      "ĠmesajÄ±": 8227,
      "ĠgÃ¼reÅŁ": 8228,
      "ĠErol": 8229,
      "ĠÃ¶nemi": 8230,
      "Ġfayda": 8231,
      "Ġistan": 8232,
      "Ġ47": 8233,
      "ĠsÄ±ralam": 8234,
      "ĠTRT": 8235,
      "Ġgirmek": 8236,
      "ĠolacaÄŁÄ±z": 8237,
      "irli": 8238,
      "lendiÄŁini": 8239,
      "Ġsomut": 8240,
      "etmen": 8241,
      "Ġolmuyor": 8242,
      "ĠsÃ¶zcÃ¼": 8243,
      "Ġhavuz": 8244,
      "Ġhedefi": 8245,
      "hen": 8246,
      "Ġanayasa": 8247,
      "ĠÃĩel": 8248,
      "Ġnetic": 8249,
      "ĠPortekiz": 8250,
      "Ġmilit": 8251,
      "ĠHaklarÄ±": 8252,
      "ĠÃľstelik": 8253,
      "EH": 8254,
      "TV": 8255,
      "ÅŁar": 8256,
      "eliler": 8257,
      "ĠÃ§adÄ±r": 8258,
      "ĠEx": 8259,
      "ĠgeÃ§tiÄŁi": 8260,
      "Ġtedavisi": 8261,
      "48": 8262,
      "Ä±yan": 8263,
      "Ġistendi": 8264,
      "Ġker": 8265,
      "Ġyerinden": 8266,
      "ĠkararlaÅŁtÄ±r": 8267,
      "sÄ±zÄ±n": 8268,
      "ONS": 8269,
      "Ġpiyasa": 8270,
      "ĠtribÃ¼n": 8271,
      "ĠTeÅŁkil": 8272,
      "Ġgib": 8273,
      "ĠsavaÅŁÄ±n": 8274,
      "Ġithal": 8275,
      "Ġfonksiyon": 8276,
      "ĠMÃ¼n": 8277,
      "abak": 8278,
      "ĠiÅŁken": 8279,
      "Ġmahkemeye": 8280,
      "Ġmuhabirine": 8281,
      "oley": 8282,
      "ĠÃ¼yeli": 8283,
      "Ġkesint": 8284,
      "ĠbastÄ±r": 8285,
      "Ġkonular": 8286,
      "ĠyÃ¼rÃ¼": 8287,
      "lerimize": 8288,
      "ĠAyÅŁe": 8289,
      "fil": 8290,
      "eker": 8291,
      "Ġtac": 8292,
      "ĠBÃ¼r": 8293,
      "Ġpu": 8294,
      "Ġnez": 8295,
      "Ġkonuya": 8296,
      "Ġortalam": 8297,
      "ĠRom": 8298,
      "ĠsektÃ¶rÃ¼nÃ¼n": 8299,
      "ĠDoÄŁru": 8300,
      "Ġitiraf": 8301,
      "Ġbudur": 8302,
      "ĠyaÅŁÄ±nday": 8303,
      "Ġgayret": 8304,
      "cistan": 8305,
      "ĠNÃ¼f": 8306,
      "Ġkusur": 8307,
      "erif": 8308,
      "ukatÄ±": 8309,
      "ĠÃ¼stÃ¼": 8310,
      "ĠdÃ¶nÃ¼m": 8311,
      "ĠbÃ¶lgeler": 8312,
      "ĠKalkÄ±n": 8313,
      "ĠbakanlÄ±k": 8314,
      "65": 8315,
      "ung": 8316,
      "ĠRek": 8317,
      "Ġyerleri": 8318,
      "ĠJames": 8319,
      "luÄŁunda": 8320,
      "Ġcal": 8321,
      "ĠAltay": 8322,
      "dÄ±kÃ¶y": 8323,
      "ĠdolarÄ±": 8324,
      "ĠuzaklaÅŁ": 8325,
      "abilm": 8326,
      "ĠsÃ¼recinin": 8327,
      "ÅŁak": 8328,
      "ileriyle": 8329,
      "ĠyakÄ±nlarÄ±nda": 8330,
      "Ġinanc": 8331,
      "ĠSiyasi": 8332,
      "ĠGre": 8333,
      "ĠgeÃ§erek": 8334,
      "Ġsaatte": 8335,
      "ĠÃ§izdi": 8336,
      "ĠEkonomik": 8337,
      "ĠÃ¶lenler": 8338,
      "razam": 8339,
      "ĠdÃ¶rdÃ¼ncÃ¼": 8340,
      "YP": 8341,
      "hou": 8342,
      "Ġdoy": 8343,
      "ĠSef": 8344,
      "ĠDam": 8345,
      "ĠsÄ±radan": 8346,
      "Ġmasraf": 8347,
      "ĠGÃ¼neydoÄŁu": 8348,
      "Ġ1950": 8349,
      "Ġevi": 8350,
      "ĠDemirtaÅŁ": 8351,
      "ĠsanÄ±rÄ±m": 8352,
      "Ġilerlem": 8353,
      "lÄ±yorum": 8354,
      "kanÄ±n": 8355,
      "ĠAlev": 8356,
      "ĠÅŁansÄ±": 8357,
      "ĠHen": 8358,
      "ĠAksu": 8359,
      "âĢĺâĢĺ": 8360,
      "Ġtopluluk": 8361,
      "erse": 8362,
      "ĠAlb": 8363,
      "Ġbeklem": 8364,
      "ĠÃ¶rneÄŁin": 8365,
      "ĠMeslek": 8366,
      "Ġbirine": 8367,
      "Ġ---": 8368,
      "Ġkurucu": 8369,
      "ĠKenan": 8370,
      "ĠFlor": 8371,
      "ĠdÃ¶nemine": 8372,
      "Ġistanbul": 8373,
      "ĠBÄ°L": 8374,
      "ĠAile": 8375,
      "vekili": 8376,
      "ĠalbÃ¼mÃ¼": 8377,
      "ĠkorunmasÄ±": 8378,
      "ĠÄ°daresi": 8379,
      "ĠPolonya": 8380,
      "ĠkaÄŁÄ±t": 8381,
      "ĠtÄ±rman": 8382,
      "umcu": 8383,
      "ĠÄ°hsan": 8384,
      "abilmesi": 8385,
      "ĠendÃ¼": 8386,
      "ĠNas": 8387,
      "ĠkurÅŁun": 8388,
      "34": 8389,
      "enÃ§": 8390,
      "ĠcezasÄ±na": 8391,
      "ĠResmi": 8392,
      "ĠolmasÄ±n": 8393,
      "ĠkÃ¶r": 8394,
      "ĠkararÄ±nÄ±n": 8395,
      "iet": 8396,
      "Ġfen": 8397,
      "SI": 8398,
      "azz": 8399,
      "lÄ±sÄ±": 8400,
      "ĠÅŀimÅŁek": 8401,
      "nav": 8402,
      "ĠsÃ¶ylem": 8403,
      "ĠsandÄ±k": 8404,
      "ĠiliÅŁkilerin": 8405,
      "ĠtanÄ±nan": 8406,
      "Ġyeterince": 8407,
      "ĠYatÄ±rÄ±m": 8408,
      "amanÄ±n": 8409,
      "Ġbakar": 8410,
      "ĠuygulamasÄ±": 8411,
      "Ġliste": 8412,
      "ĠeÄŁlenc": 8413,
      "hu": 8414,
      "ĠÃ¶ÄŁrencilere": 8415,
      "Ġcidd": 8416,
      "ĠantrenÃ¶r": 8417,
      "ĠÅŀehit": 8418,
      "ĠFaruk": 8419,
      "ura": 8420,
      "ĠkadÄ±na": 8421,
      "ĠgÃ¶stermek": 8422,
      "Ä±yorsunuz": 8423,
      "amÄ±zda": 8424,
      "Ġyuvar": 8425,
      "ĠMÄ°L": 8426,
      "ĠYabancÄ±": 8427,
      "Ġekonomisi": 8428,
      "ĠÃĸnÃ¼mÃ¼zdeki": 8429,
      "Ġotomatik": 8430,
      "ĠOrgeneral": 8431,
      "Ġkurmak": 8432,
      "ĠbÃ¶lgesel": 8433,
      "Ġihbar": 8434,
      "ĠÃ¶rneÄŁi": 8435,
      "Ġmedy": 8436,
      "duÄŁum": 8437,
      "ald": 8438,
      "ceÄŁini": 8439,
      "ĠbaÅŁlatÄ±lan": 8440,
      "ĠÅŁeklindeki": 8441,
      "ned": 8442,
      "ĠyansÄ±": 8443,
      "adasÄ±": 8444,
      "ĠForm": 8445,
      "ĠArjantin": 8446,
      "Ġlak": 8447,
      "ĠmaÃ§a": 8448,
      "Ġisimleri": 8449,
      "Ġtemsilcileri": 8450,
      "ĠkararÄ±n": 8451,
      "Ġtanesi": 8452,
      "ĠÃĩalÄ±ÅŁma": 8453,
      "Ä±nt": 8454,
      "Ġanayas": 8455,
      "Ġverilir": 8456,
      "Ġolurken": 8457,
      "linton": 8458,
      "ear": 8459,
      "ĠyapmÄ±ÅŁtÄ±r": 8460,
      "ĠsÃ¼rÃ¼len": 8461,
      "lÄ±ÄŁÄ±ndan": 8462,
      "ĠYaÅŁam": 8463,
      "39": 8464,
      "Ġsus": 8465,
      "Ġvb": 8466,
      "ilerinde": 8467,
      "Ġanah": 8468,
      "ĠgeleceÄŁini": 8469,
      "ĠLu": 8470,
      "Ġtarihte": 8471,
      "ĠhariÃ§": 8472,
      "Ġbunlardan": 8473,
      "Ġizleyic": 8474,
      "ĠPolat": 8475,
      "ĠaldÄ±klarÄ±nÄ±": 8476,
      "ÃľY": 8477,
      "ĠlÃ¼ks": 8478,
      "ĠtÃ¼ketic": 8479,
      "ĠEmir": 8480,
      "ĠCey": 8481,
      "ĠLid": 8482,
      "ĠAvukat": 8483,
      "ĠkonuÅŁmasÄ±nda": 8484,
      "EDES": 8485,
      "ĠbÃ¼yÃ¼t": 8486,
      "ĠPir": 8487,
      "Ġrezerv": 8488,
      "Ġmaz": 8489,
      "55": 8490,
      "ail": 8491,
      "Ġadli": 8492,
      "ĠdeÄŁiliz": 8493,
      "ĠÃ§eyrek": 8494,
      "ĠSuudi": 8495,
      "gir": 8496,
      "wood": 8497,
      "ĠÅŀener": 8498,
      "ĠseÃ§men": 8499,
      "ĠmiktarÄ±": 8500,
      "ĠDanim": 8501,
      "unus": 8502,
      "Ã¼ÅŁvet": 8503,
      "ĠBaÅŁar": 8504,
      "ĠkarÅŁÄ±lÄ±ÄŁÄ±": 8505,
      "ĠdÃ¼nyadaki": 8506,
      "ĠdÃ¼zeyinde": 8507,
      "ĠFrank": 8508,
      "ĠTol": 8509,
      "AYI": 8510,
      "ĠtopraÄŁa": 8511,
      "del": 8512,
      "emizi": 8513,
      "ĠÃ§oÄŁunluÄŁu": 8514,
      "orn": 8515,
      "avuÅŁ": 8516,
      "tÄ±ÄŁÄ±nda": 8517,
      "ĠyÃ¶netimindeki": 8518,
      "Ġbine": 8519,
      "ĠÃ¶f": 8520,
      "ĠÃ§Ä±kmak": 8521,
      "ĠÃ¼yelik": 8522,
      "ĠFÄ±rat": 8523,
      "ullarÄ±": 8524,
      "ĠÃ§alÄ±ÅŁmalara": 8525,
      "Ġkentte": 8526,
      "ĠmuhteÅŁem": 8527,
      "adin": 8528,
      "iba": 8529,
      "Ġsever": 8530,
      "Ġ700": 8531,
      "ĠyakÄ±nlarÄ±": 8532,
      "ĠHarek": 8533,
      "ĠgÃ¼cÃ¼nÃ¼": 8534,
      ".(": 8535,
      "ĠolmanÄ±n": 8536,
      "ĠiÅŁsiz": 8537,
      "ĠdÃ¼ÅŁÃ¼nÃ¼r": 8538,
      "ebiliriz": 8539,
      "ĠÃĸlÃ¼m": 8540,
      "edeniyet": 8541,
      "Ġamer": 8542,
      "taydÄ±": 8543,
      "Ġdisiplin": 8544,
      "ayollarÄ±": 8545,
      "eygamber": 8546,
      "!..": 8547,
      "kol": 8548,
      "Ġeb": 8549,
      "ĠduyduÄŁu": 8550,
      "ĠseÃ§imleri": 8551,
      "oleybol": 8552,
      "44": 8553,
      "Ã¼man": 8554,
      "Ġetmem": 8555,
      "lamalar": 8556,
      "ĠgÃ¼nÃ¼n": 8557,
      "ĠJi": 8558,
      "Ġolabilecek": 8559,
      "Ġlise": 8560,
      "Ġyolculuk": 8561,
      "oÄŁol": 8562,
      "ĠBaÅŁka": 8563,
      "ebileceÄŁini": 8564,
      "Ġartarak": 8565,
      "Ãĸn": 8566,
      "ĠParlament": 8567,
      "ĠDis": 8568,
      "ĠAvrup": 8569,
      "ĠÃ§Ä±karÄ±lan": 8570,
      "Ġmodeli": 8571,
      "ĠDÃ¼zen": 8572,
      "37": 8573,
      "ĠAliaÄŁa": 8574,
      "ĠYÃ¶netimi": 8575,
      "ĠTuÄŁ": 8576,
      "ĠbileÅŁ": 8577,
      "ĠyÃ¶nelt": 8578,
      "ĠlayÄ±k": 8579,
      "Ġsayede": 8580,
      "aport": 8581,
      "aketi": 8582,
      "Ä±lmak": 8583,
      "Ġsandal": 8584,
      "ĠÃ§ekilen": 8585,
      "Ġnereye": 8586,
      "ĠanlayÄ±ÅŁÄ±": 8587,
      "38": 8588,
      "atlar": 8589,
      "Ġbenden": 8590,
      "ĠÃ¼lkeden": 8591,
      "ĠsÃ¶zcÃ¼sÃ¼": 8592,
      "Ġmutf": 8593,
      "Ġmikro": 8594,
      "Ġmoral": 8595,
      "ĠMesela": 8596,
      "ecik": 8597,
      "ĠFen": 8598,
      "ĠWil": 8599,
      "hai": 8600,
      "Ġdelil": 8601,
      "ĠtoplantÄ±ya": 8602,
      "ĠÅŁofÃ¶r": 8603,
      "ONSÃĸZ": 8604,
      "Ġetmez": 8605,
      "ĠgÃ¶sterilen": 8606,
      "ĠgÃ¶revden": 8607,
      "Ġbini": 8608,
      "ĠAtina": 8609,
      "Ġbelirtir": 8610,
      "ĠErkan": 8611,
      "Ġevli": 8612,
      "ĠÃ¼lkesi": 8613,
      "Ġ180": 8614,
      "ĠGÃ¼rcistan": 8615,
      "ektif": 8616,
      "ĠsÃ¶ylediler": 8617,
      "Ġatmos": 8618,
      "ĠAdli": 8619,
      "ĠyÃ¼kselen": 8620,
      "ĠmÃ¼lk": 8621,
      "ĠHil": 8622,
      "denin": 8623,
      "Ġverip": 8624,
      "Ġseven": 8625,
      "ĠKongre": 8626,
      "ĠoluÅŁturulan": 8627,
      "ĠgÃ¶nderdiÄŁi": 8628,
      "Ġmevzu": 8629,
      "eten": 8630,
      "ĠGazete": 8631,
      "Ġyolculu": 8632,
      "ĠcÃ¼ml": 8633,
      "esince": 8634,
      "ĠSP": 8635,
      "ĠPAR": 8636,
      "Ġvurdu": 8637,
      "ĠArabistan": 8638,
      "EDESONSÃĸZ": 8639,
      "ĠbaÄŁlam": 8640,
      "ĠdeÄŁinen": 8641,
      "dini": 8642,
      "ĠAlbay": 8643,
      "ĠTelevizyon": 8644,
      "ĠTurgut": 8645,
      "dunuz": 8646,
      "ebileceÄŁi": 8647,
      "acaklar": 8648,
      "Ġmevsim": 8649,
      "Ã¼rt": 8650,
      "Ġtopar": 8651,
      "Ġyolun": 8652,
      "ĠÄ°sk": 8653,
      "Ġmilyonlarca": 8654,
      "Ġhizmetleri": 8655,
      "ĠGenÃ§ler": 8656,
      "inler": 8657,
      "atÄ±n": 8658,
      "ĠbasÄ±na": 8659,
      "ĠbaskÄ±n": 8660,
      "ĠyapÄ±landÄ±r": 8661,
      "ĠinanÄ±lmaz": 8662,
      "ĠMardin": 8663,
      "dÃ¼klerini": 8664,
      "ony": 8665,
      "alarak": 8666,
      "ĠÃ¼ste": 8667,
      "ĠsÃ¶yler": 8668,
      "ĠkÃ¼ltÃ¼rÃ¼": 8669,
      "ĠfutbolcularÄ±": 8670,
      "Ġkimseye": 8671,
      "ĠEdebiyat": 8672,
      "Ġgemi": 8673,
      "ĠolmasÄ±ndan": 8674,
      "ĠdÃ¼ÅŁÃ¼ndÃ¼ÄŁ": 8675,
      "Ġifadesi": 8676,
      "ĠkÃ¶mÃ¼r": 8677,
      "Ä°STAN": 8678,
      "Ġakrab": 8679,
      "ĠKAL": 8680,
      "Ġkarbon": 8681,
      "Ġmuhtar": 8682,
      "ENÄ°": 8683,
      "landalÄ±": 8684,
      "ĠTaliban": 8685,
      "lamalarÄ±": 8686,
      "tÃ¼rÃ¼": 8687,
      "ĠhalkÄ±na": 8688,
      "name": 8689,
      "ĠSilahlÄ±": 8690,
      "Ġmezh": 8691,
      "ĠÃ¶p": 8692,
      "ĠGÃľN": 8693,
      "ĠBaÅŁk": 8694,
      "ĠAyhan": 8695,
      "ĠKongresi": 8696,
      "sar": 8697,
      "ure": 8698,
      "ĠiÃ§ki": 8699,
      "ĠAday": 8700,
      "31": 8701,
      "Ã¼ldÃ¼ÄŁÃ¼": 8702,
      "Ġelini": 8703,
      "ĠBilgi": 8704,
      "ĠDok": 8705,
      "Ġsistemin": 8706,
      "ĠkiÅŁilerle": 8707,
      "tiÅŁ": 8708,
      "uel": 8709,
      "stein": 8710,
      "elif": 8711,
      "ĠÅŁeyleri": 8712,
      "ĠOrada": 8713,
      "Ġfaydalan": 8714,
      "ain": 8715,
      "salar": 8716,
      "ĠÃ¼m": 8717,
      "ĠÃĸzcan": 8718,
      "ĠTelekom": 8719,
      "ĠzanlÄ±": 8720,
      "ĠÄ°nÃ¶nÃ¼": 8721,
      "ĠaÄŁab": 8722,
      "Ġtahr": 8723,
      "ĠKalkÄ±nma": 8724,
      "SS": 8725,
      "ĠolsaydÄ±": 8726,
      "ĠKiÅŁ": 8727,
      "Ġhastane": 8728,
      "Ġkurucusu": 8729,
      "ĠÃ§ekmek": 8730,
      "liÄŁinden": 8731,
      "ĠdeÄŁerlendirme": 8732,
      "Ġdamar": 8733,
      "GK": 8734,
      "lit": 8735,
      "ĠvatandaÅŁÄ±n": 8736,
      "ĠaraÅŁtÄ±rmalar": 8737,
      "ĠKredi": 8738,
      "ĠbaÅŁarÄ±lar": 8739,
      "org": 8740,
      "ĠkullanÄ±lmasÄ±": 8741,
      "ĠgerÃ§ekleÅŁtirilecek": 8742,
      "ĠfÄ±rsatÄ±": 8743,
      "eld": 8744,
      "amadÄ±m": 8745,
      "ĠyÄ±ldÄ±zÄ±": 8746,
      "mus": 8747,
      "ĠEfes": 8748,
      "ĠÃľnal": 8749,
      "ĠMuhar": 8750,
      "ĠgeÃ§miÅŁte": 8751,
      "Ak": 8752,
      "madÄ±k": 8753,
      "ĠtarzÄ±": 8754,
      "Ġikram": 8755,
      "ĠyÃ¼rÃ¼ttÃ¼": 8756,
      "ĠKahraman": 8757,
      "Ġveriliyor": 8758,
      "ĠaÃ§Ä±klamalarda": 8759,
      "ĠoyuncularÄ±": 8760,
      "ĠÄ°nÅŁaat": 8761,
      "vil": 8762,
      "Ġanlar": 8763,
      "ĠWindows": 8764,
      "Ġistemiyorum": 8765,
      "ĠsorularÄ±": 8766,
      "Ġdokuz": 8767,
      "ĠanÄ±nda": 8768,
      "iyetini": 8769,
      "ĠHayÄ±r": 8770,
      "ĠEfendi": 8771,
      "che": 8772,
      "ĠTÃ¶ren": 8773,
      "ĠÃ¼rÃ¼nler": 8774,
      "ĠQu": 8775,
      "100": 8776,
      "rit": 8777,
      "ĠgÃ¼v": 8778,
      "Ġverdikleri": 8779,
      "ĠFir": 8780,
      "ebe": 8781,
      "Ġedilmektedir": 8782,
      "ĠKadir": 8783,
      "ĠolmalÄ±dÄ±r": 8784,
      "Ġhareketi": 8785,
      "melik": 8786,
      "araya": 8787,
      "abildi": 8788,
      "Ġparmak": 8789,
      "ĠÃĸzg": 8790,
      "Ġkazanmak": 8791,
      "Ġjandarma": 8792,
      "Ġfirmalar": 8793,
      "ĠanlatÄ±r": 8794,
      "ĠKAD": 8795,
      "ĠgeÃ§ecek": 8796,
      "ĠtamamÄ±": 8797,
      "ĠkatÄ±lmak": 8798,
      "ĠsorunlarÄ±n": 8799,
      "ĠaÄŁÄ±rlÄ±klÄ±": 8800,
      "ĠBol": 8801,
      "ĠStar": 8802,
      "ĠkarÄ±ÅŁÄ±k": 8803,
      "ĠFI": 8804,
      "Ġbelge": 8805,
      "Ġset": 8806,
      "Ã¼yÃ¼": 8807,
      "ĠkarÅŁÄ±laÅŁtÄ±r": 8808,
      "ĠeÄŁilim": 8809,
      "47": 8810,
      "PO": 8811,
      "Ġkalb": 8812,
      "ics": 8813,
      "Ġbizden": 8814,
      "ĠbaÅŁardÄ±": 8815,
      "Ġhid": 8816,
      "ĠiliÅŁkisi": 8817,
      "Ġpartisi": 8818,
      "Ġprim": 8819,
      "ĠkulÃ¼bÃ¼n": 8820,
      "ĠKum": 8821,
      "ĠSaf": 8822,
      "ĠyÃ¶netmeni": 8823,
      "Ġsuretiyle": 8824,
      "lov": 8825,
      "ĠStan": 8826,
      "ĠNihat": 8827,
      "ĠÃĸZ": 8828,
      "Ġolurdu": 8829,
      "Ġkemik": 8830,
      "lÄ±lÄ±ÄŁÄ±": 8831,
      "Ġakar": 8832,
      "emizin": 8833,
      "Ġidare": 8834,
      "ĠmeÅŁru": 8835,
      "ĠBerk": 8836,
      "mayacaÄŁÄ±nÄ±": 8837,
      "bahar": 8838,
      "ĠolabileceÄŁi": 8839,
      "36": 8840,
      "ĠKUR": 8841,
      "ĠMÃ¼ÅŁ": 8842,
      "lÄ±ÄŁÄ±yla": 8843,
      "ĠhattÄ±": 8844,
      "ĠiddiasÄ±yla": 8845,
      "ĠHDP": 8846,
      "Ã¼lasyon": 8847,
      "ĠkatlÄ±": 8848,
      "Ġdiliyorum": 8849,
      "Ġreferandum": 8850,
      "ence": 8851,
      "Ġuydu": 8852,
      "ĠZeyn": 8853,
      "ĠWal": 8854,
      "Ġakademisyen": 8855,
      "ĠgerÃ§eÄŁi": 8856,
      "ĠNobel": 8857,
      "Ġ&": 8858,
      "Ġtopl": 8859,
      "ĠOyun": 8860,
      "Ġdeplasmanda": 8861,
      "opagan": 8862,
      "ĠDo": 8863,
      "ĠÅŀark": 8864,
      "Ġdiyecek": 8865,
      "Ġmesle": 8866,
      "rilyon": 8867,
      "Ġaraba": 8868,
      "ĠCoÅŁ": 8869,
      "Ġ58": 8870,
      "Ġinsana": 8871,
      "ĠyÃ¼rÃ¼m": 8872,
      "ĠOnu": 8873,
      "ĠBelediyespor": 8874,
      "ĠHoca": 8875,
      "ĠdeÄŁiÅŁen": 8876,
      "Ġtaht": 8877,
      "ĠyapÄ±ÅŁtÄ±r": 8878,
      "ĠdaÄŁÄ±tÄ±m": 8879,
      "Ġseri": 8880,
      "aklÄ±": 8881,
      "Ġilgisi": 8882,
      "Ġmotosiklet": 8883,
      "ĠSAN": 8884,
      "Ġyazan": 8885,
      "cell": 8886,
      "Ġ1989": 8887,
      "ĠiÅŁlemi": 8888,
      "ĠbaÄŁlantÄ±lÄ±": 8889,
      "Ġ2021": 8890,
      "?âĢĻ": 8891,
      "cebook": 8892,
      "ĠGran": 8893,
      "ĠyÃ¼kÃ¼m": 8894,
      "Ġolmakla": 8895,
      "erleri": 8896,
      "ĠsÃ¼rÃ¼ldÃ¼": 8897,
      "Ġitfaiye": 8898,
      "ĠesnasÄ±nda": 8899,
      "ĠtÃ¶reni": 8900,
      "ende": 8901,
      "Ġtey": 8902,
      "ĠdÃ¶nÃ¼k": 8903,
      "Ġimam": 8904,
      "ĠvatandaÅŁÄ±": 8905,
      "ĠgenÃ§lerin": 8906,
      "ĠavukatÄ±": 8907,
      "Ġkurtarma": 8908,
      "fat": 8909,
      "Ġmavi": 8910,
      "iÅŁe": 8911,
      "ĠÅŁeri": 8912,
      "likten": 8913,
      "alÄ±ÄŁ": 8914,
      "Ġ56": 8915,
      "Ġ85": 8916,
      "CE": 8917,
      "ld": 8918,
      "akal": 8919,
      "Ġkarara": 8920,
      "ĠbakalÄ±m": 8921,
      "Ġunvan": 8922,
      "ĠakÄ±llÄ±": 8923,
      "ĠDEÄŀÄ°L": 8924,
      "Ġherhalde": 8925,
      "ĠbaÅŁlamÄ±ÅŁtÄ±r": 8926,
      "ĠÃ§arptÄ±r": 8927,
      "ĠDÃ¶rt": 8928,
      "ĠClinton": 8929,
      "ĠÃĩakÄ±r": 8930,
      "ĠkurulmuÅŁ": 8931,
      "Ġgittim": 8932,
      "ĠalÄ±ÅŁkan": 8933,
      "ĠaÃ§Ä±lmasÄ±": 8934,
      "ĠArkadaÅŁ": 8935,
      "Ġkoz": 8936,
      "larÄ±mÄ±": 8937,
      "ĠyarÄ±sÄ±nda": 8938,
      "ersek": 8939,
      "acaÄŁÄ±mÄ±z": 8940,
      "ĠkazÄ±": 8941,
      "ĠfarkÄ±nda": 8942,
      "ĠtutuklandÄ±": 8943,
      "ceÄŁiz": 8944,
      "ĠgÃ¼Ã§lerinin": 8945,
      "ĠbaÅŁladÄ±m": 8946,
      "anet": 8947,
      "ĠTimes": 8948,
      "ĠKÃ¶rfez": 8949,
      "Dev": 8950,
      "gim": 8951,
      "Ġherkesi": 8952,
      "ĠKardeÅŁ": 8953,
      "ĠProt": 8954,
      "ĠYapÄ±": 8955,
      "ĠÄ±sÄ±n": 8956,
      "ĠÄ°b": 8957,
      "Ġgirip": 8958,
      "ĠKÄ±ÅŁ": 8959,
      "ĠHac": 8960,
      "ĠLiv": 8961,
      "Ġkatrilyon": 8962,
      "erseniz": 8963,
      "Ġfar": 8964,
      "ĠPutin": 8965,
      "ĠÃĩIK": 8966,
      "Ġekonomisinin": 8967,
      "ĠpahalÄ±": 8968,
      "cilerin": 8969,
      "ĠkalmasÄ±": 8970,
      "Ġokulu": 8971,
      "Ġtahsis": 8972,
      "ĠDuy": 8973,
      "ĠakÄ±ÅŁ": 8974,
      "ĠoranÄ±nÄ±n": 8975,
      "ĠKanada": 8976,
      "Ġistenen": 8977,
      "Ġyenilik": 8978,
      "ĠDenizi": 8979,
      "ĠhatÄ±rlattÄ±": 8980,
      "ĠhaklarÄ±nÄ±": 8981,
      "ĠseÃ§imlerinde": 8982,
      "Ġ1982": 8983,
      "odu": 8984,
      "Ġmim": 8985,
      "ilmeye": 8986,
      "ĠValiliÄŁi": 8987,
      "Ġyedek": 8988,
      "ĠgÃ¶rme": 8989,
      "Ġastr": 8990,
      "ĠZafer": 8991,
      "ĠrolÃ¼": 8992,
      "ĠBabacan": 8993,
      "Ġithalat": 8994,
      "elin": 8995,
      "ĠAnne": 8996,
      "ĠaÄŁÄ±z": 8997,
      "ĠKonser": 8998,
      "Ġbitki": 8999,
      "Ġideal": 9000,
      "Ġsa": 9001,
      "uru": 9002,
      "ĠmÃ¼lt": 9003,
      "ĠÃ¶tÃ¼rÃ¼": 9004,
      "lendiÄŁi": 9005,
      "Ġ57": 9006,
      "Ġokuma": 9007,
      "ĠKaraman": 9008,
      "ĠFatma": 9009,
      "ÄŀÄ°": 9010,
      "ĠRÄ±za": 9011,
      "ibe": 9012,
      "ĠgeliÅŁen": 9013,
      "46": 9014,
      "Ã¼sÃ¼nÃ¼": 9015,
      "ĠiÅŁlemleri": 9016,
      "ĠHÄ±rvat": 9017,
      "Ġzincir": 9018,
      "',": 9019,
      "gÃ¶z": 9020,
      "mec": 9021,
      "ĠLÃ¼b": 9022,
      "madÄ±m": 9023,
      "ĠsÃ¼rÃ¼": 9024,
      "ĠkalmadÄ±": 9025,
      "ĠyakÄ±t": 9026,
      "ĠKanal": 9027,
      "ĠÅŀanlÄ±ur": 9028,
      "ĠBakanlÄ±k": 9029,
      "ĠÃ§Ã¶zÃ¼mÃ¼": 9030,
      "Ġmanevi": 9031,
      "ĠAfyon": 9032,
      "ĠGazze": 9033,
      "ettin": 9034,
      "ĠoyunlarÄ±": 9035,
      "ĠkÃ¶p": 9036,
      "Ġburadaki": 9037,
      "Ġemr": 9038,
      "Ġkilis": 9039,
      "ĠRad": 9040,
      "ĠgÃ¶ze": 9041,
      "Ġbilgisi": 9042,
      "Ġseyr": 9043,
      "ĠPower": 9044,
      "ĠBeni": 9045,
      "Ġedil": 9046,
      "ĠRich": 9047,
      "Ġseviyorum": 9048,
      "Ġparlak": 9049,
      "ĠÃĸzerk": 9050,
      "Ġtarihe": 9051,
      "ĠErgen": 9052,
      "Ġ52": 9053,
      "ĠaÄŁrÄ±": 9054,
      "ĠkimliÄŁi": 9055,
      "ĠKurtuluÅŁ": 9056,
      "LEN": 9057,
      "ĠtÄ±b": 9058,
      "Ġhekim": 9059,
      "ahya": 9060,
      "ĠLin": 9061,
      "Ġduruyor": 9062,
      "ĠToplam": 9063,
      "ĠsÄ±caklÄ±k": 9064,
      "Ġzihniyet": 9065,
      "ĠPara": 9066,
      "gue": 9067,
      "ĠDevrim": 9068,
      "ijital": 9069,
      "ĠBaÅŁkent": 9070,
      "ĠdÃ¼ÅŁÃ¼nÃ¼yoruz": 9071,
      "ĠyaÄŁÄ±ÅŁÄ±": 9072,
      "ĠyakalandÄ±": 9073,
      "ĠimkansÄ±z": 9074,
      "Ġrock": 9075,
      "ĠPÄ±nar": 9076,
      "ĠPamuk": 9077,
      "ĠCumartesi": 9078,
      "Ġedilebilir": 9079,
      "ĠÃ§ekici": 9080,
      "lerimi": 9081,
      "ĠÃ§alÄ±ÅŁÄ±r": 9082,
      "Ġ41": 9083,
      "ĠyapÄ±lmÄ±ÅŁtÄ±r": 9084,
      "ĠgerÃ§ekleÅŁtirdi": 9085,
      "ĠmÃ¼ttefik": 9086,
      "Ġtutul": 9087,
      "mamÄ±ÅŁtÄ±r": 9088,
      "ĠÃ¼lkelere": 9089,
      "Ġcilt": 9090,
      "Ġvarsay": 9091,
      "Ġizni": 9092,
      "ĠoluÅŁturur": 9093,
      "Ġprojeleri": 9094,
      "ĠnoktasÄ±nda": 9095,
      "Ġorganiz": 9096,
      "ĠEb": 9097,
      "Ġanlama": 9098,
      "ĠbaktÄ±ÄŁ": 9099,
      "ĠaÅŁaÄŁ": 9100,
      "ĠoluÅŁturmak": 9101,
      "Ġplanlanan": 9102,
      "ĠhanÄ±m": 9103,
      "ĠYayÄ±nlarÄ±": 9104,
      "Ġomuz": 9105,
      "yada": 9106,
      "Ġyerler": 9107,
      "ebilece": 9108,
      "ĠgÃ¶revine": 9109,
      "ĠkÄ±zÄ±n": 9110,
      "ĠkiÅŁiden": 9111,
      "\".": 9112,
      "ĠAda": 9113,
[...]
