<pad>	0
<unk>	0
<s>	0
</s>	0
<0x00>	0
<0x01>	0
<0x02>	0
<0x03>	0
<0x04>	0
<0x05>	0
<0x06>	0
<0x07>	0
<0x08>	0
<0x09>	0
<0x0A>	0
<0x0B>	0
<0x0C>	0
<0x0D>	0
<0x0E>	0
<0x0F>	0
<0x10>	0
<0x11>	0
<0x12>	0
<0x13>	0
<0x14>	0
<0x15>	0
<0x16>	0
<0x17>	0
<0x18>	0
<0x19>	0
<0x1A>	0
<0x1B>	0
<0x1C>	0
<0x1D>	0
<0x1E>	0
<0x1F>	0
<0x20>	0
<0x21>	0
<0x22>	0
<0x23>	0
<0x24>	0
<0x25>	0
<0x26>	0
<0x27>	0
<0x28>	0
<0x29>	0
<0x2A>	0
<0x2B>	0
<0x2C>	0
<0x2D>	0
<0x2E>	0
<0x2F>	0
<0x30>	0
<0x31>	0
<0x32>	0
<0x33>	0
<0x34>	0
<0x35>	0
<0x36>	0
<0x37>	0
<0x38>	0
<0x39>	0
<0x3A>	0
<0x3B>	0
<0x3C>	0
<0x3D>	0
<0x3E>	0
<0x3F>	0
<0x40>	0
<0x41>	0
<0x42>	0
<0x43>	0
<0x44>	0
<0x45>	0
<0x46>	0
<0x47>	0
<0x48>	0
<0x49>	0
<0x4A>	0
<0x4B>	0
<0x4C>	0
<0x4D>	0
<0x4E>	0
<0x4F>	0
<0x50>	0
<0x51>	0
<0x52>	0
<0x53>	0
<0x54>	0
<0x55>	0
<0x56>	0
<0x57>	0
<0x58>	0
<0x59>	0
<0x5A>	0
<0x5B>	0
<0x5C>	0
<0x5D>	0
<0x5E>	0
<0x5F>	0
<0x60>	0
<0x61>	0
<0x62>	0
<0x63>	0
<0x64>	0
<0x65>	0
<0x66>	0
<0x67>	0
<0x68>	0
<0x69>	0
<0x6A>	0
<0x6B>	0
<0x6C>	0
<0x6D>	0
<0x6E>	0
<0x6F>	0
<0x70>	0
<0x71>	0
<0x72>	0
<0x73>	0
<0x74>	0
<0x75>	0
<0x76>	0
<0x77>	0
<0x78>	0
<0x79>	0
<0x7A>	0
<0x7B>	0
<0x7C>	0
<0x7D>	0
<0x7E>	0
<0x7F>	0
<0x80>	0
<0x81>	0
<0x82>	0
<0x83>	0
<0x84>	0
<0x85>	0
<0x86>	0
<0x87>	0
<0x88>	0
<0x89>	0
<0x8A>	0
<0x8B>	0
<0x8C>	0
<0x8D>	0
<0x8E>	0
<0x8F>	0
<0x90>	0
<0x91>	0
<0x92>	0
<0x93>	0
<0x94>	0
<0x95>	0
<0x96>	0
<0x97>	0
<0x98>	0
<0x99>	0
<0x9A>	0
<0x9B>	0
<0x9C>	0
<0x9D>	0
<0x9E>	0
<0x9F>	0
<0xA0>	0
<0xA1>	0
<0xA2>	0
<0xA3>	0
<0xA4>	0
<0xA5>	0
<0xA6>	0
<0xA7>	0
<0xA8>	0
<0xA9>	0
<0xAA>	0
<0xAB>	0
<0xAC>	0
<0xAD>	0
<0xAE>	0
<0xAF>	0
<0xB0>	0
<0xB1>	0
<0xB2>	0
<0xB3>	0
<0xB4>	0
<0xB5>	0
<0xB6>	0
<0xB7>	0
<0xB8>	0
<0xB9>	0
<0xBA>	0
<0xBB>	0
<0xBC>	0
<0xBD>	0
<0xBE>	0
<0xBF>	0
<0xC0>	0
<0xC1>	0
<0xC2>	0
<0xC3>	0
<0xC4>	0
<0xC5>	0
<0xC6>	0
<0xC7>	0
<0xC8>	0
<0xC9>	0
<0xCA>	0
<0xCB>	0
<0xCC>	0
<0xCD>	0
<0xCE>	0
<0xCF>	0
<0xD0>	0
<0xD1>	0
<0xD2>	0
<0xD3>	0
<0xD4>	0
<0xD5>	0
<0xD6>	0
<0xD7>	0
<0xD8>	0
<0xD9>	0
<0xDA>	0
<0xDB>	0
<0xDC>	0
<0xDD>	0
<0xDE>	0
<0xDF>	0
<0xE0>	0
<0xE1>	0
<0xE2>	0
<0xE3>	0
<0xE4>	0
<0xE5>	0
<0xE6>	0
<0xE7>	0
<0xE8>	0
<0xE9>	0
<0xEA>	0
<0xEB>	0
<0xEC>	0
<0xED>	0
<0xEE>	0
<0xEF>	0
<0xF0>	0
<0xF1>	0
<0xF2>	0
<0xF3>	0
<0xF4>	0
<0xF5>	0
<0xF6>	0
<0xF7>	0
<0xF8>	0
<0xF9>	0
<0xFA>	0
<0xFB>	0
<0xFC>	0
<0xFD>	0
<0xFE>	0
<0xFF>	0
▁	-3.54158
▁ı	-3.80775
▁i	-3.96163
▁e	-4.32143
▁de	-4.46211
▁da	-4.5088
▁a	-4.54338
▁lar	-4.59164
▁ve	-4.60727
▁si	-4.65906
▁n	-4.67316
▁ol	-4.68548
▁in	-4.69686
▁ler	-4.70796
▁sı	-4.71857
▁bir	-4.72825
▁ma	-4.73789
▁an	-4.75314
▁ları	-4.77014
▁di	-4.80666
▁m	-4.83103
▁u	-4.84026
▁en	-4.88395
▁leri	-4.89202
▁nda	-4.92013
▁il	-4.93371
▁ın	-5.01583
▁nı	-5.06044
▁bu	-5.19798
▁nde	-5.21153
▁ne	-5.23868
▁dı	-5.23942
▁nin	-5.24542
n	-5.24754
▁ni	-5.29441
▁ki	-5.36905
▁me	-5.39026
▁ü	-5.41857
▁yap	-5.42449
▁na	-5.47038
▁ıl	-5.48545
▁iç	-5.54078
▁li	-5.55933
k	-5.56541
▁al	-5.63104
▁ye	-5.63399
▁t	-5.66595
▁ya	-5.66665
nın	-5.71648
▁lı	-5.73112
i	-5.73571
▁un	-5.78972
▁ed	-5.83439
▁lik	-5.85218
▁ndan	-5.86538
▁ti	-5.90631
▁den	-5.94266
▁iyor	-5.94304
▁arak	-5.95943
▁nu	-6.01037
duğ	-6.02346
▁lık	-6.03407
▁ver	-6.04725
dığ	-6.05599
▁et	-6.07405
▁yıl	-6.08655
▁diğ	-6.09696
▁la	-6.11706
▁dan	-6.12024
▁yan	-6.14171
▁mak	-6.15125
▁gel	-6.15619
▁le	-6.15807
▁du	-6.17021
▁ce	-6.18175
t	-6.19465
▁tı	-6.20967
▁ta	-6.22803
ğ	-6.22922
▁im	-6.22954
▁te	-6.26488
▁bul	-6.27595
▁su	-6.28773
a	-6.30265
e	-6.30315
▁ıyor	-6.30711
▁ara	-6.32561
▁yer	-6.32786
▁ön	-6.34001
▁lu	-6.34172
▁acak	-6.36538
▁gör	-6.3662
▁ım	-6.36751
▁dir	-6.37383
▁ir	-6.38782
▁um	-6.39838
▁iş	-6.39883
▁cı	-6.40257
▁çık	-6.40535
▁geç	-6.41048
▁gün	-6.44612
▁mek	-6.44739
▁dır	-6.45354
▁k	-6.45513
▁çok	-6.4768
▁yla	-6.49717
r	-6.52326
▁nden	-6.53931
▁ecek	-6.56772
▁ci	-6.57045
▁daha	-6.5849
▁son	-6.58518
▁çalış	-6.59015
▁bil	-6.61019
▁sonra	-6.61672
▁belir	-6.6196
▁türkiye	-6.62066
lığ	-6.6223
▁mış	-6.6299
▁o	-6.63784
▁başka	-6.64216
▁ar	-6.64465
▁söyle	-6.64467
▁yi	-6.64848
▁liğ	-6.66325
▁büyük	-6.66848
▁yle	-6.67785
▁üzer	-6.67795
ı	-6.67997
l	-6.68587
▁ca	-6.71118
▁is	-6.7327
▁tir	-6.73628
▁miş	-6.74362
tığ	-6.7591
▁erek	-6.76353
▁cu	-6.77118
▁er	-6.79091
▁2	-6.79769
▁açıkla	-6.80087
▁her	-6.80723
▁kal	-6.8154
▁imiz	-6.83703
▁yüz	-6.84612
▁sa	-6.84701
▁kendi	-6.8477
▁karşı	-6.85218
▁var	-6.861
▁yeni	-6.86595
▁konu	-6.88165
▁1	-6.90073
▁el	-6.90491
▁gibi	-6.9076
▁yaşa	-6.91175
eceğ	-6.91889
000	-6.91934
▁ilk	-6.91948
008	-6.92235
▁z	-6.92513
mız	-6.92918
nun	-6.93643
▁yı	-6.93905
acağ	-6.94018
▁kadar	-6.94637
▁konuş	-6.95545
en	-6.95729
▁r	-6.9607
▁iste	-6.96137
▁baş	-6.96703
▁taraf	-6.97178
▁ay	-6.98153
s	-6.98419
m	-6.98463
▁3	-6.98637
▁uz	-6.99729
▁lan	-7.00427
▁tır	-7.00897
▁kullan	-7.00908
▁ev	-7.01551
▁ır	-7.01814
▁başla	-7.01887
▁biz	-7.02268
▁kişi	-7.02327
ma	-7.03152
▁bin	-7.04094
tiğ	-7.05269
▁tu	-7.07417
▁yol	-7.07536
▁ben	-7.08795
▁belediye	-7.09458
▁yen	-7.11087
▁gerek	-7.11141
▁ülke	-7.11215
▁kat	-7.11737
▁iki	-7.11897
▁tan	-7.13938
▁ad	-7.1461
▁5	-7.15269
▁ama	-7.15851
▁maç	-7.16733
▁türk	-7.17945
▁süre	-7.18381
▁sür	-7.18529
abil	-7.19444
▁bölge	-7.19857
p	-7.203
▁dünya	-7.20886
▁çek	-7.21202
▁se	-7.21356
▁zaman	-7.22162
▁özel	-7.22258
▁bakan	-7.22497
▁gir	-7.2356
▁alt	-7.23618
▁uyor	-7.24318
▁siz	-7.24705
si	-7.2628
▁ifade	-7.26423
▁karar	-7.26451
▁izmir	-7.26518
▁orta	-7.26943
▁ul	-7.27782
▁getir	-7.27845
u	-7.28237
▁söz	-7.28704
▁genel	-7.29544
▁yaş	-7.29655
▁iyi	-7.29742
▁4	-7.30324
▁nü	-7.3056
▁sıra	-7.31141
▁sun	-7.31941
▁takım	-7.3215
▁dur	-7.33369
▁önem	-7.3395
▁insan	-7.34199
iyet	-7.35014
▁düzenle	-7.36042
at	-7.36307
▁ten	-7.37311
▁başkan	-7.37588
▁kadın	-7.37598
▁aç	-7.37652
▁art	-7.37897
▁göster	-7.38529
▁at	-7.38717
▁dü	-7.39019
li	-7.39062
an	-7.39561
▁ard	-7.39877
er	-7.3991
▁ilgili	-7.39913
▁değil	-7.40011
▁parti	-7.40113
▁tur	-7.40525
▁ilçe	-7.41689
▁kur	-7.41758
▁ül	-7.41779
▁ak	-7.42283
▁durum	-7.435
▁ün	-7.43555
▁merkez	-7.4433
▁olay	-7.44415
ancak	-7.44588
et	-7.44809
▁sayı	-7.45338
▁dür	-7.45846
▁tüm	-7.47093
▁oyun	-7.47253
▁tarih	-7.4774
▁müdür	-7.48457
▁istanbul	-7.48478
lı	-7.49786
▁üyor	-7.49923
▁milyon	-7.51066
sı	-7.51148
▁dik	-7.51244
▁görev	-7.5191
▁devam	-7.52027
▁anla	-7.5204
▁çin	-7.53263
▁yok	-7.53429
▁bak	-7.54159
▁iz	-7.55499
in	-7.55548
▁devlet	-7.56108
▁çocuk	-7.56376
me	-7.56553
spor	-7.56726
▁ur	-7.57422
▁güven	-7.57431
▁hem	-7.59343
▁çi	-7.59485
y	-7.59523
▁f	-7.59564
▁futbol	-7.59822
▁yaz	-7.6053
▁yardım	-7.61773
▁luk	-7.61849
▁sağla	-7.62233
▁yönetim	-7.62877
ya	-7.63217
▁göz	-7.6328
di	-7.63382
▁ıp	-7.63532
▁polis	-7.64001
▁10	-7.65266
▁dön	-7.65476
yle	-7.65625
▁ayrı	-7.65855
▁kazan	-7.65982
▁bugün	-7.66473
▁film	-7.67207
ye	-7.67488
▁kent	-7.67797
lüğ	-7.69048
▁hayat	-7.69151
leri	-7.69173
▁len	-7.70397
▁düş	-7.70449
▁şey	-7.70731
▁oyna	-7.70737
▁diğer	-7.70868
▁üye	-7.71075
▁eş	-7.71376
▁6	-7.71919
o	-7.72375
▁gid	-7.73073
▁eğitim	-7.73141
▁sız	-7.73174
▁asker	-7.73305
▁muş	-7.73339
▁düğ	-7.74037
▁leş	-7.74068
▁halk	-7.74172
▁toplantı	-7.74701
▁aday	-7.74973
z	-7.75442
▁hakkı	-7.75647
▁yakın	-7.75659
▁fark	-7.7571
▁gerçekleş	-7.75802
▁aynı	-7.75813
oğ	-7.76751
▁bilgi	-7.76971
▁lü	-7.77096
▁aile	-7.7711
▁oluş	-7.77185
▁ip	-7.77988
▁haber	-7.78326
işki	-7.785
▁dış	-7.78619
▁alan	-7.78785
▁daş	-7.7904
▁sor	-7.79255
▁öl	-7.7991
▁üniversite	-7.80356
▁hafta	-7.81211
man	-7.81367
ç	-7.81381
▁topla	-7.81542
▁spor	-7.81937
▁mi	-7.82175
▁başarı	-7.82236
▁vatan	-7.82711
▁7	-7.82808
▁tek	-7.82866
▁böyle	-7.82881
▁öğrenci	-7.83069
d	-7.83251
▁sağ	-7.83509
▁proje	-7.84005
▁20	-7.84275
▁dil	-7.84477
▁bura	-7.84764
▁seçim	-7.85131
▁ceza	-7.85189
▁ız	-7.86612
▁ankara	-7.87023
▁hizmet	-7.87059
▁8	-7.87279
▁hava	-7.87681
▁kurul	-7.87949
▁sahip	-7.8835
▁bırak	-7.88426
▁hak	-7.88695
▁üç	-7.88906
▁d	-7.88928
▁hastane	-7.89041
▁saat	-7.89526
▁sen	-7.90174
▁genç	-7.90267
nedeni	-7.91096
▁kız	-7.91323
▁eski	-7.91485
▁git	-7.92263
rken	-7.92301
▁üst	-7.9245
▁abd	-7.9254
▁şekil	-7.92735
▁san	-7.92804
▁cü	-7.92897
▁yacak	-7.93176
▁gazete	-7.93481
▁ist	-7.93553
▁avrupa	-7.93673
▁bekle	-7.9383
▁miz	-7.93866
▁gül	-7.94614
▁ekip	-7.9465
▁yara	-7.94702
▁okul	-7.95009
▁sev	-7.95099
laş	-7.95099
▁b	-7.95192
▁geliş	-7.95226
▁savaş	-7.95459
▁duk	-7.95652
▁ulaş	-7.95786
▁arkadaş	-7.95979
▁adam	-7.96183
▁bas	-7.96515
sel	-7.96601
▁tür	-7.96927
▁bazı	-7.96979
▁fazla	-7.97152
▁başbakan	-7.97747
▁deniz	-7.98012
▁dün	-7.98258
▁yarı	-7.9876
▁taşı	-7.98965
bil	-7.9948
▁yüksek	-8.00011
▁sade	-8.00126
men	-8.00209
▁düşün	-8.00302
▁şu	-8.00417
▁zor	-8.00999
▁g	-8.01005
▁mahkeme	-8.02193
▁lig	-8.02343
▁güzel	-8.03042
uz	-8.03175
▁değiş	-8.03249
▁on	-8.03283
▁para	-8.03433
asyon	-8.04098
▁iddia	-8.04283
▁duy	-8.04336
▁soru	-8.04369
▁lük	-8.04955
▁30	-8.04996
▁suriye	-8.05346
ce	-8.05802
▁dönem	-8.06437
▁can	-8.06504
▁ikinci	-8.06852
▁kim	-8.06933
▁kez	-8.06963
ği	-8.07038
▁ziyaret	-8.07288
▁sü	-8.08003
ş	-8.08446
▁uzun	-8.09364
▁ali	-8.09589
▁ekonomi	-8.09724
▁destek	-8.10433
▁mücadele	-8.10603
▁tık	-8.10753
▁yetki	-8.10768
ları	-8.11253
▁grup	-8.11734
▁sistem	-8.11761
▁19	-8.1194
▁çe	-8.11943
ün	-8.12419
▁belirle	-8.12589
lis	-8.12741
▁tut	-8.13145
▁ırak	-8.13469
ebil	-8.13633
▁milli	-8.14393
▁teknik	-8.14758
yacağ	-8.1528
▁kaç	-8.15531
▁öz	-8.15665
▁çı	-8.15736
▁kara	-8.1603
▁güç	-8.16094
▁lira	-8.16111
▁s	-8.16165
▁şim	-8.1642
▁gönder	-8.16646
sal	-8.17202
▁sezon	-8.17354
▁amerika	-8.1758
de	-8.17687
▁yazı	-8.17822
▁kaynak	-8.17842
▁dikkat	-8.17857
▁açık	-8.17999
istan	-8.18291
▁baba	-8.18512
▁şöyle	-8.18562
▁hali	-8.18832
▁şirket	-8.19615
▁veya	-8.19906
iye	-8.20059
▁oy	-8.20282
▁doğru	-8.20287
▁öğren	-8.20306
▁köy	-8.20643
▁9	-8.20667
luğ	-8.2077
▁oku	-8.20947
▁gece	-8.21265
▁yaklaşık	-8.21531
ci	-8.21574
▁bit	-8.21873
▁hükümet	-8.22046
▁suç	-8.22598
▁koru	-8.22759
▁savun	-8.22914
▁öde	-8.22999
▁araç	-8.23071
ın	-8.23154
▁kar	-8.23339
müz	-8.23543
▁bütün	-8.23555
un	-8.23563
▁saldırı	-8.23655
▁16	-8.23664
▁meydan	-8.23818
▁mehmet	-8.23824
▁dr	-8.24113
▁kültür	-8.24326
▁araştır	-8.24513
▁izle	-8.247
▁dol	-8.2496
▁hep	-8.24974
altı	-8.25339
▁top	-8.25421
▁boy	-8.25626
▁koy	-8.25847
▁görüş	-8.26136
el	-8.26165
▁15	-8.26615
▁banka	-8.26706
▁chp	-8.26895
▁yor	-8.27046
▁dakika	-8.27207
▁çevre	-8.27464
▁mı	-8.27834
▁hareket	-8.28017
▁yu	-8.28216
▁dava	-8.28591
▁cumhur	-8.28633
▁yürü	-8.2866
▁bölüm	-8.2881
▁sanat	-8.28853
le	-8.29081
▁pazar	-8.29184
▁y	-8.29197
▁sonuç	-8.2937
▁12	-8.29503
al	-8.29775
▁anne	-8.29807
▁ık	-8.30323
▁üm	-8.30347
▁milletvekil	-8.30448
▁hazır	-8.30835
uc	-8.30949
▁hasta	-8.30987
▁hiç	-8.31272
▁geri	-8.31273
▁ora	-8.31504
▁100	-8.31534
▁mahalle	-8.31589
▁yat	-8.31643
▁isim	-8.32032
▁operasyon	-8.32107
▁oda	-8.32834
▁bun	-8.32917
▁örgüt	-8.33118
▁ürün	-8.33536
şehir	-8.3363
▁ış	-8.34005
▁inan	-8.34138
ü	-8.34175
▁tören	-8.34235
▁hazırla	-8.34396
▁milyar	-8.34648
▁bel	-8.34656
▁silah	-8.35203
▁kapa	-8.35479
▁az	-8.35635
te	-8.3568
▁ağır	-8.36224
▁sat	-8.36332
▁terör	-8.36356
▁tanı	-8.36724
▁grub	-8.36946
▁kaza	-8.37077
ar	-8.37233
▁ça	-8.37268
▁malı	-8.37704
▁kes	-8.37766
▁hedef	-8.383
▁iniz	-8.38379
▁erdoğan	-8.38445
▁kısa	-8.38446
▁puan	-8.3848
▁kayde	-8.38573
▁kır	-8.38875
▁ses	-8.39833
▁tü	-8.39927
▁mustafa	-8.39935
▁mec	-8.39967
▁be	-8.40139
türk	-8.40145
▁kabul	-8.40309
▁suz	-8.40329
▁program	-8.4054
▁sarı	-8.40934
▁neden	-8.4106
▁küçük	-8.41603
▁karşılaş	-8.41632
▁fotoğraf	-8.41761
▁değer	-8.41859
▁kan	-8.42037
▁seç	-8.42353
▁temsil	-8.43148
la	-8.43515
▁bina	-8.4369
▁vurgula	-8.43742
▁sosyal	-8.44292
▁rağ	-8.44832
▁yecek	-8.44913
▁otur	-8.4513
▁hiçbir	-8.45205
▁ko	-8.45407
▁dolayı	-8.45536
▁erkek	-8.45706
▁tam	-8.45883
ijing	-8.4621
▁saha	-8.46522
▁kayded	-8.46528
ik	-8.46764
▁say	-8.46766
▁gerçek	-8.46923
am	-8.47875
▁niz	-8.48034
ül	-8.48744
▁uluslarara	-8.4909
▁plan	-8.49287
▁yoğun	-8.49586
▁ilgi	-8.49615
▁kapsam	-8.4977
▁14	-8.49967
▁mutlu	-8.50088
▁sin	-8.50124
▁emn	-8.50387
▁transfer	-8.50427
▁ab	-8.50664
▁beşiktaş	-8.50763
▁yıldız	-8.5077
▁up	-8.50934
▁ait	-8.5096
▁sınır	-8.51013
▁demir	-8.51033
▁içeri	-8.51094
▁bağlı	-8.51459
▁mal	-8.51773
lar	-8.52193
çok	-8.52264
▁sorun	-8.52384
▁vali	-8.52846
▁ortak	-8.52931
▁yüksel	-8.52932
▁nız	-8.53091
▁lider	-8.5321
▁ayrıl	-8.53507
▁şampiyon	-8.53636
▁yayın	-8.53657
▁hız	-8.53708
da	-8.5394
▁ata	-8.54012
▁tartış	-8.54875
▁nokta	-8.5525
hangi	-8.55256
▁tamamla	-8.55359
▁yasa	-8.55458
▁ödül	-8.55576
▁üretim	-8.55971
▁25	-8.56021
▁yapı	-8.56028
▁ban	-8.56194
▁00	-8.56979
▁yön	-8.57122
▁sanayi	-8.57357
▁firma	-8.57359
▁fiyat	-8.57494
▁inşa	-8.58121
yla	-8.5822
ek	-8.58425
▁kardeş	-8.58502
▁uygulama	-8.58644
▁engel	-8.59127
▁tedavi	-8.59168
▁metre	-8.59247
f	-8.5956
▁frans	-8.59592
▁mız	-8.59733
liği	-8.59947
▁incele	-8.59979
▁götür	-8.60502
asıl	-8.60545
▁kin	-8.60677
h	-8.60704
▁kuru	-8.60892
▁üş	-8.6101
▁doğ	-8.61066
▁ticaret	-8.61386
▁cumhurbaşkan	-8.61635
▁ünlü	-8.61801
▁ordu	-8.61819
▁mu	-8.61967
▁madde	-8.62138
▁yarak	-8.62183
▁yarat	-8.62242
▁akşam	-8.62514
▁ölüm	-8.62566
▁çeşit	-8.62834
cı	-8.62839
▁ür	-8.63036
▁görüşme	-8.63365
▁bilim	-8.63778
rektör	-8.63972
▁kapı	-8.63976
▁ş	-8.64038
▁çünkü	-8.64039
▁tik	-8.64074
▁50	-8.64399
▁şubat	-8.64429
▁dolar	-8.64738
▁hale	-8.64819
manya	-8.64887
yeceğ	-8.65043
▁18	-8.65073
▁17	-8.65134
▁sektör	-8.65197
var	-8.65362
▁yöneli	-8.6546
▁aa	-8.6567
▁gol	-8.65946
▁kuzey	-8.65983
▁11	-8.66129
▁galatasaray	-8.66368
▁büyü	-8.66866
1	-8.6687
▁müş	-8.66915
▁13	-8.66954
▁satış	-8.66988
▁hal	-8.67216
▁oğl	-8.676
▁kamu	-8.67781
▁uygula	-8.68507
▁toplum	-8.68726
▁otomobil	-8.68758
▁derece	-8.68761
▁mart	-8.69008
▁sın	-8.69103
▁derne	-8.69168
▁etki	-8.69404
▁kaybet	-8.69595
▁rapor	-8.69968
▁telefon	-8.69969
▁yaban	-8.70009
enerbahçe	-8.70129
▁ba	-8.70244
▁vergi	-8.70322
▁itibar	-8.70363
▁hukuk	-8.70376
▁kurtar	-8.71155
▁olimpiya	-8.71209
▁ahmet	-8.71681
ylem	-8.71935
▁güney	-8.72047
▁ek	-8.72116
▁vur	-8.72488
▁sahib	-8.73282
▁antalya	-8.73284
akip	-8.7339
yum	-8.73763
▁yurt	-8.74256
▁zara	-8.7444
▁tepki	-8.74552
▁öğretmen	-8.74589
▁asl	-8.74893
▁sahne	-8.74972
c	-8.74991
▁turizm	-8.75002
▁pek	-8.75229
▁işbir	-8.7562
ip	-8.75739
▁salon	-8.75862
▁sabah	-8.76083
ınız	-8.76199
▁prof	-8.76199
▁0	-8.76363
▁bi	-8.76482
▁h	-8.76562
▁park	-8.76614
▁komuta	-8.76829
ka	-8.7761
▁yani	-8.77975
▁terörist	-8.78041
▁site	-8.78415
▁sevgi	-8.7842
▁hat	-8.78967
▁şube	-8.79115
▁şun	-8.79219
▁kupa	-8.79744
▁bahçe	-8.79802
▁beraber	-8.79813
▁çift	-8.79855
▁resm	-8.79934
lü	-8.80195
▁kuruluş	-8.80268
▁taraftar	-8.80269
▁şek	-8.80665
▁kitap	-8.80743
▁eyl	-8.80967
dar	-8.81085
▁katkı	-8.81166
▁dışiş	-8.81188
üz	-8.81473
ir	-8.81532
▁chin	-8.8184
il	-8.81887
▁patla	-8.82053
kent	-8.82057
▁tabi	-8.8218
▁bayram	-8.8256
han	-8.82576
▁40	-8.83191
▁yız	-8.83387
▁piyasa	-8.83476
▁sav	-8.83905
▁tesis	-8.83983
▁hatırla	-8.84803
▁tamam	-8.85177
▁ateş	-8.85354
umuz	-8.85562
▁ingiliz	-8.85829
▁beş	-8.85956
▁barış	-8.8614
▁çocuğ	-8.86304
▁beyaz	-8.86404
▁dinle	-8.86613
▁şarkı	-8.8679
▁siniz	-8.86828
▁anlam	-8.86865
▁serbest	-8.87753
▁teşekkü	-8.87755
▁soruşturma	-8.87758
▁uygun	-8.87853
kıntı	-8.88009
▁kötü	-8.88197
ra	-8.88451
▁kanun	-8.8852
▁yıp	-8.88693
▁gemi	-8.88755
▁doğu	-8.88877
▁cuma	-8.89119
▁görüntü	-8.8916
▁kulüp	-8.89224
▁kolay	-8.89243
▁gın	-8.8935
kan	-8.8941
▁sürü	-8.89426
▁açı	-8.89453
ız	-8.89556
▁yönetici	-8.89721
▁sokak	-8.89725
▁ekib	-8.89729
▁şehir	-8.89937
▁aydın	-8.90022
▁akp	-8.90104
dem	-8.90242
▁200	-8.9026
▁tl	-8.90689
▁kadro	-8.90733
yaka	-8.90809
▁yunan	-8.91226
▁kriz	-8.9129
▁sık	-8.91297
▁bey	-8.91342
ve	-8.91644
▁oran	-8.9172
▁rusya	-8.91753
▁boz	-8.92174
▁saatler	-8.92344
▁the	-8.9243
aj	-8.92459
g	-8.92965
▁for	-8.92986
ıcı	-8.93016
▁millet	-8.93237
▁çiz	-8.9324
▁servis	-8.93257
▁ücret	-8.93257
rk	-8.93694
▁so	-8.93706
na	-8.93708
▁dağıt	-8.93823
▁herke	-8.93952
▁özgür	-8.94186
▁imza	-8.94202
▁müdahale	-8.94288
▁yarış	-8.94293
▁saray	-8.94404
vil	-8.94478
▁arka	-8.94833
▁ince	-8.95219
▁tespit	-8.95335
▁anadol	-8.95342
▁enerji	-8.9535
▁kart	-8.95354
▁meli	-8.95586
▁21	-8.95609
▁tarım	-8.95866
▁yemek	-8.95941
can	-8.96014
▁ydi	-8.96062
▁24	-8.9607
▁parça	-8.96108
▁l	-8.96218
▁çözüm	-8.9639
▁faaliyet	-8.9639
▁kırmızı	-8.96401
▁jan	-8.96437
▁fua	-8.96601
▁gök	-8.9687
▁uçak	-8.96941
▁trabzon	-8.97455
▁politika	-8.97475
▁anayasa	-8.97484
▁yaşam	-8.97505
ca	-8.97516
▁ik	-8.97553
▁toprak	-8.97646
▁28	-8.97808
▁haziran	-8.97995
▁kamp	-8.98025
▁intern	-8.98213
▁birinci	-8.98224
nin	-8.98225
ayıs	-8.98417
ova	-8.98788
den	-8.98954
▁22	-8.99084
▁iran	-8.99175
▁zaten	-8.99624
▁dört	-8.99694
▁birbir	-9.00012
▁şehit	-9.00186
darma	-9.00297
▁teklif	-9.00331
▁tele	-9.0064
▁kredi	-9.00726
▁ihale	-9.008
▁euro	-9.00808
▁yaka	-9.00828
▁kemal	-9.01249
▁ihrac	-9.01291
izin	-9.01502
▁şüphe	-9.01839
cu	-9.02144
▁kon	-9.02185
▁ciddi	-9.02403
▁talep	-9.02412
▁23	-9.02464
▁he	-9.02548
▁taş	-9.0284
▁kuvvet	-9.02964
▁müzik	-9.02969
▁ydı	-9.02975
▁ileri	-9.03113
▁co	-9.03304
▁tehlike	-9.03534
im	-9.03557
▁biraz	-9.03681
▁dağ	-9.03848
▁batı	-9.04181
▁desteğ	-9.042
▁doğum	-9.04235
taş	-9.04497
▁belge	-9.04712
▁temel	-9.04718
▁c	-9.04874
▁feder	-9.04888
yen	-9.04933
▁aşk	-9.04948
▁kafa	-9.0503
▁teknoloji	-9.05258
ay	-9.05683
deniz	-9.05805
▁cadde	-9.0585
▁bursa	-9.05872
tere	-9.05881
▁giy	-9.06283
vizyon	-9.06378
▁değerlen	-9.06434
bet	-9.06481
▁adli	-9.06682
len	-9.06707
▁kap	-9.06734
▁p	-9.06875
▁yeşil	-9.06962
re	-9.07036
kimse	-9.0729
▁liste	-9.078
▁ici	-9.08044
▁mesaj	-9.08174
▁şiddet	-9.08199
lış	-9.08279
▁ders	-9.08422
▁tekrar	-9.08702
▁sevk	-9.08741
▁amaç	-9.09028
▁orman	-9.09272
▁kalite	-9.09355
▁sefer	-9.09445
▁kay	-9.09463
▁ingil	-9.09549
▁yargı	-9.09575
ilyon	-9.09684
▁yim	-9.0989
ısır	-9.10058
▁koca	-9.10143
tay	-9.1023
hil	-9.10362
ki	-9.10473
▁adet	-9.10497
ocak	-9.10519
▁kulüb	-9.10552
▁avukat	-9.10617
▁artış	-9.10724
▁işlem	-9.10965
▁kale	-9.10996
▁temm	-9.11042
is	-9.11129
▁hasan	-9.11268
▁uzak	-9.11622
▁sol	-9.11628
▁üre	-9.11802
▁üz	-9.11887
▁hayvan	-9.12125
▁tr	-9.12188
ist	-9.12226
yse	-9.12248
▁ö	-9.1236
ge	-9.12393
▁gösteri	-9.12418
▁belli	-9.1261
▁fil	-9.13011
▁paylaş	-9.13078
▁katılım	-9.13112
▁otel	-9.13134
▁yakala	-9.13183
▁meslek	-9.13316
▁uyarı	-9.13319
▁yorum	-9.13339
▁çal	-9.13371
▁hüsey	-9.13722
▁sınıf	-9.13735
▁kulübü	-9.1379
▁siyaset	-9.13798
▁kontrol	-9.14088
▁unut	-9.14131
▁bomba	-9.14146
ör	-9.14249
▁mü	-9.14264
▁ağustos	-9.14355
▁murat	-9.1436
▁israil	-9.14374
▁sal	-9.14402
▁ka	-9.14491
▁bağla	-9.1455
▁karış	-9.14722
▁bebe	-9.14831
▁uş	-9.14991
▁teslim	-9.14992
▁bekl	-9.15047
▁öte	-9.15317
▁yerel	-9.15483
▁acı	-9.15527
▁cenaz	-9.15669
▁saye	-9.1587
▁500	-9.15902
▁imkan	-9.16171
▁açılış	-9.16293
lığı	-9.16299
▁kayıt	-9.16329
kes	-9.16465
▁çağ	-9.16493
▁elektri	-9.16508
syon	-9.16819
▁işaret	-9.16932
▁ekle	-9.17014
▁başar	-9.17081
▁konser	-9.17126
▁nere	-9.17173
▁çoğu	-9.17222
▁buluş	-9.1725
▁erke	-9.17271
▁siyas	-9.17316
▁taban	-9.17638
▁persone	-9.1775
▁önle	-9.17933
▁arac	-9.18359
▁aktar	-9.18539
▁eser	-9.18651
ak	-9.18667
▁dizi	-9.18739
▁veri	-9.18849
▁kesim	-9.18946
▁birkaç	-9.18987
arken	-9.19172
▁basketbol	-9.19516
▁baskı	-9.19519
▁trafik	-9.19663
▁deprem	-9.19692
▁27	-9.19774
▁abdni	-9.19848
ınca	-9.20279
▁öyle	-9.2029
▁şart	-9.2053
▁plak	-9.20547
▁sert	-9.20556
▁ayak	-9.20566
▁eğ	-9.20577
▁kalk	-9.20943
▁heyet	-9.2095
▁lise	-9.2107
b	-9.21173
▁yiz	-9.21369
rek	-9.21409
▁duygu	-9.216
▁çöz	-9.21673
akülte	-9.21702
▁tuğ	-9.21732
▁kutla	-9.21919
▁çalışan	-9.21998
▁hayır	-9.22273
ba	-9.22575
▁güc	-9.22803
lan	-9.22845
▁numara	-9.22969
▁tbmm	-9.2297
2	-9.22975
▁ulusal	-9.22993
gül	-9.23014
▁göç	-9.23053
▁beri	-9.23061
▁alış	-9.23108
▁davet	-9.23111
misyon	-9.23172
▁acil	-9.23546
▁doktor	-9.23664
▁kanser	-9.23679
sat	-9.23829
▁fır	-9.23901
▁av	-9.24004
w	-9.24126
iyer	-9.24149
▁ha	-9.24385
elçi	-9.24428
▁gerekçe	-9.24449
▁kurtul	-9.24454
▁kısm	-9.24615
▁tak	-9.24659
üncü	-9.24818
▁ibrahim	-9.25068
▁renk	-9.25085
▁örnek	-9.253
▁karşıla	-9.25345
▁uy	-9.25608
▁ism	-9.25693
▁uğra	-9.25721
▁kilometre	-9.25777
▁yönet	-9.25783
▁yalnız	-9.25789
▁sağlık	-9.25793
▁saygı	-9.25813
nisan	-9.25829
▁ris	-9.25856
▁kurs	-9.2629
su	-9.26391
▁ilerle	-9.26576
▁as	-9.26846
▁dost	-9.27192
▁otobüs	-9.27214
▁idare	-9.27218
▁kasım	-9.2723
▁gür	-9.27376
▁şen	-9.27381
▁kol	-9.27517
▁ege	-9.27551
it	-9.27603
▁çaba	-9.2773
▁sıcak	-9.27778
▁galibiyet	-9.27936
▁faiz	-9.27938
▁bar	-9.28145
▁all	-9.28171
fakat	-9.28244
▁yım	-9.2827
▁çarp	-9.28324
▁lım	-9.28567
▁azal	-9.28627
▁yatırım	-9.28665
▁paket	-9.28675
▁hata	-9.29153
▁düşü	-9.29397
▁abdullah	-9.2941
▁yöntem	-9.29414
▁ışid	-9.29475
zman	-9.29587
▁dük	-9.29659
▁sar	-9.29982
▁kesin	-9.30059
▁not	-9.30217
▁başvuru	-9.30433
if	-9.30685
ne	-9.30877
▁yetiş	-9.31211
▁daya	-9.31253
▁masa	-9.31325
▁defa	-9.31377
▁zirv	-9.3138
▁uza	-9.31816
▁sh	-9.31889
zeme	-9.31932
▁pkk	-9.32431
▁aziz	-9.32547
▁aş	-9.32981
▁adale	-9.33056
▁ytl	-9.3313
▁kanal	-9.33151
▁bağım	-9.33167
▁şans	-9.33187
gi	-9.33334
▁anlaşma	-9.33384
os	-9.33477
▁roman	-9.33774
▁bm	-9.33905
▁ihtiyaç	-9.33927
▁tercih	-9.33929
▁muhabir	-9.33933
▁doğal	-9.34084
odel	-9.34354
▁gez	-9.34447
kün	-9.34537
▁göl	-9.34573
▁allah	-9.34676
▁turnuva	-9.34705
▁güneş	-9.34746
▁köprü	-9.34788
▁gezi	-9.34818
sız	-9.34874
▁çatış	-9.34999
çe	-9.35005
▁dönüş	-9.3534
▁hapis	-9.35497
▁miktar	-9.3551
▁görün	-9.35587
▁26	-9.35603
▁merak	-9.3567
erk	-9.35702
▁new	-9.35952
▁35	-9.36101
▁eksik	-9.36175
▁cr	-9.36312
▁performans	-9.37067
▁medya	-9.37071
▁çetin	-9.37084
▁hesap	-9.37099
▁hakim	-9.37127
▁adana	-9.37147
▁geniş	-9.3724
▁daire	-9.37241
▁islam	-9.37403
▁araba	-9.37759
▁dha	-9.3791
▁yarışma	-9.38017
nav	-9.38054
▁müm	-9.38087
▁yet	-9.38103
▁ömer	-9.38113
▁osman	-9.38477
mit	-9.385
▁60	-9.38593
▁cevap	-9.38682
yo	-9.38803
▁basın	-9.38902
▁destekle	-9.38998
shan	-9.39178
▁demokra	-9.39243
▁tat	-9.39284
ni	-9.39306
▁ç	-9.39441
▁paris	-9.39501
▁kitab	-9.39573
0	-9.39621
▁tutuk	-9.39685
iş	-9.39901
▁öğreti	-9.40144
▁diyarbakır	-9.40306
▁kamyon	-9.40308
▁rakam	-9.40308
nternation	-9.40308
▁ihtiyac	-9.40312
▁ismail	-9.40316
▁2012	-9.40325
▁to	-9.40524
es	-9.40729
▁başvur	-9.40851
▁sürek	-9.40998
▁saç	-9.41158
▁şahin	-9.41329
us	-9.41572
▁final	-9.41688
▁duruş	-9.41814
▁bağlant	-9.41854
▁2013	-9.41972
▁2014	-9.41977
▁sevin	-9.42553
▁bilgisaya	-9.42809
▁hoca	-9.42813
▁siyah	-9.42851
▁mağa	-9.43063
leşme	-9.43181
▁re	-9.4323
başı	-9.43454
▁bal	-9.43466
▁rus	-9.43496
ler	-9.43547
▁emin	-9.43633
▁tahmin	-9.43654
lenme	-9.43676
▁onur	-9.43731
on	-9.43924
▁gizl	-9.44196
dık	-9.4438
▁normal	-9.44398
▁istifa	-9.44562
▁uçağ	-9.44577
▁ilaç	-9.44598
▁darbe	-9.44791
▁tutuklan	-9.4488
▁zan	-9.45049
▁boş	-9.45069
yış	-9.45081
dres	-9.45185
▁uç	-9.4526
▁tıp	-9.45301
road	-9.4534
tepe	-9.45378
▁sınız	-9.45481
yıl	-9.455
oyu	-9.45861
▁recep	-9.4624
▁şikayet	-9.4624
▁işletme	-9.46245
▁kamera	-9.46266
▁konferans	-9.46307
▁ikti	-9.46465
▁kök	-9.46574
▁şampiyona	-9.46756
▁bay	-9.46863
▁yanıt	-9.47089
▁fatih	-9.47117
▁finans	-9.47122
▁bor	-9.47318
üman	-9.47373
lu	-9.47459
▁benze	-9.47518
▁ışık	-9.4758
▁29	-9.47615
▁kaymak	-9.48031
▁tane	-9.48241
za	-9.48252
▁korku	-9.48293
ta	-9.48412
vet	-9.4858
▁şehr	-9.48766
▁sayfa	-9.48913
▁soy	-9.48926
▁gaziantep	-9.48972
▁turist	-9.49573
▁süper	-9.49613
▁ham	-9.4964
▁kampanya	-9.49797
▁yağış	-9.49798
▁girişim	-9.49798
▁mevcut	-9.49799
▁yargılan	-9.49832
▁bülen	-9.49833
▁harca	-9.49837
▁uyuşturu	-9.49914
▁kapalı	-9.49969
yan	-9.50273
▁uyar	-9.50712
▁2005	-9.50712
▁taleb	-9.50713
▁stad	-9.50755
▁itira	-9.50836
▁70	-9.51289
▁kaybed	-9.51336
▁marka	-9.51409
▁memnun	-9.51629
▁tayy	-9.51666
▁bol	-9.517
▁memur	-9.51715
▁yansı	-9.51967
bi	-9.52249
rights	-9.52492
▁radio	-9.52548
▁cinayet	-9.52549
▁protesto	-9.52551
▁sinema	-9.52576
▁tatil	-9.5258
▁kaya	-9.52706
dağ	-9.52713
ık	-9.52765
▁gaz	-9.52842
▁abdde	-9.52852
▁bilet	-9.52946
▁etkile	-9.52992
▁31	-9.53232
rtesi	-9.53386
ri	-9.53411
▁esnaf	-9.5349
▁italya	-9.53509
▁emekl	-9.53608
▁yitir	-9.53617
▁çağrı	-9.53803
▁kurba	-9.54267
▁muhal	-9.54307
tüğ	-9.54308
▁muz	-9.54317
▁hesab	-9.54427
▁rekor	-9.54546
▁kilo	-9.54597
hane	-9.54613
▁kural	-9.54677
▁ada	-9.54737
▁eğlen	-9.54991
tro	-9.55068
▁gider	-9.55152
▁va	-9.55265
kü	-9.55281
▁fabrika	-9.55379
▁takdi	-9.55693
▁tehdi	-9.55849
ing	-9.5595
▁mini	-9.55994
▁komite	-9.5625
▁selçuk	-9.56341
▁geçmiş	-9.56405
kale	-9.56631
▁kork	-9.56765
▁müşter	-9.56775
▁konse	-9.56864
▁temas	-9.57178
▁deplas	-9.57312
▁olası	-9.57327
▁tip	-9.57347
▁ağaç	-9.57511
▁ölü	-9.57816
▁eyal	-9.57855
▁hisse	-9.57954
▁devre	-9.58231
▁nüfus	-9.58292
▁albüm	-9.58292
▁lazım	-9.58309
ondra	-9.58333
▁gönül	-9.58344
▁mutlak	-9.58348
öz	-9.5839
▁süt	-9.58433
▁sakat	-9.58622
um	-9.5865
▁dile	-9.58685
ça	-9.58686
▁eleştir	-9.588
▁yük	-9.58977
▁test	-9.59227
pınar	-9.59232
▁hakem	-9.59294
▁kış	-9.59311
▁300	-9.59331
▁of	-9.5938
▁çiçek	-9.59395
▁asıl	-9.59605
▁tv	-9.59759
▁eşit	-9.59904
lik	-9.5999
soy	-9.60028
040	-9.60184
▁seyir	-9.60288
▁falan	-9.60312
▁temiz	-9.60324
gara	-9.60382
▁kürt	-9.60405
▁hır	-9.6046
ykırı	-9.60565
▁oto	-9.61042
▁ton	-9.61077
▁rol	-9.611
▁yaklaş	-9.61124
▁45	-9.61217
▁manisa	-9.61292
▁rahat	-9.61315
▁konya	-9.61403
▁kıyı	-9.61412
▁huzur	-9.61451
▁pay	-9.61868
▁akl	-9.62049
bey	-9.62147
▁mali	-9.62182
▁vazgeç	-9.62312
▁hafif	-9.62321
▁dergi	-9.62364
▁umut	-9.62413
▁borsa	-9.62451
▁öneri	-9.62503
▁cami	-9.62522
▁çay	-9.62688
▁mekan	-9.62805
dan	-9.62958
sever	-9.62963
▁yık	-9.63083
▁ikili	-9.63155
▁rahatsız	-9.63353
▁peş	-9.63363
▁koşul	-9.63386
▁ithal	-9.63394
▁hayal	-9.63442
▁ilgilen	-9.63453
▁gelir	-9.63727
▁york	-9.63933
rum	-9.64353
▁sekreter	-9.64385
▁gereğ	-9.64412
▁2004	-9.64415
▁şiir	-9.64416
▁kenar	-9.6442
j	-9.64439
fet	-9.6453
▁petrol	-9.64594
▁cinsel	-9.64626
▁heyecan	-9.64828
avga	-9.64892
▁yararlan	-9.65465
▁organizasyon	-9.65469
▁ysa	-9.65533
▁fayda	-9.6561
nca	-9.65635
▁ilan	-9.65792
▁üreti	-9.65921
lama	-9.66051
▁işadam	-9.66504
▁dışarı	-9.66505
hediye	-9.6664
▁müsl	-9.66671
▁füz	-9.66767
▁engelle	-9.66982
fganistan	-9.67064
▁planla	-9.67268
▁tasarı	-9.67535
▁organiz	-9.67554
▁reklam	-9.67577
▁rakib	-9.67579
▁lim	-9.67625
▁sivas	-9.67766
▁söyl	-9.67817
akıl	-9.67962
▁motor	-9.67968
▁dolu	-9.67994
▁pen	-9.68264
▁parlament	-9.68295
▁konuk	-9.68314
▁doğa	-9.68375
▁ağa	-9.68524
▁ihbar	-9.68664
▁itfa	-9.68665
▁tanrı	-9.68677
▁teşkilat	-9.68677
▁yeter	-9.68739
▁net	-9.68805
▁deri	-9.68807
▁yayınla	-9.68817
yici	-9.68936
▁gen	-9.68954
ünce	-9.69027
▁ölçü	-9.6903
▁80	-9.69339
▁asya	-9.69403
▁koş	-9.69656
ti	-9.69758
▁hikaye	-9.69762
▁maddi	-9.69771
▁değerlendirme	-9.69771
to	-9.69772
▁istikrar	-9.69775
▁biçim	-9.69775
▁sermaye	-9.69782
▁boğaz	-9.69825
▁pozi	-9.69854
▁v	-9.70068
doğu	-9.70255
son	-9.70302
▁dair	-9.70358
▁kong	-9.70394
▁olan	-9.70584
▁şoför	-9.70874
▁kavuş	-9.70876
▁tem	-9.70894
riz	-9.70994
▁seri	-9.71019
▁van	-9.71063
yet	-9.712
dışı	-9.71204
izm	-9.71288
▁gin	-9.71353
yi	-9.71402
dere	-9.71543
▁gun	-9.71639
▁ter	-9.71676
nç	-9.71712
müzakere	-9.71997
▁bütçe	-9.71997
▁galeri	-9.72014
▁makine	-9.72029
▁vade	-9.72061
▁yazar	-9.72137
▁bağ	-9.72267
▁yay	-9.7251
▁sakin	-9.72573
▁baz	-9.72646
nüz	-9.72672
▁örne	-9.72761
▁kum	-9.72811
▁cezaev	-9.73027
▁egedesons	-9.73133
▁hanım	-9.73137
▁cam	-9.73238
▁düşünce	-9.73365
paşa	-9.73565
▁sergile	-9.73589
▁ruh	-9.73721
▁sebe	-9.73767
v	-9.73846
ton	-9.73977
▁şaş	-9.74097
endis	-9.74158
▁kıbrıs	-9.74283
9	-9.7429
▁endeks	-9.74292
▁zengin	-9.74292
▁devrim	-9.74293
▁hen	-9.74352
▁2006	-9.74353
irk	-9.74399
van	-9.74413
ol	-9.74654
▁bod	-9.74694
lanma	-9.74737
▁aracı	-9.75009
▁gıd	-9.75066
▁önlem	-9.75116
▁halde	-9.75171
8	-9.75335
ur	-9.7535
▁mensup	-9.75446
▁antren	-9.75458
▁müh	-9.75484
▁yalçın	-9.75512
veriş	-9.75533
▁fikir	-9.75537
▁demokratik	-9.75798
▁kuş	-9.75811
▁koltu	-9.75923
ilirk	-9.7604
▁ucu	-9.76084
▁kral	-9.76223
▁yü	-9.76401
tesi	-9.76413
▁cem	-9.76433
aroğ	-9.76713
köy	-9.76773
şey	-9.76777
▁sp	-9.76821
▁bayka	-9.76875
▁afri	-9.77109
▁cihaz	-9.77502
ması	-9.77553
istin	-9.77757
▁rum	-9.77765
▁metin	-9.77781
yebil	-9.77796
▁ambulans	-9.77813
▁slogan	-9.77813
▁sok	-9.77815
▁yürütül	-9.7782
▁komşu	-9.77906
siz	-9.78115
▁doğrult	-9.78411
hliye	-9.78462
be	-9.78471
▁şam	-9.78489
binler	-9.78523
▁kira	-9.78797
▁ayağ	-9.78802
▁ameliyat	-9.79017
▁ticari	-9.79017
▁ağrı	-9.79019
▁90	-9.79042
▁aşama	-9.79044
▁beğen	-9.79354
abet	-9.79365
ver	-9.79372
▁uğur	-9.79388
▁nite	-9.79496
netim	-9.79666
▁iptal	-9.79792
▁emre	-9.80064
▁beklenti	-9.80164
▁kayseri	-9.80195
miras	-9.80222
▁cesed	-9.80237
▁iletişim	-9.80239
▁2007	-9.8025
▁muğla	-9.80258
▁dalga	-9.80373
yasi	-9.80461
▁atla	-9.80514
▁aşağı	-9.80568
▁liman	-9.80759
▁koç	-9.80839
▁öner	-9.80915
▁yönetme	-9.81033
▁gram	-9.81198
▁brezilya	-9.81471
▁strateji	-9.81471
▁havaliman	-9.81472
▁tecav	-9.81481
▁çağır	-9.81501
▁borç	-9.81517
▁işyer	-9.81582
▁dans	-9.81589
mba	-9.81629
▁kılıçd	-9.81649
▁sahil	-9.81664
▁201	-9.81668
▁tanık	-9.81953
llah	-9.82322
aş	-9.82423
▁imzala	-9.82484
okul	-9.82508
port	-9.82624
▁ortalama	-9.82738
▁akademi	-9.8276
▁mezar	-9.82794
▁port	-9.82966
▁senar	-9.82986
▁ayır	-9.83189
▁bayrak	-9.83382
▁heykel	-9.83556
dari	-9.83644
st	-9.83731
▁maaş	-9.83792
▁laci	-9.83799
▁no	-9.83858
▁rek	-9.84008
ken	-9.8429
▁tanıtı	-9.84456
▁cep	-9.84677
▁kıl	-9.8469
eform	-9.84768
▁zorla	-9.84817
▁amac	-9.85008
▁sendika	-9.85071
▁forma	-9.85209
büs	-9.85215
▁ww	-9.85271
▁çevir	-9.85272
hisar	-9.8529
▁bedel	-9.85301
▁büny	-9.85339
efes	-9.85372
▁namaz	-9.85372
▁kedi	-9.85403
▁deli	-9.85603
▁karayol	-9.85615
▁üretil	-9.85652
▁konak	-9.85736
▁ku	-9.8577
▁dev	-9.85875
▁antrenör	-9.86103
▁gerile	-9.86116
▁bağış	-9.86206
▁öngör	-9.86279
vert	-9.86418
▁http	-9.86568
▁kılıç	-9.86602
▁dahi	-9.86636
▁muhte	-9.86639
▁34	-9.86667
▁fikr	-9.86686
▁john	-9.86819
kar	-9.86868
▁yak	-9.86904
▁rö	-9.86971
▁aslan	-9.87007
oğlu	-9.87198
cak	-9.87235
▁sergi	-9.87326
▁doku	-9.87339
hat	-9.87683
▁yanıtla	-9.87803
▁hürriyet	-9.87884
▁davran	-9.87924
▁müze	-9.8794
▁değin	-9.87959
▁tenis	-9.88052
▁tekne	-9.88234
▁edin	-9.88315
▁yağ	-9.88665
▁kızıl	-9.88892
▁32	-9.89009
erçe	-9.89053
▁arap	-9.89064
cü	-9.8912
▁hüküm	-9.89156
opter	-9.89208
▁problem	-9.89217
▁kapasite	-9.89218
▁2015	-9.89232
▁psikoloji	-9.8924
▁400	-9.89422
▁dök	-9.89438
▁esas	-9.89562
▁kör	-9.89587
sa	-9.89639
▁danışman	-9.8977
▁maliye	-9.89847
tif	-9.8996
sh	-9.90076
ev	-9.90093
▁tanış	-9.90213
▁süleyman	-9.90313
▁mezun	-9.90533
▁özdemir	-9.90576
▁kasa	-9.90582
▁japonya	-9.90594
▁eskişehir	-9.90692
tan	-9.90735
▁or	-9.90743
şar	-9.90748
▁tren	-9.90836
ara	-9.90985
▁düzen	-9.91041
▁55	-9.91118
▁müsa	-9.91385
▁199	-9.91461
ting	-9.91471
▁kayb	-9.91585
▁denge	-9.91684
▁karakter	-9.91691
▁fen	-9.9182
▁enflasyon	-9.91939
▁samsun	-9.91941
▁helik	-9.91968
▁madalya	-9.91968
▁değerlendiril	-9.92021
▁kaybol	-9.92192
▁mersin	-9.92201
▁dal	-9.92218
▁şeker	-9.92235
▁dağıl	-9.92428
lif	-9.92472
yabil	-9.92691
▁endişe	-9.92747
▁düze	-9.92865
kova	-9.92876
▁sel	-9.93106
ağa	-9.93214
saniye	-9.93256
▁kategori	-9.93327
▁tedbir	-9.93329
▁ruhsat	-9.93339
▁çap	-9.93355
rafiğ	-9.93371
▁boyut	-9.93399
▁kaçak	-9.93467
▁bayan	-9.93511
▁ge	-9.93734
▁depo	-9.93801
▁tel	-9.94191
▁rese	-9.94295
mis	-9.94321
▁zam	-9.9461
▁yağmur	-9.94737
▁ayşe	-9.9477
▁muhtar	-9.9477
▁mesele	-9.94837
▁ajans	-9.94914
▁hissed	-9.94927
▁fizik	-9.94936
▁tutar	-9.94981
▁düz	-9.95364
ze	-9.9538
▁hoş	-9.95448
▁çeşme	-9.95679
▁tüket	-9.95792
▁j	-9.95855
▁tepe	-9.95995
▁laf	-9.96049
yapı	-9.96072
ber	-9.96089
as	-9.96131
▁çarşa	-9.96144
▁mahkum	-9.96164
▁sultan	-9.96171
▁semt	-9.96175
▁cephe	-9.96179
▁seans	-9.96232
ıl	-9.96324
▁terk	-9.96428
kil	-9.96454
▁hisset	-9.96468
▁saatte	-9.96597
ttin	-9.96632
▁iade	-9.9699
▁bat	-9.97046
▁imam	-9.9707
zan	-9.97075
▁başsavcı	-9.97449
▁edebiyat	-9.97614
▁edirne	-9.97614
▁sezer	-9.9768
▁osmanlı	-9.97711
kaya	-9.97713
tik	-9.97716
▁engin	-9.97762
▁camia	-9.97911
▁organ	-9.97943
▁150	-9.98197
▁mhp	-9.98623
▁star	-9.98645
tü	-9.98659
lak	-9.98753
eket	-9.98755
uş	-9.99065
▁36	-9.99085
▁resim	-9.99094
▁hayran	-9.99122
▁meml	-9.99278
▁zorun	-9.99333
▁har	-9.99495
▁çu	-9.9967
ner	-9.99686
▁yo	-10.0018
baş	-10.0028
ha	-10.0037
▁tüketi	-10.0058
▁coşku	-10.0058
▁mağdur	-10.0058
▁geleneksel	-10.0059
▁orhan	-10.0059
▁yusuf	-10.006
▁kut	-10.0065
▁dikkati	-10.0107
▁kop	-10.0108
oz	-10.0124
ia	-10.0129
4	-10.0137
▁yasal	-10.0149
▁çam	-10.0163
vent	-10.0184
▁birim	-10.0196
kare	-10.02
▁yalan	-10.0206
▁tecrübe	-10.0209
▁pilot	-10.0209
kurmay	-10.021
▁öğle	-10.021
▁gurur	-10.0214
▁soğuk	-10.0216
▁kilis	-10.0227
▁yasak	-10.0235
erkan	-10.0238
▁biri	-10.0257
sil	-10.0289
zminat	-10.0292
orta	-10.0311
▁kalp	-10.0313
▁set	-10.0332
▁koa	-10.0333
▁çatı	-10.0334
▁33	-10.0335
ılma	-10.0349
▁2000	-10.035
tin	-10.0355
▁has	-10.0355
vekil	-10.0356
▁talimat	-10.0364
▁kalaba	-10.0364
dam	-10.0364
▁çanak	-10.0364
▁profesyonel	-10.0366
▁mektu	-10.0371
lisyon	-10.0386
▁duman	-10.0403
▁düşman	-10.0406
▁demokrat	-10.0406
cağ	-10.0416
▁topra	-10.0457
▁radyo	-10.0462
▁erzurum	-10.0519
▁kıyafet	-10.0519
▁rüzg	-10.0522
▁egemen	-10.0527
▁konut	-10.0538
▁nükle	-10.0542
▁gelen	-10.0547
lim	-10.0555
▁tuz	-10.0561
▁uc	-10.0564
ved	-10.0595
onsor	-10.0608
10	-10.0615
tek	-10.0617
ür	-10.0632
▁rektör	-10.0637
6	-10.0664
▁75	-10.0668
▁katliam	-10.0678
▁gerçeğ	-10.0678
▁2003	-10.068
3	-10.0682
▁çukur	-10.0686
▁davut	-10.0695
ım	-10.0712
go	-10.072
mer	-10.0732
bel	-10.0732
▁buca	-10.0762
▁ulu	-10.0777
▁vakf	-10.0788
▁ulus	-10.0802
▁tırman	-10.0814
▁sinan	-10.0815
yasal	-10.0832
▁büro	-10.0839
▁garanti	-10.0842
▁hind	-10.0858
▁gazi	-10.086
▁aşırı	-10.086
yve	-10.09
▁born	-10.0909
▁olağan	-10.0911
▁yayımlan	-10.0912
▁fo	-10.0923
▁hu	-10.0924
▁49	-10.0941
▁bo	-10.0963
▁ihtimal	-10.0966
▁devr	-10.0971
11	-10.0983
▁aksi	-10.1001
▁köpek	-10.1003
erşembe	-10.1003
▁rüya	-10.1004
▁döviz	-10.1004
▁reji	-10.1004
▁çiftçi	-10.1004
▁takvi	-10.1005
▁pota	-10.1005
▁özü	-10.1013
▁harek	-10.1015
▁talib	-10.1022
▁onay	-10.1038
▁kuşa	-10.1041
nova	-10.1047
kz	-10.1059
üstü	-10.1063
▁benzer	-10.1068
üs	-10.107
tina	-10.1078
▁müste	-10.1094
aktör	-10.1105
▁ser	-10.1156
▁torba	-10.1164
▁bisiklet	-10.117
▁ukrayna	-10.117
▁tribün	-10.117
ket	-10.1175
▁hollanda	-10.1176
▁zorlu	-10.1177
▁arzu	-10.1182
▁dolaş	-10.1188
dir	-10.1194
yon	-10.1207
▁muhammed	-10.1209
üzey	-10.1253
razi	-10.1264
▁tahsi	-10.1283
▁opera	-10.1284
ktaş	-10.1287
ez	-10.1289
▁uyu	-10.129
▁skor	-10.1308
▁foto	-10.1309
suz	-10.1311
tre	-10.1315
▁prens	-10.1332
▁250	-10.1338
▁imparator	-10.1339
▁davranış	-10.134
▁hasar	-10.1343
▁taciz	-10.1344
▁mos	-10.1346
▁65	-10.1347
baka	-10.135
▁sahte	-10.1363
▁han	-10.1367
▁usta	-10.1368
▁kırık	-10.137
▁özge	-10.1371
▁roma	-10.1396
rul	-10.141
▁evren	-10.1415
▁uyan	-10.1419
▁ilet	-10.1449
general	-10.1451
▁ölen	-10.1473
▁dere	-10.1488
▁ters	-10.1502
▁pas	-10.1506
▁bıçak	-10.1511
lternatif	-10.1511
▁efsane	-10.1512
▁teşvik	-10.1512
▁gözyaş	-10.1512
▁ekran	-10.1513
▁ağz	-10.152
▁sus	-10.1522
▁beden	-10.1523
▁unsur	-10.1527
zat	-10.153
▁198	-10.1532
gay	-10.1533
mi	-10.1536
▁mavi	-10.1539
▁birey	-10.1548
▁hazin	-10.1576
▁zaf	-10.1605
▁karşılan	-10.1611
gün	-10.163
▁ayakkab	-10.1684
▁video	-10.1687
▁döv	-10.1688
▁serdar	-10.1689
▁doç	-10.1691
elime	-10.1692
▁bitki	-10.1697
▁seçene	-10.1699
▁dua	-10.1704
▁tarz	-10.1704
▁hatay	-10.1711
▁2002	-10.1721
▁ispany	-10.1727
▁modern	-10.1734
üş	-10.1748
ed	-10.1749
▁muha	-10.1758
sef	-10.1781
rınç	-10.1784
▁yahu	-10.1796
ro	-10.1804
leme	-10.1805
▁nö	-10.1818
▁kahraman	-10.1843
▁dayanışma	-10.1866
▁intihar	-10.1866
platform	-10.1866
▁pakistan	-10.1867
▁oğuz	-10.1867
▁cevab	-10.1871
▁cok	-10.1882
▁tasarım	-10.1883
▁tablo	-10.1885
▁peki	-10.1889
▁kalkın	-10.1892
▁tamamlanma	-10.1893
▁ayhan	-10.1898
▁dilek	-10.1899
▁sırt	-10.1908
▁çö	-10.1921
▁mez	-10.1994
min	-10.1999
▁sıkış	-10.204
▁şırnak	-10.2048
▁malatya	-10.2048
▁kocaeli	-10.2048
▁elektronik	-10.2048
▁gümrük	-10.205
▁köşe	-10.2055
▁şok	-10.2058
▁toplumsal	-10.2061
▁ekmek	-10.2067
▁belirsiz	-10.2068
▁şanlıurfa	-10.2084
▁kahve	-10.2087
▁standart	-10.2087
san	-10.2087
▁bunlar	-10.2093
▁yapış	-10.2094
▁karako	-10.2097
▁niye	-10.2105
▁küresel	-10.212
muz	-10.2121
▁açığ	-10.2127
üp	-10.2136
fez	-10.2138
bir	-10.2144
▁festivali	-10.2144
▁42	-10.2145
▁kas	-10.215
▁120	-10.2169
▁belirti	-10.2177
▁sig	-10.2196
▁ece	-10.2202
▁uzaklaş	-10.2218
▁kocao	-10.2224
▁amir	-10.2224
ashington	-10.223
cere	-10.2232
▁kömür	-10.2233
▁tavsiye	-10.2233
▁mardin	-10.2233
▁muhtemel	-10.2233
▁avusturya	-10.2234
▁forum	-10.2236
tı	-10.2238
analiz	-10.2244
▁etraf	-10.2244
▁sunu	-10.2247
▁yetenek	-10.2247
▁vizyon	-10.2255
▁kutu	-10.2261
id	-10.2264
önder	-10.2279
▁taksi	-10.2291
▁gar	-10.2293
▁uzay	-10.2298
iz	-10.2322
▁mo	-10.2326
irt	-10.2347
▁yarar	-10.2349
▁salih	-10.2425
▁48	-10.2428
▁dokuz	-10.243
▁post	-10.2437
▁alkol	-10.2458
▁fat	-10.2459
srar	-10.2481
▁kalem	-10.2488
▁43	-10.2506
▁avantaj	-10.2507
▁viz	-10.2509
ramaz	-10.2515
ktif	-10.2516
▁saf	-10.2576
bat	-10.2576
▁yavaş	-10.2612
▁çıkar	-10.2613
▁göğüs	-10.2614
▁misafir	-10.2614
eb	-10.2615
▁kaynağ	-10.2619
▁rize	-10.2619
▁ladin	-10.2624
mesi	-10.2628
▁yatak	-10.2644
▁efendi	-10.2657
may	-10.2674
ama	-10.2697
daş	-10.2702
▁şe	-10.2713
vole	-10.2714
▁emir	-10.2721
▁paşa	-10.2736
▁tüp	-10.2754
▁günde	-10.2765
▁atlet	-10.277
nce	-10.2778
fat	-10.2778
landırıl	-10.2793
▁bağda	-10.2793
▁italyan	-10.2805
▁değişik	-10.2812
▁güreş	-10.2813
▁ımf	-10.2821
serve	-10.2843
▁erdem	-10.2845
▁facebook	-10.2852
ke	-10.2854
istik	-10.2866
▁göm	-10.287
▁kimya	-10.2886
▁eleştiri	-10.2886
▁süz	-10.2902
rçe	-10.2927
ale	-10.2943
der	-10.2963
▁anımsa	-10.2984
▁fa	-10.2991
▁yumurta	-10.301
▁uygur	-10.301
▁yavuz	-10.3011
▁danış	-10.3017
▁ziraat	-10.3018
▁çarşı	-10.3019
▁golü	-10.302
hbe	-10.3032
▁pamuk	-10.3037
▁cins	-10.3048
▁yılmaz	-10.3053
uyum	-10.306
▁müt	-10.3068
sü	-10.3075
▁çakı	-10.3094
ney	-10.3104
▁37	-10.3126
▁rastla	-10.3127
▁ortam	-10.3134
▁51	-10.3136
▁ilke	-10.3143
▁39	-10.3154
7	-10.3159
▁nev	-10.3162
terli	-10.3164
▁klasi	-10.3164
▁pla	-10.3172
▁do	-10.3173
▁key	-10.3177
▁cik	-10.318
▁bahar	-10.3183
prim	-10.3186
ır	-10.319
▁çan	-10.3195
▁köpeğ	-10.3214
▁saldırgan	-10.3214
▁hassas	-10.3214
▁duyuru	-10.3215
nan	-10.3217
▁michael	-10.3218
▁çiğ	-10.3219
▁ispanyol	-10.3221
▁istihbar	-10.3222
▁gümüş	-10.3222
▁aleyh	-10.3222
▁bk	-10.3222
▁moda	-10.3223
▁basit	-10.3226
▁özkan	-10.3233
▁olanak	-10.3235
▁şah	-10.3238
▁yukar	-10.3241
▁fi	-10.3242
lari	-10.3243
▁abdül	-10.3243
▁beslen	-10.3251
▁nec	-10.3252
iç	-10.3253
▁istih	-10.3268
▁emr	-10.3268
siyon	-10.3273
▁kapsa	-10.3275
▁robert	-10.3278
alya	-10.3284
phane	-10.3334
▁zeytin	-10.3345
▁hamile	-10.335
dak	-10.335
yol	-10.3359
batı	-10.3367
▁resmi	-10.3368
▁detay	-10.3391
▁twitt	-10.3397
▁halil	-10.3408
nsiye	-10.3414
▁eren	-10.342
▁şarap	-10.3422
▁patron	-10.3422
▁müftü	-10.3422
▁harita	-10.3424
▁direniş	-10.3424
ybol	-10.3425
efa	-10.3425
▁mobil	-10.3426
▁ertuğ	-10.3427
▁apart	-10.3427
▁kor	-10.3429
▁sebeb	-10.3433
ehr	-10.3441
▁seks	-10.3464
▁yakış	-10.3466
va	-10.3476
▁form	-10.3482
▁suçla	-10.3511
▁havuz	-10.3513
akarya	-10.3513
çi	-10.3528
▁kod	-10.3555
▁gö	-10.3573
do	-10.358
▁yar	-10.3586
▁off	-10.3605
▁avust	-10.3635
▁holding	-10.3635
▁istatistik	-10.3635
▁mahmut	-10.3635
▁duyarlı	-10.3636
so	-10.3637
▁ayrıntı	-10.3637
▁müziğ	-10.3641
▁isveç	-10.3644
▁dos	-10.3644
▁600	-10.3645
▁mektub	-10.3645
▁bulgar	-10.3649
▁afet	-10.365
▁clinton	-10.3654
▁aksu	-10.3657
önü	-10.3682
yince	-10.3687
▁üzünt	-10.369
▁mesaf	-10.369
▁ünal	-10.3691
ilme	-10.3728
▁1000	-10.373
▁don	-10.3741
yku	-10.375
po	-10.3759
▁adil	-10.3776
say	-10.3793
ando	-10.38
▁başl	-10.3806
evi	-10.383
▁kütü	-10.3837
▁adı	-10.384
mar	-10.3852
▁maske	-10.3853
▁havaalan	-10.3853
▁hedefle	-10.3861
▁rıza	-10.3863
▁64	-10.388
▁elbet	-10.3892
▁çök	-10.3899
▁ercan	-10.3901
▁efe	-10.3903
aşık	-10.3915
▁and	-10.3921
şığ	-10.3943
ücü	-10.3949
▁tara	-10.3957
▁diş	-10.3957
▁dk	-10.3959
▁anket	-10.3972
▁tad	-10.3987
çika	-10.3991
▁yasağ	-10.3993
ser	-10.3995
rak	-10.3996
▁yelk	-10.4002
ul	-10.4017
▁km	-10.4024
▁mevki	-10.4027
du	-10.4045
▁stre	-10.4047
▁turan	-10.4062
▁ertelen	-10.4063
▁imzalan	-10.4069
▁yıldırım	-10.4075
▁ihraç	-10.4075
▁arslan	-10.4075
▁tekstil	-10.4075
▁yaklaşım	-10.4076
uyruk	-10.4077
▁matematik	-10.4078
▁polat	-10.4087
▁ermeni	-10.4088
▁cemal	-10.4093
▁gergin	-10.4096
▁uğraş	-10.4104
▁vaka	-10.4112
▁halep	-10.4116
▁abi	-10.4125
▁volkan	-10.4125
ydu	-10.4126
▁ke	-10.4131
▁kore	-10.4135
▁hayati	-10.4154
▁kere	-10.4155
▁sağl	-10.416
▁bağır	-10.4172
▁yönetmen	-10.4182
▁ipek	-10.4226
▁işgal	-10.4237
▁cd	-10.4245
ruz	-10.4246
▁selam	-10.4254
hiş	-10.426
▁kaz	-10.4266
▁mimar	-10.4272
▁kadir	-10.4273
▁ihlal	-10.4298
▁sadd	-10.4301
▁isviçre	-10.4302
▁ahlak	-10.4302
▁eleman	-10.4303
▁panel	-10.4304
▁mağlup	-10.4306
▁önerge	-10.4307
▁sokağ	-10.4307
▁morg	-10.4308
▁milliyet	-10.4308
ülme	-10.4308
▁irade	-10.4315
üyükelçi	-10.4351
▁anıt	-10.4355
5	-10.436
▁çeyre	-10.4365
pa	-10.4365
▁türkü	-10.4382
vit	-10.4383
öğreti	-10.4389
▁idam	-10.4397
▁buz	-10.4415
zor	-10.4435
▁sorgu	-10.4455
▁konsol	-10.4456
▁ceng	-10.4473
▁karanlı	-10.4491
▁balıkesir	-10.4493
▁cha	-10.4495
▁08	-10.4504
▁per	-10.4512
▁yum	-10.4516
▁kos	-10.4523
▁icra	-10.4532
▁menajer	-10.4535
▁çevik	-10.4535
▁gayret	-10.4535
▁tavır	-10.4535
▁kaçakçı	-10.4535
▁roket	-10.4535
▁bayrağ	-10.4535
▁kitle	-10.4536
▁kavram	-10.4537
▁yedek	-10.454
▁rahatla	-10.454
gen	-10.4542
▁düzenl	-10.4545
▁samimi	-10.4545
ley	-10.4555
▁fatura	-10.4567
▁kaçın	-10.4572
▁ağ	-10.4582
▁katil	-10.459
1999	-10.4595
▁günay	-10.4605
▁altın	-10.4607
vs	-10.4609
▁gas	-10.4624
gü	-10.463
▁kontrolün	-10.4633
dım	-10.465
▁deneyim	-10.4653
sut	-10.4666
▁kın	-10.4669
yucu	-10.467
şem	-10.4678
uf	-10.4699
derk	-10.4702
▁piyan	-10.4711
ofis	-10.4715
▁üste	-10.4733
oto	-10.4753
▁cihan	-10.476
tör	-10.4766
▁gü	-10.4767
▁zincir	-10.4773
▁radikal	-10.4773
▁başlangı	-10.4773
▁öykü	-10.4773
▁cesaret	-10.4773
▁torun	-10.4774
▁bekir	-10.4774
009	-10.4776
▁moral	-10.4779
ger	-10.4784
▁restoran	-10.4786
▁diren	-10.4787
▁çete	-10.4798
▁korunma	-10.4817
▁üstün	-10.4819
for	-10.4827
name	-10.4834
▁bildiri	-10.4862
ngre	-10.4862
▁milan	-10.4863
▁hane	-10.4875
▁metro	-10.4877
▁kir	-10.4878
▁kişisel	-10.4884
kam	-10.4888
▁46	-10.4889
▁kurt	-10.4905
sör	-10.4906
▁oğul	-10.4924
▁38	-10.493
▁niyet	-10.4935
▁stat	-10.4964
ahmet	-10.4964
cinsel	-10.4965
▁husu	-10.4968
▁imar	-10.5
kon	-10.5004
sin	-10.5007
▁kritik	-10.5018
▁gecik	-10.5018
▁cümle	-10.5021
▁sakla	-10.5021
lek	-10.5022
▁lisans	-10.5028
oktay	-10.5047
miş	-10.5053
▁muam	-10.5056
▁koşu	-10.5057
▁lok	-10.5057
inda	-10.5066
▁arif	-10.5069
▁alev	-10.5072
▁kartal	-10.5074
▁tank	-10.5076
▁yönel	-10.5088
lık	-10.5091
ani	-10.5095
ck	-10.5097
▁bale	-10.51
▁duru	-10.5144
▁sez	-10.5167
▁tahri	-10.518
▁yas	-10.5182
▁edit	-10.5184
siad	-10.5186
▁tasar	-10.5193
imha	-10.5203
▁suçlama	-10.5219
ham	-10.5226
ıntı	-10.5256
▁marmara	-10.5261
▁yavru	-10.5267
▁yenilgi	-10.5267
▁kazı	-10.527
▁tarla	-10.527
▁kenan	-10.5271
hang	-10.5274
▁tokat	-10.5278
▁çare	-10.5284
700	-10.5287
▁ok	-10.5289
or	-10.5289
▁özgü	-10.5291
▁netice	-10.5296
▁play	-10.5309
▁kabin	-10.5312
rdal	-10.5317
caba	-10.5324
▁berg	-10.5332
uk	-10.5359
▁kısı	-10.5367
▁şener	-10.538
osya	-10.5381
vid	-10.5389
raba	-10.5398
▁kopyala	-10.5407
▁112	-10.5408
▁nor	-10.5418
içi	-10.5419
dün	-10.5425
nato	-10.5425
aşkın	-10.5428
▁antik	-10.5437
▁şeri	-10.5459
det	-10.547
▁ağla	-10.5476
dim	-10.5478
▁bulut	-10.5479
▁güçlendir	-10.5488
▁tarif	-10.5492
▁sığın	-10.5495
▁tuncel	-10.5508
▁dör	-10.5513
üm	-10.5513
▁sergilen	-10.5516
▁fon	-10.5519
▁azerbaycan	-10.5523
▁elazığ	-10.5523
▁militan	-10.5523
▁doğalgaz	-10.5523
▁bdp	-10.5524
▁keçi	-10.5524
▁reddet	-10.5524
▁uçuş	-10.5524
▁kemer	-10.5524
▁kazakistan	-10.5525
ufak	-10.554
▁mutfak	-10.5544
▁statü	-10.5552
hvil	-10.5568
▁vir	-10.5569
▁mayı	-10.5575
▁balkan	-10.5581
▁tutukla	-10.5587
▁beyan	-10.559
beke	-10.5601
▁fu	-10.5609
▁boşal	-10.5634
▁harik	-10.5639
▁merke	-10.5655
▁tanıtıl	-10.5659
▁derin	-10.5681
▁vurgu	-10.5683
▁54	-10.5692
araj	-10.5695
▁piş	-10.5697
▁kanad	-10.5717
▁kanıt	-10.5721
▁salı	-10.573
▁komut	-10.5733
▁kayı	-10.5738
▁güçl	-10.5739
▁hac	-10.5744
▁ermen	-10.5748
▁ast	-10.5764
▁google	-10.5764
▁anti	-10.5771
▁şükr	-10.5773
▁japon	-10.5781
▁pa	-10.5785
▁adıyaman	-10.5786
▁disiplin	-10.5786
▁felsefe	-10.5786
▁okyanus	-10.5786
▁dvd	-10.5786
▁52	-10.5786
▁yöre	-10.5787
▁şair	-10.5787
▁par	-10.5788
wood	-10.5788
▁şef	-10.5789
▁sandal	-10.5789
▁menderes	-10.5791
ch	-10.5791
▁ilgin	-10.5798
se	-10.5799
tezkere	-10.5807
▁kiraz	-10.5808
sun	-10.5809
▁esna	-10.5827
gın	-10.5836
▁yaprak	-10.5845
aptan	-10.5845
ana	-10.585
ayıp	-10.5852
▁izn	-10.5899
meğ	-10.5905
▁ertele	-10.5908
▁katr	-10.5911
▁albay	-10.5917
▁95	-10.5933
▁çağrıl	-10.5947
▁hay	-10.5962
▁utan	-10.5974
ter	-10.5982
▁58	-10.5982
bik	-10.5987
▁zo	-10.6014
▁pur	-10.602
▁ger	-10.605
▁motosiklet	-10.6056
▁enstitü	-10.6058
▁dsp	-10.6058
▁endüstri	-10.6058
▁zeki	-10.606
▁fidan	-10.606
▁osc	-10.6067
▁çarpış	-10.6067
▁profil	-10.6068
▁somut	-10.6069
▁seda	-10.607
▁gözlem	-10.6071
▁oba	-10.6084
▁hül	-10.6089
▁fela	-10.6095
▁sil	-10.6109
dat	-10.6112
▁bot	-10.6121
▁kam	-10.615
▁hekim	-10.6155
▁yürürlü	-10.6158
▁tahsil	-10.6159
▁yiğit	-10.6163
tma	-10.6171
bank	-10.6186
▁korkut	-10.6192
▁çü	-10.6196
oloji	-10.6202
▁popül	-10.6202
▁böl	-10.6207
▁durak	-10.6218
▁koordin	-10.6219
▁dinç	-10.6222
ah	-10.623
▁deney	-10.6231
ebilme	-10.6231
16	-10.6233
▁berk	-10.6239
▁kontrolü	-10.6245
▁tart	-10.6246
▁59	-10.6251
operati	-10.6256
vi	-10.6257
gun	-10.6258
▁57	-10.6261
▁bilinç	-10.6265
▁hatt	-10.6267
nur	-10.6267
▁restor	-10.6286
▁mersi	-10.629
ükür	-10.629
▁onayla	-10.6311
▁zeyne	-10.6319
▁küme	-10.6332
ağız	-10.6334
▁pankart	-10.6334
▁iskender	-10.6334
▁iftar	-10.6334
▁cennet	-10.6334
▁biyoloji	-10.6334
▁celal	-10.6335
▁tayfu	-10.6335
▁çadır	-10.6335
hikmet	-10.6336
▁yuva	-10.6337
▁mantık	-10.634
▁öldürülme	-10.6343
▁giyim	-10.6343
dor	-10.6346
▁salla	-10.6353
parmak	-10.6355
met	-10.6358
▁profes	-10.6371
▁sap	-10.638
mış	-10.6393
▁burn	-10.6395
▁jür	-10.6403
▁fas	-10.6409
day	-10.6412
alet	-10.6427
▁tez	-10.6438
▁altınor	-10.6447
vez	-10.645
bo	-10.6452
▁rakı	-10.6455
let	-10.6457
▁özer	-10.6459
▁taksit	-10.6469
▁arz	-10.6478
▁maz	-10.6496
▁dolandırı	-10.6511
kule	-10.6513
▁53	-10.6521
gar	-10.653
ates	-10.6538
▁rama	-10.6546
sey	-10.6549
▁köl	-10.6564
▁aygün	-10.6569
▁uzlaş	-10.6585
▁44	-10.6593
60	-10.6598
▁56	-10.66
▁zira	-10.6615
▁polonya	-10.662
▁yozgat	-10.662
▁mevsim	-10.662
▁ikram	-10.662
▁şov	-10.6621
▁imalat	-10.6621
▁hamza	-10.6622
▁marş	-10.6622
▁blok	-10.6623
▁teşhis	-10.6627
bay	-10.663
▁temizle	-10.6633
▁pier	-10.6636
ruç	-10.6639
▁mut	-10.6642
▁mermi	-10.6644
▁robot	-10.6667
ina	-10.6672
▁mert	-10.6682
▁isyan	-10.6691
▁sinir	-10.6695
kol	-10.67
▁manevi	-10.6704
▁bölü	-10.6706
▁tabur	-10.6707
ndar	-10.6709
▁mesel	-10.6714
▁jet	-10.6719
ilhan	-10.6726
ksiyon	-10.6737
▁arab	-10.674
▁ziya	-10.6756
▁kom	-10.6756
▁nur	-10.6764
des	-10.6776
▁06	-10.6778
▁papa	-10.6781
▁hit	-10.6783
▁şiş	-10.6798
▁yasakla	-10.6809
yağı	-10.6819
▁naz	-10.6819
▁bela	-10.6832
udi	-10.6833
▁karaman	-10.6838
▁pis	-10.6838
▁özen	-10.6849
▁yayımla	-10.6855
▁hacı	-10.688
▁fahri	-10.689
▁ülker	-10.6895
▁feri	-10.6896
▁sabr	-10.691
▁cerrah	-10.6914
▁ibadet	-10.6914
▁hücre	-10.6915
▁ağırla	-10.6915
▁1996	-10.6916
▁öfke	-10.6919
▁ergin	-10.6919
▁hüc	-10.6919
▁lezzet	-10.6922
▁ze	-10.6923
▁amatör	-10.6925
veç	-10.6929
▁pınar	-10.6932
antar	-10.6937
putin	-10.6938
▁gözük	-10.6951
▁sekiz	-10.6951
▁nabu	-10.6952
▁800	-10.6952
▁devir	-10.6958
▁tunç	-10.6961
işe	-10.6964
▁latin	-10.6971
▁özerk	-10.6973
dirim	-10.6974
▁ho	-10.6978
▁öngörü	-10.6981
kuzu	-10.6985
▁keyf	-10.6985
kalbi	-10.6988
mey	-10.6995
▁dikkatli	-10.6995
▁times	-10.6996
veren	-10.6998
▁yetkili	-10.7005
nik	-10.7009
▁meme	-10.7012
▁algı	-10.7014
▁iktisa	-10.7021
urla	-10.703
▁jo	-10.7031
▁yargıla	-10.7039
▁simge	-10.7042
▁tıbb	-10.7042
ue	-10.7043
▁nd	-10.7052
▁pi	-10.7054
saba	-10.706
▁47	-10.7061
nde	-10.7064
▁kutlan	-10.7077
▁sevi	-10.7084
▁ted	-10.7099
ele	-10.7099
▁res	-10.71
zin	-10.712
▁ssk	-10.7125
sika	-10.7136
▁alkış	-10.7139
▁mikro	-10.715
ici	-10.7152
eri	-10.7172
▁seyahat	-10.718
ciğer	-10.7191
▁em	-10.7204
▁mecbur	-10.721
▁85	-10.7211
▁reh	-10.7211
▁tük	-10.7215
▁ideoloji	-10.7217
▁mükemmel	-10.7217
▁hakaret	-10.7217
▁necati	-10.7218
▁george	-10.7218
▁defans	-10.7219
chuan	-10.7219
▁zeka	-10.7219
▁2020	-10.7219
▁turgut	-10.7221
▁iskele	-10.7223
▁atalay	-10.7229
▁parlak	-10.723
▁kayserispor	-10.723
▁vücud	-10.7232
▁cemil	-10.7237
▁66	-10.7253
▁genişle	-10.7254
▁saptan	-10.7257
yalı	-10.726
▁berli	-10.7272
narlı	-10.7289
key	-10.7306
▁gerç	-10.7337
stik	-10.7339
▁devril	-10.7354
▁81	-10.7357
▁lüks	-10.736
▁direk	-10.7364
80	-10.7373
▁by	-10.7374
▁denizli	-10.7374
▁periyo	-10.7388
▁otop	-10.7393
▁tok	-10.7399
▁tanım	-10.7422
▁şif	-10.7431
▁çak	-10.7433
ret	-10.7447
▁besle	-10.7454
hir	-10.7457
00	-10.7464
▁şan	-10.7469
▁cil	-10.7475
▁karaba	-10.7482
▁anı	-10.7496
fiş	-10.75
▁hükm	-10.7514
ekiz	-10.7516
hum	-10.7522
rtık	-10.7524
▁ittifak	-10.7529
▁ihsan	-10.753
▁refah	-10.753
▁faruk	-10.753
▁geliştirilme	-10.7531
▁skand	-10.7531
▁bıçakla	-10.7532
▁yuan	-10.7532
▁jean	-10.7532
▁satı	-10.7532
▁bilinc	-10.7533
pool	-10.7534
▁çıplak	-10.7535
subay	-10.7546
▁kaygı	-10.7553
yer	-10.7555
▁çakır	-10.7556
▁şişe	-10.7557
▁boşan	-10.7568
▁feda	-10.7576
▁viya	-10.7595
süz	-10.7597
▁vita	-10.76
kari	-10.7603
▁düzel	-10.7613
▁gali	-10.7616
▁market	-10.7617
▁bos	-10.7627
▁biber	-10.7627
▁degil	-10.763
▁mahsu	-10.7657
▁işit	-10.7658
▁koordinat	-10.7661
▁meşa	-10.7668
▁festival	-10.7672
esad	-10.7677
▁nuri	-10.7688
▁toplam	-10.7688
▁goller	-10.7699
▁sorgula	-10.7708
▁doğrula	-10.771
ikna	-10.774
▁diplomat	-10.7743
▁fe	-10.7765
laşma	-10.7766
▁pat	-10.7767
▁yücel	-10.7767
ord	-10.7774
ad	-10.7789
ktar	-10.7793
▁koyun	-10.7796
▁sene	-10.7804
▁oyn	-10.7805
▁katıla	-10.7812
▁karı	-10.7818
▁kontrolde	-10.7826
▁zayıf	-10.7827
los	-10.7839
nica	-10.7841
▁istiklal	-10.7852
▁vicdan	-10.7852
▁şeffaf	-10.7852
▁laboratu	-10.7852
▁donanım	-10.7852
▁branş	-10.7852
▁bakırköy	-10.7852
▁ecza	-10.7853
▁1994	-10.7854
▁karargah	-10.7856
▁arena	-10.7857
▁kah	-10.7858
▁kararname	-10.7862
▁koku	-10.7864
▁asan	-10.7864
rd	-10.7865
▁villa	-10.7866
▁fırt	-10.7881
nem	-10.7884
▁genelge	-10.7889
park	-10.7893
▁kulak	-10.7894
▁süresi	-10.7896
▁saati	-10.7896
gan	-10.7898
izma	-10.7909
▁krali	-10.791
▁41	-10.7916
▁kort	-10.7917
▁göt	-10.7929
▁ibare	-10.794
mrah	-10.7943
▁hap	-10.7944
▁şut	-10.7972
ılık	-10.7984
▁gön	-10.7991
saray	-10.7992
▁kemi	-10.8001
▁suy	-10.8002
inci	-10.8003
▁pe	-10.8022
▁boya	-10.8026
ahramanmaraş	-10.803
klim	-10.803
▁hayvanc	-10.8035
ade	-10.8042
▁kare	-10.8053
▁hele	-10.8053
▁men	-10.8065
▁yoksu	-10.8081
▁disk	-10.809
▁aşı	-10.8092
▁diz	-10.8096
miner	-10.81
eksiyon	-10.8109
ko	-10.8111
▁kula	-10.8127
gram	-10.8135
▁cezalandırıl	-10.8147
▁hari	-10.8154
▁68	-10.8154
▁alet	-10.8172
▁sebebiy	-10.8176
997	-10.8179
nti	-10.818
▁mevzu	-10.8185
▁müezzin	-10.8185
▁muayene	-10.8185
▁şeref	-10.8185
▁kapatılma	-10.8188
▁ürdün	-10.8188
▁haluk	-10.8189
▁subay	-10.8191
▁erciyes	-10.8191
▁web	-10.8191
▁micro	-10.8193
▁marmar	-10.8197
bahçe	-10.8204
▁yuz	-10.821
▁ero	-10.8216
▁boru	-10.8217
▁pil	-10.8218
▁öncü	-10.8231
▁yorul	-10.8234
▁alaka	-10.8238
▁telaf	-10.8239
▁hatırlatıl	-10.824
▁dib	-10.8249
▁çavuş	-10.8254
üçlü	-10.8256
lej	-10.8261
▁sey	-10.8271
▁62	-10.8278
▁tuvale	-10.8278
▁71	-10.8298
▁sta	-10.8298
▁kirala	-10.8302
▁yapan	-10.8308
▁şi	-10.8312
▁şahs	-10.8321
▁limit	-10.8341
▁197	-10.8349
▁islami	-10.835
terin	-10.8352
ico	-10.8355
▁yaygın	-10.837
atila	-10.8373
▁paral	-10.8377
▁olağanüs	-10.8382
üt	-10.8412
ngul	-10.8413
▁fırla	-10.8417
ry	-10.8418
kut	-10.8425
▁kına	-10.8427
▁kuşk	-10.8434
▁gideril	-10.8437
▁bahsed	-10.8445
▁golle	-10.8467
fer	-10.8473
perde	-10.848
land	-10.848
▁ceb	-10.8483
ten	-10.8485
▁mül	-10.8487
12	-10.8491
aşır	-10.8496
▁ısın	-10.85
▁isa	-10.85
010	-10.8512
▁tanımla	-10.8517
▁hacmi	-10.8517
▁kars	-10.8518
▁telekom	-10.8529
▁elbise	-10.853
▁diyalog	-10.853
▁yüreğ	-10.853
▁defter	-10.853
▁ömür	-10.8531
▁müraca	-10.8531
▁referan	-10.8531
▁fosil	-10.8531
▁bbc	-10.8532
▁selaha	-10.8532
▁özbek	-10.8532
▁vesile	-10.8532
▁yakalanma	-10.8535
▁dürüst	-10.8538
▁düzenlenme	-10.8541
▁klima	-10.8541
▁kumar	-10.8543
rb	-10.8543
▁denetle	-10.8547
ett	-10.8547
kadir	-10.8553
▁umud	-10.8553
▁gelenek	-10.856
▁metal	-10.8563
göl	-10.8574
▁idman	-10.8578
pres	-10.8579
lement	-10.858
▁ja	-10.8584
▁83	-10.8585
▁zev	-10.8596
▁beton	-10.8597
kur	-10.8598
▁bini	-10.86
▁ergen	-10.8602
▁ortağ	-10.8606
▁yaratı	-10.861
jant	-10.8647
▁uydu	-10.8651
▁ru	-10.8657
▁real	-10.8659
ruk	-10.8667
▁leh	-10.8672
empo	-10.8684
same	-10.8684
dyo	-10.8685
▁kab	-10.8695
▁çevr	-10.8712
▁ot	-10.8715
▁tar	-10.8717
mada	-10.872
▁350	-10.8721
htar	-10.8721
net	-10.8724
şek	-10.873
▁sün	-10.8739
▁camii	-10.8752
▁63	-10.8753
▁saba	-10.8755
▁09	-10.8768
▁toz	-10.8769
▁olsay	-10.8784
erli	-10.8786
▁yere	-10.879
don	-10.8792
sur	-10.8798
▁bük	-10.8802
▁tekrarla	-10.8803
▁direkt	-10.8814
sait	-10.8821
▁alarm	-10.8822
▁kade	-10.8835
faş	-10.8842
ullah	-10.8844
▁kusur	-10.8857
ku	-10.8872
▁bozu	-10.8877
▁masraf	-10.8887
▁kıymet	-10.8888
▁keşke	-10.8888
▁vakit	-10.8888
▁paul	-10.889
fret	-10.8891
▁hatıra	-10.8892
▁kağıt	-10.8894
▁bek	-10.8894
▁burs	-10.8898
▁kurmay	-10.8898
▁planl	-10.8898
▁incir	-10.8902
hristi	-10.8906
▁gündüz	-10.8907
▁komed	-10.8909
▁çelen	-10.8925
▁hala	-10.8925
con	-10.8926
▁fuh	-10.8935
▁taşkın	-10.8938
▁ambar	-10.8939
▁baca	-10.894
▁genc	-10.894
▁peli	-10.894
per	-10.8941
▁isteye	-10.8943
▁kafe	-10.8943
laştır	-10.895
bahar	-10.8955
▁geril	-10.8955
lef	-10.8957
▁gay	-10.896
▁onaylan	-10.8963
nir	-10.8966
▁akıntı	-10.8977
▁kuyu	-10.898
▁77	-10.8992
▁köse	-10.8999
▁üs	-10.9002
sopa	-10.9003
▁ayva	-10.9004
yüzü	-10.9014
▁mum	-10.9016
▁ray	-10.9022
▁çarptırıl	-10.9031
▁koro	-10.904
▁carlo	-10.9041
▁hedefl	-10.9044
▁holl	-10.9045
▁ez	-10.9051
▁yürek	-10.9055
▁kud	-10.9065
▁ga	-10.9065
kıf	-10.9066
▁arı	-10.9068
▁piya	-10.907
▁fel	-10.9071
▁87	-10.9074
▁düzgü	-10.9083
▁seyred	-10.9087
şire	-10.9091
▁76	-10.9115
▁sıfır	-10.912
ick	-10.9121
ot	-10.9133
rf	-10.9146
▁kaş	-10.9155
ğen	-10.916
▁sakatlan	-10.9164
▁sure	-10.9172
lova	-10.9173
leş	-10.9176
▁taze	-10.918
▁golün	-10.9182
ego	-10.9183
▁hadi	-10.9193
▁turk	-10.9193
sancak	-10.9209
▁feth	-10.9223
▁dene	-10.9224
enni	-10.9228
▁yurd	-10.9229
vat	-10.923
▁ekme	-10.9234
▁coğraf	-10.9239
▁zem	-10.9244
▁alay	-10.9247
▁stand	-10.9254
▁sera	-10.9255
▁hafız	-10.9258
iyarbakırspor	-10.9258
▁meteoroloji	-10.9258
▁otomatik	-10.9258
▁nitekim	-10.9258
▁layık	-10.9258
▁ihmal	-10.9258
rgah	-10.9259
▁1995	-10.9259
▁karabur	-10.926
▁fethiye	-10.9261
▁şenol	-10.9262
▁ber	-10.9264
▁palin	-10.9266
▁basama	-10.9267
ındır	-10.9269
rdım	-10.9269
▁itibarıyl	-10.927
iang	-10.927
stra	-10.9272
▁pey	-10.9274
sof	-10.9277
▁02	-10.9277
ük	-10.9282
▁hamit	-10.9287
▁filo	-10.9289
ebze	-10.9292
▁ebu	-10.9296
▁aydınlat	-10.9302
▁giysi	-10.9304
▁yama	-10.9317
▁sof	-10.9318
göz	-10.9339
40	-10.934
▁abla	-10.9341
bulut	-10.9342
faz	-10.9343
▁pl	-10.9349
▁konum	-10.9353
▁pr	-10.9365
▁alanya	-10.9376
bur	-10.9376
▁prop	-10.938
ünite	-10.9386
▁beğeni	-10.9395
▁yetiştiril	-10.9399
▁spd	-10.9407
avro	-10.9411
ok	-10.9418
▁lütfe	-10.9427
ian	-10.9446
▁kabu	-10.9446
▁öd	-10.9452
▁yakıt	-10.9456
▁atan	-10.9457
▁vefat	-10.946
krem	-10.9464
zgi	-10.9477
▁mode	-10.9488
teci	-10.9499
iyan	-10.951
zi	-10.9511
▁kurumsal	-10.9522
hong	-10.9523
lanırke	-10.9536
burg	-10.954
▁medeni	-10.9548
lendir	-10.9549
▁haru	-10.9559
ray	-10.9581
▁kul	-10.959
▁ço	-10.9596
lma	-10.9601
▁tavr	-10.9609
▁güze	-10.9631
zinca	-10.9631
▁köfte	-10.9642
▁kütahya	-10.9642
▁mağlubiyet	-10.9642
▁ebru	-10.9642
▁damga	-10.9642
▁imkb	-10.9643
▁dyp	-10.9643
▁tebli	-10.9643
▁entry	-10.9643
▁koleksiyon	-10.9644
▁hint	-10.9644
anta	-10.9645
▁yıldön	-10.9645
▁garip	-10.9646
▁burun	-10.9648
zer	-10.9651
▁boğul	-10.9651
bu	-10.9652
▁yükle	-10.9653
▁hil	-10.9661
▁dinami	-10.9661
▁oyuncak	-10.9662
halde	-10.9664
stü	-10.9669
ganda	-10.9672
▁82	-10.9672
▁yayla	-10.9675
mus	-10.9676
▁anap	-10.9678
▁atlas	-10.9678
▁yatağ	-10.968
gı	-10.9686
▁yakup	-10.9691
▁tutukl	-10.9691
▁uşak	-10.9696
konu	-10.9707
▁gökçe	-10.9724
ski	-10.9728
▁jud	-10.973
aide	-10.9742
▁unvan	-10.9748
▁kıskan	-10.9754
ikamet	-10.9755
▁kaba	-10.9758
▁alevi	-10.9764
odos	-10.9765
gel	-10.9769
▁öcal	-10.977
lendirme	-10.9772
▁trt	-10.9792
▁sünne	-10.9792
▁gurbe	-10.9793
▁birik	-10.9809
gazi	-10.9812
başkan	-10.9813
▁pan	-10.9818
▁67	-10.9822
ard	-10.9834
ello	-10.9846
cay	-10.9878
erdiv	-10.9881
▁çeyr	-10.9894
şer	-10.9897
landır	-10.9906
▁pist	-10.9907
öl	-10.9923
▁ceyh	-10.9924
▁esrar	-10.9928
mum	-10.9929
▁ra	-10.9939
▁bla	-10.9942
rüt	-10.9944
▁ji	-10.9945
▁mesa	-10.9967
tony	-10.9987
▁kahv	-11.0011
ablo	-11.0016
▁daim	-11.0022
▁karn	-11.0026
▁us	-11.0032
tak	-11.0039
▁danimarka	-11.0042
▁durdurulma	-11.0042
▁zırh	-11.0042
▁konsantr	-11.0042
▁powell	-11.0042
▁dönüştürül	-11.0042
▁çoban	-11.0043
▁kadıköy	-11.0043
▁bahset	-11.0043
▁james	-11.0043
▁çolak	-11.0043
▁mitoloji	-11.0043
▁irlanda	-11.0043
▁barındır	-11.0043
▁yüküm	-11.0043
▁alçak	-11.0047
▁ilave	-11.0047
▁abone	-11.0048
▁hag	-11.0057
▁taktik	-11.0064
▁city	-11.0065
▁merm	-11.0066
▁kene	-11.0069
▁kuyruk	-11.0082
iao	-11.0082
▁sne	-11.0083
▁mit	-11.0087
▁po	-11.0092
enko	-11.0093
▁hain	-11.0094
▁metn	-11.01
▁finalde	-11.0101
▁ışın	-11.0102
▁coğrafi	-11.0104
sus	-11.0121
zya	-11.0126
▁kapla	-11.0129
▁akı	-11.013
▁boyn	-11.0142
▁madr	-11.0143
▁çile	-11.0146
▁kaf	-11.0162
ayet	-11.0164
▁ato	-11.0164
98	-11.0171
ll	-11.0185
▁hati	-11.0191
▁yayınev	-11.0207
ini	-11.0209
▁93	-11.0216
ergün	-11.0226
▁sıfat	-11.0228
▁tebri	-11.0238
ılırke	-11.0251
ekçe	-11.0272
jder	-11.0272
▁gündoğ	-11.0273
apur	-11.0273
▁bile	-11.0278
▁alkışla	-11.0284
▁yanlı	-11.0284
▁aydoğ	-11.0286
avlu	-11.0288
▁şant	-11.0291
rağ	-11.0298
▁suret	-11.0303
▁196	-11.0305
▁kura	-11.0307
▁bur	-11.0314
kal	-11.0332
tu	-11.0336
▁05	-11.0343
68	-11.0346
▁öğret	-11.0351
▁redded	-11.0354
gari	-11.0365
▁tüf	-11.0365
▁130	-11.0369
▁alp	-11.0372
▁ch	-11.0379
▁çekin	-11.0379
▁eksi	-11.039
dal	-11.0395
▁nazi	-11.0399
evzi	-11.0399
▁uzatıl	-11.0403
▁love	-11.0404
rio	-11.042
▁bok	-11.0422
▁protokol	-11.0423
▁reng	-11.043
▁turkce	-11.0434
▁vücu	-11.0439
▁hayr	-11.0439
▁04	-11.0446
▁olu	-11.0447
zede	-11.0456
▁jintao	-11.0459
▁kktc	-11.0459
▁müttefik	-11.0459
▁arkeoloji	-11.0459
▁global	-11.0459
▁youtube	-11.0459
▁rehabilit	-11.0459
▁ığdır	-11.0459
▁karabük	-11.0459
▁sabır	-11.0459
▁zihniyet	-11.0462
▁ölçek	-11.0463
▁küfür	-11.0463
▁hırist	-11.0464
▁kafi	-11.0465
▁ceset	-11.0465
▁stok	-11.0466
▁makale	-11.0468
▁ress	-11.0474
yiz	-11.0476
köğret	-11.0476
▁tahr	-11.0479
▁kerem	-11.048
▁açıklanma	-11.0481
▁kıta	-11.0481
▁uygulanma	-11.0489
▁fener	-11.0489
▁cm	-11.049
▁sak	-11.0495
nop	-11.0495
▁kürd	-11.0499
leştirme	-11.0499
acia	-11.0499
▁güncel	-11.05
▁paha	-11.0502
▁koba	-11.051
▁çalışı	-11.0511
che	-11.0518
▁thy	-11.0521
▁tema	-11.0526
kobi	-11.053
rol	-11.0533
▁kendisi	-11.0536
ıta	-11.0537
tim	-11.0552
▁sırr	-11.0552
yd	-11.0556
▁dert	-11.0558
rhal	-11.0574
▁zab	-11.0581
▁beyn	-11.0581
avir	-11.0585
▁dok	-11.0592
▁tüfe	-11.0597
▁gören	-11.0599
▁kalan	-11.06
▁patri	-11.0624
▁metrek	-11.0632
▁gala	-11.0638
ital	-11.0639
▁masum	-11.0639
▁çor	-11.0648
▁yaygınlaş	-11.0659
cık	-11.0667
▁eriş	-11.067
aziye	-11.0673
esleğ	-11.069
jan	-11.0695
ller	-11.0702
▁general	-11.0704
aç	-11.0704
▁61	-11.0707
spri	-11.0717
▁los	-11.072
▁kilit	-11.0722
dig	-11.0727
rem	-11.0738
ygun	-11.0757
tük	-11.0759
▁koyu	-11.0761
▁tabu	-11.0785
esco	-11.0794
▁kür	-11.0801
raton	-11.0833
nu	-11.0838
gil	-11.0838
▁mor	-11.0838
▁vakti	-11.0844
gaz	-11.0844
▁çığ	-11.0847
43	-11.0856
▁poz	-11.0871
▁yumuşa	-11.0882
▁pet	-11.0885
▁peygamber	-11.0894
▁santimetre	-11.0894
▁sertifika	-11.0894
▁macera	-11.0894
▁arsenal	-11.0895
▁kırıkkale	-11.0896
▁somali	-11.09
▁hırs	-11.0908
▁havayol	-11.0909
▁ribaunt	-11.0911
dür	-11.0911
▁liberal	-11.0912
▁konuşlandır	-11.0912
▁kaldırı	-11.0916
▁hatip	-11.092
▁tahir	-11.0923
▁küpe	-11.0926
▁bang	-11.0928
▁ayıp	-11.0928
▁rehin	-11.0932
▁red	-11.0933
▁batılı	-11.0938
zlık	-11.0941
▁rand	-11.0944
hz	-11.0949
▁meşru	-11.0958
▁yararl	-11.0963
▁öv	-11.0968
sın	-11.0975
▁veli	-11.098
ebe	-11.0986
rdağ	-11.0989
▁pop	-11.0989
illiams	-11.0993
jiang	-11.0995
▁96	-11.0998
dı	-11.1006
▁esen	-11.1008
bol	-11.1022
▁78	-11.1023
▁tüy	-11.1029
çeşme	-11.1047
▁karma	-11.1048
atay	-11.1055
fik	-11.1065
▁ala	-11.1067
liyet	-11.1073
▁kontroller	-11.1078
semin	-11.108
▁mil	-11.1082
cing	-11.1085
▁durağ	-11.1089
mo	-11.1097
azı	-11.1101
usul	-11.1104
bela	-11.1109
▁sabit	-11.1111
muş	-11.1119
▁motiv	-11.1121
▁ona	-11.1123
▁vi	-11.1131
▁kad	-11.1149
lüb	-11.1151
viş	-11.1154
▁aldat	-11.1157
oğul	-11.1158
▁festivalin	-11.1171
ağı	-11.118
rev	-11.118
▁melih	-11.1191
▁öcala	-11.12
▁akar	-11.1202
ris	-11.1205
▁vb	-11.1209
▁99	-11.1211
▁paylaşıl	-11.1224
▁br	-11.1228
ehir	-11.1228
ocağ	-11.123
ükel	-11.124
▁ah	-11.1244
▁takibe	-11.1244
kin	-11.1247
▁gr	-11.1248
▁you	-11.1249
chi	-11.1268
afer	-11.1277
dil	-11.1296
▁mutfa	-11.1309
▁es	-11.1309
▁akça	-11.1313
dum	-11.1325
▁yapıt	-11.1328
ığ	-11.133
▁köş	-11.1332
numun	-11.1339
▁nakli	-11.134
▁yüce	-11.1344
▁ısbn	-11.1348
▁united	-11.1348
▁black	-11.1349
▁talih	-11.1349
▁kafkas	-11.1349
▁kerim	-11.1349
mur	-11.1349
▁rock	-11.135
▁seyret	-11.1351
▁2017	-11.1352
▁gazze	-11.1354
▁kıyasla	-11.1354
ismar	-11.1355
▁bono	-11.1355
▁pür	-11.1355
▁çınar	-11.1356
▁arıza	-11.1358
▁bahane	-11.1358
▁aktivit	-11.136
▁104	-11.1366
▁deyr	-11.1366
▁sergen	-11.1368
▁traktör	-11.1374
14	-11.1374
pirinç	-11.1379
▁çöl	-11.1384
▁tamir	-11.1386
▁satır	-11.1387
▁gökçek	-11.1394
albay	-11.1404
ami	-11.1413
fren	-11.1415
▁07	-11.1416
ans	-11.1416
▁bon	-11.1419
▁mimari	-11.1419
▁hayda	-11.142
▁soma	-11.143
▁tck	-11.1431
▁nakliy	-11.1445
ou	-11.1445
▁chpd	-11.1446
▁bilge	-11.1462
▁tang	-11.1468
▁ayçiçe	-11.147
▁kası	-11.1471
▁pt	-11.1481
▁martin	-11.1482
rbir	-11.1484
ng	-11.1492
▁oral	-11.1492
▁gelene	-11.1499
cle	-11.1504
▁diploma	-11.1508
▁ander	-11.1511
▁kandır	-11.1513
▁krit	-11.1513
▁gençle	-11.1519
antrenör	-11.1522
▁salgı	-11.1531
▁pır	-11.1535
▁lojma	-11.1535
▁uluda	-11.1543
▁tuk	-11.1544
▁transi	-11.1547
▁faşi	-11.1549
▁çarpı	-11.1555
▁hamle	-11.1558
ada	-11.1567
▁jose	-11.157
▁afgan	-11.1572
▁öden	-11.1582
15	-11.1584
▁nice	-11.1588
mart	-11.1589
▁kdv	-11.1603
▁sami	-11.1606
hur	-11.1615
▁dj	-11.1624
şya	-11.1625
▁arşiv	-11.1633
▁nişan	-11.1633
▁pir	-11.1641
vde	-11.1644
baba	-11.1657
▁bacağ	-11.1667
▁kızıla	-11.168
▁kutl	-11.1684
▁takı	-11.1686
▁pul	-11.169
▁rolü	-11.1709
▁sonu	-11.1711
gu	-11.1718
▁hur	-11.1722
ilmi	-11.1755
▁84	-11.1769
ere	-11.1778
▁yasin	-11.1781
▁yetene	-11.1794
▁danışma	-11.1794
az	-11.1797
▁çekiş	-11.1803
▁idr	-11.1808
▁beceri	-11.1809
isabet	-11.1813
ırklareli	-11.1818
▁atmosfer	-11.1825
▁nijerya	-11.1825
▁kompleks	-11.1825
▁tişört	-11.1825
▁cizre	-11.1825
▁nikah	-11.1825
▁macaristan	-11.1825
▁presti	-11.1825
▁başkonso	-11.1826
▁broş	-11.1826
hşet	-11.1827
▁ihanet	-11.1828
▁şarj	-11.1828
▁tıklay	-11.1833
▁hdp	-11.1835
▁çorum	-11.1835
homs	-11.1835
▁tasla	-11.1836
▁donanma	-11.1837
▁frank	-11.1839
▁kana	-11.1842
▁küba	-11.1845
▁başkanvekil	-11.1847
▁kavşağ	-11.1848
rdur	-11.1849
▁manyeti	-11.1849
▁paylaşım	-11.1849
luka	-11.185
▁özetle	-11.1851
▁göztepe	-11.1851
lege	-11.1851
he	-11.1852
▁kıy	-11.1852
▁şeytan	-11.1854
▁tüken	-11.1857
doğan	-11.1861
▁ergene	-11.1865
▁komik	-11.1867
▁öks	-11.1869
▁trans	-11.187
affle	-11.1873
▁akış	-11.1882
stan	-11.1887
▁buhar	-11.1889
▁düğü	-11.1895
▁bamb	-11.19
▁müjde	-11.1902
tane	-11.1902
talip	-11.1907
▁maria	-11.1909
fe	-11.1912
▁boğa	-11.1918
sen	-11.192
dugu	-11.1921
▁hamam	-11.1923
▁bileşi	-11.1924
▁deneme	-11.1938
layan	-11.1948
▁geçer	-11.1967
▁01	-11.1971
▁duba	-11.1975
▁stra	-11.1984
▁takib	-11.1995
▁pri	-11.2005
ektif	-11.2008
yak	-11.201
▁müteahhi	-11.2017
▁zehir	-11.2025
▁bank	-11.2029
asya	-11.2029
tur	-11.203
▁irti	-11.2046
▁teki	-11.2059
bot	-11.2067
ang	-11.2067
▁horo	-11.2073
▁af	-11.2086
ent	-11.2092
▁ayn	-11.2094
▁muhar	-11.2098
▁yö	-11.2104
▁thom	-11.2107
▁seven	-11.2111
uğgeneral	-11.2115
▁ajan	-11.2116
▁aksa	-11.212
ms	-11.2123
uncu	-11.2134
tırma	-11.2139
lo	-11.2156
▁tavu	-11.2165
sağ	-11.2169
▁uğurla	-11.217
rahim	-11.2176
▁cip	-11.2197
▁140	-11.2202
biye	-11.2209
▁bill	-11.2216
▁pasa	-11.2221
ö	-11.2229
ga	-11.223
etik	-11.223
▁gürc	-11.2231
şi	-11.2244
ize	-11.2248
ata	-11.2254
▁sürükle	-11.2254
sas	-11.2259
ilim	-11.226
▁çer	-11.2268
▁yapay	-11.2273
vul	-11.2273
▁pahal	-11.2275
▁yasaklan	-11.2278
▁yetiştiri	-11.228
▁alaa	-11.2281
ran	-11.2286
bakan	-11.2287
▁beste	-11.2294
şim	-11.2296
tnik	-11.2302
▁cimnasti	-11.2305
ıfa	-11.2306
kara	-11.2307
opotam	-11.2325
▁unakıtan	-11.2325
▁çabuk	-11.2325
▁kağıd	-11.2325
▁armağan	-11.2325
▁otorite	-11.2325
▁molla	-11.2325
▁kıdem	-11.2325
▁gülümse	-11.2326
ntı	-11.2326
gue	-11.2326
▁ceylan	-11.2326
▁görevlendiril	-11.2326
▁magazin	-11.2326
▁1993	-11.2327
▁teori	-11.2327
▁bandırma	-11.2328
▁avşar	-11.2328
▁türban	-11.2329
▁günaydın	-11.2329
▁işlev	-11.2331
ood	-11.2331
▁sakız	-11.2335
▁kılın	-11.2337
▁tacik	-11.2339
▁sipari	-11.2342
▁özlem	-11.2344
▁dikili	-11.2348
▁bürokrat	-11.2354
▁bakır	-11.2357
▁79	-11.2357
▁kazım	-11.2358
arcelo	-11.2359
▁hergün	-11.236
cıoğ	-11.2368
kp	-11.2375
▁hamas	-11.2376
▁twitterda	-11.238
▁tüketim	-11.2383
▁mahmud	-11.2389
fir	-11.24
▁odaklan	-11.2402
▁rüş	-11.2402
▁komün	-11.2413
▁sadık	-11.2415
▁fiil	-11.242
din	-11.2425
70	-11.2432
▁konvo	-11.2432
▁çatla	-11.2433
eyze	-11.2436
adet	-11.2439
▁politik	-11.2442
▁94	-11.2444
▁tavan	-11.2451
▁hızlandır	-11.2451
tür	-11.2462
▁kua	-11.2463
har	-11.2473
▁serve	-11.2474
▁bakı	-11.2474
▁yang	-11.2478
anı	-11.2478
▁alem	-11.2478
empoz	-11.248
▁91	-11.2481
▁jia	-11.2482
▁ac	-11.2483
▁sembol	-11.2486
ceğ	-11.2487
▁bolu	-11.2497
▁sk	-11.25
▁yurtiç	-11.2504
tılma	-11.2505
fan	-11.2509
aylin	-11.2509
gele	-11.2516
▁güçlendiril	-11.2518
▁ölç	-11.2522
▁yorumla	-11.2523
▁jones	-11.253
▁ale	-11.2531
▁rolün	-11.2541
▁yanık	-11.2551
yurt	-11.2551
▁98	-11.2557
▁far	-11.2558
kat	-11.2561
ua	-11.2571
▁söndürül	-11.2575
▁aras	-11.2578
gos	-11.259
atör	-11.2596
demir	-11.2598
▁alfa	-11.26
▁ro	-11.261
▁kül	-11.262
çı	-11.262
▁tor	-11.2637
▁muci	-11.2647
lanta	-11.266
▁ideal	-11.2661
▁tasarla	-11.2663
▁yıka	-11.2664
▁loj	-11.2677
kokul	-11.2686
▁şa	-11.27
▁tütün	-11.2715
▁mont	-11.2716
▁ispat	-11.2717
etap	-11.2723
▁olabil	-11.2724
▁alı	-11.274
▁uran	-11.2749
▁sirke	-11.2752
▁tutana	-11.2754
▁asist	-11.2762
ane	-11.2763
evu	-11.2763
▁keskin	-11.2764
zon	-11.2766
orld	-11.2777
gut	-11.2782
ic	-11.2784
arık	-11.2787
▁panik	-11.279
kas	-11.2794
▁leke	-11.2797
orsan	-11.2804
▁organi	-11.2807
▁sinirl	-11.2808
▁74	-11.2809
▁kasımpaşa	-11.2821
▁aşıl	-11.2823
▁hesapla	-11.2829
tikam	-11.2844
▁teşkil	-11.2844
çekme	-11.2845
▁acar	-11.285
▁gelin	-11.285
▁başörtü	-11.2851
aşesgioğlu	-11.2851
▁manchester	-11.2851
▁rezerv	-11.2851
▁vahşi	-11.2851
▁suikast	-11.2851
▁acenta	-11.2851
▁tescil	-11.2851
▁tuncay	-11.2851
▁konsept	-11.2851
favori	-11.2851
▁pekiştir	-11.2851
▁estetik	-11.2852
▁brown	-11.2852
▁tezahürat	-11.2852
▁değirmen	-11.2853
▁evrim	-11.2854
▁bulunan	-11.2855
▁guzel	-11.2856
▁boğuş	-11.2856
▁çamur	-11.2857
inho	-11.2858
▁ceviz	-11.2859
▁900	-11.2861
▁riva	-11.2861
▁pasif	-11.2862
ış	-11.2863
▁tutuş	-11.2864
▁kozak	-11.287
▁tüne	-11.287
▁soyun	-11.2871
▁vin	-11.2873
lat	-11.2874
▁federal	-11.2876
▁yüzey	-11.2877
▁olanağ	-11.2883
▁gönen	-11.2884
▁elmas	-11.2886
▁yanıl	-11.2887
epçe	-11.2889
fon	-11.2892
jen	-11.2896
forma	-11.2897
stro	-11.29
▁makina	-11.2902
▁giriş	-11.2904
▁fı	-11.2906
▁özle	-11.2913
derbi	-11.2913
▁beh	-11.2918
▁am	-11.292
▁dayı	-11.2924
şafak	-11.2926
▁hoşgörü	-11.2946
▁ntv	-11.2948
vladi	-11.2948
▁tabl	-11.2955
▁kev	-11.2958
▁pole	-11.2963
▁abdi	-11.2965
▁ekipman	-11.2971
▁gönderilme	-11.2971
▁od	-11.2985
erhan	-11.2991
▁jin	-11.3006
art	-11.3015
▁türkmen	-11.303
▁mc	-11.3036
▁col	-11.304
karagü	-11.3046
▁tav	-11.3054
▁sakın	-11.3065
90	-11.3067
▁73	-11.3067
ali	-11.3067
sim	-11.3069
▁yaralanma	-11.3082
▁sema	-11.3092
▁03	-11.3097
▁ınter	-11.3104
▁hic	-11.3125
▁yoğunlaş	-11.3126
▁finalin	-11.3131
kurt	-11.3132
gat	-11.3138
▁üret	-11.3144
rit	-11.3148
geb	-11.3151
▁nob	-11.3159
yu	-11.3161
för	-11.317
ap	-11.3186
izem	-11.319
yev	-11.3191
zade	-11.3199
▁veys	-11.3207
▁hani	-11.3222
18	-11.3223
slah	-11.3224
ürk	-11.3229
▁fp	-11.3231
ukovi	-11.3251
irgin	-11.3266
minat	-11.3269
▁gore	-11.327
ulma	-11.328
akal	-11.3288
▁izl	-11.3289
19	-11.3289
▁nitelendir	-11.3291
▁pro	-11.3295
bayrak	-11.3298
rengi	-11.3299
ota	-11.3299
▁rüşt	-11.3313
rey	-11.3319
▁86	-11.332
▁takas	-11.3325
▁ju	-11.3333
▁kun	-11.3334
▁gizle	-11.3334
▁kurtulu	-11.3334
▁gereken	-11.3336
ius	-11.334
▁sıvı	-11.3342
▁fer	-11.3343
▁alaça	-11.335
ral	-11.335
▁üss	-11.3355
▁örtü	-11.3361
▁kaçağ	-11.3364
▁go	-11.3366
▁ahşa	-11.3366
20	-11.3367
avuk	-11.3391
▁veda	-11.3393
sini	-11.3393
skişehirspo	-11.3399
▁gayrimenkul	-11.34
▁porno	-11.3402
▁frankfurt	-11.3406
▁kennedy	-11.3406
▁muvazza	-11.3406
▁yuvarlak	-11.3406
▁ıhlamur	-11.3406
▁hsyk	-11.3406
▁asfalt	-11.3406
▁zihin	-11.3406
▁alparsl	-11.3406
▁canavar	-11.3407
▁berber	-11.3407
▁angeles	-11.3407
▁hırvat	-11.3407
▁eşref	-11.3408
▁bileşen	-11.3408
▁galiba	-11.3408
▁gayri	-11.3408
▁güngör	-11.3408
▁lastiğ	-11.3409
▁evvel	-11.3409
▁kararlaştırıl	-11.3409
▁standard	-11.3409
▁oldug	-11.3412
psiyon	-11.3412
▁seine	-11.3412
▁atilla	-11.3412
▁azeri	-11.3413
▁borçlan	-11.3413
▁çavd	-11.3414
ueen	-11.3415
fuk	-11.3415
▁eyüp	-11.3417
▁975	-11.3422
▁travma	-11.3425
▁sırp	-11.3427
▁dekor	-11.3428
▁kast	-11.3431
ronomi	-11.3433
▁dunya	-11.3435
illa	-11.3435
hır	-11.3436
operatör	-11.344
▁tapına	-11.3441
▁parma	-11.3441
▁aksoy	-11.3443
▁müni	-11.3456
▁levh	-11.3468
▁72	-11.347
▁versiyon	-11.3474
▁mantığ	-11.3478
baro	-11.3478
▁stop	-11.3496
aza	-11.3497
orke	-11.3506
▁taşer	-11.3506
▁hd	-11.3506
fa	-11.3513
▁devredil	-11.3514
▁aut	-11.3516
30	-11.3517
▁şık	-11.3519
▁rica	-11.3529
▁roy	-11.3532
▁filis	-11.3546
ide	-11.3553
▁iptali	-11.3556
▁mülk	-11.3558
▁nadir	-11.3565
▁oksi	-11.3568
nim	-11.3577
▁89	-11.3584
khan	-11.3584
▁pana	-11.3587
▁one	-11.3597
▁kurşun	-11.3599
▁kuşat	-11.36
▁feti	-11.3606
▁kimi	-11.3609
yın	-11.361
▁nas	-11.3621
dü	-11.3629
▁chelsea	-11.3632
fi	-11.3633
maz	-11.3644
alip	-11.3647
▁teker	-11.3654
27	-11.3656
▁kamal	-11.3657
▁haz	-11.366
yat	-11.367
▁balo	-11.3672
▁demet	-11.3673
are	-11.3678
▁bayi	-11.3679
motiv	-11.3693
iya	-11.3696
kapı	-11.3703
▁ib	-11.3711
▁karşılanma	-11.3718
▁dij	-11.3731
▁finali	-11.3744
▁bombala	-11.3746
lon	-11.3749
pak	-11.3749
tına	-11.3755
yakıt	-11.3762
▁zenginleştir	-11.377
asip	-11.377
▁dede	-11.3773
▁ste	-11.3784
48	-11.3789
lay	-11.3792
mlu	-11.3795
ptal	-11.3804
aket	-11.3813
ğı	-11.3815
▁kate	-11.3815
oy	-11.382
argo	-11.3825
val	-11.3828
▁gaye	-11.3829
sinda	-11.3833
▁çirkin	-11.3842
▁seba	-11.3845
▁muhafaza	-11.3855
▁selamla	-11.3859
▁soner	-11.3862
▁kanıtla	-11.3862
▁kurgu	-11.387
çoğ	-11.387
▁ytly	-11.387
▁dikkatin	-11.3872
sta	-11.3881
emir	-11.3882
zlan	-11.3886
▁cafe	-11.3894
▁hi	-11.3898
▁rume	-11.3899
▁çim	-11.3904
ağ	-11.3913
▁gran	-11.3918
▁döşe	-11.392
em	-11.3922
fetti	-11.3923
▁sapta	-11.3927
▁demirör	-11.394
alını	-11.3941
echt	-11.3941
▁220	-11.3951
▁abbas	-11.3953
kır	-11.3958
alim	-11.3959
▁ri	-11.3964
▁mevkii	-11.3977
▁berluscon	-11.3995
▁bonservis	-11.3995
▁bıçağ	-11.3995
▁hortum	-11.3995
▁merhaba	-11.3995
▁hormon	-11.3995
▁çember	-11.3995
▁makedon	-11.3995
▁kukla	-11.3995
▁cezayir	-11.3995
▁jeff	-11.3995
▁soğan	-11.3995
▁fakir	-11.3995
▁bronz	-11.3996
▁bereket	-11.3996
▁dgm	-11.3996
▁barın	-11.3996
▁mevlü	-11.4001
▁göğs	-11.4001
▁kerry	-11.4003
tar	-11.4003
▁folk	-11.4003
▁sabahatti	-11.4004
▁mensub	-11.4005
ültü	-11.4005
▁küçül	-11.4005
▁mandriva	-11.4005
▁power	-11.4005
▁450	-11.4006
▁donatıl	-11.4006
▁yönelt	-11.4008
▁tabir	-11.4008
▁mirza	-11.4009
▁fantasti	-11.401
▁sındır	-11.4013
▁esir	-11.4013
72	-11.4014
▁dram	-11.4022
▁ikiz	-11.4022
▁yumruk	-11.4024
ümin	-11.4024
sebe	-11.4024
▁tolga	-11.4028
▁cev	-11.4038
▁sars	-11.4042
▁dondur	-11.4043
af	-11.4051
▁beyz	-11.4053
▁dalgı	-11.4058
bakteri	-11.4062
▁öm	-11.4089
▁hamu	-11.4092
iğne	-11.4113
tiş	-11.4119
▁yalanla	-11.4121
▁kori	-11.4131
eme	-11.4132
▁sınırla	-11.4133
ban	-11.414
▁şeyh	-11.414
ılması	-11.4141
▁katledil	-11.4144
▁silis	-11.4145
mon	-11.4147
▁mevkiin	-11.4149
▁süsle	-11.4153
▁tarama	-11.4158
aliyet	-11.4168
▁avr	-11.4176
mre	-11.4176
▁his	-11.4179
▁cop	-11.4184
baz	-11.4187
ahıs	-11.4187
▁ekse	-11.4192
askı	-11.4192
doğ	-11.4193
▁kısır	-11.42
▁gs	-11.4206
▁rı	-11.4215
çuk	-11.4219
nma	-11.4226
▁ödene	-11.423
▁tev	-11.423
mca	-11.4231
▁piri	-11.4233
ren	-11.4236
▁cemaat	-11.4247
rina	-11.4247
▁idra	-11.4253
ation	-11.4258
lor	-11.4259
db	-11.4265
anik	-11.4269
çin	-11.427
▁karaca	-11.4271
▁müzi	-11.4271
▁kesi	-11.4288
▁sis	-11.4295
ping	-11.4295
▁kasta	-11.4309
▁kapanı	-11.4314
mahalle	-11.4319
rbay	-11.4327
reş	-11.4339
ac	-11.4355
▁bost	-11.4357
▁zehirlen	-11.436
▁benz	-11.4369
dra	-11.4371
▁batu	-11.4378
▁güçlen	-11.4381
lh	-11.4389
mat	-11.4389
▁gömül	-11.439
larara	-11.4397
▁bulgu	-11.4398
▁joe	-11.4401
▁seribaş	-11.4409
emi	-11.4411
▁dikta	-11.4415
illiam	-11.442
▁tmsf	-11.4426
▁esin	-11.4427
▁pu	-11.4434
▁benimse	-11.4435
ndre	-11.4436
▁anlatı	-11.4438
28	-11.4439
kem	-11.446
ras	-11.4463
▁konakla	-11.4464
çıl	-11.4476
ezdi	-11.4479
▁sorgulan	-11.4485
▁midi	-11.4495
▁kristal	-11.4502
▁haci	-11.4504
akat	-11.4513
▁orijinal	-11.4527
anken	-11.4532
lair	-11.4539
▁92	-11.4549
▁ahmed	-11.4553
dava	-11.4556
▁özkö	-11.456
ndrom	-11.456
dik	-11.4564
▁şaka	-11.4575
▁bez	-11.458
▁sağana	-11.4582
▁akgün	-11.4601
nirk	-11.4609
▁st	-11.4612
▁kek	-11.4613
▁metaller	-11.4617
atılım	-11.4618
▁afyonkarahisar	-11.462
▁geoffroy	-11.462
▁sarkozy	-11.462
▁fındık	-11.462
▁reuters	-11.462
▁tahakk	-11.462
allace	-11.462
▁bilimadam	-11.462
▁lokomoti	-11.462
▁zübey	-11.462
▁övgü	-11.462
▁online	-11.462
▁tunus	-11.4621
▁tavşan	-11.4621
▁titiz	-11.4621
▁mezhep	-11.4622
▁şirin	-11.4622
▁semih	-11.4622
▁harry	-11.4622
olombi	-11.4623
▁barbar	-11.4623
▁ysk	-11.4623
▁terzi	-11.4623
▁darp	-11.4624
▁hüsn	-11.4625
▁hita	-11.4626
▁özgüven	-11.4628
▁eml	-11.463
▁surat	-11.463
lerara	-11.4633
▁kutlu	-11.4634
▁daniel	-11.4634
figür	-11.4637
▁shang	-11.4637
▁üskü	-11.4644
▁partizan	-11.4644
▁festivalde	-11.4644
deyk	-11.4649
▁filiz	-11.4649
▁mezuniyet	-11.465
50	-11.4653
▁best	-11.4655
▁küb	-11.4658
▁gor	-11.4658
▁zar	-11.4662
vili	-11.4668
▁avm	-11.467
▁pak	-11.4671
▁böbre	-11.4674
▁yangın	-11.4675
▁besin	-11.4676
lenci	-11.4682
tagon	-11.4683
▁sönme	-11.4683
guo	-11.4684
▁fast	-11.4688
antı	-11.4695
▁dubl	-11.4711
▁kepe	-11.4712
▁tüz	-11.4714
▁peru	-11.4715
▁kısıtla	-11.4716
▁pala	-11.472
▁söylem	-11.4721
ıpkı	-11.4721
▁hakka	-11.4728
mmy	-11.473
kaha	-11.473
ona	-11.4732
▁ferha	-11.4742
▁normalde	-11.4743
nırke	-11.4751
▁tüpra	-11.4751
▁misyon	-11.4755
▁uzer	-11.4757
all	-11.477
▁saka	-11.477
▁amaçl	-11.4778
▁çalı	-11.4782
▁sakal	-11.4783
▁nes	-11.4783
▁tabiat	-11.4787
rand	-11.4788
▁namı	-11.4792
▁odak	-11.4796
▁ihti	-11.4796
erol	-11.4797
▁gan	-11.4797
int	-11.4798
▁hess	-11.4801
▁kanada	-11.4808
▁ezgi	-11.4813
▁ökm	-11.4815
▁maci	-11.4816
porta	-11.4817
▁dom	-11.4827
▁baha	-11.4838
ozan	-11.4842
rides	-11.4844
▁öze	-11.4844
▁heye	-11.4852
▁alkoll	-11.4853
ska	-11.4856
▁hızı	-11.4858
▁diya	-11.4863
▁bozda	-11.4868
▁rota	-11.4869
▁fin	-11.4874
▁gökalp	-11.4881
▁imra	-11.4893
dob	-11.4898
▁mod	-11.4902
rich	-11.4902
▁topal	-11.4913
çay	-11.4915
eşif	-11.4917
iğde	-11.492
▁bari	-11.4921
▁tatlıs	-11.4932
▁gözeti	-11.4936
▁aka	-11.4938
▁barda	-11.4944
▁serha	-11.4952
no	-11.4958
▁esp	-11.4972
▁saatin	-11.4974
▁istina	-11.4975
▁tehdid	-11.4976
mek	-11.4977
yürek	-11.498
▁stone	-11.4981
61	-11.4981
avantaj	-11.4983
sra	-11.4997
▁ayarla	-11.5005
▁eğil	-11.5012
▁akın	-11.502
▁ezil	-11.5024
gb	-11.5029
mil	-11.5032
▁safi	-11.5034
zey	-11.5034
▁isteğ	-11.5039
▁hot	-11.5048
▁rey	-11.5048
▁usulü	-11.505
top	-11.5055
omen	-11.5063
rah	-11.5066
▁dera	-11.5068
fra	-11.5073
▁110	-11.5076
viç	-11.5079
iyor	-11.508
▁pres	-11.5098
veri	-11.5109
▁söyleş	-11.5113
▁pin	-11.5123
▁nitele	-11.5124
▁plaz	-11.5128
monte	-11.5131
▁konte	-11.5132
lig	-11.5134
▁porta	-11.5136
▁derd	-11.5145
riş	-11.5151
▁ısıt	-11.5159
kanlı	-11.5165
▁file	-11.5172
▁gu	-11.5181
▁mağ	-11.5185
▁org	-11.5186
▁moderniz	-11.5189
çiçeğ	-11.5204
koloji	-11.5211
▁komis	-11.5212
war	-11.5215
49	-11.5231
tuğ	-11.5235
▁mark	-11.5237
borg	-11.5247
cük	-11.5248
maç	-11.5251
▁down	-11.5256
lenirk	-11.5262
▁dolay	-11.5266
▁opti	-11.5267
▁kavşa	-11.5271
▁sola	-11.5271
ütüncü	-11.528
▁hapse	-11.5283
▁çubuk	-11.5286
▁şarampol	-11.5286
▁hijyen	-11.5286
▁inisiyati	-11.5286
▁america	-11.5286
▁beraat	-11.5286
▁hidrojen	-11.5286
▁çorap	-11.5287
▁yoğur	-11.5287
▁doping	-11.5287
▁leonard	-11.5287
▁yuvarlan	-11.5287
▁afyon	-11.5287
▁palmiye	-11.5288
▁karbon	-11.5289
▁murdoch	-11.529
aşçı	-11.529
▁prose	-11.5292
▁vahim	-11.5293
▁mutab	-11.5293
▁unutmay	-11.5295
▁damla	-11.5296
▁tahta	-11.53
▁yönlendiril	-11.5302
barek	-11.5302
▁kelebe	-11.5302
▁seyit	-11.5302
▁gal	-11.5304
▁garni	-11.5305
▁tff	-11.5306
▁harç	-11.5308
▁irfan	-11.531
▁yinele	-11.531
▁kot	-11.5311
▁kaşığ	-11.5314
▁uçur	-11.5315
feld	-11.5318
▁algıla	-11.5318
▁sön	-11.5319
▁ahmedineja	-11.5321
▁hükmet	-11.5321
▁esne	-11.5321
▁ekşi	-11.5323
▁kabiliyet	-11.5326
co	-11.5329
dos	-11.533
▁ülkü	-11.533
ndone	-11.5337
▁basket	-11.5338
▁amerik	-11.534
▁ıver	-11.534
eşin	-11.5347
▁yunus	-11.5348
onte	-11.5353
mercan	-11.5365
▁za	-11.5369
▁varol	-11.537
▁tef	-11.5372
stant	-11.5376
▁ferya	-11.538
▁çel	-11.5381
▁band	-11.5382
cast	-11.5384
▁öp	-11.5386
▁becer	-11.5387
▁santo	-11.5388
ace	-11.539
▁süs	-11.5392
▁yeme	-11.5392
▁ezel	-11.5404
▁nazar	-11.5404
▁pap	-11.5404
▁tutku	-11.5405
▁gitar	-11.5407
yeni	-11.542
▁hib	-11.5422
yokuş	-11.543
▁mars	-11.543
▁pani	-11.5432
▁rayon	-11.5439
▁yenile	-11.5443
▁yanaş	-11.5445
▁paraş	-11.5451
hp	-11.5453
▁muhafazak	-11.5453
▁dino	-11.5456
▁yenilen	-11.5457
▁nimet	-11.5467
samet	-11.5467
▁fre	-11.547
ligi	-11.5471
▁dükk	-11.5475
kov	-11.549
▁mah	-11.549
ly	-11.5495
▁büyükşeh	-11.5496
▁lala	-11.5508
ışık	-11.5514
ey	-11.5518
▁ilham	-11.5519
▁sing	-11.5526
zire	-11.5529
▁geyi	-11.5535
▁şak	-11.5537
▁kov	-11.5538
▁kopya	-11.5539
lin	-11.5547
kaç	-11.5549
nike	-11.555
▁çıl	-11.555
▁doğan	-11.5552
ursi	-11.556
▁rast	-11.556
▁konfe	-11.5561
▁karate	-11.5565
▁manz	-11.5579
uğru	-11.5582
36	-11.5588
kaz	-11.5589
mann	-11.5597
usurlu	-11.56
▁hı	-11.5606
▁ılıca	-11.5618
▁önlen	-11.5624
▁muhamme	-11.5632
▁sy	-11.5633
▁plast	-11.5633
▁meğ	-11.5639
▁nb	-11.5649
▁atanma	-11.5653
▁niha	-11.5663
▁hamil	-11.5666
hem	-11.5669
▁usul	-11.5674
▁kabullen	-11.5676
hack	-11.568
▁sırası	-11.5682
▁lokal	-11.5701
bağ	-11.5703
▁ceva	-11.5714
rbeyi	-11.5715
▁boşaltıl	-11.5716
meç	-11.5719
▁gizlen	-11.5724
▁elma	-11.5724
▁chris	-11.5733
▁bord	-11.5739
▁vaz	-11.5741
tmen	-11.5741
nisy	-11.5744
▁salat	-11.575
▁azı	-11.5752
▁okur	-11.5752
izasyon	-11.5754
sak	-11.5759
▁şab	-11.5765
unay	-11.5769
▁fid	-11.5776
gre	-11.5805
▁müzikal	-11.5811
▁jac	-11.5812
ov	-11.5817
▁tas	-11.5819
▁koz	-11.5823
▁bağışla	-11.5824
▁tüt	-11.583
▁tatmin	-11.5832
▁dou	-11.5841
▁sökül	-11.5842
▁uyarla	-11.5853
▁gil	-11.5854
73	-11.5865
▁cafer	-11.5865
nda	-11.587
rasim	-11.5877
▁daral	-11.5878
indan	-11.5881
tme	-11.5884
nih	-11.5884
▁huzurev	-11.5886
ja	-11.5889
hoo	-11.589
▁pasta	-11.5891
pide	-11.592
mb	-11.5928
lta	-11.5937
▁tekno	-11.5937
▁gri	-11.5941
▁guc	-11.5948
▁altıno	-11.5987
▁keşfed	-11.5991
▁vazife	-11.6001
▁viktor	-11.6001
pazarı	-11.6001
▁ereğli	-11.6001
▁istisna	-11.6001
▁kortej	-11.6001
▁prodük	-11.6001
▁zeybek	-11.6001
▁poşet	-11.6001
▁konteyn	-11.6001
▁lope	-11.6001
affer	-11.6002
▁galibi	-11.6002
▁çeçen	-11.6003
▁fonksiyon	-11.6004
iyat	-11.6005
▁iletiş	-11.6006
▁crown	-11.6006
▁şerif	-11.6007
▁johnson	-11.6009
▁ferrar	-11.6009
▁bulunu	-11.601
▁selvi	-11.601
▁savrul	-11.6011
▁henry	-11.6011
▁mizah	-11.6013
▁taahhüt	-11.6014
aziantepspor	-11.6015
▁animasyon	-11.6015
▁taşınma	-11.6015
nevre	-11.6017
tes	-11.6018
ph	-11.602
oh	-11.6021
▁şahi	-11.6033
▁zav	-11.6033
▁yaşana	-11.6035
ars	-11.6035
onu	-11.6036
▁bakkal	-11.6037
▁böre	-11.6038
▁golde	-11.6049
▁hattı	-11.6051
▁oluşturul	-11.6052
eh	-11.6055
▁merce	-11.6055
▁merci	-11.6056
▁öym	-11.6066
dad	-11.6066
▁peri	-11.6069
▁hatun	-11.6069
konfed	-11.6072
▁makul	-11.6076
▁club	-11.6076
▁scott	-11.6088
67	-11.6092
zul	-11.6092
▁tarife	-11.6096
▁dog	-11.61
ling	-11.6103
▁eğit	-11.6105
▁show	-11.6106
▁boyle	-11.6109
dv	-11.6111
▁ova	-11.6112
▁sürüklen	-11.6117
nıklı	-11.6118
▁pers	-11.6133
▁besi	-11.6149
ib	-11.6153
knik	-11.6168
▁tim	-11.617
▁manga	-11.6171
▁carl	-11.6174
▁barth	-11.6178
47	-11.618
▁tutun	-11.6187
▁sport	-11.619
şu	-11.6203
▁şeh	-11.6211
▁batur	-11.6211
▁melek	-11.6211
▁klas	-11.6213
fare	-11.6215
▁kırk	-11.6219
▁free	-11.6225
radar	-11.6233
▁evsahi	-11.6257
▁bağışlan	-11.626
ues	-11.626
▁raf	-11.6261
▁şö	-11.6264
▁macun	-11.6268
▁demiryo	-11.6269
obre	-11.627
▁misal	-11.6277
dır	-11.6278
▁kucak	-11.6279
ilen	-11.6281
aris	-11.6286
▁konulma	-11.6291
▁yırtı	-11.6316
ion	-11.632
▁madem	-11.632
ihm	-11.6326
ven	-11.633
▁müs	-11.633
▁talab	-11.6336
▁havz	-11.635
▁azaltıl	-11.6353
▁andre	-11.6356
▁nusr	-11.6382
89	-11.6383
diril	-11.6389
zzet	-11.639
▁cazi	-11.6392
▁doy	-11.6393
▁bach	-11.6398
ıf	-11.6399
bbet	-11.6399
rato	-11.6401
ss	-11.6403
▁kayna	-11.6414
▁sos	-11.6416
sena	-11.6417
yiğit	-11.6417
▁söndür	-11.6421
▁gro	-11.643
▁şor	-11.6433
ssü	-11.6436
▁savunu	-11.6438
unter	-11.6439
fuz	-11.6444
andre	-11.6447
mezk	-11.6448
▁paf	-11.6449
▁jok	-11.645
▁çapa	-11.6452
▁kaplan	-11.6456
rih	-11.6461
▁tol	-11.6462
tap	-11.6462
▁bant	-11.6462
ındayke	-11.6464
çelik	-11.647
▁bad	-11.6478
bit	-11.6478
çoğu	-11.6478
bı	-11.6488
bolu	-11.6491
yazı	-11.6496
64	-11.6498
bek	-11.6506
tara	-11.6521
▁ceh	-11.6527
▁hawk	-11.6537
▁doz	-11.6546
▁petk	-11.6548
▁kef	-11.655
650	-11.6558
ilmesi	-11.6561
yüz	-11.6571
▁düşen	-11.6576
▁soğu	-11.6579
▁üni	-11.6583
yır	-11.6584
daki	-11.6584
▁chi	-11.6586
▁sivri	-11.6587
▁barz	-11.6599
hap	-11.6603
▁rah	-11.661
▁jeo	-11.6622
▁erme	-11.6632
gela	-11.6636
fya	-11.6637
▁hav	-11.6638
▁eric	-11.6646
digi	-11.6648
▁aydınlı	-11.6649
▁balç	-11.666
▁atak	-11.6661
amp	-11.6675
46	-11.6683
itz	-11.6683
aziantepspo	-11.6686
▁yasama	-11.6691
▁kıya	-11.6693
▁kaps	-11.6696
kay	-11.6703
sha	-11.6709
▁pompa	-11.671
badem	-11.6717
▁komi	-11.6717
zm	-11.6718
▁ribaun	-11.6741
beko	-11.6744
amin	-11.6745
▁posta	-11.6748
tso	-11.6752
09	-11.6753
ind	-11.6758
▁dinleti	-11.6759
nel	-11.6759
avuz	-11.676
▁sam	-11.6763
▁süh	-11.6764
▁69	-11.6766
mak	-11.6767
▁97	-11.677
ötürü	-11.677
▁açıkhava	-11.677
▁enternasyonal	-11.677
▁pembe	-11.677
▁shanghai	-11.677
▁sabıka	-11.677
▁ronald	-11.677
▁hakikat	-11.677
▁epey	-11.677
▁lewinsky	-11.677
▁cevher	-11.677
▁vasıta	-11.677
▁pendik	-11.6771
▁abdurrah	-11.6771
▁yalvar	-11.6771
▁vahşet	-11.6771
▁intikal	-11.6771
▁justin	-11.6771
▁etiket	-11.6772
▁spoi	-11.6772
▁kordon	-11.6772
▁yirmi	-11.6772
▁zarif	-11.6772
▁bayraktar	-11.6772
▁sünni	-11.6773
cia	-11.6773
▁logo	-11.6773
▁arboretu	-11.6774
başkanlığı	-11.6774
▁mgk	-11.6775
▁ümran	-11.6775
▁anormal	-11.6775
▁küt	-11.6775
işare	-11.6776
▁belgrad	-11.6776
▁ilkuç	-11.6776
▁cheng	-11.6776
litvany	-11.6777
▁ödüllendiril	-11.6777
rbede	-11.6777
perm	-11.6777
▁tuzak	-11.6778
▁gebze	-11.6778
▁çayır	-11.6778
▁nesne	-11.6783
▁helal	-11.6785
▁550	-11.6786
▁bülte	-11.6786
▁sabot	-11.6789
▁dikkatsiz	-11.6789
▁fey	-11.679
▁roj	-11.6791
▁erdemir	-11.6797
hen	-11.68
ence	-11.6803
▁talat	-11.6804
▁hayret	-11.6805
▁zehr	-11.6807
▁heine	-11.6809
▁gold	-11.6812
▁mülkiye	-11.6815
▁hayaller	-11.6818
▁simit	-11.6819
▁jie	-11.682
▁body	-11.6822
▁bık	-11.6825
▁faz	-11.6835
▁atıl	-11.6837
ışı	-11.6839
▁teleferi	-11.684
▁şii	-11.6841
▁medica	-11.6844
▁kanda	-11.6844
laştırma	-11.6845
▁yöneltil	-11.6846
kit	-11.6852
▁şela	-11.6852
cek	-11.6857
▁dna	-11.6858
▁temizlen	-11.686
luk	-11.6861
▁kabil	-11.6861
rid	-11.6862
▁namus	-11.6863
del	-11.6864
▁rest	-11.6864
▁toparlan	-11.6865
▁beyin	-11.6868
▁havu	-11.687
▁devret	-11.6874
▁onarı	-11.6874
tkı	-11.6875
▁kefe	-11.6876
▁bölük	-11.6877
▁vo	-11.6878
▁ismet	-11.688
▁bre	-11.6888
ağar	-11.6894
▁limon	-11.6897
çın	-11.6903
▁geze	-11.6904
1969	-11.6906
▁news	-11.6912
▁hü	-11.6916
▁skorer	-11.6918
▁memiş	-11.6926
▁gaza	-11.6937
▁azın	-11.6939
geç	-11.694
▁moz	-11.6946
▁trak	-11.6947
▁çeşitli	-11.695
▁val	-11.6951
69	-11.6957
▁ayar	-11.6971
▁işgalin	-11.6974
hret	-11.6975
▁sıva	-11.6984
1989	-11.6984
gin	-11.6992
▁kask	-11.7
▁okya	-11.7003
▁grib	-11.7012
ırga	-11.7012
üksel	-11.7017
▁harbi	-11.7019
ine	-11.7023
▁çoğ	-11.7027
nta	-11.7028
▁hill	-11.7028
alper	-11.7031
▁devrilme	-11.7035
▁enjekt	-11.7038
▁liber	-11.7043
▁tap	-11.7051
vaz	-11.7054
▁araz	-11.707
tv	-11.7075
▁altun	-11.7084
liforni	-11.709
asp	-11.7096
▁elebaş	-11.7096
urna	-11.7098
▁hadis	-11.7104
▁menfaatler	-11.7106
zot	-11.7114
şet	-11.712
▁oynatı	-11.712
▁bara	-11.7124
ker	-11.7124
▁richard	-11.7131
▁periyod	-11.7137
▁küs	-11.7138
▁kaynaş	-11.7144
▁dtp	-11.7147
ltıpar	-11.7163
edd	-11.7175
▁iletil	-11.7177
▁live	-11.7179
▁myk	-11.7184
▁yapmay	-11.7186
şak	-11.719
▁muhta	-11.7194
ika	-11.7214
▁cs	-11.7215
▁yönetil	-11.7217
▁heyecanlan	-11.7244
şehri	-11.7251
bıyık	-11.7254
▁haller	-11.7262
▁tekv	-11.7262
tiya	-11.7265
duyu	-11.7276
alaa	-11.7277
sna	-11.7278
diana	-11.7281
şah	-11.7288
engiz	-11.7292
▁bota	-11.7294
hekim	-11.7298
▁çar	-11.73
▁konservatu	-11.73
gözü	-11.73
şener	-11.7302
değer	-11.7306
▁nabi	-11.7315
ston	-11.7316
ırmak	-11.7329
▁seram	-11.7342
av	-11.7342
▁ııı	-11.7356
hi	-11.7356
▁tay	-11.7357
ruh	-11.7357
▁sök	-11.7359
▁semboller	-11.7372
▁mon	-11.7373
ming	-11.7374
amze	-11.7374
▁demokratikleş	-11.7378
▁ey	-11.7378
▁antep	-11.7397
anço	-11.7403
▁nuh	-11.7404
▁faul	-11.7416
ows	-11.7421
▁cüz	-11.7424
tır	-11.7432
▁ört	-11.7435
bül	-11.7441
▁tıkan	-11.7451
cal	-11.7458
erasyon	-11.7458
▁toy	-11.7459
retta	-11.7459
▁fay	-11.7476
osman	-11.7482
nd	-11.7483
▁pamu	-11.749
livan	-11.7497
▁mana	-11.7499
tel	-11.7505
▁kruv	-11.7518
tila	-11.752
▁güncelle	-11.7529
▁reddedil	-11.7543
▁dikil	-11.7554
çam	-11.7558
▁neşe	-11.7559
24	-11.7561
▁tarı	-11.7565
uhu	-11.7566
▁yapabil	-11.7573
zim	-11.758
▁hanuk	-11.7583
tir	-11.7585
▁marie	-11.7591
rkan	-11.7599
sy	-11.7599
▁salt	-11.7602
▁karikatür	-11.7603
▁mürettebat	-11.7603
▁tesadüf	-11.7603
▁ösym	-11.7603
▁smith	-11.7603
▁imtiyaz	-11.7603
▁renault	-11.7603
▁bikini	-11.7603
▁venezüel	-11.7603
▁ypg	-11.7603
▁multinet	-11.7603
▁jeoloji	-11.7603
▁tahammül	-11.7603
▁ahlat	-11.7603
ehmed	-11.7604
gon	-11.7604
▁moore	-11.7605
▁bjk	-11.7605
▁2023	-11.7605
▁teşeb	-11.7605
craft	-11.7606
▁medrese	-11.7606
▁kahvehane	-11.7607
▁süvey	-11.7607
▁1985	-11.7607
▁burhan	-11.7608
▁çıra	-11.761
▁klib	-11.761
▁reyhan	-11.761
▁slam	-11.761
▁rakka	-11.7611
▁defnedil	-11.7611
▁halka	-11.7612
▁102	-11.7612
▁nakledil	-11.7613
▁yorgan	-11.7613
▁gömlek	-11.7613
▁bozulma	-11.7615
▁klav	-11.7615
▁makarov	-11.7617
rdek	-11.7617
▁kahir	-11.7618
menkul	-11.7618
▁sıçra	-11.7619
▁entegr	-11.7623
▁kamer	-11.7623
▁göktaş	-11.7624
ader	-11.7625
▁195	-11.7625
▁şeria	-11.7628
▁evlad	-11.7628
▁vıı	-11.7629
▁pano	-11.7633
fett	-11.7635
▁batar	-11.7636
▁varsayı	-11.7638
tra	-11.764
76	-11.7643
▁hapsi	-11.7643
▁kavak	-11.7644
▁orkin	-11.7647
▁üvey	-11.7648
▁aski	-11.7648
sov	-11.7649
file	-11.765
▁kibar	-11.7651
▁sinyaller	-11.7657
▁şehi	-11.7659
▁chang	-11.766
▁194	-11.7661
üzün	-11.7662
▁gem	-11.7665
lenen	-11.7669
ardağ	-11.767
▁zayıfla	-11.7671
▁charli	-11.7676
▁göbe	-11.7677
▁lah	-11.7679
▁ayaz	-11.768
▁yaralan	-11.7682
nkıla	-11.7689
▁prati	-11.769
▁nazil	-11.7692
özdağ	-11.7701
gal	-11.7705
▁lütf	-11.7705
▁sığına	-11.7706
▁bağlanma	-11.7706
▁grafik	-11.771
▁hasek	-11.7721
rezil	-11.7723
▁bağlam	-11.7726
▁kaste	-11.773
tah	-11.7731
▁angel	-11.7735
▁totalit	-11.7741
üzüm	-11.7745
▁duyar	-11.7748
▁defile	-11.7752
▁fc	-11.7756
▁88	-11.777
▁batuh	-11.7778
▁simon	-11.7785
▁seyya	-11.7786
bin	-11.7786
▁berd	-11.7788
▁ekoloji	-11.7788
▁mesir	-11.7793
▁çalışma	-11.7798
▁asistan	-11.7804
▁obama	-11.7809
minal	-11.782
rişim	-11.7837
og	-11.7842
▁tayla	-11.7844
dur	-11.7845
▁arma	-11.7848
▁zil	-11.7854
▁gülb	-11.7855
bar	-11.7857
ster	-11.7867
▁abde	-11.7878
▁çiğde	-11.7881
▁balon	-11.7882
▁türkistan	-11.7883
▁artı	-11.7884
▁kazak	-11.7889
hou	-11.7892
ordo	-11.7905
ovic	-11.7905
▁yedi	-11.7912
▁arsa	-11.7912
lke	-11.7915
efe	-11.792
▁jor	-11.7934
eyk	-11.794
ön	-11.7943
▁170	-11.7948
▁nicola	-11.7962
▁araştırılma	-11.7963
▁garr	-11.7964
▁etmey	-11.7969
▁bri	-11.7973
▁dip	-11.7979
▁kesilme	-11.7984
kodu	-11.7987
baa	-11.7988
▁parke	-11.8002
▁etkil	-11.8016
board	-11.8017
▁kalpler	-11.8017
▁moo	-11.8025
▁ps	-11.803
▁istem	-11.8042
▁hazırl	-11.8049
▁ort	-11.8054
meral	-11.8066
▁iyim	-11.8066
bakar	-11.8067
etim	-11.8067
üzel	-11.807
▁tarafinda	-11.807
▁daum	-11.8071
▁tezgah	-11.8074
▁tasarlan	-11.8079
pay	-11.8083
▁brita	-11.8089
▁bilir	-11.809
78	-11.8093
▁manu	-11.81
▁anka	-11.8101
avi	-11.8103
sine	-11.811
nya	-11.811
▁god	-11.8125
▁smdk	-11.8126
▁dekla	-11.8144
▁merh	-11.8145
cap	-11.8154
▁santral	-11.8156
▁atay	-11.816
guy	-11.8162
▁ortaöğre	-11.8162
▁kok	-11.8172
sır	-11.8172
▁ısır	-11.8177
güdü	-11.818
▁gad	-11.8188
dırıl	-11.8195
akit	-11.8202
▁pep	-11.8206
▁ork	-11.8218
yar	-11.8225
ut	-11.8227
▁dayat	-11.8229
ig	-11.8232
▁fotograf	-11.8236
opi	-11.8241
82	-11.8247
▁charles	-11.8254
dun	-11.8257
94	-11.8262
▁prote	-11.8263
jat	-11.8269
kişi	-11.8274
ago	-11.8276
▁petrolü	-11.8278
ft	-11.8282
fad	-11.8296
flas	-11.83
ache	-11.8303
▁abdul	-11.8307
▁olmasa	-11.8307
▁album	-11.8311
yel	-11.8315
▁karşıl	-11.8318
düğü	-11.8319
rahm	-11.8321
up	-11.8327
▁murad	-11.8331
▁greenp	-11.8346
rasyon	-11.835
olte	-11.836
vey	-11.8362
▁yankı	-11.837
▁108	-11.8371
▁püskürt	-11.8372
▁kurum	-11.8384
▁fişe	-11.8386
elam	-11.8389
▁haftason	-11.8393
▁mis	-11.8403
▁toparla	-11.8407
▁küf	-11.8409
56	-11.8423
ünsal	-11.8423
▁eur	-11.8427
▁hizbu	-11.8428
▁civa	-11.843
uhaf	-11.8433
bayev	-11.8435
▁baki	-11.8436
▁ihtimalle	-11.8447
▁kanaat	-11.8451
▁giden	-11.8454
lla	-11.8468
▁sur	-11.8472
otop	-11.8476
etki	-11.8482
▁lo	-11.8483
▁kati	-11.849
and	-11.8495
▁reha	-11.8501
▁soruştur	-11.8504
▁sarf	-11.8505
▁sömürge	-11.851
▁kayınvalide	-11.8512
▁zekeriya	-11.8512
▁lüksemburg	-11.8512
▁perakende	-11.8512
▁shakespeare	-11.8512
▁techno	-11.8512
▁çhsdk	-11.8512
▁android	-11.8512
▁balyoz	-11.8512
▁bgst	-11.8512
▁emperyal	-11.8512
▁speküla	-11.8512
telekomünikasyon	-11.8512
▁kırgız	-11.8512
▁tsarna	-11.8512
▁leopar	-11.8512
▁sosyoloji	-11.8512
▁idmanyur	-11.8512
▁sebasti	-11.8512
▁niyazi	-11.8512
▁kurdele	-11.8512
▁şapka	-11.8513
▁alfabe	-11.8513
▁karıştırıl	-11.8513
▁jessi	-11.8514
▁kızılcık	-11.8514
▁berbat	-11.8514
▁öss	-11.8514
national	-11.8514
öbür	-11.8515
▁daily	-11.8515
▁çatal	-11.8515
▁schum	-11.8517
▁sığır	-11.8517
▁bld	-11.8518
▁soyad	-11.8518
▁sevgilisi	-11.8519
▁sine	-11.8521
▁karşılaştırıl	-11.8521
▁klini	-11.8522
▁çiğne	-11.8524
lahiyat	-11.8524
▁olmayan	-11.8524
▁kurutul	-11.8525
▁fbı	-11.8525
▁faris	-11.8525
▁ilahi	-11.8526
▁satran	-11.8526
▁tuzla	-11.8527
▁fellu	-11.8528
▁steve	-11.8528
▁afp	-11.8529
▁ferdi	-11.8529
▁antonio	-11.8531
▁idl	-11.8531
zen	-11.8531
▁arındırıl	-11.8533
▁iti	-11.8533
▁plus	-11.8534
▁göğebak	-11.8535
▁hous	-11.8538
▁icraat	-11.8539
casus	-11.8542
▁alın	-11.8542
▁kari	-11.8542
▁hasılat	-11.8544
emel	-11.8545
▁lyn	-11.8545
▁kulvar	-11.8545
▁havayo	-11.8546
▁javi	-11.8546
▁izley	-11.8546
kılma	-11.8548
▁trend	-11.855
▁necme	-11.8552
▁pome	-11.8553
▁malum	-11.8554
tası	-11.8556
▁fadi	-11.8559
olik	-11.8561
▁hissi	-11.8561
08	-11.8562
uela	-11.8562
eleş	-11.8563
th	-11.8564
▁ucuz	-11.8571
yit	-11.8581
ambia	-11.8582
▁yurda	-11.8592
▁ıntel	-11.8597
▁yong	-11.86
▁karama	-11.86
▁yığıl	-11.8606
▁muhaf	-11.8609
▁tatar	-11.8616
mazke	-11.8617
▁işgü	-11.8621
▁pusu	-11.8621
▁gele	-11.8623
▁meşhu	-11.8623
ru	-11.8625
▁krav	-11.8628
▁saraç	-11.863
▁kabart	-11.8633
▁takli	-11.8637
▁saun	-11.8637
▁kürk	-11.8638
cip	-11.8642
milas	-11.8642
ihua	-11.8645
eli	-11.8659
▁llo	-11.8659
91	-11.8667
▁zanned	-11.867
▁hızlı	-11.8671
ary	-11.8677
▁taslağ	-11.8678
▁ikmal	-11.8678
▁parker	-11.8679
▁cap	-11.868
tirilme	-11.869
kış	-11.8691
▁paten	-11.8693
▁kozm	-11.8694
endil	-11.8695
▁kenya	-11.8696
▁genişletil	-11.8699
ünkü	-11.87
▁rio	-11.87
lük	-11.87
▁çıta	-11.8703
yken	-11.8706
▁duş	-11.8719
▁dinam	-11.8731
▁karaka	-11.8733
▁hall	-11.8734
▁indiril	-11.874
▁pete	-11.8741
▁edebil	-11.8742
▁ısla	-11.8743
ness	-11.8754
wis	-11.8755
tuna	-11.8755
amble	-11.8756
▁şike	-11.8764
▁vefa	-11.8773
▁sch	-11.8776
heim	-11.8782
ragm	-11.8784
ses	-11.8789
▁universit	-11.8793
▁biten	-11.8796
▁parla	-11.8797
▁pişir	-11.8802
▁muhak	-11.8802
tty	-11.8804
▁boğ	-11.8811
▁biç	-11.8818
meyen	-11.8818
▁nihayet	-11.8822
but	-11.8825
▁önemse	-11.8826
▁pm	-11.8826
ab	-11.8832
roz	-11.8833
▁altında	-11.8836
▁engelleme	-11.884
uval	-11.8848
stim	-11.8866
▁toka	-11.8884
▁christi	-11.8901
▁kitabev	-11.8904
hio	-11.8911
ncak	-11.8911
hai	-11.8917
▁metropol	-11.8921
over	-11.8932
▁vermey	-11.894
start	-11.8947
▁güvenç	-11.8954
▁gb	-11.8958
şma	-11.896
▁ken	-11.8967
▁yut	-11.8975
cik	-11.8979
▁vecd	-11.8981
his	-11.8986
▁küre	-11.8997
▁muhi	-11.9016
32	-11.9021
▁eşi	-11.903
▁olmasi	-11.9034
▁antibiyoti	-11.9036
had	-11.9042
▁rich	-11.9043
▁mevla	-11.9054
▁ölçül	-11.9063
guard	-11.9066
sif	-11.9068
leştir	-11.9069
▁karala	-11.907
aygın	-11.9078
▁ör	-11.9083
66	-11.9096
▁bob	-11.9097
acun	-11.9106
▁cansu	-11.9109
▁rag	-11.911
▁karah	-11.9113
zar	-11.9114
acak	-11.9119
kabuğ	-11.9122
▁konuşu	-11.9133
fert	-11.9146
rus	-11.9149
▁keşfe	-11.9153
sıya	-11.9162
raş	-11.9169
▁aga	-11.9177
▁bab	-11.9177
anak	-11.9177
cker	-11.9193
▁hür	-11.9194
▁şeb	-11.9206
ratör	-11.9209
biber	-11.9215
üel	-11.9215
yı	-11.924
yö	-11.924
▁136	-11.9241
▁kus	-11.9247
▁she	-11.9255
alp	-11.9256
▁bilin	-11.9261
elek	-11.9262
▁290	-11.9264
▁boks	-11.9266
inde	-11.9268
tica	-11.9277
▁ihlali	-11.928
▁savaşma	-11.9291
▁hande	-11.9293
vay	-11.93
▁jude	-11.9303
▁yapılı	-11.9304
ao	-11.9316
fo	-11.9317
▁fla	-11.932
▁koma	-11.932
▁kadem	-11.9321
avon	-11.9328
▁harfi	-11.9333
▁takti	-11.9336
▁roland	-11.9338
esta	-11.9347
use	-11.9349
65	-11.935
ill	-11.9354
zken	-11.9355
001	-11.9358
▁240	-11.9368
▁jü	-11.9373
52	-11.9381
▁aoç	-11.9383
▁odağ	-11.9386
▁mobe	-11.9387
▁fit	-11.9389
rums	-11.9407
▁manav	-11.9423
▁clintonı	-11.9423
▁hidro	-11.9432
▁aksam	-11.9438
premi	-11.9442
▁umursa	-11.9444
apara	-11.9451
ğu	-11.9453
▁101	-11.9453
▁hitabe	-11.9455
gane	-11.9458
▁meş	-11.946
tikan	-11.9465
▁yavaşla	-11.9472
▁takim	-11.949
dbp	-11.9491
▁yedir	-11.9494
▁işgali	-11.9495
form	-11.9498
yap	-11.9501
▁özgüv	-11.9502
▁kavra	-11.9504
▁zihn	-11.9507
▁bulbasaur	-11.9512
▁connery	-11.9512
▁finlandiya	-11.9512
▁kıvılcım	-11.9512
▁meçhul	-11.9512
▁müvekkil	-11.9512
▁nostalji	-11.9512
▁oryantal	-11.9512
▁silivri	-11.9512
▁tüccar	-11.9512
einstein	-11.9512
▁karpuz	-11.9512
▁alerji	-11.9512
▁family	-11.9513
▁musalla	-11.9513
▁makyaj	-11.9513
▁cinema	-11.9513
▁steph	-11.9513
▁bayülg	-11.9513
▁carter	-11.9513
▁çerkez	-11.9513
▁reşit	-11.9513
▁inegöl	-11.9513
▁harmandal	-11.9513
▁dallas	-11.9513
▁heves	-11.9513
▁apron	-11.9514
▁barbaros	-11.9514
▁temkin	-11.9514
▁yaşıt	-11.9515
▁vardiya	-11.9515
▁dogru	-11.9515
▁fernand	-11.9516
▁motif	-11.9516
▁çekirdek	-11.9516
▁psv	-11.9516
▁pyd	-11.9516
▁aksün	-11.9516
▁michel	-11.9516
▁1974	-11.9516
▁bilgilendiril	-11.9517
▁nispet	-11.9517
▁santra	-11.9518
▁çörek	-11.9518
▁fsm	-11.9518
▁staj	-11.9519
afiz	-11.9519
▁yağdır	-11.9519
▁atlanti	-11.9519
▁selvitop	-11.9519
▁good	-11.952
▁sıyrıl	-11.952
▁edward	-11.952
▁banvit	-11.9521
boy	-11.9522
▁refik	-11.9524
▁ziyade	-11.9524
▁rampa	-11.9524
▁yatış	-11.9525
▁krem	-11.9525
▁agres	-11.9526
▁buyuk	-11.9526
▁gürcü	-11.9526
▁izban	-11.9526
gg	-11.9526
▁parsel	-11.9527
orem	-11.953
▁rodrig	-11.953
▁bektaş	-11.9531
▁kumanda	-11.9531
▁silk	-11.9534
▁bout	-11.9535
lüğü	-11.9535
▁amd	-11.9535
▁colo	-11.9537
▁incelenme	-11.9538
▁hira	-11.9539
▁özdil	-11.9539
▁özelleştirilme	-11.9539
▁psikolo	-11.954
35	-11.9541
▁elektron	-11.9541
▁tahki	-11.9542
çev	-11.9542
üj	-11.9543
▁marco	-11.9551
▁saman	-11.9557
▁fırın	-11.9568
▁gonzale	-11.9569
▁harf	-11.957
▁venez	-11.9573
▁çırak	-11.9574
▁drog	-11.9575
▁doğrul	-11.9581
▁serinle	-11.9581
▁beklenen	-11.9583
foni	-11.9584
75	-11.9584
▁balık	-11.9587
▁160	-11.9588
▁norm	-11.9588
▁cry	-11.9591
▁deste	-11.9591
▁ruhani	-11.9593
▁long	-11.9594
▁saz	-11.9608
▁kaydı	-11.9614
nis	-11.9615
ste	-11.9618
▁bart	-11.962
hk	-11.9622
▁silvan	-11.9623
▁doğra	-11.9625
trafo	-11.9626
akil	-11.9627
977	-11.963
▁kontr	-11.9631
▁sarkı	-11.9631
▁döşen	-11.9633
▁galat	-11.9637
▁cilv	-11.9645
▁diyar	-11.9649
▁sony	-11.9651
anons	-11.9654
▁öniz	-11.9655
▁lav	-11.9657
▁vermesi	-11.9658
▁jc	-11.9661
▁napoli	-11.9664
▁sevgili	-11.9665
▁keçe	-11.9666
▁musk	-11.9667
▁herif	-11.9669
▁hik	-11.9673
allı	-11.9675
▁mene	-11.9688
sik	-11.9688
▁aşağıla	-11.9689
▁fık	-11.9694
▁bros	-11.9698
▁halt	-11.9708
▁hos	-11.9717
▁nurh	-11.9717
▁muradi	-11.9718
ehdi	-11.9722
▁anlaşıl	-11.9723
▁carre	-11.9725
▁sinem	-11.9731
bya	-11.9732
▁olgu	-11.9733
▁fiş	-11.9733
zara	-11.974
ülürk	-11.9745
lord	-11.9749
▁zerr	-11.9754
akım	-11.9755
▁yasaklanma	-11.9756
▁car	-11.9761
▁uyg	-11.9768
pit	-11.9781
▁zap	-11.9783
▁almay	-11.9794
▁kıs	-11.9797
▁özet	-11.9798
hc	-11.9812
her	-11.9812
renç	-11.9818
veyn	-11.9819
▁850	-11.983
34	-11.9831
mund	-11.9834
▁gine	-11.9839
iza	-11.9844
▁finaller	-11.9845
aaf	-11.9852
erfi	-11.9857
larin	-11.9859
sina	-11.9875
▁şevk	-11.9878
▁tamer	-11.9882
nazi	-11.9892
▁vahi	-11.9893
▁münir	-11.99
▁panto	-11.99
▁jer	-11.9903
mü	-11.9904
latif	-11.9908
▁petr	-11.9909
ji	-11.991
ecik	-11.9911
rch	-11.9912
ors	-11.9912
eş	-11.9922
▁gere	-11.9923
▁penc	-11.9934
▁yaya	-11.9936
▁seyr	-11.9938
nüs	-11.9952
▁ulaşabil	-11.9957
▁muhab	-11.9958
▁valenc	-11.998
▁sha	-11.9984
▁mekani	-11.9991
▁masla	-11.9994
▁çelik	-11.9997
▁soyle	-12.0001
▁spi	-12.0008
ers	-12.0012
aşa	-12.0014
▁kings	-12.0014
nme	-12.0014
▁terti	-12.0014
dus	-12.0015
ew	-12.003
taç	-12.0046
▁çekir	-12.0046
tas	-12.005
les	-12.0051
ander	-12.0052
kip	-12.0057
▁att	-12.0058
mik	-12.0059
▁sara	-12.0063
och	-12.0067
▁kase	-12.0068
my	-12.0069
▁sıkı	-12.0071
▁bedr	-12.0073
tch	-12.0083
arya	-12.0083
▁çeliş	-12.0085
▁aff	-12.0087
▁getiri	-12.0096
▁sek	-12.0097
▁barak	-12.0097
kinleş	-12.0099
toyo	-12.0108
▁tri	-12.0111
cele	-12.0111
atı	-12.0112
▁sahi	-12.0112
▁gürse	-12.012
yk	-12.0144
▁abdy	-12.0158
85	-12.016
▁madsen	-12.0163
▁elit	-12.0166
ayin	-12.0168
ene	-12.0174
▁çeşi	-12.0175
▁kavu	-12.0179
▁mev	-12.018
bata	-12.0184
otto	-12.0185
▁sadr	-12.0198
▁pes	-12.0199
▁lot	-12.02
achel	-12.0202
200	-12.0205
ega	-12.0207
▁parçala	-12.0208
suna	-12.021
leştirilme	-12.0211
ile	-12.0219
▁sürey	-12.0226
▁yillar	-12.0231
▁akpde	-12.0235
likd	-12.0236
field	-12.0245
▁gidi	-12.0247
▁titre	-12.0258
▁etab	-12.026
▁w	-12.0266
06	-12.0278
glas	-12.0278
gate	-12.028
▁sinyali	-12.0287
▁192	-12.029
bridge	-12.0292
▁delik	-12.0299
▁olması	-12.0314
▁kıvr	-12.0315
kea	-12.0317
market	-12.0321
▁cari	-12.0323
macun	-12.0324
hoş	-12.0324
▁kra	-12.0328
▁evla	-12.033
▁rut	-12.0341
▁başrol	-12.0343
takım	-12.0345
politik	-12.0352
ağaç	-12.0364
by	-12.0374
▁ayrılı	-12.0376
ppia	-12.0381
sayı	-12.0385
97	-12.0385
▁yeral	-12.0387
▁vaat	-12.0391
▁ayb	-12.0393
ranlı	-12.04
▁260	-12.0411
▁fig	-12.0411
tham	-12.0411
gür	-12.0434
▁bata	-12.0438
▁kabulü	-12.0446
ralama	-12.0447
▁tuzağ	-12.0451
praz	-12.0451
ösem	-12.0459
chen	-12.0461
▁konstan	-12.0463
üst	-12.0465
zof	-12.0467
zik	-12.0469
▁guru	-12.0469
▁komüni	-12.0472
cesc	-12.0478
▁gul	-12.0479
▁tc	-12.049
konjes	-12.0497
▁bebeğ	-12.0514
free	-12.0518
▁ilerl	-12.0519
▁zedele	-12.0521
▁bild	-12.0521
hya	-12.0535
▁rap	-12.054
hiti	-12.0546
chs	-12.0548
ud	-12.0551
die	-12.0565
62	-12.0565
▁eklenti	-12.0566
▁protokolü	-12.0575
eni	-12.0579
rablus	-12.0583
lyon	-12.0602
▁taahhü	-12.0602
sit	-12.0607
uyulma	-12.0609
▁defne	-12.0613
▁sesi	-12.0616
▁kovala	-12.062
mut	-12.0622
▁arnavut	-12.0623
▁cömert	-12.0623
▁gerizeka	-12.0623
▁greenspan	-12.0623
▁kalsedon	-12.0623
▁mavericks	-12.0623
▁teçhizat	-12.0623
▁yugoslav	-12.0623
▁brothers	-12.0623
▁emıtt	-12.0623
▁ganyme	-12.0623
▁helmsley	-12.0623
▁kadife	-12.0623
▁bmgk	-12.0623
▁griff	-12.0623
▁giresun	-12.0623
▁çözünür	-12.0623
▁köpü	-12.0624
▁nezaret	-12.0624
▁pfdk	-12.0624
▁college	-12.0624
▁capital	-12.0624
▁çıldır	-12.0624
▁moğol	-12.0624
▁lyrics	-12.0624
▁kervan	-12.0624
▁kuvey	-12.0624
▁çomar	-12.0624
▁slovak	-12.0625
▁sempati	-12.0625
▁sosyet	-12.0625
▁esirge	-12.0626
▁kıva	-12.0626
▁1963	-12.0626
▁grace	-12.0626
▁çkp	-12.0627
▁kökten	-12.0627
▁moldova	-12.0627
▁homo	-12.0627
▁1975	-12.0628
▁gtk	-12.0628
▁slov	-12.0629
▁1959	-12.063
▁darwin	-12.063
▁tosun	-12.0631
▁kandil	-12.0631
▁fes	-12.0633
▁karagöz	-12.0633
▁dolap	-12.0633
pas	-12.0633
▁kılınç	-12.0633
▁sabih	-12.0633
▁iskoç	-12.0633
▁verebil	-12.0633
▁kovalama	-12.0634
▁döşeme	-12.0634
▁terminal	-12.0634
▁1970	-12.0635
op	-12.0637
stal	-12.0637
▁vekalet	-12.0637
▁koçak	-12.0637
üzü	-12.0638
▁mahcu	-12.064
▁dramatik	-12.064
▁refakat	-12.064
▁fal	-12.064
▁sabun	-12.064
▁refleks	-12.064
▁muazz	-12.0641
▁sc	-12.0642
▁twitter	-12.0643
▁duty	-12.0643
▁alıkoy	-12.0644
vivo	-12.0644
▁theron	-12.0645
▁eliza	-12.0645
▁iştah	-12.0646
▁meğer	-12.0647
tig	-12.0647
aruz	-12.0648
▁loui	-12.0648
▁psikiyatri	-12.0649
▁zümr	-12.065
toshi	-12.0651
▁torna	-12.0651
▁lakap	-12.0651
▁sınırlandır	-12.0652
▁kızartıl	-12.0653
▁yakışık	-12.0653
las	-12.0653
▁ker	-12.0653
26	-12.0654
ics	-12.0655
▁guardi	-12.0655
▁rön	-12.0656
▁infi	-12.066
▁fars	-12.066
▁bloom	-12.0661
rgan	-12.0662
▁bakmay	-12.0663
retti	-12.067
rosp	-12.067
▁yüzük	-12.0671
▁burns	-12.0671
▁julian	-12.0674
▁termal	-12.0679
duat	-12.068
▁siliko	-12.0681
▁guven	-12.0682
ambala	-12.0683
▁jp	-12.0686
▁gözü	-12.0686
▁dokunulma	-12.0687
▁golf	-12.0688
▁harp	-12.0689
▁thk	-12.0691
▁zhu	-12.0692
▁480	-12.0693
▁116	-12.0695
bess	-12.0696
▁sergil	-12.0697
başkanı	-12.07
▁kese	-12.0701
▁stil	-12.0702
ötv	-12.0706
▁andy	-12.0707
▁geb	-12.0708
▁proto	-12.0709
viv	-12.0709
▁zeynel	-12.0711
▁baska	-12.0713
▁fore	-12.0715
▁şeriat	-12.0715
▁said	-12.0717
▁ergu	-12.0718
▁donald	-12.0718
▁stein	-12.0718
▁furk	-12.072
▁serse	-12.0722
▁affet	-12.0727
apu	-12.0728
▁lou	-12.0729
▁menzi	-12.073
▁tomas	-12.0734
▁hizb	-12.0734
ıra	-12.0734
▁shi	-12.0735
▁kaka	-12.0736
▁melo	-12.0738
▁ören	-12.0739
▁med	-12.0747
▁hilal	-12.0749
rebe	-12.0753
ouche	-12.0763
▁toros	-12.0763
▁1950	-12.0767
het	-12.0774
atar	-12.0775
bahatti	-12.0777
▁dow	-12.0778
▁toki	-12.0782
▁maca	-12.0799
▁tapınağ	-12.0803
zıt	-12.0805
pet	-12.0811
▁gözetle	-12.0812
▁passi	-12.0833
ack	-12.0838
▁menor	-12.0841
▁edilmi	-12.0842
▁part	-12.0843
▁ebe	-12.0851
▁ihtila	-12.0851
▁hurri	-12.0852
▁cor	-12.0853
aga	-12.0855
▁green	-12.0862
irliği	-12.0863
▁şema	-12.0868
ts	-12.0868
▁hoste	-12.0871
▁dizel	-12.0872
aban	-12.0875
▁şark	-12.0877
issa	-12.0882
▁fıstı	-12.0888
▁viran	-12.0892
▁rod	-12.0892
▁evka	-12.0894
▁tram	-12.0896
▁rant	-12.0902
kkuş	-12.0903
fis	-12.0906
opec	-12.0908
rado	-12.0911
kın	-12.0912
▁başroller	-12.0923
▁minar	-12.0927
▁omur	-12.0927
▁ispatla	-12.0934
▁münch	-12.0936
▁song	-12.0936
linu	-12.0941
▁elen	-12.0945
par	-12.0946
dullah	-12.0954
▁keit	-12.0955
▁şöle	-12.0957
▁sinsi	-12.0961
▁kapağ	-12.0972
skun	-12.0977
▁188	-12.0979
▁prensi	-12.0986
▁sürat	-12.0987
▁roller	-12.0991
▁once	-12.0998
not	-12.1
ift	-12.1001
▁kışla	-12.1002
▁karsi	-12.1005
▁ekstr	-12.1007
▁kıran	-12.1011
▁spk	-12.1012
ivan	-12.1022
▁artik	-12.1026
edan	-12.1033
▁hama	-12.1033
▁çimen	-12.1034
lye	-12.1035
▁ibre	-12.1037
▁tekme	-12.1038
hit	-12.104
▁kalkan	-12.1041
▁zü	-12.1043
rga	-12.1046
uğ	-12.1049
▁soz	-12.1054
▁haberal	-12.1057
▁taşla	-12.1059
▁ulaşı	-12.1063
▁scho	-12.1067
74	-12.1067
▁vil	-12.1068
fil	-12.1071
cell	-12.1084
▁şöv	-12.1088
▁arıt	-12.1089
cat	-12.1097
▁göksu	-12.1097
▁sanc	-12.1101
▁anlay	-12.1106
▁apple	-12.1114
▁yorgo	-12.1125
mburg	-12.1127
jit	-12.1137
▁bag	-12.1141
▁bes	-12.1157
urg	-12.1158
ite	-12.1158
▁litera	-12.1158
asay	-12.1159
▁zey	-12.1161
öy	-12.1171
▁gec	-12.1176
▁lamb	-12.1176
▁ipadi	-12.1178
gul	-12.1179
matra	-12.1188
▁haza	-12.1189
igue	-12.119
▁fahr	-12.1192
▁temay	-12.1194
54	-12.1205
▁gunn	-12.1207
▁chap	-12.121
▁erit	-12.1216
liver	-12.1217
erek	-12.1222
ırke	-12.1229
▁vite	-12.123
oş	-12.1233
▁tsk	-12.1233
▁belle	-12.1245
kos	-12.1247
▁kala	-12.1256
▁eks	-12.1263
▁kota	-12.1267
▁salın	-12.1269
▁işb	-12.1271
şof	-12.1279
▁destan	-12.128
▁virg	-12.1286
ador	-12.1288
beth	-12.1298
▁izlan	-12.1313
▁uyuş	-12.1315
atch	-12.1319
▁öt	-12.1319
four	-12.1321
▁ren	-12.1325
ript	-12.1328
▁taşdem	-12.1331
▁clar	-12.1335
▁toni	-12.1338
▁appleı	-12.1345
▁generaller	-12.1347
alist	-12.1348
disyon	-12.1348
▁yıkı	-12.1348
yahu	-12.1354
▁107	-12.1355
şsiz	-12.1356
▁trafi	-12.1367
rack	-12.1384
▁cella	-12.1389
kuş	-12.1404
düs	-12.1409
▁bora	-12.1415
peg	-12.1418
▁naci	-12.1422
▁değiştiril	-12.1424
▁giray	-12.1426
wa	-12.1448
▁238	-12.1449
▁kazanı	-12.1457
▁erik	-12.1457
hu	-12.1458
lton	-12.1464
▁mühür	-12.1466
stat	-12.147
buğ	-12.1474
▁tefe	-12.1475
abat	-12.1475
▁yakin	-12.1484
▁mino	-12.1484
▁ihlaller	-12.1488
▁nicol	-12.1488
kuşağ	-12.149
▁şer	-12.149
layı	-12.1504
▁financ	-12.1506
fic	-12.1511
▁toplan	-12.1535
stel	-12.1537
▁ıvysaur	-12.1537
aplı	-12.1546
asl	-12.1556
ffet	-12.156
ath	-12.1561
500	-12.1563
▁süm	-12.1569
▁fed	-12.1571
one	-12.1572
kul	-12.1576
elektri	-12.1589
▁env	-12.1596
▁gerg	-12.1597
başka	-12.1597
▁karat	-12.1603
▁ibn	-12.1605
tıl	-12.1611
sob	-12.1617
uyo	-12.1618
rekor	-12.1623
lava	-12.1629
▁kav	-12.1631
▁koka	-12.1632
86	-12.1635
▁bam	-12.1636
mayi	-12.1638
▁chic	-12.1638
trin	-12.1639
anus	-12.164
▁gömü	-12.1643
iridy	-12.1644
dinç	-12.1645
eus	-12.1651
zami	-12.1655
▁bağdaş	-12.1659
▁143	-12.1662
▁kob	-12.1663
▁emil	-12.1664
▁lö	-12.1665
▁jel	-12.1668
▁kadı	-12.1669
▁traf	-12.1671
▁kadr	-12.1673
füm	-12.1678
kamp	-12.1678
▁sean	-12.168
▁kahr	-12.1683
▁op	-12.1687
anne	-12.1689
▁sarki	-12.169
▁gev	-12.1693
enya	-12.1694
▁özal	-12.1705
▁java	-12.1712
remi	-12.1717
▁kayg	-12.1718
▁280	-12.1719
▁seçki	-12.1721
▁mülki	-12.1728
▁balta	-12.1728
era	-12.1728
prag	-12.1731
▁akay	-12.1751
▁bro	-12.1757
▁erte	-12.1764
lvan	-12.177
ovan	-12.177
▁cro	-12.1771
▁öğ	-12.1776
sib	-12.178
fes	-12.1783
kez	-12.179
cg	-12.1791
▁105	-12.1802
▁ram	-12.1804
▁nitelen	-12.1805
lev	-12.1808
▁hiz	-12.181
▁kabar	-12.181
▁doyu	-12.1814
▁tekn	-12.1815
▁töre	-12.1824
dirge	-12.1825
▁christ	-12.1833
rica	-12.1836
▁king	-12.1837
▁serge	-12.1838
▁firar	-12.1838
obb	-12.1841
▁asp	-12.1843
iro	-12.1843
▁stan	-12.1844
▁aero	-12.1848
▁hun	-12.1848
▁dalya	-12.1854
▁hatırl	-12.1855
▁otomobi	-12.1859
ntegra	-12.1861
opoz	-12.1863
▁hafifle	-12.1863
▁marc	-12.1864
▁buzdola	-12.1864
azi	-12.187
▁leblebi	-12.1873
▁copeland	-12.1873
▁doodle	-12.1873
▁glazer	-12.1873
▁güvercin	-12.1873
▁kıvır	-12.1873
▁mücevher	-12.1873
▁bddk	-12.1873
▁caydır	-12.1873
▁yelpaze	-12.1873
▁timsah	-12.1873
▁liesing	-12.1873
▁peterson	-12.1873
▁parola	-12.1874
▁cocug	-12.1874
▁first	-12.1874
▁yumurtla	-12.1874
▁menşe	-12.1874
▁çamdib	-12.1874
▁theodor	-12.1874
▁karmaşık	-12.1875
▁snow	-12.1875
▁zıpl	-12.1875
▁1905	-12.1875
▁anaokul	-12.1876
▁tura	-12.1876
▁mozai	-12.1876
▁cmyk	-12.1876
▁1923	-12.1876
▁young	-12.1876
▁onurlandır	-12.1876
▁hemşeri	-12.1876
▁yeşilçam	-12.1877
▁1933	-12.1877
röm	-12.1877
▁atınç	-12.1877
▁tercüman	-12.1877
▁urasil	-12.1877
▁birlikte	-12.1877
▁kohl	-12.1878
▁fish	-12.1878
▁arttırıl	-12.1878
▁1983	-12.188
git	-12.188
iths	-12.1881
▁cnn	-12.1881
evler	-12.1881
▁gov	-12.1883
▁enfeksiyo	-12.1883
ogging	-12.1883
▁doha	-12.1884
▁kavas	-12.1884
▁melodi	-12.1885
noz	-12.1885
▁ifti	-12.1885
ünde	-12.1885
▁strange	-12.1887
▁lakab	-12.1888
▁bürün	-12.1888
▁vurgul	-12.1889
▁lady	-12.189
▁florid	-12.189
▁gevşe	-12.1892
▁vasat	-12.1892
▁367	-12.1893
▁simpson	-12.1893
▁tbb	-12.1896
▁holland	-12.1897
▁karşılaştırma	-12.1897
inna	-12.1898
dman	-12.1898
▁socie	-12.1899
▁twee	-12.19
▁müsta	-12.1902
▁popul	-12.1903
▁ekva	-12.1903
▁yıprat	-12.1905
▁shaki	-12.1905
▁brie	-12.1906
eç	-12.1908
17	-12.1908
▁180	-12.191
▁anavatan	-12.191
▁taht	-12.1911
▁yiğid	-12.1912
▁gre	-12.1913
▁henri	-12.1916
▁topyek	-12.1917
sp	-12.1917
▁osb	-12.1918
▁kürşa	-12.1918
▁terry	-12.1919
▁abartı	-12.1922
▁poli	-12.1924
▁çamlı	-12.1925
bour	-12.1925
▁tekke	-12.1925
▁guang	-12.1927
tgen	-12.193
▁afd	-12.1931
mpb	-12.1935
ılabil	-12.1937
▁night	-12.1938
▁yavaşlat	-12.1941
▁spot	-12.1942
▁obra	-12.1944
def	-12.1944
▁tanıtla	-12.1945
işik	-12.1945
naz	-12.1945
▁kesiş	-12.1946
▁tahli	-12.1946
▁işletil	-12.1949
hor	-12.195
yetis	-12.1952
▁karmaş	-12.1955
sar	-12.1956
mbur	-12.1956
▁kamh	-12.1956
soure	-12.1959
▁hacmin	-12.1959
▁tetikle	-12.1961
▁inandır	-12.1962
▁pişiril	-12.1968
ırıl	-12.1969
utbe	-12.1969
ackerlar	-12.197
▁ünvan	-12.197
▁besl	-12.1971
▁ersan	-12.1972
▁menü	-12.1973
▁haç	-12.1974
▁çarpıt	-12.1976
▁vardir	-12.1976
larini	-12.1977
rref	-12.1979
imi	-12.1981
▁becerik	-12.1988
▁dikkatle	-12.1988
ayn	-12.199
▁harab	-12.1992
▁molo	-12.1996
▁terked	-12.1998
lov	-12.2001
▁nevr	-12.2001
▁hazir	-12.2004
▁brad	-12.2005
▁lawr	-12.2009
▁ron	-12.2009
gana	-12.201
söz	-12.2011
hb	-12.2014
▁fih	-12.2015
▁reddedilme	-12.2017
▁bardağ	-12.2019
tris	-12.202
alı	-12.2023
▁tadil	-12.2024
▁titani	-12.2027
▁ref	-12.203
▁track	-12.2031
▁alabil	-12.2035
▁muzik	-12.2036
▁baltala	-12.204
▁zedelen	-12.2041
▁diyet	-12.2043
▁etmesi	-12.2045
▁simav	-12.2053
▁della	-12.206
rim	-12.206
rik	-12.206
33	-12.2062
22	-12.2064
58	-12.2067
▁farkındalı	-12.2069
▁kubat	-12.2076
▁salak	-12.2076
ndil	-12.2079
▁simons	-12.2083
▁acıma	-12.2088
▁makro	-12.2093
▁ıbm	-12.2093
▁tes	-12.2098
▁trave	-12.21
▁ileti	-12.2101
▁ög	-12.2102
rt	-12.2103
87	-12.2108
▁bega	-12.2109
▁sib	-12.2113
▁rea	-12.2124
▁derle	-12.2124
▁derinleştir	-12.2133
▁eğitil	-12.2134
▁dig	-12.2139
▁hard	-12.214
▁zul	-12.2146
vre	-12.215
erge	-12.2156
ersane	-12.2161
▁jon	-12.217
▁egit	-12.2172
▁pod	-12.2181
uin	-12.2185
▁tava	-12.219
bf	-12.2204
▁jenni	-12.2204
▁kısıtl	-12.2205
aciz	-12.2206
▁kırp	-12.2207
hard	-12.2217
▁135	-12.2224
▁chemi	-12.2227
▁geçi	-12.2229
▁keş	-12.2232
▁tetik	-12.2233
viz	-12.2234
gir	-12.2238
dirilirk	-12.2242
▁yuş	-12.2245
▁ag	-12.225
▁sihir	-12.2253
▁cash	-12.2264
▁abdu	-12.2264
▁how	-12.2272
▁beze	-12.2275
ulos	-12.2277
▁morali	-12.2277
oft	-12.2279
▁ayri	-12.2282
▁kayd	-12.2282
▁kullanı	-12.2285
31	-12.2286
▁134	-12.229
▁tunce	-12.2296
kışık	-12.2301
▁ferma	-12.2301
▁batta	-12.2302
▁örtül	-12.2307
▁mika	-12.2309
▁bl	-12.2319
ktey	-12.2322
olom	-12.2325
▁santraller	-12.2326
zio	-12.2327
▁lisa	-12.2332
▁çilek	-12.2339
ima	-12.2339
ulke	-12.2342
▁kava	-12.2345
selli	-12.2346
dze	-12.2347
▁tekel	-12.2348
▁iştirak	-12.2358
zni	-12.2366
▁sad	-12.2369
▁nişa	-12.238
▁bandır	-12.2382
▁cogu	-12.2383
cht	-12.2384
▁festivaller	-12.2389
azmi	-12.239
▁adre	-12.2398
▁chat	-12.2399
hani	-12.2403
▁sır	-12.2404
ult	-12.2405
▁barb	-12.2413
25	-12.2431
▁osmaniy	-12.2431
▁tah	-12.2432
▁latif	-12.2434
▁kune	-12.2448
▁santa	-12.2449
▁güzi	-12.2455
▁190	-12.2458
▁phil	-12.2466
vme	-12.2469
▁şev	-12.2472
▁ümi	-12.2474
▁provok	-12.2477
▁haş	-12.248
▁hum	-12.2481
laştırıl	-12.2483
▁fran	-12.2484
▁kisa	-12.2489
▁musa	-12.2489
yor	-12.2495
▁denetlen	-12.2498
▁kirl	-12.2503
▁herhal	-12.2503
▁sapla	-12.2503
rçin	-12.2509
▁hor	-12.2512
▁müe	-12.2515
▁cup	-12.252
▁muht	-12.2535
stür	-12.2535
zola	-12.2544
▁mira	-12.2548
▁count	-12.2549
▁hamd	-12.255
▁cind	-12.255
esli	-12.2551
▁karamanoğ	-12.2556
asus	-12.2562
▁zanne	-12.2564
▁nişanla	-12.2566
▁narko	-12.2571
▁çele	-12.2578
asuman	-12.2589
tilme	-12.2592
thing	-12.2594
laver	-12.2607
▁balat	-12.2609
ırlatıl	-12.261
habit	-12.2612
▁anaf	-12.2615
rant	-12.2619
arizm	-12.2622
▁aslı	-12.2622
▁anon	-12.2627
▁şehmu	-12.263
▁yüzde	-12.2631
mos	-12.2632
ff	-12.2634
kao	-12.2648
andra	-12.2651
▁sindir	-12.2654
ds	-12.2659
▁keba	-12.2659
vir	-12.2661
▁sever	-12.2668
▁kazanan	-12.2673
jami	-12.2676
lt	-12.268
izi	-12.2681
önge	-12.2687
▁traj	-12.2688
zig	-12.2691
tigi	-12.2699
bız	-12.27
appi	-12.2704
aliforni	-12.2717
▁tutu	-12.2727
bom	-12.2745
dirirk	-12.2745
ksit	-12.2746
▁sürün	-12.2753
▁mey	-12.2757
▁kucakla	-12.2761
ender	-12.2764
▁arg	-12.2771
▁tos	-12.2773
▁stev	-12.2776
lere	-12.278
▁destekl	-12.2782
▁melt	-12.2786
▁lincoln	-12.2793
lem	-12.2795
▁valen	-12.2798
▁147	-12.2811
dök	-12.2812
▁inter	-12.2812
olog	-12.2813
▁flor	-12.282
▁mö	-12.2824
▁geçin	-12.285
rihan	-12.2856
ala	-12.2869
trik	-12.288
▁miss	-12.2886
▁175	-12.2888
▁gur	-12.2893
▁barışc	-12.2897
▁fire	-12.29
uh	-12.2901
▁kri	-12.2903
donn	-12.291
sm	-12.2927
▁öğretil	-12.2927
▁gon	-12.2933
▁mola	-12.2933
▁anima	-12.2944
▁sark	-12.2958
▁kendileri	-12.2958
burgaz	-12.2961
shot	-12.2967
şeh	-12.2967
dol	-12.2973
ucu	-12.2974
▁egz	-12.2976
erra	-12.2979
▁169	-12.2981
▁tuval	-12.2981
pu	-12.2985
kof	-12.2996
çavuş	-12.2997
▁ikamet	-12.3
ömer	-12.3002
wal	-12.3003
efendi	-12.3005
bulu	-12.3006
lez	-12.301
emzi	-12.3011
ubat	-12.3013
soru	-12.3015
▁serp	-12.3017
yuan	-12.3025
tos	-12.3029
▁şir	-12.3031
raz	-12.3038
turka	-12.3041
arenk	-12.3041
olf	-12.3051
ung	-12.3052
rtel	-12.3055
tirirk	-12.3056
sper	-12.3057
▁avlan	-12.3061
traj	-12.307
88	-12.3086
çap	-12.3087
▁seslendiri	-12.3092
▁done	-12.3098
stem	-12.3099
niyet	-12.3101
▁corp	-12.3105
▁iphone	-12.3105
red	-12.311
▁marian	-12.3114
niz	-12.3114
▁eh	-12.3118
▁inanc	-12.3134
▁kris	-12.3142
inbi	-12.3147
▁che	-12.3148
▁ağaçlandır	-12.3149
ty	-12.3149
▁bahçeşeh	-12.3151
slup	-12.3154
çet	-12.3158
▁slav	-12.3162
eber	-12.3162
▁ezber	-12.317
more	-12.3174
▁şahsi	-12.318
vis	-12.3182
koç	-12.3184
tb	-12.321
▁çökert	-12.3211
adil	-12.3218
utku	-12.3218
wat	-12.322
ome	-12.3224
▁çürü	-12.3224
▁başvurul	-12.3224
▁bernard	-12.3227
▁fet	-12.323
ashi	-12.3238
▁disko	-12.3239
set	-12.3241
ure	-12.3242
▁değerlendiri	-12.3245
▁yurtsev	-12.3247
▁riya	-12.3247
▁öldürül	-12.3257
▁sosyo	-12.326
▁muhata	-12.326
▁hende	-12.3261
stin	-12.3261
cıklı	-12.3266
zmi	-12.3267
cilar	-12.3271
▁anavat	-12.3272
cente	-12.3276
dedi	-12.3276
ümeyye	-12.3278
pe	-12.328
▁şems	-12.3281
teri	-12.3283
işan	-12.3285
laka	-12.3291
▁aktiv	-12.3294
ngw	-12.3296
▁sömür	-12.3301
▁doğrulan	-12.3302
▁anestezi	-12.3302
▁braudy	-12.3302
▁enstrüman	-12.3302
▁feshedil	-12.3302
▁mortgage	-12.3302
▁uruguay	-12.3302
▁yuvarlağ	-12.3302
▁özgeçmiş	-12.3302
▁şizofren	-12.3302
▁bocoly	-12.3302
▁broadway	-12.3302
▁ekosistem	-12.3302
▁elestir	-12.3302
▁mountain	-12.3302
▁schröd	-12.3302
▁chirac	-12.3302
▁tanjevi	-12.3302
▁oecd	-12.3302
▁küçümse	-12.3302
▁bşb	-12.3302
▁mühimmat	-12.3302
▁tcdd	-12.3302
▁joshua	-12.3302
▁akrep	-12.3302
▁netcad	-12.3302
▁dawson	-12.3302
▁photos	-12.3302
▁marifet	-12.3302
▁vitrin	-12.3302
▁yukse	-12.3302
▁rabia	-12.3302
▁dream	-12.3302
▁forbes	-12.3303
▁sansür	-12.3303
▁lys	-12.3303
▁coach	-12.3303
▁lakers	-12.3303
▁sgk	-12.3303
▁komplo	-12.3303
▁easy	-12.3303
▁pebb	-12.3303
▁milosev	-12.3303
▁nasuh	-12.3303
▁johannes	-12.3304
▁hub	-12.3304
▁şerbet	-12.3304
▁dhkp	-12.3304
vante	-12.3304
▁dsl	-12.3304
▁mahrum	-12.3304
▁kabahat	-12.3304
▁cannes	-12.3304
▁yığın	-12.3304
▁donanim	-12.3305
▁adamhas	-12.3305
▁muhsin	-12.3305
ergis	-12.3306
▁ithaf	-12.3306
▁bbp	-12.3306
▁cezaalan	-12.3306
▁balkı	-12.3307
▁sophi	-12.3307
▁reşat	-12.3308
▁1965	-12.3308
lleb	-12.3309
▁ındependen	-12.3309
▁east	-12.3309
other	-12.3309
▁yönlendirme	-12.3309
▁kyb	-12.331
ltd	-12.331
▁klip	-12.331
▁293	-12.331
▁döküman	-12.3311
▁pass	-12.3311
▁dumas	-12.3312
greb	-12.3312
▁biçer	-12.3313
▁louise	-12.3314
lois	-12.3314
▁galile	-12.3315
▁eğlendir	-12.3315
nalin	-12.3315
▁swe	-12.3315
▁adapt	-12.3317
▁kaçış	-12.3317
üfe	-12.3319
▁akropoli	-12.3319
▁takson	-12.3319
▁faal	-12.332
▁rover	-12.332
rmağ	-12.3321
hezi	-12.3323
▁dort	-12.3323
▁santim	-12.3323
▁çarşaf	-12.3324
▁lobi	-12.3325
▁tabak	-12.3326
▁kapitaliz	-12.3327
▁kete	-12.3327
▁odun	-12.3328
▁polemi	-12.3329
▁senegal	-12.333
▁körü	-12.333
▁seydi	-12.333
▁obje	-12.333
hoven	-12.333
▁tower	-12.3331
▁kontağ	-12.3332
▁sentez	-12.3333
dorf	-12.3334
▁epik	-12.3338
▁kai	-12.334
▁harfleri	-12.334
▁opsiyon	-12.3341
▁şişman	-12.3341
▁özdeşleş	-12.3342
skişehirspor	-12.3346
▁eym	-12.3347
ştır	-12.3348
▁kibri	-12.3351
zir	-12.3351
ifos	-12.3354
▁savur	-12.3354
▁sürdürür	-12.3354
hr	-12.3355
▁server	-12.3357
▁polik	-12.3358
ilir	-12.3358
▁mücahi	-12.3361
▁taylan	-12.3361
▁biçi	-12.3361
oğrul	-12.3362
▁paparaz	-12.3363
▁yapılan	-12.3363
▁scha	-12.3364
▁lif	-12.3364
▁zahmet	-12.3366
▁urum	-12.3368
▁yükseltilme	-12.3372
▁pf	-12.3373
▁yumuşat	-12.3379
rij	-12.3383
▁heart	-12.3384
▁düzeltil	-12.3384
▁302	-12.3384
▁vezir	-12.3386
▁yakıştır	-12.3388
▁protokolün	-12.3389
kopi	-12.339
sino	-12.3391
osmanoğ	-12.3403
von	-12.3406
▁neza	-12.3407
▁tevhi	-12.3408
zih	-12.3413
▁değn	-12.3414
▁kolon	-12.3414
▁pistons	-12.342
ograph	-12.3422
adın	-12.3422
tou	-12.3429
▁googleda	-12.343
▁fisch	-12.3432
▁reis	-12.3433
pd	-12.3434
▁selcu	-12.3436
▁amony	-12.3437
▁baskısı	-12.3439
▁doru	-12.3448
▁pc	-12.3448
kke	-12.3449
til	-12.345
▁kel	-12.3451
▁övün	-12.3452
▁bahsi	-12.3453
▁mamuller	-12.3455
▁ibra	-12.3455
ını	-12.3456
▁gang	-12.3458
▁temizlenme	-12.3458
emen	-12.3462
▁sarsıl	-12.3463
▁değişiklik	-12.3464
▁vis	-12.3471
eing	-12.3472
▁ataş	-12.3474
ort	-12.3474
bs	-12.3476
▁omuz	-12.3479
▁çakmak	-12.348
▁berkan	-12.348
▁kafes	-12.348
asts	-12.3482
uss	-12.3485
osch	-12.3485
tion	-12.3495
eos	-12.351
▁raşi	-12.3512
▁hanif	-12.3516
▁tabaka	-12.3516
▁hüsr	-12.3519
▁tüzü	-12.3519
▁astronomi	-12.3521
larinda	-12.3523
▁sıkıştırıl	-12.3523
▁gorme	-12.3524
adisyon	-12.3524
51	-12.3527
amber	-12.3529
▁media	-12.3531
▁özkal	-12.3531
▁sparta	-12.3534
inder	-12.3534
▁gurub	-12.3536
▁timo	-12.3538
kaş	-12.3542
▁alpa	-12.3543
kav	-12.3544
▁176	-12.3547
das	-12.3551
▁hey	-12.3551
▁deh	-12.3554
▁mordoğa	-12.3555
▁esra	-12.3558
▁back	-12.3564
▁uzaklaştırıl	-12.3565
▁yırt	-12.3567
▁şil	-12.3567
ktir	-12.357
amayan	-12.3572
▁onlari	-12.3573
▁kuba	-12.3574
ach	-12.3576
▁kokla	-12.3579
▁bere	-12.358
ğru	-12.3587
▁kerk	-12.3588
▁mono	-12.3592
pp	-12.3596
rive	-12.3602
▁soğut	-12.361
83	-12.3615
▁tb	-12.362
▁haddin	-12.3623
▁camp	-12.363
bne	-12.363
▁zal	-12.3633
▁log	-12.3635
zap	-12.3639
▁yayılma	-12.3641
uad	-12.3645
▁islem	-12.3658
enna	-12.3661
ecek	-12.3668
bus	-12.3671
▁ret	-12.3679
▁ortala	-12.3692
▁oturu	-12.3693
avrul	-12.3697
▁jack	-12.3703
▁ıvysaurı	-12.3705
▁bunal	-12.3706
erry	-12.3707
▁vid	-12.3709
▁peh	-12.3709
ezi	-12.371
▁kalbur	-12.3712
maraş	-12.3713
▁ıssi	-12.3726
▁farket	-12.3731
nmis	-12.3738
syd	-12.3738
▁özka	-12.3739
mp	-12.3752
agon	-12.3754
▁peda	-12.3756
sipp	-12.3775
▁sinyalin	-12.3791
eleni	-12.3797
▁gra	-12.3798
auf	-12.38
▁sand	-12.3806
▁fosf	-12.381
anat	-12.3811
sic	-12.3818
omi	-12.3819
▁gard	-12.382
▁maşa	-12.3823
vc	-12.3828
81	-12.3833
fiye	-12.3844
afat	-12.3844
▁güt	-12.3861
▁claud	-12.3866
533	-12.3867
lzem	-12.3869
dilen	-12.3871
erda	-12.3871
▁ilah	-12.3872
lugu	-12.3873
▁muk	-12.3875
▁kuze	-12.3876
▁haket	-12.3886
ring	-12.3887
tö	-12.3898
eyn	-12.3899
shak	-12.39
▁tazele	-12.3906
▁ahir	-12.3907
▁kapu	-12.3911
▁rami	-12.3912
end	-12.392
eği	-12.3924
▁şem	-12.3925
▁belirlenm	-12.3925
mül	-12.3934
refo	-12.3936
▁kisi	-12.3938
▁götürülür	-12.3938
▁koza	-12.3939
▁hızlandırıl	-12.394
nder	-12.394
teki	-12.394
▁aksat	-12.3942
ork	-12.3942
▁ersu	-12.3943
▁sarfet	-12.3946
rs	-12.3951
▁akb	-12.3953
voy	-12.3957
aziz	-12.3958
dy	-12.3958
▁yansıtıl	-12.3966
▁günü	-12.3967
▁atta	-12.3971
sek	-12.3978
▁pisto	-12.3979
▁tıkla	-12.3979
▁ster	-12.3983
obi	-12.3996
▁haşim	-12.4
bre	-12.4004
▁egzo	-12.4005
▁bilinçlendir	-12.4006
▁müdah	-12.4011
▁rady	-12.4012
▁esk	-12.4017
out	-12.4019
▁silo	-12.4026
sayd	-12.4033
rov	-12.4036
▁sına	-12.4048
vana	-12.4056
rez	-12.406
▁nega	-12.406
▁şal	-12.4062
dayke	-12.4065
▁hol	-12.4067
▁mer	-12.4074
omega	-12.4078
▁tha	-12.4079
▁hindu	-12.4081
atik	-12.4089
▁duran	-12.4094
▁izdi	-12.4099
▁helen	-12.4104
▁cra	-12.4116
onaz	-12.4118
▁dead	-12.4118
▁açıklama	-12.4119
▁halis	-12.4128
cağız	-12.413
▁sayok	-12.4141
ant	-12.4142
zart	-12.4142
▁read	-12.4146
▁hels	-12.4149
▁tekin	-12.4151
skü	-12.4168
▁kanı	-12.4173
▁alba	-12.4175
▁rid	-12.4176
▁122	-12.4181
57	-12.4182
▁908	-12.4189
tari	-12.4193
tal	-12.4198
yy	-12.4199
▁pit	-12.4206
addin	-12.4211
indo	-12.4218
▁depre	-12.4219
▁ayin	-12.4221
▁joa	-12.4224
▁rud	-12.423
▁rau	-12.424
uan	-12.4246
▁125	-12.4255
abao	-12.4274
mono	-12.4276
shi	-12.4294
lendiril	-12.4296
▁açıkl	-12.4303
vok	-12.4311
▁bah	-12.4312
nfil	-12.4313
ahan	-12.4315
77	-12.4327
▁rob	-12.433
ihai	-12.4336
jama	-12.4338
yunca	-12.4349
sti	-12.4349
▁gey	-12.435
loss	-12.4351
▁ehl	-12.4359
blo	-12.437
▁dize	-12.4372
▁feh	-12.4379
▁holmes	-12.4379
▁141	-12.4381
zaka	-12.4383
▁masaj	-12.4388
▁kristali	-12.4395
elele	-12.4399
988	-12.4407
arta	-12.441
▁126	-12.4412
bad	-12.4412
▁sızdır	-12.4413
harap	-12.4418
▁aydınlan	-12.4423
▁ışıl	-12.4426
rı	-12.4429
tun	-12.4431
iven	-12.4434
▁fos	-12.4437
saplan	-12.4439
▁kors	-12.4455
▁yuzde	-12.4461
cd	-12.4465
eyl	-12.4472
mv	-12.4477
sk	-12.4482
elope	-12.4483
cil	-12.4484
▁korne	-12.4486
▁fm	-12.4496
▁düşünen	-12.4498
iles	-12.4499
▁yürür	-12.4507
berto	-12.451
rick	-12.4513
bade	-12.4523
astır	-12.4524
vel	-12.4532
ons	-12.454
▁mary	-12.4544
nku	-12.4551
▁bazi	-12.4554
ılmaz	-12.456
▁super	-12.4567
▁nakle	-12.4569
ef	-12.4572
▁chrome	-12.4572
▁sag	-12.4572
▁çark	-12.4575
right	-12.4582
▁enjek	-12.4582
eff	-12.4592
▁enric	-12.46
▁sefa	-12.4602
ld	-12.4606
eterya	-12.4612
▁fide	-12.4614
rjan	-12.4619
anlıurfaspo	-12.462
tter	-12.4623
▁mila	-12.463
amiral	-12.4632
uka	-12.4636
▁185	-12.4638
▁mür	-12.465
mö	-12.4652
abya	-12.4656
dong	-12.466
ıcak	-12.466
yargı	-12.4662
kılıç	-12.4667
2002	-12.4668
▁haddi	-12.4668
seks	-12.467
epe	-12.4671
taraf	-12.4674
▁dors	-12.4675
kuyu	-12.4675
keyf	-12.4676
kardeş	-12.4682
▁113	-12.4686
▁trav	-12.4689
▁şımar	-12.4693
ves	-12.4698
▁belirt	-12.4706
beton	-12.4707
▁171	-12.4708
▁144	-12.4709
vari	-12.471
▁suc	-12.4713
▁izlen	-12.4714
▁krema	-12.4719
▁kurtzm	-12.4729
blatt	-12.473
nos	-12.4736
edil	-12.4739
nberg	-12.474
▁154	-12.4741
▁donu	-12.4745
bis	-12.4747
redd	-12.4759
raj	-12.4766
bow	-12.4769
cs	-12.4771
▁bü	-12.4784
▁mürekke	-12.4787
anjin	-12.4792
alli	-12.4797
bell	-12.4801
▁540	-12.4803
yılmaz	-12.4804
▁hatır	-12.4805
ben	-12.4805
▁halled	-12.4807
lm	-12.4808
▁158	-12.4809
▁cath	-12.4817
▁önems	-12.482
▁131	-12.4824
▁sinyal	-12.4824
▁ef	-12.4825
dp	-12.4832
orgh	-12.4833
▁bulun	-12.4837
ordu	-12.4842
rten	-12.4844
renm	-12.4846
▁hes	-12.4846
uhş	-12.4851
▁anna	-12.4856
▁çıkabil	-12.4869
ted	-12.487
▁kilitle	-12.4872
ny	-12.4881
▁garro	-12.4881
▁103	-12.4882
▁bark	-12.4885
peh	-12.4886
▁yükseltil	-12.4896
işat	-12.4899
uşma	-12.4904
mond	-12.4904
juv	-12.4907
ılgı	-12.4911
▁hasıla	-12.4912
37	-12.4912
rüş	-12.4913
orm	-12.4916
▁arkadas	-12.492
▁müjd	-12.492
▁psiko	-12.492
▁bra	-12.4924
bri	-12.4924
▁121	-12.4927
▁drama	-12.4928
▁iştira	-12.4929
▁kuyru	-12.4931
▁sonlandır	-12.4934
▁pors	-12.4937
▁fizi	-12.4939
▁soundtrack	-12.4939
▁harfler	-12.4945
▁bele	-12.4945
▁gib	-12.4947
▁örgü	-12.4949
▁rick	-12.4955
▁365	-12.4956
lyas	-12.4957
iki	-12.4957
▁tayv	-12.4963
laz	-12.4965
harde	-12.4965
▁mann	-12.4965
▁hayalle	-12.4967
▁electr	-12.4967
▁münhasır	-12.4969
imbledon	-12.4969
rasshoppers	-12.4969
▁centilmen	-12.4969
▁discover	-12.4969
▁mahçup	-12.4969
▁orleans	-12.4969
▁radionomy	-12.4969
▁restaurant	-12.4969
▁tretuar	-12.4969
▁vietnam	-12.4969
▁vugr	-12.4969
▁zülfü	-12.4969
prezerva	-12.4969
▁koskoca	-12.4969
▁budapeş	-12.4969
▁mürşit	-12.4969
▁sacrament	-12.4969
▁seagate	-12.4969
▁double	-12.4969
▁felsefi	-12.4969
▁devşir	-12.4969
▁kpss	-12.4969
▁maymun	-12.4969
▁tekinarsl	-12.4969
▁üslub	-12.4969
▁dardanel	-12.4969
▁vasıf	-12.4969
▁continental	-12.4969
davra	-12.4969
▁embriyo	-12.4969
indsurf	-12.4969
▁çehre	-12.4969
▁paramatör	-12.4969
▁mickey	-12.4969
▁handika	-12.4969
▁yht	-12.4969
▁kemoterap	-12.4969
▁stajyer	-12.4969
▁forrest	-12.4969
▁tayfa	-12.4969
▁ensari	-12.4969
▁pilav	-12.4969
▁kalori	-12.4969
▁anarşi	-12.497
▁sirkül	-12.497
▁şirinyer	-12.497
▁müesses	-12.497
assachusetts	-12.497
▁otlat	-12.497
▁kronik	-12.497
▁rooney	-12.497
▁pervane	-12.497
utubet	-12.497
▁prince	-12.497
▁eyva	-12.4971
▁nabz	-12.4971
▁ınstitut	-12.4971
▁mihail	-12.4972
▁mithat	-12.4972
▁1955	-12.4972
▁1953	-12.4972
▁roger	-12.4973
▁victoria	-12.4973
▁parıl	-12.4973
▁ulaşılabil	-12.4974
▁brca	-12.4974
▁vokal	-12.4975
▁başrolde	-12.4975
▁dimitri	-12.4975
isio	-12.4975
▁magic	-12.4976
▁zeit	-12.4976
▁gereç	-12.4977
▁saldırma	-12.4977
▁palace	-12.4978
▁mütevaz	-12.4978
ökçe	-12.4978
▁cbs	-12.4978
▁hudu	-12.498
ipe	-12.498
▁kizil	-12.4982
▁hersek	-12.4982
▁marsil	-12.4984
ento	-12.4984
▁kenetlen	-12.4984
edi	-12.4984
▁rako	-12.4985
▁akyüz	-12.4985
▁vı	-12.4985
▁kırıntı	-12.4985
▁hammad	-12.4986
▁donat	-12.4986
▁sokulma	-12.4986
▁bleu	-12.4987
pahi	-12.4987
geld	-12.4988
▁mızrak	-12.4989
▁baby	-12.499
abi	-12.4991
▁yuzun	-12.4991
pol	-12.4991
▁hizla	-12.4991
wort	-12.4994
▁daşdel	-12.4994
▁abart	-12.4994
▁kombin	-12.4995
cüh	-12.4996
▁ihtiyar	-12.4996
▁bilmeyen	-12.4997
▁stoa	-12.4997
zel	-12.4998
▁cidde	-12.4998
▁everton	-12.4998
▁repli	-12.4999
▁party	-12.4999
arsl	-12.5001
▁257	-12.5002
▁eglen	-12.5005
gah	-12.5005
▁patlatıl	-12.5005
▁margar	-12.5006
▁goet	-12.5007
▁yükleni	-12.5009
▁ayı	-12.5009
▁kaynar	-12.5009
▁scor	-12.5009
▁boyko	-12.5009
▁sicilya	-12.501
▁oybir	-12.501
▁marks	-12.501
▁macar	-12.5015
▁beşik	-12.5015
▁minnet	-12.5016
▁banyo	-12.5017
share	-12.5017
lata	-12.5018
▁firari	-12.5019
▁gazeteport	-12.5019
▁elalem	-12.5021
▁tasvi	-12.5022
▁gültik	-12.5022
▁körük	-12.5023
167	-12.5025
▁brook	-12.5027
▁bitti	-12.5028
▁182	-12.5029
▁harman	-12.503
▁manyak	-12.503
▁ağl	-12.5032
▁tong	-12.5033
unkel	-12.5035
▁mus	-12.5036
▁hızır	-12.5038
▁padi	-12.5038
uaz	-12.5038
▁sağlayabil	-12.504
▁omuri	-12.504
▁domin	-12.5044
▁incit	-12.5044
▁252	-12.5045
aydın	-12.5046
gc	-12.5046
▁turh	-12.5049
eur	-12.5051
▁karton	-12.5052
ukhe	-12.5053
▁chene	-12.5055
apne	-12.5056
▁karga	-12.5057
▁sehir	-12.5058
▁gorev	-12.5058
▁cordo	-12.5058
emit	-12.5058
▁kasap	-12.5061
▁söğüt	-12.5061
▁pisa	-12.5061
dırılırke	-12.5064
▁köylü	-12.5064
▁ünv	-12.5065
▁gedi	-12.5068
▁kantar	-12.507
▁akka	-12.5072
▁oynayan	-12.5076
▁grubu	-12.5077
▁dina	-12.5078
ismis	-12.508
▁gps	-12.5084
▁genişl	-12.5084
▁çırpın	-12.5084
▁egs	-12.5084
▁gücü	-12.5085
emra	-12.5085
▁suyu	-12.5085
yin	-12.5085
maktadi	-12.5086
uro	-12.5088
▁penis	-12.5091
▁edilebil	-12.5093
şa	-12.51
▁affed	-12.5107
▁ustun	-12.5111
asım	-12.5111
▁cour	-12.5116
▁vedalaş	-12.5116
▁şenya	-12.5117
nomina	-12.5119
▁örgütü	-12.5121
▁holde	-12.5122
▁garib	-12.5123
▁kabak	-12.5125
▁kend	-12.5125
▁vas	-12.5128
▁ciğer	-12.513
▁cemaatin	-12.513
▁kulu	-12.513
▁calisa	-12.5131
tor	-12.5132
▁lami	-12.5133
▁butto	-12.5135
irirk	-12.5136
▁tutanağ	-12.514
▁jaz	-12.5146
fel	-12.5147
indel	-12.5149
dov	-12.515
▁lion	-12.5151
▁affedil	-12.5152
▁ry	-12.5153
▁clau	-12.5158
▁klor	-12.5159
▁ürkü	-12.5162
zki	-12.5165
bah	-12.5167
▁roll	-12.5168
acea	-12.5169
▁rahmi	-12.5173
▁yakut	-12.5174
▁glady	-12.5175
▁mrs	-12.5176
▁çevrele	-12.5177
▁okş	-12.5178
▁elveriş	-12.5178
sco	-12.5185
▁abra	-12.5188
dland	-12.5189
tılırke	-12.5193
sbo	-12.5196
ald	-12.5198
▁ipad	-12.5204
▁öpü	-12.5205
▁law	-12.5208
▁kahya	-12.5211
▁ruzg	-12.5213
▁fb	-12.5217
ore	-12.5217
jest	-12.5218
▁galler	-12.5219
ğil	-12.5224
izlenme	-12.5226
▁haff	-12.5231
▁saatle	-12.5233
arnes	-12.5241
▁dogu	-12.5243
york	-12.5244
bos	-12.5247
ith	-12.5262
suman	-12.5264
▁renna	-12.5273
▁reç	-12.5277
▁fıstığ	-12.5281
azam	-12.5286
terim	-12.5287
▁offi	-12.5289
▁reca	-12.5298
▁toplatıl	-12.5303
ider	-12.5306
dist	-12.5306
dayet	-12.5309
▁uzlaşma	-12.5315
siness	-12.5317
sad	-12.5318
arikat	-12.5321
▁karaoğ	-12.5325
▁amma	-12.5334
▁acti	-12.5334
yaki	-12.5336
979	-12.5339
442	-12.5341
üfür	-12.5347
uçma	-12.5351
▁fevk	-12.5352
sinan	-12.5359
▁kaplumbağa	-12.5361
▁nefs	-12.537
▁kuram	-12.5376
▁yetiştir	-12.5377
▁topuz	-12.5377
▁iphoneu	-12.5381
ula	-12.5386
rude	-12.5388
▁peni	-12.5388
▁we	-12.539
55	-12.5393
▁sataş	-12.5394
▁ilgisi	-12.5397
▁zer	-12.5404
▁sivi	-12.5409
▁erden	-12.5412
▁bahseder	-12.5421
örg	-12.5423
deş	-12.5425
▁çoğul	-12.5427
▁babası	-12.5428
▁karg	-12.5429
lamas	-12.5434
onto	-12.5441
▁oska	-12.5443
▁sac	-12.5446
▁poke	-12.5449
▁leon	-12.5454
▁your	-12.5455
▁troy	-12.5456
▁spre	-12.5458
girt	-12.5461
▁moha	-12.5464
▁zerda	-12.5467
▁boo	-12.5469
kariye	-12.5472
ccin	-12.5483
▁cim	-12.5484
nez	-12.5489
▁yarım	-12.5491
masi	-12.5492
▁dayana	-12.5497
▁jener	-12.5499
vedi	-12.5501
▁cebel	-12.5501
▁bridge	-12.5506
▁gercek	-12.5512
▁selen	-12.5516
▁ısıtıl	-12.5518
çim	-12.5518
▁sökü	-12.5522
▁fırlat	-12.5523
▁kub	-12.5524
▁ferg	-12.5525
kovic	-12.5527
▁tanıt	-12.5528
vu	-12.5533
▁bed	-12.5535
▁yasası	-12.5542
ulan	-12.5559
times	-12.5565
▁çevril	-12.557
▁tecr	-12.5573
nması	-12.5578
▁fle	-12.558
▁tero	-12.5587
dağı	-12.5588
▁dong	-12.5591
byl	-12.5591
▁holmesu	-12.5595
tip	-12.5598
▁ashe	-12.56
▁kibir	-12.5615
ida	-12.5616
▁öğü	-12.5618
▁beyazı	-12.562
mour	-12.5621
▁misk	-12.5634
▁fitn	-12.5639
▁fah	-12.5642
▁emzi	-12.5644
zai	-12.5645
▁sancak	-12.5649
▁takın	-12.5651
dioksi	-12.5653
▁mich	-12.5659
tırıl	-12.5663
96	-12.5665
▁aktarı	-12.5666
vlana	-12.5666
beş	-12.5672
▁gezer	-12.5678
▁morit	-12.5679
ydan	-12.5681
▁yalanc	-12.5681
950	-12.5686
ound	-12.5687
▁aşıla	-12.5696
▁bask	-12.5697
▁afa	-12.5699
iğe	-12.5702
▁andrea	-12.5703
▁gerçekleştiril	-12.5705
▁brü	-12.5705
▁kova	-12.5709
rrier	-12.5712
▁içer	-12.5718
urfa	-12.5723
eraton	-12.5724
vane	-12.5734
bul	-12.5744
71	-12.5747
mina	-12.5751
▁gitmey	-12.5754
beyle	-12.5756
format	-12.5759
▁mach	-12.5763
▁mhpd	-12.577
▁usai	-12.5771
▁177	-12.5772
▁brand	-12.5774
mane	-12.5778
▁iptalin	-12.5779
ep	-12.5779
▁dokun	-12.5784
▁uçar	-12.5786
tamin	-12.5787
▁daralt	-12.5787
onik	-12.5792
▁124	-12.5793
rji	-12.5796
sg	-12.5797
mez	-12.5797
masın	-12.58
▁yd	-12.58
▁engell	-12.58
lus	-12.58
llo	-12.5806
▁desen	-12.5818
▁tly	-12.5818
tistik	-12.5821
cl	-12.5826
sahip	-12.5827
lican	-12.5827
▁hacz	-12.5827
kök	-12.5833
şan	-12.5834
▁ped	-12.5834
▁seyreder	-12.5836
▁pari	-12.5836
▁ekl	-12.5843
▁245	-12.5846
▁turka	-12.5846
sav	-12.5862
iti	-12.5868
▁tic	-12.5869
▁krat	-12.5891
eva	-12.5892
zine	-12.5893
ıfat	-12.5895
▁tazmin	-12.5909
▁belirtil	-12.5913
oks	-12.5915
nif	-12.5916
adida	-12.5922
▁akçak	-12.5925
▁137	-12.5925
kıl	-12.5951
ebb	-12.5952
▁kahveren	-12.5953
▁oh	-12.5968
▁doner	-12.5971
▁keşf	-12.5977
▁madam	-12.5979
rve	-12.5988
aks	-12.5991
▁temsilcil	-12.5997
ano	-12.6002
▁musi	-12.6005
▁ihtima	-12.6008
▁more	-12.6016
▁kert	-12.6025
▁mahf	-12.603
ony	-12.6031
▁duyu	-12.6038
argı	-12.6039
ball	-12.6039
binde	-12.604
▁bolt	-12.6041
▁humu	-12.6046
ono	-12.6052
ibe	-12.6054
pi	-12.6055
▁dick	-12.6065
ders	-12.6083
▁atlı	-12.6084
▁imzalanma	-12.6086
hey	-12.6087
▁kızılka	-12.6088
▁menfaat	-12.6093
▁fl	-12.6096
oştur	-12.6097
▁tvn	-12.6103
▁müte	-12.6107
▁owe	-12.6111
ttir	-12.6112
▁bog	-12.6113
▁tatlı	-12.6125
▁aroma	-12.6133
▁ülkeleri	-12.6136
▁114	-12.6143
▁420	-12.6146
▁kurut	-12.6151
▁oyuncular	-12.6157
hne	-12.6159
▁ksk	-12.6161
▁bekley	-12.6163
▁128	-12.6179
idis	-12.6183
▁ssky	-12.6187
düz	-12.6203
pert	-12.6205
▁nick	-12.6209
▁flo	-12.6211
▁kompr	-12.6215
▁ayet	-12.6217
avio	-12.6222
zy	-12.623
abey	-12.6231
▁fenerbah	-12.6233
▁dilim	-12.6257
azan	-12.6261
▁okuy	-12.6265
▁ask	-12.6269
▁mad	-12.6287
sv	-12.6293
▁123	-12.6293
pec	-12.6294
▁malik	-12.6295
▁seçi	-12.6309
azad	-12.6319
▁akıt	-12.6319
▁geret	-12.6322
ummer	-12.6328
mento	-12.6337
▁alkışl	-12.6339
yda	-12.6342
▁johnn	-12.6347
erten	-12.6351
liya	-12.6354
▁şama	-12.6361
atrina	-12.6365
ike	-12.6365
uba	-12.6372
▁359	-12.6377
92	-12.6379
ust	-12.6382
deki	-12.6388
▁pata	-12.64
gy	-12.6401
▁akro	-12.6403
▁christoph	-12.6403
▁panay	-12.6408
▁145	-12.6409
▁dizil	-12.6412
53	-12.6416
ondu	-12.6432
rizon	-12.6438
▁224	-12.6453
▁ural	-12.647
▁sina	-12.6471
sonic	-12.6472
▁türkku	-12.648
gm	-12.6481
▁vardi	-12.6482
▁777	-12.6489
▁ph	-12.6494
cy	-12.6495
akov	-12.6495
metre	-12.6496
371	-12.6501
07	-12.6502
▁tec	-12.6504
▁rou	-12.652
uhn	-12.6522
anıt	-12.6522
▁aksak	-12.6524
erdan	-12.6528
▁tapın	-12.6528
▁giz	-12.6532
▁menen	-12.6536
▁767	-12.6536
stom	-12.6536
▁deva	-12.6539
alter	-12.6539
▁şaşır	-12.6539
thy	-12.6542
▁kurd	-12.6544
▁özayd	-12.6545
hein	-12.655
mu	-12.6551
nov	-12.6553
moro	-12.6555
bas	-12.6555
com	-12.6568
▁temizl	-12.6583
▁jar	-12.6585
▁civ	-12.6589
▁yörü	-12.6591
uta	-12.6591
pur	-12.6591
▁otob	-12.6592
güz	-12.6602
▁gene	-12.6604
legal	-12.6605
rut	-12.6605
baraka	-12.6615
▁goster	-12.6619
▁damıt	-12.6622
kont	-12.6623
▁emma	-12.6629
orient	-12.6633
▁chan	-12.6635
▁taka	-12.6643
mük	-12.6644
sparta	-12.6644
▁goz	-12.6644
▁atı	-12.6646
▁otos	-12.6648
zula	-12.6649
back	-12.6653
niye	-12.6656
bak	-12.6658
padok	-12.6661
fatura	-12.6665
▁perv	-12.6666
buz	-12.6667
show	-12.6668
doğru	-12.6668
▁kof	-12.667
▁aym	-12.6676
▁boynuz	-12.6679
ful	-12.668
hamam	-12.6682
esih	-12.6684
riel	-12.6684
ölç	-12.6685
▁kışkırt	-12.6688
şahin	-12.6688
kırık	-12.6689
▁kardem	-12.6689
bire	-12.6698
saç	-12.6701
mica	-12.6709
tılı	-12.672
mob	-12.672
▁save	-12.6725
99	-12.6728
swi	-12.6732
▁çıkış	-12.6734
elebi	-12.6736
gide	-12.674
▁yönetimi	-12.6763
adayı	-12.6771
zaman	-12.6772
▁demis	-12.6772
phone	-12.6774
▁570	-12.6782
seç	-12.6784
▁masal	-12.6786
▁bots	-12.6787
sıkı	-12.6787
▁152	-12.6789
igan	-12.6792
▁beck	-12.6794
çal	-12.6801
▁albert	-12.6803
keçe	-12.6806
acılı	-12.681
cock	-12.6813
ug	-12.6819
▁yaraş	-12.6819
ddet	-12.6826
vran	-12.6828
ell	-12.6828
▁kre	-12.6835
▁142	-12.6837
▁bürokra	-12.6844
▁kı	-12.6847
▁süratle	-12.6848
lite	-12.6849
▁küçü	-12.6854
sson	-12.6858
▁lez	-12.6858
rbis	-12.6864
likleri	-12.6865
▁cum	-12.6867
▁avla	-12.6868
eliha	-12.6868
bon	-12.6868
cuk	-12.6869
▁schi	-12.6874
▁bağlama	-12.6875
sert	-12.6884
vedo	-12.6886
por	-12.6894
▁139	-12.6903
▁elektro	-12.6907
well	-12.691
vard	-12.691
▁sunul	-12.6913
eau	-12.6916
cr	-12.6919
ege	-12.6921
▁göğe	-12.6922
ienne	-12.6926
▁uygul	-12.693
▁322	-12.6934
kreas	-12.6936
gher	-12.6937
▁kıpır	-12.6942
▁lanet	-12.6943
▁217	-12.6944
▁indirge	-12.6945
siyan	-12.6947
▁kıkırda	-12.6948
▁saldır	-12.695
▁cemaati	-12.6951
ards	-12.6953
lpg	-12.6954
▁edebi	-12.696
üyük	-12.6962
iller	-12.6965
▁hila	-12.6967
▁etiyopya	-12.6969
▁vodjan	-12.6969
▁fizyoloji	-12.6969
▁kronoloji	-12.6969
▁matthew	-12.6969
▁okmeydan	-12.6969
▁poyraz	-12.6969
▁prometheus	-12.6969
▁repertu	-12.6969
▁scramje	-12.6969
▁stuttgart	-12.6969
▁sülfür	-12.6969
▁implant	-12.6969
▁mükerre	-12.6969
▁reynolds	-12.6969
▁survivor	-12.6969
arıibrahimoğlu	-12.6969
▁eskatoloji	-12.6969
▁nürnberg	-12.6969
▁gabriel	-12.6969
▁materyal	-12.6969
▁evolve	-12.6969
▁palto	-12.6969
▁fanatik	-12.6969
▁sarmısa	-12.6969
▁ihtişam	-12.6969
▁knight	-12.6969
▁çankırı	-12.6969
▁diyaloğ	-12.6969
▁menteş	-12.6969
▁kostüm	-12.6969
▁aksesuar	-12.6969
▁ekaterin	-12.6969
▁eurocup	-12.6969
▁potter	-12.6969
▁child	-12.6969
▁frederi	-12.6969
▁aıds	-12.6969
▁geometri	-12.6969
▁giovan	-12.6969
▁helva	-12.6969
▁estet	-12.6969
▁battle	-12.6969
▁todd	-12.6969
▁mkyk	-12.6969
▁gecmis	-12.697
▁hugh	-12.697
▁hammam	-12.697
▁electron	-12.697
▁hakkaten	-12.697
▁dondurul	-12.697
▁fulya	-12.697
▁schily	-12.697
▁prolet	-12.697
hopper	-12.697
▁basladi	-12.697
▁pelital	-12.697
▁south	-12.6971
▁pilsen	-12.6971
▁johnstone	-12.6971
▁jackson	-12.6971
▁garant	-12.6972
▁beach	-12.6972
▁kompozi	-12.6972
▁gregor	-12.6972
▁kultur	-12.6972
▁peck	-12.6972
▁kamufl	-12.6972
▁1944	-12.6973
▁bismil	-12.6973
▁dmitr	-12.6973
▁itaat	-12.6973
birlik	-12.6973
etic	-12.6973
▁sarnı	-12.6973
▁tomur	-12.6974
olfg	-12.6974
▁babaanne	-12.6974
▁sungur	-12.6974
▁1925	-12.6974
▁degis	-12.6974
▁spesi	-12.6975
▁dövüş	-12.6975
inec	-12.6976
▁muavi	-12.6976
▁arkeolo	-12.6976
hwi	-12.6976
▁1954	-12.6976
ireles	-12.6976
▁özellikleri	-12.6977
▁doldur	-12.6977
▁femini	-12.6977
▁break	-12.6977
▁süpür	-12.6978
eney	-12.6978
▁mario	-12.6978
▁bavul	-12.6978
alog	-12.6979
▁bahri	-12.6979
▁çevrim	-12.698
▁sansar	-12.698
vuş	-12.698
üven	-12.698
▁burcu	-12.698
▁ross	-12.698
▁tayvan	-12.6981
▁embe	-12.6981
ılsay	-12.6982
esaret	-12.6983
▁hüda	-12.6983
▁gliko	-12.6984
▁425	-12.6985
▁path	-12.6986
caut	-12.6987
▁hapsed	-12.6987
▁yıpran	-12.6987
▁tevdi	-12.6988
▁kırgın	-12.6988
▁yaklasim	-12.699
▁böcek	-12.6992
▁ultra	-12.6992
▁dışla	-12.6993
▁1600	-12.6993
▁karizma	-12.6993
▁öğüt	-12.6993
▁göknar	-12.6994
▁copter	-12.6995
▁harris	-12.6995
▁develi	-12.6996
▁donan	-12.6996
▁başrolün	-12.6996
rily	-12.6997
▁bastırıl	-12.6997
ledil	-12.6998
▁277	-12.7
perve	-12.7
▁hayırsız	-12.7
▁juan	-12.7001
▁farkett	-12.7001
▁1940	-12.7002
▁yalıtı	-12.7004
▁departm	-12.7004
▁örtüş	-12.7006
▁pint	-12.7006
▁sıvazla	-12.701
▁üfle	-12.701
▁gao	-12.7011
▁cheva	-12.7012
▁muslu	-12.7012
▁gedik	-12.7013
tmos	-12.7013
▁harcanma	-12.7015
▁mezhe	-12.7015
sev	-12.7015
▁cb	-12.7017
▁kac	-12.7017
▁tabanca	-12.702
▁mesci	-12.702
phe	-12.702
▁sto	-12.7021
▁aydin	-12.7022
▁rekrea	-12.7023
▁kanaatin	-12.7023
▁hanuka	-12.7025
dikal	-12.7025
klesti	-12.7025
▁rhod	-12.7027
▁dursun	-12.7033
▁hima	-12.7033
▁chambe	-12.7038
▁yapılandır	-12.7039
abak	-12.7039
▁ümeyyeoğ	-12.704
▁trag	-12.704
mislar	-12.7041
▁karakoç	-12.7041
▁çakılgö	-12.7042
▁popst	-12.7042
▁çivi	-12.7042
▁çabala	-12.7045
▁bağl	-12.7048
▁izleye	-12.7049
▁stefano	-12.7049
▁eklenme	-12.7049
▁farked	-12.7052
▁cimnastiğ	-12.7053
▁tamamıyl	-12.7053
▁vol	-12.7057
▁pav	-12.7058
▁linds	-12.7061
vin	-12.7061
▁cora	-12.7065
brov	-12.7066
▁myanm	-12.707
gadi	-12.7074
isa	-12.7076
acıklı	-12.7081
▁mikrosko	-12.7081
▁amel	-12.7081
dies	-12.7082
ity	-12.7084
▁rasmus	-12.7084
▁olivi	-12.7086
▁reviz	-12.7087
kins	-12.7091
▁189	-12.7091
uyg	-12.7093
▁küp	-12.7096
▁özay	-12.7099
▁pre	-12.7101
asi	-12.7101
▁şera	-12.7102
▁taşçı	-12.7103
▁republica	-12.7109
tbol	-12.7111
▁boca	-12.7115
sipa	-12.7116
▁arasinda	-12.7122
▁391	-12.7127
cef	-12.7127
shop	-12.7128
▁arsin	-12.7128
▁fant	-12.7131
▁taran	-12.7131
▁izol	-12.7132
▁çökertil	-12.7134
▁yaşayabil	-12.714
iliş	-12.714
▁fri	-12.7142
chnei	-12.7145
▁kullanmay	-12.7146
nick	-12.715
▁talk	-12.715
▁seril	-12.7153
▁rehav	-12.7153
nett	-12.716
▁edep	-12.7162
▁kaun	-12.7171
▁ibb	-12.7175
▁demey	-12.7177
▁newt	-12.7178
▁pirami	-12.7179
▁birisi	-12.7181
▁fobi	-12.7181
lse	-12.7182
ag	-12.7184
▁bestele	-12.7185
çakmak	-12.7188
▁tropik	-12.719
▁rave	-12.7191
zur	-12.7194
▁mürekkeb	-12.7194
▁melal	-12.7194
▁akgül	-12.7196
▁vaha	-12.72
▁depar	-12.7201
▁dudak	-12.7207
▁hah	-12.721
app	-12.7211
▁yararlandırıl	-12.7212
kült	-12.7219
▁mansonı	-12.7219
cıbadem	-12.7221
▁oyala	-12.7222
mentie	-12.723
▁mac	-12.7233
ulha	-12.7236
▁toksi	-12.7236
▁termi	-12.7241
▁ilaçla	-12.7243
geri	-12.7244
▁kopyalan	-12.7245
▁lond	-12.7246
▁bırakı	-12.7248
▁yerleş	-12.7248
▁dolan	-12.7255
151	-12.7256
▁safar	-12.7256
▁sonlandırıl	-12.7257
▁devretme	-12.7258
▁harfin	-12.7259
▁çoklu	-12.7261
uhal	-12.7262
riko	-12.7263
ndo	-12.7265
hats	-12.7267
▁gollü	-12.7274
gro	-12.7274
▁paz	-12.7276
▁row	-12.7277
▁harc	-12.728
▁şap	-12.728
tleştir	-12.7283
iştir	-12.7286
23	-12.7288
▁anımsatıl	-12.729
hh	-12.7291
nny	-12.7298
pont	-12.7298
▁çıkması	-12.7309
bant	-12.7315
▁orient	-12.7317
uang	-12.7318
▁akpy	-12.7326
ual	-12.733
cümen	-12.7332
▁karada	-12.7332
▁domini	-12.7337
95	-12.7339
▁misi	-12.7341
▁much	-12.7342
▁zoe	-12.735
parat	-12.7351
civ	-12.7352
▁kırıl	-12.7353
ogg	-12.7359
▁kobal	-12.7361
ogo	-12.7366
alıkesirspo	-12.7371
▁abid	-12.7373
zakha	-12.7373
▁hızlanma	-12.7376
▁katledild	-12.7378
▁joz	-12.738
▁acm	-12.7381
▁karavan	-12.7381
▁uzm	-12.7384
low	-12.7386
▁suru	-12.7387
▁hamid	-12.739
▁mehta	-12.739
eke	-12.7391
ica	-12.7393
pucu	-12.7395
▁kült	-12.7397
▁acik	-12.7399
here	-12.7408
cant	-12.7413
irken	-12.7421
▁torre	-12.7428
year	-12.743
asit	-12.7431
▁orantı	-12.7432
vitt	-12.7434
▁mous	-12.7438
▁mevzi	-12.744
irlin	-12.7445
yaz	-12.7447
askon	-12.7448
rünge	-12.7448
▁job	-12.7448
▁erdo	-12.7451
▁torp	-12.7452
sis	-12.7454
tül	-12.7465
sene	-12.7478
oel	-12.7478
▁fişle	-12.7484
koz	-12.7486
asri	-12.7489
way	-12.7491
evec	-12.7491
fed	-12.7493
435	-12.75
lph	-12.7512
arth	-12.7513
▁beril	-12.7515
▁sani	-12.7517
▁dob	-12.7536
▁hab	-12.7548
tgd	-12.7549
odor	-12.7553
▁gozler	-12.7555
flaş	-12.7555
▁çat	-12.7557
▁mike	-12.7558
▁imti	-12.7559
klen	-12.7562
▁madur	-12.7565
▁christophe	-12.7568
zma	-12.7571
▁telesko	-12.7571
▁evre	-12.7572
▁protokolde	-12.758
hay	-12.7582
▁reza	-12.7586
ipin	-12.759
▁miks	-12.7593
▁vot	-12.7598
jsselbloem	-12.7603
arl	-12.7607
▁bayı	-12.761
una	-12.7614
▁anıl	-12.7614
▁dizisi	-12.7615
▁kalif	-12.762
bain	-12.7621
estel	-12.7623
sakal	-12.7624
zı	-12.7625
▁hö	-12.7629
oba	-12.763
dick	-12.7631
▁sarık	-12.7631
▁perva	-12.7634
mümk	-12.7634
▁yücelt	-12.7638
▁mans	-12.7643
▁kurgula	-12.7657
▁ruhi	-12.7658
▁fü	-12.7659
▁tmsfn	-12.7663
sans	-12.7664
▁glas	-12.7667
▁tıka	-12.767
▁ostr	-12.7673
▁müzikali	-12.7691
▁sed	-12.7703
uşç	-12.7707
▁kaybeder	-12.772
▁timu	-12.7726
tika	-12.7726
▁tüzüğ	-12.7736
fc	-12.7742
▁rab	-12.7743
▁gam	-12.7748
şit	-12.7752
428	-12.7754
▁marki	-12.7758
▁yazılı	-12.7761
lici	-12.7762
▁ıss	-12.7766
ding	-12.7768
▁rü	-12.7769
▁ekol	-12.7769
otten	-12.7774
▁bom	-12.7808
13	-12.7811
▁kayh	-12.7817
84	-12.782
▁şenay	-12.7822
▁associate	-12.784
aybin	-12.7845
▁gum	-12.7846
▁surek	-12.7847
ozet	-12.785
400	-12.7852
▁güdü	-12.7857
368	-12.7857
tık	-12.7861
▁bildir	-12.7866
aire	-12.7868
▁coro	-12.7868
oid	-12.7871
▁abuze	-12.7876
aşım	-12.7877
▁yazış	-12.788
zyon	-12.7885
ction	-12.7885
▁isle	-12.7886
ellow	-12.7888
▁bıyık	-12.7895
▁citr	-12.7896
yli	-12.7896
lly	-12.7902
▁opr	-12.7907
▁semboli	-12.7909
ois	-12.7917
▁burk	-12.7917
fen	-12.7927
▁susam	-12.7931
rma	-12.7932
▁malz	-12.7933
sab	-12.7942
berk	-12.7945
▁ımg	-12.7946
717	-12.7948
▁dikkatler	-12.7961
▁kaynat	-12.7963
yur	-12.7977
▁th	-12.7978
▁kodla	-12.7979
awa	-12.798
▁ılım	-12.799
ilmasi	-12.7995
▁benzet	-12.8
miz	-12.8001
▁630	-12.8001
mali	-12.8003
▁bond	-12.8004
erto	-12.8007
ümü	-12.8015
▁sebat	-12.8029
akis	-12.8045
▁fik	-12.8045
226	-12.8045
fr	-12.8046
▁projesi	-12.8048
03	-12.805
nna	-12.8052
ıtım	-12.8052
▁tori	-12.8065
▁odabaş	-12.8072
ustar	-12.8075
▁bül	-12.8079
assio	-12.8083
▁bombalan	-12.8085
oçoğ	-12.8086
▁kurulu	-12.8111
bla	-12.8113
▁mahsul	-12.8133
kelle	-12.8135
kanma	-12.8142
zum	-12.8144
oru	-12.8147
▁turab	-12.815
▁fad	-12.8151
nice	-12.8154
▁canlandırıl	-12.8155
iyo	-12.8156
alf	-12.8158
hana	-12.816
loji	-12.8166
▁estir	-12.8167
bl	-12.817
▁titreş	-12.8174
▁hel	-12.8181
▁bakir	-12.8194
▁beth	-12.8196
uar	-12.8198
amül	-12.8205
eppe	-12.8206
lam	-12.8213
▁jam	-12.8215
▁afş	-12.8217
▁kafasi	-12.8219
ned	-12.822
21	-12.8222
▁sabitle	-12.8232
eğ	-12.8234
tem	-12.8237
▁olmasin	-12.8242
onel	-12.8251
mpon	-12.8255
▁gi	-12.8255
gas	-12.8261
kunk	-12.8263
▁mou	-12.8266
tani	-12.8268
▁toma	-12.8268
▁148	-12.8287
▁provoka	-12.8291
▁perc	-12.8293
lerk	-12.8297
nst	-12.8298
cir	-12.83
▁teke	-12.8305
▁stea	-12.8306
▁dezenf	-12.8314
laf	-12.8319
rfi	-12.8338
mra	-12.8339
▁koko	-12.8345
has	-12.8349
610	-12.835
▁topl	-12.8362
▁eyle	-12.8363
kiy	-12.8364
ontrol	-12.8364
▁guin	-12.8368
266	-12.8369
▁müteaki	-12.8373
▁apo	-12.8389
bilme	-12.839
ino	-12.8391
▁gökalpi	-12.8397
▁plato	-12.8404
life	-12.8414
aba	-12.843
şık	-12.8431
▁hip	-12.8434
▁benit	-12.8436
row	-12.8438
▁sahra	-12.8439
▁associat	-12.8452
yn	-12.8461
sepp	-12.8464
cemi	-12.8465
vio	-12.8465
▁dolandır	-12.8471
logy	-12.8478
▁rahi	-12.8481
▁pip	-12.8487
cane	-12.8491
hli	-12.8493
▁sela	-12.8497
isinda	-12.85
kow	-12.85
dis	-12.8504
▁şad	-12.8507
461	-12.8512
zef	-12.8522
iwa	-12.8522
▁brit	-12.8524
▁ahu	-12.8526
▁gayrı	-12.8527
lug	-12.8532
eras	-12.8543
▁redd	-12.8546
find	-12.8559
io	-12.857
ıyor	-12.8576
▁çalışabil	-12.8582
▁asli	-12.8583
41	-12.8584
paci	-12.8603
▁oval	-12.8611
▁şirketi	-12.8633
nış	-12.8645
▁liang	-12.865
▁pakt	-12.8652
▁coş	-12.8657
şid	-12.8664
▁total	-12.8664
oğuş	-12.8664
390	-12.8667
analı	-12.8669
▁tayl	-12.867
held	-12.867
▁kard	-12.8677
dek	-12.8686
▁ıso	-12.8687
alaska	-12.8689
kak	-12.8691
ıştırıl	-12.8692
▁erba	-12.8706
rong	-12.8706
gor	-12.871
hag	-12.8711
sburg	-12.8725
▁anlami	-12.8727
pto	-12.8728
age	-12.8732
▁siya	-12.8742
▁manev	-12.8751
▁karam	-12.8755
▁başdanışman	-12.8757
▁516	-12.8759
raven	-12.8764
▁azalt	-12.8772
▁veril	-12.8785
▁koop	-12.8794
murg	-12.8798
▁görü	-12.8812
arna	-12.8814
pon	-12.8823
gs	-12.8826
çiçek	-12.8834
cel	-12.8835
tt	-12.8836
rosta	-12.8844
asa	-12.8846
▁hoşh	-12.8847
▁jiang	-12.8855
om	-12.8855
▁kaçır	-12.8861
ita	-12.8861
▁kıska	-12.8863
kart	-12.8864
lahat	-12.8873
bih	-12.8876
kf	-12.8879
rton	-12.888
ydi	-12.8886
▁183	-12.8891
mine	-12.8898
▁oru	-12.89
▁sevil	-12.8902
▁onaylat	-12.8902
sül	-12.8904
ho	-12.8913
abad	-12.8916
▁akra	-12.8917
ilin	-12.8921
▁merd	-12.8932
▁idealler	-12.8936
gado	-12.8938
▁mani	-12.894
▁pol	-12.8944
▁bug	-12.8949
▁arala	-12.8954
tov	-12.8955
liga	-12.8961
▁163	-12.8969
epsi	-12.8971
burt	-12.8981
▁hatem	-12.8998
▁eg	-12.9007
ilkin	-12.9009
arı	-12.9016
▁ios	-12.9018
▁191	-12.9019
vic	-12.9023
esse	-12.9027
▁faydalan	-12.9027
sterda	-12.9029
tag	-12.9034
▁hafi	-12.9034
mesey	-12.9038
talay	-12.9047
166	-12.905
memis	-12.9052
530	-12.9054
▁robo	-12.9058
lyo	-12.9063
ımbay	-12.9064
kızı	-12.9065
uri	-12.9067
▁ghe	-12.9072
lami	-12.9079
itap	-12.9085
670	-12.9093
dolf	-12.9097
▁devred	-12.9101
hui	-12.9109
▁taha	-12.9109
▁icab	-12.9113
ess	-12.9113
kros	-12.9115
afin	-12.9117
▁messi	-12.9119
▁katılma	-12.9121
▁chatm	-12.9126
sıra	-12.913
▁aleksand	-12.913
corp	-12.9132
▁dinley	-12.9135
kobal	-12.9141
▁kısalt	-12.9141
morit	-12.9142
cins	-12.9144
▁oz	-12.9149
toros	-12.9152
▁ust	-12.9153
hawk	-12.9154
bb	-12.9157
yakup	-12.9163
▁sakı	-12.9165
öv	-12.9166
borsa	-12.9168
köprü	-12.9168
toprak	-12.917
parça	-12.917
fizik	-12.917
▁wo	-12.9171
scott	-12.9171
endos	-12.9172
dalga	-12.9172
scu	-12.9174
tha	-12.9178
▁denet	-12.918
▁jenera	-12.9181
▁bb	-12.9182
▁morr	-12.9182
▁clubt	-12.9185
temiz	-12.919
gora	-12.9191
kemal	-12.9193
▁bow	-12.9199
▁beas	-12.9202
erhun	-12.9202
menor	-12.9204
şağı	-12.9206
▁ami	-12.9211
grafik	-12.9219
istanbul	-12.922
landırılma	-12.9223
ına	-12.9225
▁pok	-12.9228
stanbul	-12.9228
▁por	-12.9231
▁uğr	-12.9234
▁akli	-12.9236
yp	-12.9241
▁müf	-12.9242
evo	-12.9244
est	-12.925
arak	-12.926
▁penn	-12.926
▁rockets	-12.9261
▁kapatı	-12.9265
▁thin	-12.9265
▁oks	-12.9272
çift	-12.9273
ogh	-12.9277
chat	-12.9281
lispor	-12.9284
pal	-12.9285
paz	-12.9286
▁lev	-12.9288
▁korn	-12.9289
gur	-12.9291
astro	-12.9297
peş	-12.9297
▁nasır	-12.9301
sekiz	-12.9304
bao	-12.9306
bilgi	-12.9313
▁vaadi	-12.9315
▁hop	-12.9315
polis	-12.9316
zo	-12.9316
44	-12.932
▁amiral	-12.932
ırt	-12.9324
içeri	-12.9327
▁imal	-12.9329
riç	-12.9331
ther	-12.9332
ora	-12.9333
▁oct	-12.9334
▁muslum	-12.9335
▁santrali	-12.9337
ayd	-12.9346
▁pkky	-12.9351
▁tutsa	-12.9366
▁erg	-12.9371
mz	-12.9373
▁harr	-12.9375
▁şik	-12.9378
mografi	-12.9381
947	-12.9385
▁eder	-12.9386
▁453	-12.9388
▁kuyrukluyıldız	-12.939
gıl	-12.9393
slo	-12.9397
▁fantas	-12.9398
ayede	-12.9399
akdi	-12.9399
▁olimpi	-12.94
▁gökde	-12.94
▁protokolle	-12.9401
danışmanları	-12.9405
▁efekt	-12.9407
tedir	-12.9408
▁faulle	-12.9408
▁hackle	-12.9409
yatıl	-12.9413
▁özelleştiril	-12.9417
▁nebi	-12.942
▁ıntern	-12.942
ansu	-12.9423
üyo	-12.9424
ürkiye	-12.9424
nsas	-12.9425
kala	-12.9429
▁pus	-12.943
çil	-12.943
▁gümrü	-12.9431
nco	-12.9431
▁deng	-12.9433
▁alaca	-12.9436
ahad	-12.9437
▁yumru	-12.9437
▁egd	-12.9438
anya	-12.9442
pao	-12.9445
isim	-12.9446
nduz	-12.9447
▁yansıt	-12.945
lfa	-12.945
tec	-12.9451
▁foo	-12.9454
▁astrono	-12.9455
▁ense	-12.9459
▁harfle	-12.946
▁avustur	-12.946
▁hoffm	-12.946
▁victor	-12.9462
eyyide	-12.9463
▁palmi	-12.9464
▁etkilen	-12.9465
▁vor	-12.9466
sezg	-12.9468
urnu	-12.9468
ildstein	-12.9469
▁aksesuvar	-12.9469
▁albatros	-12.9469
▁bahtiyar	-12.9469
▁byegm	-12.9469
▁firkateyn	-12.9469
▁flört	-12.9469
▁grease	-12.9469
▁health	-12.9469
▁marangoz	-12.9469
▁minmetals	-12.9469
▁molekül	-12.9469
▁people	-12.9469
▁semptom	-12.9469
▁spacey	-12.9469
▁stojakovi	-12.9469
▁absinth	-12.9469
▁demirdöğ	-12.9469
▁enterpri	-12.9469
▁ertüngealp	-12.9469
▁firsatci	-12.9469
▁gürbüz	-12.9469
▁kadayıf	-12.9469
▁pivot	-12.9469
▁schleicher	-12.9469
▁uçakgemi	-12.9469
▁çilingir	-12.9469
▁hoşnut	-12.9469
▁ıcbc	-12.9469
▁yahşi	-12.9469
▁eberhard	-12.9469
▁fesleğen	-12.9469
▁gemvur	-12.9469
▁hapşırı	-12.9469
▁bryant	-12.9469
▁serpiştir	-12.9469
▁swiss	-12.9469
▁hıfz	-12.9469
▁runner	-12.9469
▁cocuklari	-12.9469
▁shenzh	-12.9469
▁gözbebe	-12.9469
▁kaypakka	-12.9469
▁papatya	-12.9469
▁şerbetçio	-12.9469
▁ifşa	-12.9469
plorer	-12.9469
▁meteor	-12.9469
▁olustur	-12.9469
▁behram	-12.9469
▁römorkör	-12.9469
ueensland	-12.9469
▁company	-12.9469
ltrasonografi	-12.9469
▁nancy	-12.9469
▁pijama	-12.9469
▁gıdıkla	-12.9469
▁hafriy	-12.9469
▁kümülati	-12.9469
▁sapien	-12.9469
▁betimle	-12.9469
▁olymp	-12.9469
▁meryem	-12.9469
▁bruce	-12.9469
▁elveda	-12.9469
▁hüzn	-12.9469
▁narayan	-12.9469
▁raikk	-12.9469
▁hilary	-12.947
▁paraguay	-12.947
▁kılıçarsl	-12.947
▁çubuğ	-12.947
▁finn	-12.947
empati	-12.947
▁gonder	-12.947
▁cnbc	-12.947
▁ardıç	-12.947
moor	-12.947
▁htm	-12.947
▁yardır	-12.947
▁hubert	-12.9471
▁rafting	-12.9471
▁rendele	-12.9471
▁yolculug	-12.9471
▁dönerci	-12.9471
▁kuyt	-12.9471
▁centre	-12.9471
ürdürülebilirlik	-12.9471
▁devalü	-12.9471
▁rubin	-12.9471
▁gerceklestir	-12.9471
▁flyn	-12.9471
▁panoram	-12.9471
▁manidar	-12.9472
▁mineraller	-12.9472
▁gallet	-12.9472
▁craw	-12.9472
▁secret	-12.9472
▁kabarık	-12.9472
▁volks	-12.9472
▁mikc	-12.9472
▁1904	-12.9472
▁kilic	-12.9472
▁ppk	-12.9473
▁adrian	-12.9473
▁bilmem	-12.9473
▁1945	-12.9473
▁resul	-12.9473
▁yılanlı	-12.9473
▁mclaren	-12.9473
▁himmet	-12.9474
▁seyyid	-12.9474
▁sırıt	-12.9474
▁conver	-12.9474
▁gross	-12.9475
▁paranoya	-12.9475
▁necmi	-12.9475
▁sound	-12.9475
▁kızkardeş	-12.9475
▁aragone	-12.9475
▁ambros	-12.9476
henge	-12.9476
▁cinev	-12.9476
▁letonya	-12.9476
▁numaralandır	-12.9476
▁dpt	-12.9477
▁nişantaş	-12.9477
▁1934	-12.9477
▁yağlık	-12.9477
▁louis	-12.9478
▁kompost	-12.9478
▁genpa	-12.9478
▁obez	-12.9478
▁müstah	-12.9478
uare	-12.9479
okalipt	-12.9479
▁komple	-12.9479
▁alemdar	-12.9479
▁hyar	-12.9479
▁koçary	-12.9479
▁true	-12.9479
ojen	-12.9479
▁angelesta	-12.948
▁celil	-12.948
▁sürdür	-12.948
▁mansur	-12.948
▁robin	-12.9481
cott	-12.9481
▁afrodi	-12.9482
▁blue	-12.9482
▁sakson	-12.9482
▁kovuştur	-12.9482
▁görece	-12.9482
▁assis	-12.9483
▁müfre	-12.9483
▁today	-12.9484
ffin	-12.9484
▁mekteb	-12.9485
▁ısland	-12.9486
▁babur	-12.9486
▁altınay	-12.9486
▁itti	-12.9486
▁dersane	-12.9486
▁güleryüz	-12.9487
▁afif	-12.9487
▁ydp	-12.9487
▁tırtıl	-12.9487
▁avmler	-12.9488
▁vasf	-12.9488
▁akusti	-12.9488
▁beklene	-12.9488
▁georgi	-12.9489
▁repo	-12.9489
▁farz	-12.9489
▁insaf	-12.9489
▁retina	-12.9489
▁vallah	-12.949
▁muraba	-12.9491
▁hope	-12.9492
▁sezai	-12.9493
▁akbıyık	-12.9493
amıyor	-12.9494
▁bowden	-12.9494
▁scheng	-12.9496
▁onunde	-12.9496
▁kadinlar	-12.9497
oody	-12.9497
▁gıyab	-12.9497
▁krom	-12.9498
▁dökülme	-12.9498
▁üşü	-12.9498
▁vall	-12.9498
▁brom	-12.9498
▁gorde	-12.9498
▁alınabil	-12.9498
▁uluç	-12.9498
dikleri	-12.9499
▁niels	-12.9499
▁arkadasim	-12.9499
▁tyra	-12.9499
▁çıkarılı	-12.9501
▁koşuştur	-12.9501
sdorf	-12.9503
▁sarmaş	-12.9504
sheng	-12.9505
▁marine	-12.9506
▁cinci	-12.9507
▁com	-12.9507
▁castel	-12.9508
▁amasya	-12.9508
saruhan	-12.9508
▁johann	-12.9509
▁blond	-12.9509
▁bulundur	-12.9509
dinli	-12.9509
▁tanıtma	-12.9511
▁olmayış	-12.9511
▁mandal	-12.9511
▁kıpırda	-12.9513
▁silahsızlan	-12.9513
▁machine	-12.9513
▁lazki	-12.9514
şter	-12.9514
oord	-12.9514
▁tour	-12.9514
▁otom	-12.9515
▁atvde	-12.9515
▁batist	-12.9516
▁roo	-12.9517
▁geliştir	-12.9518
ublis	-12.9519
▁aşikar	-12.9521
▁tadinda	-12.9522
ueens	-12.9523
▁apps	-12.9523
kim	-12.9524
▁deutsche	-12.9524
base	-12.9524
duklari	-12.9525
▁biyografi	-12.9526
▁fıs	-12.9526
▁bmw	-12.9528
unde	-12.9528
firel	-12.9528
▁117	-12.9528
▁every	-12.9529
▁çınlat	-12.953
kahya	-12.9532
▁kaldır	-12.9533
▁kurtala	-12.9533
▁819	-12.9534
▁nepal	-12.9535
▁eşkal	-12.9535
▁trom	-12.9536
▁serap	-12.9537
▁yener	-12.9539
▁üçleme	-12.9539
▁ritm	-12.954
esto	-12.954
▁fışkı	-12.9541
▁yalın	-12.9543
▁rep	-12.9543
▁kadin	-12.9546
▁teşhi	-12.9547
▁mecburi	-12.9548
pasl	-12.9548
▁soc	-12.9549
uzakla	-12.9551
kovski	-12.9553
yana	-12.9555
▁oper	-12.9556
▁222	-12.9556
▁zell	-12.9556
▁case	-12.9557
beyoğ	-12.9561
▁award	-12.9561
zne	-12.9563
▁meeka	-12.9564
▁bmc	-12.9565
cog	-12.9565
▁lanetle	-12.9567
▁gorul	-12.9567
▁trablus	-12.9568
▁havai	-12.9568
▁karistirma	-12.9569
▁ebedi	-12.9569
▁novo	-12.9569
▁papaz	-12.957
▁yapılabil	-12.9571
▁lepp	-12.9574
lebano	-12.9574
▁torbalı	-12.9574
▁işlet	-12.9575
▁yıldır	-12.958
▁ohal	-12.958
▁şemsi	-12.9581
tage	-12.9581
telek	-12.9583
▁tiksin	-12.9583
vaf	-12.9583
▁lang	-12.9585
ps	-12.9587
▁toba	-12.9587
kograf	-12.9587
▁426	-12.9587
▁640	-12.9588
alters	-12.9588
▁shell	-12.9591
olumbi	-12.9591
▁polit	-12.9592
▁zina	-12.9594
▁arbor	-12.9594
▁tanıml	-12.9596
otti	-12.9599
sant	-12.9599
rdane	-12.9599
▁demografi	-12.9601
▁aklan	-12.9603
fing	-12.9604
mm	-12.9605
▁leona	-12.9606
ucas	-12.9608
phis	-12.9612
▁308	-12.9612
▁oyuncağ	-12.9614
▁kopec	-12.9615
▁başlatı	-12.9616
vasc	-12.9618
▁kesk	-12.9618
▁imla	-12.9621
▁senkron	-12.9621
isyan	-12.9622
▁kennet	-12.9624
gene	-12.9626
olana	-12.9627
▁esca	-12.9628
▁broad	-12.9629
arata	-12.963
▁bron	-12.9631
mbo	-12.9632
▁grim	-12.9633
▁indirgen	-12.9636
729	-12.9636
▁robbi	-12.9637
▁mesta	-12.9638
▁kerp	-12.9638
▁kınan	-12.9639
▁orijinalin	-12.964
sch	-12.9643
▁161	-12.9644
eski	-12.9645
we	-12.9645
▁durakla	-12.9646
▁ufk	-12.9649
▁herald	-12.9649
2000	-12.965
▁taray	-12.9651
▁mesajlaş	-12.9652
▁yağmala	-12.9653
▁naklet	-12.9653
acett	-12.9653
▁boliv	-12.9655
▁umursama	-12.9657
bbe	-12.9659
▁nohu	-12.966
odh	-12.9663
▁çağrısı	-12.9665
jing	-12.9668
29	-12.9668
fella	-12.9669
▁berna	-12.9669
spi	-12.967
minka	-12.9675
plev	-12.9678
▁şakra	-12.9679
▁barına	-12.9679
▁rocketsı	-12.9681
▁had	-12.9681
game	-12.9682
iklari	-12.9683
devit	-12.9684
ifi	-12.9685
abel	-12.9686
▁helleni	-12.9689
▁simül	-12.9691
▁open	-12.9694
▁kıt	-12.9698
▁helm	-12.9698
▁santi	-12.9699
▁cekme	-12.9706
▁dramati	-12.9706
muri	-12.9711
▁terapi	-12.9713
güp	-12.9718
pin	-12.9721
▁ezberle	-12.9723
▁mega	-12.9729
▁balli	-12.973
dway	-12.9731
▁hy	-12.9734
hran	-12.974
nbc	-12.9747
arit	-12.9748
otis	-12.9748
lphi	-12.9754
▁çeyreğ	-12.9758
ash	-12.976
▁megap	-12.9763
▁ulas	-12.9763
▁avmde	-12.9768
rbiy	-12.9771
▁futbolcu	-12.9771
▁oha	-12.9779
▁shp	-12.9779
79	-12.9779
173	-12.9781
▁hidd	-12.9781
iji	-12.9786
▁slave	-12.9789
▁690	-12.9794
▁taşlı	-12.9796
▁samu	-12.9797
▁çör	-12.9798
▁vaktin	-12.9799
▁albumde	-12.9803
▁gökn	-12.981
oke	-12.9812
sefal	-12.9813
alle	-12.9817
▁halm	-12.9818
▁septi	-12.9819
▁connecti	-12.982
408	-12.9823
▁upton	-12.9829
▁andij	-12.9832
atıl	-12.9835
imes	-12.9836
▁fir	-12.9836
opulos	-12.9841
dive	-12.9842
kşe	-12.9846
ght	-12.9851
kus	-12.9851
▁albumu	-12.9858
bezg	-12.9862
▁ipoteğ	-12.9867
gusto	-12.9869
▁pompala	-12.9874
▁hırsız	-12.9879
▁meta	-12.988
▁kıstır	-12.988
▁tanga	-12.9886
masyon	-12.9886
▁hepat	-12.9887
▁gebr	-12.9889
hrey	-12.9889
▁ogren	-12.9892
▁lava	-12.9892
▁kütüğ	-12.9894
▁gittig	-12.99
▁nötr	-12.99
▁püskürtül	-12.99
zure	-12.9903
▁ihtimaller	-12.9907
▁gorun	-12.9916
ssina	-12.9917
uve	-12.9918
icio	-12.9919
kül	-12.992
zdar	-12.9923
ngo	-12.9924
vec	-12.9925
▁bolun	-12.9929
▁gora	-12.994
mander	-12.9944
wic	-12.9948
▁konusu	-12.9952
▁mahall	-12.9957
usch	-12.9959
rmen	-12.9964
ec	-12.9966
yl	-12.9989
otopar	-12.9994
ço	-12.9999
rpg	-13.0001
▁ölçülme	-13.0006
▁sec	-13.0007
pag	-13.0007
▁self	-13.0007
ıs	-13.0008
▁takma	-13.0011
nı	-13.0013
erm	-13.0016
öh	-13.0019
▁fak	-13.002
▁giyin	-13.0028
▁sinek	-13.0032
885	-13.0038
▁kırılı	-13.0045
▁feli	-13.0046
▁alınma	-13.0047
▁sigm	-13.0053
▁akh	-13.0062
▁rabbi	-13.0078
▁mot	-13.0081
esd	-13.0084
▁ıslat	-13.0085
▁ferr	-13.0087
isko	-13.0096
100	-13.0103
▁üşen	-13.0104
▁örül	-13.0114
yemiş	-13.0116
ese	-13.0122
45	-13.0126
▁223	-13.0128
▁yun	-13.0132
▁takimda	-13.0132
keb	-13.0133
▁ziyal	-13.0138
▁ayarlan	-13.0141
▁tabar	-13.0143
▁hols	-13.0145
▁sivria	-13.0146
▁solo	-13.015
mbass	-13.0151
▁bozo	-13.0151
▁burgaz	-13.0151
05	-13.0156
çu	-13.0157
dük	-13.0158
ola	-13.0158
▁132	-13.0162
▁leto	-13.0163
▁yog	-13.0165
▁camer	-13.0167
mbro	-13.017
ugs	-13.0174
▁savaşı	-13.0176
esiye	-13.0187
tça	-13.0187
▁zuh	-13.019
▁jou	-13.0205
rom	-13.0206
▁beyt	-13.0215
tifa	-13.0215
tler	-13.0223
dok	-13.0224
▁magaz	-13.0224
od	-13.0226
▁kurumlar	-13.0235
387	-13.0246
pat	-13.0249
eng	-13.0253
▁amiraller	-13.0253
▁yazil	-13.0256
▁dağıtı	-13.0258
▁tarh	-13.026
▁kitabe	-13.0261
▁demo	-13.0263
383	-13.0264
▁vaatler	-13.0264
lou	-13.0268
▁rotte	-13.027
▁çakış	-13.027
▁iskan	-13.027
▁okla	-13.0272
sma	-13.0275
▁boşa	-13.0279
▁melis	-13.0285
▁osmanli	-13.0289
▁anlatıl	-13.029
oms	-13.0295
ehya	-13.0306
ifre	-13.0308
yik	-13.0309
▁adamlari	-13.0328
▁incel	-13.0333
▁ief	-13.0334
aht	-13.0339
yarı	-13.035
stre	-13.0355
▁serpi	-13.0356
▁bowl	-13.0357
▁pra	-13.0363
▁beydi	-13.0368
▁kayın	-13.0369
fize	-13.0376
▁müd	-13.0378
nfer	-13.0378
elman	-13.038
▁olabilece	-13.0382
adi	-13.0397
▁kurumsallaş	-13.0399
449	-13.0422
▁mantı	-13.0433
▁nük	-13.044
▁that	-13.0441
▁güm	-13.0445
▁hitab	-13.045
cks	-13.0472
rip	-13.0473
▁plat	-13.0473
▁cl	-13.0477
▁heykelt	-13.0484
ough	-13.0485
larindan	-13.0487
▁çelme	-13.0504
anna	-13.0513
▁eritr	-13.0516
▁pira	-13.0518
▁fauller	-13.0523
▁karaç	-13.0542
63	-13.0542
▁kıvra	-13.0543
▁chelseay	-13.0544
▁con	-13.0546
▁parca	-13.0546
▁rosto	-13.0553
aşırı	-13.0553
▁katılı	-13.0554
▁kö	-13.0555
oni	-13.0557
▁selamlama	-13.0558
▁uzlaşı	-13.0563
şe	-13.0565
▁ceke	-13.0566
399	-13.0568
ımsı	-13.0582
bük	-13.0584
▁çuh	-13.0588
jic	-13.0589
▁kemale	-13.0593
▁ejder	-13.0607
wan	-13.0614
▁alman	-13.0619
802	-13.0627
rge	-13.0632
ıyo	-13.0634
▁itiş	-13.0649
gri	-13.0659
▁ıııü	-13.0659
mbaye	-13.066
iako	-13.0661
▁vla	-13.0661
▁islah	-13.0678
lme	-13.0679
ylü	-13.068
kans	-13.0682
ason	-13.0682
▁kei	-13.0686
▁vill	-13.0686
▁kuz	-13.069
▁zeytinda	-13.0692
▁endişelendir	-13.0693
▁cemev	-13.0693
▁kapat	-13.0696
nak	-13.0698
▁solla	-13.0702
▁alaba	-13.0717
▁ımfn	-13.072
reke	-13.0726
diff	-13.0726
▁jord	-13.0726
rojen	-13.0727
▁tezh	-13.0727
▁misa	-13.0736
spekt	-13.0737
inasi	-13.0744
ref	-13.0748
▁lokali	-13.0749
▁rega	-13.0755
▁worl	-13.0758
ava	-13.0766
maj	-13.0767
apı	-13.077
ged	-13.0771
tabı	-13.0778
ssia	-13.078
pson	-13.0783
rita	-13.0784
▁yuh	-13.0785
▁470	-13.0785
▁471	-13.0788
ddin	-13.0789
▁basli	-13.081
▁kalabil	-13.0811
▁umur	-13.0811
rys	-13.0812
▁platon	-13.0825
▁flam	-13.0825
ralp	-13.0827
ıv	-13.0834
mogh	-13.0841
▁kilitlen	-13.0852
tlarin	-13.0861
diye	-13.0863
813	-13.0866
ical	-13.0867
▁havla	-13.0868
boğ	-13.0873
▁malt	-13.0883
▁protest	-13.0885
▁yapılma	-13.0886
eşme	-13.0888
▁yayınl	-13.0897
▁tezgaht	-13.0902
thia	-13.0906
▁müsteri	-13.0911
hmi	-13.0923
▁nizam	-13.0924
▁yoz	-13.0927
▁semboliz	-13.0929
istig	-13.0929
▁dor	-13.0932
▁ferm	-13.0949
bura	-13.0955
▁banks	-13.0968
ilbe	-13.097
▁slo	-13.0972
▁helsin	-13.0986
▁selamü	-13.0986
▁odiolo	-13.0989
▁tali	-13.0998
▁napa	-13.1005
▁abdüll	-13.1015
▁ec	-13.102
▁kutuplaş	-13.1026
lleme	-13.1026
▁encü	-13.1029
tation	-13.1031
otu	-13.1041
nger	-13.1041
mse	-13.1044
▁kell	-13.1047
▁kru	-13.105
▁kundakla	-13.1055
765	-13.1055
▁dusun	-13.1071
mid	-13.1072
▁225	-13.1075
▁oyuncu	-13.108
nkov	-13.1089
▁antre	-13.1094
▁feld	-13.1102
▁gaf	-13.1103
▁manda	-13.111
tetik	-13.1114
▁takılma	-13.1115
sse	-13.1138
▁elver	-13.1139
eder	-13.1143
▁ağırl	-13.1143
▁elenme	-13.1146
itli	-13.1167
afaka	-13.1168
▁teş	-13.1172
▁şartnam	-13.1176
feder	-13.1197
▁ass	-13.12
▁jun	-13.1209
ksim	-13.1219
▁ezile	-13.1227
▁thr	-13.123
erve	-13.1233
▁kose	-13.1242
▁tho	-13.1255
▁str	-13.1262
vanov	-13.1269
▁bilinme	-13.1276
▁ff	-13.1282
cus	-13.1283
band	-13.1289
▁salah	-13.1297
▁param	-13.1298
▁yapti	-13.1302
▁flama	-13.1306
▁zhi	-13.1306
brik	-13.1307
zbo	-13.1311
hid	-13.1316
▁baya	-13.1323
berg	-13.1328
▁kalir	-13.1331
işi	-13.1336
▁yanak	-13.134
▁jonesu	-13.1347
unç	-13.1348
nal	-13.1351
▁rose	-13.1354
▁138	-13.136
erfo	-13.1362
▁kire	-13.137
▁zulm	-13.137
▁yozlaş	-13.1381
line	-13.1382
▁suph	-13.1384
▁ağı	-13.1385
ucak	-13.1402
▁got	-13.1408
▁bö	-13.1414
▁derinleştiril	-13.1415
aloğ	-13.1415
phill	-13.142
ruva	-13.1426
▁simgel	-13.1427
led	-13.1429
tuk	-13.1433
▁pazarla	-13.144
enses	-13.1441
şif	-13.1443
▁milit	-13.1464
panze	-13.1469
yna	-13.147
cim	-13.1475
iren	-13.1482
res	-13.1483
▁aid	-13.1488
▁carp	-13.1488
eğe	-13.1495
ardeş	-13.1502
rry	-13.1511
▁395	-13.1517
edebilme	-13.1518
▁akyıld	-13.1519
▁hack	-13.1531
kö	-13.1534
pos	-13.1537
▁türe	-13.1538
▁suçl	-13.1545
anet	-13.1551
kali	-13.1553
▁uçuru	-13.1553
seyd	-13.1554
rasinda	-13.1555
▁yükseköğre	-13.1557
▁çil	-13.1558
lli	-13.1562
▁anders	-13.1564
nes	-13.1573
▁kaşı	-13.1575
▁empo	-13.1577
ndra	-13.1578
gren	-13.1582
▁fra	-13.1587
▁yaptig	-13.1587
▁hunt	-13.1588
leym	-13.1593
toğ	-13.1593
zhong	-13.1602
cav	-13.1611
▁esme	-13.1622
▁şaşı	-13.1628
▁tag	-13.1633
lusi	-13.1643
▁pran	-13.1647
▁belediyesi	-13.1655
kız	-13.1668
kap	-13.167
ward	-13.1671
rini	-13.1673
şantiy	-13.1674
anju	-13.1677
▁baraka	-13.169
esk	-13.169
iyad	-13.1699
▁prom	-13.1709
sasale	-13.1729
▁127	-13.1729
sky	-13.1733
ınç	-13.1733
510	-13.1744
gum	-13.1754
auti	-13.1758
▁melik	-13.1763
▁eğitme	-13.1764
ari	-13.1768
wen	-13.1768
pomm	-13.1776
▁405	-13.1777
gho	-13.1784
allah	-13.1789
alan	-13.1792
eceg	-13.1794
232	-13.18
hut	-13.1801
▁batti	-13.1804
mun	-13.1807
ube	-13.1823
▁gı	-13.1823
▁luck	-13.1823
▁gökçea	-13.1827
▁izze	-13.1828
▁202	-13.1832
▁dahiye	-13.1835
alım	-13.1844
▁chand	-13.1859
▁natur	-13.1868
▁842	-13.1871
genç	-13.1872
▁yayımlanma	-13.1878
ron	-13.1883
▁kandem	-13.1899
jo	-13.1902
▁trum	-13.1907
▁taç	-13.191
star	-13.191
▁mamü	-13.192
ulvi	-13.1921
lha	-13.1922
zhe	-13.1926
iga	-13.1928
clu	-13.193
▁yanı	-13.1934
▁187	-13.1935
isk	-13.1939
▁byr	-13.1947
▁bran	-13.1948
skin	-13.1949
agne	-13.195
▁yastı	-13.1952
madi	-13.1956
ştur	-13.1959
▁süratl	-13.1965
zov	-13.1968
anga	-13.1973
dö	-13.1984
magel	-13.1987
▁683	-13.2001
ümer	-13.2003
meym	-13.2003
hav	-13.2008
tırılırke	-13.2008
pete	-13.201
▁olsayd	-13.2014
çiçe	-13.202
▁156	-13.202
mye	-13.2021
▁arthu	-13.2027
▁pave	-13.203
uie	-13.2038
▁billi	-13.2039
hak	-13.2048
makta	-13.2052
▁bert	-13.2055
kemiğ	-13.2065
▁aks	-13.2077
▁kurabil	-13.2077
▁nasr	-13.209
▁bilinçlen	-13.2098
ettü	-13.2101
▁fan	-13.211
▁zorl	-13.2112
▁değiştir	-13.2121
▁çakıl	-13.2128
card	-13.2129
ges	-13.2132
▁155	-13.2147
ight	-13.2158
▁gui	-13.2167
argar	-13.2172
jör	-13.2172
bü	-13.2175
üntü	-13.2177
▁327	-13.2182
▁thi	-13.2183
stop	-13.2184
▁gorb	-13.219
▁som	-13.2193
ods	-13.2193
aylo	-13.2194
mün	-13.2195
stars	-13.2199
▁heg	-13.22
dg	-13.221
ram	-13.2211
▁sozler	-13.2219
268	-13.2222
▁connect	-13.2227
omo	-13.2235
▁sadaka	-13.2237
imura	-13.2242
▁bateri	-13.2252
▁820	-13.2253
▁soyl	-13.2253
▁butt	-13.2262
hayı	-13.2269
safa	-13.2271
chim	-13.2272
▁şahba	-13.2272
pulos	-13.2275
ich	-13.2293
lıkları	-13.2297
bert	-13.23
sting	-13.2301
hina	-13.2303
▁nükleo	-13.2323
▁mahmudi	-13.2323
▁moro	-13.2325
rhun	-13.2326
▁rezi	-13.2332
sko	-13.2334
▁288	-13.2335
homa	-13.2336
▁ipote	-13.2337
irli	-13.2345
saki	-13.2346
hua	-13.2347
▁asht	-13.2355
yye	-13.2359
cou	-13.2359
▁aydınlatıl	-13.236
▁orki	-13.2361
rling	-13.2366
liğ	-13.238
▁bitir	-13.238
mail	-13.2383
hassa	-13.2398
magne	-13.2424
▁andr	-13.2425
town	-13.2426
lep	-13.2426
euge	-13.2428
bile	-13.2431
avul	-13.2431
uzlu	-13.2435
▁sahtek	-13.244
▁ınterp	-13.2442
hop	-13.2447
mental	-13.2448
▁841	-13.2449
▁bişe	-13.2451
▁korel	-13.2453
giris	-13.2454
▁kurtarıl	-13.2456
▁uyuştur	-13.2457
▁etsey	-13.2463
▁sagla	-13.2466
azim	-13.2469
fıstığ	-13.2475
fisch	-13.2481
▁güz	-13.2483
mous	-13.2484
donald	-13.2486
kafes	-13.2487
flora	-13.2489
wyn	-13.249
▁meng	-13.2492
dondur	-13.2495
komuta	-13.2497
kurgu	-13.2498
ekonomi	-13.2501
komşu	-13.2501
öğretmen	-13.2502
konferans	-13.2502
sosyal	-13.2503
tırırke	-13.2503
safi	-13.2511
play	-13.2513
astronomi	-13.2515
▁403	-13.2517
tahri	-13.2518
bach	-13.2518
organiz	-13.2521
fikir	-13.2524
▁simp	-13.253
down	-13.2531
chun	-13.2534
kıran	-13.2536
▁bası	-13.254
erez	-13.2541
dinami	-13.2542
jor	-13.2542
▁plati	-13.2548
256	-13.2549
ceng	-13.255
▁306	-13.2551
zing	-13.2551
works	-13.2552
saha	-13.2555
▁vuru	-13.2556
▁center	-13.2557
▁133	-13.2557
tamina	-13.2558
adri	-13.2558
yardım	-13.2559
ankara	-13.2567
▁çırpı	-13.2569
▁macc	-13.2572
fobi	-13.2575
ugh	-13.2579
kse	-13.258
918	-13.2581
▁sö	-13.2587
▁720	-13.2591
urya	-13.2592
▁dokunul	-13.2592
▁bomb	-13.2594
mülk	-13.2598
▁astronom	-13.26
rika	-13.26
izli	-13.2604
uyrukluyıldızlar	-13.2606
armani	-13.2607
▁karak	-13.261
▁gözlemle	-13.261
now	-13.2611
▁shan	-13.2612
▁edile	-13.2617
▁erz	-13.2618
ardı	-13.2618
dön	-13.2621
ashe	-13.2621
kaynak	-13.2628
▁gülhan	-13.2629
rrey	-13.2629
merkezi	-13.2631
yra	-13.264
▁tarzi	-13.2641
bilig	-13.2642
▁canlandır	-13.2644
▁205	-13.2644
hall	-13.265
stle	-13.2654
inti	-13.2657
ektör	-13.2657
etmek	-13.2657
▁şahan	-13.2661
▁zeytinb	-13.2663
hd	-13.2665
▁single	-13.2665
avo	-13.2667
▁katei	-13.2668
▁kurşunla	-13.2669
long	-13.2676
▁susa	-13.2682
▁sw	-13.2685
▁juli	-13.2687
nerji	-13.2687
gna	-13.2696
▁multi	-13.2698
unday	-13.2699
▁olduğu	-13.2702
sevic	-13.2703
yril	-13.2709
fak	-13.2712
hov	-13.2712
▁oluşturu	-13.2713
▁psikiyatr	-13.2716
▁yönlendiri	-13.2721
boş	-13.2725
▁haked	-13.2727
▁571	-13.2728
lav	-13.2733
▁je	-13.2733
riv	-13.2738
▁souls	-13.2741
▁perr	-13.2742
▁flore	-13.2746
lmesi	-13.2751
▁zehirle	-13.2755
▁pero	-13.2759
▁anımsatı	-13.2761
▁class	-13.2763
once	-13.2763
▁böce	-13.2765
▁dışlan	-13.2772
witz	-13.2773
düssel	-13.2774
▁gelistir	-13.2775
ouch	-13.2777
▁charle	-13.2781
▁scot	-13.2785
▁futbo	-13.2786
▁put	-13.2786
▁kızartı	-13.2787
yığı	-13.2787
▁kayser	-13.2791
▁tezahür	-13.2793
▁himm	-13.2796
▁konağ	-13.2796
mıyo	-13.2798
▁ismai	-13.2798
▁mineral	-13.2799
peres	-13.2799
ombala	-13.28
yrics	-13.28
nmasi	-13.28
shih	-13.2801
▁france	-13.2801
olsto	-13.2801
hoff	-13.2802
▁zağnos	-13.2802
lopedi	-13.2802
svenska	-13.2802
▁abeyleges	-13.2802
▁assassin	-13.2802
▁astrofizik	-13.2802
▁clippers	-13.2802
▁feodal	-13.2802
▁foundation	-13.2802
▁frankenstein	-13.2802
▁gümüşdoğra	-13.2802
▁lenfosit	-13.2802
▁mccarthy	-13.2802
▁morfoloji	-13.2802
▁mütevelli	-13.2802
▁pezeven	-13.2802
▁piggot	-13.2802
▁psikanaliz	-13.2802
▁sabırsızlan	-13.2802
▁scamander	-13.2802
▁science	-13.2802
▁stories	-13.2802
▁summly	-13.2802
▁barrymore	-13.2802
▁dereağz	-13.2802
▁gümbür	-13.2802
▁münasebet	-13.2802
▁suistimal	-13.2802
emember	-13.2802
▁carradine	-13.2802
▁fabrici	-13.2802
▁fransergio	-13.2802
▁monroe	-13.2802
▁segment	-13.2802
▁success	-13.2802
▁fastmobile	-13.2802
▁müptezel	-13.2802
▁yaroslav	-13.2802
donetsk	-13.2802
ocamustafapaşa	-13.2802
▁celayir	-13.2802
▁döllen	-13.2802
▁joyce	-13.2802
▁nuggets	-13.2802
▁pedagoji	-13.2802
▁amorti	-13.2802
▁garrison	-13.2802
▁sarımsak	-13.2802
▁downloa	-13.2802
▁spotify	-13.2802
iaoning	-13.2802
▁hükum	-13.2802
▁şühe	-13.2802
▁akredit	-13.2802
▁timberlake	-13.2802
▁jagger	-13.2802
▁shadow	-13.2802
▁başkaldır	-13.2802
▁dedektör	-13.2802
▁etimoloji	-13.2802
▁klerides	-13.2802
▁piraly	-13.2802
▁scientist	-13.2802
▁high	-13.2802
▁illingwo	-13.2802
▁pirimid	-13.2802
▁sylvest	-13.2802
▁laurent	-13.2802
▁vuku	-13.2802
▁feshet	-13.2802
rjinal	-13.2802
source	-13.2802
▁biliminsan	-13.2802
▁shakh	-13.2802
▁kasarlarin	-13.2802
▁mazlum	-13.2802
▁with	-13.2802
sismoloji	-13.2802
▁grigor	-13.2802
▁mukave	-13.2802
▁murray	-13.2802
▁veritaban	-13.2802
▁twent	-13.2802
▁dataver	-13.2802
▁hırpala	-13.2802
▁küstah	-13.2802
halilzad	-13.2802
▁franco	-13.2802
▁idlib	-13.2802
▁story	-13.2802
▁minval	-13.2802
▁kiskanc	-13.2803
▁maharet	-13.2803
▁rasula	-13.2803
▁şöför	-13.2803
▁staff	-13.2803
▁ultrason	-13.2803
▁absent	-13.2803
▁gordugu	-13.2803
▁küçüğü	-13.2803
▁francis	-13.2803
▁eagle	-13.2803
ative	-13.2803
▁lockh	-13.2803
▁lawyer	-13.2803
▁storm	-13.2803
▁küfred	-13.2803
laaaa	-13.2804
lastira	-13.2804
▁istikbal	-13.2804
▁manager	-13.2804
▁ornek	-13.2804
▁theatre	-13.2804
▁zülfi	-13.2804
▁eğitici	-13.2804
▁directory	-13.2804
▁ahval	-13.2804
▁edition	-13.2804
▁75402	-13.2804
▁kardinal	-13.2804
▁kudret	-13.2805
▁mçb	-13.2805
▁yudumla	-13.2805
▁polifon	-13.2805
▁comput	-13.2805
asımpaşaspor	-13.2805
▁giant	-13.2805
▁saldiri	-13.2805
▁universal	-13.2805
▁magde	-13.2805
▁susturu	-13.2805
▁molda	-13.2805
▁nası	-13.2806
▁disari	-13.2806
▁donmus	-13.2806
ometri	-13.2806
▁finch	-13.2806
▁secene	-13.2806
▁ecb	-13.2806
▁yerçekim	-13.2807
▁bırı	-13.2807
▁paleontolo	-13.2807
▁atlatabil	-13.2807
schle	-13.2807
▁frida	-13.2807
▁reporter	-13.2807
▁sprint	-13.2808
▁ilmihal	-13.2808
osaur	-13.2808
▁sinensi	-13.2808
800	-13.2808
▁donaldson	-13.2809
▁dyh	-13.2809
jone	-13.281
entian	-13.281
▁olacagim	-13.281
▁8387	-13.281
iana	-13.2811
▁düdük	-13.2811
▁cellu	-13.2811
▁kaldirma	-13.2811
▁844	-13.2811
iğ	-13.2811
▁fiso	-13.2811
▁1724	-13.2811
▁tespi	-13.2812
▁mukadde	-13.2812
▁sampiyonlug	-13.2812
▁sozluk	-13.2812
▁aritmet	-13.2813
▁kapatil	-13.2813
▁sellin	-13.2813
▁manzum	-13.2813
▁milimetr	-13.2813
▁davu	-13.2813
▁yilinda	-13.2814
fly	-13.2814
▁hoffman	-13.2814
▁saglam	-13.2814
▁rudd	-13.2815
elj	-13.2815
▁seyrü	-13.2815
▁walk	-13.2815
▁zulf	-13.2815
▁akse	-13.2816
▁638	-13.2816
▁hipo	-13.2816
▁mitsu	-13.2816
kemmel	-13.2817
▁1935	-13.2817
▁küfret	-13.2817
▁zheng	-13.2817
▁kalkındır	-13.2818
▁ihtiyaçlarin	-13.2818
▁jena	-13.2818
▁constant	-13.2818
culari	-13.2818
▁turtle	-13.2818
▁bagir	-13.2818
▁gökoğl	-13.2819
▁ergez	-13.2819
▁sacma	-13.2819
▁tipleme	-13.282
▁öztor	-13.282
▁zsch	-13.282
▁yerelnet	-13.2821
▁gozu	-13.2821
terrane	-13.2821
▁kavuştur	-13.2822
▁sindiril	-13.2822
▁mcgra	-13.2822
▁bosanma	-13.2823
▁was	-13.2823
▁sekte	-13.2823
buster	-13.2823
▁sanders	-13.2823
▁bulunabil	-13.2824
▁hayden	-13.2824
▁celeb	-13.2824
ioksidan	-13.2824
nteres	-13.2825
▁palu	-13.2825
▁judge	-13.2825
▁yavasl	-13.2826
ebahat	-13.2826
avig	-13.2826
▁bişi	-13.2826
guar	-13.2827
cok	-13.2827
▁çıkarıla	-13.2827
▁başyargı	-13.2827
▁617	-13.2828
▁özbak	-13.2828
▁fift	-13.2828
▁kestir	-13.2828
▁otanti	-13.2828
▁823	-13.2829
▁miço	-13.2829
▁ucuzla	-13.2829
ıtter	-13.283
▁sacmalik	-13.283
örs	-13.283
▁gsyh	-13.2831
thul	-13.2831
▁lands	-13.2831
▁magnu	-13.2832
▁carra	-13.2832
anah	-13.2832
üros	-13.2832
▁gömle	-13.2833
▁öpüş	-13.2835
▁682	-13.2836
▁santr	-13.2837
▁clement	-13.2837
▁biliyo	-13.2837
▁munic	-13.2838
▁gabb	-13.2838
ovie	-13.2838
▁jacob	-13.2838
tama	-13.2839
▁medit	-13.2839
▁kıkırdağ	-13.2839
▁univer	-13.284
▁lügat	-13.284
▁4500	-13.2841
▁katlediliş	-13.2841
▁endişelen	-13.2841
▁sakatla	-13.2842
▁826	-13.2842
owitz	-13.2842
odik	-13.2844
▁çarç	-13.2844
▁yayinla	-13.2844
▁netleşme	-13.2844
▁touch	-13.2844
ridge	-13.2845
rhout	-13.2845
▁fabi	-13.2845
▁avram	-13.2846
▁çik	-13.2846
▁elya	-13.2847
▁ısabel	-13.2847
▁saçmal	-13.2848
help	-13.2849
▁zimme	-13.285
▁jasm	-13.2851
▁kurcala	-13.2853
lyco	-13.2854
▁blog	-13.2854
tbv	-13.2856
▁rebek	-13.2856
▁sarmala	-13.2856
ibert	-13.2856
▁nişanlı	-13.2856
▁181	-13.2857
▁anatol	-13.2857
▁yunt	-13.2858
▁philipp	-13.2858
▁begen	-13.2858
▁mühim	-13.2858
▁ihtilal	-13.2859
▁üniver	-13.286
yannis	-13.2861
▁goril	-13.2862
phy	-13.2863
▁edildig	-13.2864
▁olmalarin	-13.2864
▁grav	-13.2865
▁mahvet	-13.2865
zam	-13.2865
remon	-13.2866
yini	-13.2868
▁ataşe	-13.2869
▁kango	-13.2869
dev	-13.287
▁ayarlama	-13.287
▁irdele	-13.287
fore	-13.2871
▁fıtr	-13.2872
▁bloğ	-13.2872
tki	-13.2874
▁israf	-13.2874
ldız	-13.2875
▁297	-13.2876
▁hand	-13.2878
▁öldüren	-13.2878
açlandır	-13.2879
fili	-13.2879
linme	-13.2882
▁arındır	-13.2882
▁yolladi	-13.2882
▁maksad	-13.2883
▁adenozin	-13.2883
talia	-13.2883
vos	-13.2884
▁kıranş	-13.2885
sah	-13.2885
▁yerkabuğ	-13.2886
▁artemis	-13.2887
▁yonet	-13.2888
punk	-13.2889
▁studi	-13.289
▁264	-13.2891
▁cevir	-13.2891
▁sems	-13.2892
▁hacklen	-13.2893
pdk	-13.2893
▁sezgi	-13.2893
öfle	-13.2896
guan	-13.2896
nübü	-13.2897
urkish	-13.2897
▁çölaş	-13.2898
tsev	-13.2898
arty	-13.29
▁como	-13.2901
▁ameli	-13.2901
▁superd	-13.2901
▁sıklaştır	-13.2901
ehi	-13.2901
▁348	-13.2902
▁sezar	-13.2903
▁biyo	-13.2905
▁ayvaz	-13.2905
▁selül	-13.2905
▁gelmeyen	-13.2907
▁urunler	-13.2908
▁yuru	-13.2908
▁multimed	-13.2908
▁kotu	-13.2909
▁ikitelli	-13.2909
▁beşikt	-13.2911
▁inceba	-13.2911
▁bry	-13.2912
▁uçurulma	-13.2912
▁kaçırılma	-13.2913
▁sehr	-13.2914
▁spid	-13.2914
got	-13.2915
▁emsal	-13.2916
▁rak	-13.2917
büh	-13.292
▁gazla	-13.292
▁direğ	-13.292
▁baskani	-13.2924
▁uğul	-13.2925
▁öksürü	-13.2926
eyke	-13.2927
▁840	-13.2927
ngton	-13.2928
acro	-13.2929
▁seyahati	-13.293
şeker	-13.2931
▁fütu	-13.2931
▁gaul	-13.2932
▁takri	-13.2932
hael	-13.2937
zyn	-13.2937
▁metod	-13.2937
▁abdüsse	-13.2938
▁sağlamlaştır	-13.294
▁alone	-13.2941
▁thatcherı	-13.2942
king	-13.2942
▁imsak	-13.2943
liva	-13.2949
ziyer	-13.2952
▁garden	-13.2952
▁toplu	-13.2952
▁incelt	-13.2953
▁acima	-13.2955
zac	-13.2955
04	-13.2956
▁karsila	-13.2956
▁kizlar	-13.2959
▁semir	-13.296
▁singleı	-13.2962
▁gani	-13.2963
▁sandra	-13.2963
▁manny	-13.2966
tres	-13.2966
▁metall	-13.2969
lması	-13.297
▁206	-13.2975
spo	-13.2976
▁görevli	-13.2983
▁fani	-13.2983
lmiye	-13.2983
aret	-13.2985
esign	-13.2985
dican	-13.2986
▁yayılı	-13.2987
▁athl	-13.299
▁yapıştırı	-13.2994
▁siktir	-13.2994
▁yapacagi	-13.2994
▁infial	-13.2994
yeceg	-13.2997
▁oste	-13.2997
▁tanıtlan	-13.2997
▁schn	-13.2997
▁özsu	-13.2998
▁şükred	-13.3
▁komer	-13.3
yacak	-13.3001
hset	-13.3002
ment	-13.3004
▁çürüt	-13.3009
▁zube	-13.3009
▁emme	-13.301
▁katran	-13.301
▁trip	-13.3011
▁stoğ	-13.3012
▁khos	-13.3013
▁ortalaması	-13.3013
▁dinl	-13.3014
ısmar	-13.3017
▁hawa	-13.3017
▁cesar	-13.3018
▁spike	-13.3019
▁musluman	-13.3021
▁ope	-13.3021
ih	-13.3022
ıp	-13.3022
▁cruz	-13.3023
▁medus	-13.3024
▁tasarl	-13.3025
▁short	-13.3026
yıld	-13.303
▁jak	-13.3032
▁colan	-13.3037
uç	-13.3037
▁keşfedilme	-13.3039
aşla	-13.304
view	-13.3043
pone	-13.3043
▁incin	-13.3044
▁cikis	-13.305
▁dolayi	-13.3053
▁okka	-13.3053
spat	-13.3058
maku	-13.3059
paran	-13.3064
dans	-13.3066
▁vaadin	-13.3067
▁koreograf	-13.3072
▁ilmi	-13.3074
▁termin	-13.3075
▁armut	-13.3075
▁beklentisi	-13.3079
terapi	-13.3082
▁sancağ	-13.3085
▁zhen	-13.3086
▁abbasi	-13.3086
▁istemi	-13.3092
▁narin	-13.3094
zene	-13.3095
▁esed	-13.3097
▁semboldü	-13.3098
▁düsü	-13.3101
dd	-13.3101
tab	-13.3103
col	-13.3107
hidroks	-13.3108
▁şuay	-13.3109
zme	-13.311
▁network	-13.311
guti	-13.311
peri	-13.3114
doks	-13.3114
▁onar	-13.3114
959	-13.3114
bez	-13.3115
push	-13.3116
▁have	-13.3117
med	-13.312
panca	-13.312
andıra	-13.3122
guna	-13.3127
kamış	-13.3131
▁serink	-13.3132
▁fırça	-13.3133
▁zamanaş	-13.3134
onid	-13.3137
sembu	-13.3138
▁ıstı	-13.314
▁malkoçoğ	-13.3145
▁johns	-13.3147
▁durumda	-13.3148
▁muhatab	-13.3148
704	-13.3152
koy	-13.3154
▁yala	-13.3154
ören	-13.3155
dost	-13.3159
etum	-13.3159
ubert	-13.3159
▁william	-13.3165
hakar	-13.3166
▁fried	-13.3167
▁mori	-13.3168
eth	-13.3168
rigg	-13.317
▁orneg	-13.3172
▁öztun	-13.3177
▁cikardi	-13.3179
▁kemir	-13.3181
acaksi	-13.3183
swar	-13.3183
▁gua	-13.3184
ped	-13.3186
▁ödeyen	-13.3189
▁peres	-13.319
iver	-13.3191
▁thu	-13.3196
selam	-13.3197
▁nasyonal	-13.3198
track	-13.3205
▁volt	-13.3206
▁outl	-13.3208
▁caber	-13.3208
lanması	-13.3217
▁ritz	-13.3221
kaza	-13.3221
oca	-13.3225
▁hosp	-13.3226
▁sinirli	-13.323
▁interf	-13.3231
ate	-13.3231
▁kayme	-13.3238
cco	-13.3238
▁işgaller	-13.3238
▁üçer	-13.3239
▁yeşer	-13.324
inç	-13.3244
wer	-13.3246
▁mesle	-13.3246
▁acısı	-13.3246
▁halledil	-13.3251
▁rit	-13.3253
▁farkı	-13.3255
▁pos	-13.3258
ionio	-13.326
▁sıvıyağ	-13.3261
▁muhaber	-13.3267
▁örgütle	-13.3271
▁sabred	-13.3273
yuş	-13.3273
▁bib	-13.3274
imda	-13.3274
▁whi	-13.3279
asketbolseverler	-13.3285
sani	-13.3288
opol	-13.3288
▁santralin	-13.3289
▁zahire	-13.3289
andel	-13.3291
▁yaptır	-13.3295
ost	-13.33
tul	-13.3301
▁demirören	-13.3305
rışma	-13.3306
uchs	-13.3307
çü	-13.331
▁amira	-13.3311
▁silahları	-13.3312
merci	-13.3313
▁kısaltı	-13.3317
▁rastlan	-13.3325
▁out	-13.3326
▁bonu	-13.3326
ptik	-13.3327
▁ayıb	-13.3327
▁deldir	-13.3333
▁tvf	-13.3335
ool	-13.3338
▁solu	-13.334
▁mumk	-13.334
▁bright	-13.3343
▁şakalaş	-13.3343
▁valde	-13.3348
▁ihtiya	-13.3349
▁ria	-13.3351
▁rad	-13.3352
▁tö	-13.3353
▁yild	-13.3357
çov	-13.3357
▁pirin	-13.3358
▁girebil	-13.3363
ayır	-13.3364
▁papi	-13.3364
▁now	-13.3366
▁yagm	-13.3367
▁gig	-13.3369
▁cav	-13.337
dürülme	-13.3377
ravi	-13.3377
▁fok	-13.3388
▁mall	-13.3389
asil	-13.3403
andon	-13.3407
▁revi	-13.3407
▁428	-13.3409
▁paso	-13.3413
▁varya	-13.3415
▁moment	-13.3426
▁feyza	-13.3429
▁toro	-13.3436
▁boyun	-13.3437
▁lapa	-13.3437
ilari	-13.3438
üğü	-13.3438
▁şımart	-13.3439
şut	-13.3447
ament	-13.3451
▁patlı	-13.3452
letme	-13.3452
üv	-13.3453
▁ertelet	-13.3455
▁damıtıl	-13.3458
▁master	-13.3462
zaltı	-13.3465
lino	-13.3466
arışın	-13.3469
▁mers	-13.3471
▁linn	-13.3473
evher	-13.3477
allik	-13.3482
▁asabi	-13.3484
▁cc	-13.3486
▁ayarlanma	-13.3487
▁gama	-13.3492
▁lago	-13.3492
outh	-13.3503
gelişmiş	-13.3505
▁theat	-13.3508
hali	-13.3511
roloji	-13.3512
kıvra	-13.3516
hkp	-13.3518
ğıt	-13.3519
▁mental	-13.3521
ergi	-13.3533
▁tüketen	-13.3534
▁pel	-13.3535
▁karakteri	-13.3539
▁beym	-13.3542
lemesin	-13.3542
▁coven	-13.3552
▁erci	-13.3558
weg	-13.3559
anor	-13.3559
▁niyeti	-13.3563
▁safa	-13.3568
563	-13.357
▁süleymani	-13.3572
ımp	-13.3574
laşım	-13.3574
▁corne	-13.3575
▁pag	-13.3579
asan	-13.3581
▁karis	-13.3583
▁yasakl	-13.359
▁pekiş	-13.3591
▁gerd	-13.3591
▁sirket	-13.3593
▁ağaçlandırıl	-13.3599
▁krist	-13.3602
▁berha	-13.3611
▁yaris	-13.3614
ibi	-13.3616
rla	-13.363
erkez	-13.363
▁kopar	-13.3633
▁digit	-13.3635
▁eklem	-13.3637
▁chet	-13.3637
medig	-13.3643
iban	-13.3645
▁figa	-13.3646
▁zeyn	-13.3647
stiş	-13.3653
▁gest	-13.3656
▁postala	-13.3661
ysa	-13.3662
▁reddeder	-13.3667
639	-13.3668
fd	-13.367
çak	-13.3673
▁özgün	-13.3677
▁kardiyo	-13.3678
▁legal	-13.3682
duru	-13.3682
▁fırl	-13.3683
▁yankıla	-13.3683
▁gru	-13.3684
▁aze	-13.3684
msi	-13.3687
▁talim	-13.3687
toloji	-13.3689
▁kho	-13.3696
▁wild	-13.37
▁kampu	-13.3701
movi	-13.3704
▁panikle	-13.3707
intert	-13.3709
▁seyahatin	-13.3711
▁kurtarabil	-13.3711
eks	-13.3713
osit	-13.3715
▁şecer	-13.3717
▁kuşe	-13.372
anda	-13.3721
tlak	-13.3723
▁carr	-13.3724
▁mürett	-13.3733
pua	-13.3733
geçi	-13.3737
▁ras	-13.3738
▁bugun	-13.3748
▁sökülme	-13.3757
▁dedig	-13.3762
▁lov	-13.377
▁zahi	-13.3772
▁gözetil	-13.3775
▁cikari	-13.3777
▁bulunma	-13.3789
ıstık	-13.3796
▁devel	-13.3803
▁yesil	-13.3809
klor	-13.3813
▁yağdığ	-13.3816
antepspor	-13.3819
▁luci	-13.3822
nent	-13.3824
▁gülün	-13.3824
▁sands	-13.3828
▁sicak	-13.3833
▁sode	-13.3833
▁farketme	-13.3836
▁tecvi	-13.3837
rüştü	-13.384
▁akpm	-13.3841
▁boyat	-13.3841
rtuk	-13.3844
cann	-13.3867
▁patr	-13.3868
obs	-13.3869
▁noa	-13.3873
▁tertib	-13.3875
engeç	-13.3876
▁spie	-13.3883
▁mamur	-13.3887
▁kullanil	-13.3891
ingo	-13.3892
▁cebe	-13.3892
▁tekrarl	-13.3898
gary	-13.3899
▁rahm	-13.3899
▁rond	-13.3905
olay	-13.3905
sonu	-13.3923
▁genelle	-13.3924
▁ıts	-13.3929
▁goru	-13.3932
▁grafi	-13.3934
▁halü	-13.3935
yus	-13.3947
▁yoruml	-13.3949
▁mutem	-13.395
▁muhamm	-13.3959
▁testi	-13.397
▁gallia	-13.3974
▁rome	-13.3976
▁gord	-13.3976
▁os	-13.3979
▁charlesı	-13.3983
▁finance	-13.3985
▁vega	-13.3987
imberl	-13.4001
▁soyledi	-13.4001
sına	-13.4005
▁fau	-13.4009
▁benimseme	-13.4015
▁ebi	-13.4036
odo	-13.4037
▁cobr	-13.4037
▁kullanım	-13.4045
allo	-13.4047
▁işle	-13.4052
▁batır	-13.406
ej	-13.4061
▁game	-13.4068
larimi	-13.407
icaz	-13.4072
moz	-13.4075
mı	-13.4085
ernie	-13.4091
▁siir	-13.4098
the	-13.4108
▁deep	-13.4109
▁marcell	-13.411
gali	-13.412
▁serin	-13.4126
▁lisan	-13.4131
▁tutan	-13.4142
▁mühürlen	-13.4144
dürme	-13.415
▁gence	-13.4151
bra	-13.4155
reti	-13.4166
▁fotografi	-13.4169
▁peşin	-13.4173
▁cez	-13.4174
▁panag	-13.4188
▁laz	-13.4189
▁somo	-13.419
▁field	-13.419
teks	-13.42
▁bulus	-13.4201
değe	-13.4203
lash	-13.4204
fli	-13.4206
onen	-13.4209
▁afrin	-13.4211
ings	-13.4217
ble	-13.4219
chne	-13.422
omic	-13.4224
▁dengelenm	-13.4233
▁idol	-13.4234
▁şur	-13.4235
stil	-13.4238
▁vaci	-13.4242
▁lincolnü	-13.4244
▁hürm	-13.4249
▁yillari	-13.4253
▁kuva	-13.4257
295	-13.4268
fman	-13.4272
lum	-13.4272
▁beat	-13.4273
mily	-13.4277
lül	-13.4279
andall	-13.4281
hela	-13.4284
▁gerektig	-13.4286
yanık	-13.4287
▁odes	-13.4309
cor	-13.4314
▁rebe	-13.4318
▁762	-13.4318
swan	-13.4319
▁korg	-13.4321
▁dengele	-13.4325
▁sitem	-13.4332
egg	-13.4336
skop	-13.4342
▁normalleş	-13.4347
▁fayzo	-13.4362
▁hang	-13.4368
▁başak	-13.4368
▁taz	-13.437
▁dagil	-13.4381
ilet	-13.4389
aklı	-13.439
▁tipo	-13.4391
▁collis	-13.4405
▁arşivle	-13.4421
▁piro	-13.4421
ildig	-13.4425
▁çeşid	-13.4431
ıldır	-13.4433
zal	-13.4434
bras	-13.4437
dah	-13.4437
▁balı	-13.444
shch	-13.4443
amped	-13.4449
etme	-13.445
hip	-13.4454
▁brav	-13.446
sevi	-13.4461
mani	-13.4469
tlul	-13.4471
▁kubbe	-13.4471
dye	-13.4478
jelen	-13.4479
leyh	-13.4479
ertem	-13.4485
▁kutup	-13.4493
▁lega	-13.4504
coğ	-13.451
▁şang	-13.4513
▁olga	-13.4513
▁dell	-13.4515
ngen	-13.4518
ükte	-13.4519
▁kabulün	-13.4525
▁485	-13.4528
unes	-13.4535
alk	-13.4536
endon	-13.4539
lfi	-13.4542
▁berc	-13.4543
▁rott	-13.4543
hail	-13.4544
fka	-13.4558
▁aldo	-13.4562
▁sent	-13.4587
▁nilgü	-13.4595
▁araf	-13.4596
▁eza	-13.4609
▁caferc	-13.4616
zak	-13.462
▁uçurma	-13.4622
▁fund	-13.4624
▁canta	-13.4626
▁hiza	-13.4635
atri	-13.4637
raw	-13.4637
gra	-13.4652
▁fury	-13.4655
pr	-13.4663
pil	-13.4666
▁habi	-13.4668
▁lucie	-13.4668
▁kitabi	-13.4669
▁anlatma	-13.4678
esif	-13.4678
▁marin	-13.4684
cta	-13.4691
kulaç	-13.4693
▁pale	-13.47
ura	-13.471
efeld	-13.4711
liklar	-13.4713
▁flu	-13.4715
mberg	-13.4716
▁yürüy	-13.4717
▁desti	-13.4726
▁nez	-13.473
nek	-13.4733
dite	-13.4738
emeyen	-13.4741
cent	-13.4743
emu	-13.4746
happ	-13.4747
▁satışı	-13.4751
boz	-13.4754
▁katıl	-13.4755
obo	-13.4758
▁piazz	-13.4761
▁faso	-13.4765
▁isti	-13.4769
kh	-13.4778
rot	-13.478
ippo	-13.4782
▁ramo	-13.4784
alay	-13.479
▁yav	-13.4794
diyan	-13.4819
554	-13.4825
ense	-13.4825
▁başmü	-13.4832
234	-13.4842
▁ınstag	-13.4843
ayran	-13.4852
▁cad	-13.4852
able	-13.4869
beli	-13.4872
cky	-13.4873
▁kaydedil	-13.4881
▁heli	-13.4888
inat	-13.4897
▁shara	-13.4898
▁pedi	-13.4901
▁zen	-13.4909
burga	-13.4911
oç	-13.4927
rgın	-13.4928
lerimiz	-13.4938
etkilenme	-13.4942
▁usuller	-13.4949
övme	-13.4952
heid	-13.4959
▁tra	-13.4962
▁töreni	-13.4976
▁over	-13.4982
ekli	-13.4997
▁salağ	-13.4997
tomat	-13.4999
tf	-13.5001
▁balga	-13.5003
▁gide	-13.501
adon	-13.5017
arkoz	-13.5027
ault	-13.5036
▁mine	-13.5045
▁kristaller	-13.5048
kor	-13.5059
▁muttali	-13.5059
evik	-13.5062
421	-13.5076
▁nota	-13.5079
sıl	-13.5084
▁peren	-13.5084
▁vul	-13.5092
eyhan	-13.5092
417	-13.5104
▁sana	-13.5104
pc	-13.5107
henk	-13.5113
▁sigma	-13.5116
gh	-13.5118
pen	-13.512
▁spur	-13.5125
▁topu	-13.5127
frik	-13.5127
▁cemaatler	-13.5131
▁yone	-13.5133
lf	-13.5136
oyun	-13.5137
rland	-13.5139
▁sağlay	-13.5142
rkes	-13.5144
592	-13.5164
vans	-13.517
yara	-13.5171
▁citi	-13.5174
▁iliş	-13.5174
▁aidiy	-13.5179
yama	-13.5186
hale	-13.519
▁necro	-13.5192
müş	-13.5193
▁sebahat	-13.5199
346	-13.52
▁ihlalin	-13.5204
▁claudi	-13.5212
atoloji	-13.5229
chy	-13.5239
rth	-13.5242
cca	-13.5252
dom	-13.527
▁bayii	-13.5278
▁bloc	-13.529
▁ahh	-13.5291
ransa	-13.5301
▁mind	-13.5303
ansas	-13.5304
nzim	-13.5314
▁haşimoğ	-13.5315
▁etmis	-13.532
▁seyf	-13.533
wn	-13.5331
▁mili	-13.5339
▁buyu	-13.534
gevel	-13.5343
uğu	-13.5354
▁jane	-13.5355
▁mina	-13.5358
▁şubesi	-13.5359
▁kadi	-13.5369
deste	-13.5372
ırak	-13.5375
zle	-13.5377
119	-13.5378
celle	-13.538
ıc	-13.5382
▁og	-13.5385
▁579	-13.5391
dana	-13.5392
▁beau	-13.5403
▁tsky	-13.5406
uld	-13.5412
▁havuzbaş	-13.5414
▁blak	-13.5417
turk	-13.5422
▁633	-13.543
▁aven	-13.5436
▁hicr	-13.5436
fin	-13.5436
▁165	-13.5437
523	-13.5444
nci	-13.5447
ranger	-13.5452
▁altıpa	-13.5456
ranje	-13.5458
stir	-13.5458
ssio	-13.5467
▁ergü	-13.5473
ulu	-13.5479
çalı	-13.5481
apo	-13.5482
ritme	-13.5484
mfd	-13.549
▁zabk	-13.5491
▁taksitlendir	-13.55
▁ideali	-13.5503
▁giris	-13.5511
dep	-13.5513
idd	-13.5515
kta	-13.5517
▁tüze	-13.5521
ırılabil	-13.5521
zh	-13.5522
▁duraklam	-13.5528
▁çarptırılma	-13.5537
▁yeten	-13.5541
rzene	-13.5544
▁müteahhid	-13.5544
▁normalleştir	-13.5558
8829	-13.5564
nnem	-13.5574
sc	-13.5593
içe	-13.5597
eşitlen	-13.5603
▁döner	-13.5609
naf	-13.561
dell	-13.5611
▁arge	-13.5614
▁fahi	-13.5623
▁anali	-13.5629
▁caz	-13.5631
erno	-13.564
thu	-13.5651
▁eksil	-13.5655
okunu	-13.5663
ukuk	-13.5675
ğra	-13.5682
▁ampu	-13.5686
▁icer	-13.5691
▁aldan	-13.5695
▁ohi	-13.5698
263	-13.5698
rali	-13.5708
aybük	-13.5709
▁motors	-13.5711
özalt	-13.5723
▁grant	-13.5724
▁miral	-13.5728
orl	-13.5728
▁ahm	-13.5731
▁gözet	-13.5735
akla	-13.5744
▁unit	-13.5748
▁iett	-13.5758
spear	-13.5766
graf	-13.5769
▁ers	-13.5775
▁616	-13.578
▁çang	-13.5784
▁kont	-13.5789
aka	-13.5794
indir	-13.5796
umde	-13.5797
azir	-13.5797
omos	-13.5799
öp	-13.5804
▁koron	-13.5822
▁bütünle	-13.5831
dug	-13.5832
▁haşa	-13.5838
▁yüzdür	-13.5848
▁cikar	-13.5848
hnam	-13.5849
▁713	-13.5851
▁iştirakler	-13.5851
tevaz	-13.5856
▁652	-13.5869
zl	-13.5869
bunga	-13.5872
▁rui	-13.5873
kabin	-13.5873
ratio	-13.5874
▁önce	-13.5874
▁manas	-13.5877
▁anamu	-13.5889
▁sskd	-13.5892
▁ifa	-13.5898
▁flora	-13.5905
akaret	-13.5908
▁theo	-13.5912
sman	-13.5943
mony	-13.5953
lock	-13.5954
opo	-13.5955
hawa	-13.5961
▁abb	-13.5973
▁bagı	-13.5974
▁micha	-13.5978
stoni	-13.5982
▁dah	-13.5988
▁nemalan	-13.5996
382	-13.6019
▁mest	-13.602
▁gos	-13.6021
▁gecti	-13.6026
▁sho	-13.6027
▁kurşunlan	-13.6028
▁abdülha	-13.6032
fk	-13.6043
▁cell	-13.6046
▁yoklug	-13.6046
▁gülse	-13.6052
▁632	-13.6053
psi	-13.6058
373	-13.6076
▁gerçekleştir	-13.608
▁gözal	-13.608
▁epi	-13.6084
atif	-13.6085
▁291	-13.6085
aman	-13.6091
layabil	-13.6097
incil	-13.6101
025	-13.6107
▁turki	-13.6109
▁ironi	-13.6115
iski	-13.6129
rvan	-13.6142
▁bileş	-13.6148
▁kazanır	-13.6149
chau	-13.6156
▁kost	-13.6161
▁savaştığ	-13.6165
leb	-13.6169
ark	-13.6172
▁boral	-13.6177
essa	-13.6177
▁sakl	-13.6187
▁adlandır	-13.6195
▁tempe	-13.6207
▁vaad	-13.6208
▁listele	-13.6213
▁iyoniz	-13.6232
▁kuyrukluyıldızı	-13.6235
nomi	-13.6246
malde	-13.6251
▁hace	-13.6256
▁hell	-13.6263
▁teklifi	-13.6264
▁harbo	-13.6265
muk	-13.6285
pro	-13.6286
olat	-13.6288
gev	-13.629
▁muhas	-13.6307
▁basin	-13.6308
▁489	-13.631
tropik	-13.631
silo	-13.6311
vaziye	-13.6313
▁ertun	-13.632
keş	-13.632
▁volo	-13.6333
▁muse	-13.6339
▁ök	-13.634
▁bede	-13.6341
sabet	-13.6352
▁galli	-13.6363
koli	-13.6371
▁bilic	-13.6379
erhard	-13.6383
lowe	-13.6384
stur	-13.6386
iva	-13.639
ins	-13.6391
▁tom	-13.6396
bam	-13.6412
▁libert	-13.6439
sol	-13.6453
ndirirk	-13.6461
nga	-13.6467
▁apa	-13.6468
▁vu	-13.6471
iy	-13.6472
kıt	-13.648
307	-13.648
▁wh	-13.6481
▁469	-13.6481
▁perç	-13.6483
▁kemalde	-13.6487
garo	-13.6494
lah	-13.65
obra	-13.6501
hari	-13.6503
▁wil	-13.6505
▁kaplumbağalar	-13.6517
ekte	-13.6521
▁püf	-13.6523
▁yalanlan	-13.6538
▁mera	-13.6545
▁515	-13.6549
▁müda	-13.6556
▁kullanila	-13.6561
▁kundu	-13.659
▁roberts	-13.6618
▁447	-13.662
582	-13.6621
tri	-13.663
▁ertu	-13.6643
▁özkay	-13.6644
▁alışı	-13.6644
vle	-13.6659
▁biles	-13.6666
▁sapa	-13.6672
tat	-13.6681
▁pac	-13.6692
sula	-13.6693
▁yerleştiril	-13.6699
▁batık	-13.6714
▁kuç	-13.672
uel	-13.6723
▁soul	-13.6729
▁vog	-13.6729
▁eng	-13.673
pac	-13.6732
tions	-13.6752
▁mes	-13.6753
▁subs	-13.6755
cıları	-13.6755
caz	-13.6759
toz	-13.676
▁forg	-13.6763
▁basbak	-13.6768
▁848	-13.678
ustin	-13.6786
▁erbak	-13.68
yf	-13.6801
ilan	-13.6806
737	-13.6807
▁konumland	-13.6807
aslan	-13.6823
mok	-13.6832
tarhan	-13.6835
cc	-13.6861
enme	-13.6867
▁konso	-13.6877
örü	-13.6887
▁usa	-13.6889
seki	-13.6897
care	-13.69
ndır	-13.6909
▁eğri	-13.6909
ppi	-13.6912
▁cunt	-13.6914
fal	-13.6922
▁reg	-13.6923
▁crist	-13.6924
temi	-13.6928
yg	-13.6937
tüd	-13.6963
▁frie	-13.6965
alaban	-13.697
▁affede	-13.6972
sack	-13.6975
igi	-13.6987
sio	-13.6995
▁lenin	-13.6995
para	-13.6997
▁cenev	-13.6998
▁demirka	-13.7
▁kokl	-13.7001
▁alka	-13.7005
sırt	-13.7015
▁manta	-13.7021
▁elektr	-13.7025
▁pim	-13.7028
▁raci	-13.7045
▁159	-13.7048
▁kocasi	-13.705
▁sunabil	-13.7052
▁nerd	-13.7057
hta	-13.7062
rc	-13.707
▁637	-13.7073
▁dora	-13.7083
forge	-13.7089
▁zahir	-13.711
vur	-13.711
rap	-13.7115
tego	-13.7121
▁itha	-13.7121
▁vejet	-13.7121
rü	-13.7124
▁meze	-13.7129
ayken	-13.713
▁glad	-13.7135
▁modernleştir	-13.7137
anov	-13.7139
▁atti	-13.7144
▁bağı	-13.7146
▁onu	-13.7157
fred	-13.7165
ucci	-13.7165
sken	-13.7171
çağ	-13.7173
rman	-13.7173
▁fort	-13.7176
▁kirma	-13.7184
▁mamul	-13.7189
lid	-13.7191
▁manson	-13.7198
gne	-13.72
raf	-13.7202
▁melah	-13.7204
vier	-13.7207
▁845	-13.7211
ow	-13.7212
▁marcel	-13.7216
orts	-13.7217
opya	-13.7221
▁röt	-13.7225
şad	-13.7226
tarı	-13.7227
▁meşrulaş	-13.7227
ecker	-13.7235
▁zeyi	-13.7236
anlari	-13.7249
▁fpd	-13.7254
ttır	-13.7255
▁meto	-13.7257
abri	-13.726
▁böbr	-13.727
wi	-13.7275
meye	-13.7276
▁aster	-13.7276
▁semi	-13.7284
şti	-13.729
▁telefer	-13.729
▁creat	-13.7295
yoterapi	-13.7315
cut	-13.7319
boc	-13.7328
▁653	-13.7331
piy	-13.7331
▁jes	-13.7332
media	-13.7337
mir	-13.734
▁euros	-13.734
göçm	-13.734
eym	-13.7349
atta	-13.7349
▁atka	-13.7354
huk	-13.7357
german	-13.7358
▁zulmü	-13.7392
uzu	-13.7392
▁193	-13.7393
ode	-13.7395
eniş	-13.7398
sö	-13.7401
broke	-13.7402
house	-13.7403
rıza	-13.7406
▁parme	-13.7406
zmann	-13.7406
▁sula	-13.7407
labora	-13.7408
▁mavişeh	-13.7413
ceva	-13.742
tesis	-13.7429
▁rup	-13.7429
vıd	-13.7433
oc	-13.7435
▁meliha	-13.744
▁sosyalleş	-13.744
▁gans	-13.7441
▁yalçınka	-13.7443
koreograf	-13.7447
andro	-13.7447
ashin	-13.7453
frey	-13.7456
senkron	-13.7463
kışla	-13.7466
carp	-13.747
astopo	-13.747
merkez	-13.7472
armut	-13.7473
391	-13.7476
büyük	-13.7479
söğüt	-13.7479
rasmus	-13.7479
skeç	-13.7481
beck	-13.7484
heart	-13.7487
holland	-13.7488
guven	-13.7491
sebat	-13.7492
çeşitli	-13.7494
news	-13.7494
basket	-13.7497
devlet	-13.75
meşru	-13.7501
traktör	-13.7501
born	-13.7502
hazır	-13.7502
hüsr	-13.7503
mehmet	-13.7503
elmas	-13.7503
alt	-13.7503
beyaz	-13.7504
çarşı	-13.7504
gönül	-13.7504
boyut	-13.7505
bayram	-13.7505
beyazı	-13.7506
balon	-13.7506
ntez	-13.7506
siyah	-13.7508
2006	-13.7508
resmi	-13.751
getir	-13.7513
yeşil	-13.7514
boğa	-13.7514
comm	-13.7516
eleştiri	-13.7517
aha	-13.7519
harca	-13.7524
emre	-13.7524
▁somutlaş	-13.7525
lir	-13.7525
güzel	-13.7526
fır	-13.7527
pirin	-13.7527
663	-13.7529
ekşi	-13.7532
kabiliyet	-13.7537
▁blu	-13.7539
devir	-13.7539
çukur	-13.7542
teknik	-13.7543
zic	-13.7543
esen	-13.7545
plat	-13.7545
polat	-13.7546
ebbi	-13.7546
sama	-13.755
dergi	-13.7555
spot	-13.7557
manyeti	-13.7557
▁stu	-13.7558
▁kıyas	-13.7558
matik	-13.756
▁beg	-13.7561
amoz	-13.7562
▁sabu	-13.7566
▁kanyıl	-13.7568
best	-13.7569
graph	-13.7572
ografi	-13.7572
ülben	-13.7573
▁kalsay	-13.7575
246	-13.7575
salak	-13.7576
panik	-13.7579
mod	-13.7579
▁karistir	-13.758
▁ziy	-13.7581
davut	-13.7588
post	-13.7589
▁yumrukla	-13.759
enj	-13.759
▁havalandır	-13.7601
yong	-13.7603
ario	-13.7603
tto	-13.7605
spanyol	-13.761
nto	-13.7614
gör	-13.7614
sarı	-13.7615
▁ohh	-13.7616
vb	-13.7617
▁iht	-13.7617
flor	-13.7621
▁corn	-13.7622
▁hara	-13.7622
seyya	-13.7625
srail	-13.7629
▁oluştur	-13.7636
olur	-13.7637
saw	-13.7639
genel	-13.7642
reis	-13.7645
▁153	-13.7645
dünya	-13.7648
▁abad	-13.7649
bov	-13.766
▁ferah	-13.766
▁publi	-13.7664
hite	-13.7664
▁sams	-13.7664
fendi	-13.7665
▁çınla	-13.767
▁gururlan	-13.7672
▁572	-13.7682
▁küçükçi	-13.7685
▁355	-13.7687
▁gust	-13.7692
▁sayi	-13.7693
stone	-13.7699
onso	-13.7699
mud	-13.7703
▁kalıt	-13.7704
▁sonuçlandır	-13.7705
annis	-13.7705
ırtı	-13.7708
▁271	-13.7708
lıkoy	-13.7708
kım	-13.7708
▁tonla	-13.7708
sih	-13.7709
▁archi	-13.771
mou	-13.771
und	-13.7712
▁kamb	-13.7713
▁özetl	-13.7717
verilme	-13.7718
▁244	-13.772
▁philip	-13.7722
ttigi	-13.7724
hva	-13.773
ariou	-13.7731
▁bürü	-13.7733
▁negr	-13.7734
59	-13.7734
chine	-13.7735
▁şahlan	-13.7736
▁silva	-13.7736
less	-13.7737
rel	-13.7738
evkii	-13.7739
▁yaklasi	-13.774
ira	-13.7749
anish	-13.775
magn	-13.775
▁kapitali	-13.7752
orduspo	-13.7753
bilims	-13.7754
etti	-13.7757
eltil	-13.7759
▁diplo	-13.776
▁cemaatle	-13.7761
▁hasa	-13.7764
1938	-13.7765
▁seyh	-13.7766
burn	-13.777
kaçak	-13.7773
▁başrolü	-13.7774
▁gecir	-13.7775
diklari	-13.7775
▁cho	-13.7776
ıldı	-13.7777
hhi	-13.7777
merika	-13.7778
▁mahve	-13.7778
fb	-13.778
leştiril	-13.7781
▁gab	-13.7782
ovuştur	-13.7784
▁çırp	-13.7786
tım	-13.7786
▁anıms	-13.7787
eramo	-13.7787
ürülme	-13.7788
▁mevcu	-13.7792
▁istatis	-13.7792
▁ödüllendir	-13.7793
▁tercüm	-13.7794
yecek	-13.7794
▁kuvv	-13.7796
▁ciha	-13.7797
▁clint	-13.7798
▁mücade	-13.7799
aracas	-13.78
fire	-13.78
▁mahke	-13.78
▁paleo	-13.78
ağrısı	-13.7801
orgio	-13.7801
▁uluslara	-13.7801
▁greg	-13.7801
rgile	-13.7801
yacagi	-13.7801
▁diyarbak	-13.7802
iechtenstei	-13.7802
▁chrıstı	-13.7802
▁mütehass	-13.7802
▁pıhtı	-13.7802
ameradschaft	-13.7802
hattisgarh	-13.7802
jsdk	-13.7802
llustrated	-13.7802
mysteryguitarman	-13.7802
uffington	-13.7802
undertwasse	-13.7802
▁aerials	-13.7802
▁baslangic	-13.7802
▁beklersiii	-13.7802
▁besiktas	-13.7802
▁chamakh	-13.7802
▁debussy	-13.7802
▁ehrenreich	-13.7802
▁encyclopedia	-13.7802
▁essential	-13.7802
▁hetero	-13.7802
▁hiyerarşi	-13.7802
▁insiyatif	-13.7802
▁iskandinav	-13.7802
▁karlsruhe	-13.7802
▁karsilastir	-13.7802
▁kilovatsaat	-13.7802
▁kolesterol	-13.7802
▁konfigürasyon	-13.7802
▁koscielny	-13.7802
▁lacoste	-13.7802
▁lafferty	-13.7802
▁livçalkan	-13.7802
▁mathijs	-13.7802
▁mesopotamia	-13.7802
▁mikrobiyoloji	-13.7802
▁noblemaster	-13.7802
▁ortopedi	-13.7802
▁ottomans	-13.7802
▁perfect	-13.7802
▁photograph	-13.7802
▁radiohead	-13.7802
▁redmayne	-13.7802
▁seattle	-13.7802
▁shuttlewort	-13.7802
▁spielberg	-13.7802
▁sputniknews	-13.7802
▁suiistimal	-13.7802
▁çemkir	-13.7802
▁ıffhs	-13.7802
▁august	-13.7802
▁goygo	-13.7802
▁medicine	-13.7802
▁spitfire	-13.7802
▁zidane	-13.7802
▁anastasia	-13.7802
▁apparel	-13.7802
▁dumbledore	-13.7802
▁gabashvi	-13.7802
▁iltihab	-13.7802
▁miyavl	-13.7802
▁müteşekki	-13.7802
▁poseido	-13.7802
onderful	-13.7802
rchaeolog	-13.7802
▁economi	-13.7802
▁şipşak	-13.7802
▁sevkıyat	-13.7802
▁çirkef	-13.7802
imberwolves	-13.7802
ntertainment	-13.7802
şsavcıvekilliğin	-13.7802
▁angajman	-13.7802
▁comedy	-13.7802
▁kiyaslan	-13.7802
▁middle	-13.7802
▁mükafat	-13.7802
▁origin	-13.7802
▁sondheim	-13.7802
▁tyçp	-13.7802
oteknoloji	-13.7802
▁lağvedil	-13.7802
▁tgrt	-13.7802
▁kaldirdigi	-13.7802
▁cnnturk	-13.7802
▁giuli	-13.7802
▁hsbc	-13.7802
▁gerzek	-13.7802
▁sukretme	-13.7802
▁havalalan	-13.7802
▁billions	-13.7802
▁steriliz	-13.7802
▁önesür	-13.7802
▁margret	-13.7802
▁bilmiyo	-13.7802
▁mahpus	-13.7802
▁ntvmsnbc	-13.7802
▁officer	-13.7802
uuuu	-13.7802
▁milija	-13.7802
▁pitbul	-13.7802
▁advance	-13.7802
▁memoir	-13.7802
▁region	-13.7802
olfsburg	-13.7802
▁anjeli	-13.7802
▁guild	-13.7802
▁yadırga	-13.7802
▁karaibrahi	-13.7802
▁wind	-13.7802
▁ıkyb	-13.7802
▁büşük	-13.7802
▁ölümsüzleştiril	-13.7802
▁deschamp	-13.7802
▁mülenj	-13.7802
▁destancilar	-13.7802
hammed	-13.7802
▁bunalt	-13.7802
▁megafon	-13.7802
▁shock	-13.7802
▁yaklasa	-13.7802
▁degistir	-13.7802
▁ufrs	-13.7802
connor	-13.7802
▁arcnin	-13.7802
▁carell	-13.7802
▁gorundugu	-13.7802
lokom	-13.7802
▁karambol	-13.7802
▁created	-13.7803
▁müdavi	-13.7803
▁öldül	-13.7803
▁gozyaslari	-13.7803
ilverstone	-13.7803
▁imparto	-13.7803
▁talbot	-13.7803
▁research	-13.7803
▁fsb	-13.7803
▁vosvo	-13.7803
church	-13.7803
▁ikbal	-13.7803
▁universe	-13.7803
▁antropolo	-13.7803
▁celalabad	-13.7803
▁fıkhi	-13.7803
asagı	-13.7803
▁omru	-13.7803
▁rogge	-13.7803
▁abdulhali	-13.7803
lcula	-13.7803
▁köste	-13.7803
▁bahşi	-13.7803
nformation	-13.7803
▁tokuştur	-13.7803
▁credit	-13.7803
▁histor	-13.7803
▁manipül	-13.7803
▁asagi	-13.7803
▁dojo	-13.7803
▁selüloz	-13.7803
▁almamasi	-13.7803
▁vakum	-13.7803
▁külliye	-13.7803
▁diebler	-13.7803
▁ancolet	-13.7803
▁zümrüt	-13.7803
▁ebyon	-13.7803
▁müpte	-13.7804
▁aristo	-13.7804
▁sansasyon	-13.7804
▁kfar	-13.7804
▁nerdey	-13.7804
▁sylv	-13.7804
oplast	-13.7804
▁frui	-13.7804
▁saflaştırıl	-13.7804
inslet	-13.7804
▁ghost	-13.7804
▁ızdıra	-13.7804
▁etemo	-13.7804
▁zeig	-13.7804
ooij	-13.7804
▁dionys	-13.7804
▁kuskon	-13.7804
▁gormus	-13.7804
tribü	-13.7804
▁vitor	-13.7805
▁tribu	-13.7805
▁kanserojen	-13.7805
reich	-13.7805
▁burkeü	-13.7805
▁fiore	-13.7805
▁tourne	-13.7805
▁bytes	-13.7805
▁velhasıl	-13.7805
▁agzin	-13.7806
imnasti	-13.7806
▁messag	-13.7806
▁thayet	-13.7806
▁paragraf	-13.7806
coşk	-13.7806
▁dmc	-13.7806
▁avuç	-13.7806
own	-13.7806
▁centerda	-13.7807
▁kırbaç	-13.7807
hots	-13.7807
▁çeltik	-13.7807
▁1844	-13.7807
attens	-13.7807
▁küsür	-13.7807
▁basvur	-13.7807
cture	-13.7808
▁varoluş	-13.7808
▁baykuş	-13.7808
▁deoksi	-13.7808
▁nichols	-13.7808
▁brassica	-13.7808
▁folikü	-13.7808
▁markul	-13.7808
▁yapsaydı	-13.7808
aşbakan	-13.7808
▁calisil	-13.7809
ibery	-13.7809
▁rogusk	-13.7809
▁bebbe	-13.7809
▁isyük	-13.7809
▁moodys	-13.7809
▁rızk	-13.7809
▁adl	-13.7809
lenebilir	-13.7809
▁soylendig	-13.7809
▁8440	-13.7809
zhen	-13.7809
▁8280	-13.7809
▁voji	-13.781
lunt	-13.781
▁heath	-13.781
msnbc	-13.781
▁visit	-13.781
chny	-13.781
fedil	-13.781
ştururke	-13.781
▁anlattigi	-13.781
▁öğr	-13.781
▁baglan	-13.781
rıyet	-13.7811
▁makaron	-13.7811
▁ayagi	-13.7811
coast	-13.7811
▁durdurmas	-13.7811
▁himala	-13.7811
▁dusunce	-13.7812
▁yafta	-13.7812
▁kesfetme	-13.7812
▁mona	-13.7812
▁bedrett	-13.7813
▁lovett	-13.7813
▁reisül	-13.7813
▁ricard	-13.7813
▁yasalaştırıl	-13.7814
lternatifbank	-13.7814
▁gerceklesm	-13.7814
▁tartisma	-13.7814
▁gutier	-13.7815
mayacağı	-13.7815
▁josh	-13.7815
sefer	-13.7815
▁sümük	-13.7816
▁kulubü	-13.7816
▁özdeşleştir	-13.7816
osamin	-13.7817
herb	-13.7818
▁ınvestor	-13.7818
▁beppe	-13.7818
▁1913	-13.7818
otest	-13.7818
▁ikame	-13.7818
▁tesvi	-13.7818
▁yarisma	-13.7818
▁felici	-13.7818
▁griez	-13.7819
edens	-13.7819
fotoğrafseverler	-13.7819
anayi	-13.782
▁cakallik	-13.782
▁liberaller	-13.782
efacto	-13.782
ethiye	-13.782
▁epine	-13.782
▁efektif	-13.782
▁kaoti	-13.782
▁hemoro	-13.782
▁ahah	-13.7821
oşku	-13.7821
mamiz	-13.7821
▁prob	-13.7821
uiat	-13.7822
▁darbo	-13.7822
lastigi	-13.7822
▁betty	-13.7822
▁sbeyn	-13.7822
▁varo	-13.7822
boğaz	-13.7822
wo	-13.7823
mayacagi	-13.7823
▁metropolit	-13.7823
▁1364	-13.7823
▁öldür	-13.7823
dukte	-13.7823
▁act	-13.7823
▁korkmaz	-13.7823
▁messen	-13.7823
rcis	-13.7823
▁sarfed	-13.7824
▁şarık	-13.7824
▁sömürgeleştir	-13.7824
esley	-13.7824
▁firuz	-13.7825
9594	-13.7825
▁feyzi	-13.7826
▁panpa	-13.7826
▁frances	-13.7826
▁vij	-13.7826
▁pho	-13.7826
▁rampaları	-13.7826
umseme	-13.7826
lington	-13.7826
yuvar	-13.7827
▁kaydol	-13.7827
şekkü	-13.7827
▁çuku	-13.7828
mşir	-13.7828
▁mummy	-13.7828
▁kuvvetlendir	-13.7828
▁teenagerl	-13.7828
▁kaybedilme	-13.7828
memez	-13.7829
▁cerahat	-13.7829
▁ready	-13.7829
▁hiro	-13.7829
▁metabolif	-13.783
▁stru	-13.783
▁paint	-13.7831
tasavv	-13.7831
▁kondens	-13.7831
▁corap	-13.7831
▁mutfagi	-13.7831
mlendiri	-13.7832
▁zamanaşım	-13.7832
▁evlenebil	-13.7832
▁farkettir	-13.7832
▁mihr	-13.7833
stov	-13.7833
osko	-13.7833
▁ipadler	-13.7834
▁zikre	-13.7834
▁zaim	-13.7834
cilig	-13.7835
▁çorak	-13.7835
▁çıkartı	-13.7835
▁yerçek	-13.7835
▁peçe	-13.7836
▁ugrasi	-13.7836
▁davrani	-13.7837
▁homer	-13.7837
owa	-13.7837
nikov	-13.7837
▁aleksi	-13.7839
▁sosyop	-13.7839
▁geçirile	-13.7839
▁tırnak	-13.7839
▁donatı	-13.7839
▁625	-13.784
▁yaptırmay	-13.784
▁ertüre	-13.7841
▁brahm	-13.7841
▁tribi	-13.7841
ermes	-13.7841
▁empri	-13.7841
briy	-13.7842
▁2025	-13.7842
▁ballık	-13.7843
egalo	-13.7843
▁recap	-13.7843
▁yudum	-13.7844
ephali	-13.7844
▁vaiz	-13.7844
▁tapdk	-13.7844
tof	-13.7845
▁817	-13.7845
▁dtk	-13.7846
▁buzdolap	-13.7846
▁funda	-13.7846
▁kordonboy	-13.7847
▁masca	-13.7847
▁afro	-13.7848
▁gelistirme	-13.7848
ezza	-13.7848
▁fantazi	-13.7848
▁sorumlu	-13.7848
▁tenezz	-13.7848
▁yargi	-13.7848
▁803	-13.7849
▁minne	-13.7849
▁pornografi	-13.7851
▁kudur	-13.7851
▁erdow	-13.7852
asina	-13.7852
▁cevş	-13.7853
▁yeşilbay	-13.7853
▁1160	-13.7853
▁gulu	-13.7853
ohus	-13.7854
lomo	-13.7854
▁1487	-13.7854
şrolün	-13.7855
3851	-13.7855
aghi	-13.7856
▁ayas	-13.7856
▁miksaj	-13.7857
▁sambu	-13.7857
▁arsev	-13.7857
▁kolonya	-13.7858
▁elektör	-13.7858
▁abdel	-13.7859
▁zach	-13.7859
▁çömel	-13.7859
▁havel	-13.7859
▁ispiyonlan	-13.7861
▁aheng	-13.7861
▁239	-13.7861
▁enfla	-13.7861
ikal	-13.7862
▁rençb	-13.7862
▁brun	-13.7863
▁farkedil	-13.7863
▁829	-13.7864
▁kocabaş	-13.7865
▁classic	-13.7866
▁müsey	-13.7867
▁alınter	-13.7867
▁stroe	-13.7869
▁827	-13.7869
▁tacir	-13.7869
▁istiyor	-13.7869
▁duzenle	-13.7869
emezk	-13.787
▁gayrimenkulleri	-13.787
▁mitter	-13.7871
▁jön	-13.7871
▁mobu	-13.7871
▁calv	-13.7871
▁822	-13.7871
▁gianni	-13.7872
▁duymus	-13.7872
▁müft	-13.7872
wey	-13.7873
▁resur	-13.7873
ebiliyor	-13.7874
▁853	-13.7876
▁işimız	-13.7876
▁duyums	-13.7877
▁830	-13.7878
sander	-13.7878
▁hod	-13.7878
▁awake	-13.7879
▁nutuk	-13.7879
▁cold	-13.7879
▁hışı	-13.7879
▁schreb	-13.788
▁konusma	-13.788
ob	-13.788
▁kaklı	-13.7881
▁özbu	-13.7884
▁hatirlat	-13.7884
▁trac	-13.7884
▁cektir	-13.7885
danırke	-13.7885
nsbur	-13.7886
▁hader	-13.7886
▁calisma	-13.7887
▁mareşal	-13.7887
tesekk	-13.7888
▁fonksiyonlarin	-13.7889
▁evlendi	-13.7889
dine	-13.7889
noch	-13.789
▁conco	-13.789
▁zırt	-13.7891
▁aralarinda	-13.7891
adağı	-13.7891
▁agac	-13.7892
▁conce	-13.7892
ırklarelispor	-13.7892
▁kıp	-13.7892
▁gand	-13.7893
▁ugra	-13.7893
▁simeon	-13.7893
kovsky	-13.7894
▁thurm	-13.7895
▁reşa	-13.7896
▁train	-13.7897
pancar	-13.7898
▁rumeli	-13.7899
[...]
