<pad>	0
<unk>	0
<s>	0
</s>	0
<0x00>	0
<0x01>	0
<0x02>	0
<0x03>	0
<0x04>	0
<0x05>	0
<0x06>	0
<0x07>	0
<0x08>	0
<0x09>	0
<0x0A>	0
<0x0B>	0
<0x0C>	0
<0x0D>	0
<0x0E>	0
<0x0F>	0
<0x10>	0
<0x11>	0
<0x12>	0
<0x13>	0
<0x14>	0
<0x15>	0
<0x16>	0
<0x17>	0
<0x18>	0
<0x19>	0
<0x1A>	0
<0x1B>	0
<0x1C>	0
<0x1D>	0
<0x1E>	0
<0x1F>	0
<0x20>	0
<0x21>	0
<0x22>	0
<0x23>	0
<0x24>	0
<0x25>	0
<0x26>	0
<0x27>	0
<0x28>	0
<0x29>	0
<0x2A>	0
<0x2B>	0
<0x2C>	0
<0x2D>	0
<0x2E>	0
<0x2F>	0
<0x30>	0
<0x31>	0
<0x32>	0
<0x33>	0
<0x34>	0
<0x35>	0
<0x36>	0
<0x37>	0
<0x38>	0
<0x39>	0
<0x3A>	0
<0x3B>	0
<0x3C>	0
<0x3D>	0
<0x3E>	0
<0x3F>	0
<0x40>	0
<0x41>	0
<0x42>	0
<0x43>	0
<0x44>	0
<0x45>	0
<0x46>	0
<0x47>	0
<0x48>	0
<0x49>	0
<0x4A>	0
<0x4B>	0
<0x4C>	0
<0x4D>	0
<0x4E>	0
<0x4F>	0
<0x50>	0
<0x51>	0
<0x52>	0
<0x53>	0
<0x54>	0
<0x55>	0
<0x56>	0
<0x57>	0
<0x58>	0
<0x59>	0
<0x5A>	0
<0x5B>	0
<0x5C>	0
<0x5D>	0
<0x5E>	0
<0x5F>	0
<0x60>	0
<0x61>	0
<0x62>	0
<0x63>	0
<0x64>	0
<0x65>	0
<0x66>	0
<0x67>	0
<0x68>	0
<0x69>	0
<0x6A>	0
<0x6B>	0
<0x6C>	0
<0x6D>	0
<0x6E>	0
<0x6F>	0
<0x70>	0
<0x71>	0
<0x72>	0
<0x73>	0
<0x74>	0
<0x75>	0
<0x76>	0
<0x77>	0
<0x78>	0
<0x79>	0
<0x7A>	0
<0x7B>	0
<0x7C>	0
<0x7D>	0
<0x7E>	0
<0x7F>	0
<0x80>	0
<0x81>	0
<0x82>	0
<0x83>	0
<0x84>	0
<0x85>	0
<0x86>	0
<0x87>	0
<0x88>	0
<0x89>	0
<0x8A>	0
<0x8B>	0
<0x8C>	0
<0x8D>	0
<0x8E>	0
<0x8F>	0
<0x90>	0
<0x91>	0
<0x92>	0
<0x93>	0
<0x94>	0
<0x95>	0
<0x96>	0
<0x97>	0
<0x98>	0
<0x99>	0
<0x9A>	0
<0x9B>	0
<0x9C>	0
<0x9D>	0
<0x9E>	0
<0x9F>	0
<0xA0>	0
<0xA1>	0
<0xA2>	0
<0xA3>	0
<0xA4>	0
<0xA5>	0
<0xA6>	0
<0xA7>	0
<0xA8>	0
<0xA9>	0
<0xAA>	0
<0xAB>	0
<0xAC>	0
<0xAD>	0
<0xAE>	0
<0xAF>	0
<0xB0>	0
<0xB1>	0
<0xB2>	0
<0xB3>	0
<0xB4>	0
<0xB5>	0
<0xB6>	0
<0xB7>	0
<0xB8>	0
<0xB9>	0
<0xBA>	0
<0xBB>	0
<0xBC>	0
<0xBD>	0
<0xBE>	0
<0xBF>	0
<0xC0>	0
<0xC1>	0
<0xC2>	0
<0xC3>	0
<0xC4>	0
<0xC5>	0
<0xC6>	0
<0xC7>	0
<0xC8>	0
<0xC9>	0
<0xCA>	0
<0xCB>	0
<0xCC>	0
<0xCD>	0
<0xCE>	0
<0xCF>	0
<0xD0>	0
<0xD1>	0
<0xD2>	0
<0xD3>	0
<0xD4>	0
<0xD5>	0
<0xD6>	0
<0xD7>	0
<0xD8>	0
<0xD9>	0
<0xDA>	0
<0xDB>	0
<0xDC>	0
<0xDD>	0
<0xDE>	0
<0xDF>	0
<0xE0>	0
<0xE1>	0
<0xE2>	0
<0xE3>	0
<0xE4>	0
<0xE5>	0
<0xE6>	0
<0xE7>	0
<0xE8>	0
<0xE9>	0
<0xEA>	0
<0xEB>	0
<0xEC>	0
<0xED>	0
<0xEE>	0
<0xEF>	0
<0xF0>	0
<0xF1>	0
<0xF2>	0
<0xF3>	0
<0xF4>	0
<0xF5>	0
<0xF6>	0
<0xF7>	0
<0xF8>	0
<0xF9>	0
<0xFA>	0
<0xFB>	0
<0xFC>	0
<0xFD>	0
<0xFE>	0
<0xFF>	0
▁	-3.41895
▁ı	-3.81938
▁i	-3.97501
▁e	-4.3468
▁de	-4.47583
▁da	-4.52791
▁a	-4.5625
▁lar	-4.60034
▁ve	-4.61656
▁n	-4.63008
▁si	-4.6863
▁ol	-4.69663
▁in	-4.71536
▁ler	-4.71631
▁sı	-4.73349
▁bir	-4.74243
▁ma	-4.75497
▁an	-4.77849
▁ları	-4.78278
▁di	-4.82535
▁m	-4.8461
▁u	-4.85963
▁leri	-4.90606
▁en	-4.90618
▁nda	-4.92952
▁il	-4.95908
▁ın	-5.03711
▁nı	-5.08266
n	-5.2074
▁bu	-5.20904
▁nde	-5.22149
▁nin	-5.2592
▁ne	-5.26175
▁dı	-5.28777
▁ni	-5.31131
▁ki	-5.37986
▁me	-5.41691
▁yap	-5.43195
▁ü	-5.4563
▁na	-5.49669
▁ıl	-5.50635
▁iç	-5.55169
i	-5.56885
▁li	-5.5798
▁t	-5.60742
k	-5.64745
▁al	-5.66613
▁ye	-5.67043
▁ya	-5.6792
▁lı	-5.76248
nın	-5.78353
▁un	-5.81813
▁ed	-5.8501
▁lik	-5.8629
▁ndan	-5.88052
▁iyor	-5.95348
▁ti	-5.95541
▁den	-5.967
▁arak	-5.96947
a	-5.99271
duğ	-6.0327
▁lık	-6.04419
e	-6.04431
▁nu	-6.04941
dığ	-6.06018
▁ver	-6.06532
▁et	-6.09795
▁yıl	-6.09875
▁diğ	-6.10626
▁la	-6.12455
▁dan	-6.14513
▁mak	-6.16468
▁gel	-6.16624
▁yan	-6.16897
t	-6.17353
▁le	-6.1894
▁du	-6.20616
▁ce	-6.20736
▁im	-6.24736
▁tı	-6.24907
▁ta	-6.25291
▁te	-6.28598
▁su	-6.29035
▁bul	-6.29412
r	-6.29626
l	-6.3148
▁ıyor	-6.31796
▁ara	-6.34021
▁ön	-6.35047
▁yer	-6.35169
▁lu	-6.37049
▁ım	-6.37168
▁acak	-6.37677
▁gör	-6.37678
▁dir	-6.38739
▁çık	-6.41583
▁cı	-6.41923
▁um	-6.41959
▁iş	-6.42075
▁geç	-6.42787
▁mek	-6.45266
▁ir	-6.45627
ı	-6.4648
▁k	-6.46773
▁dır	-6.46907
ğ	-6.47345
▁çok	-6.48672
▁gün	-6.48934
▁yla	-6.51015
▁nden	-6.55711
▁ecek	-6.57807
▁çalış	-6.59585
▁daha	-6.59594
▁ci	-6.61156
▁bil	-6.62729
▁sonra	-6.6276
lığ	-6.62784
▁türkiye	-6.63045
▁mış	-6.64084
▁belir	-6.64205
▁o	-6.64355
▁başka	-6.65031
▁söyle	-6.65268
▁liğ	-6.6737
▁ar	-6.67469
▁üzer	-6.68783
▁yle	-6.69325
▁son	-6.69666
▁yi	-6.70264
m	-6.7386
▁is	-6.74903
▁ca	-6.75257
▁tir	-6.75445
▁miş	-6.75488
▁erek	-6.77945
▁cu	-6.78705
▁açıkla	-6.81058
tığ	-6.82372
▁kal	-6.82437
en	-6.82599
▁büyük	-6.82946
▁imiz	-6.84776
▁2	-6.84787
▁kendi	-6.85757
▁yüz	-6.85802
▁sa	-6.85877
▁karşı	-6.86151
▁her	-6.86935
▁var	-6.8705
▁yeni	-6.87963
s	-6.88649
▁er	-6.8887
▁konu	-6.89021
an	-6.89989
eceğ	-6.91375
▁gibi	-6.9173
▁ilk	-6.91879
▁yaşa	-6.92448
▁1	-6.92795
008	-6.9318
acağ	-6.93737
000	-6.94557
mız	-6.95217
▁kadar	-6.95622
▁konuş	-6.96437
▁yı	-6.96578
▁el	-6.96662
▁z	-6.97585
ma	-6.9774
▁iste	-6.98276
▁taraf	-6.98279
▁baş	-6.98604
▁uz	-6.9975
nun	-6.9976
▁3	-7.00032
▁kullan	-7.01638
▁ay	-7.01918
▁tır	-7.02454
▁ev	-7.02838
▁başla	-7.03276
▁kişi	-7.03334
▁biz	-7.03387
tiğ	-7.03885
▁bin	-7.03918
▁lan	-7.04559
u	-7.0513
▁d	-7.05178
▁yol	-7.08783
▁tu	-7.08813
▁ır	-7.09077
▁belediye	-7.10425
▁ben	-7.10639
▁ülke	-7.11784
▁gerek	-7.12005
▁yen	-7.12974
▁kat	-7.13375
▁ad	-7.13948
▁iki	-7.14053
▁tan	-7.15606
▁5	-7.16629
▁maç	-7.17819
▁ama	-7.17954
▁sür	-7.18809
▁türk	-7.19006
▁süre	-7.19804
▁bölge	-7.20982
▁dünya	-7.2187
▁çek	-7.22249
▁r	-7.229
▁zaman	-7.23209
▁alt	-7.23355
abil	-7.2359
▁bakan	-7.23705
si	-7.23939
▁özel	-7.24099
▁se	-7.24841
▁uyor	-7.25384
▁gir	-7.25571
▁siz	-7.26479
▁ifade	-7.27419
▁izmir	-7.27501
er	-7.27553
▁karar	-7.27806
▁orta	-7.2796
▁getir	-7.28768
▁söz	-7.29915
z	-7.30301
▁genel	-7.30505
▁iyi	-7.30673
▁yaş	-7.31243
▁ul	-7.31611
▁4	-7.31861
in	-7.31885
et	-7.32302
▁sıra	-7.32546
▁takım	-7.33144
at	-7.34455
▁dur	-7.34845
▁önem	-7.35
▁insan	-7.35235
li	-7.35808
▁düzenle	-7.37143
▁y	-7.38121
▁art	-7.38191
▁kadın	-7.38626
▁aç	-7.38993
▁başkan	-7.3918
p	-7.39291
▁göster	-7.39326
▁nü	-7.39623
y	-7.39977
▁ten	-7.40577
▁dü	-7.40775
▁ilgili	-7.40901
▁değil	-7.40999
▁kur	-7.41065
▁parti	-7.41091
ın	-7.41516
▁ard	-7.41641
▁sun	-7.41825
▁ilçe	-7.42698
▁tur	-7.4317
▁at	-7.44107
▁ül	-7.44544
▁durum	-7.44552
▁merkez	-7.45331
▁olay	-7.45781
▁sayı	-7.46436
iyet	-7.47014
▁dür	-7.47313
▁tüm	-7.48112
▁oyun	-7.48267
▁ün	-7.48767
▁tarih	-7.49087
▁b	-7.49359
me	-7.49363
▁müdür	-7.49426
▁istanbul	-7.49477
ancak	-7.4983
▁üyor	-7.50954
sı	-7.51248
▁milyon	-7.51999
▁dik	-7.52137
▁ak	-7.52809
▁görev	-7.52871
▁devam	-7.53004
▁s	-7.53487
▁anla	-7.53856
▁yok	-7.545
▁bak	-7.54728
▁çin	-7.54731
ya	-7.54862
lı	-7.55099
d	-7.56548
spor	-7.56709
▁devlet	-7.572
▁çocuk	-7.57344
▁güven	-7.59338
▁iz	-7.60531
▁hem	-7.6068
▁futbol	-7.60793
▁yaz	-7.61826
o	-7.62507
▁luk	-7.62676
▁yardım	-7.62755
▁sağla	-7.63287
▁çi	-7.63721
▁yönetim	-7.63727
▁ıp	-7.64503
▁ur	-7.64842
di	-7.65027
▁polis	-7.65039
▁10	-7.66234
▁kazan	-7.66722
▁dön	-7.66779
ye	-7.67042
▁ayrı	-7.67066
▁bugün	-7.67612
▁film	-7.68169
leri	-7.68418
lüğ	-7.68964
▁kent	-7.69047
▁hayat	-7.69877
▁düş	-7.70348
▁f	-7.71375
▁şey	-7.71989
▁diğer	-7.72064
▁üye	-7.72128
▁oyna	-7.72181
▁eş	-7.73286
le	-7.73614
▁gid	-7.73781
▁eğitim	-7.74115
▁6	-7.7413
▁asker	-7.74415
▁halk	-7.74447
▁muş	-7.74477
ş	-7.7465
un	-7.74788
▁leş	-7.75652
▁toplantı	-7.75682
▁aday	-7.75961
▁len	-7.76031
▁sız	-7.76058
▁düğ	-7.76192
▁hakkı	-7.7663
▁fark	-7.76631
▁yakın	-7.76671
▁aynı	-7.7683
▁gerçekleş	-7.7695
▁oluş	-7.78235
▁aile	-7.78308
▁dış	-7.78455
▁bilgi	-7.78824
▁haber	-7.79236
▁sor	-7.8065
▁lü	-7.80686
▁ip	-7.80858
▁öl	-7.81013
▁üniversite	-7.81336
ar	-7.81361
▁alan	-7.81414
▁daş	-7.81488
▁hafta	-7.8202
▁tek	-7.82759
▁topla	-7.82881
ç	-7.83197
▁başarı	-7.83278
▁vatan	-7.83685
▁böyle	-7.83869
▁öğrenci	-7.84041
▁sağ	-7.84582
▁7	-7.84789
▁g	-7.84958
▁proje	-7.85128
ün	-7.85208
oğ	-7.85503
▁göz	-7.85746
▁ankara	-7.86072
▁spor	-7.86082
▁seçim	-7.86111
▁ceza	-7.86466
▁mi	-7.86812
▁bura	-7.87586
▁hizmet	-7.8803
▁20	-7.88068
de	-7.88529
▁hava	-7.88576
▁kurul	-7.8898
▁genç	-7.89047
işki	-7.89229
▁bırak	-7.89285
▁sahip	-7.89372
▁hastane	-7.90035
▁üç	-7.90063
▁8	-7.90153
▁sen	-7.9074
▁saat	-7.91058
▁abd	-7.91482
ü	-7.91971
▁dil	-7.9199
man	-7.92141
ir	-7.92483
▁eski	-7.92488
▁kız	-7.92635
yle	-7.92734
▁üst	-7.9302
▁git	-7.93111
▁şekil	-7.93721
▁hak	-7.93861
▁yacak	-7.94307
▁gazete	-7.9446
▁avrupa	-7.94645
▁l	-7.95437
▁bekle	-7.95444
▁ist	-7.95676
▁yara	-7.9568
▁ekip	-7.9574
▁ulaş	-7.95937
▁miz	-7.96023
▁cü	-7.96108
▁savaş	-7.96188
▁ız	-7.9635
▁geliş	-7.96431
▁okul	-7.96458
bil	-7.96612
▁duk	-7.96714
▁arkadaş	-7.96955
▁adam	-7.97412
▁bazı	-7.97962
▁gül	-7.97997
▁fazla	-7.98118
▁san	-7.9838
▁başbakan	-7.98729
rken	-7.98927
▁deniz	-7.99233
▁tür	-7.99265
▁şu	-7.99346
▁bas	-7.99825
▁taşı	-8.00398
▁yüksek	-8.01108
▁düşün	-8.01392
▁sade	-8.01405
sel	-8.01879
▁sev	-8.02264
▁zor	-8.0239
▁yarı	-8.02721
men	-8.02957
▁mahkeme	-8.03167
▁lig	-8.03468
▁para	-8.0407
▁güzel	-8.04075
c	-8.04466
▁değiş	-8.04517
▁dün	-8.05002
▁soru	-8.05264
▁iddia	-8.05299
▁duy	-8.0542
▁lük	-8.05912
▁suriye	-8.06344
ığ	-8.06452
▁30	-8.06474
ları	-8.06999
▁dönem	-8.07457
▁ikinci	-8.07836
▁ziyaret	-8.08269
▁kez	-8.08309
▁sü	-8.08494
al	-8.08673
▁can	-8.08965
▁kim	-8.09424
ebil	-8.09679
laş	-8.10368
▁uzun	-8.10485
▁ekonomi	-8.10718
ce	-8.10886
▁mücadele	-8.11578
▁destek	-8.11684
▁tık	-8.11738
▁yetki	-8.11745
ği	-8.11764
▁grup	-8.12694
▁sistem	-8.12739
el	-8.13246
▁belirle	-8.14014
▁tut	-8.14044
▁on	-8.14108
▁ırak	-8.15175
da	-8.15328
lis	-8.15424
▁milli	-8.15435
▁teknik	-8.15751
▁kaç	-8.16452
▁çı	-8.16545
▁öz	-8.16994
▁kara	-8.1729
▁lira	-8.17313
▁gönder	-8.18133
▁sezon	-8.18322
▁dikkat	-8.18684
▁yazı	-8.18783
▁kaynak	-8.18796
▁açık	-8.18988
▁ali	-8.19135
▁şöyle	-8.19531
▁baba	-8.20383
▁şirket	-8.2039
▁amerika	-8.21222
▁öğren	-8.21284
▁doğru	-8.21397
▁hali	-8.2144
▁oku	-8.21518
▁veya	-8.21644
▁köy	-8.22045
▁gece	-8.22105
▁yaklaşık	-8.22516
▁bit	-8.22961
▁hükümet	-8.23032
▁oy	-8.23068
▁çe	-8.23125
▁üm	-8.23152
la	-8.23227
sal	-8.23274
▁suç	-8.23476
▁9	-8.23551
▁savun	-8.23873
▁öde	-8.23905
▁koru	-8.24058
▁araç	-8.24383
▁bütün	-8.2461
▁saldırı	-8.24637
▁16	-8.24795
▁meydan	-8.24813
▁mehmet	-8.24824
▁kar	-8.25212
il	-8.25301
luğ	-8.25344
▁cumhur	-8.2551
▁araştır	-8.25635
▁boy	-8.26495
▁19	-8.2688
▁koy	-8.27023
▁top	-8.27094
▁görüş	-8.27221
▁15	-8.27349
▁banka	-8.27723
▁hep	-8.27734
▁izle	-8.28036
▁dakika	-8.28187
ik	-8.28358
▁şim	-8.28599
▁çevre	-8.28707
▁dol	-8.28762
▁chp	-8.2886
yacağ	-8.28872
▁hareket	-8.2899
▁dava	-8.29144
▁yürü	-8.29683
▁bölüm	-8.29875
▁sonuç	-8.30475
▁sanat	-8.30621
▁12	-8.31095
istan	-8.31238
▁neden	-8.31369
▁milletvekil	-8.31475
▁yor	-8.31886
▁yu	-8.31905
▁anne	-8.31945
▁hasta	-8.31954
▁hiç	-8.32228
▁ora	-8.32243
▁mahalle	-8.32929
▁operasyon	-8.33083
▁isim	-8.33469
▁mı	-8.33603
te	-8.33631
▁pazar	-8.33792
iye	-8.33817
▁güç	-8.33859
▁örgüt	-8.33904
▁hazır	-8.33941
▁geri	-8.34225
▁ürün	-8.34575
▁hazırla	-8.34744
▁tören	-8.35155
▁kültür	-8.35191
▁oda	-8.35349
▁yat	-8.35386
▁dr	-8.3555
▁milyar	-8.35618
▁silah	-8.36174
uz	-8.36219
▁ış	-8.36378
▁bel	-8.36582
▁tü	-8.37131
ci	-8.37176
▁ağır	-8.37276
▁terör	-8.37342
asyon	-8.37581
▁kapa	-8.37622
▁grub	-8.37782
▁ça	-8.37926
▁kaza	-8.38055
▁be	-8.38321
▁malı	-8.38885
▁hedef	-8.39051
▁sat	-8.39098
▁erdoğan	-8.39421
▁kes	-8.3943
▁kısa	-8.39608
▁puan	-8.39654
▁bun	-8.39725
▁iniz	-8.4054
▁ses	-8.40783
▁mustafa	-8.40907
nedeni	-8.40979
▁kabul	-8.41245
▁tanı	-8.4133
▁mec	-8.41508
▁100	-8.41959
▁program	-8.41976
▁az	-8.42117
▁suz	-8.42221
▁karşılaş	-8.42538
▁fotoğraf	-8.42733
▁değer	-8.42968
▁kır	-8.43018
▁inan	-8.4313
▁küçük	-8.43357
▁sarı	-8.43478
▁ık	-8.44098
▁temsil	-8.44534
▁h	-8.44542
▁vurgula	-8.44723
▁sosyal	-8.4544
▁seç	-8.45612
▁ba	-8.45765
▁otur	-8.45952
▁yecek	-8.45964
▁rağ	-8.46175
▁hiçbir	-8.46199
▁ko	-8.46289
▁ka	-8.46425
▁erkek	-8.46638
f	-8.46677
▁dolayı	-8.46839
türk	-8.47245
▁tam	-8.4752
▁saha	-8.4769
▁say	-8.47903
▁ş	-8.47916
▁kayde	-8.47964
▁kayded	-8.48204
▁gerçek	-8.48338
ki	-8.48972
▁bina	-8.49232
▁uluslarara	-8.50096
ip	-8.50262
h	-8.50446
▁kapsam	-8.50749
▁plan	-8.50996
▁mutlu	-8.51056
▁14	-8.51214
ve	-8.51228
▁transfer	-8.51412
▁yoğun	-8.51696
▁beşiktaş	-8.51747
▁yıldız	-8.51836
ül	-8.52284
▁sınır	-8.52397
▁ait	-8.52417
▁bağlı	-8.52453
▁c	-8.52512
▁içeri	-8.5273
▁ilgi	-8.5282
▁ab	-8.52971
▁up	-8.53016
▁niz	-8.5323
▁sin	-8.53355
▁sorun	-8.53805
▁ortak	-8.53821
ız	-8.54008
▁vali	-8.54025
▁kan	-8.54042
▁lider	-8.54196
▁şampiyon	-8.54295
▁yüksel	-8.54402
▁ayrıl	-8.54561
▁hız	-8.54587
müz	-8.54676
▁yayın	-8.54954
▁tartış	-8.55863
▁tamamla	-8.56202
▁nokta	-8.56224
▁25	-8.56413
▁ödül	-8.56535
▁yasa	-8.56908
▁üretim	-8.56956
ijing	-8.5721
hangi	-8.57334
▁demir	-8.58038
ek	-8.58082
▁firma	-8.58324
▁sanayi	-8.5833
▁nız	-8.58457
▁yön	-8.58529
▁fiyat	-8.58584
yla	-8.58794
syon	-8.59058
▁inşa	-8.59334
▁kardeş	-8.59529
▁uygulama	-8.59563
lar	-8.5962
▁00	-8.5968
▁mu	-8.60044
▁tedavi	-8.60141
▁engel	-8.60376
1	-8.60607
▁incele	-8.60979
▁yapı	-8.61475
▁doğ	-8.61892
am	-8.61921
▁kuru	-8.61948
▁frans	-8.62091
▁ban	-8.62215
▁ticaret	-8.6236
▁götür	-8.6269
▁ünlü	-8.62749
▁ordu	-8.62948
▁madde	-8.63167
▁yarak	-8.63302
▁yarat	-8.63332
▁akşam	-8.63479
ık	-8.6351
ak	-8.63657
▁çeşit	-8.63789
▁ölüm	-8.63804
na	-8.64061
▁görüşme	-8.64349
▁hal	-8.64799
im	-8.64819
üz	-8.64848
▁üş	-8.64897
▁bilim	-8.64985
▁çünkü	-8.65003
▁ür	-8.65129
▁şubat	-8.6539
▁dolar	-8.65734
▁kapı	-8.66018
▁sektör	-8.66205
▁sın	-8.66592
▁50	-8.66597
▁11	-8.66759
▁hale	-8.66822
▁kuzey	-8.66963
▁gol	-8.6703
▁galatasaray	-8.67342
▁büyü	-8.67343
▁tik	-8.67355
▁17	-8.67579
▁satış	-8.67767
▁mız	-8.68033
▁18	-8.68043
▁cumhurbaşkan	-8.68594
▁oğl	-8.68693
▁herke	-8.68851
▁13	-8.69041
▁müş	-8.69103
g	-8.69114
▁toplum	-8.69702
▁derece	-8.69729
▁otomobil	-8.69736
▁uygula	-8.70037
çok	-8.70123
rektör	-8.70483
▁kin	-8.70541
▁kaybet	-8.70588
▁rapor	-8.7093
▁telefon	-8.70937
▁p	-8.71079
▁yaban	-8.71084
▁mart	-8.71198
▁vergi	-8.71239
▁bi	-8.71271
▁itibar	-8.71334
▁hukuk	-8.71336
▁metre	-8.7142
▁etki	-8.71735
ka	-8.72093
▁olimpiya	-8.7225
▁yöneli	-8.72262
▁ahmet	-8.7284
▁güney	-8.73083
ıcı	-8.73217
ay	-8.73271
▁ata	-8.73336
▁kurtar	-8.73591
b	-8.73591
▁vur	-8.73856
▁sahib	-8.74251
▁antalya	-8.74294
▁kamu	-8.74509
▁derne	-8.74603
ca	-8.75225
▁tepki	-8.75514
▁öğretmen	-8.756
▁ek	-8.7561
▁sahne	-8.75943
▁turizm	-8.7596
▁pek	-8.76132
▁salon	-8.77048
▁prof	-8.77096
▁sabah	-8.7766
▁park	-8.77703
ra	-8.78539
altı	-8.78583
▁asl	-8.78909
▁terörist	-8.79009
on	-8.79063
umuz	-8.79239
▁sevgi	-8.79375
▁hat	-8.79799
▁şube	-8.80064
▁site	-8.80388
▁0	-8.80753
▁beraber	-8.80797
▁resm	-8.80799
▁çift	-8.80861
▁kuruluş	-8.81246
▁taraftar	-8.81256
▁kupa	-8.81426
▁ha	-8.81763
▁kitap	-8.81933
▁yani	-8.81958
▁katkı	-8.82146
cı	-8.82434
▁200	-8.831
▁eyl	-8.83124
yum	-8.83226
▁tabi	-8.83251
▁emn	-8.83282
▁patla	-8.8354
▁bayram	-8.83564
▁bahçe	-8.83627
▁sonu	-8.84132
dar	-8.84255
▁chin	-8.84269
▁sav	-8.84307
▁piyasa	-8.84459
▁şek	-8.84529
▁tesis	-8.85004
ne	-8.8513
▁yız	-8.85196
yeceğ	-8.85389
▁yurt	-8.85861
▁mal	-8.8611
▁ateş	-8.86358
kent	-8.86376
▁40	-8.8643
▁tamam	-8.86617
▁ingiliz	-8.86809
nin	-8.87194
▁çocuğ	-8.87266
▁ik	-8.87415
▁dışiş	-8.8746
▁hatırla	-8.87527
▁barış	-8.87626
▁şarkı	-8.87756
▁siyas	-8.87884
▁siniz	-8.88079
▁komuta	-8.881
▁beyaz	-8.88128
▁anlam	-8.88201
▁dinle	-8.884
▁so	-8.8857
▁sık	-8.88675
▁serbest	-8.88718
▁teşekkü	-8.8872
▁soruşturma	-8.8873
▁uygun	-8.88855
▁aydın	-8.88883
▁çiz	-8.89037
kıntı	-8.89125
rk	-8.89192
▁kötü	-8.89234
ınız	-8.89639
▁gemi	-8.89742
▁ç	-8.89845
▁kanun	-8.89883
asıl	-8.89962
▁kulüp	-8.90184
yaka	-8.90199
▁yıp	-8.90217
▁sürü	-8.90628
▁yönetici	-8.90694
▁sokak	-8.90695
▁kolay	-8.90718
▁ekib	-8.90844
▁gın	-8.91285
re	-8.91468
▁akp	-8.91613
▁doğu	-8.91684
▁boz	-8.91715
▁kadro	-8.91801
den	-8.92012
▁kriz	-8.92221
▁bey	-8.92294
▁görüntü	-8.92322
▁açı	-8.92386
▁beş	-8.92417
ylem	-8.92581
▁yunan	-8.92644
▁rusya	-8.92721
▁for	-8.92785
▁saatler	-8.92794
dık	-8.93019
▁şehir	-8.93093
ni	-8.93119
enerbahçe	-8.93413
▁the	-8.93518
▁oran	-8.93656
var	-8.93962
▁millet	-8.94143
▁ücret	-8.94214
▁servis	-8.94237
▁dağıt	-8.95109
ler	-8.95127
▁özgür	-8.95149
▁müdahale	-8.95256
▁imza	-8.95427
▁yarış	-8.95506
▁saray	-8.96106
▁tespit	-8.96297
▁enerji	-8.96321
▁arka	-8.96348
▁anadol	-8.96604
▁21	-8.96756
▁tarım	-8.96881
▁24	-8.97022
▁yemek	-8.97023
▁parça	-8.97034
▁kart	-8.97089
ol	-8.97128
▁faaliyet	-8.97357
▁kırmızı	-8.97384
▁çözüm	-8.97409
▁ince	-8.97543
▁uçak	-8.97932
▁meli	-8.97972
▁zara	-8.98103
▁ydi	-8.98239
▁trabzon	-8.98418
▁anayasa	-8.98452
▁politika	-8.98486
▁jan	-8.98552
is	-8.98594
▁toprak	-8.98654
▁kamp	-8.9893
▁haziran	-8.98965
▁birinci	-8.99049
▁yaşam	-8.99096
▁28	-8.99186
▁büyükşeh	-8.99782
▁kap	-8.99783
▁22	-9.00266
▁he	-9.00284
▁kon	-9.00308
▁intern	-9.00563
▁zaten	-9.00588
▁dört	-9.00648
▁gö	-9.00968
▁teklif	-9.01116
▁şehit	-9.01151
▁kredi	-9.01695
darma	-9.0184
▁ihale	-9.0196
şehir	-9.02082
▁iran	-9.02127
▁ihrac	-9.02286
▁euro	-9.02311
▁kemal	-9.02431
▁birbir	-9.0288
▁arac	-9.02996
lan	-9.03044
▁23	-9.03058
▁talep	-9.03395
0	-9.03624
▁müzik	-9.03872
▁kuvvet	-9.03924
cu	-9.03936
çe	-9.04039
▁tehlike	-9.04496
▁ydı	-9.0452
deniz	-9.04896
▁desteğ	-9.05167
▁ciddi	-9.05198
▁kay	-9.05251
▁doğum	-9.05293
▁biraz	-9.05328
▁batı	-9.05566
▁belge	-9.05727
▁temel	-9.0581
▁yaka	-9.05865
▁dağ	-9.05872
ur	-9.06103
▁teknoloji	-9.06265
▁v	-9.06267
bet	-9.06638
▁kafa	-9.06816
▁cadde	-9.06831
ta	-9.06911
ri	-9.07069
▁giy	-9.07154
can	-9.07204
▁bursa	-9.07277
▁taş	-9.07316
▁değerlen	-9.07412
izin	-9.08151
taş	-9.08193
▁co	-9.08198
manya	-9.08211
it	-9.08262
iş	-9.08807
▁yeşil	-9.08885
▁liste	-9.08887
▁şüphe	-9.08926
▁aşk	-9.08988
ova	-9.09008
▁şiddet	-9.09159
ba	-9.09174
▁ileri	-9.09316
ınca	-9.09486
▁mesaj	-9.09608
tere	-9.09693
kimse	-9.09731
▁tekrar	-9.09793
▁sevk	-9.0981
▁amaç	-9.10094
ör	-9.10492
▁orman	-9.10494
▁sefer	-9.10596
▁üre	-9.10777
▁tele	-9.10861
bi	-9.1094
▁tak	-9.11331
kan	-9.11359
▁ö	-9.11477
▁kulüb	-9.11479
▁avukat	-9.11577
▁yargı	-9.11594
▁kalite	-9.11792
▁işlem	-9.11804
▁şun	-9.11954
▁ici	-9.11984
▁artış	-9.12073
▁hasan	-9.12337
▁yim	-9.12361
▁ingil	-9.12479
▁hayvan	-9.12748
▁uzak	-9.12818
▁ders	-9.12856
vizyon	-9.13358
2	-9.13584
▁belli	-9.13625
▁adet	-9.13745
▁katılım	-9.14097
▁uyarı	-9.14208
▁otel	-9.14246
▁yorum	-9.14376
▁paylaş	-9.14428
len	-9.14499
▁yakala	-9.14597
▁hüsey	-9.14698
▁sınıf	-9.14714
▁gösteri	-9.14755
▁siyaset	-9.14781
▁mü	-9.14815
▁kulübü	-9.14895
▁meslek	-9.1495
uc	-9.1498
▁tl	-9.15004
▁bekl	-9.15178
▁ağustos	-9.15318
▁murat	-9.15332
▁israil	-9.15341
▁unut	-9.15364
▁karış	-9.15684
▁teslim	-9.15952
edeniy	-9.15967
▁bağla	-9.16182
▁öte	-9.16338
liği	-9.16623
uğ	-9.16734
▁cenaz	-9.16757
▁yerel	-9.16804
▁kale	-9.16881
yen	-9.16909
▁500	-9.17044
▁açılış	-9.17246
▁kayıt	-9.17278
v	-9.17421
▁sal	-9.175
▁kontrol	-9.17603
ocak	-9.17634
▁çağ	-9.17739
▁saye	-9.17761
arken	-9.17796
akip	-9.17797
▁27	-9.17814
▁işaret	-9.179
▁bomba	-9.17951
▁imkan	-9.18062
▁buluş	-9.18086
▁çoğu	-9.18091
▁konser	-9.18239
▁sol	-9.18254
▁başar	-9.18455
▁kalk	-9.18883
▁üz	-9.18897
▁taban	-9.18922
gi	-9.19045
▁acı	-9.19174
▁erke	-9.19403
▁uy	-9.19444
▁ekle	-9.1947
▁dizi	-9.1948
▁nere	-9.19653
▁çal	-9.19787
▁eser	-9.19806
▁aktar	-9.19894
▁cuma	-9.19924
▁kesim	-9.19975
▁birkaç	-9.19994
▁önle	-9.20013
▁koca	-9.20433
▁elektri	-9.20438
▁baskı	-9.20495
aş	-9.20555
▁deprem	-9.2057
▁trafik	-9.20633
▁persone	-9.20748
▁basketbol	-9.20912
han	-9.20933
ge	-9.20993
▁re	-9.21194
ısır	-9.21226
▁sert	-9.2171
▁heyet	-9.21924
▁bebe	-9.22142
▁ayak	-9.22154
gül	-9.22214
▁şart	-9.22278
▁lise	-9.22911
▁kutla	-9.22949
▁hayır	-9.23289
▁güc	-9.23562
▁yiz	-9.23665
▁tbmm	-9.23916
▁numara	-9.23932
▁ulusal	-9.23969
▁davet	-9.2448
▁acil	-9.24483
▁doktor	-9.24621
▁kanser	-9.2466
▁beri	-9.24716
▁çalışan	-9.24861
▁plak	-9.24921
▁öyle	-9.2499
tı	-9.25011
ist	-9.25235
▁gerekçe	-9.25449
▁eğ	-9.25566
▁gök	-9.25644
tay	-9.25715
üncü	-9.25771
▁kurtul	-9.26044
▁ibrahim	-9.26061
▁renk	-9.26119
um	-9.26137
▁karşıla	-9.26178
▁uş	-9.26213
▁örnek	-9.26231
▁duygu	-9.26309
▁çöz	-9.26488
su	-9.26585
▁kilometre	-9.26741
▁yalnız	-9.2677
▁as	-9.26777
▁uğra	-9.26788
▁sağlık	-9.26797
▁saygı	-9.26826
▁veri	-9.27254
▁göç	-9.27418
▁tuğ	-9.27585
ti	-9.27607
▁ilerle	-9.27627
▁yönet	-9.27634
▁ism	-9.27783
▁kurs	-9.27837
▁alış	-9.27849
▁otobüs	-9.28169
▁kasım	-9.282
▁abdni	-9.28256
lış	-9.283
▁çarp	-9.28341
▁idare	-9.28359
▁dost	-9.28563
▁çaba	-9.28632
▁av	-9.28639
ıl	-9.28715
▁galibiyet	-9.289
▁faiz	-9.28916
▁kısm	-9.28992
sat	-9.29404
es	-9.29424
▁ege	-9.29488
▁sıcak	-9.29593
▁yatırım	-9.29625
▁paket	-9.29635
▁aa	-9.2975
fakat	-9.29833
▁şen	-9.30292
▁abdullah	-9.30371
▁yöntem	-9.30378
▁ışid	-9.30428
▁yım	-9.30805
▁hata	-9.30854
▁kesin	-9.31075
üyükelçi	-9.31083
▁başvuru	-9.31203
▁azal	-9.31276
akülte	-9.31283
▁kol	-9.31678
sız	-9.32078
▁to	-9.32224
▁not	-9.32577
▁defa	-9.32787
▁yetiş	-9.32903
lik	-9.33064
▁fil	-9.33105
▁ris	-9.3325
▁tem	-9.33412
▁adli	-9.33494
▁gez	-9.33652
▁aziz	-9.33673
▁masa	-9.33718
▁kanal	-9.33979
▁201	-9.33997
▁şans	-9.34148
▁bağım	-9.34168
▁zirv	-9.34222
▁lım	-9.34267
▁anlaşma	-9.34339
dan	-9.3461
▁tercih	-9.34884
▁muhabir	-9.34913
▁ihtiyaç	-9.34918
▁pkk	-9.35111
▁doğal	-9.35213
▁turnuva	-9.35662
▁26	-9.35671
▁roman	-9.35775
▁köprü	-9.35816
▁güneş	-9.3586
▁allah	-9.3601
▁dönüş	-9.36224
▁görün	-9.36306
▁hapis	-9.36459
▁miktar	-9.36493
yse	-9.36668
yo	-9.36691
▁35	-9.36701
ilyon	-9.36839
us	-9.36859
▁merak	-9.36933
▁all	-9.36963
▁fır	-9.37129
▁new	-9.37154
▁çatış	-9.3716
▁eksik	-9.37684
iz	-9.37758
os	-9.37975
▁performans	-9.3803
▁çetin	-9.38036
▁medya	-9.38052
nisan	-9.38071
▁geniş	-9.38116
▁bor	-9.38146
lu	-9.3815
▁hakim	-9.38155
▁uza	-9.38222
▁dahi	-9.383
▁adana	-9.38318
▁hesap	-9.38341
▁gezi	-9.384
▁dük	-9.38434
aj	-9.3864
▁daire	-9.38658
▁islam	-9.38749
if	-9.38836
j	-9.3884
▁sar	-9.38925
▁yarışma	-9.39004
ara	-9.39092
▁ömer	-9.39266
▁araba	-9.39295
▁destekle	-9.3958
▁ytl	-9.39602
▁cevap	-9.39636
▁dha	-9.39867
▁60	-9.39908
▁cr	-9.40032
w	-9.40164
▁demokra	-9.40165
▁basın	-9.40273
▁daya	-9.40477
▁paris	-9.40499
▁kitab	-9.40909
lü	-9.41213
erk	-9.41236
▁diyarbakır	-9.4127
▁ihtiyac	-9.41271
▁kamyon	-9.41273
▁ismail	-9.41278
▁2012	-9.41278
▁bm	-9.4147
▁başvur	-9.41833
▁rakam	-9.41955
misyon	-9.41966
yıl	-9.42197
▁şahin	-9.42485
yan	-9.42648
▁saç	-9.42798
▁sürek	-9.42871
▁2013	-9.42923
▁2014	-9.42926
▁temm	-9.43501
▁yet	-9.43503
ayıs	-9.43559
▁işbir	-9.43647
▁düşü	-9.43683
▁bilgisaya	-9.43773
▁hoca	-9.43802
▁siyah	-9.43887
▁bağlant	-9.43976
▁tutuklan	-9.44129
8	-9.44156
▁final	-9.44288
▁osman	-9.44335
▁fua	-9.44407
ür	-9.44519
▁tahmin	-9.44616
ken	-9.44639
▁benze	-9.44734
▁onur	-9.44761
iyer	-9.44857
9	-9.44877
▁tıp	-9.44946
▁turist	-9.44961
▁boş	-9.44962
▁tr	-9.45202
▁günde	-9.45233
▁emin	-9.45249
▁rus	-9.45284
▁darbe	-9.45442
▁duruş	-9.45535
tepe	-9.45654
▁gür	-9.4576
▁uçağ	-9.45842
▁tutuk	-9.46087
▁istifa	-9.46106
▁ku	-9.46125
▁adale	-9.46523
▁sevin	-9.46659
road	-9.46707
▁recep	-9.47188
▁sınız	-9.47194
▁şikayet	-9.47195
▁işletme	-9.4727
▁kamera	-9.47281
▁konferans	-9.47337
▁yeter	-9.47508
▁ilaç	-9.48006
nternation	-9.48049
▁fatih	-9.48066
▁uç	-9.48104
▁normal	-9.48175
▁yanıt	-9.48367
▁şampiyona	-9.48583
▁ikti	-9.48608
▁finans	-9.48666
▁gaziantep	-9.48811
▁gizl	-9.49096
erçe	-9.49261
▁kaymak	-9.4932
▁ışık	-9.49365
cak	-9.49611
▁korku	-9.49704
▁29	-9.49804
▁sayfa	-9.49902
▁öğreti	-9.50015
▁yargılan	-9.50046
▁bar	-9.50049
▁şehr	-9.50439
▁süper	-9.50705
▁mevcut	-9.50751
▁kampanya	-9.50756
▁yağış	-9.50757
▁girişim	-9.50758
▁tat	-9.5084
▁gaz	-9.50882
▁harca	-9.50883
▁kapalı	-9.50918
▁bülen	-9.51106
▁2005	-9.51662
▁taleb	-9.51738
▁uyar	-9.51854
▁stad	-9.51925
▁fu	-9.5221
başı	-9.52241
leşme	-9.52275
▁zan	-9.52362
▁uyuşturu	-9.52419
▁marka	-9.52583
▁memnun	-9.5259
▁tayy	-9.52647
▁memur	-9.52676
▁bal	-9.52929
▁em	-9.53131
rights	-9.5317
▁radio	-9.53495
▁cinayet	-9.53503
▁protesto	-9.53508
dem	-9.53587
▁sinema	-9.5359
▁tatil	-9.53601
dağ	-9.53611
erek	-9.53647
▁etkile	-9.53758
▁abdde	-9.54008
▁yansı	-9.54025
sa	-9.54063
▁70	-9.5411
ev	-9.54148
▁yitir	-9.5416
▁itira	-9.54216
▁çağrı	-9.54376
▁italya	-9.54423
▁esnaf	-9.54439
▁tane	-9.54531
▁31	-9.54564
▁kaybed	-9.54767
ing	-9.55013
▁bilet	-9.55032
▁hesab	-9.55373
▁eğlen	-9.55633
lığı	-9.55673
▁rekor	-9.55688
▁bay	-9.5576
▁kural	-9.55959
nav	-9.56112
▁fabrika	-9.56332
ha	-9.56354
▁temas	-9.56663
▁tehdi	-9.56882
▁komite	-9.57185
▁selçuk	-9.57291
▁ham	-9.57322
▁gider	-9.57405
▁geçmiş	-9.5742
▁emekl	-9.57464
be	-9.57539
▁aş	-9.57624
üman	-9.57684
▁konse	-9.58029
bir	-9.58054
st	-9.58208
▁deplas	-9.58264
cağ	-9.58271
▁sh	-9.58464
▁kork	-9.58576
▁ağaç	-9.58627
▁bol	-9.58642
▁olası	-9.58721
pınar	-9.58752
oyu	-9.58816
▁devre	-9.59226
▁tip	-9.59234
▁albüm	-9.59238
▁kilo	-9.59243
▁nüfus	-9.59246
▁lazım	-9.59298
▁mutlak	-9.59308
▁gönül	-9.59354
▁soy	-9.59467
▁eleştir	-9.59475
▁müşter	-9.59519
to	-9.59782
▁ada	-9.59862
muz	-9.59896
▁asıl	-9.59947
▁muz	-9.6006
▁sakat	-9.60087
▁test	-9.60224
dres	-9.6023
▁hakem	-9.60306
▁hisse	-9.60371
▁300	-9.60411
▁takdi	-9.60586
vet	-9.60626
▁ölü	-9.60663
▁çiçek	-9.60853
ver	-9.60892
▁yük	-9.60962
▁göl	-9.61231
▁seyir	-9.61259
öz	-9.61307
▁45	-9.61334
▁falan	-9.61342
▁eşit	-9.6149
▁hır	-9.61503
▁kış	-9.61528
▁eyal	-9.61718
▁kürt	-9.61749
▁temiz	-9.61841
▁süt	-9.6188
niyet	-9.61895
▁of	-9.61961
▁kaya	-9.62005
▁yaklaş	-9.62137
▁rahat	-9.6218
rum	-9.62244
▁manisa	-9.62263
▁hafif	-9.62344
▁cami	-9.62503
▁konya	-9.62557
▁kıyı	-9.6265
▁huzur	-9.62747
hane	-9.62863
rek	-9.63186
▁vazgeç	-9.63261
▁pay	-9.63376
▁dergi	-9.63464
▁yık	-9.63504
▁borsa	-9.63541
▁umut	-9.63573
▁öneri	-9.63863
ykırı	-9.63997
▁koşul	-9.64104
ünce	-9.64208
▁rahatsız	-9.64314
ondra	-9.64361
▁ilgilen	-9.64403
▁ikili	-9.64441
▁york	-9.64516
▁mode	-9.64655
▁ithal	-9.64667
▁rol	-9.6482
gara	-9.65039
ed	-9.653
▁sekreter	-9.65339
▁peş	-9.65374
▁gereğ	-9.65384
bey	-9.65393
▁2004	-9.65406
▁petrol	-9.65425
▁şiir	-9.65431
▁kenar	-9.65516
▁tv	-9.65591
▁mali	-9.65745
se	-9.6584
▁199	-9.65984
▁heyecan	-9.66053
▁hayal	-9.66153
tü	-9.66182
▁kong	-9.66385
▁ton	-9.6641
▁organizasyon	-9.66415
ro	-9.66467
▁dile	-9.66492
kale	-9.66518
▁ge	-9.66565
▁cinsel	-9.66694
▁dolu	-9.66829
▁kuş	-9.66853
▁gelir	-9.67235
▁ysa	-9.67467
▁işadam	-9.67479
▁dışarı	-9.67531
▁söyl	-9.67598
▁planla	-9.67621
▁akl	-9.67655
▁yararlan	-9.67736
fganistan	-9.67806
▁engelle	-9.67948
▁müsl	-9.68071
▁fayda	-9.68184
hediye	-9.68364
son	-9.68426
▁motor	-9.68499
sever	-9.68499
▁tasarı	-9.68511
▁reklam	-9.68524
yici	-9.68533
doğu	-9.68619
▁organiz	-9.68649
▁kurba	-9.68921
▁sivas	-9.68929
shan	-9.69037
▁konuk	-9.6918
du	-9.69331
▁rakib	-9.69595
▁itfa	-9.69625
▁doğa	-9.69667
▁ihbar	-9.69687
▁yayınla	-9.69927
▁teşkilat	-9.70045
ça	-9.70349
yet	-9.70463
▁ölçü	-9.70554
▁asya	-9.70668
▁hikaye	-9.70709
▁koş	-9.70722
▁değerlendirme	-9.70728
▁biçim	-9.70728
▁istikrar	-9.70733
▁sermaye	-9.70777
▁boğaz	-9.70848
▁maddi	-9.70921
▁kök	-9.71167
▁alman	-9.71569
▁sakin	-9.71573
▁şaş	-9.71607
▁cezaev	-9.71663
yi	-9.71788
▁kavuş	-9.7179
▁şoför	-9.71816
za	-9.7191
▁ter	-9.72016
paşa	-9.72108
▁tanrı	-9.72267
ır	-9.72546
kes	-9.72591
▁bütçe	-9.72939
▁galeri	-9.73003
▁makine	-9.73032
▁vade	-9.73244
ım	-9.73367
▁ağa	-9.73372
▁mini	-9.73663
soy	-9.73739
▁örne	-9.73758
şey	-9.73781
▁gun	-9.73789
müzakere	-9.7383
▁hanım	-9.74085
▁egedesons	-9.74086
▁sunu	-9.74205
▁yazar	-9.74243
▁80	-9.74301
▁düşünce	-9.74322
▁oto	-9.74477
avga	-9.74494
▁sergile	-9.7452
▁federa	-9.7466
▁parlament	-9.74661
▁önlem	-9.74733
endis	-9.74798
▁bağ	-9.75136
▁kıbrıs	-9.75228
▁endeks	-9.75239
▁devrim	-9.75269
▁2006	-9.75374
▁çay	-9.75444
▁va	-9.75617
▁cam	-9.75655
köy	-9.75725
▁zengin	-9.75879
6	-9.76058
▁kral	-9.76077
▁halde	-9.76089
▁yay	-9.76104
okul	-9.76361
▁mensup	-9.76397
siz	-9.76398
veriş	-9.76448
▁müh	-9.76467
tan	-9.76527
▁antren	-9.76538
▁fikir	-9.76598
as	-9.76719
▁yalçın	-9.76721
▁güçl	-9.76801
▁gin	-9.77056
▁koltu	-9.77136
▁deri	-9.77547
ze	-9.77645
yon	-9.77761
aroğ	-9.77814
▁mekan	-9.77847
▁bod	-9.77906
ul	-9.77918
▁şam	-9.78
▁metin	-9.78239
▁hen	-9.78421
▁pozi	-9.78459
▁cihaz	-9.78572
or	-9.7873
▁slogan	-9.78757
▁ambulans	-9.78762
▁yürütül	-9.78775
▁ucu	-9.78792
▁komşu	-9.78957
▁cem	-9.79068
▁ruh	-9.79176
▁lim	-9.79313
▁muhal	-9.79552
dere	-9.79675
▁ayağ	-9.79763
▁mağa	-9.79917
▁ameliyat	-9.79967
▁ticari	-9.79983
▁aşama	-9.80046
▁düze	-9.80114
▁sok	-9.80218
▁ağrı	-9.80254
▁doğrult	-9.80271
▁iptal	-9.80503
▁demokratik	-9.80598
▁dair	-9.80766
▁90	-9.8087
nüz	-9.80946
▁beklenti	-9.81095
iç	-9.81122
▁beğen	-9.81158
▁kayseri	-9.81161
▁cesed	-9.81186
▁iletişim	-9.81192
▁2007	-9.81193
▁muğla	-9.81263
▁liman	-9.81343
▁seri	-9.81489
▁aşağı	-9.8168
▁gen	-9.81686
▁kira	-9.81808
▁yönetme	-9.81823
▁emre	-9.8185
▁afri	-9.81903
vil	-9.81935
▁yak	-9.82037
▁dalga	-9.82249
▁brezilya	-9.8242
▁havaliman	-9.82425
▁tecav	-9.82427
▁borç	-9.82451
▁uğur	-9.82529
▁çağır	-9.82533
lenme	-9.82535
miras	-9.82568
▁strateji	-9.82605
▁imzala	-9.82618
▁sahil	-9.82636
▁kılıçd	-9.82672
▁işyer	-9.82762
▁bayka	-9.82933
▁gram	-9.83072
▁tanık	-9.83231
▁nite	-9.83273
▁rum	-9.83418
▁sivi	-9.8354
▁öner	-9.83549
▁koç	-9.8358
▁ortalama	-9.83643
▁tüket	-9.83659
▁mezar	-9.83819
abet	-9.83961
▁heykel	-9.84053
▁füz	-9.84163
tik	-9.84377
▁akademi	-9.84409
▁van	-9.84481
▁bayrak	-9.84683
fet	-9.84872
▁1000	-9.84905
zman	-9.8503
akıl	-9.85045
▁atla	-9.85055
▁laci	-9.85176
▁zorla	-9.85229
▁tanıtı	-9.85248
uş	-9.85282
▁cep	-9.8536
4	-9.85367
▁baz	-9.85475
yebil	-9.85662
▁ayır	-9.85666
▁feder	-9.85675
▁har	-9.85678
▁gıd	-9.85772
▁sendika	-9.85811
üş	-9.8583
izm	-9.85849
▁amac	-9.86059
▁dans	-9.86065
▁gerile	-9.8608
▁çevir	-9.86261
▁bedel	-9.86318
▁forma	-9.86329
▁namaz	-9.86346
▁john	-9.8639
▁kedi	-9.86638
▁karayol	-9.86726
▁net	-9.86742
▁üretil	-9.86779
▁bağış	-9.86794
ilirk	-9.86962
▁öngör	-9.87206
zeme	-9.87255
ış	-9.8741
dam	-9.87422
kova	-9.87484
▁http	-9.87499
▁büny	-9.87555
büs	-9.87555
▁kılıç	-9.87628
▁antrenör	-9.87659
▁34	-9.87708
▁bo	-9.87825
▁no	-9.87843
tesi	-9.87843
▁doku	-9.88025
vert	-9.88059
▁fikr	-9.88218
ton	-9.88242
▁konak	-9.883
▁maliye	-9.88339
3	-9.88419
tin	-9.88456
▁maaş	-9.88483
cü	-9.88546
▁davran	-9.88583
▁hürriyet	-9.88831
▁kum	-9.89027
▁aslan	-9.89037
▁tenis	-9.89095
▁yanıtla	-9.89107
▁değin	-9.89345
üp	-9.89724
▁sergi	-9.89756
hisar	-9.89772
▁tekne	-9.89775
▁düz	-9.89793
▁müze	-9.89905
▁ilan	-9.89944
tif	-9.89947
opter	-9.89995
▁dev	-9.90067
▁hüküm	-9.9007
7	-9.90073
vekil	-9.90149
▁problem	-9.90161
▁kapasite	-9.9017
van	-9.90172
▁2015	-9.90174
irk	-9.90222
▁psikoloji	-9.90242
▁esas	-9.90372
▁danışman	-9.90535
▁400	-9.90553
mit	-9.90663
▁yağ	-9.90705
▁arap	-9.90726
▁dök	-9.90817
hat	-9.91027
▁55	-9.91074
▁süleyman	-9.91102
nç	-9.91245
▁fa	-9.9134
▁kayb	-9.91464
▁eskişehir	-9.91468
▁özdemir	-9.91522
▁mezun	-9.91535
▁japonya	-9.91546
▁çap	-9.91548
▁32	-9.91702
kü	-9.91727
tüğ	-9.91769
▁kör	-9.91889
llah	-9.91944
▁kıl	-9.91996
stan	-9.9221
netim	-9.92214
zaltı	-9.92332
▁tren	-9.92471
▁olan	-9.92472
▁karakter	-9.92628
▁tanış	-9.92807
▁samsun	-9.92881
▁enflasyon	-9.92886
▁helik	-9.92965
▁madalya	-9.92982
▁do	-9.92998
saniye	-9.9308
▁değerlendiril	-9.93083
▁hissed	-9.93215
▁mersin	-9.93241
▁şeker	-9.93332
▁fen	-9.93334
dışı	-9.93395
▁edin	-9.9348
▁ulus	-9.93565
oğlu	-9.93581
▁dağıl	-9.93943
▁endişe	-9.93963
ması	-9.9413
▁kaybol	-9.94151
▁kategori	-9.94273
▁tedbir	-9.94278
▁ruhsat	-9.94298
ting	-9.94444
▁boyut	-9.94467
nde	-9.94594
▁kaçak	-9.94631
lif	-9.94669
▁bayan	-9.94771
nova	-9.95011
▁denge	-9.9504
▁sebe	-9.95112
▁zam	-9.95156
yapı	-9.95399
▁j	-9.95479
▁yağmur	-9.95677
▁or	-9.95698
▁muhtar	-9.95746
▁ayşe	-9.95771
▁ajans	-9.95789
efes	-9.9581
▁mesele	-9.9591
serve	-9.96235
▁fizik	-9.96244
baş	-9.96565
ağa	-9.96601
▁tutar	-9.96606
▁depo	-9.96838
oz	-9.97013
dir	-9.97032
▁gözal	-9.97044
▁mahkum	-9.97103
▁cephe	-9.97124
▁sultan	-9.97138
▁semt	-9.97151
▁seans	-9.9718
▁port	-9.97264
▁çeşme	-9.97457
▁organ	-9.97464
▁senar	-9.97547
▁ümü	-9.97774
▁saatte	-9.97837
şar	-9.98018
▁hisset	-9.98036
▁36	-9.98093
▁star	-9.98125
kün	-9.98202
▁rö	-9.98255
mi	-9.98258
▁muha	-9.9827
▁başsavcı	-9.98275
▁imam	-9.9828
▁düzen	-9.98367
▁edirne	-9.98555
▁edebiyat	-9.98557
▁osmanlı	-9.98656
▁sezer	-9.98658
eket	-9.98721
▁muhte	-9.98754
▁müm	-9.98761
bel	-9.98812
▁dikkati	-9.98901
san	-9.98945
▁engin	-9.9905
▁iade	-9.99073
▁laf	-9.99094
mis	-9.99318
▁camia	-9.99331
▁müsa	-9.9936
▁mhp	-9.99366
▁bat	-9.99396
orta	-9.99555
▁resim	-10.0007
▁hayran	-10.001
gün	-10.0011
ber	-10.0014
kar	-10.0027
iğ	-10.0049
040	-10.0063
kurmay	-10.0064
▁zorun	-10.0067
▁meml	-10.0068
nda	-10.0076
▁hoş	-10.008
▁kızıl	-10.01
▁üreti	-10.0106
▁150	-10.0117
kz	-10.0146
▁coşku	-10.0152
▁mağdur	-10.0152
▁geleneksel	-10.0153
▁orhan	-10.0156
▁yusuf	-10.0159
▁sevi	-10.0163
eme	-10.0184
erkan	-10.0186
▁tepe	-10.0187
▁rek	-10.019
ama	-10.0224
lama	-10.0244
▁ww	-10.0254
▁198	-10.0266
▁yasal	-10.0274
▁pilot	-10.0303
▁tecrübe	-10.0303
▁öğle	-10.0305
▁pla	-10.0306
▁ke	-10.031
▁terk	-10.0312
▁kop	-10.0314
eri	-10.0317
▁din	-10.035
▁gurur	-10.0359
▁soğuk	-10.0361
ke	-10.0375
▁çam	-10.0386
▁mavi	-10.0424
▁yo	-10.0429
uyum	-10.0434
▁çatı	-10.0443
▁2000	-10.0445
▁talimat	-10.0458
▁uc	-10.0458
▁kalp	-10.0462
▁duman	-10.0467
▁kalaba	-10.0471
▁profesyonel	-10.0478
▁tel	-10.0488
▁düşman	-10.049
▁demokrat	-10.0506
▁dilek	-10.0547
▁33	-10.055
▁zaf	-10.0559
sh	-10.0563
hliye	-10.0613
▁erzurum	-10.0613
▁kıyafet	-10.0613
▁rüzg	-10.0613
▁egemen	-10.0619
▁radyo	-10.062
▁birim	-10.0696
▁nükle	-10.0714
ere	-10.0728
▁75	-10.0749
▁çu	-10.0753
▁katliam	-10.0772
▁gerçeğ	-10.0773
▁2003	-10.0774
▁konut	-10.0787
▁yasak	-10.0816
40	-10.083
ttin	-10.0832
▁tırman	-10.0837
irliği	-10.0838
lisyon	-10.0848
tek	-10.0855
▁tuz	-10.0859
▁vakf	-10.0874
▁topra	-10.0891
▁rektör	-10.09
▁çukur	-10.0901
▁kut	-10.0908
▁aksi	-10.0913
▁nası	-10.092
▁büro	-10.0922
▁sp	-10.0938
▁garanti	-10.0938
▁çanak	-10.0943
▁davut	-10.0952
▁ermeni	-10.0963
▁aşırı	-10.097
eform	-10.0975
▁yalan	-10.0983
rak	-10.0988
▁ser	-10.0993
lim	-10.1009
rliği	-10.1009
▁49	-10.1019
▁sinan	-10.1025
▁yayımlan	-10.105
▁biri	-10.1066
▁gazi	-10.1089
▁köpek	-10.1097
▁rüya	-10.1097
▁döviz	-10.1098
▁çiftçi	-10.1099
▁sel	-10.1101
▁takvi	-10.1104
▁reji	-10.112
▁gelen	-10.1125
▁işb	-10.1149
▁işbi	-10.1151
▁talib	-10.1154
suz	-10.1162
lanma	-10.1169
istin	-10.1193
mer	-10.1202
ad	-10.1206
▁onay	-10.1215
▁ihtimal	-10.1221
▁komut	-10.1221
▁pa	-10.1222
▁uyu	-10.1241
so	-10.1244
artesi	-10.1254
▁po	-10.126
▁torba	-10.126
▁tribün	-10.1263
▁ukrayna	-10.1264
▁bisiklet	-10.1264
▁arzu	-10.1271
▁zorlu	-10.128
▁muhammed	-10.1294
▁hollanda	-10.1307
go	-10.131
▁dolaş	-10.131
▁müste	-10.1311
▁skor	-10.1324
ramaz	-10.1327
▁harek	-10.1332
▁buca	-10.1332
mümk	-10.1347
▁65	-10.1349
▁has	-10.1359
▁roma	-10.1365
▁pas	-10.1377
osya	-10.139
▁tahsi	-10.1401
ez	-10.142
▁aracı	-10.1428
▁imparator	-10.1433
ici	-10.1434
▁davranış	-10.1435
▁taciz	-10.1438
▁yü	-10.1447
▁hasar	-10.145
yabil	-10.146
▁gü	-10.1468
general	-10.1472
▁yar	-10.1478
erşembe	-10.1485
▁sıkış	-10.1494
▁250	-10.1499
▁sig	-10.1531
▁foto	-10.1533
▁kırık	-10.1556
▁opera	-10.1575
▁fo	-10.1591
▁ters	-10.1593
yış	-10.1594
▁usta	-10.1597
ku	-10.1598
▁hu	-10.1602
▁teşvik	-10.1605
▁efsane	-10.1606
▁gözyaş	-10.1607
▁kilis	-10.1609
▁unsur	-10.1616
▁ekran	-10.1621
▁ağz	-10.1629
▁mayı	-10.1633
▁kocao	-10.1636
▁bıçak	-10.1639
▁ölen	-10.167
▁modern	-10.1679
▁ece	-10.1701
▁beden	-10.1705
▁sahte	-10.1738
▁mos	-10.1759
▁ayakkab	-10.178
▁video	-10.178
▁serdar	-10.1784
▁prens	-10.1786
▁birey	-10.1788
▁doç	-10.1794
▁karşılan	-10.1802
▁set	-10.1807
▁şanlıurfa	-10.1811
▁bitki	-10.1813
ağ	-10.1814
▁döv	-10.1818
▁hatay	-10.1821
▁seçene	-10.1824
binler	-10.1831
▁pen	-10.1832
port	-10.1835
▁2002	-10.1846
▁sus	-10.1849
▁tarz	-10.1851
elime	-10.1853
▁uyan	-10.1884
lık	-10.1904
▁abi	-10.1923
yer	-10.1938
▁yahu	-10.194
▁belirti	-10.1948
platform	-10.1949
▁kahraman	-10.1954
▁dayanışma	-10.196
▁intihar	-10.196
▁pakistan	-10.196
▁oğuz	-10.1961
10	-10.1968
▁cevab	-10.1971
▁tablo	-10.1975
▁cok	-10.1977
▁tamamlanma	-10.1978
va	-10.1984
▁devr	-10.1987
▁tasarım	-10.1989
ket	-10.1991
lternatif	-10.1992
let	-10.2001
po	-10.2002
▁ayhan	-10.2005
▁benzer	-10.2009
▁cum	-10.2011
▁şah	-10.2018
bu	-10.2021
▁malz	-10.2023
▁ilet	-10.2029
▁koa	-10.2035
▁deli	-10.2038
▁kalkın	-10.2043
▁ispany	-10.206
zan	-10.2066
▁kasa	-10.2074
▁hazin	-10.2079
zat	-10.2094
az	-10.2097
▁şırnak	-10.2141
▁malatya	-10.2141
der	-10.2141
▁gümrük	-10.2143
▁elektronik	-10.2144
▁kocaeli	-10.2146
▁toplumsal	-10.215
▁köşe	-10.2153
▁mektu	-10.2154
▁ekmek	-10.2163
nca	-10.2163
▁belirsiz	-10.2165
▁şok	-10.2169
▁dere	-10.2182
em	-10.2186
▁pe	-10.2191
sef	-10.2191
önder	-10.2193
5	-10.2194
▁festivali	-10.2201
▁fi	-10.221
baka	-10.2212
▁bunlar	-10.2221
▁sırt	-10.2229
▁kimya	-10.2245
fez	-10.2255
rul	-10.2261
▁kor	-10.2266
▁peki	-10.2271
ashington	-10.2289
▁uzaklaş	-10.2315
▁iliş	-10.2324
▁tavsiye	-10.2326
▁kömür	-10.2326
▁mardin	-10.2326
▁muhtemel	-10.2327
▁avusturya	-10.2327
▁forum	-10.2333
üzey	-10.2335
▁yetenek	-10.2337
▁etraf	-10.2344
rınç	-10.2359
▁amir	-10.236
▁kutu	-10.2373
▁tüketi	-10.2376
rtesi	-10.2406
▁42	-10.2408
▁açığ	-10.2411
kat	-10.2411
▁küresel	-10.2417
gü	-10.2423
▁evren	-10.2436
▁uzay	-10.2453
▁standart	-10.2463
mba	-10.2466
araj	-10.2488
tör	-10.2509
▁karako	-10.2525
▁dokuz	-10.2529
▁120	-10.2534
▁salih	-10.2538
▁mez	-10.2554
▁özge	-10.2579
khan	-10.2584
▁48	-10.2588
hil	-10.2609
srar	-10.2626
▁kalem	-10.2627
analiz	-10.2651
odel	-10.2656
▁avantaj	-10.2661
rafiğ	-10.2668
▁metrek	-10.267
▁post	-10.2675
▁43	-10.2686
▁göğüs	-10.2706
▁misafir	-10.2707
▁kaynağ	-10.2714
▁vizyon	-10.2719
ktif	-10.2723
▁rize	-10.2727
▁ladin	-10.2736
▁kul	-10.2747
sü	-10.2753
▁bağda	-10.2765
▁yatak	-10.2772
▁ağ	-10.278
yasal	-10.2785
▁efendi	-10.2787
▁yavaş	-10.2796
▁kas	-10.2797
▁kahve	-10.2798
saba	-10.2834
▁niye	-10.2843
▁37	-10.285
▁taksi	-10.2871
ner	-10.2876
kaya	-10.288
▁şe	-10.288
▁golü	-10.2884
▁erdem	-10.2907
▁italyan	-10.2909
▁güreş	-10.291
▁mo	-10.2911
ah	-10.2914
▁born	-10.2932
▁çakı	-10.2935
▁facebook	-10.2939
▁değişik	-10.2952
çi	-10.2956
▁dal	-10.2957
▁yapış	-10.2959
▁kuşa	-10.2971
▁tüp	-10.3012
▁eleştiri	-10.3028
▁göm	-10.306
uk	-10.3088
daş	-10.3094
gay	-10.3103
▁yumurta	-10.3104
▁yavuz	-10.3108
▁uygur	-10.3111
▁yönel	-10.3119
▁ziraat	-10.3119
▁çarşı	-10.3136
elçi	-10.3142
batı	-10.3158
lak	-10.3158
▁viz	-10.3159
▁cins	-10.3168
bat	-10.3169
▁birço	-10.3182
▁anımsa	-10.3186
▁yanlı	-10.3187
▁yılmaz	-10.3187
▁danış	-10.3204
do	-10.3208
▁emir	-10.3212
▁rastla	-10.3215
say	-10.3219
zminat	-10.322
▁clinton	-10.3229
yol	-10.3229
▁paşa	-10.3231
nuz	-10.3236
ürk	-10.3256
▁kapsa	-10.3256
siyon	-10.3268
▁ımf	-10.3276
phane	-10.3286
▁köpeğ	-10.3306
▁hassas	-10.3307
▁saldırgan	-10.3307
▁duyuru	-10.3308
▁aleyh	-10.3311
▁beslen	-10.3316
▁istihbar	-10.3317
▁ispanyol	-10.3318
▁michael	-10.3319
▁detay	-10.3326
▁basit	-10.3327
▁özkan	-10.3335
▁39	-10.3338
▁olanak	-10.3338
▁ortam	-10.3354
▁cik	-10.3377
▁saf	-10.3378
▁moda	-10.3382
▁pamuk	-10.3384
ktaş	-10.3391
▁istih	-10.3394
▁gümüş	-10.3394
▁51	-10.3397
▁hamile	-10.3409
▁fat	-10.3411
▁çıkar	-10.3414
▁zeytin	-10.3433
▁key	-10.3435
ılma	-10.3438
▁bahar	-10.345
▁twitt	-10.3465
▁robert	-10.3472
▁yukar	-10.3477
▁nö	-10.348
▁klasi	-10.349
prim	-10.3491
▁çö	-10.3493
nce	-10.35
▁şarap	-10.3515
▁müftü	-10.3515
▁patron	-10.3516
▁harita	-10.3516
▁direniş	-10.3519
üs	-10.3533
önü	-10.3533
efa	-10.3546
ter	-10.3562
ybol	-10.3563
▁han	-10.3568
▁resmi	-10.3569
▁seks	-10.357
▁mobil	-10.3605
▁apart	-10.3613
yıs	-10.3617
▁müt	-10.3634
ilhan	-10.3634
▁süz	-10.3638
▁yakış	-10.3641
nu	-10.3651
▁halil	-10.3663
zi	-10.3679
▁havuz	-10.368
▁kam	-10.3686
ük	-10.3697
▁çarşa	-10.3715
▁düzenl	-10.372
▁suçla	-10.3725
▁holding	-10.3728
▁istatistik	-10.3728
▁mahmut	-10.3729
▁duyarlı	-10.373
▁ayrıntı	-10.3732
▁isveç	-10.3732
▁müziğ	-10.3733
▁abdül	-10.3738
▁mektub	-10.3742
▁uzm	-10.3742
▁avust	-10.3745
▁bulgar	-10.3747
ap	-10.3752
▁afet	-10.3755
▁gar	-10.3756
▁aksu	-10.3759
▁per	-10.3759
▁res	-10.3761
▁600	-10.3761
▁emr	-10.3762
▁mesaf	-10.3778
eb	-10.3804
vole	-10.382
▁off	-10.3821
üm	-10.3828
ceğ	-10.3836
▁ünal	-10.3856
▁başl	-10.3868
min	-10.3872
▁kod	-10.3878
▁fenerbah	-10.3896
▁64	-10.3903
▁ulu	-10.3908
ko	-10.3918
▁kütü	-10.3923
aktör	-10.3934
▁maske	-10.3958
▁havaalan	-10.3966
riz	-10.3966
▁rıza	-10.3968
▁elbet	-10.3974
▁kaz	-10.3975
▁çök	-10.3978
▁fe	-10.4016
▁man	-10.4023
▁hedefle	-10.4025
▁olağan	-10.4044
sin	-10.4051
▁ertuğ	-10.4052
▁sebeb	-10.4059
▁mağ	-10.4061
▁anket	-10.4071
▁ercan	-10.4073
▁adil	-10.4073
▁olağanüs	-10.4073
▁çiğ	-10.4083
▁yasağ	-10.4085
net	-10.4088
▁mevki	-10.4094
ale	-10.4096
nik	-10.41
▁ertelen	-10.4131
▁par	-10.4133
▁üzünt	-10.4135
ücü	-10.4144
çika	-10.4146
▁ihraç	-10.4167
▁tekstil	-10.4167
▁yıldırım	-10.4169
▁arslan	-10.4173
▁yaklaşım	-10.4175
▁matematik	-10.4176
▁nd	-10.4176
11	-10.4184
▁polat	-10.4193
▁volkan	-10.4198
▁halep	-10.4202
uyruk	-10.4207
▁uğraş	-10.4209
▁imzalan	-10.4236
▁gergin	-10.4237
▁sağl	-10.4246
üstü	-10.4247
aşık	-10.4247
ando	-10.4249
fat	-10.425
▁eyle	-10.425
▁bağır	-10.4256
dı	-10.4267
▁vaka	-10.4267
▁cemal	-10.4271
▁özü	-10.4281
▁kore	-10.4282
▁tara	-10.4283
are	-10.4294
▁yönetmen	-10.4306
▁tar	-10.4318
▁alkol	-10.4339
▁mimar	-10.434
▁selam	-10.4346
▁işgal	-10.4355
▁form	-10.4363
pa	-10.4387
▁buz	-10.4392
▁197	-10.4393
▁isviçre	-10.4394
▁panel	-10.4399
▁sokağ	-10.4399
▁eleman	-10.44
▁önerge	-10.4406
▁mağlup	-10.4406
▁milliyet	-10.4409
▁atlet	-10.4411
▁irade	-10.4421
miş	-10.4425
▁ihlal	-10.4427
imdi	-10.4428
▁rese	-10.4454
▁cihan	-10.4463
▁don	-10.4472
▁morg	-10.4474
▁turan	-10.4481
gen	-10.4482
kip	-10.4501
ret	-10.4507
yince	-10.4515
▁ceng	-10.4529
oto	-10.4533
▁idam	-10.4553
▁ilgin	-10.4556
▁balıkesir	-10.4557
ey	-10.4562
▁kere	-10.4564
▁efe	-10.4564
▁ipek	-10.4573
▁eren	-10.4576
▁kadir	-10.4582
▁kad	-10.4588
00	-10.4592
▁türkü	-10.4607
▁icra	-10.4626
▁menajer	-10.4627
▁gayret	-10.4627
▁kaçakçı	-10.4627
▁tavır	-10.4627
▁çevik	-10.4629
tina	-10.463
▁kavram	-10.4631
▁roket	-10.4633
▁kitle	-10.4634
▁kom	-10.4634
▁samimi	-10.4635
▁yedek	-10.4636
▁bayrağ	-10.4638
▁zar	-10.4645
▁hayati	-10.4648
for	-10.4659
▁bildiri	-10.4665
▁rahatla	-10.4667
▁ilke	-10.4673
1999	-10.4676
▁sığın	-10.4689
▁fatura	-10.4694
▁sorgu	-10.4696
▁anıt	-10.4698
▁hind	-10.4699
tre	-10.4715
istik	-10.4721
may	-10.4736
ofis	-10.4741
akarya	-10.4744
▁duru	-10.4767
cinsel	-10.4768
▁günay	-10.4771
▁ahlak	-10.4772
leme	-10.4787
evi	-10.4803
id	-10.4809
▁yarar	-10.4822
▁kaçın	-10.4824
▁46	-10.484
▁katil	-10.4842
▁öykü	-10.4864
▁ger	-10.4865
▁başlangı	-10.4865
▁cesaret	-10.4866
▁kontrolün	-10.4869
▁torun	-10.4869
▁bekir	-10.4873
▁fırt	-10.4883
▁karanlı	-10.4885
▁deneyim	-10.4887
▁korunma	-10.4898
▁restoran	-10.4902
▁metro	-10.4912
tro	-10.4912
▁özgü	-10.492
kal	-10.4921
▁ra	-10.4922
▁yas	-10.4931
▁üstün	-10.4933
▁çete	-10.4934
▁kişisel	-10.4937
▁radikal	-10.4944
hiş	-10.4958
öğreti	-10.4981
▁hac	-10.4985
met	-10.4998
▁38	-10.5006
▁moral	-10.5011
üçlü	-10.5018
▁çeyre	-10.502
aç	-10.5025
▁zincir	-10.5034
ris	-10.5036
▁milan	-10.5061
ham	-10.5072
▁mey	-10.5073
▁stat	-10.5077
▁kritik	-10.511
▁gecik	-10.5112
sun	-10.5113
▁lisans	-10.5121
▁oğul	-10.5122
▁cümle	-10.5122
oktay	-10.5142
▁nev	-10.5143
vit	-10.5184
yucu	-10.5208
▁konsol	-10.5216
▁koşu	-10.5221
▁ok	-10.5226
▁güçlendir	-10.523
▁sakla	-10.5236
▁alev	-10.5265
▁husu	-10.5274
▁suçlama	-10.5275
▁sez	-10.5277
▁kartal	-10.5278
▁muam	-10.5281
hvil	-10.5292
siad	-10.5299
det	-10.5307
▁cd	-10.531
unlar	-10.5316
▁yum	-10.5316
▁tasar	-10.5317
▁cha	-10.5328
▁piyan	-10.5345
▁yavru	-10.5359
▁adı	-10.536
name	-10.537
▁kurt	-10.5372
av	-10.5372
▁tokat	-10.5372
▁tarla	-10.5384
▁kos	-10.5395
ney	-10.5408
▁marmara	-10.5409
▁kenan	-10.5411
▁çare	-10.5419
gel	-10.5422
▁tahri	-10.5424
▁kopyala	-10.5429
▁nec	-10.5441
▁netice	-10.5456
▁pi	-10.5458
▁kabin	-10.5464
▁şener	-10.547
▁altın	-10.5472
▁play	-10.5473
▁kanad	-10.5482
▁filis	-10.5482
vi	-10.5483
▁diren	-10.5491
▁196	-10.5502
▁tarif	-10.5506
▁aca	-10.5508
▁sergilen	-10.5514
▁yenilgi	-10.5516
▁tank	-10.5541
▁112	-10.5548
▁antik	-10.5561
▁tuncel	-10.5577
▁tad	-10.559
▁ga	-10.5597
nı	-10.561
hang	-10.5612
▁bdp	-10.5614
▁elazığ	-10.5614
▁azerbaycan	-10.5615
▁doğalgaz	-10.5615
▁uçuş	-10.5617
▁kazakistan	-10.5617
▁militan	-10.5618
▁keçi	-10.562
▁şeri	-10.562
▁reddet	-10.5621
▁kemer	-10.5625
aza	-10.5625
▁58	-10.5626
▁za	-10.5626
▁54	-10.5631
▁mutfak	-10.5634
alet	-10.5634
▁balkan	-10.5647
ser	-10.565
▁statü	-10.566
mesi	-10.5664
▁tanıtıl	-10.5685
▁bale	-10.5688
▁civa	-10.5698
▁tutukla	-10.57
ahmet	-10.5718
üğ	-10.5795
▁vurgu	-10.5797
▁beyan	-10.5806
bo	-10.5809
▁bulut	-10.5814
▁08	-10.5815
ok	-10.5827
▁google	-10.583
700	-10.5833
mış	-10.5848
kil	-10.5868
wood	-10.5869
▁japon	-10.587
▁albay	-10.5871
▁okyanus	-10.5878
▁disiplin	-10.5878
▁adıyaman	-10.5878
oy	-10.5878
▁felsefe	-10.5879
liye	-10.588
▁şef	-10.5886
▁sandal	-10.5887
▁şair	-10.5892
▁menderes	-10.5893
▁men	-10.5903
alya	-10.5904
▁edit	-10.5907
▁imar	-10.5907
ünkü	-10.5909
▁yöre	-10.591
▁kiraz	-10.592
▁kanıt	-10.5927
ch	-10.5938
tezkere	-10.5951
mar	-10.5959
▁esna	-10.5965
▁52	-10.5968
▁salı	-10.5973
▁şükr	-10.5979
▁ertele	-10.5987
▁üste	-10.6004
▁boşal	-10.6012
80	-10.6018
▁arif	-10.602
kon	-10.6025
▁yaprak	-10.6039
▁dvd	-10.6039
▁gözlem	-10.6054
▁fon	-10.6056
▁95	-10.6061
▁hane	-10.6091
▁derin	-10.6103
parmak	-10.6105
ger	-10.6112
▁57	-10.6113
onsor	-10.6125
▁am	-10.6128
bank	-10.6145
ufak	-10.6148
▁motosiklet	-10.6148
▁enstitü	-10.6149
▁endüstri	-10.615
▁fidan	-10.6159
▁ağla	-10.6164
▁zeki	-10.6165
▁osc	-10.6168
▁çağrıl	-10.617
▁kayd	-10.6175
▁berg	-10.6177
dak	-10.6201
▁profil	-10.6202
▁çarpış	-10.6207
▁kontrolü	-10.6212
▁hi	-10.6233
▁bot	-10.6236
sut	-10.6239
ehr	-10.6255
▁korkut	-10.6276
▁kültüre	-10.6282
ga	-10.6284
▁yürürlü	-10.6285
irt	-10.6292
▁tahsil	-10.6293
▁merke	-10.6309
fa	-10.6316
▁deney	-10.6325
▁somut	-10.6329
ent	-10.633
▁hekim	-10.6338
▁yiğit	-10.6342
▁böl	-10.6347
▁tük	-10.6376
▁fı	-10.638
▁dsp	-10.6387
▁mersi	-10.6395
▁popül	-10.6398
▁oba	-10.6406
▁sap	-10.6413
hikmet	-10.642
▁pankart	-10.6425
▁iskender	-10.6426
▁biyoloji	-10.6427
▁cennet	-10.6427
▁iftar	-10.6428
▁öldürülme	-10.643
▁çadır	-10.6432
▁kazı	-10.6433
▁mantık	-10.6435
▁yuva	-10.6435
▁giyim	-10.6441
▁zeyne	-10.6442
▁altınor	-10.6451
▁profes	-10.6457
leş	-10.646
▁onayla	-10.6463
▁ac	-10.6467
▁celal	-10.6468
▁59	-10.6469
▁çü	-10.6489
oloji	-10.6492
landırıl	-10.6497
▁56	-10.6509
▁özer	-10.6514
▁tayfu	-10.6523
▁utan	-10.6526
▁uzlaş	-10.6535
ali	-10.6539
ck	-10.6541
▁salla	-10.6542
fer	-10.6557
▁stre	-10.6559
▁anti	-10.6567
▁ber	-10.6568
ten	-10.657
içi	-10.6587
▁rakı	-10.6593
▁niyet	-10.6594
▁jür	-10.6605
▁aygün	-10.6624
▁durak	-10.665
▁bk	-10.6652
▁dolandırı	-10.6654
▁hatt	-10.6655
▁harik	-10.6656
▁penc	-10.6664
▁taksit	-10.668
▁burn	-10.6683
▁fela	-10.6686
▁berk	-10.6695
zor	-10.6696
▁yozgat	-10.6711
▁mevsim	-10.6711
▁polonya	-10.6711
▁ikram	-10.6712
▁tart	-10.6713
▁imalat	-10.6714
▁teşhis	-10.6716
▁bilinç	-10.6717
▁blok	-10.6717
▁şov	-10.672
▁66	-10.6723
ina	-10.6724
▁iktisa	-10.6727
▁mermi	-10.6736
bahçe	-10.6741
sör	-10.6746
▁marş	-10.6749
▁otop	-10.675
▁robot	-10.6754
▁bur	-10.6755
▁hamza	-10.6755
▁temizle	-10.6757
▁bölü	-10.676
▁tabur	-10.6776
▁manevi	-10.6788
▁zira	-10.679
şem	-10.6805
▁jo	-10.6806
▁44	-10.6806
▁kın	-10.6812
▁izn	-10.6814
beke	-10.6823
▁diş	-10.6823
▁isyan	-10.6828
▁tez	-10.6831
▁jet	-10.6839
▁özerk	-10.6869
aşkın	-10.687
▁53	-10.6893
▁raki	-10.6911
▁arz	-10.6923
▁pis	-10.6931
▁yayımla	-10.6935
▁yasakla	-10.6951
▁fahri	-10.6969
▁06	-10.6978
uf	-10.6993
▁ziya	-10.6994
▁47	-10.6995
▁cerrah	-10.7005
▁ibadet	-10.7005
▁1996	-10.7007
▁hücre	-10.7008
▁lezzet	-10.7009
▁öfke	-10.7017
sil	-10.7019
yağı	-10.702
▁şi	-10.7021
▁amatör	-10.7024
▁dua	-10.7025
ülme	-10.7027
putin	-10.7041
▁gözük	-10.7042
▁yargıla	-10.7043
▁pier	-10.705
▁ergin	-10.7053
▁ağırla	-10.7054
▁şiş	-10.7056
▁tunç	-10.7082
▁ast	-10.7083
ot	-10.709
▁sekiz	-10.7091
▁dikkatli	-10.7106
▁öngörü	-10.7106
▁devir	-10.7108
▁hit	-10.7116
▁yetkili	-10.7118
▁keyf	-10.7121
▁simge	-10.7128
▁times	-10.713
▁tıbb	-10.7134
▁nor	-10.7138
▁sinir	-10.7143
▁kısı	-10.7148
ciğer	-10.7153
ahil	-10.7156
▁direk	-10.7159
vent	-10.7168
▁fas	-10.7172
▁tanım	-10.7194
▁geril	-10.7201
▁kutlan	-10.7203
ağız	-10.7206
▁hay	-10.7235
▁alkış	-10.7244
▁periyo	-10.7244
▁algı	-10.7247
▁mesel	-10.7248
ngre	-10.726
kare	-10.726
derk	-10.7262
▁latin	-10.7263
▁seyahat	-10.7265
▁85	-10.7277
▁reh	-10.7281
▁mükemmel	-10.7308
▁geçer	-10.7308
▁ideoloji	-10.7308
▁hakaret	-10.7309
▁necati	-10.7309
af	-10.731
▁2020	-10.731
▁turgut	-10.7311
▁george	-10.7311
▁defans	-10.7315
▁atalay	-10.7315
▁mikro	-10.7316
▁kayserispor	-10.732
▁zeka	-10.7321
▁and	-10.7324
rt	-10.7328
veren	-10.733
▁vücud	-10.733
▁iskele	-10.7336
▁ssk	-10.7338
dün	-10.7343
▁nabu	-10.7345
▁ho	-10.7351
dım	-10.7354
▁cemil	-10.7361
▁saptan	-10.7362
tim	-10.7365
▁parlak	-10.7371
▁mert	-10.7371
asp	-10.738
subay	-10.7381
▁yelk	-10.7382
ışı	-10.7388
▁mecbur	-10.7399
ard	-10.7422
tir	-10.7434
▁mut	-10.7441
▁yararl	-10.7442
▁bek	-10.745
▁genişle	-10.7451
▁küme	-10.7459
hbe	-10.746
hum	-10.7462
ley	-10.7465
▁öğret	-10.7469
▁devril	-10.7469
▁sebebiy	-10.747
ebilme	-10.7471
chuan	-10.7474
eksiyon	-10.7479
▁feri	-10.7491
süz	-10.7495
▁81	-10.7498
▁özen	-10.7499
stik	-10.7508
▁lüks	-10.751
bay	-10.7513
▁goller	-10.7531
event	-10.7532
▁besle	-10.7532
▁gerç	-10.7535
sey	-10.7551
▁bıçakla	-10.7558
▁karaman	-10.7558
udi	-10.7561
▁shi	-10.7564
▁pınar	-10.7587
ö	-10.7593
▁oyn	-10.76
▁sadd	-10.7607
ekiz	-10.7613
▁ittifak	-10.762
▁refah	-10.762
▁faruk	-10.762
▁geliştirilme	-10.7623
▁jean	-10.7632
▁çıplak	-10.7638
▁bilinc	-10.7638
▁lok	-10.7641
▁ihsan	-10.7648
day	-10.765
pool	-10.7652
▁skand	-10.7662
per	-10.7672
▁dör	-10.7681
kam	-10.7683
▁şişe	-10.7684
▁diplomat	-10.769
▁kaygı	-10.7707
▁satı	-10.7722
▁ergen	-10.7723
ayet	-10.7729
▁isteye	-10.7729
ilme	-10.773
▁degil	-10.7734
▁festival	-10.7743
tansiy	-10.7746
▁sorgula	-10.7749
▁viya	-10.7755
▁papa	-10.7769
▁tok	-10.7771
▁es	-10.7774
▁biber	-10.7775
▁çakır	-10.7786
▁market	-10.7792
▁vi	-10.7796
vez	-10.7801
▁yuan	-10.7802
▁boşan	-10.7842
▁ja	-10.7842
gın	-10.7845
▁çan	-10.7853
▁hükm	-10.7859
acak	-10.7864
mrah	-10.7873
▁yücel	-10.7875
▁saati	-10.788
▁idar	-10.7881
▁doğrula	-10.7881
saray	-10.7883
ele	-10.7899
▁toplam	-10.7901
▁arab	-10.7902
▁meşa	-10.7905
▁zayıf	-10.7909
▁mahsu	-10.7922
veç	-10.7927
▁pr	-10.7928
tar	-10.7934
▁villa	-10.7937
▁şeffaf	-10.7942
▁vicdan	-10.7942
▁branş	-10.7942
▁istiklal	-10.7943
▁donanım	-10.7943
▁bakırköy	-10.7943
▁laboratu	-10.7944
▁1994	-10.7944
▁karargah	-10.7946
▁kararname	-10.7949
▁ecza	-10.7949
▁arena	-10.7959
▁düzel	-10.796
ban	-10.7964
▁koyun	-10.7969
▁kulak	-10.7978
▁genelge	-10.7984
▁pan	-10.8004
▁koku	-10.8007
▁meme	-10.8013
▁kir	-10.8017
▁seda	-10.8023
▁üs	-10.8026
▁kirala	-10.8029
ksiyon	-10.8062
tu	-10.8066
mey	-10.8069
▁dinç	-10.8074
kuzu	-10.8077
ia	-10.8083
ng	-10.8085
▁nuri	-10.8102
art	-10.8104
▁kort	-10.8104
▁41	-10.8112
▁ted	-10.8128
sika	-10.8135
gil	-10.814
▁tutukl	-10.8144
▁öcal	-10.8152
los	-10.8153
▁ot	-10.8166
▁işit	-10.8167
▁naz	-10.8169
form	-10.817
▁çak	-10.8173
▁hatırlatıl	-10.8176
▁cezalandırıl	-10.8179
ide	-10.8198
▁ro	-10.8207
▁direkt	-10.8221
16	-10.8252
▁68	-10.8255
▁hakka	-10.8274
▁mevzu	-10.8275
▁müezzin	-10.8276
▁muayene	-10.8276
▁erciyes	-10.8277
▁web	-10.8278
▁kapatılma	-10.8278
nan	-10.8285
▁haluk	-10.8286
▁ürdün	-10.8288
▁micro	-10.8291
ut	-10.8291
▁hele	-10.8296
12	-10.8297
▁şan	-10.8299
▁800	-10.8301
▁yorul	-10.8304
▁hayvanc	-10.8307
▁öncü	-10.8322
▁km	-10.8338
▁telaf	-10.8339
▁hap	-10.8342
▁limit	-10.8342
▁disk	-10.8353
kadir	-10.8358
▁gideril	-10.8364
▁boru	-10.8367
▁marmar	-10.8369
eğ	-10.8376
gar	-10.838
▁hacmi	-10.8392
▁krali	-10.8396
▁şut	-10.8398
▁sır	-10.8407
nato	-10.8408
▁çavuş	-10.8411
ıntı	-10.8414
▁pota	-10.8418
▁şif	-10.8428
▁yaygın	-10.8431
ruz	-10.8451
▁poz	-10.8456
▁62	-10.8457
▁islami	-10.8465
▁akı	-10.8468
göl	-10.8469
şek	-10.847
mak	-10.8483
▁fırla	-10.8487
▁alaka	-10.8487
▁tanımla	-10.8514
▁77	-10.8514
▁ülker	-10.8515
▁kontrolde	-10.8518
ullah	-10.8522
tır	-10.8524
▁golle	-10.8528
▁bahsed	-10.8533
▁83	-10.8536
ved	-10.8538
▁subay	-10.8543
▁süresi	-10.8543
▁pil	-10.8548
▁çevr	-10.8552
▁ibare	-10.8568
▁71	-10.8571
jant	-10.8575
ndar	-10.859
▁yuz	-10.8591
nd	-10.8591
ego	-10.8598
başkanlığı	-10.8613
klim	-10.8615
▁telekom	-10.8617
▁yüreğ	-10.862
▁elbise	-10.862
▁diyalog	-10.862
▁müraca	-10.862
▁defter	-10.862
▁fosil	-10.8621
▁bbc	-10.8621
▁vesile	-10.8625
▁yoksu	-10.8625
▁yakalanma	-10.8626
▁düzenlenme	-10.8629
lari	-10.8632
▁referan	-10.8634
ord	-10.8637
▁klima	-10.8641
▁uydu	-10.8642
▁dürüst	-10.8644
▁gelenek	-10.8647
▁gi	-10.865
▁özbek	-10.8651
zin	-10.8652
▁toz	-10.8652
narlı	-10.8658
▁ömür	-10.8662
▁kayı	-10.8668
operati	-10.8672
▁karı	-10.8673
fiş	-10.8677
▁sil	-10.8678
▁şahs	-10.8681
▁kumar	-10.8682
▁feda	-10.8687
▁ceb	-10.8706
ılık	-10.8716
lement	-10.8719
key	-10.8721
ktar	-10.8726
ana	-10.8728
ji	-10.8736
▁ana	-10.8739
▁idman	-10.8741
bahar	-10.8743
▁piya	-10.8747
▁beton	-10.8747
▁köse	-10.8755
laşma	-10.8755
▁ço	-10.8758
▁burs	-10.8766
▁selaha	-10.8768
▁metal	-10.8771
▁berli	-10.8773
▁kah	-10.8777
göz	-10.8782
konu	-10.8787
▁olsay	-10.8792
yku	-10.8801
pres	-10.8827
▁suy	-10.8837
▁umud	-10.8841
ehir	-10.8841
▁kına	-10.8853
▁350	-10.8857
▁kafe	-10.8867
atila	-10.8869
▁bela	-10.8877
▁kuyu	-10.8884
▁restor	-10.8886
▁kars	-10.8886
rd	-10.8898
lek	-10.8899
▁tekrarla	-10.891
▁onaylan	-10.8916
▁akıntı	-10.8929
▁kusur	-10.8932
rağ	-10.8935
▁real	-10.8944
▁carlo	-10.8951
terin	-10.8952
▁yaratı	-10.8955
▁sene	-10.8957
▁ru	-10.8969
▁masraf	-10.8977
▁keşke	-10.8977
▁kıymet	-10.8977
▁vakit	-10.8979
nem	-10.8982
ntı	-10.8985
▁kab	-10.8988
▁planl	-10.8991
▁kağıt	-10.8991
▁paul	-10.8997
raba	-10.8999
▁şeref	-10.8999
▁hatıra	-10.9003
▁09	-10.9014
üt	-10.9017
▁fuh	-10.9017
▁hül	-10.902
▁gündüz	-10.9022
▁diz	-10.9023
▁76	-10.9026
▁taşkın	-10.9028
▁incir	-10.9029
▁camii	-10.903
▁ekme	-10.9038
rı	-10.9041
ncak	-10.9043
başkan	-10.9044
▁turkce	-10.9044
hristi	-10.9048
▁hacı	-10.9056
▁denizli	-10.9061
park	-10.907
▁göt	-10.9073
▁genc	-10.909
▁çelen	-10.9093
▁çeyr	-10.9109
ade	-10.9113
▁sakatlan	-10.9117
ılığı	-10.9124
▁yurd	-10.9126
fret	-10.9127
lova	-10.9129
▁aşı	-10.9134
dil	-10.914
des	-10.9143
lyon	-10.9151
▁sıfır	-10.9151
▁komed	-10.9154
bulut	-10.9155
▁ala	-10.9155
▁sün	-10.9156
sus	-10.9165
yor	-10.9169
▁ayva	-10.917
ray	-10.9173
▁düğü	-10.9184
▁seyred	-10.9187
yat	-10.9194
htar	-10.9202
kut	-10.9203
▁çarptırıl	-10.9212
aşır	-10.9217
don	-10.9229
▁yürek	-10.923
▁vir	-10.9232
cık	-10.9236
yüzü	-10.9236
▁63	-10.9241
▁87	-10.9248
▁maz	-10.9257
▁gay	-10.9257
▁zo	-10.9259
▁ero	-10.9259
▁gön	-10.9266
▁tahli	-10.9274
▁hedefl	-10.9278
▁ambar	-10.9279
▁koro	-10.9281
▁alp	-10.9284
▁ze	-10.9285
▁hadi	-10.9294
öl	-10.9298
▁sta	-10.9307
▁boya	-10.9334
iyarbakırspor	-10.934
dari	-10.9343
▁tuvale	-10.9346
▁stand	-10.9347
▁otomatik	-10.9348
▁nitekim	-10.9348
▁meteoroloji	-10.9348
▁ihmal	-10.9348
rgah	-10.9349
▁1995	-10.9349
▁fethiye	-10.935
▁far	-10.9351
▁layık	-10.9357
▁itibarıyl	-10.9359
▁anap	-10.9362
▁şenol	-10.9368
▁palin	-10.9372
▁koordinat	-10.9374
▁feth	-10.9378
▁ortağ	-10.9395
▁giysi	-10.9396
▁filo	-10.9401
▁mit	-10.9402
▁holl	-10.9403
▁taze	-10.9403
faz	-10.9404
▁hamit	-10.9406
▁leh	-10.9407
▁nas	-10.9407
miner	-10.9416
▁fener	-10.9417
nur	-10.9423
yalı	-10.9423
▁araz	-10.9423
▁hafız	-10.9429
▁sure	-10.9432
▁ısın	-10.9433
avro	-10.9443
faş	-10.9472
▁basama	-10.9476
▁abla	-10.9482
imha	-10.9484
▁vefat	-10.9488
▁yetiştiril	-10.9495
▁alanya	-10.9506
▁beğeni	-10.9514
▁spd	-10.9525
▁bos	-10.9526
▁şa	-10.9526
▁vita	-10.9527
▁belirlenm	-10.9529
▁kurmay	-10.9541
▁tüf	-10.9545
▁aydınlat	-10.9556
▁prop	-10.9561
▁nur	-10.9573
gram	-10.9576
▁pey	-10.9579
▁hüc	-10.9597
mus	-10.96
▁boyn	-10.9627
▁ümi	-10.9629
▁ch	-10.9633
▁üss	-10.9635
▁67	-10.9635
▁der	-10.9637
con	-10.9641
▁kurumsal	-10.9658
▁02	-10.966
▁bük	-10.9677
gazi	-10.9683
▁gökçe	-10.969
kol	-10.9695
porta	-10.9702
▁kabu	-10.9705
▁tavr	-10.9705
esad	-10.9711
eş	-10.9714
▁yükle	-10.9718
▁jud	-10.9727
▁köfte	-10.9731
▁ebru	-10.9731
▁kütahya	-10.9732
▁damga	-10.9732
▁mağlubiyet	-10.9732
▁dyp	-10.9733
▁imkb	-10.9733
▁koleksiyon	-10.9733
▁güze	-10.9734
▁yakıt	-10.9734
sancak	-10.9735
▁garip	-10.9735
lma	-10.9737
bol	-10.974
▁hint	-10.974
▁boğul	-10.9744
▁entry	-10.9744
krem	-10.9744
▁yıldön	-10.9749
▁dos	-10.975
zer	-10.9752
▁af	-10.9758
dor	-10.9761
▁öd	-10.9762
dür	-10.9769
amba	-10.9771
▁coğraf	-10.9773
▁atlas	-10.9773
lef	-10.9777
▁oyuncak	-10.9782
▁yatağ	-10.9782
▁sera	-10.9787
▁82	-10.9794
▁yere	-10.9798
inci	-10.9798
yak	-10.9803
▁unvan	-10.9806
ick	-10.9806
▁tebli	-10.981
▁kıskan	-10.9816
ındır	-10.983
▁amerik	-10.9833
▁golün	-10.9835
▁gurbe	-10.9842
lendir	-10.9849
▁kaf	-10.985
▁alet	-10.9851
tur	-10.9858
ani	-10.9863
odos	-10.9864
kıf	-10.9872
▁ray	-10.9873
▁trafi	-10.9876
▁yayla	-10.988
land	-10.9884
▁alevi	-10.9902
▁aydoğ	-10.9903
▁bozu	-10.9911
▁yayınev	-10.9915
mek	-10.9922
dim	-10.9923
pri	-10.9924
ünite	-10.9925
▁esrar	-10.9931
▁uşak	-10.9931
▁kası	-10.9936
ikna	-10.9955
▁pist	-10.9956
▁mil	-10.9957
▁gr	-10.9969
▁asan	-10.998
▁sad	-10.9992
▁düzgü	-10.9996
▁kuşk	-10.9998
▁burun	-11.0005
▁denetle	-11.0005
terli	-11.0006
hong	-11.001
▁hil	-11.0049
gun	-11.0059
▁dinami	-11.0068
▁kahv	-11.007
▁pat	-11.0071
▁alay	-11.0073
sur	-11.0077
ılırke	-11.0091
▁mum	-11.0096
ll	-11.0096
▁zev	-11.0098
dat	-11.0104
sen	-11.0119
▁sabr	-11.0121
▁zırh	-11.013
apur	-11.013
ebze	-11.0131
▁james	-11.0131
▁powell	-11.0131
▁konsantr	-11.0132
▁çoban	-11.0132
▁kadıköy	-11.0132
▁danimarka	-11.0132
▁çolak	-11.0132
▁durdurulma	-11.0132
▁mitoloji	-11.0132
▁barındır	-11.0132
▁irlanda	-11.0133
▁dönüştürül	-11.0133
▁yüküm	-11.0134
▁bahset	-11.0136
▁abone	-11.0137
perde	-11.014
▁alçak	-11.014
▁alarm	-11.014
▁pet	-11.0155
anta	-11.0164
tes	-11.0165
semin	-11.0168
▁taktik	-11.0175
▁kuyruk	-11.0179
▁city	-11.0179
▁kaba	-11.0182
▁ilave	-11.0184
iang	-11.0191
▁fel	-11.0194
▁sey	-11.0196
vid	-11.0202
▁kapla	-11.0215
▁gündoğ	-11.0216
▁paral	-11.0217
▁finalde	-11.0218
▁dah	-11.0218
iao	-11.0223
▁coğrafi	-11.0232
cıoğ	-11.0233
▁sıfat	-11.0257
▁trt	-11.0263
▁katr	-11.0269
ico	-11.0274
sın	-11.028
▁değ	-11.0293
▁96	-11.0297
ello	-11.03
▁reng	-11.0306
▁kemi	-11.0334
kalbi	-11.0335
▁çile	-11.0336
▁alkoll	-11.0358
▁metn	-11.0363
iyan	-11.0378
▁love	-11.0379
tiyat	-11.0379
ahramanmaraş	-11.0384
albay	-11.0386
ru	-11.0392
▁by	-11.0393
sopa	-11.0393
▁yakup	-11.0396
▁lütfe	-11.0397
ağı	-11.0417
▁makale	-11.0425
▁pahal	-11.0434
▁redded	-11.0438
gan	-11.0441
▁93	-11.045
şer	-11.046
▁ışın	-11.0488
▁ayn	-11.0493
▁ytly	-11.0495
▁yeme	-11.0498
arı	-11.0498
▁trans	-11.0508
sof	-11.0508
▁vücu	-11.0515
▁kare	-11.0521
▁vakti	-11.0524
▁protokol	-11.0545
▁kktc	-11.0547
▁jintao	-11.0548
tak	-11.0548
▁global	-11.0548
▁youtube	-11.0548
▁müttefik	-11.0548
▁arkeoloji	-11.0548
▁rehabilit	-11.0548
▁karabük	-11.0548
▁zihniyet	-11.055
▁sabır	-11.055
▁000	-11.0551
▁ığdır	-11.0551
▁küfür	-11.0552
▁hırist	-11.0553
he	-11.0556
▁stok	-11.0559
▁ceset	-11.0561
▁açıklanma	-11.0565
▁eksi	-11.0572
▁uygulanma	-11.0573
same	-11.0574
▁kerem	-11.0574
zm	-11.0587
urla	-11.059
▁kıta	-11.0596
▁gali	-11.0602
ates	-11.0607
fi	-11.0608
▁zab	-11.0613
▁05	-11.0617
▁herhal	-11.0621
aliyet	-11.0621
ikamet	-11.0623
▁bini	-11.0627
▁thy	-11.0637
atay	-11.0639
zede	-11.0642
▁köl	-11.0648
▁porta	-11.0665
co	-11.0674
▁kürd	-11.0685
yiz	-11.0691
ayıp	-11.0691
▁kendisi	-11.0711
▁masum	-11.0717
muş	-11.0737
▁pir	-11.0737
▁pop	-11.0738
gari	-11.0746
tony	-11.0758
▁alkışla	-11.0766
60	-11.0766
ygun	-11.0767
▁oldug	-11.0775
▁cil	-11.0775
yd	-11.0777
▁dib	-11.0779
kur	-11.078
▁04	-11.0783
▁mesa	-11.0787
▁yaygınlaş	-11.0798
bakan	-11.0804
▁eriş	-11.0805
azı	-11.0808
▁ölçek	-11.0816
▁güncel	-11.0822
▁mor	-11.0823
▁komis	-11.083
esco	-11.0834
▁tema	-11.0834
▁78	-11.0835
lej	-11.0838
yve	-11.0848
çeşme	-11.0848
▁pur	-11.0855
hir	-11.0856
▁koyu	-11.0859
▁kür	-11.0866
alip	-11.0872
kin	-11.0876
jiang	-11.0897
▁birik	-11.0906
▁61	-11.0907
lo	-11.0909
▁nazi	-11.0921
▁karabur	-11.0939
▁beyn	-11.0944
▁mül	-11.0956
teci	-11.0963
▁çarş	-11.0963
rüt	-11.0964
▁hain	-11.0975
▁sertifika	-11.0983
▁peygamber	-11.0983
▁santimetre	-11.0983
▁arsenal	-11.0983
▁macera	-11.0983
cere	-11.0984
▁kırıkkale	-11.0984
▁paylaşıl	-11.0984
▁kontroller	-11.0985
▁liberal	-11.0987
▁somali	-11.0989
jder	-11.099
ngshan	-11.0992
▁dükk	-11.0992
▁hırs	-11.0996
▁konuşlandır	-11.1001
illiams	-11.1001
▁ribaunt	-11.1004
▁havayol	-11.1009
▁kene	-11.1011
▁hatip	-11.1013
▁kızıla	-11.1013
▁ayıp	-11.1014
zen	-11.1017
▁rehin	-11.1022
▁batılı	-11.1026
▁tahir	-11.103
▁küpe	-11.1065
▁tav	-11.1066
rdım	-11.1068
▁us	-11.1072
▁niha	-11.1083
▁nakliy	-11.1087
▁üret	-11.1089
isabet	-11.109
jan	-11.1093
▁aldat	-11.1095
▁melih	-11.11
▁motiv	-11.1107
▁öden	-11.1109
dyo	-11.1136
▁bang	-11.1152
chi	-11.1154
▁130	-11.1162
▁hayr	-11.1167
▁sof	-11.1168
▁hati	-11.1171
mur	-11.1172
▁daim	-11.1184
▁kilit	-11.1187
▁lojma	-11.1187
▁ey	-11.1199
evzi	-11.12
zlık	-11.1202
baba	-11.1205
▁bok	-11.1205
▁zem	-11.1209
şi	-11.1213
gaz	-11.1216
ski	-11.122
▁durağ	-11.122
▁olabil	-11.1221
▁patri	-11.1246
ada	-11.1252
cing	-11.1267
▁karma	-11.1269
▁kutl	-11.1273
▁suret	-11.1274
fik	-11.1278
▁esen	-11.1284
▁şük	-11.1295
spri	-11.1299
etim	-11.1307
▁los	-11.1313
▁general	-11.1327
enko	-11.1327
laştır	-11.1337
▁takibe	-11.134
mart	-11.136
antrenör	-11.1363
▁sabit	-11.1368
erhan	-11.1368
▁faşi	-11.1375
▁red	-11.1378
op	-11.1382
▁kana	-11.1384
14	-11.1391
▁festivalin	-11.1397
▁yumuşa	-11.14
▁mutfa	-11.14
▁yapan	-11.1405
▁piş	-11.1411
▁ato	-11.1413
▁konum	-11.1413
▁çekin	-11.1414
ivil	-11.1416
▁çığ	-11.1418
▁yüce	-11.1419
▁ısbn	-11.1436
▁black	-11.1436
▁united	-11.1437
▁kafkas	-11.1438
▁talih	-11.1438
▁kerim	-11.144
▁2017	-11.1443
▁bono	-11.1447
pirinç	-11.1449
▁gazze	-11.1452
▁kıyasla	-11.1453
▁arıza	-11.1456
▁bahane	-11.1457
▁meşru	-11.1459
▁çınar	-11.1461
▁104	-11.1462
▁sergen	-11.1462
nsor	-11.1463
▁yasin	-11.1464
▁seyret	-11.1479
▁gökçek	-11.148
dü	-11.1481
▁traktör	-11.149
▁komi	-11.149
▁rock	-11.1493
ren	-11.1499
▁yoğunlaş	-11.1509
▁akça	-11.1512
ön	-11.1515
▁hayda	-11.152
▁çöl	-11.153
▁dene	-11.1538
ans	-11.1546
iyor	-11.1548
▁nişan	-11.1552
ıta	-11.1552
▁kandır	-11.1553
ett	-11.1555
▁mimari	-11.1564
▁pür	-11.1564
▁yapıt	-11.1566
08	-11.157
gos	-11.1576
dır	-11.1576
rem	-11.1579
ic	-11.1586
▁sünne	-11.1592
▁go	-11.1594
▁tamir	-11.1597
▁sakın	-11.1597
▁ebu	-11.1598
▁atan	-11.1602
lay	-11.1604
▁satır	-11.1611
▁99	-11.1614
▁benz	-11.1615
avir	-11.162
▁rolü	-11.1622
ergün	-11.1626
▁dert	-11.163
▁aktivit	-11.1631
▁ayçiçe	-11.1636
▁takı	-11.1637
▁tazmin	-11.1642
▁07	-11.1643
▁vb	-11.1652
▁fer	-11.1655
▁soma	-11.1662
▁bank	-11.1665
▁maria	-11.1677
▁tang	-11.1679
▁ji	-11.1681
rik	-11.1684
▁bilge	-11.169
▁martin	-11.1693
▁köş	-11.1693
▁afgan	-11.1701
nız	-11.1714
▁uzatıl	-11.1715
▁pu	-11.1727
mada	-11.1739
▁yama	-11.1744
▁kıy	-11.1744
▁chpd	-11.1745
gre	-11.1756
ry	-11.1777
▁gürc	-11.1782
▁bla	-11.1794
▁diploma	-11.1809
▁arşiv	-11.1819
▁hamle	-11.1821
▁salgı	-11.1828
▁gu	-11.1833
▁ermen	-11.1839
çı	-11.1847
▁çekiş	-11.1855
▁tüfe	-11.1861
bot	-11.1862
yap	-11.1865
doğan	-11.1872
▁ceyh	-11.1873
▁danışma	-11.1874
avlu	-11.1874
▁anı	-11.1879
bur	-11.188
ac	-11.1883
▁beceri	-11.1889
▁kdv	-11.1892
▁84	-11.1893
hşet	-11.1908
▁tişört	-11.1912
▁cizre	-11.1912
▁nijerya	-11.1912
▁atmosfer	-11.1913
▁kompleks	-11.1913
ırklareli	-11.1913
▁macaristan	-11.1913
▁hdp	-11.1914
▁broş	-11.1914
15	-11.1915
▁başkonso	-11.1916
▁nikah	-11.1916
▁çorum	-11.1916
▁şarj	-11.1919
▁ihanet	-11.192
▁tıklay	-11.1922
▁donanma	-11.1923
avuk	-11.1925
▁göztepe	-11.1928
▁başkanvekil	-11.1932
▁kavşağ	-11.1935
▁ona	-11.1937
bağ	-11.1941
▁tasla	-11.1943
ang	-11.1947
▁paylaşım	-11.195
▁şeytan	-11.1951
▁koordin	-11.1956
▁özetle	-11.1958
razi	-11.1959
▁presti	-11.1962
▁küba	-11.1965
gu	-11.1966
▁manyeti	-11.1967
homs	-11.1969
▁buhar	-11.1976
▁tck	-11.1978
▁hala	-11.1979
▁müjde	-11.198
▁komik	-11.1981
▁krit	-11.1982
çin	-11.1985
▁frank	-11.2002
43	-11.2007
▁nice	-11.2009
▁hamam	-11.2026
▁pır	-11.2028
▁mod	-11.2029
▁spo	-11.2035
azi	-11.2038
zya	-11.2041
▁jose	-11.2046
uğgeneral	-11.2052
▁gas	-11.2055
tük	-11.2063
etici	-11.2065
zinca	-11.2082
▁veli	-11.2085
dum	-11.2086
▁yetene	-11.2097
▁kast	-11.2101
▁boğa	-11.2102
▁st	-11.2113
▁kö	-11.2124
hi	-11.2125
▁müteahhi	-11.2127
lege	-11.2129
▁nakli	-11.2129
▁hindi	-11.2131
▁yurtiç	-11.2134
empo	-11.2151
▁horo	-11.2153
▁çalı	-11.2159
▁turk	-11.2168
▁peli	-11.217
ef	-11.2175
▁öv	-11.2177
erdiv	-11.2186
▁deneme	-11.2187
tür	-11.2189
dal	-11.2201
vat	-11.2201
▁çarpı	-11.2201
▁sembol	-11.2211
yurt	-11.2216
talip	-11.2219
▁gören	-11.2225
▁pul	-11.2225
rahim	-11.2225
▁dj	-11.2239
▁sami	-11.2246
dik	-11.2253
▁muhar	-11.2254
▁konvo	-11.2254
nti	-11.2256
▁gala	-11.2268
▁haz	-11.2274
affle	-11.2278
▁zehir	-11.2285
▁oral	-11.2287
ismar	-11.229
köğret	-11.2297
sıra	-11.2298
▁tabu	-11.23
▁tebri	-11.2303
nma	-11.2307
rf	-11.2312
▁sürükle	-11.2322
erasyon	-11.2322
▁duba	-11.2326
▁koordina	-11.2331
▁you	-11.2332
▁seribaş	-11.2344
▁kaldırı	-11.2353
▁irti	-11.2355
numun	-11.2357
▁pri	-11.2359
▁yasaklan	-11.2364
bek	-11.2369
▁güçlendiril	-11.237
alı	-11.2375
▁140	-11.2379
▁w	-11.2381
▁merm	-11.2383
stra	-11.2385
▁tüken	-11.2389
▁cimnasti	-11.239
ablo	-11.2402
opotam	-11.2407
▁aşıl	-11.2411
▁çabuk	-11.2412
▁otorite	-11.2412
▁armağan	-11.2412
▁unakıtan	-11.2412
▁kağıd	-11.2414
▁kıdem	-11.2414
▁molla	-11.2414
▁avşar	-11.2415
▁tril	-11.2416
▁1993	-11.2416
viş	-11.2417
▁ceylan	-11.2417
▁mekani	-11.2417
▁bandırma	-11.2417
▁sinirl	-11.2417
▁görevlendiril	-11.2418
▁kalan	-11.2418
▁magazin	-11.2419
▁işlev	-11.2419
▁gülümse	-11.242
▁beste	-11.2421
▁günaydın	-11.2421
adet	-11.2423
▁türban	-11.2425
▁bacağ	-11.2431
01	-11.2435
fe	-11.2435
▁bürokrat	-11.2436
▁sakız	-11.2439
▁hamas	-11.2448
usul	-11.2448
▁seven	-11.2448
▁tacik	-11.2451
▁kazım	-11.2452
▁söndürül	-11.2452
lüb	-11.2455
vde	-11.2466
▁odaklan	-11.2466
fon	-11.2467
▁mahmud	-11.2469
▁twitterda	-11.2473
▁kari	-11.2473
▁kılın	-11.2475
▁79	-11.2479
▁hergün	-11.2488
▁jones	-11.2489
▁mer	-11.249
▁özlem	-11.249
▁dikili	-11.2491
▁tüketim	-11.2491
▁hü	-11.2499
▁sadık	-11.2513
▁rama	-11.2519
ran	-11.2523
▁ajan	-11.2523
zon	-11.2527
oğul	-11.2529
▁pro	-11.2533
▁cip	-11.2539
▁tavan	-11.254
pr	-11.2555
asya	-11.2562
▁teori	-11.2568
▁yorumla	-11.2568
▁politik	-11.2573
▁paha	-11.2575
20	-11.2581
no	-11.2581
yu	-11.2594
rev	-11.2604
forma	-11.261
▁gal	-11.2627
19	-11.2628
▁atat	-11.2634
▁ölç	-11.2652
luka	-11.2653
▁91	-11.2667
tma	-11.2672
▁muci	-11.2677
▁alfa	-11.2688
▁86	-11.2689
▁jia	-11.2692
uncu	-11.2692
ami	-11.2705
▁barın	-11.2708
▁medeni	-11.2709
▁94	-11.2715
▁hesapla	-11.2722
▁sipari	-11.2734
▁hızlandır	-11.2737
▁karaba	-11.2739
▁bolu	-11.2745
geç	-11.2756
▁panik	-11.2757
▁eml	-11.2762
▁muht	-11.2767
▁hav	-11.2768
▁74	-11.2772
▁takib	-11.2792
▁uluda	-11.2793
▁çatla	-11.2794
ov	-11.2796
▁kasımpaşa	-11.2813
▁ideal	-11.2819
liyet	-11.2819
▁tütün	-11.2824
demir	-11.2833
nica	-11.2833
▁ispat	-11.2843
▁sirke	-11.2847
▁asist	-11.2848
▁uğurla	-11.285
▁fiil	-11.2852
▁cm	-11.2856
top	-11.2857
▁98	-11.2859
erce	-11.2863
▁rüş	-11.287
vladi	-11.2888
▁mon	-11.2896
gut	-11.2902
▁keskin	-11.2907
fir	-11.2908
▁teşkil	-11.293
▁yetiştiri	-11.2931
▁vahşi	-11.2933
favori	-11.2934
ğı	-11.2938
▁tescil	-11.2938
▁brown	-11.2938
▁suikast	-11.2938
▁başörtü	-11.2938
▁manchester	-11.2938
▁konsept	-11.2939
▁pekiştir	-11.2939
▁tuncay	-11.2939
▁estetik	-11.2939
▁tezahürat	-11.294
biye	-11.2943
▁boğuş	-11.2944
▁ceviz	-11.2944
ebe	-11.2944
▁guzel	-11.2945
▁hoşgörü	-11.2949
▁rezerv	-11.2949
▁çamur	-11.2949
▁yang	-11.2949
▁pasif	-11.295
▁acenta	-11.2951
▁kozak	-11.2952
▁bulunan	-11.2952
▁değirmen	-11.2957
çekme	-11.2957
▁yapay	-11.2965
▁900	-11.2967
che	-11.297
▁olanağ	-11.2974
şafak	-11.2976
997	-11.2977
▁rolün	-11.298
▁tutuş	-11.2981
empoz	-11.2987
▁gönderilme	-11.2989
▁thom	-11.299
▁müs	-11.2994
▁yaralanma	-11.2994
inho	-11.2996
▁kud	-11.3007
maç	-11.301
▁gönen	-11.3013
▁kurtulu	-11.3013
▁soyun	-11.3015
▁elmas	-11.3018
▁yüzey	-11.3022
▁tasarla	-11.3025
▁nitelendir	-11.3028
▁ekipman	-11.303
▁ınter	-11.303
▁evrim	-11.3032
▁fed	-11.3043
cük	-11.3046
▁aksa	-11.3048
▁makina	-11.3058
iyatr	-11.306
landır	-11.3063
▁federal	-11.3091
▁ntv	-11.3091
şim	-11.3092
▁hari	-11.31
▁türkmen	-11.311
rdal	-11.3113
▁ez	-11.3116
lanırke	-11.3117
▁yıka	-11.3137
arar	-11.3138
▁tuk	-11.3151
▁giriş	-11.3163
▁bakır	-11.3164
işe	-11.3168
rçe	-11.317
aylin	-11.317
all	-11.3178
▁riva	-11.3178
ata	-11.3192
ganda	-11.3201
▁özle	-11.3202
rio	-11.3209
▁gelene	-11.3212
ngul	-11.3213
009	-11.3214
up	-11.3226
▁adre	-11.3226
▁kül	-11.3245
kurt	-11.3248
▁takas	-11.325
▁indiri	-11.3257
▁03	-11.3259
▁leke	-11.3264
▁alem	-11.3268
▁tri	-11.3271
▁sak	-11.3271
▁73	-11.3273
▁194	-11.3278
ruç	-11.3291
lat	-11.3294
▁hic	-11.3295
ral	-11.3296
▁örtü	-11.3297
▁rüşt	-11.3304
▁izl	-11.3307
▁yanık	-11.3317
▁olu	-11.3332
epçe	-11.3335
kapı	-11.3355
yı	-11.3365
▁finalin	-11.3369
▁iptali	-11.3371
▁ah	-11.3371
ms	-11.3379
eç	-11.3383
▁gore	-11.3383
▁kuşat	-11.3383
▁finali	-11.339
▁stra	-11.3398
fren	-11.3418
arcelo	-11.3423
rdağ	-11.3429
▁öze	-11.344
ital	-11.3441
eh	-11.3443
30	-11.3445
▁yurtd	-11.3456
▁ila	-11.3458
▁sıvı	-11.3475
▁ahşa	-11.3481
▁porno	-11.3485
▁gayrimenkul	-11.3486
▁angeles	-11.3486
▁asfalt	-11.3489
▁hsyk	-11.3489
▁hırvat	-11.3489
▁güçlen	-11.3489
▁72	-11.349
▁berber	-11.349
▁eşref	-11.349
▁yuvarlak	-11.3491
▁evvel	-11.3492
▁kennedy	-11.3493
▁muvazza	-11.3493
▁ıhlamur	-11.3493
▁travma	-11.3493
▁frankfurt	-11.3494
▁canavar	-11.3494
▁atilla	-11.3494
▁alparsl	-11.3495
▁bileşen	-11.3495
▁kararlaştırıl	-11.3495
psiyon	-11.3495
▁sis	-11.3496
▁standard	-11.3496
▁galiba	-11.3496
ueen	-11.3499
skişehirspo	-11.3499
▁seine	-11.3501
▁zihin	-11.3502
▁borçlan	-11.3504
gı	-11.3508
onu	-11.3508
▁aksoy	-11.3509
ilim	-11.3509
▁transi	-11.3513
▁balo	-11.3517
▁975	-11.3517
▁tahr	-11.3521
operatör	-11.3523
layan	-11.3524
▁eyüp	-11.3529
▁tutana	-11.3533
68	-11.3536
▁lastiğ	-11.354
burg	-11.3543
▁güngör	-11.355
emir	-11.3551
▁versiyon	-11.3554
▁89	-11.3558
▁sırp	-11.3568
▁azeri	-11.3568
▁cev	-11.3574
▁devredil	-11.3578
▁dunya	-11.3581
sağ	-11.3581
▁zenginleştir	-11.3586
▁rica	-11.3589
▁sınırla	-11.3596
aziye	-11.3605
sait	-11.3606
▁bombala	-11.361
▁müni	-11.3611
▁gizle	-11.3613
▁fp	-11.3615
▁od	-11.3622
▁mantığ	-11.3623
yeni	-11.3626
▁rand	-11.3632
▁çavd	-11.3636
ölge	-11.3643
▁ceva	-11.3644
▁yanıl	-11.366
eyze	-11.3668
▁gayri	-11.367
▁jin	-11.3671
▁uran	-11.3673
bayrak	-11.3676
▁ergene	-11.3679
▁ju	-11.3681
fra	-11.3683
rey	-11.3688
emi	-11.3696
▁levh	-11.3699
▁01	-11.3702
raj	-11.3702
▁organi	-11.3704
▁öcala	-11.3707
ood	-11.3707
▁karşılanma	-11.3711
gue	-11.3714
doğ	-11.373
▁kurgu	-11.3734
▁dekor	-11.3735
▁silis	-11.3737
▁taşer	-11.3737
▁seba	-11.3738
rid	-11.3739
▁alı	-11.3742
▁çalışı	-11.3742
▁bakı	-11.3752
▁konakla	-11.3769
▁hani	-11.3769
her	-11.3793
çoğ	-11.3806
mahalle	-11.381
▁stop	-11.3813
aban	-11.3819
lanta	-11.3819
kp	-11.3825
ou	-11.3826
▁sne	-11.383
dur	-11.3832
jen	-11.3837
▁cafe	-11.3843
ping	-11.3843
▁pl	-11.3843
slah	-11.3844
lendirme	-11.3858
▁kanıtla	-11.3861
zade	-11.3871
▁abbas	-11.3871
üze	-11.3878
eli	-11.3879
▁col	-11.3887
yakıt	-11.3887
▁chelsea	-11.389
bela	-11.3895
▁loj	-11.3896
fuk	-11.3899
şire	-11.3902
▁oksi	-11.3911
▁kev	-11.3917
▁kafi	-11.3941
ptal	-11.395
file	-11.3968
sas	-11.3969
▁akış	-11.398
▁beyz	-11.3984
▁akar	-11.3986
▁sapta	-11.399
▁döşe	-11.3992
orld	-11.4002
▁dayı	-11.4005
irgin	-11.4007
gele	-11.4012
din	-11.4021
ukovi	-11.4022
▁kurşun	-11.4023
▁angel	-11.4029
▁çirkin	-11.4035
şe	-11.4036
▁mevkii	-11.404
ilmi	-11.4042
▁demirör	-11.405
▁acar	-11.405
ektör	-11.4057
▁demet	-11.4058
▁220	-11.4067
geb	-11.407
▁bayi	-11.4072
▁öks	-11.4072
▁berluscon	-11.4077
▁hortum	-11.4077
▁bonservis	-11.4077
▁hormon	-11.4077
▁merhaba	-11.4077
▁çember	-11.4077
▁jeff	-11.4077
▁bıçağ	-11.4078
▁cezayir	-11.4078
▁makedon	-11.4078
▁bereket	-11.4078
▁bronz	-11.4079
kay	-11.4082
▁dgm	-11.4084
▁kerry	-11.4085
▁göğs	-11.4085
▁soğan	-11.4086
▁tolga	-11.4086
▁sabahatti	-11.4087
▁fakir	-11.4088
▁kukla	-11.4089
▁mevlü	-11.409
▁donatıl	-11.4094
▁dram	-11.4099
▁fantasti	-11.4105
▁br	-11.4106
▁450	-11.4106
▁power	-11.4113
▁mandriva	-11.4113
ize	-11.4115
ültü	-11.4117
izma	-11.4118
för	-11.4119
27	-11.412
▁mirza	-11.4124
▁ram	-11.4125
▁adlandır	-11.4136
▁yenilen	-11.4144
18	-11.4146
baz	-11.4151
▁sındır	-11.4163
▁selamla	-11.4166
ektif	-11.417
tra	-11.417
▁süsle	-11.4171
sebe	-11.4172
▁yumruk	-11.4173
▁yalanla	-11.4173
sy	-11.418
bakteri	-11.4182
sp	-11.4188
▁tüy	-11.419
andre	-11.4194
▁küçül	-11.4196
▁dondur	-11.4199
98	-11.4202
▁195	-11.422
▁gömül	-11.4224
▁diya	-11.4225
yasi	-11.4226
▁yönelt	-11.4227
hem	-11.4234
kule	-11.4234
▁tarama	-11.4236
▁zehirlen	-11.4236
▁esir	-11.4245
▁katledil	-11.4255
▁kısır	-11.4269
aket	-11.4273
▁tapına	-11.4287
▁yö	-11.4288
enni	-11.43
▁katıla	-11.4309
▁mah	-11.4315
▁nadir	-11.4317
▁dalgı	-11.4318
▁şeyh	-11.4318
▁mevkiin	-11.4325
▁folk	-11.4325
▁bulgu	-11.4331
▁cemaat	-11.4333
ini	-11.4335
▁rume	-11.4335
▁mark	-11.4339
▁ress	-11.4356
ster	-11.4357
iya	-11.4361
▁karn	-11.4379
çıl	-11.4387
▁pap	-11.4389
ste	-11.4395
▁katıl	-11.4395
luk	-11.4404
ska	-11.441
tane	-11.4414
dig	-11.4421
▁giz	-11.443
▁gereken	-11.4431
▁sorgulan	-11.4433
▁maci	-11.4438
kas	-11.4443
ation	-11.4447
mburg	-11.4452
▁ri	-11.4462
kıl	-11.447
▁kura	-11.4471
▁sema	-11.4471
▁tüpra	-11.4473
monte	-11.4488
isyon	-11.4491
▁tmsf	-11.4497
aşesgioğlu	-11.4498
▁isteğ	-11.4504
▁kesi	-11.4511
şma	-11.4512
▁avr	-11.4519
çuk	-11.453
▁aut	-11.4531
dava	-11.4532
gat	-11.4533
kokul	-11.4533
▁fre	-11.4536
hır	-11.4541
▁his	-11.4547
▁gökalp	-11.4558
▁aras	-11.4572
▁dikta	-11.4572
toyo	-11.4573
illiam	-11.4578
▁metaller	-11.4581
▁benimse	-11.4594
▁nusr	-11.4602
▁orijinal	-11.4603
izasyon	-11.4607
nsiye	-11.4611
▁ahmed	-11.4613
▁kristal	-11.4622
▁nes	-11.4627
ft	-11.4638
ica	-11.4652
▁muhafaza	-11.4654
atör	-11.4664
▁koba	-11.4665
▁akgün	-11.467
kara	-11.4674
acia	-11.4674
akam	-11.4686
▁kaçağ	-11.4688
▁afyonkarahisar	-11.4702
▁geoffroy	-11.4702
▁sarkozy	-11.4702
▁reuters	-11.4702
▁fındık	-11.4702
▁zübey	-11.4702
▁online	-11.4702
▁övgü	-11.4702
allace	-11.4702
▁bilimadam	-11.4704
▁mezhep	-11.4704
▁harry	-11.4704
▁tavşan	-11.4704
▁tahakk	-11.4705
▁tunus	-11.4705
▁şirin	-11.4708
▁terzi	-11.4708
▁barbar	-11.4708
▁gelin	-11.4711
▁titiz	-11.4711
▁semih	-11.4712
▁özkö	-11.4714
▁lokomoti	-11.4714
ütüncü	-11.4718
▁özgüven	-11.4721
▁festivalde	-11.4722
▁daniel	-11.4723
aptan	-11.4724
▁mezuniyet	-11.4724
▁pol	-11.4728
figür	-11.4728
ümin	-11.4731
▁partizan	-11.4732
▁şaka	-11.4736
▁bileşi	-11.4739
larara	-11.474
▁surat	-11.4742
tt	-11.4743
nel	-11.4746
▁sönme	-11.4751
▁yangın	-11.4753
minat	-11.4758
▁dubl	-11.4758
▁esp	-11.4765
▁bost	-11.4769
▁shang	-11.477
▁muhafazak	-11.4771
▁deyr	-11.4771
▁fast	-11.4772
▁öm	-11.4779
▁sağana	-11.4786
tagon	-11.479
▁92	-11.4795
▁mülk	-11.4802
▁besin	-11.4803
▁kun	-11.481
▁ikiz	-11.4811
▁sport	-11.4818
lenirk	-11.482
▁abdy	-11.483
▁ezgi	-11.4835
▁ysk	-11.4836
▁komüni	-11.4839
▁avm	-11.4851
eni	-11.4854
sta	-11.4861
▁bari	-11.4861
▁abdi	-11.4864
▁tabiat	-11.4868
▁teker	-11.4872
▁fin	-11.4873
▁üskü	-11.4876
▁kula	-11.4881
erli	-11.4885
bin	-11.4886
▁karaca	-11.4892
olombi	-11.4901
▁best	-11.4904
▁hd	-11.4905
▁batu	-11.4905
▁hess	-11.491
avantaj	-11.4912
▁normalde	-11.4915
atılım	-11.4921
▁anlatı	-11.4924
▁mus	-11.4932
▁bile	-11.4936
ndrom	-11.4948
iğne	-11.495
▁filiz	-11.4951
şığ	-11.4957
▁kısıtla	-11.4959
▁önlen	-11.4965
▁ökm	-11.498
dob	-11.4984
▁tehdid	-11.4988
guo	-11.4995
▁odak	-11.5
▁sakal	-11.5001
zgi	-11.5003
▁parma	-11.5013
▁bill	-11.5016
rol	-11.5024
▁böbre	-11.5025
hur	-11.5027
▁tatlıs	-11.5032
▁amaçl	-11.5035
▁soner	-11.5036
▁sırr	-11.5036
▁stone	-11.5037
▁mensub	-11.5038
düs	-11.504
kaç	-11.505
▁uyg	-11.5052
▁nitele	-11.5053
▁dolay	-11.5055
▁bozda	-11.506
▁saka	-11.5063
▁küb	-11.5067
▁heye	-11.5067
▁peru	-11.5069
ndan	-11.5075
▁demokratikleş	-11.5083
kariye	-11.5094
▁ander	-11.5103
feld	-11.5104
yürek	-11.5104
▁mont	-11.5108
bit	-11.5112
▁beh	-11.5136
▁kökl	-11.5136
dirim	-11.5138
arak	-11.5141
zma	-11.5143
▁binl	-11.5147
28	-11.515
▁darp	-11.5152
▁ihti	-11.5156
▁kaş	-11.5161
iyat	-11.5167
aliforni	-11.5167
halif	-11.5169
▁haru	-11.5178
uro	-11.5191
▁down	-11.5193
▁madr	-11.5195
fan	-11.5195
lon	-11.5205
lig	-11.5219
mmy	-11.523
fes	-11.5235
fetti	-11.5237
▁hapse	-11.5247
sim	-11.5248
kem	-11.5253
▁midi	-11.5257
por	-11.5259
▁veys	-11.526
▁esin	-11.5263
veri	-11.5267
koloji	-11.5272
▁110	-11.5278
▁hızı	-11.5278
çiçeğ	-11.5279
▁elma	-11.528
hu	-11.5281
▁topal	-11.5281
ünsal	-11.5285
▁safi	-11.5289
▁kıs	-11.5294
bep	-11.5297
işman	-11.5298
borg	-11.53
▁org	-11.5302
▁usulü	-11.531
▁hüsn	-11.5318
50	-11.5318
▁yunus	-11.532
▁becer	-11.5321
▁nob	-11.5329
rand	-11.5329
▁çeliş	-11.533
▁idr	-11.5331
cay	-11.5332
fil	-11.5335
ordo	-11.5335
eşif	-11.5345
tap	-11.5358
▁kavşa	-11.5365
▁şarampol	-11.5368
▁hidrojen	-11.5369
▁çubuk	-11.5369
▁hijyen	-11.5369
▁doping	-11.5369
▁palmiye	-11.537
▁çorap	-11.537
▁karbon	-11.537
▁america	-11.5371
▁afyon	-11.5371
▁murdoch	-11.5371
▁kutlu	-11.5375
▁yuvarlan	-11.5376
▁vahim	-11.5376
▁unutmay	-11.5377
▁leonard	-11.5378
inda	-11.5378
▁irfan	-11.5379
▁alaça	-11.5387
deyk	-11.539
▁prose	-11.539
kov	-11.539
▁tev	-11.5392
▁hükmet	-11.5399
▁tff	-11.5399
▁seyit	-11.5401
▁harç	-11.5401
▁yönlendiril	-11.5408
▁yinele	-11.5411
▁kaşığ	-11.5415
sini	-11.5421
▁mutab	-11.5421
▁isa	-11.5421
▁kabullen	-11.5422
▁inisiyati	-11.5425
▁ekşi	-11.5432
▁tahta	-11.5433
▁ısı	-11.5438
▁yenile	-11.5439
▁tabir	-11.5444
▁damla	-11.5445
▁ayarla	-11.5447
barek	-11.5448
▁gor	-11.5449
▁kabiliyet	-11.5451
▁algıla	-11.5459
▁uçur	-11.5465
▁lokal	-11.5471
aruz	-11.5472
▁manz	-11.5475
ırke	-11.5487
▁misyon	-11.549
▁ülkü	-11.5491
▁katri	-11.5493
▁ale	-11.55
sk	-11.5505
▁ezil	-11.5505
70	-11.5509
▁rayon	-11.5511
gul	-11.5515
gb	-11.5517
▁çim	-11.5518
val	-11.5529
▁garni	-11.5533
▁gran	-11.5533
▁mülkiye	-11.5543
▁boşaltıl	-11.5545
▁çiğde	-11.5546
rengi	-11.5546
dos	-11.5549
tiş	-11.5552
▁nazar	-11.5553
▁ken	-11.5558
▁meğ	-11.5559
omen	-11.5571
▁şık	-11.5573
▁akra	-11.5577
anı	-11.5583
▁saatin	-11.5583
▁kelebe	-11.5589
▁koz	-11.5589
mo	-11.5598
lair	-11.5604
▁ferha	-11.5618
▁ahmedineja	-11.562
▁yanı	-11.5627
▁tutku	-11.5634
inç	-11.5635
▁ib	-11.5645
▁sur	-11.5646
rides	-11.5655
fett	-11.5655
▁klas	-11.5656
▁kate	-11.5671
ib	-11.5679
▁artı	-11.5685
▁atanma	-11.5685
aşçı	-11.57
hap	-11.57
▁ilham	-11.5701
▁bağışla	-11.5714
▁huzurev	-11.5718
▁ferya	-11.5731
▁nimet	-11.5734
▁dikkatin	-11.5734
▁mars	-11.5737
th	-11.5737
▁şö	-11.574
▁istina	-11.5741
▁yoğur	-11.5748
▁saba	-11.575
▁tah	-11.5754
yokuş	-11.5775
▁paraş	-11.5778
▁uzer	-11.5782
▁dino	-11.5788
▁kanada	-11.5794
ydu	-11.5801
▁basket	-11.5815
▁rast	-11.5817
▁barda	-11.5818
lme	-11.5827
▁müzikal	-11.5839
▁beraat	-11.5841
▁lütf	-11.5841
elek	-11.5843
▁fid	-11.585
▁usul	-11.5852
▁kov	-11.5857
zlan	-11.5859
rah	-11.5868
▁süs	-11.587
niz	-11.587
▁karate	-11.5871
▁kopya	-11.5878
rich	-11.588
uğru	-11.5885
▁jac	-11.5904
▁band	-11.5907
▁rey	-11.5909
▁sırası	-11.5909
▁varol	-11.5912
ras	-11.5915
▁kimi	-11.5918
▁ısıt	-11.5921
rato	-11.5937
ue	-11.5941
▁söylem	-11.5946
▁gizlen	-11.5946
▁sön	-11.5947
▁ezel	-11.5948
ab	-11.5956
akat	-11.5963
uç	-11.5965
▁kepe	-11.5969
▁chris	-11.597
▁geyi	-11.5974
▁şeh	-11.5979
▁altıno	-11.598
emen	-11.5981
yazı	-11.5984
echt	-11.5988
kaha	-11.5989
▁azaltıl	-11.5989
sır	-11.6011
▁sökül	-11.6018
▁mad	-11.6028
▁tekno	-11.6031
lenci	-11.6037
▁pasa	-11.6038
ker	-11.604
maz	-11.6048
tmen	-11.6057
▁santo	-11.6057
▁mesle	-11.607
▁viktor	-11.6083
▁vazife	-11.6083
▁konteyn	-11.6083
▁kortej	-11.6083
▁zeybek	-11.6083
▁ereğli	-11.6083
▁poşet	-11.6083
▁prodük	-11.6083
▁henry	-11.6085
▁istisna	-11.6085
affer	-11.6087
▁dog	-11.6087
▁şerif	-11.609
▁johnson	-11.609
▁demiryo	-11.6091
esil	-11.6091
▁ödene	-11.6091
▁galibi	-11.6092
▁crown	-11.6094
▁çeçen	-11.6095
▁piri	-11.6095
▁keşfed	-11.6098
▁taahhüt	-11.6099
▁iletiş	-11.6099
▁taşınma	-11.6099
09	-11.6099
ph	-11.61
ligi	-11.6106
▁ferrar	-11.6111
pazarı	-11.6112
aziantepspor	-11.6113
▁bulunu	-11.6117
▁kayna	-11.6119
▁kav	-11.6122
▁club	-11.6123
▁animasyon	-11.6124
▁selvi	-11.6126
▁izmi	-11.6126
rb	-11.6131
36	-11.6131
▁çer	-11.6136
▁lope	-11.6136
▁savrul	-11.6137
▁bakkal	-11.6138
▁oluşturul	-11.6148
▁veda	-11.6151
kın	-11.6151
▁dok	-11.6151
ekçe	-11.616
▁barth	-11.616
usurlu	-11.6167
ruh	-11.6176
▁eks	-11.6183
ona	-11.6194
▁madem	-11.6199
▁kasta	-11.6199
▁fonksiyon	-11.62
▁gürse	-11.62
mil	-11.6205
▁merci	-11.6205
▁chi	-11.6206
▁tor	-11.6207
▁hattı	-11.6208
▁mizah	-11.6208
tılma	-11.6209
▁opti	-11.621
▁denk	-11.6225
▁sing	-11.6231
▁show	-11.6236
▁daral	-11.6241
▁tüz	-11.6242
▁yapabil	-11.6248
▁kapanı	-11.625
▁sürüklen	-11.625
▁batur	-11.6253
▁hatun	-11.6256
▁scott	-11.6262
cek	-11.6271
argo	-11.6275
▁bağışlan	-11.6275
▁makul	-11.6279
▁ask	-11.6287
meğ	-11.6288
▁kırk	-11.6289
▁tatmin	-11.6289
▁pasta	-11.6289
▁joe	-11.6299
▁hamil	-11.6308
çoğu	-11.6311
▁cop	-11.6314
nya	-11.6317
▁plaz	-11.6317
▁gold	-11.632
ari	-11.6332
▁dij	-11.6335
▁rota	-11.6337
▁davu	-11.634
▁ılıca	-11.6344
▁eğit	-11.6346
çelik	-11.6352
▁boyle	-11.6364
▁melek	-11.6372
rbeyi	-11.6383
▁kob	-11.6388
yüz	-11.6401
bolu	-11.641
▁tuzak	-11.6418
▁öym	-11.6419
▁erme	-11.6423
perm	-11.6423
▁pak	-11.6429
▁tarife	-11.6433
▁misal	-11.6445
▁simit	-11.6448
rga	-11.6449
▁imra	-11.6452
▁alaa	-11.6458
▁derd	-11.6465
▁yasama	-11.6468
▁üni	-11.6469
ane	-11.648
▁muhamme	-11.6481
▁hur	-11.6481
yiğit	-11.6492
▁macun	-11.6494
pak	-11.6508
▁akın	-11.6519
▁tay	-11.6524
▁kaplan	-11.6529
▁mis	-11.6535
▁yanaş	-11.6539
▁besi	-11.654
▁mc	-11.6547
amp	-11.6549
▁hayaller	-11.6551
▁okur	-11.6555
hret	-11.6561
iy	-11.6567
ovic	-11.6569
ındayke	-11.6571
stant	-11.6571
▁moderniz	-11.6571
▁şahi	-11.658
▁paz	-11.6582
uval	-11.6584
▁pamu	-11.6584
▁petk	-11.6602
▁tutun	-11.6603
ktör	-11.661
kişi	-11.6616
og	-11.6619
▁file	-11.6624
ükür	-11.6625
▁bez	-11.663
▁tap	-11.663
▁şeb	-11.6631
▁eric	-11.6634
cast	-11.6649
▁pana	-11.6649
azan	-11.665
tme	-11.6657
▁pres	-11.6664
▁bach	-11.6665
▁ort	-11.6669
aygın	-11.6671
knik	-11.6682
▁doy	-11.6701
▁sivri	-11.6706
▁pompa	-11.671
▁tüt	-11.672
reş	-11.6721
▁mevla	-11.6736
▁esne	-11.6739
taj	-11.6746
iğde	-11.6752
değer	-11.676
▁kı	-11.6769
▁peri	-11.6769
▁gözeti	-11.6771
▁hot	-11.6772
▁bira	-11.6776
res	-11.6782
▁konulma	-11.6782
▁carl	-11.6784
hack	-11.6789
efe	-11.6791
kaz	-11.6792
▁andre	-11.6798
obre	-11.68
▁kaps	-11.6802
▁manga	-11.6804
▁ribaun	-11.6814
tv	-11.6816
rit	-11.6825
avuz	-11.6828
kır	-11.6828
▁gitar	-11.683
ıpkı	-11.6842
▁bant	-11.6844
▁meş	-11.6845
▁enternasyonal	-11.6852
▁shanghai	-11.6852
▁ronald	-11.6852
▁vasıta	-11.6852
▁pembe	-11.6852
▁sabıka	-11.6852
▁lewinsky	-11.6852
▁pendik	-11.6853
▁vahşet	-11.6853
▁justin	-11.6854
▁arboretu	-11.6854
ötürü	-11.6854
▁hakikat	-11.6854
▁açıkhava	-11.6855
▁yirmi	-11.6856
▁epey	-11.6857
▁bayraktar	-11.6857
▁ödüllendiril	-11.6857
▁kordon	-11.6857
▁belgrad	-11.686
▁zarif	-11.686
▁helal	-11.686
▁gebze	-11.6861
▁dinleti	-11.6862
▁cevher	-11.6863
▁yalvar	-11.6864
▁demirc	-11.6865
▁etiket	-11.6869
▁çayır	-11.6872
▁abdurrah	-11.6875
▁dikkatsiz	-11.6875
▁mgk	-11.6875
▁550	-11.6876
▁atak	-11.6878
rs	-11.6878
▁nesne	-11.688
▁ilkuç	-11.6882
49	-11.6883
▁sabot	-11.6887
▁hayret	-11.6887
ucu	-11.6889
▁ümran	-11.6891
▁yırtı	-11.6894
▁sünni	-11.6894
dugu	-11.6894
litvany	-11.6896
▁söndür	-11.6897
ükel	-11.6902
nırke	-11.6902
▁anormal	-11.6902
▁kucak	-11.6907
pe	-11.6912
▁yöneltil	-11.6917
▁bülte	-11.6917
▁posta	-11.6918
▁çapa	-11.6926
▁hawk	-11.6927
eğen	-11.6933
▁baha	-11.6934
1969	-11.6935
bilme	-11.6935
ihm	-11.6936
işare	-11.6936
etap	-11.6941
▁talat	-11.6941
askı	-11.6947
▁jok	-11.6948
nder	-11.6948
▁heine	-11.695
▁body	-11.6952
ruk	-11.6954
▁fran	-11.6955
▁feti	-11.6959
▁osmaniy	-11.6962
▁free	-11.6968
▁devrilme	-11.6969
▁erdemir	-11.6971
▁jie	-11.6971
▁şant	-11.6973
▁öp	-11.6977
▁bölük	-11.6981
▁limon	-11.6983
1989	-11.6984
erman	-11.6993
▁intikal	-11.6996
▁tayla	-11.6996
▁69	-11.6996
ndre	-11.6999
48	-11.7004
▁soğu	-11.7004
▁serha	-11.7005
▁tas	-11.7007
ılması	-11.7013
▁gri	-11.7023
▁namus	-11.7025
▁logo	-11.7025
bul	-11.703
▁ismet	-11.703
mercan	-11.7031
yıp	-11.7032
▁toparlan	-11.7032
dra	-11.7035
▁temizlen	-11.704
▁roy	-11.7044
▁savunu	-11.7044
ss	-11.7046
ly	-11.7048
▁sam	-11.7048
▁devret	-11.7053
ocağ	-11.7053
ston	-11.7072
hekim	-11.7084
▁news	-11.7089
atro	-11.709
47	-11.7095
▁havz	-11.7096
▁harbi	-11.7096
▁bon	-11.7098
97	-11.7102
▁rest	-11.711
▁çeşitli	-11.7112
▁tarafinda	-11.7117
▁heyecanlan	-11.7122
▁iti	-11.7122
▁şii	-11.7126
lke	-11.7128
▁richard	-11.7128
▁telev	-11.7129
▁pers	-11.7134
▁çoğ	-11.7135
▁cafer	-11.7142
▁zehr	-11.7144
▁merce	-11.7146
asip	-11.7153
külte	-11.7156
▁menfaatler	-11.7156
▁güncelle	-11.7158
çık	-11.7158
▁memiş	-11.7162
▁one	-11.7167
▁işgalin	-11.7173
mb	-11.7173
del	-11.7174
şah	-11.7176
hoo	-11.7179
▁97	-11.7184
▁elebaş	-11.7197
▁sos	-11.7222
ues	-11.7223
▁medica	-11.7234
ja	-11.7238
ika	-11.7243
har	-11.7246
▁kefe	-11.7249
duyu	-11.725
tnik	-11.7257
nih	-11.7258
zzet	-11.7263
uvar	-11.7267
hp	-11.7271
▁iletil	-11.7275
daki	-11.7275
▁neşe	-11.728
▁myk	-11.7285
▁kok	-11.7289
blo	-11.7294
yar	-11.73
gözü	-11.731
▁azın	-11.731
ven	-11.7321
▁guc	-11.7332
72	-11.7343
tırma	-11.7347
90	-11.7349
roz	-11.735
▁uyarla	-11.7357
▁yapmay	-11.7359
▁semboller	-11.7363
▁val	-11.7363
▁teleferi	-11.7363
ort	-11.7366
▁grib	-11.7373
▁çor	-11.7375
hen	-11.7376
▁geçi	-11.7378
tara	-11.738
gin	-11.739
kanlı	-11.7391
▁skorer	-11.7393
▁şehi	-11.7398
bıyık	-11.7399
650	-11.7405
şehri	-11.7406
özdağ	-11.7414
ezdi	-11.7419
int	-11.7419
▁batar	-11.7422
lt	-11.7427
▁kot	-11.7427
derbi	-11.743
▁kaynaş	-11.7435
▁hadis	-11.7438
▁toplan	-11.7439
▁idra	-11.7458
öp	-11.7462
▁haller	-11.7465
▁tef	-11.7467
▁tekv	-11.7473
ışık	-11.7482
konfed	-11.7485
▁etmey	-11.7492
▁dayat	-11.7493
db	-11.7499
▁spoi	-11.75
▁oynatı	-11.7504
gir	-11.7504
▁ork	-11.751
laştırma	-11.7513
üksel	-11.7525
▁88	-11.7525
▁jeo	-11.7533
digi	-11.7536
▁beyin	-11.7536
▁barz	-11.7543
sit	-11.7544
ozan	-11.7545
leştirme	-11.7545
▁civ	-11.7549
24	-11.7551
izyon	-11.7553
▁sıva	-11.7557
▁dikil	-11.7565
▁ortaöğre	-11.7569
▁faul	-11.7571
livan	-11.7573
▁karak	-11.7576
rasyon	-11.7577
▁dip	-11.7578
radar	-11.7603
▁atıl	-11.7603
mik	-11.7605
▁paf	-11.7611
▁altun	-11.7611
▁hanuk	-11.764
▁sök	-11.7644
şener	-11.7648
▁reddedil	-11.7672
▁yönetil	-11.7674
ars	-11.7678
▁marie	-11.7684
▁mürettebat	-11.7685
▁tesadüf	-11.7685
▁venezüel	-11.7685
▁ösym	-11.7685
▁renault	-11.7685
▁smith	-11.7685
▁imtiyaz	-11.7685
▁tahammül	-11.7685
▁multinet	-11.7685
▁bikini	-11.7686
▁jeoloji	-11.7686
▁ahlat	-11.7686
▁moore	-11.7687
▁kahvehane	-11.7688
craft	-11.7688
▁defnedil	-11.7688
▁bjk	-11.7688
▁medrese	-11.7688
▁ypg	-11.7689
▁2023	-11.7689
▁1985	-11.7691
▁reyhan	-11.7693
▁süvey	-11.7694
▁gömlek	-11.7695
▁makarov	-11.7696
▁nakledil	-11.7697
▁102	-11.7701
▁bozulma	-11.7702
▁golde	-11.7703
▁müzi	-11.7705
▁rakka	-11.7712
▁entegr	-11.7714
▁simon	-11.7719
▁kahir	-11.7726
▁yorgan	-11.7727
▁batuh	-11.7729
▁obama	-11.773
esleğ	-11.773
▁sinyaller	-11.7731
▁orkin	-11.7731
lük	-11.7732
▁kamer	-11.7739
işleri	-11.7739
▁üvey	-11.7744
▁çalışma	-11.7747
▁kavak	-11.775
▁klav	-11.7752
▁kibar	-11.7759
▁şeria	-11.776
▁dtp	-11.7762
ago	-11.7763
▁yaralan	-11.7763
▁hapsi	-11.7765
▁mar	-11.7768
rih	-11.7771
▁zayıfla	-11.7772
bbet	-11.7774
▁teşeb	-11.7776
▁klib	-11.7781
▁enjekt	-11.7792
▁pano	-11.7794
▁defile	-11.78
▁charli	-11.78
▁necro	-11.7802
▁böre	-11.7804
89	-11.7807
▁ııı	-11.7807
ince	-11.7809
alim	-11.7809
▁evlad	-11.781
▁onarı	-11.782
▁ıver	-11.7822
menkul	-11.7823
aziantepspo	-11.7837
▁izlen	-11.7838
aris	-11.7838
▁kesilme	-11.7838
aya	-11.784
şu	-11.7841
▁vıı	-11.7844
fya	-11.7847
oh	-11.7848
▁hazırl	-11.7849
▁bağlanma	-11.785
▁ekoloji	-11.7851
▁bağlam	-11.7851
ardağ	-11.7852
▁sıçra	-11.7857
▁hı	-11.7858
▁fotograf	-11.786
and	-11.7867
güdü	-11.7867
▁serve	-11.787
rezil	-11.7871
▁periyod	-11.7871
▁araştırılma	-11.7872
▁varsayı	-11.7873
alper	-11.7874
rkan	-11.7875
▁ört	-11.7879
▁yurtsev	-11.7884
▁konfe	-11.7887
▁türkistan	-11.7902
bayev	-11.7904
board	-11.7905
ww	-11.7905
flas	-11.791
tikam	-11.7913
▁teda	-11.7916
▁grafik	-11.7917
▁rah	-11.792
▁asistan	-11.7929
▁göktaş	-11.7941
▁fey	-11.7943
eroğ	-11.795
ows	-11.7952
nisy	-11.7963
▁seram	-11.7964
▁kazak	-11.7965
▁hasek	-11.7975
▁traf	-11.7976
liğ	-11.7981
nk	-11.7983
▁faz	-11.7986
ig	-11.799
araton	-11.7996
▁cazi	-11.8
▁antep	-11.8016
▁slam	-11.8028
▁kalpler	-11.8044
▁tabl	-11.8045
▁ant	-11.8047
bar	-11.8054
▁greenp	-11.8061
ecek	-11.8062
astro	-11.8065
▁170	-11.8067
▁sek	-11.8072
▁pala	-11.8076
boy	-11.8081
▁tezgah	-11.8084
antar	-11.8085
▁eğil	-11.8095
▁litr	-11.8096
▁fay	-11.8105
▁çil	-11.8105
▁balon	-11.8105
▁charles	-11.8112
▁fc	-11.8118
▁nazil	-11.8124
lton	-11.8126
aba	-11.8127
lin	-11.8127
▁fiş	-11.813
▁izley	-11.8136
▁kabil	-11.8139
▁şela	-11.814
motiv	-11.8143
uoyu	-11.8147
samet	-11.8151
▁abdul	-11.8159
daha	-11.8168
▁vaz	-11.8169
fuz	-11.8172
sinda	-11.8178
▁mesir	-11.818
▁cüz	-11.8181
çın	-11.8184
ile	-11.8186
▁ova	-11.821
▁gem	-11.8214
▁trak	-11.8217
alını	-11.8223
▁etkil	-11.8224
antı	-11.8225
ite	-11.8226
mezk	-11.8227
casus	-11.8229
▁merh	-11.8231
▁siir	-11.8232
düz	-11.8232
▁136	-11.8232
rus	-11.8238
▁gülb	-11.8242
▁duyar	-11.8245
▁komün	-11.8249
▁atay	-11.8252
bahatti	-11.8255
▁nuh	-11.8257
▁haci	-11.8257
▁doğan	-11.8276
retta	-11.8282
▁gı	-11.8285
▁dinam	-11.8289
şantiy	-11.8292
iyasi	-11.8294
46	-11.8305
▁doğrul	-11.8308
evu	-11.8314
▁sına	-11.8316
▁liber	-11.8329
▁muhab	-11.8339
▁kef	-11.8341
▁santral	-11.8342
▁vol	-11.8342
▁teki	-11.8343
ace	-11.8345
erhal	-11.8349
gal	-11.8356
▁küf	-11.8359
▁bildir	-11.8362
ers	-11.8371
caba	-11.8373
yev	-11.8374
▁nicola	-11.838
▁beşi	-11.8398
▁çar	-11.8404
▁plast	-11.8406
kodu	-11.8409
nomi	-11.8413
tel	-11.8414
▁petrolü	-11.8416
tuğ	-11.8429
üşük	-11.8429
▁dou	-11.8434
▁yankı	-11.8439
rma	-11.844
ambu	-11.8441
▁sarf	-11.8442
nta	-11.8448
▁ayaz	-11.846
▁108	-11.8461
▁toparla	-11.8462
▁ihtimalle	-11.8464
kit	-11.8473
amze	-11.8482
▁live	-11.8484
▁album	-11.8486
▁anka	-11.8492
▁namı	-11.8494
rack	-11.8503
baro	-11.8505
▁murad	-11.8507
▁ucuz	-11.8519
▁kanaat	-11.8522
▁aksam	-11.8526
▁karikatür	-11.8533
engiz	-11.8534
▁smdk	-11.8534
badem	-11.8543
anço	-11.8544
▁siv	-11.8547
▁püskürt	-11.855
▁karama	-11.8552
▁kask	-11.8555
alp	-11.8558
▁karah	-11.8559
yl	-11.8579
▁soruştur	-11.8585
▁sömürge	-11.859
▁tavu	-11.8591
▁lüksemburg	-11.8594
▁perakende	-11.8594
▁zekeriya	-11.8594
▁kayınvalide	-11.8594
▁shakespeare	-11.8594
▁techno	-11.8594
▁çhsdk	-11.8594
▁kırgız	-11.8594
▁balyoz	-11.8594
▁android	-11.8594
▁bgst	-11.8594
▁tsarna	-11.8594
▁sebasti	-11.8595
▁sosyoloji	-11.8595
▁leopar	-11.8595
▁inter	-11.8595
▁idmanyur	-11.8595
▁şapka	-11.8595
mon	-11.8596
▁niyazi	-11.8596
▁berbat	-11.8596
▁kurdele	-11.8596
▁alfabe	-11.8596
▁jessi	-11.8596
▁kızılcık	-11.8597
▁edebil	-11.8598
▁öss	-11.8598
▁192	-11.8599
ırmak	-11.86
▁176	-11.86
appi	-11.8601
▁sevgilisi	-11.8603
▁arındırıl	-11.8605
▁çatal	-11.8607
▁fbı	-11.861
amin	-11.8611
▁plus	-11.8611
▁javi	-11.8611
öbür	-11.8613
▁jor	-11.8614
▁karıştırıl	-11.8617
▁göğebak	-11.8618
▁havayo	-11.8618
▁boks	-11.8622
▁çiğne	-11.8623
anat	-11.8624
▁icraat	-11.8625
▁faris	-11.8628
▁tuzla	-11.8632
▁fellu	-11.8633
▁steve	-11.8633
telekomünikasyon	-11.8637
tres	-11.8639
▁bld	-11.8639
▁sığır	-11.864
▁ör	-11.864
▁hasılat	-11.864
viç	-11.8641
▁necme	-11.8642
▁antonio	-11.8642
▁kruv	-11.8642
▁olmayan	-11.8642
▁akçak	-11.8643
▁karşılaştırıl	-11.8646
▁daily	-11.8646
▁ceh	-11.8646
sak	-11.8647
miz	-11.8652
otop	-11.8652
▁afp	-11.8652
▁cen	-11.8657
sm	-11.8658
emeğ	-11.8662
▁trend	-11.8667
ian	-11.867
nop	-11.867
▁malum	-11.8671
▁ilahi	-11.8672
takım	-11.8672
iji	-11.8678
sena	-11.8679
▁şak	-11.8682
▁ferdi	-11.8684
▁kabart	-11.8685
▁salat	-11.869
cik	-11.8693
▁ölçül	-11.8696
▁pusu	-11.8703
▁zanned	-11.8703
üst	-11.8706
pi	-11.8706
▁bre	-11.8707
▁genişletil	-11.8709
▁gene	-11.8716
raton	-11.8717
▁hill	-11.8724
yken	-11.8727
üzüm	-11.8732
▁satran	-11.8737
▁yığıl	-11.8739
▁prote	-11.8744
ihua	-11.8748
▁hızlı	-11.8752
▁ikmal	-11.8753
▁prati	-11.8762
▁tüne	-11.8762
▁schum	-11.8762
▁okya	-11.8765
itap	-11.8766
▁klini	-11.8769
rişim	-11.8772
▁dekla	-11.8773
▁işgü	-11.8774
▁parke	-11.8776
▁sığ	-11.8778
▁nihayet	-11.8779
▁roj	-11.8783
disyon	-11.8783
nirk	-11.8784
▁engelleme	-11.8787
national	-11.8788
▁christi	-11.8788
kari	-11.8794
▁meşhu	-11.8795
▁kapt	-11.8799
▁fadi	-11.8805
▁zav	-11.8811
▁vermey	-11.8821
▁hissi	-11.8823
▁dar	-11.8828
sad	-11.8833
▁kitabev	-11.8839
adem	-11.884
ming	-11.884
▁carre	-11.8841
bı	-11.8844
▁kurum	-11.8846
▁altında	-11.8854
düğü	-11.8857
▁universit	-11.8859
▁geze	-11.886
ıf	-11.887
cia	-11.887
rbay	-11.8879
dv	-11.888
▁parker	-11.8882
etki	-11.8887
▁hous	-11.8899
urdur	-11.8918
▁roland	-11.892
sayı	-11.8923
▁idl	-11.8924
67	-11.893
▁konservatu	-11.8933
▁taslağ	-11.8942
▁doz	-11.8943
▁lyn	-11.8959
agon	-11.896
▁totalit	-11.8962
▁balç	-11.8964
▁şüphel	-11.8965
▁soyad	-11.8971
jit	-11.8973
▁baca	-11.898
zot	-11.8983
▁kıvr	-11.8988
▁reha	-11.8989
▁kors	-11.8995
▁bık	-11.8996
▁karşıl	-11.8997
raz	-11.8997
orsan	-11.9008
rums	-11.9008
osman	-11.9008
atif	-11.9011
üzün	-11.9012
▁çıra	-11.9013
▁ısla	-11.9014
▁prensi	-11.9016
avi	-11.9016
▁bara	-11.902
▁söyleş	-11.9028
▁saraç	-11.9029
▁sars	-11.9031
▁brita	-11.9034
▁çıta	-11.9045
eyk	-11.9049
lahiyat	-11.9051
rkes	-11.9067
nme	-11.9069
▁arı	-11.9078
▁mes	-11.9079
▁kua	-11.908
başka	-11.9085
▁havu	-11.9088
üzel	-11.909
▁yedi	-11.909
▁metropol	-11.9091
mu	-11.9094
▁yaşana	-11.9096
lzem	-11.9098
▁yavaşla	-11.9101
▁valenc	-11.9104
▁moz	-11.9104
▁hür	-11.9105
guard	-11.9107
▁nabi	-11.9121
söz	-11.9124
▁önemse	-11.9125
▁ıntel	-11.9126
▁etab	-11.9133
▁aff	-11.9135
▁olmasi	-11.9138
64	-11.914
▁bord	-11.9141
▁şike	-11.9144
▁kürk	-11.9145
erve	-11.9156
fo	-11.9159
mann	-11.9166
uela	-11.917
par	-11.9188
▁garr	-11.9192
▁kenya	-11.9195
▁güvenç	-11.9214
▁düşen	-11.9218
▁ihlali	-11.922
▁yurda	-11.9224
▁bota	-11.9226
nazi	-11.9229
▁küt	-11.9233
▁siya	-11.9235
▁aski	-11.9242
etik	-11.9254
▁harfi	-11.9256
▁çank	-11.9258
▁yong	-11.9259
▁pişir	-11.9268
▁ayar	-11.9275
▁rich	-11.928
bak	-11.9282
▁dk	-11.9283
epsi	-11.9286
▁it	-11.9291
▁jü	-11.9307
▁boğ	-11.9318
sna	-11.9319
▁tıkan	-11.9324
nla	-11.9326
▁antibiyoti	-11.9329
▁burhan	-11.9335
ahıs	-11.9339
▁gele	-11.9348
▁tasarlan	-11.9355
edeni	-11.9361
▁gro	-11.9361
▁karala	-11.9365
▁parla	-11.937
biber	-11.9372
▁gere	-11.9381
çam	-11.9384
▁kulvar	-11.9391
kez	-11.9397
▁haftason	-11.9397
▁mobe	-11.9401
▁speküla	-11.9402
▁vo	-11.9404
sahip	-11.9405
ulos	-11.9405
▁sha	-11.941
şa	-11.9412
▁talab	-11.9415
şet	-11.9416
ıyor	-11.9417
bül	-11.9422
tası	-11.9424
tty	-11.9424
▁aoç	-11.9426
▁kamal	-11.9429
17	-11.9438
▁küs	-11.9441
tamin	-11.9442
▁nevr	-11.9445
▁istem	-11.9446
▁salt	-11.9457
nomina	-11.9458
inik	-11.9459
▁pin	-11.9462
▁kozm	-11.9478
▁290	-11.9491
vs	-11.9491
▁cansu	-11.9491
aka	-11.9497
hr	-11.9509
▁ekstr	-11.951
▁dam	-11.9527
▁işgali	-11.9539
▁hidro	-11.9541
rhal	-11.9541
▁gad	-11.9545
▁vey	-11.9546
▁vefa	-11.9548
▁eder	-11.9551
nlar	-11.9552
▁umursa	-11.9552
▁hande	-11.9553
▁arsa	-11.9562
▁delik	-11.9567
cle	-11.9571
dbp	-11.9574
▁hizbu	-11.9575
▁240	-11.9578
▁santra	-11.958
▁özgüv	-11.9582
▁seyya	-11.9582
▁evsahi	-11.9584
▁bulbasaur	-11.9594
▁connery	-11.9594
▁finlandiya	-11.9594
▁kıvılcım	-11.9594
▁meçhul	-11.9594
▁müvekkil	-11.9594
▁nostalji	-11.9594
▁oryantal	-11.9594
▁silivri	-11.9594
▁tüccar	-11.9594
▁karpuz	-11.9595
▁bayülg	-11.9595
▁steph	-11.9595
▁harmandal	-11.9595
▁makyaj	-11.9595
▁inegöl	-11.9595
▁heves	-11.9596
▁barbaros	-11.9596
▁carter	-11.9596
▁selvitop	-11.9596
▁fernand	-11.9597
▁musalla	-11.9597
▁cinema	-11.9598
▁dallas	-11.9598
▁apron	-11.9598
▁kavra	-11.9598
▁paten	-11.9598
▁vecd	-11.9598
▁çerkez	-11.9598
▁psv	-11.9599
▁101	-11.9599
▁rodrig	-11.9599
▁banvit	-11.9599
▁çörek	-11.9599
▁1974	-11.96
▁vardiya	-11.96
▁nispet	-11.96
▁çekirdek	-11.96
einstein	-11.96
▁temkin	-11.9602
▁cor	-11.9602
▁reşit	-11.9603
▁pyd	-11.9604
▁koma	-11.9604
▁edward	-11.9604
▁fsm	-11.9604
▁aksün	-11.9604
▁zihn	-11.9604
▁alerji	-11.9605
▁buyuk	-11.9609
▁incelenme	-11.9609
▁agres	-11.961
▁yaşıt	-11.9612
▁sıyrıl	-11.9613
▁özelleştirilme	-11.9613
▁gürcü	-11.9614
▁good	-11.9614
ıp	-11.9615
▁refik	-11.9616
▁motif	-11.9617
▁bektaş	-11.9617
▁michel	-11.9619
ling	-11.9619
▁drog	-11.962
▁hos	-11.9621
▁parsel	-11.9624
▁asli	-11.9626
▁krem	-11.9626
▁anlay	-11.9629
▁del	-11.9629
▁ziyade	-11.9629
▁kumanda	-11.9629
▁izban	-11.9631
▁dogru	-11.9639
▁rampa	-11.9641
▁hizb	-11.9648
▁psikolo	-11.965
ilen	-11.9656
▁staj	-11.9656
▁öğ	-11.9658
▁vermesi	-11.966
▁family	-11.9663
▁pata	-11.9665
▁kaste	-11.9667
▁venez	-11.9667
▁bros	-11.9667
▁jude	-11.9668
sha	-11.9668
tica	-11.9669
▁kont	-11.9672
▁colo	-11.9673
▁keşfe	-11.9675
▁bab	-11.9677
▁pome	-11.9677
▁160	-11.9684
▁çırak	-11.9688
▁yatış	-11.9689
▁aşağıla	-11.9692
▁marco	-11.9692
▁silvan	-11.9701
▁kadem	-11.9703
▁restora	-11.9705
▁java	-11.9705
▁tatar	-11.9712
üj	-11.9715
▁harf	-11.9715
61	-11.9721
▁bilgilendiril	-11.9723
▁finaller	-11.9725
▁muradi	-11.9729
▁daum	-11.9732
▁anlaşıl	-11.9732
▁biç	-11.9735
ilmesi	-11.9736
▁yağdır	-11.9736
▁ren	-11.9739
▁yasaklanma	-11.9741
▁başk	-11.9742
şak	-11.9742
▁herif	-11.9744
akım	-11.9747
ius	-11.9749
ih	-11.975
ambia	-11.9753
▁norm	-11.9755
▁döşen	-11.9756
mat	-11.9756
▁fırın	-11.9757
▁ısır	-11.9758
▁takli	-11.976
▁bout	-11.9761
▁chang	-11.9766
▁ruhani	-11.9766
▁guru	-11.9773
▁che	-11.9774
▁sevgili	-11.9775
▁gonzale	-11.9782
lken	-11.9785
▁beklenen	-11.9786
fad	-11.9786
mos	-11.9789
▁şevk	-11.9795
ew	-11.9797
foni	-11.9799
ene	-11.9799
▁galat	-11.9799
▁napoli	-11.9807
▁nurh	-11.9816
pide	-11.9819
▁giden	-11.9819
stro	-11.9832
▁gan	-11.9836
▁balık	-11.9837
vu	-11.9843
diana	-11.9843
▁long	-11.9845
▁cry	-11.9846
ecik	-11.9847
▁sinyali	-11.9847
ğu	-11.9851
▁god	-11.9863
▁münir	-11.987
zken	-11.9871
▁kurutul	-11.9871
yk	-11.9875
▁ulaşabil	-11.9877
▁manav	-11.9885
▁alın	-11.9886
▁850	-11.9886
▁deste	-11.9889
▁özelleştir	-11.9891
nir	-11.9893
vga	-11.9894
lüğü	-11.9897
gür	-11.9901
tık	-11.9902
ursi	-11.9912
olik	-11.9918
tkı	-11.9918
▁atlanti	-11.9919
ill	-11.9924
pu	-11.9926
▁petr	-11.9935
ander	-11.9937
ndone	-11.9938
▁münch	-11.9939
ua	-11.994
▁rio	-11.9942
▁diyar	-11.9951
isk	-11.9954
glas	-11.9958
▁neh	-11.9961
▁kings	-11.9974
▁amd	-11.9979
premi	-11.998
mü	-11.998
▁elit	-11.9983
▁yedir	-11.9983
şık	-11.9984
200	-11.9985
▁gaye	-11.9986
tah	-11.9991
▁vin	-11.9992
mut	-11.9992
ine	-11.9994
▁madsen	-11.9998
▁jc	-11.9999
bani	-12
▁takti	-12
69	-12.0004
▁tuzağ	-12.0012
▁sıkı	-12.0014
▁tab	-12.0015
▁olması	-12.0017
▁tim	-12.002
esta	-12.0021
zara	-12.0025
35	-12.0025
iki	-12.003
▁buğ	-12.0036
▁çeşi	-12.0041
▁zerr	-12.0043
▁ekse	-12.0044
hoş	-12.0051
▁takim	-12.0058
war	-12.0076
mazke	-12.0077
ivan	-12.0089
▁küre	-12.0094
field	-12.0096
tuna	-12.0097
▁188	-12.0097
▁apple	-12.0099
şif	-12.0105
▁aga	-12.0105
▁çayk	-12.011
▁arma	-12.0112
meç	-12.0119
▁ste	-12.0128
illa	-12.013
▁hitabe	-12.0134
▁kontr	-12.0143
jing	-12.0144
▁op	-12.0145
tup	-12.0146
▁gençle	-12.015
▁sarkı	-12.0151
bridge	-12.0152
▁yillar	-12.0153
▁adal	-12.0154
▁hik	-12.0155
▁sahi	-12.0158
▁özet	-12.0162
otto	-12.0168
sik	-12.017
▁poli	-12.0174
gate	-12.0178
macun	-12.0179
▁zil	-12.018
▁konso	-12.0189
▁fig	-12.019
▁kek	-12.019
market	-12.0194
▁hab	-12.0196
diril	-12.0199
▁kus	-12.0201
▁verebil	-12.0204
▁tuval	-12.0206
▁odağ	-12.0214
▁eur	-12.0231
ben	-12.0231
vey	-12.0235
rgan	-12.0237
▁almay	-12.0239
▁kati	-12.0245
▁kabulü	-12.0253
politik	-12.0256
ind	-12.0265
git	-12.0267
▁tahki	-12.027
afat	-12.0274
▁olgu	-12.0296
▁panto	-12.0298
ses	-12.0299
röv	-12.0301
avon	-12.0305
milas	-12.0307
94	-12.0308
▁elektron	-12.0309
cht	-12.032
ork	-12.0328
bakar	-12.0331
▁sab	-12.0331
▁yut	-12.0333
shi	-12.0333
free	-12.0338
alan	-12.0345
▁tes	-12.0351
▁azı	-12.0357
halde	-12.0362
32	-12.0362
ağaç	-12.0365
kabuğ	-12.0369
▁erte	-12.0374
▁duva	-12.0381
▁iyim	-12.0383
ant	-12.0385
hb	-12.0387
nter	-12.0389
mund	-12.0392
▁tamer	-12.0394
▁vad	-12.0396
▁kıya	-12.0401
▁seyr	-12.0405
75	-12.0409
rbede	-12.041
▁yapılı	-12.0421
▁başrol	-12.0426
▁passi	-12.0429
▁karamanoğ	-12.0435
veyn	-12.0444
afer	-12.0445
toğ	-12.0446
▁eşi	-12.0454
avid	-12.0457
lem	-12.0466
gane	-12.0467
▁manta	-12.0467
▁muh	-12.0471
▁alabil	-12.049
▁rak	-12.0491
vay	-12.0492
▁cap	-12.0504
34	-12.051
▁tarı	-12.0511
uhu	-12.0511
▁rag	-12.0516
▁roller	-12.0518
▁titre	-12.0519
yö	-12.0519
ny	-12.053
hit	-12.0533
▁parçala	-12.0539
▁bamb	-12.0539
▁erda	-12.0549
uyulma	-12.055
▁gine	-12.0553
cuk	-12.0558
▁car	-12.056
▁tekn	-12.0574
urban	-12.0575
▁zedele	-12.0575
06	-12.0577
▁lamb	-12.058
▁cilv	-12.0581
▁gözü	-12.0582
▁psikiyatri	-12.0586
▁çıl	-12.0588
▁sara	-12.0591
▁ilerl	-12.0592
ngw	-12.0595
stü	-12.0596
▁protokolü	-12.0597
çay	-12.0599
▁cheng	-12.0609
mp	-12.0609
▁260	-12.0614
ors	-12.0616
▁erit	-12.0622
▁vaat	-12.0626
▁serinle	-12.0646
dol	-12.0646
▁toka	-12.0654
kuşağ	-12.0656
rablus	-12.0656
zof	-12.0661
▁kahr	-12.0675
▁taahhü	-12.068
▁bilin	-12.0685
osmanoğ	-12.0689
ega	-12.0692
uhaf	-12.0697
▁silo	-12.0698
alaa	-12.07
obi	-12.0703
▁değiştiril	-12.0703
▁mavericks	-12.0706
▁greenspan	-12.0706
▁teçhizat	-12.0706
▁yugoslav	-12.0706
▁brothers	-12.0706
▁ganyme	-12.0706
▁helmsley	-12.0706
▁arnavut	-12.0706
▁cömert	-12.0706
▁kalsedon	-12.0706
▁çözünür	-12.0706
▁griff	-12.0706
▁college	-12.0706
▁gerizeka	-12.0706
▁emıtt	-12.0706
▁kadife	-12.0706
▁pfdk	-12.0706
▁bmgk	-12.0706
▁giresun	-12.0706
▁nezaret	-12.0706
▁kervan	-12.0706
▁capital	-12.0707
▁çıldır	-12.0707
▁defne	-12.0707
▁çomar	-12.0708
▁moğol	-12.0708
▁esirge	-12.0709
▁kökten	-12.071
▁kovala	-12.071
▁1963	-12.0711
▁eklenti	-12.0711
▁grace	-12.0711
▁kuvey	-12.0711
▁lyrics	-12.0712
▁1975	-12.0712
▁çkp	-12.0713
▁sempati	-12.0713
▁ps	-12.0713
▁1959	-12.0713
▁iskoç	-12.0715
▁theron	-12.0715
▁zümr	-12.0716
▁vekalet	-12.0717
▁kılınç	-12.0717
▁döşeme	-12.0719
▁karagöz	-12.0719
▁kovalama	-12.0719
▁kandil	-12.072
26	-12.072
▁slovak	-12.072
▁tosun	-12.0721
▁refleks	-12.0721
▁1970	-12.0721
▁dramatik	-12.0721
▁refakat	-12.0722
chs	-12.0722
▁iştah	-12.0723
▁sosyet	-12.0723
▁bakmay	-12.0725
▁alıkoy	-12.0725
▁gtk	-12.0725
▁terminal	-12.0725
▁sınırlandır	-12.0726
▁guardi	-12.073
▁duty	-12.0731
▁biten	-12.0732
▁hall	-12.0735
▁moldova	-12.074
▁bloom	-12.0741
▁julian	-12.0742
▁dokunulma	-12.0743
ep	-12.0743
▁dom	-12.0744
▁loui	-12.0746
elam	-12.0746
▁sergil	-12.0753
▁koçak	-12.0754
ion	-12.0755
▁kaydı	-12.0757
diye	-12.0758
▁dolap	-12.0759
▁lakap	-12.076
pit	-12.0761
▁bilir	-12.0768
oru	-12.0771
▁tomas	-12.0772
▁pt	-12.0775
ouche	-12.0776
▁muazz	-12.0776
one	-12.078
▁fırlat	-12.078
▁mahcu	-12.078
▁burns	-12.0782
trafo	-12.0788
▁golf	-12.0789
76	-12.079
▁fars	-12.0791
▁hilal	-12.0795
▁meğer	-12.0802
▁sabih	-12.0804
▁sinem	-12.0808
his	-12.0811
▁andy	-12.0812
▁slov	-12.0813
vivo	-12.0824
▁guven	-12.0825
▁yeral	-12.0827
▁şeriat	-12.0836
▁harp	-12.0836
▁480	-12.0837
şkan	-12.0838
▁furk	-12.0839
abri	-12.0842
▁yakışık	-12.0847
▁gra	-12.0848
▁twitter	-12.085
▁termal	-12.0851
▁eliza	-12.0853
▁jp	-12.0855
▁yarım	-12.086
▁zhu	-12.086
▁tapınağ	-12.0864
▁proto	-12.0865
▁sabun	-12.0866
atı	-12.0866
▁savaşma	-12.0871
▁zeynel	-12.0872
hk	-12.0881
tip	-12.0882
▁vahi	-12.0882
anak	-12.0888
raf	-12.0889
▁indiril	-12.0889
▁1950	-12.0889
▁rap	-12.0891
▁llo	-12.0895
▁donald	-12.0898
▁thk	-12.0898
▁yüzük	-12.0901
▁barak	-12.0907
eşme	-12.0914
yit	-12.0916
▁ispatla	-12.0919
▁siliko	-12.0923
şya	-12.0926
ala	-12.0927
uy	-12.0933
▁çimen	-12.0934
▁kota	-12.0937
four	-12.0939
▁sine	-12.094
▁torna	-12.094
▁darwin	-12.0951
▁yalanc	-12.0962
▁said	-12.0963
▁güvenc	-12.0965
▁menzi	-12.0965
▁ergu	-12.0966
lise	-12.0966
▁başroller	-12.0966
▁toros	-12.0979
▁melo	-12.0982
▁lou	-12.0989
deniy	-12.0998
ronomi	-12.1
▁yorgo	-12.1001
bata	-12.101
▁bü	-12.1011
oş	-12.1011
nike	-12.1013
▁fıstı	-12.1016
pas	-12.1023
▁hamu	-12.1025
▁hiz	-12.1029
lla	-12.103
cal	-12.1037
▁zap	-12.1041
lye	-12.1042
▁pes	-12.1053
▁stein	-12.1054
▁gaza	-12.106
▁bebeğ	-12.1061
▁konstan	-12.1066
▁olmasa	-12.107
▁karat	-12.1073
▁once	-12.1075
▁masla	-12.1076
ire	-12.1076
▁part	-12.1082
sine	-12.1083
heim	-12.1098
▁taşdem	-12.11
edat	-12.1104
▁köpü	-12.1106
rick	-12.1107
ötv	-12.1108
rebe	-12.1109
edi	-12.1111
▁abde	-12.1115
lispor	-12.1121
duat	-12.1126
▁toki	-12.1133
dus	-12.1142
▁ıvysaur	-12.1145
▁hoste	-12.1148
▁dizel	-12.1148
▁she	-12.115
800	-12.1158
kamp	-12.1158
yahu	-12.1161
▁kışla	-12.1162
▁ihtila	-12.1164
lerara	-12.1165
▁silk	-12.1171
zong	-12.1175
▁omur	-12.1178
▁baska	-12.1196
▁alpa	-12.1198
▁116	-12.1201
ics	-12.1205
▁tram	-12.1207
matra	-12.1212
▁göksu	-12.1215
▁kızartıl	-12.1219
▁karsi	-12.1223
beth	-12.1226
▁karaka	-12.1231
▁sela	-12.1236
▁viran	-12.1236
▁spk	-12.1236
▁tc	-12.1236
▁krav	-12.124
not	-12.1241
▁ihlaller	-12.1247
jat	-12.1247
alt	-12.1247
▁evka	-12.1249
stal	-12.126
▁affet	-12.1261
sra	-12.1262
▁aka	-12.1273
▁att	-12.128
▁çelik	-12.128
▁sch	-12.1283
▁getiri	-12.1285
▁zey	-12.1287
atch	-12.1289
nüs	-12.1294
cesc	-12.1296
ons	-12.1301
▁soyle	-12.1302
leştir	-12.1307
ına	-12.1309
▁giray	-12.131
▁sah	-12.1316
ence	-12.132
mpb	-12.132
opec	-12.1334
▁kü	-12.134
▁generaller	-12.134
zik	-12.1343
rika	-12.1349
▁menor	-12.1351
▁gec	-12.1353
zel	-12.136
elektri	-12.1361
cum	-12.1367
▁artik	-12.137
aşa	-12.1371
anne	-12.1375
kul	-12.1381
wa	-12.1382
▁virg	-12.1383
ıs	-12.1384
asuman	-12.1386
▁izlan	-12.1389
▁raf	-12.1394
unter	-12.1394
66	-12.1395
of	-12.14
▁nicol	-12.1402
▁manu	-12.1402
nt	-12.1409
73	-12.1415
kos	-12.1419
nci	-12.1422
▁107	-12.1425
▁şark	-12.1426
ırıl	-12.143
▁tekme	-12.143
▁öt	-12.1431
▁tra	-12.1431
stat	-12.1435
▁dow	-12.144
91	-12.1445
▁ibn	-12.145
▁çel	-12.1452
▁mev	-12.1456
lor	-12.1461
ağar	-12.1462
▁muhta	-12.1464
▁şema	-12.1467
25	-12.1471
cip	-12.1472
▁sinsi	-12.1474
▁kalkan	-12.1477
iven	-12.1495
▁238	-12.1498
▁kuma	-12.1507
▁mel	-12.1509
argı	-12.151
meyen	-12.1512
aplı	-12.1512
dullah	-12.1518
▁evla	-12.1522
tb	-12.1523
▁homo	-12.1525
▁anca	-12.1527
▁rant	-12.1527
taraf	-12.1536
hard	-12.1542
öy	-12.1548
52	-12.1549
esli	-12.1552
31	-12.1554
rbir	-12.1554
▁stil	-12.1556
▁minar	-12.1559
kı	-12.1568
lya	-12.1575
zire	-12.1577
start	-12.158
ller	-12.1581
kkuş	-12.1586
şunla	-12.1588
▁naci	-12.1606
anons	-12.1608
▁pani	-12.1608
hak	-12.1609
rahm	-12.1611
▁geli	-12.1619
pay	-12.1625
las	-12.1628
▁lö	-12.1632
▁konuşu	-12.1636
▁şer	-12.1639
emel	-12.1641
▁143	-12.1642
kuş	-12.1643
ıfa	-12.1646
ness	-12.165
onte	-12.165
▁ayb	-12.1652
▁bri	-12.1665
ns	-12.1666
▁ciha	-12.1667
▁kıran	-12.1669
▁odabaş	-12.167
vc	-12.1686
▁song	-12.1692
▁ec	-12.1692
naltı	-12.1694
eği	-12.1695
▁sığına	-12.1695
iridy	-12.1696
▁sarki	-12.1704
▁yakin	-12.1708
füm	-12.1711
zar	-12.1713
ld	-12.1722
22	-12.1724
▁holland	-12.1727
cele	-12.1728
▁şöv	-12.1736
▁bild	-12.1743
▁mülki	-12.1744
▁how	-12.1746
est	-12.175
▁aydınlı	-12.175
abey	-12.1752
▁bunal	-12.1755
▁bart	-12.1757
▁taşla	-12.1759
▁fosf	-12.1759
▁flor	-12.1761
▁sanc	-12.1764
anç	-12.1767
sam	-12.1769
▁fal	-12.1778
nıklı	-12.1779
▁hurri	-12.1781
▁hatırl	-12.1782
▁mühür	-12.1782
ülürk	-12.1787
▁tsk	-12.1789
rekor	-12.1793
mum	-12.1793
hou	-12.1794
nek	-12.1796
▁akpde	-12.1797
▁şöle	-12.1797
ternation	-12.1798
▁akpy	-12.1806
▁vurgul	-12.181
▁ref	-12.1813
vili	-12.1813
▁derinleştir	-12.1817
▁vil	-12.1821
▁morali	-12.1825
viv	-12.1827
▁cind	-12.1827
▁105	-12.1828
ark	-12.1834
nis	-12.184
▁gömü	-12.1848
78	-12.185
nevre	-12.185
kobi	-12.186
lta	-12.1861
▁akka	-12.1861
▁müz	-12.1875
yel	-12.189
orem	-12.1891
▁besl	-12.1893
▁balta	-12.1907
▁edilmi	-12.1907
▁gözetle	-12.191
▁firar	-12.1915
▁kısıtl	-12.1916
82	-12.1916
▁christ	-12.1918
olcu	-12.1918
başkanı	-12.1919
▁otomobi	-12.192
▁töre	-12.1922
▁kadı	-12.1926
▁haberal	-12.1926
56	-12.1928
▁kahveren	-12.1928
▁kucakla	-12.1929
rdur	-12.1931
▁uyuş	-12.1934
ayır	-12.1945
▁tibe	-12.1947
▁serv	-12.1947
▁buzdola	-12.1947
▁litera	-12.1949
▁gerçekleştiril	-12.1953
▁ipadi	-12.1954
▁copeland	-12.1956
▁güvercin	-12.1956
▁leblebi	-12.1956
▁yelpaze	-12.1956
▁mücevher	-12.1956
▁doodle	-12.1956
▁bddk	-12.1956
▁timsah	-12.1956
▁liesing	-12.1956
▁glazer	-12.1956
▁peterson	-12.1956
▁caydır	-12.1956
▁theodor	-12.1956
▁cocug	-12.1956
▁çamdib	-12.1957
▁onurlandır	-12.1957
▁first	-12.1957
▁young	-12.1957
▁birlikte	-12.1958
▁1905	-12.1958
my	-12.1959
▁1933	-12.196
▁strange	-12.196
▁1923	-12.196
oft	-12.196
▁cmyk	-12.196
▁urasil	-12.196
▁tercüman	-12.1961
▁karmaşık	-12.1961
▁menşe	-12.1962
▁fish	-12.1962
▁snow	-12.1962
▁gevşe	-12.1962
▁yeşilçam	-12.1963
▁hemşeri	-12.1963
▁1983	-12.1964
▁atınç	-12.1964
▁enfeksiyo	-12.1964
▁yumurtla	-12.1966
iths	-12.1967
▁topyek	-12.1971
▁karşılaştırma	-12.1973
▁kıvır	-12.1974
▁367	-12.1974
▁tutu	-12.1975
▁melodi	-12.1975
▁vasat	-12.1976
▁florid	-12.198
▁toni	-12.198
▁lady	-12.1982
▁simpson	-12.1984
soru	-12.1985
ylü	-12.1985
▁kavas	-12.1987
▁kohl	-12.1989
▁kürşa	-12.199
▁mana	-12.199
ff	-12.1992
▁tetikle	-12.1994
▁135	-12.1995
▁lakab	-12.1995
▁çamlı	-12.1995
aryo	-12.1996
▁bürün	-12.1997
▁brie	-12.1997
▁terry	-12.1998
▁gov	-12.1998
▁anavatan	-12.2001
▁anaokul	-12.2001
▁134	-12.2004
ulma	-12.2006
▁adl	-12.2006
▁yavaşlat	-12.2012
alist	-12.2016
▁reddedilme	-12.2017
▁pişiril	-12.2029
▁stev	-12.2035
▁bob	-12.2037
▁işletil	-12.2037
▁cnn	-12.2037
▁ünvan	-12.2039
ack	-12.2042
▁night	-12.2042
▁lala	-12.2043
▁baltala	-12.2044
▁etmesi	-12.2045
▁osb	-12.2046
▁doğra	-12.2047
▁scho	-12.2047
▁kri	-12.2048
▁tekke	-12.2051
▁tbb	-12.2053
▁sızdır	-12.2053
▁guang	-12.2053
bess	-12.2056
▁yıprat	-12.2058
65	-12.206
▁henri	-12.2061
▁bardağ	-12.2063
▁abartı	-12.2063
opoz	-12.2066
▁ekva	-12.2069
akil	-12.207
▁arttırıl	-12.207
ltıpar	-12.2077
▁sony	-12.2078
ato	-12.2079
▁280	-12.208
▁lo	-12.208
▁sk	-12.208
▁atleti	-12.208
larini	-12.2082
▁sapla	-12.2085
▁socie	-12.2086
asl	-12.2087
▁nitelen	-12.2089
eşem	-12.2092
▁bağdaş	-12.2095
▁fore	-12.2096
▁inandır	-12.2099
zul	-12.21
▁yiğid	-12.2106
cat	-12.2112
achel	-12.2112
▁çilek	-12.2115
▁bah	-12.2115
▁afd	-12.2119
prag	-12.2122
▁gidi	-12.2123
▁karmaş	-12.2125
vir	-12.2126
▁hazir	-12.2126
▁zedelen	-12.2134
atik	-12.2138
▁bahçeşeh	-12.2142
▁kubat	-12.2143
▁taht	-12.2143
rtık	-12.2144
▁doha	-12.2145
▁muzik	-12.2148
ranlı	-12.2156
▁becerik	-12.216
küman	-12.2163
▁ayrılı	-12.2167
▁barışc	-12.2177
▁terked	-12.2178
▁acıma	-12.2179
▁fit	-12.2179
▁simons	-12.2184
rdek	-12.2193
▁kabar	-12.2193
epe	-12.2197
▁vardir	-12.2201
▁track	-12.2203
▁kapağ	-12.2212
▁farkındalı	-12.2213
▁lawr	-12.2215
blatt	-12.2217
ram	-12.2221
urg	-12.2223
▁santraller	-12.2224
çev	-12.2224
▁sihir	-12.2225
rihan	-12.2227
▁ören	-12.2232
alkan	-12.2232
▁ap	-12.2232
▁spot	-12.2233
▁digit	-12.2234
▁jel	-12.2235
▁serp	-12.2241
ksel	-12.2241
▁fahr	-12.2243
bura	-12.2245
tal	-12.2248
▁hakk	-12.225
▁chic	-12.2251
▁bega	-12.2251
▁financ	-12.2257
▁çekir	-12.2257
▁cogu	-12.2257
▁kırp	-12.226
▁ersan	-12.2263
ayın	-12.2263
abi	-12.2264
▁190	-12.2265
▁zıpl	-12.2276
▁cari	-12.2276
▁lond	-12.228
evler	-12.2291
▁dikkatle	-12.2297
▁parola	-12.2297
zıt	-12.2304
akit	-12.2306
▁count	-12.2309
▁fişe	-12.2313
▁makro	-12.2314
▁gunn	-12.2319
▁lah	-12.2331
shane	-12.2333
▁fet	-12.2335
▁kesiş	-12.2336
och	-12.2337
▁tadil	-12.234
▁ebi	-12.2343
tiya	-12.2346
▁titani	-12.2347
▁erd	-12.2347
▁narko	-12.2351
▁tanıtla	-12.2357
▁çarpıt	-12.2359
▁şahsi	-12.2361
▁mino	-12.2368
▁öniz	-12.2375
▁sürat	-12.2375
rant	-12.239
▁jer	-12.2392
▁shaki	-12.2392
▁avlan	-12.2393
hal	-12.2394
▁emperyal	-12.2399
dinç	-12.2401
▁örtül	-12.2409
▁ıbm	-12.2415
▁fık	-12.2415
▁180	-12.2421
▁zul	-12.2423
stin	-12.2429
▁festivaller	-12.2431
▁simav	-12.244
▁dera	-12.244
▁rön	-12.2443
▁muhaf	-12.2443
eşin	-12.2451
▁ner	-12.247
▁clintonı	-12.2472
imi	-12.2472
eke	-12.2482
opi	-12.2483
54	-12.2484
orido	-12.2484
olog	-12.2491
uşma	-12.2492
tem	-12.25
rbi	-12.2507
sif	-12.2508
▁cella	-12.2508
▁kori	-12.2516
sav	-12.2522
85	-12.2523
▁cin	-12.2524
▁baki	-12.2526
fic	-12.2527
▁süh	-12.2527
▁ıssi	-12.2528
▁özdil	-12.2534
▁isti	-12.2547
▁eğitil	-12.2552
afiz	-12.2555
▁147	-12.2564
ömer	-12.2569
▁tetik	-12.2572
▁ani	-12.2575
▁jenni	-12.2576
▁yakıştır	-12.2577
▁ileti	-12.2579
▁müke	-12.2583
▁halt	-12.259
tgen	-12.259
itz	-12.2593
▁ayri	-12.2595
▁phil	-12.2597
▁king	-12.2599
chen	-12.2602
diğ	-12.2604
▁denetlen	-12.2612
▁brad	-12.2615
akal	-12.2617
malak	-12.262
eva	-12.2621
▁green	-12.263
▁iştirak	-12.2632
▁pazarla	-12.2634
zig	-12.2634
▁marc	-12.2635
99	-12.2644
olana	-12.2645
▁tava	-12.2659
▁serge	-12.2659
▁soyg	-12.266
▁latif	-12.2664
▁kra	-12.2665
▁aero	-12.2676
erry	-12.2678
▁akay	-12.2679
lois	-12.2691
▁appleı	-12.2698
▁maca	-12.2698
▁chemi	-12.27
▁bandır	-12.2707
▁salak	-12.2708
ogging	-12.2709
ec	-12.2712
▁karg	-12.2712
karagü	-12.2719
▁pep	-12.2721
efendi	-12.2732
tirilme	-12.2732
lül	-12.2734
ratör	-12.2737
ksit	-12.274
kılma	-12.2747
▁ulaşı	-12.2756
anik	-12.2761
▁menü	-12.2763
çavuş	-12.2763
çöz	-12.2764
▁saun	-12.2772
▁gb	-12.2778
▁pod	-12.2779
▁hor	-12.2784
burgaz	-12.2791
▁çele	-12.2799
▁sark	-12.28
ubat	-12.2804
▁beze	-12.2805
rip	-12.2814
zmi	-12.283
▁koka	-12.2838
▁mira	-12.2838
▁175	-12.2839
çap	-12.284
▁yırt	-12.2845
igue	-12.285
▁rü	-12.2859
▁lincoln	-12.2859
▁twee	-12.286
▁intika	-12.2862
yın	-12.2862
shot	-12.2866
▁tayl	-12.2879
lenen	-12.2884
▁destekl	-12.2885
▁kayg	-12.289
▁hacmin	-12.2891
konjes	-12.2892
bom	-12.2902
▁soz	-12.2906
▁molo	-12.2909
allah	-12.2909
agand	-12.2916
▁zü	-12.2918
▁pm	-12.292
▁tly	-12.2923
▁iphone	-12.2926
▁stan	-12.2926
yuan	-12.2936
rnek	-12.2937
emit	-12.2941
▁kese	-12.2945
▁kıva	-12.2948
▁kade	-12.295
isim	-12.2953
▁özka	-12.2954
ome	-12.2957
minal	-12.2959
▁egit	-12.2969
gana	-12.297
turka	-12.2975
▁min	-12.2976
▁keit	-12.2982
▁kase	-12.2982
tig	-12.2986
▁slav	-12.2986
▁şor	-12.2989
▁tanıt	-12.3001
▁belle	-12.3002
şeh	-12.3005
rirk	-12.3007
▁cup	-12.3013
ösem	-12.3022
pet	-12.3028
▁bed	-12.3033
▁terti	-12.3036
anlı	-12.3045
▁mozai	-12.3046
praz	-12.3047
▁ifti	-12.3053
anya	-12.3055
utbe	-12.3055
ço	-12.3065
soure	-12.3067
▁seçki	-12.3069
▁dede	-12.307
brik	-12.3071
▁della	-12.3074
ref	-12.3083
▁taki	-12.3084
use	-12.3085
arenk	-12.3087
▁halka	-12.3088
▁hamd	-12.309
tirirk	-12.3102
▁masaj	-12.3103
ıra	-12.3107
▁yel	-12.3108
fert	-12.311
spo	-12.3112
▁ikamet	-12.3112
olf	-12.3115
▁bes	-12.3118
ush	-12.3124
▁traj	-12.3126
▁mehme	-12.3139
ehdi	-12.3141
skun	-12.3149
abat	-12.3151
yas	-12.3153
uruç	-12.316
▁ezber	-12.316
▁ög	-12.3164
lte	-12.3167
▁sürün	-12.3168
zola	-12.3173
▁keş	-12.3173
▁fih	-12.3175
sans	-12.3176
▁salın	-12.3177
▁sindir	-12.318
gg	-12.3194
eyhan	-12.3204
▁sesi	-12.3211
▁hafifle	-12.3225
▁ilaçla	-12.3228
▁169	-12.323
sıl	-12.3234
ntegra	-12.3234
vaz	-12.3241
33	-12.3245
▁emil	-12.3247
▁bedr	-12.3249
stel	-12.3256
▁seslendiri	-12.3259
▁bask	-12.3259
▁hızlandırıl	-12.326
sıy	-12.3266
▁şehmu	-12.3267
▁enric	-12.3268
sob	-12.3268
▁haç	-12.327
sar	-12.3281
tüd	-12.3284
▁değerlendiri	-12.3297
lev	-12.33
▁ağaçlandır	-12.3305
▁bro	-12.3305
ebek	-12.331
rosp	-12.3315
▁bernard	-12.3316
▁çökert	-12.3317
▁ferma	-12.3317
▁sosyo	-12.3317
▁doğrulan	-12.332
sek	-12.3326
▁çürü	-12.3326
▁girmes	-12.3328
utku	-12.3329
▁inanc	-12.333
rez	-12.3338
▁yetiştir	-12.3344
▁tb	-12.3348
aziz	-12.335
▁ataş	-12.3352
▁disko	-12.3353
selli	-12.3354
bas	-12.3357
▁bomb	-12.3357
koç	-12.3359
rtel	-12.3362
▁anavat	-12.3376
ümeyye	-12.3377
▁abdüll	-12.3378
▁braudy	-12.3384
▁enstrüman	-12.3384
▁mortgage	-12.3384
▁uruguay	-12.3384
▁şizofren	-12.3384
▁broadway	-12.3384
▁mountain	-12.3384
▁anestezi	-12.3384
▁bocoly	-12.3384
▁schröd	-12.3384
▁mühimmat	-12.3384
▁ekosistem	-12.3384
▁tcdd	-12.3384
▁chirac	-12.3384
▁elestir	-12.3384
▁küçümse	-12.3384
▁vitrin	-12.3384
▁feshedil	-12.3384
▁tanjevi	-12.3384
▁dawson	-12.3384
▁joshua	-12.3384
▁netcad	-12.3384
▁rabia	-12.3385
▁akrep	-12.3385
▁oecd	-12.3385
▁coach	-12.3385
▁dream	-12.3385
▁milosev	-12.3385
▁marifet	-12.3385
▁özgeçmiş	-12.3385
▁forbes	-12.3386
▁şerbet	-12.3386
▁lakers	-12.3386
▁komplo	-12.3387
▁kabahat	-12.3387
▁pebb	-12.3387
▁johannes	-12.3387
▁mahrum	-12.3388
▁th	-12.3388
▁bbp	-12.3388
▁donanim	-12.3389
▁bşb	-12.3389
▁cannes	-12.3389
▁reşat	-12.339
▁sophi	-12.339
▁dhkp	-12.339
▁nasuh	-12.339
▁sgk	-12.3391
▁yönlendirme	-12.3391
▁1965	-12.3391
▁paparaz	-12.3392
▁döküman	-12.3392
▁muhsin	-12.3393
▁sömür	-12.3393
ersane	-12.3393
▁polemi	-12.3395
yaz	-12.3397
▁özdeşleş	-12.3399
▁yuvarlağ	-12.34
▁sansür	-12.34
▁293	-12.3401
mül	-12.3402
hoven	-12.3404
▁kyb	-12.3404
▁ron	-12.3404
▁senegal	-12.3406
010	-12.3406
▁çarşaf	-12.341
▁biçer	-12.3411
ary	-12.3412
▁ithaf	-12.3413
▁eğlendir	-12.3414
▁cash	-12.3415
▁ındependen	-12.3416
▁louise	-12.3417
▁yükseltilme	-12.3417
▁rover	-12.3418
▁keçe	-12.3418
▁tevhi	-12.3418
▁klip	-12.3418
▁lys	-12.342
▁galile	-12.3421
▁kendileri	-12.3421
niye	-12.3423
dev	-12.3423
greb	-12.3425
▁yığın	-12.3427
▁opsiyon	-12.3427
▁kapitaliz	-12.3428
▁santim	-12.3429
ender	-12.343
dorf	-12.3431
▁şişman	-12.3432
▁düzeltil	-12.3432
▁seydi	-12.3433
▁zahmet	-12.3435
▁mücahi	-12.3436
▁dumas	-12.344
▁chap	-12.3441
▁amony	-12.3442
şan	-12.3446
62	-12.3447
▁epik	-12.3447
▁harfleri	-12.3448
▁tower	-12.3449
▁swe	-12.345
▁topuz	-12.345
▁obje	-12.3451
▁hub	-12.3452
▁kontağ	-12.3453
▁temizlenme	-12.3453
▁akropoli	-12.3454
ograph	-12.3456
▁sentez	-12.3458
▁değişiklik	-12.3459
aha	-12.3461
▁lobi	-12.3462
izlenme	-12.3462
▁yumuşat	-12.3463
▁adapt	-12.3463
skişehirspor	-12.3475
other	-12.3475
▁pistons	-12.3478
▁açıkl	-12.3483
flaş	-12.3484
▁körü	-12.3486
▁sarsıl	-12.3495
tilme	-12.3496
▁cezaalan	-12.3499
▁vezir	-12.3499
asts	-12.35
▁muk	-12.3502
▁kris	-12.3502
▁server	-12.3502
▁cenev	-12.3504
▁öldürül	-12.3507
▁kalbur	-12.351
▁easy	-12.3511
▁kaka	-12.3512
▁302	-12.3513
▁sıkıştırıl	-12.3515
ript	-12.3516
▁mamuller	-12.3519
ador	-12.3525
▁faal	-12.3529
▁adamhas	-12.3529
▁bahsi	-12.3534
▁çakmak	-12.3535
▁rob	-12.3536
▁esra	-12.354
▁cath	-12.3542
hor	-12.3545
▁vid	-12.3546
▁baskısı	-12.3547
▁soğut	-12.3548
şof	-12.3549
nalin	-12.3549
▁trave	-12.3551
▁tabak	-12.3553
eyl	-12.3558
▁şems	-12.3559
▁odun	-12.3561
▁hanif	-12.3561
▁yayılma	-12.3562
▁gang	-12.3563
▁övün	-12.3563
ayısı	-12.3564
▁islem	-12.3565
iver	-12.3566
▁uzaklaştırıl	-12.3572
▁heart	-12.3578
fis	-12.3579
▁protokolün	-12.3582
▁bag	-12.3589
urna	-12.3596
▁egzo	-12.3599
▁müdah	-12.3599
sis	-12.3602
▁göbe	-12.3602
▁riya	-12.3603
▁özal	-12.3607
74	-12.3607
ath	-12.3611
iza	-12.3612
▁sean	-12.3619
zam	-12.3627
▁dsl	-12.3629
▁temay	-12.363
set	-12.3632
zaman	-12.3634
▁sürdürür	-12.3636
obb	-12.3637
▁yapılan	-12.3638
▁fisch	-12.3643
ergis	-12.3651
▁aslı	-12.3652
ılgı	-12.3656
bulu	-12.3657
▁camp	-12.3658
▁başvurul	-12.3659
▁googleda	-12.3662
▁zerda	-12.3664
▁duş	-12.3667
▁reis	-12.3668
ambala	-12.3671
▁bilinçlendir	-12.3676
▁kete	-12.3676
77	-12.3681
▁gorme	-12.3686
▁çıkabil	-12.3691
ırga	-12.3697
format	-12.3706
ragm	-12.3706
yır	-12.3707
rasim	-12.3708
more	-12.3708
▁saman	-12.3715
▁kokla	-12.3721
ası	-12.3721
▁kurtzm	-12.3731
▁tunce	-12.3735
▁pf	-12.3739
▁kafes	-12.3742
▁omuz	-12.3749
▁temsilcil	-12.3753
977	-12.3753
▁hol	-12.3766
▁zi	-12.3767
ow	-12.3767
▁fes	-12.3769
▁tabaka	-12.3773
▁takson	-12.3773
affet	-12.3775
erfi	-12.378
▁sarfet	-12.3781
▁yansıtıl	-12.3782
anus	-12.3789
▁185	-12.3795
yn	-12.3795
ovan	-12.38
▁hindu	-12.38
▁mac	-12.3808
▁tazele	-12.3814
▁berkan	-12.3821
▁astronomi	-12.3822
▁lisa	-12.3822
kardeş	-12.3824
▁kolon	-12.3826
leştirilme	-12.3827
rij	-12.3835
unulma	-12.384
sina	-12.3845
▁bele	-12.3845
▁sparta	-12.3849
izli	-12.3849
▁dort	-12.385
▁scha	-12.385
▁ibra	-12.385
refo	-12.385
izem	-12.3851
96	-12.3853
▁yukse	-12.3854
işik	-12.386
▁photos	-12.3863
endil	-12.3865
▁126	-12.3866
▁os	-12.387
ılmaz	-12.3874
▁hita	-12.3893
▁akt	-12.3895
▁götürülür	-12.3899
▁marin	-12.3899
▁kaçış	-12.39
▁hun	-12.3903
sino	-12.3905
berto	-12.3905
emin	-12.3909
omega	-12.3914
▁peh	-12.3916
533	-12.3923
noz	-12.3925
▁env	-12.3934
▁east	-12.3935
aksim	-12.3935
▁nez	-12.3939
▁sayok	-12.3939
▁sand	-12.3947
▁mola	-12.3948
dek	-12.3956
▁aksat	-12.3958
▁nişanla	-12.3964
abao	-12.3965
dirilirk	-12.3973
çek	-12.3978
thing	-12.3982
▁miss	-12.3984
by	-12.3989
▁kanı	-12.3992
▁id	-12.3992
▁tekel	-12.3996
ts	-12.3996
▁içer	-12.4003
▁yıkı	-12.4003
▁santa	-12.4005
▁sem	-12.4009
karya	-12.4016
ayn	-12.4018
amayan	-12.4022
▁holmes	-12.4025
▁biçi	-12.4027
▁diyet	-12.4033
▁altıpa	-12.4035
▁log	-12.4038
▁eg	-12.4039
▁908	-12.4041
▁sana	-12.405
ava	-12.405
emre	-12.4054
▁ef	-12.4055
stem	-12.4058
▁zanne	-12.4064
yargı	-12.4067
orba	-12.407
cağız	-12.4074
▁balat	-12.4078
▁pass	-12.4079
rüş	-12.4082
▁şab	-12.4085
29	-12.409
viz	-12.4093
58	-12.4098
▁elektr	-12.41
irli	-12.4105
tou	-12.4114
▁tura	-12.4119
▁helen	-12.4119
erol	-12.412
dök	-12.4125
▁haddin	-12.4128
▁selcu	-12.4131
▁rady	-12.4132
▁sürey	-12.4134
▁popul	-12.4136
ao	-12.4136
fiye	-12.4136
▁rud	-12.4141
ony	-12.416
▁kamh	-12.4163
▁panay	-12.4164
▁jon	-12.417
▁gur	-12.4174
▁hüs	-12.4176
apara	-12.4177
rmağ	-12.4182
oğrul	-12.4188
500	-12.4189
het	-12.4192
▁mono	-12.4193
▁öğretil	-12.4201
dırıl	-12.421
▁hard	-12.4211
▁açıklama	-12.4216
▁fm	-12.4217
▁evrens	-12.422
acun	-12.422
rim	-12.422
▁media	-12.4221
▁141	-12.4227
▁rea	-12.4233
▁aydınlan	-12.4241
teri	-12.4242
aciz	-12.4246
▁tapın	-12.425
om	-12.4258
▁akb	-12.4265
▁nasi	-12.4269
dağı	-12.4271
enktaş	-12.4272
suna	-12.4281
▁savur	-12.4284
skü	-12.4284
▁ortala	-12.4284
▁kazanır	-12.4287
▁kazanan	-12.4288
zey	-12.4289
traj	-12.4293
addin	-12.4294
stim	-12.4294
aydın	-12.4295
azmi	-12.4301
▁merd	-12.4306
▁dayan	-12.4308
▁şev	-12.4309
▁harab	-12.4309
▁müsta	-12.431
▁fire	-12.431
tion	-12.4313
▁destan	-12.4319
rch	-12.4328
ift	-12.433
lov	-12.4335
▁barb	-12.4338
eleş	-12.4341
kılıç	-12.4343
mono	-12.4344
▁dna	-12.4344
üel	-12.4345
uh	-12.4345
▁med	-12.4345
▁yüzde	-12.4347
iti	-12.4356
2002	-12.4359
önge	-12.4364
▁provok	-12.4369
▁çark	-12.4369
▁serse	-12.4378
ğen	-12.4378
▁corp	-12.4379
▁sc	-12.438
▁keba	-12.4381
▁law	-12.4381
▁ipad	-12.4383
▁122	-12.4384
▁ihtima	-12.4388
▁nişa	-12.4389
raly	-12.4405
▁trav	-12.4406
▁ıvysaurı	-12.4408
▁yürür	-12.4414
▁rod	-12.4423
tso	-12.4425
▁deh	-12.4426
▁jou	-12.4427
▁haddi	-12.4427
osch	-12.443
indo	-12.444
keyf	-12.4442
eçilme	-12.4445
▁izleye	-12.4452
▁batta	-12.4457
tat	-12.4457
▁şir	-12.4459
▁atin	-12.4463
▁chrome	-12.4468
▁kuz	-12.4471
▁fra	-12.4476
juv	-12.4479
▁str	-12.4479
▁ker	-12.448
▁kristali	-12.448
dong	-12.4482
metre	-12.4484
zih	-12.4486
▁ag	-12.4487
▁patlatıl	-12.4487
lması	-12.4488
ders	-12.4488
▁bora	-12.4489
nat	-12.4491
kim	-12.4491
▁marian	-12.4501
bri	-12.4501
▁kerk	-12.4501
▁egz	-12.4503
▁anon	-12.4505
▁pkky	-12.4506
beton	-12.4509
▁fl	-12.451
edd	-12.4511
▁buru	-12.4516
▁farket	-12.4526
▁125	-12.4527
▁otob	-12.4529
kuyu	-12.453
▁154	-12.4531
▁tıkla	-12.4533
▁read	-12.4545
acıklı	-12.456
meral	-12.4565
bow	-12.4566
▁spre	-12.4567
kök	-12.4569
51	-12.457
▁jack	-12.4574
nov	-12.4574
laver	-12.4574
ota	-12.4574
▁hum	-12.4575
harap	-12.4592
inna	-12.4599
yılmaz	-12.46
şme	-12.4601
▁177	-12.4605
▁sarık	-12.4616
▁fak	-12.4621
▁sinyalin	-12.4621
tun	-12.4624
redd	-12.4626
▁alba	-12.4628
tici	-12.4628
▁belirl	-12.4645
▁fili	-12.4654
mond	-12.4655
▁hels	-12.4655
▁fla	-12.4657
▁haşim	-12.4662
ith	-12.4666
▁jaz	-12.4666
▁kocam	-12.467
şsiz	-12.4676
ülya	-12.4678
▁113	-12.4678
▁kem	-12.4679
13	-12.468
▁cez	-12.4692
▁domin	-12.4692
atılma	-12.4693
elikan	-12.47
▁kel	-12.4703
▁171	-12.4707
▁masal	-12.4715
▁chat	-12.4719
▁gs	-12.4721
asay	-12.4728
naz	-12.4733
▁back	-12.4739
yunca	-12.4747
▁çat	-12.4748
▁158	-12.4755
81	-12.4756
▁anima	-12.4756
psi	-12.4757
▁mürekke	-12.4763
tari	-12.4772
tos	-12.4774
▁sarsı	-12.4774
▁atta	-12.4774
acılı	-12.478
▁pc	-12.4785
anken	-12.4787
ashi	-12.4787
ora	-12.4791
▁krema	-12.4794
▁oturu	-12.4798
atar	-12.4798
▁muhak	-12.4799
▁kisi	-12.4802
ring	-12.4804
▁144	-12.4813
▁dig	-12.4816
▁doyu	-12.4817
▁done	-12.4819
▁alkışl	-12.4822
▁mordoğa	-12.4826
kış	-12.4844
rado	-12.4845
tas	-12.4846
▁haket	-12.4847
hey	-12.4849
lvan	-12.4853
▁fitn	-12.4854
▁kala	-12.4856
▁hatır	-12.4857
▁540	-12.486
▁tayv	-12.4861
hale	-12.4872
▁131	-12.4874
▁itha	-12.4878
▁cs	-12.4881
▁seçi	-12.4889
▁kuba	-12.489
nal	-12.4893
167	-12.4894
▁koza	-12.4894
ştır	-12.4897
▁mary	-12.49
eraton	-12.4908
aport	-12.4909
anıt	-12.4911
ache	-12.4912
▁hira	-12.4912
▁toplatıl	-12.4913
unay	-12.492
▁gib	-12.4921
23	-12.4925
▁kilitle	-12.4925
red	-12.4927
bre	-12.493
elope	-12.4932
right	-12.4939
▁claud	-12.4944
▁103	-12.4944
▁şımar	-12.4945
▁121	-12.4947
sev	-12.4952
loss	-12.4958
▁kabak	-12.4958
▁psiko	-12.4958
raş	-12.496
ding	-12.496
vme	-12.496
▁gurub	-12.4961
▁fizi	-12.4965
times	-12.4969
▁bad	-12.497
▁clau	-12.4972
erge	-12.4973
▁halled	-12.4974
ima	-12.4975
▁sinyal	-12.4977
▁halis	-12.4977
nim	-12.4979
▁müjd	-12.498
▁hasıla	-12.498
omi	-12.4983
▁enjek	-12.4984
ula	-12.4985
nberg	-12.4987
anş	-12.4991
▁spi	-12.4992
sper	-12.4995
▁tec	-12.5006
▁hey	-12.5007
▁müe	-12.5008
isio	-12.5011
▁harfler	-12.5015
▁soundtrack	-12.5015
akov	-12.5015
▁gard	-12.5019
erra	-12.5019
▁kuyru	-12.5019
▁sonlandır	-12.5023
▁musa	-12.5023
▁iştira	-12.5024
seks	-12.5029
ebb	-12.503
▁yükseltil	-12.5033
▁hayalle	-12.5033
aşk	-12.5036
▁electr	-12.5041
uşç	-12.5043
▁365	-12.5049
▁zülfü	-12.5051
imbledon	-12.5051
rasshoppers	-12.5051
▁discover	-12.5051
▁mahçup	-12.5051
▁münhasır	-12.5051
▁radionomy	-12.5051
▁restaurant	-12.5051
▁vietnam	-12.5051
▁centilmen	-12.5051
▁orleans	-12.5051
▁double	-12.5051
▁sacrament	-12.5051
▁mürşit	-12.5051
▁tretuar	-12.5051
▁budapeş	-12.5051
▁embriyo	-12.5051
▁seagate	-12.5051
▁dardanel	-12.5051
indsurf	-12.5051
▁vasıf	-12.5051
▁kpss	-12.5051
▁vugr	-12.5051
▁koskoca	-12.5051
▁mickey	-12.5051
▁maymun	-12.5051
▁paramatör	-12.5051
▁continental	-12.5051
▁rooney	-12.5051
assachusetts	-12.5052
▁devşir	-12.5052
▁ınstitut	-12.5052
▁çehre	-12.5052
▁forrest	-12.5052
▁müesses	-12.5052
▁handika	-12.5052
▁stajyer	-12.5052
▁mihail	-12.5053
utubet	-12.5053
▁ulaşılabil	-12.5053
▁tekinarsl	-12.5053
prezerva	-12.5054
▁everton	-12.5054
▁pervane	-12.5054
▁sirkül	-12.5054
▁mithat	-12.5054
▁pilav	-12.5055
▁kemoterap	-12.5055
▁şirinyer	-12.5055
▁kronik	-12.5055
▁ensari	-12.5055
▁cbs	-12.5056
▁1955	-12.5056
▁1953	-12.5056
▁palace	-12.5056
▁prince	-12.5057
▁kalori	-12.5057
▁roger	-12.5057
▁victoria	-12.5057
▁vokal	-12.5058
cüh	-12.506
▁mütevaz	-12.506
▁dimitri	-12.5061
▁sokulma	-12.5061
rsat	-12.5061
▁otlat	-12.5063
▁kırıntı	-12.5063
eing	-12.5067
▁rut	-12.5068
▁başrolde	-12.5068
▁anarşi	-12.5069
▁kenetlen	-12.5069
▁saldırma	-12.5069
▁sicilya	-12.507
▁brca	-12.507
▁hersek	-12.5072
▁ruzg	-12.5073
▁keşf	-12.5073
▁bilmeyen	-12.5076
▁dö	-12.5076
hiti	-12.5076
▁magic	-12.5078
▁137	-12.5078
▁margar	-12.5079
▁gazeteport	-12.508
▁öpü	-12.5081
öğret	-12.5083
▁yht	-12.5083
▁gereç	-12.5085
▁minnet	-12.5086
▁elalem	-12.5088
beş	-12.5088
▁naml	-12.5089
▁hudu	-12.5089
▁nabz	-12.5091
▁donat	-12.5093
anjin	-12.5094
uyo	-12.5096
▁felsefi	-12.5097
maktadi	-12.5098
▁257	-12.5098
▁bleu	-12.5099
▁şehirler	-12.5102
▁banyo	-12.5103
▁manyak	-12.5103
▁tayfa	-12.5105
▁reko	-12.5105
▁akyüz	-12.5106
ökçe	-12.5108
▁tasvi	-12.5109
▁mızrak	-12.511
▁sağlayabil	-12.5111
▁kantar	-12.5111
▁harman	-12.5116
▁gorev	-12.5116
▁abart	-12.5117
▁182	-12.5117
▁köylü	-12.5119
▁gültik	-12.5119
▁kombin	-12.5125
▁hizla	-12.5126
▁kizil	-12.5128
uhş	-12.5128
arya	-12.5131
▁firari	-12.5132
▁marsil	-12.5132
▁kasap	-12.5132
▁party	-12.5133
▁252	-12.5135
▁turh	-12.5136
arsl	-12.5136
▁yaptig	-12.5141
▁daşdel	-12.5141
▁omuri	-12.5143
▁brook	-12.5144
share	-12.5146
▁191	-12.5146
wort	-12.5146
lican	-12.5147
ezi	-12.5148
▁scor	-12.5152
▁haff	-12.5152
▁körük	-12.5153
▁şem	-12.5158
▁yem	-12.5159
▁baby	-12.5161
gah	-12.5165
lh	-12.5167
▁incit	-12.5169
▁super	-12.5169
ty	-12.5171
▁vedalaş	-12.5171
▁dek	-12.5174
asi	-12.5175
harde	-12.5175
▁yasakl	-12.5177
lord	-12.5181
86	-12.5182
▁kre	-12.5182
▁raşi	-12.5185
▁penis	-12.5187
▁glady	-12.5188
▁parıl	-12.5188
▁affedil	-12.5188
▁karton	-12.5191
▁macar	-12.5194
▁garib	-12.5194
▁çırpın	-12.5195
▁elveriş	-12.5203
▁söğüt	-12.5204
▁tutanağ	-12.5207
▁taylan	-12.5208
▁peda	-12.5216
▁drama	-12.5216
fed	-12.5217
▁ahir	-12.5218
eden	-12.5222
▁124	-12.5225
▁egs	-12.5227
▁önems	-12.5227
rve	-12.5228
▁obra	-12.5233
jami	-12.5235
▁bitti	-12.5238
tistik	-12.5241
▁onlari	-12.5242
▁boyko	-12.5246
▁depre	-12.5253
▁hüsr	-12.5256
▁yakut	-12.5258
bah	-12.5264
▁butto	-12.5272
42	-12.5272
▁hızır	-12.5278
▁oynayan	-12.5279
▁bug	-12.5287
▁cemaatin	-12.5289
pon	-12.5298
▁beşik	-12.5302
▁uzlaşma	-12.5303
▁katılma	-12.5307
doğru	-12.5321
▁muhata	-12.5322
▁gücü	-12.5326
oba	-12.5334
▁otos	-12.5336
▁izdi	-12.535
▁bekley	-12.536
mir	-12.5362
▁karaoğ	-12.5363
unkel	-12.5368
▁örgütü	-12.5369
lugu	-12.5372
▁kahya	-12.5372
▁suyu	-12.5373
uss	-12.5377
▁klor	-12.5381
▁eglen	-12.5383
▁örgü	-12.5386
trik	-12.5386
▁roll	-12.5387
▁lot	-12.5389
lam	-12.5394
▁gitmey	-12.5397
tö	-12.5398
▁ihtiyar	-12.5399
▁genişl	-12.5402
▁moha	-12.5404
▁rahm	-12.5404
geri	-12.5405
▁edilebil	-12.5408
ider	-12.541
▁tekin	-12.5414
para	-12.5417
öyle	-12.5418
bade	-12.542
vre	-12.5422
▁pisa	-12.5423
▁hes	-12.543
tch	-12.5431
▁saatle	-12.5436
çim	-12.5437
remi	-12.544
edil	-12.5443
ılabil	-12.5443
▁düşünen	-12.5446
21	-12.5447
andra	-12.5447
▁rahmi	-12.5454
rge	-12.5457
ud	-12.5459
▁zeit	-12.546
▁kızılka	-12.5463
orgh	-12.5463
▁ışıl	-12.5465
jest	-12.5467
dland	-12.547
▁dogu	-12.5476
▁ünv	-12.5478
vaziye	-12.5479
▁fıstığ	-12.5481
▁je	-12.5482
ono	-12.5484
▁ısıtıl	-12.5487
latif	-12.5487
gör	-12.5488
▁sever	-12.5489
▁valen	-12.5497
davra	-12.5501
▁cordo	-12.5501
lm	-12.5504
▁musk	-12.5507
▁yun	-12.5513
itre	-12.5515
▁timo	-12.5516
▁bahseder	-12.5516
▁189	-12.5517
▁ssky	-12.5518
era	-12.5524
▁perv	-12.5537
▁ilah	-12.554
ho	-12.5545
▁derle	-12.5556
▁üslub	-12.5558
od	-12.5566
▁tefe	-12.5569
▁daralt	-12.5575
kelle	-12.5575
▁babası	-12.5583
▁your	-12.5584
ult	-12.5586
sti	-12.5587
▁oybir	-12.5594
▁naki	-12.5599
▁cidd	-12.5609
▁tecr	-12.562
▁yükleni	-12.5627
▁karga	-12.5628
adın	-12.5628
▁jam	-12.5632
▁çevrele	-12.5632
rezz	-12.5632
dis	-12.5634
▁görü	-12.5635
▁anaf	-12.5636
cıklı	-12.5637
bell	-12.564
toshi	-12.5641
▁offi	-12.5641
▁kaynar	-12.5644
▁peni	-12.5644
▁kanda	-12.5644
▁nizam	-12.5651
▁ilgisi	-12.5652
▁yuzun	-12.5653
▁hacz	-12.5655
▁yörü	-12.5661
▁kurtarıl	-12.5661
▁yuzde	-12.5666
leb	-12.5671
cker	-12.5672
retti	-12.568
▁eri	-12.5681
atama	-12.5684
eber	-12.5688
▁temizl	-12.5694
▁affed	-12.5699
▁yuş	-12.5704
▁geçin	-12.5706
nktaş	-12.5706
mre	-12.5712
amiral	-12.5717
▁kub	-12.5718
arlamento	-12.5731
▁ustun	-12.5748
▁pisto	-12.5755
▁şaşır	-12.5757
llo	-12.5759
ust	-12.5766
▁reca	-12.5778
larin	-12.578
▁provoka	-12.5783
▁gps	-12.5784
elim	-12.5786
▁iphoneu	-12.5787
gshan	-12.5791
▁asp	-12.5794
▁mika	-12.5795
▁yd	-12.5795
olgu	-12.5795
▁joz	-12.5798
▁nakle	-12.5798
eti	-12.58
cap	-12.5802
▁sola	-12.5805
▁sehir	-12.5811
▁troy	-12.5811
▁imzalanma	-12.5812
olay	-12.5814
▁kafasi	-12.5815
zim	-12.582
▁rick	-12.582
▁yasası	-12.5821
erasim	-12.5824
▁morit	-12.5825
bis	-12.5825
▁repli	-12.5835
▁stoa	-12.5839
arnes	-12.584
eleni	-12.5841
▁ulud	-12.5849
bad	-12.5855
amble	-12.5859
kopi	-12.5863
▁joa	-12.587
▁korne	-12.5878
▁hama	-12.5881
hip	-12.5884
▁kuram	-12.5885
▁rid	-12.5887
çal	-12.5896
▁kaplumbağa	-12.5899
rüs	-12.59
hani	-12.5905
bos	-12.591
▁azalt	-12.5912
ug	-12.5915
oğuş	-12.5925
arık	-12.5929
iro	-12.5937
87	-12.5938
950	-12.5938
▁bere	-12.5939
▁245	-12.5942
▁rami	-12.5943
eus	-12.5947
▁123	-12.5949
▁mich	-12.5953
▁grubu	-12.5953
pahi	-12.5954
avrul	-12.5957
urfa	-12.5957
▁oyuncular	-12.5964
slup	-12.5967
cil	-12.597
▁sefa	-12.5974
▁belirtil	-12.5975
▁eng	-12.598
tele	-12.5983
ekil	-12.5983
▁kontroll	-12.5983
▁messi	-12.5984
▁newt	-12.5985
▁kert	-12.599
▁mario	-12.5995
151	-12.5995
nes	-12.6003
nü	-12.6006
▁bridge	-12.6009
istanbul	-12.6011
▁seyreder	-12.6012
▁kurut	-12.6012
bb	-12.6013
▁uğ	-12.6017
sinan	-12.6018
▁denet	-12.6023
ulh	-12.6026
▁mhpd	-12.6044
▁hammad	-12.6047
▁kend	-12.6049
tuk	-12.6051
sipp	-12.6055
▁balk	-12.6057
▁128	-12.6061
▁420	-12.6062
▁bolt	-12.6064
güz	-12.6066
442	-12.6069
▁padi	-12.607
üfe	-12.6072
seç	-12.6076
cock	-12.6082
dioksi	-12.6082
üfür	-12.6086
back	-12.609
ackerlar	-12.6092
tıl	-12.6099
uri	-12.6101
kovic	-12.6105
▁tatlı	-12.6108
dırılırke	-12.6113
ercan	-12.6113
vul	-12.6115
▁erba	-12.6116
▁ciğer	-12.612
ismis	-12.6121
over	-12.6124
▁engell	-12.6132
▁dize	-12.6134
▁aksak	-12.6143
▁767	-12.6144
asa	-12.6152
layı	-12.6156
▁aşıla	-12.6158
▁sik	-12.6158
ess	-12.616
zinc	-12.6161
eterya	-12.6165
way	-12.6165
cd	-12.6176
una	-12.6179
▁konte	-12.6184
▁amma	-12.6185
▁bazi	-12.6189
ordu	-12.6189
▁holmesu	-12.6194
▁koop	-12.6195
▁tvn	-12.6198
acea	-12.6198
ktey	-12.62
ıcak	-12.6206
▁chatm	-12.621
88	-12.621
ıfat	-12.6211
▁hag	-12.6213
▁kisa	-12.6213
fak	-12.6214
şahin	-12.6219
çatı	-12.6225
71	-12.6226
▁bağl	-12.6228
stür	-12.623
100	-12.6232
apne	-12.6232
▁bö	-12.6236
ilir	-12.6237
▁nam	-12.6244
▁por	-12.6246
▁menfaat	-12.6255
▁duygus	-12.6255
örg	-12.6257
▁erik	-12.6259
wis	-12.6259
ege	-12.6265
zal	-12.6266
zı	-12.6266
gher	-12.6272
▁andrea	-12.6274
▁ertu	-12.628
röm	-12.6282
▁we	-12.6282
▁poke	-12.6291
rica	-12.6294
▁christoph	-12.6307
▁114	-12.6311
aa	-12.6314
▁esk	-12.6317
end	-12.6317
pol	-12.632
▁sataş	-12.6322
legal	-12.6326
aga	-12.6331
kont	-12.6334
nez	-12.6335
padok	-12.6338
til	-12.6344
▁nick	-12.6346
yin	-12.6354
fatura	-12.6354
▁ebe	-12.6355
▁145	-12.6363
▁humu	-12.6364
▁kova	-12.6364
▁duyu	-12.6366
izi	-12.6371
sco	-12.6373
▁holde	-12.6376
▁leon	-12.6387
sert	-12.6389
▁359	-12.6391
▁altı	-12.6396
işat	-12.6398
▁menen	-12.6405
mento	-12.6413
▁galler	-12.6414
▁küçü	-12.6416
mö	-12.6417
▁777	-12.6419
sparta	-12.6419
inop	-12.6421
▁solla	-12.6422
▁mrs	-12.6427
polis	-12.6427
▁ayin	-12.6433
yhan	-12.6436
▁konumland	-12.644
07	-12.6441
rhan	-12.6442
shop	-12.6446
▁kışkırt	-12.6449
orient	-12.6452
kırık	-12.6456
▁gercek	-12.6458
▁kavu	-12.6461
▁harc	-12.6466
dist	-12.6467
▁hafi	-12.6482
▁özç	-12.6485
▁deva	-12.6494
▁sit	-12.6501
▁arıt	-12.6506
low	-12.6507
▁vardi	-12.6511
▁kullanır	-12.6516
▁fb	-12.652
▁farkett	-12.652
ung	-12.6528
95	-12.6531
▁araf	-12.6532
▁renna	-12.6538
ölç	-12.6544
▁atlı	-12.6544
▁güz	-12.6554
▁garro	-12.6558
ltd	-12.656
▁kardem	-12.6579
▁gre	-12.658
▁ibre	-12.6596
▁nisa	-12.6598
▁kadr	-12.6598
▁chene	-12.6598
▁kune	-12.6598
▁ülkeleri	-12.6602
stom	-12.6603
▁met	-12.6606
▁ope	-12.6608
assio	-12.661
pd	-12.6611
zhe	-12.6612
hne	-12.6613
▁224	-12.6613
▁polik	-12.6613
▁bayı	-12.6617
rbis	-12.6618
▁erden	-12.6622
▁dong	-12.6625
şit	-12.6627
▁selen	-12.6631
▁jenera	-12.6637
▁moza	-12.6637
▁hazırlan	-12.6637
▁gam	-12.6637
▁boynuz	-12.6641
uayen	-12.6643
▁cim	-12.6643
▁kapu	-12.6648
▁temp	-12.665
ald	-12.6651
hc	-12.6657
▁elen	-12.6657
▁demis	-12.6666
55	-12.6666
▁570	-12.6669
nfil	-12.667
isinda	-12.6674
▁aroma	-12.6676
bour	-12.6677
lava	-12.6679
▁tero	-12.6684
baraka	-12.6685
hio	-12.6687
▁albert	-12.6689
▁schi	-12.669
hmi	-12.6691
▁emzi	-12.6693
▁özayd	-12.6695
civ	-12.6696
eff	-12.6698
▁süratle	-12.6701
▁brit	-12.6713
amber	-12.6713
37	-12.6717
kunk	-12.6724
imiz	-12.6726
▁alma	-12.6726
▁rehav	-12.6735
cell	-12.6736
▁139	-12.6745
▁ksk	-12.6745
ike	-12.6758
aman	-12.6765
bra	-12.6766
371	-12.6776
mob	-12.6778
orm	-12.6784
▁142	-12.6786
▁belirt	-12.6788
ğil	-12.6794
▁217	-12.6795
▁demey	-12.6796
mez	-12.6799
ong	-12.6804
▁umu	-12.6806
jin	-12.6808
kart	-12.6808
fel	-12.6808
hamam	-12.681
▁rako	-12.681
uçma	-12.6814
▁152	-12.6828
▁uygul	-12.6831
bilgi	-12.6837
▁okuy	-12.684
pec	-12.6843
arizm	-12.6849
com	-12.6852
▁bağlama	-12.6852
▁cahi	-12.6852
▁tic	-12.6853
▁ferg	-12.6865
well	-12.6865
phone	-12.6877
▁ağl	-12.6878
▁bra	-12.688
hein	-12.6882
atıl	-12.6884
▁dick	-12.6884
tetik	-12.6885
▁suc	-12.6886
sov	-12.6889
rina	-12.6892
ogg	-12.6894
rdün	-12.6898
▁indirge	-12.6899
▁ark	-12.6901
uad	-12.6908
sayd	-12.6908
laka	-12.6909
▁kuyrukluyıldız	-12.6909
▁emma	-12.6909
▁yöne	-12.6912
▁lib	-12.6915
teki	-12.6919
▁sonlandırıl	-12.6922
ulan	-12.6923
kao	-12.6928
▁müd	-12.6929
▁tal	-12.6937
▁eği	-12.6938
▁erk	-12.6938
▁edebi	-12.6941
▁günü	-12.6947
vedo	-12.6956
▁saz	-12.6958
bus	-12.6959
▁hib	-12.696
uyg	-12.6965
avul	-12.6969
pt	-12.697
▁bog	-12.697
eras	-12.6978
io	-12.6986
▁konf	-12.6988
tikan	-12.6995
pua	-12.6996
▁arkadas	-12.6997
▁saldır	-12.7003
vis	-12.7008
utch	-12.7016
▁akro	-12.7022
▁kıkırda	-12.7023
▁sag	-12.7025
▁lav	-12.7029
lirk	-12.7029
azad	-12.703
▁kıpır	-12.7032
▁göğe	-12.7035
brov	-12.7036
▁mant	-12.704
▁cemaati	-12.7043
▁goz	-12.7043
zy	-12.705
▁vodjan	-12.7051
arıibrahimoğlu	-12.7051
▁etiyopya	-12.7051
▁fizyoloji	-12.7051
▁kronoloji	-12.7051
▁prometheus	-12.7051
▁reynolds	-12.7051
▁scramje	-12.7051
▁stuttgart	-12.7051
▁sülfür	-12.7051
▁survivor	-12.7051
▁nürnberg	-12.7051
▁eskatoloji	-12.7051
▁gabriel	-12.7051
▁matthew	-12.7051
▁aksesuar	-12.7051
▁fanatik	-12.7051
▁repertu	-12.7051
▁poyraz	-12.7051
▁knight	-12.7051
▁fü	-12.7051
▁geometri	-12.7051
▁mükerre	-12.7051
▁ekaterin	-12.7051
▁ihtişam	-12.7051
▁materyal	-12.7051
▁çankırı	-12.7051
▁diyaloğ	-12.7051
▁evolve	-12.7051
▁eurocup	-12.7051
▁potter	-12.7052
▁palto	-12.7052
▁kostüm	-12.7052
▁okmeydan	-12.7052
▁gecmis	-12.7052
▁mkyk	-12.7052
▁child	-12.7052
▁gregor	-12.7052
▁schily	-12.7052
▁jackson	-12.7052
▁helva	-12.7052
▁hakkaten	-12.7053
▁implant	-12.7053
▁aıds	-12.7053
▁sarmısa	-12.7053
▁bismil	-12.7054
▁giovan	-12.7054
▁frederi	-12.7054
▁todd	-12.7054
▁basladi	-12.7054
▁beach	-12.7055
▁garant	-12.7055
▁özellikleri	-12.7055
▁battle	-12.7055
▁pelital	-12.7055
57	-12.7056
▁1944	-12.7057
▁pilsen	-12.7057
▁dondurul	-12.7057
▁sungur	-12.7057
▁hammam	-12.7058
▁johnstone	-12.7058
▁kompozi	-12.7058
▁fulya	-12.7058
▁estet	-12.7059
▁hugh	-12.7059
▁damıt	-12.7059
▁peck	-12.7059
▁south	-12.7059
▁1954	-12.706
▁prolet	-12.7061
▁1925	-12.7061
▁tomur	-12.7061
▁bavul	-12.7061
▁kultur	-12.7062
▁babaanne	-12.7063
▁electron	-12.7063
▁spesi	-12.7063
▁kırgın	-12.7066
rla	-12.7066
▁kamufl	-12.7066
▁break	-12.7066
▁sansar	-12.7066
▁bombalan	-12.7067
▁sıvazla	-12.7067
▁arkeolo	-12.707
▁karizma	-12.7071
ireles	-12.7072
▁yaklasim	-12.7072
▁çakılgö	-12.7072
▁böcek	-12.7072
▁tevdi	-12.7073
▁dövüş	-12.7076
eski	-12.7076
▁muavi	-12.7076
▁ümeyyeoğ	-12.7077
iyo	-12.7077
▁menteş	-12.708
▁ultra	-12.708
▁rekrea	-12.7081
ano	-12.7081
▁425	-12.7081
mük	-12.7081
▁femini	-12.7082
▁marks	-12.7082
▁bulun	-12.7083
▁gedik	-12.7084
▁doldur	-12.7084
▁üfle	-12.7085
▁path	-12.7085
rke	-12.7086
▁degis	-12.7086
▁burcu	-12.7087
enna	-12.7087
▁hayırsız	-12.7088
▁harcanma	-12.7089
▁popst	-12.7091
▁bürokra	-12.7091
▁çevrim	-12.7091
▁doner	-12.7093
▁277	-12.7095
avio	-12.7097
▁pirami	-12.7098
▁yıpran	-12.7099
pp	-12.7102
üven	-12.7103
▁pav	-12.7103
sonic	-12.7106
cıbadem	-12.7107
▁mezhe	-12.7108
▁ross	-12.7108
▁1940	-12.711
▁myanm	-12.7111
▁stefano	-12.7111
▁karakoç	-12.7111
nos	-12.7116
▁öğüt	-12.7116
maraş	-12.7116
▁çevril	-12.712
▁tamamıyl	-12.712
hopper	-12.712
▁1600	-12.7121
aide	-12.7124
▁görüntüle	-12.7126
▁mikrosko	-12.7127
bon	-12.7128
▁sarnı	-12.713
▁gliko	-12.713
▁aydin	-12.7131
kreas	-12.7131
buz	-12.7132
▁owe	-12.7132
▁bilgilendir	-12.7135
▁kanaatin	-12.7135
▁karavan	-12.7136
but	-12.7137
▁topl	-12.7139
erlin	-12.714
▁iptalin	-12.7141
ita	-12.7143
alog	-12.7143
▁vill	-12.7143
etic	-12.7144
▁kopyalan	-12.7144
tırıl	-12.7144
vin	-12.7144
▁develi	-12.7145
hya	-12.7146
▁tabanca	-12.7146
▁juan	-12.7147
▁cimnastiğ	-12.7149
▁olivi	-12.7149
▁yapılandır	-12.7155
▁itaat	-12.7155
▁dursun	-12.7157
ırak	-12.7158
▁başrolün	-12.716
▁arasinda	-12.716
▁çökertil	-12.7162
alış	-12.7164
▁copter	-12.7166
▁mur	-12.7166
▁bond	-12.7174
▁taşçı	-12.7176
▁çivi	-12.7176
▁reviz	-12.7176
▁devretme	-12.7178
ralama	-12.7179
▁yaya	-12.7181
▁sib	-12.7183
taç	-12.7183
▁dors	-12.7189
▁donan	-12.719
▁hanuka	-12.7194
▁dern	-12.7194
▁faydalan	-12.7194
kült	-12.7195
▁yaşl	-12.7195
gon	-12.7196
▁pete	-12.7199
emzi	-12.72
irirk	-12.7201
▁başb	-12.7207
▁kahramanmara	-12.7212
swi	-12.7214
▁ashe	-12.7215
klesti	-12.7216
▁yaşayabil	-12.7217
lah	-12.7217
▁termi	-12.7217
adi	-12.722
hwi	-12.7221
issa	-12.7223
▁hüda	-12.7224
abut	-12.7224
▁bestele	-12.7225
▁akgül	-12.7225
sepp	-12.7226
368	-12.7226
oyun	-12.7228
esaret	-12.723
▁fide	-12.7233
▁çıkması	-12.7233
lph	-12.7233
ag	-12.7241
▁ersu	-12.7242
▁mach	-12.7243
▁çabala	-12.7245
tor	-12.7245
▁rasmus	-12.7247
▁kava	-12.7249
▁job	-12.7251
cg	-12.7256
▁süpür	-12.7259
adil	-12.726
lus	-12.7262
▁departm	-12.7263
birlik	-12.7265
▁eklenme	-12.7266
zap	-12.7268
mı	-12.7268
dd	-12.7274
▁anımsatıl	-12.7275
▁avla	-12.7279
▁bastırıl	-12.7286
lpg	-12.7286
isan	-12.729
▁mesci	-12.7293
ınç	-12.7294
83	-12.7297
ej	-12.7297
ğe	-12.7299
▁yararlandırıl	-12.7301
▁chambe	-12.7304
▁kulu	-12.7311
tına	-12.7311
▁tayvan	-12.7313
olfg	-12.7313
▁örtüş	-12.7314
▁coş	-12.7317
04	-12.7318
▁rhod	-12.732
▁süm	-12.7321
▁391	-12.7321
ijsselbloem	-12.7322
▁elektro	-12.7324
uba	-12.7326
▁fobi	-12.7327
sıkı	-12.7329
▁özay	-12.7332
lefe	-12.7337
▁arthu	-12.7338
ful	-12.734
▁göknar	-12.734
▁telesko	-12.7341
▁cour	-12.7342
▁akıt	-12.7342
▁hızlanma	-12.7347
▁hel	-12.7348
▁linds	-12.735
lamas	-12.7351
ümü	-12.7358
moro	-12.736
▁arsin	-12.7361
opulos	-12.7369
eliha	-12.7372
laştırıl	-12.7373
▁lif	-12.7375
▁fevk	-12.7379
tama	-12.7381
▁cora	-12.7383
ayin	-12.7386
▁mevzi	-12.7387
▁brand	-12.7388
bik	-12.7388
▁erg	-12.7391
▁orantı	-12.7395
▁dudak	-12.74
▁fik	-12.7401
▁balkı	-12.7405
▁dmitr	-12.7406
▁kıyas	-12.7408
ulha	-12.7409
▁dav	-12.7413
▁mürekkeb	-12.7413
zakha	-12.7413
▁mani	-12.7416
hay	-12.7417
▁yerleş	-12.742
▁desen	-12.7421
▁dilim	-12.7421
gide	-12.7423
▁chan	-12.7432
▁tüzüğ	-12.7437
▁şenay	-12.7438
tbol	-12.7441
eney	-12.7442
▁goet	-12.7444
inec	-12.7445
▁kayh	-12.7446
▁more	-12.7448
▁çalışabil	-12.7449
chnei	-12.7452
umlu	-12.7455
▁cheva	-12.7458
▁timu	-12.746
▁torp	-12.7462
▁gozler	-12.7463
435	-12.7465
şam	-12.7465
trin	-12.7468
dirirk	-12.7471
▁tho	-12.7476
▁kobal	-12.7477
▁gerg	-12.7479
ledil	-12.7479
▁eh	-12.7486
▁pole	-12.7488
azio	-12.7493
▁fişle	-12.7495
▁sabitle	-12.7499
asım	-12.75
ogram	-12.7504
nkıla	-12.7507
erdan	-12.7509
▁kodla	-12.7514
sipa	-12.7515
▁hapsed	-12.7517
üntü	-12.7518
▁protokolde	-12.7518
ards	-12.7519
rily	-12.7524
zem	-12.753
▁uyuştur	-12.7531
usiness	-12.7533
▁kullanmay	-12.7533
▁tropik	-12.7539
610	-12.7541
▁aks	-12.7545
▁neza	-12.7549
▁susam	-12.755
pur	-12.7551
▁yalıtı	-12.7552
hats	-12.7556
▁sevil	-12.7557
maj	-12.7559
▁harfin	-12.7566
arth	-12.7569
▁amel	-12.7574
ydan	-12.7577
▁gollü	-12.7577
▁foo	-12.7578
▁mahsul	-12.7579
lk	-12.7585
▁clar	-12.7587
apu	-12.7588
▁dışla	-12.7591
▁müteaki	-12.7592
▁tali	-12.7599
▁dikkatler	-12.7607
ehmed	-12.7609
▁katledild	-12.7613
igan	-12.7617
rman	-12.7619
dikal	-12.7637
▁çoklu	-12.7641
▁much	-12.7646
▁cra	-12.7648
ros	-12.7648
raw	-12.7651
onus	-12.7658
suman	-12.7662
▁yücelt	-12.7668
ece	-12.767
▁kibri	-12.7671
ojen	-12.7676
deş	-12.7677
larinda	-12.7681
hezi	-12.7685
voy	-12.7687
▁orient	-12.7689
▁küp	-12.769
habit	-12.7698
▁yansıt	-12.7699
▁çıkış	-12.7706
▁özkal	-12.7707
bezg	-12.7707
▁domini	-12.7711
cilar	-12.7713
nick	-12.7719
lata	-12.7719
ach	-12.772
ifos	-12.772
out	-12.772
▁sökü	-12.7722
uka	-12.7724
liforni	-12.7728
▁ımfn	-12.7729
53	-12.773
▁fos	-12.7735
ontrol	-12.7745
▁dizisi	-12.775
les	-12.7751
ntar	-12.7757
▁bül	-12.776
▁kard	-12.7764
▁gezer	-12.7766
row	-12.7768
▁uçar	-12.7771
nması	-12.7777
ate	-12.7783
▁meh	-12.7783
▁tmsfn	-12.7788
ball	-12.7789
▁hare	-12.7791
öbe	-12.7794
41	-12.7795
cant	-12.7797
▁perc	-12.7797
▁bots	-12.7797
▁associat	-12.7799
▁mesajlaş	-12.78
iste	-12.7808
allı	-12.7809
▁usa	-12.7812
▁muslu	-12.7812
▁tosh	-12.7814
laf	-12.7819
cümen	-12.7821
▁mahf	-12.7824
▁republica	-12.7827
fen	-12.7834
▁titreş	-12.7838
▁kült	-12.7842
▁turka	-12.7844
▁lanet	-12.785
ibi	-12.7852
▁christophe	-12.7854
edebilme	-12.7854
ob	-12.7855
cl	-12.7856
atrina	-12.786
▁gil	-12.7861
yarı	-12.7867
▁148	-12.7872
eşik	-12.7879
▁eym	-12.7884
stane	-12.7886
hina	-12.7886
▁lewi	-12.789
▁vot	-12.7893
▁güzi	-12.7893
▁torre	-12.7893
alıkesirspo	-12.7894
▁mansonı	-12.7896
▁vite	-12.79
266	-12.7901
▁sani	-12.7901
▁dis	-12.7904
gc	-12.7905
likleri	-12.7909
▁yapıştırı	-12.7914
▁ürkü	-12.7916
▁322	-12.7918
▁çoğul	-12.7923
▁sö	-12.7927
▁male	-12.793
şk	-12.7931
parat	-12.7932
▁samand	-12.7933
▁dolandır	-12.7935
▁luck	-12.7938
tleştir	-12.7948
▁canlandırıl	-12.7954
▁etkilen	-12.7956
▁gao	-12.7957
çiçek	-12.7961
asit	-12.7963
peh	-12.7967
ccin	-12.797
arikat	-12.7972
▁yaraş	-12.7983
▁ostr	-12.7987
▁hoşh	-12.7987
zur	-12.7989
▁gon	-12.8002
▁manas	-12.8004
arma	-12.8004
▁çözü	-12.8013
▁seril	-12.8013
sbo	-12.8014
▁ohi	-12.8026
hali	-12.8026
▁630	-12.8028
▁kalif	-12.8034
▁perva	-12.8037
şid	-12.8038
▁edep	-12.804
▁hende	-12.8041
eyn	-12.8042
sab	-12.8046
▁birisi	-12.8053
▁şartnam	-12.8058
dad	-12.8061
▁acti	-12.8075
▁hang	-12.8076
▁ayı	-12.8078
▁tos	-12.8079
▁embe	-12.8093
▁melal	-12.8099
▁kuze	-12.81
▁bark	-12.8101
▁depar	-12.8105
erten	-12.8107
rjan	-12.8108
▁tol	-12.811
icle	-12.8115
göçm	-12.8116
▁duran	-12.8117
▁nega	-12.8119
▁ade	-12.8121
mlu	-12.8124
▁rou	-12.8124
▁anders	-12.8133
loji	-12.8142
ound	-12.8144
▁safar	-12.815
raven	-12.8151
▁melt	-12.8151
aşla	-12.8154
orke	-12.8154
▁diyeti	-12.8154
▁row	-12.8161
▁müzikali	-12.8166
▁uğr	-12.8174
lahat	-12.8174
▁ruhi	-12.8177
▁dokun	-12.8182
zyon	-12.8185
226	-12.8189
▁acik	-12.8189
saç	-12.8192
sg	-12.8195
▁farked	-12.8198
▁başdanışman	-12.8201
iles	-12.8204
onik	-12.8219
oştur	-12.8219
▁oval	-12.822
▁goster	-12.8225
▁boo	-12.8226
▁ekol	-12.8235
sch	-12.8243
çift	-12.8243
▁dizil	-12.8251
kız	-12.8263
tl	-12.8273
parça	-12.8275
genç	-12.8279
büyük	-12.8282
▁onaylat	-12.829
ekl	-12.8293
▁üşen	-12.8293
▁193	-12.8295
toprak	-12.8296
▁mous	-12.8296
▁beck	-12.83
tbe	-12.8303
390	-12.8305
app	-12.831
yal	-12.8315
▁kai	-12.8324
▁redd	-12.8325
cr	-12.8328
92	-12.8339
▁projesi	-12.834
▁plat	-12.8347
donn	-12.8349
zine	-12.8351
79	-12.8355
▁cebel	-12.8357
ını	-12.8364
▁toksi	-12.8364
▁olmasin	-12.8368
pin	-12.8368
▁sancak	-12.8368
gho	-12.8372
ılsay	-12.8373
has	-12.8374
iliş	-12.8376
▁mehta	-12.8377
▁kru	-12.8382
idman	-12.8389
cente	-12.8403
vok	-12.841
▁sahtek	-12.841
▁arabi	-12.8411
▁mann	-12.8419
▁fant	-12.8421
uzu	-12.8422
▁kaybeder	-12.8428
▁bayk	-12.8436
wan	-12.8438
berg	-12.8438
ucas	-12.844
anet	-12.844
cins	-12.8447
ash	-12.8447
alaska	-12.8452
▁surek	-12.8457
ore	-12.846
▁yazılı	-12.8463
▁infi	-12.8464
burun	-12.847
▁edile	-12.8476
▁num	-12.848
üyük	-12.8483
kemal	-12.8493
üzer	-12.8498
▁sto	-12.8504
enme	-12.8506
bf	-12.8511
ziyer	-12.8519
▁kole	-12.8522
▁mila	-12.8528
▁fah	-12.853
nmis	-12.853
▁hitab	-12.8531
▁nefs	-12.8534
▁fir	-12.8534
sakal	-12.8537
▁bahri	-12.854
▁coro	-12.8555
▁afş	-12.8562
köprü	-12.8563
afet	-12.8565
ırk	-12.857
▁sina	-12.858
aret	-12.8587
tham	-12.859
▁kısme	-12.8594
▁bıyık	-12.8597
▁lion	-12.8598
▁dağıtı	-12.8605
nerbahçe	-12.8609
abya	-12.8618
▁183	-12.8625
▁feli	-12.8626
ert	-12.8628
▁idealler	-12.863
zami	-12.8631
iklari	-12.8636
▁plato	-12.8641
▁lami	-12.8647
▁pakt	-12.8652
ienne	-12.8654
oça	-12.8659
▁gev	-12.8664
▁dem	-12.8666
▁associate	-12.8667
▁özg	-12.8675
▁kaydedil	-12.8676
▁davi	-12.8683
alter	-12.8685
temiz	-12.8688
▁liang	-12.8689
borsa	-12.8689
dalga	-12.8697
hag	-12.8698
mali	-12.8706
abaka	-12.8716
▁kısalt	-12.8724
ibe	-12.8727
▁normalleş	-12.8727
▁kilitlen	-12.8728
nden	-12.8728
▁flo	-12.8746
dick	-12.8747
▁beyazı	-12.8747
▁516	-12.8747
▁kesk	-12.8748
show	-12.8755
▁mecburi	-12.8756
masın	-12.8757
ena	-12.8762
ellow	-12.8763
▁turg	-12.877
rref	-12.8773
▁oh	-12.8775
▁beril	-12.878
▁berd	-12.8781
▁nb	-12.8787
gor	-12.8788
akar	-12.8794
ino	-12.8797
▁oct	-12.8805
461	-12.8806
zo	-12.8812
▁gezin	-12.8816
▁johnn	-12.882
▁total	-12.8824
cav	-12.8826
yur	-12.8833
▁estir	-12.8834
onel	-12.8834
▁kons	-12.8835
▁fai	-12.8836
▁ped	-12.884
ırlatıl	-12.8843
tül	-12.8849
syd	-12.8854
saplan	-12.8857
▁ağı	-12.8863
▁person	-12.8864
▁beth	-12.8865
▁feh	-12.8872
corp	-12.8873
yardım	-12.8874
▁sakinle	-12.8875
▁ehl	-12.8877
mse	-12.8878
yakup	-12.888
abad	-12.8885
▁müf	-12.8886
otten	-12.8891
▁karam	-12.8895
400	-12.8906
tbi	-12.8907
eng	-12.8916
hawk	-12.8928
ök	-12.8932
caoğ	-12.8944
scott	-12.8946
ndil	-12.8948
nay	-12.8951
▁lev	-12.8952
▁abuze	-12.8954
▁köks	-12.8957
we	-12.896
indan	-12.8965
işi	-12.8967
mdi	-12.8977
▁moo	-12.898
ayı	-12.8986
▁chpy	-12.8988
gs	-12.8991
▁olimpi	-12.8994
▁bam	-12.8996
▁hamid	-12.8998
diz	-12.9007
▁kurd	-12.9009
▁oska	-12.901
riş	-12.9011
▁rave	-12.9012
itt	-12.9017
▁mike	-12.9023
morit	-12.9023
ğrul	-12.9026
▁anlatıl	-12.9027
etleme	-12.9027
▁uluç	-12.9027
▁163	-12.9028
boz	-12.9028
rov	-12.9032
dolf	-12.9032
kkale	-12.9035
▁zulm	-12.904
▁rockets	-12.9042
ted	-12.9051
▁evre	-12.9055
mayi	-12.9059
▁oks	-12.9063
▁dolan	-12.9067
istek	-12.9072
grafik	-12.908
▁bilinçlen	-12.9082
▁manev	-12.909
2000	-12.9093
küp	-12.9104
▁bileş	-12.9104
azim	-12.9104
▁ayr	-12.9113
hz	-12.9115
kap	-12.9121
kins	-12.9121
▁kurulu	-12.9122
toros	-12.9122
mye	-12.9125
▁yönetimi	-12.9125
anırke	-12.9138
▁dinley	-12.914
▁anlami	-12.9144
▁suru	-12.9146
166	-12.9152
enses	-12.9154
lou	-12.9157
▁erdo	-12.9159
anlıurfaspo	-12.9168
emra	-12.9169
stanbul	-12.9178
sekiz	-12.9183
sonu	-12.9188
▁mö	-12.9195
arlı	-12.9197
dy	-12.9199
▁kırıl	-12.9207
▁vas	-12.9207
thy	-12.9208
tgd	-12.9212
ırım	-12.9212
menor	-12.9215
wal	-12.9221
▁robo	-12.9227
eppe	-12.9227
▁aleksand	-12.9227
wat	-12.9232
▁anl	-12.9244
▁vaadi	-12.9246
▁mir	-12.9249
chat	-12.9249
rive	-12.925
dön	-12.9255
iller	-12.9258
murg	-12.926
pat	-12.9261
▁muslum	-12.9262
▁atil	-12.9264
670	-12.927
▁oyala	-12.9273
▁sahra	-12.9275
▁otom	-12.9281
ulke	-12.9284
işan	-12.9285
▁anna	-12.9296
▁madam	-12.9303
şağı	-12.9305
▁tep	-12.9305
ansu	-12.9308
türkiye	-12.931
gado	-12.931
▁dusun	-12.9311
rli	-12.9318
▁kurgula	-12.932
aşım	-12.9324
lami	-12.9328
faci	-12.9331
▁finn	-12.9336
001	-12.9343
▁ihtimaller	-12.9348
oks	-12.935
nak	-12.9356
kül	-12.9365
irken	-12.9367
ülte	-12.9371
▁santrali	-12.9372
rat	-12.9377
▁tha	-12.9379
enya	-12.9382
▁elenme	-12.9383
ves	-12.9384
▁453	-12.9387
988	-12.9388
beyoğ	-12.9389
memis	-12.9391
▁şemsi	-12.9396
def	-12.9399
▁clubt	-12.9399
esi	-12.94
▁gayrı	-12.9404
ingilt	-12.9405
evec	-12.9407
▁atı	-12.9409
▁aci	-12.9409
▁chelseay	-12.9413
▁ışı	-12.942
▁şik	-12.9426
▁protokolle	-12.9437
▁faulle	-12.9437
ydi	-12.9439
ıyo	-12.9445
▁incel	-12.9445
▁güdü	-12.9452
▁efekt	-12.9453
▁fantas	-12.9458
uang	-12.946
▁farz	-12.9462
▁hackle	-12.9465
mislar	-12.9467
▁hop	-12.9467
▁rep	-12.9476
rom	-12.9479
ürkiye	-12.9482
rar	-12.9482
▁ghe	-12.9497
paz	-12.9502
717	-12.9508
sson	-12.9511
▁gümrü	-12.9511
▁brü	-12.9519
eyyide	-12.9519
▁egd	-12.952
ucci	-12.9523
▁devred	-12.9524
▁hoffm	-12.9525
ilkin	-12.9528
▁astrono	-12.953
atma	-12.953
▁ruhsa	-12.9532
▁louis	-12.9534
▁harfle	-12.9538
empati	-12.9539
▁victor	-12.9541
▁zoe	-12.9541
cott	-12.9541
▁kapatı	-12.9543
ankara	-12.9549
ildstein	-12.9551
▁aksesuvar	-12.9551
▁albatros	-12.9551
▁byegm	-12.9551
▁ertüngealp	-12.9551
▁firkateyn	-12.9551
▁kadayıf	-12.9551
▁marangoz	-12.9551
▁minmetals	-12.9551
▁molekül	-12.9551
▁schleicher	-12.9551
▁spacey	-12.9551
▁stojakovi	-12.9551
▁bahtiyar	-12.9551
▁demirdöğ	-12.9551
▁fesleğen	-12.9551
▁health	-12.9551
▁çilingir	-12.9551
▁absinth	-12.9551
▁kaypakka	-12.9551
▁serpiştir	-12.9551
▁hapşırı	-12.9551
▁people	-12.9551
plorer	-12.9551
▁flört	-12.9551
▁pivot	-12.9551
▁eberhard	-12.9551
▁semptom	-12.9551
▁bryant	-12.9551
▁company	-12.9551
▁enterpri	-12.9551
▁gürbüz	-12.9551
▁swiss	-12.9551
▁cocuklari	-12.9551
▁pijama	-12.9551
▁ıcbc	-12.9551
ueensland	-12.9551
▁şerbetçio	-12.9551
▁hıfz	-12.9551
▁papatya	-12.9551
▁hoşnut	-12.9551
▁runner	-12.9551
▁shenzh	-12.9551
▁römorkör	-12.9551
▁gemvur	-12.9551
ltrasonografi	-12.9551
▁hilary	-12.9551
▁çubuğ	-12.9551
▁grease	-12.9551
▁behram	-12.9551
▁nancy	-12.9551
▁rafting	-12.9551
▁kümülati	-12.9551
▁yahşi	-12.9552
▁bom	-12.9552
▁sapien	-12.9552
▁bruce	-12.9552
▁ambros	-12.9552
▁gıdıkla	-12.9552
▁yolculug	-12.9552
▁uçakgemi	-12.9553
▁paraguay	-12.9553
▁gonder	-12.9553
okalipt	-12.9553
▁elveda	-12.9553
▁ifşa	-12.9553
▁betimle	-12.9553
▁meryem	-12.9554
▁olymp	-12.9554
▁cnbc	-12.9554
▁hubert	-12.9554
▁gözbebe	-12.9554
▁abdu	-12.9554
▁mineraller	-12.9554
▁devalü	-12.9554
▁secret	-12.9554
▁flyn	-12.9554
▁centre	-12.9555
▁kadinlar	-12.9555
▁numaralandır	-12.9555
▁silahsızlan	-12.9557
▁gerceklestir	-12.9557
▁dönerci	-12.9557
▁mclaren	-12.9557
▁alemdar	-12.9558
▁manidar	-12.9558
▁himmet	-12.9558
▁letonya	-12.9558
▁ppk	-12.9559
▁1945	-12.9559
▁obez	-12.9559
▁kabarık	-12.9559
▁dökülme	-12.9559
▁koçary	-12.9559
▁özelleştiril	-12.9559
ürdürülebilirlik	-12.9559
ola	-12.956
▁1904	-12.956
▁craw	-12.956
▁ardıç	-12.956
▁1934	-12.956
▁adrian	-12.9561
▁raikk	-12.9561
▁güleryüz	-12.9561
▁meteor	-12.9561
▁afrodi	-12.9562
▁gallet	-12.9562
erda	-12.9563
▁aragone	-12.9563
▁olustur	-12.9564
▁sound	-12.9564
▁paranoya	-12.9564
▁retina	-12.9565
▁kızkardeş	-12.9565
▁vasf	-12.9565
▁ısland	-12.9566
▁nük	-12.9566
sezg	-12.9566
▁panoram	-12.9566
▁bowden	-12.9567
oody	-12.9567
▁kurumlar	-12.9567
▁avmler	-12.9568
▁atvde	-12.9568
▁kompost	-12.9569
▁conver	-12.9569
▁onunde	-12.9569
▁palmi	-12.957
▁necmi	-12.9571
▁sezai	-12.9572
▁bmw	-12.9573
iştir	-12.9573
▁gross	-12.9573
▁kovuştur	-12.9573
▁mansur	-12.9573
▁karistirma	-12.9575
▁scheng	-12.9577
▁kıpırda	-12.9577
▁kilic	-12.9577
▁genpa	-12.9578
▁mikc	-12.9578
▁hafriy	-12.9579
olumbi	-12.9579
▁akbıyık	-12.958
▁htm	-12.9581
▁true	-12.9581
▁castel	-12.9581
▁komple	-12.9582
▁tadinda	-12.9583
henge	-12.9583
▁johann	-12.9583
▁seyyid	-12.9584
dri	-12.9584
▁bilmem	-12.9584
▁today	-12.9585
▁yağlık	-12.9585
▁cinev	-12.9586
▁rendele	-12.9586
▁repo	-12.9588
▁altınay	-12.9588
▁penn	-12.9588
▁arkadasim	-12.9589
logy	-12.9589
omotiv	-12.9589
moor	-12.9589
▁robin	-12.959
▁jener	-12.959
▁tırtıl	-12.9591
▁mas	-12.9593
▁mekteb	-12.9593
▁avustur	-12.9596
▁teşhi	-12.9596
▁narayan	-12.9596
▁machine	-12.9596
▁rubin	-12.9597
▁angelesta	-12.9598
▁gıyab	-12.9599
kahya	-12.96
▁kılıçarsl	-12.96
▁resul	-12.9602
▁akusti	-12.9602
▁amasya	-12.9603
▁boliv	-12.9605
▁arbor	-12.9606
▁hope	-12.9608
▁tiksin	-12.9608
▁aşikar	-12.9609
lge	-12.9609
▁ydp	-12.9609
sdorf	-12.961
▁muraba	-12.961
▁426	-12.9611
▁georgi	-12.9612
▁nötr	-12.9613
▁sakson	-12.9614
▁hüzn	-12.9616
▁161	-12.9616
▁burç	-12.9617
ueens	-12.9621
oord	-12.9621
▁ritm	-12.9624
▁yapılabil	-12.9626
▁blue	-12.9626
ough	-12.9629
▁celil	-12.9629
▁every	-12.9629
▁krom	-12.963
▁upton	-12.9631
▁bulundur	-12.9631
▁alınabil	-12.9631
▁müfre	-12.9632
▁olmayış	-12.9633
▁batist	-12.9635
bert	-12.9636
▁nepal	-12.9638
▁koşuştur	-12.9638
▁dersane	-12.9639
ps	-12.964
ntaj	-12.964
▁serap	-12.9642
▁biyografi	-12.9642
▁sırıt	-12.9642
▁sed	-12.9643
alli	-12.9643
▁lanetle	-12.9644
▁babur	-12.9644
▁yumru	-12.9645
▁819	-12.9646
▁niels	-12.9646
▁çınlat	-12.9646
▁shan	-12.9647
▁demografi	-12.965
▁kerp	-12.9651
▁zuh	-12.9653
▁lazki	-12.9654
▁bmc	-12.9654
▁torbalı	-12.9654
▁nişantaş	-12.9656
▁şap	-12.9658
▁şera	-12.9658
▁117	-12.9658
▁albumu	-12.9661
tedir	-12.9662
ight	-12.9663
▁gittig	-12.9665
▁megap	-12.9668
▁marine	-12.9669
▁umursama	-12.9669
▁award	-12.967
▁trablus	-12.9671
▁cekme	-12.9673
▁deutsche	-12.9673
▁robbi	-12.9675
▁ios	-12.9676
▁thin	-12.9677
▁brom	-12.9681
▁yağmala	-12.9681
kovski	-12.9681
▁püskürtül	-12.9685
▁insaf	-12.9685
▁tanıml	-12.9686
gora	-12.9687
▁shell	-12.9688
sheng	-12.969
vana	-12.9691
▁pus	-12.9691
▁papaz	-12.9695
uhal	-12.9696
▁rabbi	-12.9698
▁ferr	-12.9698
▁gorde	-12.97
▁ural	-12.97
▁gorul	-12.9703
▁üçleme	-12.9704
▁leona	-12.971
ören	-12.971
▁yılanlı	-12.9712
▁eşkal	-12.9713
▁toy	-12.9715
▁alınma	-12.9716
▁öksü	-12.9717
alters	-12.9723
esse	-12.9728
angel	-12.973
▁dpt	-12.9731
kendi	-12.9732
▁kıska	-12.9732
▁fıs	-12.9732
▁ebedi	-12.9732
▁dramati	-12.9733
▁hyar	-12.9735
▁ipoteğ	-12.9736
lebano	-12.9749
▁meeka	-12.975
▁222	-12.975
ell	-12.9752
▁nohu	-12.9753
dikleri	-12.9755
dinli	-12.9757
▁andij	-12.976
▁indirgen	-12.9762
alata	-12.9766
▁trom	-12.9768
▁gökn	-12.9771
▁gey	-12.9773
▁ibb	-12.9774
▁kuyt	-12.9779
▁tanıtma	-12.9779
merkez	-12.9784
▁diye	-12.9787
ğru	-12.9788
▁tyra	-12.9791
▁fini	-12.9797
▁çağrısı	-12.9798
▁640	-12.98
▁naklet	-12.98
endos	-12.9803
▁simül	-12.9806
▁orijinalin	-12.9808
▁bron	-12.9811
▁amiral	-12.9822
rande	-12.9822
▁kaçır	-12.9828
▁cinci	-12.9831
asus	-12.9834
▁görece	-12.9835
ifre	-12.9836
▁glas	-12.9842
▁senkron	-12.9848
▁beklene	-12.9855
▁izze	-12.9855
lendiril	-12.9856
▁gebr	-12.9861
sic	-12.9861
▁kennet	-12.9862
dp	-12.9864
firel	-12.9865
fr	-12.9865
▁kopec	-12.9866
▁vis	-12.9867
▁türkku	-12.9868
▁çeyreğ	-12.987
▁şakra	-12.9871
blem	-12.9871
▁kalitesi	-12.9873
ffet	-12.9874
▁connecti	-12.9874
▁albumde	-12.9875
▁tour	-12.9876
▁balli	-12.9877
lwa	-12.9884
liver	-12.9885
▁308	-12.9886
▁terapi	-12.9887
▁gökde	-12.9887
ştur	-12.989
▁işlet	-12.9894
▁itti	-12.9894
▁pok	-12.9895
63	-12.9897
şter	-12.9902
▁shp	-12.9902
koz	-12.9903
york	-12.9906
acett	-12.9906
▁dezenf	-12.9906
▁fışkı	-12.9907
▁binal	-12.9909
ili	-12.991
▁futbolcu	-12.9911
adisyon	-12.9912
▁yalın	-12.9913
▁ölçülme	-12.9923
masyon	-12.9923
▁kutuplaş	-12.9926
mografi	-12.9927
duklari	-12.993
▁mega	-12.9936
ical	-12.9939
pucu	-12.9942
▁kıstır	-12.9944
▁avmde	-12.9944
▁novo	-12.9945
fc	-12.9947
▁beyazper	-12.9947
adayı	-12.9949
▁alaca	-12.995
▁antre	-12.9957
▁hima	-12.996
phis	-12.9965
▁yardır	-12.9972
▁blond	-12.9974
▁arg	-12.9974
dr	-12.9979
▁bowl	-12.9982
▁ezberle	-12.9984
gene	-12.9984
▁ate	-12.9985
383	-12.9987
ekli	-12.9993
▁melis	-12.9994
söyle	-12.9999
▁akh	-13
▁hepat	-13.0003
astik	-13.0004
▁ekl	-13.0005
387	-13.001
rude	-13.001
▁septi	-13.0013
rett	-13.0013
hh	-13.0014
ekonomi	-13.0017
▁broad	-13.0022
uan	-13.0025
azen	-13.0026
▁sebat	-13.0028
iner	-13.0029
▁çıkarılı	-13.0031
▁adamlari	-13.0032
▁dedi	-13.0035
alk	-13.0043
▁grim	-13.005
530	-13.005
▁mandal	-13.0052
▁nema	-13.0058
▁taşlı	-13.0063
▁mamü	-13.0063
opera	-13.0064
▁abid	-13.0066
şti	-13.0068
03	-13.0069
▁guin	-13.0072
zure	-13.0073
stre	-13.0074
▁kütüğ	-13.008
▁olabilece	-13.0087
▁rocketsı	-13.0087
▁jiang	-13.0087
▁self	-13.0089
449	-13.0092
roğ	-13.0093
▁ıslat	-13.0097
▁takimda	-13.0098
▁zell	-13.0101
▁ejder	-13.0101
▁flam	-13.0102
ndo	-13.0102
▁apps	-13.0103
▁mahall	-13.0104
enç	-13.0112
▁kurumsallaş	-13.0113
rojen	-13.0116
▁santi	-13.0118
biz	-13.0119
aatti	-13.0122
egg	-13.0124
▁vallah	-13.0125
▁sivria	-13.0126
▁vaatler	-13.0128
▁boca	-13.0134
▁takın	-13.0138
ıtma	-13.0145
rsi	-13.0146
▁edi	-13.0148
pert	-13.015
885	-13.0157
▁endişelendir	-13.0158
ayken	-13.016
sene	-13.0161
lip	-13.0162
▁assis	-13.0166
ader	-13.0168
▁helleni	-13.0169
▁demo	-13.017
▁zina	-13.0179
mine	-13.0183
▁ufk	-13.0186
▁abra	-13.0187
▁benzet	-13.0187
▁138	-13.0191
peş	-13.0194
▁vira	-13.0198
▁kaynat	-13.0199
otel	-13.02
▁oyla	-13.0204
▁mans	-13.0205
▁kamulaştır	-13.0206
▁afif	-13.0209
ffin	-13.021
▁selamlama	-13.0212
▁tutsa	-13.0213
ilk	-13.0214
▁gökalpi	-13.0214
siye	-13.0218
▁oyuncağ	-13.0219
▁sigm	-13.0226
▁gorun	-13.0228
▁amiraller	-13.0229
▁marki	-13.0233
astır	-13.0239
▁berna	-13.0239
zhong	-13.0239
ost	-13.024
▁bolun	-13.0241
▁süratl	-13.0241
▁pompala	-13.0241
vari	-13.0242
aloğ	-13.0255
▁ust	-13.0257
tika	-13.0262
▁kalabil	-13.0262
▁misk	-13.0265
▁bilinme	-13.0268
▁bow	-13.0272
▁şang	-13.0272
▁tug	-13.0272
268	-13.0272
gas	-13.0274
rut	-13.0274
▁magaz	-13.0277
vitt	-13.0277
çu	-13.0284
▁mot	-13.0288
▁trag	-13.0288
▁stea	-13.0291
▁hırsız	-13.0293
▁calisa	-13.0297
▁burk	-13.03
▁mesta	-13.0305
yacak	-13.0308
▁andr	-13.0311
173	-13.0314
▁erz	-13.0314
ento	-13.0317
▁müte	-13.0323
▁başlatı	-13.0329
kaynak	-13.033
sche	-13.0331
dies	-13.0336
aks	-13.0345
▁özkay	-13.0348
▁islah	-13.0348
▁konusu	-13.035
▁fahi	-13.0354
▁rau	-13.0357
undugu	-13.0358
▁yozlaş	-13.0358
▁470	-13.0359
▁ami	-13.0363
unca	-13.0371
▁dead	-13.0374
afa	-13.0374
kabin	-13.0375
▁cemev	-13.0376
ida	-13.0376
spekt	-13.0383
pal	-13.0386
802	-13.0387
ohl	-13.0389
▁kep	-13.039
▁lepp	-13.0391
anma	-13.0394
▁yıldır	-13.0394
▁fr	-13.0405
odor	-13.0405
into	-13.0411
▁kundakla	-13.0411
tila	-13.0412
uar	-13.0416
nge	-13.0424
▁semboliz	-13.0431
▁223	-13.0434
serv	-13.0435
dünya	-13.0435
▁rotte	-13.0436
ünde	-13.0438
▁geret	-13.0439
▁helsin	-13.044
zir	-13.044
▁fauller	-13.0442
▁örül	-13.0445
ddet	-13.0445
▁icab	-13.0449
aşırı	-13.0455
amıyor	-13.0461
▁gora	-13.0465
▁miks	-13.0468
84	-13.0471
▁tutan	-13.0471
eur	-13.0473
üzü	-13.0481
▁encü	-13.0481
feder	-13.0485
beli	-13.0489
▁protest	-13.0492
▁yuh	-13.05
vur	-13.0503
▁soc	-13.0504
estel	-13.0505
mina	-13.0509
▁çör	-13.0514
brid	-13.0514
▁slave	-13.0514
mesey	-13.0517
▁uk	-13.0518
tlak	-13.0525
▁deng	-13.0528
▁kandem	-13.0529
▁chand	-13.0536
▁zhi	-13.0541
rry	-13.0542
ublis	-13.0543
bahçeli	-13.0543
▁talk	-13.0545
evk	-13.0546
▁pint	-13.0548
gıl	-13.0557
▁dina	-13.0558
ugs	-13.0559
▁iskan	-13.0559
▁case	-13.0566
usch	-13.0569
▁ph	-13.057
ndirirk	-13.0575
▁mem	-13.0575
ayna	-13.0579
lphi	-13.0581
▁ımg	-13.0581
▁tanga	-13.0583
▁urum	-13.0585
ast	-13.0596
▁giyin	-13.0601
hrey	-13.0602
vane	-13.0608
▁ohal	-13.0609
▁müsteri	-13.061
▁muhamm	-13.0615
▁malik	-13.0619
bs	-13.0624
▁dağı	-13.0624
▁derinleştiril	-13.0626
▁çelme	-13.0627
▁pre	-13.0634
urum	-13.0639
dun	-13.0648
▁cb	-13.0651
▁jord	-13.0653
▁etsey	-13.0656
▁ferm	-13.066
▁sarmaş	-13.066
▁690	-13.0664
sosyal	-13.0666
tov	-13.0671
▁beydi	-13.0676
▁semboli	-13.0677
adam	-13.068
kala	-13.0681
▁yil	-13.0685
lir	-13.0687
▁ıss	-13.0688
yna	-13.0692
ceva	-13.0693
dway	-13.0696
▁dengelenm	-13.0699
urnu	-13.0702
▁geliştir	-13.0703
landırılma	-13.0705
pao	-13.072
▁platon	-13.0723
▁bırakı	-13.073
afin	-13.0734
▁zeytinda	-13.0736
▁tong	-13.0736
bük	-13.0738
▁ıııü	-13.0746
▁cro	-13.0748
▁caferc	-13.075
▁orki	-13.0751
ssü	-13.0751
ned	-13.0755
inat	-13.0756
▁beas	-13.076
koy	-13.0768
getir	-13.0768
▁156	-13.0769
gaj	-13.0774
▁132	-13.0778
45	-13.078
danışmanları	-13.078
adida	-13.0787
▁harv	-13.0788
▁burgaz	-13.079
girt	-13.0793
▁rı	-13.0795
▁odiolo	-13.0804
▁yükseköğre	-13.0806
▁nükleo	-13.0815
ğa	-13.0819
vic	-13.0828
life	-13.0829
tılırke	-13.083
▁aktivi	-13.0831
▁halm	-13.0832
▁olur	-13.0832
▁395	-13.0839
tam	-13.0841
asinda	-13.0841
▁katılı	-13.0847
▁beyt	-13.0848
▁helm	-13.0849
▁öğü	-13.085
▁tüzü	-13.0852
genel	-13.0859
▁turab	-13.0866
▁girebil	-13.0867
yara	-13.0868
▁dor	-13.0869
▁hols	-13.0878
▁mou	-13.0879
▁ogren	-13.0882
fing	-13.0883
▁enva	-13.0884
▁rega	-13.0885
iv	-13.089
sburg	-13.0892
▁tori	-13.0894
▁takılma	-13.0897
▁sinc	-13.0897
▁müşte	-13.0902
05	-13.0905
boğ	-13.0906
▁kınan	-13.0909
kulaç	-13.091
▁herk	-13.0915
lım	-13.0919
▁hunt	-13.0927
▁durakla	-13.0927
▁jar	-13.0929
bne	-13.0934
lli	-13.094
hui	-13.0941
▁toro	-13.0953
saha	-13.0956
ress	-13.0958
idis	-13.096
ure	-13.0961
ppia	-13.0965
oid	-13.0967
▁worl	-13.0968
▁butt	-13.097
içe	-13.0973
▁taz	-13.0975
▁boşa	-13.098
kaza	-13.098
▁aym	-13.0984
slo	-13.0991
endon	-13.0991
510	-13.0992
▁asht	-13.0994
▁gözet	-13.0996
▁citr	-13.0998
kf	-13.1002
▁karab	-13.1004
the	-13.1004
pis	-13.1007
tlarin	-13.1007
aht	-13.101
cane	-13.1013
▁şirketi	-13.1014
▁bran	-13.1016
oçoğ	-13.1019
lyo	-13.1029
öğretmen	-13.1032
▁kompr	-13.1036
sor	-13.1038
evo	-13.104
ğren	-13.1043
atmos	-13.1045
▁aliye	-13.1057
ezz	-13.1059
▁herald	-13.106
▁kaldır	-13.106
▁ıntern	-13.1064
▁mantı	-13.1066
bl	-13.107
tec	-13.1071
edef	-13.1072
▁aktiv	-13.1074
kav	-13.1075
▁aklan	-13.1076
rhun	-13.1079
tag	-13.1083
▁aydınlatıl	-13.1084
▁negr	-13.1091
andal	-13.1092
akdi	-13.1092
▁bakir	-13.1092
hid	-13.1098
nsas	-13.1101
ansas	-13.1103
▁ulas	-13.1111
ich	-13.1112
muri	-13.1112
▁that	-13.1115
izon	-13.112
▁selamü	-13.1122
▁spur	-13.1125
▁vak	-13.1134
▁maru	-13.1135
▁bl	-13.1137
kobal	-13.1144
▁süme	-13.1147
▁sadr	-13.1155
▁şama	-13.1163
▁işle	-13.1171
▁şenya	-13.1172
pasl	-13.1173
içeri	-13.1174
ifade	-13.1176
▁souls	-13.119
kl	-13.1191
ction	-13.1197
▁zorl	-13.1199
▁müstah	-13.1206
üç	-13.1208
açıkla	-13.1209
▁imti	-13.1213
▁eyva	-13.1214
gm	-13.1214
itli	-13.1215
hafız	-13.1234
rilirk	-13.1237
▁reza	-13.1237
çak	-13.1239
▁cidde	-13.1239
caut	-13.1242
sür	-13.1245
yaki	-13.1247
star	-13.1247
▁tezgaht	-13.1248
▁ağırl	-13.1249
▁sakı	-13.125
▁yayımlanma	-13.1251
▁özt	-13.1256
765	-13.1256
▁vat	-13.1264
▁pors	-13.1267
omeo	-13.1268
tter	-13.1269
▁gul	-13.1274
fella	-13.1274
▁zal	-13.1278
▁gide	-13.1283
▁benit	-13.1284
nbc	-13.1285
yemiş	-13.1286
▁ziyal	-13.129
399	-13.1299
▁gence	-13.1303
▁kupasi	-13.131
arist	-13.131
oca	-13.1311
ings	-13.1316
sman	-13.1317
▁rose	-13.1323
▁327	-13.1323
ins	-13.1336
▁day	-13.1341
▁sakl	-13.1342
▁sanatk	-13.1344
▁vall	-13.1354
ment	-13.1356
▁kitabe	-13.1361
dze	-13.1363
ummer	-13.1365
isyan	-13.1367
lmesi	-13.1369
rdane	-13.1373
▁eritr	-13.1378
kinleş	-13.1381
▁türe	-13.1381
▁okş	-13.1385
▁yayınl	-13.139
mm	-13.1391
ulda	-13.1393
▁405	-13.1397
onza	-13.1398
▁842	-13.1402
gh	-13.1403
729	-13.1411
jama	-13.1412
▁leto	-13.1416
sava	-13.1417
eder	-13.1427
▁aşi	-13.1429
rasinda	-13.1442
▁elver	-13.1444
▁natur	-13.1445
256	-13.1448
▁madur	-13.1449
beko	-13.1451
dov	-13.1455
çer	-13.1461
▁471	-13.1468
reti	-13.1472
şg	-13.1475
▁oper	-13.1479
otu	-13.1483
cher	-13.149
▁simgel	-13.149
mica	-13.15
ame	-13.1501
tifa	-13.1504
inde	-13.1504
▁volks	-13.151
▁camer	-13.1511
44	-13.1514
kograf	-13.1517
nnov	-13.1531
▁eb	-13.1547
uare	-13.1549
▁samu	-13.1555
olu	-13.1558
oni	-13.1562
▁hald	-13.1565
chim	-13.1571
▁gülhan	-13.1572
otopar	-13.1574
▁kibir	-13.1575
bü	-13.158
nku	-13.1586
▁karan	-13.1591
servatuvar	-13.1591
phill	-13.1592
klor	-13.1593
mentie	-13.1595
jo	-13.1602
jör	-13.161
▁tıka	-13.1615
karşı	-13.1622
kop	-13.1627
▁sozler	-13.1634
▁patr	-13.1643
uzakla	-13.1646
telek	-13.1649
▁yapılma	-13.1653
erfo	-13.1658
amet	-13.166
nduz	-13.1664
▁app	-13.1666
▁225	-13.1668
▁uzlaşı	-13.1668
scu	-13.1672
▁emperyali	-13.1672
wic	-13.1676
ekle	-13.1677
iski	-13.1678
▁kaşı	-13.1681
ardım	-13.1688
▁nakl	-13.1694
wi	-13.1694
etme	-13.1696
▁sürdür	-13.1697
▁baraka	-13.1699
worl	-13.1701
konferans	-13.1713
isa	-13.1715
tigi	-13.1742
▁heykelt	-13.1743
ahad	-13.1747
979	-13.1747
▁harr	-13.1751
enirk	-13.1752
rizon	-13.1752
▁kadin	-13.1753
▁127	-13.1753
panze	-13.1758
asketbolseverler	-13.1764
hav	-13.1765
▁devra	-13.1771
akis	-13.1772
kans	-13.1773
▁karaç	-13.1784
ppi	-13.1784
▁rome	-13.1787
▁oyuncu	-13.1789
▁ayarlan	-13.1796
ity	-13.18
mal	-13.1801
nto	-13.1804
▁tabe	-13.1804
sko	-13.1808
▁çana	-13.1811
▁155	-13.1818
ukuk	-13.1819
arbay	-13.1822
fizik	-13.1826
uta	-13.1831
▁yeşi	-13.1834
▁laz	-13.1834
▁yüzy	-13.1837
rm	-13.1837
▁taha	-13.1839
tha	-13.184
▁carp	-13.1844
▁mür	-13.1848
siyan	-13.185
organiz	-13.1852
▁teke	-13.1853
phe	-13.1853
dost	-13.186
enk	-13.1868
▁akli	-13.1868
▁çeker	-13.1871
▁kemale	-13.1873
ahm	-13.1873
▁flama	-13.1873
▁hack	-13.1877
komşu	-13.1877
▁kayın	-13.188
▁mik	-13.1881
iwa	-13.1885
▁kitabi	-13.1887
hçe	-13.1893
▁sac	-13.1895
▁kapat	-13.1896
lleb	-13.1897
ümer	-13.19
fikir	-13.1904
cef	-13.1908
▁minim	-13.1912
▁kızartı	-13.1914
▁hatırlat	-13.1916
ds	-13.1918
▁zen	-13.1918
msi	-13.192
ayd	-13.1921
devlet	-13.1922
ifi	-13.1923
diff	-13.1925
rpri	-13.1934
947	-13.1934
cus	-13.1939
▁güt	-13.1945
▁ergü	-13.1947
▁kapıku	-13.1951
▁çakış	-13.1953
▁duraklam	-13.1954
813	-13.1957
oley	-13.1963
vedi	-13.1973
▁dengele	-13.1993
pont	-13.2001
mca	-13.2004
sky	-13.2005
▁fev	-13.2007
▁parca	-13.2011
▁olduğu	-13.2014
zme	-13.2017
▁187	-13.2019
otti	-13.202
▁nasır	-13.2026
ndi	-13.2028
mbur	-13.2028
▁fle	-13.2036
▁doru	-13.2037
▁suçl	-13.2039
magne	-13.2039
cir	-13.2049
tri	-13.2072
unday	-13.2073
▁gru	-13.2074
lleme	-13.2081
▁isle	-13.2088
▁turn	-13.2089
▁lang	-13.2093
zki	-13.211
ünel	-13.2116
ndır	-13.2118
odh	-13.2123
▁meta	-13.2132
▁çuh	-13.2134
▁lez	-13.2137
gur	-13.2138
ssia	-13.214
▁baya	-13.2141
ihai	-13.2149
mental	-13.2152
kla	-13.2163
dayke	-13.2163
▁solo	-13.2164
bede	-13.2166
tki	-13.2167
das	-13.2171
▁open	-13.2183
▁maşa	-13.2186
▁yılan	-13.2187
dondur	-13.2196
▁çik	-13.2198
▁288	-13.2199
rcia	-13.2201
▁acm	-13.2207
vanov	-13.2213
▁götürül	-13.2215
▁dob	-13.2216
lock	-13.2219
alle	-13.222
▁övü	-13.2221
▁toma	-13.2223
▁rosto	-13.2224
rita	-13.2231
▁aktarı	-13.2232
▁202	-13.2236
abak	-13.224
ayrı	-13.2241
▁ic	-13.2242
kros	-13.2249
town	-13.225
kurgu	-13.2253
▁rad	-13.2256
fisch	-13.2256
donald	-13.2258
▁683	-13.2259
cou	-13.2259
▁kurtala	-13.2259
fıstığ	-13.226
ergi	-13.2271
ges	-13.2279
▁akyıld	-13.2279
▁simp	-13.228
yda	-13.2281
▁nemalan	-13.2283
kafes	-13.2288
▁sagla	-13.2289
flora	-13.2295
▁polit	-13.2295
▁param	-13.2297
tarizm	-13.2297
emeyen	-13.23
hassa	-13.2304
zart	-13.2304
down	-13.2309
vuş	-13.2309
▁gökb	-13.2309
▁jonesu	-13.2311
astronomi	-13.2319
▁epi	-13.2324
yani	-13.2324
eld	-13.2325
kö	-13.2326
sant	-13.2334
▁ıc	-13.2334
asil	-13.2338
sret	-13.2338
▁ahu	-13.2349
remon	-13.2352
dayet	-13.2358
▁şahba	-13.2358
ekon	-13.2361
mk	-13.2365
▁nesi	-13.2368
▁malt	-13.2369
▁feld	-13.237
mbass	-13.2371
▁işgaller	-13.2372
burt	-13.2372
dilen	-13.2381
tamina	-13.2384
kadar	-13.2386
jic	-13.2394
▁şaşı	-13.2396
▁altınt	-13.2396
▁edilmes	-13.2397
▁kirl	-13.2401
▁gürs	-13.2404
▁306	-13.2406
ıt	-13.241
▁ys	-13.2413
▁adi	-13.2418
toloji	-13.242
▁soyl	-13.2423
omo	-13.2428
kow	-13.2429
bach	-13.243
▁ayet	-13.2435
peg	-13.2436
lez	-13.2441
gusto	-13.2441
mous	-13.2441
▁connect	-13.2444
▁imal	-13.2444
mani	-13.2445
mour	-13.2446
▁tarihse	-13.2447
plak	-13.2453
▁astronom	-13.2454
arta	-13.2456
mülk	-13.2465
▁karada	-13.2466
▁havai	-13.2467
▁tarh	-13.2469
▁mahmudi	-13.2475
sma	-13.2485
eter	-13.2489
üney	-13.249
liya	-13.2491
ump	-13.2497
▁403	-13.251
selam	-13.2512
▁ceke	-13.2527
▁nej	-13.2531
▁rezi	-13.2534
müş	-13.2534
ustin	-13.2538
mogh	-13.2541
▁belediyesi	-13.2542
▁serin	-13.2542
ls	-13.2547
▁841	-13.2557
erik	-13.2561
▁tarzi	-13.2561
kor	-13.2563
ceng	-13.2567
▁lokali	-13.257
band	-13.257
işti	-13.2575
arife	-13.2583
duk	-13.2584
now	-13.2587
▁dedig	-13.2588
hai	-13.259
zet	-13.2594
cok	-13.2596
▁sadaka	-13.2597
kh	-13.2604
▁çırpı	-13.2608
▁ınc	-13.2608
amül	-13.2613
homa	-13.2616
▁aman	-13.2618
giris	-13.2623
hd	-13.2623
▁usai	-13.2624
urt	-13.2633
▁133	-13.2634
▁taka	-13.2634
çalış	-13.2638
rünge	-13.264
▁krat	-13.2645
işken	-13.2648
▁sih	-13.2654
adı	-13.266
nc	-13.2663
eceg	-13.2663
lug	-13.2669
eğe	-13.2669
dah	-13.2669
dok	-13.267
▁center	-13.267
evre	-13.2674
▁hila	-13.268
▁571	-13.2684
▁okla	-13.2686
meym	-13.2687
nice	-13.2692
tris	-13.2692
eks	-13.2696
pro	-13.2707
rin	-13.271
▁haza	-13.2711
ridge	-13.2712
bika	-13.2716
schw	-13.2724
hua	-13.2727
▁820	-13.2735
wen	-13.2735
▁single	-13.2736
ira	-13.2736
jor	-13.2743
ern	-13.2743
▁205	-13.2744
card	-13.2745
track	-13.2745
hran	-13.2749
plev	-13.2753
awa	-13.2755
sevi	-13.2756
▁canlandır	-13.2758
▁tvy	-13.2758
dö	-13.2759
pos	-13.2763
▁720	-13.2763
▁dokunul	-13.2763
talay	-13.2763
akı	-13.2767
▁kurşunla	-13.2771
▁gelistir	-13.2773
sip	-13.2773
▁emek	-13.2775
bilig	-13.2781
▁zeyn	-13.2782
▁ipote	-13.2784
▁futbo	-13.2786
oros	-13.2788
mbo	-13.2788
üzük	-13.2789
ırılma	-13.2792
aklı	-13.2792
▁flas	-13.2799
▁teş	-13.28
▁multi	-13.2803
ura	-13.2804
ogh	-13.2804
▁onar	-13.2809
eşek	-13.281
▁flore	-13.281
keme	-13.2811
ilan	-13.2813
seri	-13.2815
▁savaşı	-13.2819
▁181	-13.2826
orman	-13.2828
ruva	-13.2829
▁juli	-13.2835
▁kayser	-13.2836
cemi	-13.2837
bao	-13.2837
▁byr	-13.2842
▁zehirle	-13.285
▁değiştir	-13.286
belir	-13.2861
▁oz	-13.2863
yrics	-13.2863
▁anımsatı	-13.2866
chun	-13.2867
▁muhi	-13.2867
▁zeytinb	-13.2869
kiy	-13.2872
▁class	-13.2873
▁müta	-13.2874
▁tezahür	-13.2875
▁bede	-13.2879
tomat	-13.2879
▁scot	-13.2879
▁böce	-13.288
▁himm	-13.288
game	-13.2882
▁oluşturu	-13.2882
▁ismai	-13.2883
▁mineral	-13.2884
▁abeyleges	-13.2884
▁assassin	-13.2884
▁barrymore	-13.2884
▁carradine	-13.2884
▁frankenstein	-13.2884
▁gümüşdoğra	-13.2884
▁lenfosit	-13.2884
▁mccarthy	-13.2884
▁morfoloji	-13.2884
▁münasebet	-13.2884
▁mütevelli	-13.2884
▁pezeven	-13.2884
▁piggot	-13.2884
▁psikanaliz	-13.2884
▁scamander	-13.2884
▁stories	-13.2884
▁success	-13.2884
▁zağnos	-13.2884
svenska	-13.2884
▁clippers	-13.2884
▁foundation	-13.2884
▁suistimal	-13.2884
▁yaroslav	-13.2884
▁astrofizik	-13.2884
▁feodal	-13.2884
▁nuggets	-13.2884
▁sabırsızlan	-13.2884
▁fransergio	-13.2884
▁gümbür	-13.2884
▁science	-13.2884
▁segment	-13.2884
▁fabrici	-13.2884
▁monroe	-13.2884
ocamustafapaşa	-13.2884
▁spotify	-13.2884
▁joyce	-13.2884
▁müptezel	-13.2884
donetsk	-13.2884
▁pedagoji	-13.2884
▁pirimid	-13.2884
▁fastmobile	-13.2884
▁illingwo	-13.2884
▁summly	-13.2884
▁jagger	-13.2884
▁küstah	-13.2884
iaoning	-13.2884
▁kasarlarin	-13.2884
▁shadow	-13.2884
▁sylvest	-13.2884
▁amorti	-13.2884
▁timberlake	-13.2884
▁dereağz	-13.2884
▁gordugu	-13.2884
sismoloji	-13.2884
▁downloa	-13.2884
▁klerides	-13.2884
▁scientist	-13.2884
▁grigor	-13.2884
▁etimoloji	-13.2885
▁celayir	-13.2885
▁mazlum	-13.2885
halilzad	-13.2885
▁story	-13.2885
▁şöför	-13.2885
▁laurent	-13.2885
▁piraly	-13.2885
▁idlib	-13.2885
▁mukave	-13.2885
▁döllen	-13.2885
▁twent	-13.2885
source	-13.2885
▁sampiyonlug	-13.2885
▁eagle	-13.2885
▁istikbal	-13.2885
▁peren	-13.2885
▁ultrason	-13.2885
▁kiskanc	-13.2885
▁absent	-13.2885
▁hırpala	-13.2886
▁murray	-13.2886
emember	-13.2886
▁lockh	-13.2886
▁feshet	-13.2886
▁manager	-13.2886
▁with	-13.2886
▁küfred	-13.2886
▁universal	-13.2886
▁kudret	-13.2887
▁paleontolo	-13.2887
▁sarımsak	-13.2887
▁francis	-13.2887
▁maharet	-13.2887
▁kardinal	-13.2887
▁theatre	-13.2887
▁donmus	-13.2887
▁rasula	-13.2887
▁susturu	-13.2887
▁aritmet	-13.2887
▁edition	-13.2887
▁mukadde	-13.2887
▁75402	-13.2887
▁comput	-13.2887
▁directory	-13.2887
▁hükum	-13.2888
kemmel	-13.2888
▁polifon	-13.2888
▁zülfi	-13.2888
hoff	-13.2888
▁garrison	-13.2888
▁veritaban	-13.2888
▁dataver	-13.2888
▁staff	-13.2888
▁küçüğü	-13.2888
▁saldiri	-13.2888
▁franco	-13.2889
▁constant	-13.2889
▁donaldson	-13.2889
▁storm	-13.2889
▁gsyh	-13.2889
▁sacmalik	-13.2889
▁minval	-13.289
witz	-13.289
▁akredit	-13.289
▁lawyer	-13.289
▁reporter	-13.289
▁serpi	-13.2891
▁high	-13.2891
▁charle	-13.2891
▁atlatabil	-13.2891
▁dedektör	-13.2891
▁yudumla	-13.2891
▁jacob	-13.2892
▁tespi	-13.2892
▁tipleme	-13.2892
asımpaşaspor	-13.2892
▁vuku	-13.2892
▁yavasl	-13.2893
▁8387	-13.2893
▁shakh	-13.2894
▁küfret	-13.2894
▁zheng	-13.2894
▁gökoğl	-13.2895
olsto	-13.2895
rba	-13.2896
▁secene	-13.2896
▁1724	-13.2896
icio	-13.2896
▁sellin	-13.2898
▁ele	-13.2899
▁disari	-13.29
▁saglam	-13.2901
▁düdük	-13.2901
▁yerçekim	-13.2901
▁frida	-13.2902
▁1935	-13.2902
▁seyahati	-13.2902
▁milimetr	-13.2902
▁manzum	-13.2902
▁sozluk	-13.2903
▁yayinla	-13.2903
▁rudd	-13.2904
▁sacma	-13.2905
▁ilmihal	-13.2905
▁sinensi	-13.2905
▁biliminsan	-13.2905
linç	-13.2905
lopedi	-13.2905
▁olacagim	-13.2906
▁ihtiyaçlarin	-13.2906
schle	-13.2907
▁bulu	-13.2908
thia	-13.2909
▁mera	-13.2909
▁sanders	-13.2909
▁lügat	-13.2909
▁turtle	-13.291
▁mitsu	-13.291
▁sağlamlaştır	-13.2911
▁takma	-13.2911
▁short	-13.2911
jone	-13.2912
▁seyrü	-13.2913
▁lands	-13.2914
▁kapatil	-13.2914
▁cellu	-13.2914
hut	-13.2914
▁netleşme	-13.2915
▁638	-13.2915
▁yilinda	-13.2915
▁finch	-13.2916
▁682	-13.2916
owitz	-13.2916
▁yerkabuğ	-13.2916
▁sw	-13.2917
terrane	-13.2917
▁olmalarin	-13.2919
▁khos	-13.2919
▁studi	-13.2919
▁kaçırılma	-13.292
▁öztor	-13.292
culari	-13.2921
▁hoffman	-13.2921
▁fift	-13.2922
▁abdüsse	-13.2922
▁kaldirma	-13.2922
▁endişelen	-13.2924
works	-13.2924
▁mahvet	-13.2925
▁kurabil	-13.2925
▁fiso	-13.2927
▁823	-13.2927
▁başyargı	-13.2928
von	-13.2929
▁touch	-13.2929
▁617	-13.293
▁yerelnet	-13.293
▁gozu	-13.2931
düssel	-13.2932
▁kalkındır	-13.2932
▁edildig	-13.2933
▁put	-13.2934
▁celeb	-13.2934
▁kıkırdağ	-13.2934
▁france	-13.2936
▁philipp	-13.2939
▁826	-13.294
thul	-13.2941
▁infial	-13.2942
ıtım	-13.2944
▁taray	-13.2944
▁kıranş	-13.2945
▁manny	-13.2946
▁spid	-13.2946
▁hipo	-13.2946
erhun	-13.2946
▁dyh	-13.2947
▁yapacagi	-13.2948
▁çölaş	-13.295
▁jasm	-13.295
▁uçurulma	-13.2952
yannis	-13.2953
▁baskani	-13.2954
▁malkoçoğ	-13.2954
nst	-13.2956
▁gelmeyen	-13.2957
▁bulunabil	-13.2958
▁4500	-13.2958
▁munic	-13.296
▁oru	-13.296
▁aidiy	-13.2961
shih	-13.2962
▁walk	-13.2962
▁sezgi	-13.2963
▁ornek	-13.2965
pdk	-13.2966
▁hayden	-13.2967
emo	-13.2968
rling	-13.2968
▁zsch	-13.2968
▁keşfedilme	-13.2968
▁hami	-13.297
▁athl	-13.2971
▁multimed	-13.2972
▁katlediliş	-13.2975
▁saçmal	-13.2976
▁çarç	-13.2976
▁siktir	-13.298
tırırke	-13.298
▁banks	-13.298
▁şühe	-13.2981
tırılırke	-13.2982
▁arındır	-13.2984
▁ihtilal	-13.2985
▁carra	-13.2985
▁eğitici	-13.2986
▁mçb	-13.2986
▁clement	-13.2987
avig	-13.2988
esk	-13.2989
▁297	-13.299
▁magnu	-13.299
▁gabb	-13.2991
▁bosanma	-13.2993
▁miço	-13.2996
▁muhatab	-13.2997
yy	-13.2998
▁zimme	-13.2998
▁goril	-13.2999
▁ısabel	-13.3
▁sprint	-13.3
▁garden	-13.3
▁öldüren	-13.3002
ioksidan	-13.3003
▁nişanlı	-13.3004
ıtter	-13.3006
▁sakatla	-13.3008
▁mühim	-13.3009
▁yolladi	-13.3009
▁kurcala	-13.3009
▁orneg	-13.3012
▁mürett	-13.3013
urkish	-13.3017
▁264	-13.3017
▁spike	-13.302
▁hacklen	-13.3022
▁begen	-13.3023
▁molda	-13.3024
▁ayarlama	-13.3024
▁tvf	-13.3026
▁sarmala	-13.3029
▁arttır	-13.303
▁nab	-13.303
ibert	-13.303
▁beşikt	-13.3032
▁ahval	-13.3034
▁bagir	-13.3034
▁ataşe	-13.3035
▁gömle	-13.3037
▁sıvıyağ	-13.3037
had	-13.3039
▁slo	-13.304
▁olsayd	-13.3041
fly	-13.3041
blet	-13.3041
imes	-13.3043
▁maka	-13.3043
rpg	-13.3043
▁basli	-13.3045
▁206	-13.3045
üros	-13.3048
▁imsak	-13.3048
▁network	-13.3048
▁tecvi	-13.3048
▁ayvaz	-13.3051
ouch	-13.3052
kola	-13.3054
▁apa	-13.3057
alay	-13.3057
▁çakıl	-13.3058
▁adenozin	-13.3058
ght	-13.3059
▁zulf	-13.3059
auf	-13.306
▁ezile	-13.3061
▁cruz	-13.3063
▁cikardi	-13.3067
▁artemis	-13.3068
isko	-13.307
▁metod	-13.3072
▁selül	-13.3074
▁singleı	-13.3075
▁otanti	-13.3079
▁superd	-13.308
▁urunler	-13.3082
▁kizlar	-13.3082
▁blog	-13.3082
▁musi	-13.3085
▁armut	-13.3086
▁metall	-13.3087
hidroks	-13.3088
▁had	-13.309
▁rebek	-13.309
▁medit	-13.3092
ldız	-13.3093
▁şükred	-13.3093
yığı	-13.3094
▁sandra	-13.3098
▁jena	-13.31
▁revi	-13.3102
959	-13.3105
▁gülte	-13.3108
zula	-13.3108
ıoğ	-13.311
oluna	-13.3111
▁kestir	-13.3112
▁dahiye	-13.3112
şeker	-13.3113
▁şur	-13.3113
adri	-13.3119
▁misa	-13.312
▁şımart	-13.3121
▁nasyonal	-13.3123
▁sıklaştır	-13.3126
▁pari	-13.3126
▁sindiril	-13.3127
fman	-13.3127
ustar	-13.3127
▁348	-13.3128
▁deg	-13.313
▁abdur	-13.3131
analı	-13.3133
pil	-13.3133
▁medus	-13.3135
▁meşrulaş	-13.3136
▁piazz	-13.3137
komuta	-13.3139
▁öpüş	-13.3143
▁hawa	-13.3146
▁giant	-13.3146
▁ortalaması	-13.315
ube	-13.3151
tahri	-13.3154
▁bakla	-13.3155
▁gazla	-13.3158
▁nef	-13.3158
gy	-13.3158
nerji	-13.316
got	-13.316
▁şakalaş	-13.316
ımsı	-13.3164
▁vaktin	-13.3166
guar	-13.3169
outh	-13.3169
▁som	-13.3172
▁univer	-13.3172
zov	-13.3176
▁840	-13.3176
▁fırça	-13.3177
▁kango	-13.3178
perve	-13.3178
▁şecer	-13.3178
yeceg	-13.318
▁wo	-13.3182
▁ann	-13.3184
▁halledil	-13.3185
▁gerektig	-13.3187
kta	-13.3187
▁koreograf	-13.3189
▁judge	-13.319
lyco	-13.3191
▁loka	-13.3191
▁alone	-13.3193
nami	-13.3193
yaş	-13.3195
▁sabred	-13.3197
entian	-13.3199
▁kavuştur	-13.3201
▁damıtıl	-13.3202
▁morr	-13.3204
yril	-13.321
▁gökçea	-13.3211
sül	-13.3213
▁uğurl	-13.3214
▁844	-13.3215
ayak	-13.3215
stars	-13.3221
▁beklentisi	-13.3225
rket	-13.3226
klen	-13.3226
shch	-13.3231
▁rott	-13.3235
▁bry	-13.3238
▁demirören	-13.3241
▁peres	-13.3241
▁tanıtlan	-13.3243
▁pom	-13.3245
rfi	-13.3245
▁seb	-13.3246
shak	-13.3249
kışık	-13.3249
kemiğ	-13.325
burga	-13.3251
▁zhen	-13.3254
▁rab	-13.3255
▁magde	-13.3255
▁biliyo	-13.3257
pag	-13.326
ipe	-13.3262
kıran	-13.3262
▁ayarlanma	-13.3262
▁tasarl	-13.3266
▁ihtiya	-13.3266
▁was	-13.3266
sc	-13.3267
hov	-13.3275
▁como	-13.3275
▁habi	-13.3281
▁trip	-13.3282
▁fütu	-13.3283
▁sökülme	-13.3285
▁irdele	-13.3285
▁fayzo	-13.3286
alaban	-13.3286
ods	-13.3287
rjinal	-13.3289
omic	-13.3289
tropik	-13.3291
▁toba	-13.3292
▁semboldü	-13.3294
▁fried	-13.3297
▁psikiyatr	-13.3298
antepspor	-13.3299
▁havla	-13.3301
▁eğitme	-13.3304
apı	-13.3305
▁yeten	-13.3306
beyle	-13.3307
▁ikitelli	-13.3314
ombala	-13.3315
sonra	-13.3315
▁428	-13.3316
▁sunul	-13.3321
yik	-13.3321
play	-13.3325
view	-13.3327
▁zube	-13.333
▁musluman	-13.3332
arata	-13.3334
dican	-13.3339
▁johns	-13.3339
▁amb	-13.3341
▁yönlendiri	-13.3343
iva	-13.3344
rsal	-13.3346
antin	-13.3352
▁inceba	-13.3353
▁oha	-13.3359
lantı	-13.336
▁haked	-13.336
▁sünn	-13.3361
plan	-13.3365
ulu	-13.3375
▁mcgra	-13.3378
▁hah	-13.3378
▁acısı	-13.3382
help	-13.3384
yana	-13.3384
▁vaadin	-13.339
▁mumk	-13.3393
rhout	-13.3396
▁sezar	-13.3398
ged	-13.3401
▁ergez	-13.3401
▁yunt	-13.3402
▁aktarır	-13.3408
▁toplu	-13.3408
▁ağaçlandırıl	-13.3414
cks	-13.3415
▁kotu	-13.3415
▁thatcherı	-13.3416
▁gallia	-13.3417
▁ameli	-13.342
dye	-13.3427
▁old	-13.3428
rspor	-13.3431
▁ödeyen	-13.3434
▁sena	-13.3436
frik	-13.3445
▁emsal	-13.345
▁william	-13.3452
▁kurtarabil	-13.3453
iğe	-13.3457
erkez	-13.346
▁cunt	-13.3463
rbiy	-13.3464
▁mühürlen	-13.3466
▁ertelet	-13.3467
sah	-13.3468
zak	-13.3471
mander	-13.3472
ijin	-13.3472
▁kırı	-13.3473
▁özsu	-13.3473
anıklı	-13.3475
▁colan	-13.3476
▁ecb	-13.3478
done	-13.348
▁hacıo	-13.348
▁suph	-13.3481
gro	-13.3482
punk	-13.3484
tbv	-13.3486
▁serink	-13.3488
guy	-13.3488
▁avram	-13.3491
▁niyeti	-13.3493
ardı	-13.3496
▁yapti	-13.3497
▁comm	-13.3501
▁akse	-13.3502
arit	-13.3503
istig	-13.3506
▁caber	-13.3512
▁başkaldır	-13.3516
ayede	-13.3516
▁ritz	-13.3521
lg	-13.3523
nteres	-13.3525
wer	-13.3526
ülke	-13.3526
laaaa	-13.3528
▁sancağ	-13.3542
▁firsatci	-13.3542
bant	-13.3543
king	-13.3543
02	-13.3546
▁arşivle	-13.3555
kke	-13.3555
▁yoz	-13.3559
▁buyu	-13.3562
boş	-13.3564
ndra	-13.3564
▁fitne	-13.3567
▁whi	-13.3571
zio	-13.3572
▁öksürü	-13.3573
ward	-13.3574
▁maksad	-13.3574
nkov	-13.3578
▁dinl	-13.3578
dman	-13.3588
▁esca	-13.359
▁soyledi	-13.3591
▁marcell	-13.3592
lıkları	-13.3592
wyn	-13.3592
▁yazil	-13.3593
euge	-13.3593
▁santralin	-13.3595
▁aj	-13.3598
▁karata	-13.3599
▁yener	-13.36
▁cesar	-13.3602
ati	-13.3604
▁rastlan	-13.3606
▁bası	-13.3607
▁zahire	-13.3609
▁döner	-13.3615
orlu	-13.3618
▁pit	-13.3619
▁tertib	-13.3621
▁panag	-13.3627
▁bloğ	-13.3628
vio	-13.3632
▁benimseme	-13.3634
▁reç	-13.3635
vaş	-13.3643
swar	-13.3645
▁dayana	-13.3646
▁pira	-13.3649
▁karakteri	-13.3653
▁pos	-13.3653
▁got	-13.3654
▁vit	-13.3654
▁santr	-13.3656
▁melik	-13.3657
▁kullanı	-13.3659
▁yagm	-13.3659
▁ılım	-13.3663
▁biyo	-13.3663
rten	-13.3667
▁içsel	-13.3675
gri	-13.3678
▁tib	-13.3681
▁636	-13.3687
operat	-13.3687
▁fıtr	-13.3694
▁devel	-13.3695
çet	-13.3696
ces	-13.37
etkilenme	-13.37
nmasi	-13.3706
▁umur	-13.3707
terim	-13.3709
▁temin	-13.3711
▁claudi	-13.3712
hop	-13.3713
ebat	-13.3715
mec	-13.3717
güzel	-13.372
osaur	-13.3721
▁anatol	-13.3721
cc	-13.3723
unç	-13.3723
safi	-13.3724
▁ınstag	-13.3724
▁fırl	-13.3726
▁grant	-13.3728
▁silahları	-13.3728
▁acima	-13.3728
▁boyat	-13.3734
zyn	-13.3736
spat	-13.3738
gelişmiş	-13.374
▁cevir	-13.3743
▁uçurma	-13.3746
▁mori	-13.375
çağ	-13.375
▁semi	-13.3755
▁moment	-13.3758
▁şuay	-13.3761
eldid	-13.3763
▁outl	-13.3768
▁tenc	-13.377
mıyo	-13.3771
▁zer	-13.3773
▁com	-13.3773
▁cikis	-13.3773
▁yala	-13.3776
yıld	-13.3778
uşak	-13.378
rü	-13.3785
dürülme	-13.3785
▁edil	-13.3786
otis	-13.3788
▁theat	-13.3788
▁yağdığ	-13.3791
▁frie	-13.3793
push	-13.3793
▁bugun	-13.3798
▁bırı	-13.3805
ulaş	-13.3806
▁farketme	-13.3807
▁mat	-13.3807
bbe	-13.3822
▁alka	-13.3822
oke	-13.3823
▁haşimoğ	-13.3825
▁kose	-13.3828
sting	-13.383
▁kümel	-13.3832
ptik	-13.3833
▁yeşer	-13.3835
▁yanl	-13.3841
▁spie	-13.3841
▁krist	-13.3845
▁örgütle	-13.3851
kşe	-13.3851
onto	-13.3853
ogo	-13.3857
▁dalya	-13.3861
▁hisar	-13.3863
▁tekni	-13.3872
▁reddeder	-13.3873
cog	-13.3873
▁taksitlendir	-13.3873
▁havuzbaş	-13.3879
▁normalleştir	-13.3881
pto	-13.3881
ihan	-13.3885
sarı	-13.3896
kıt	-13.39
▁asabi	-13.39
mv	-13.3906
▁maze	-13.3908
siy	-13.3911
▁talim	-13.3914
▁cezi	-13.3916
▁israf	-13.3917
saruhan	-13.3918
▁mind	-13.3918
▁palu	-13.3921
ecan	-13.393
tk	-13.393
ralp	-13.3932
▁inova	-13.3937
çeci	-13.3941
özalt	-13.3942
armani	-13.3945
övme	-13.3948
▁vaha	-13.3951
▁gord	-13.3954
derle	-13.3958
▁postala	-13.3959
▁zir	-13.3959
eyke	-13.3964
▁alır	-13.3966
hakar	-13.3972
bya	-13.3977
teknik	-13.3982
vlana	-13.3987
fobi	-13.399
here	-13.3992
zing	-13.3996
▁con	-13.4003
rp	-13.4003
hn	-13.4004
▁sekte	-13.4004
▁yesil	-13.401
▁kılı	-13.4012
▁oynat	-13.4013
▁yoklug	-13.4013
▁mene	-13.4015
▁pel	-13.4021
obo	-13.4029
▁yalı	-13.4031
liga	-13.4032
asan	-13.4035
sasale	-13.404
▁modernleştir	-13.4048
dük	-13.4051
rmen	-13.4052
lırke	-13.4053
▁caz	-13.4055
▁lov	-13.4055
kçe	-13.406
phy	-13.406
spi	-13.4062
▁sunsh	-13.4069
▁okka	-13.407
tation	-13.4077
▁istey	-13.408
duru	-13.4081
eko	-13.4084
mpo	-13.4084
elebi	-13.4087
list	-13.4088
▁yazış	-13.4089
sefal	-13.4092
vec	-13.4093
▁bulunma	-13.4103
▁korel	-13.4104
▁sinek	-13.4105
▁devri	-13.4109
▁empo	-13.4111
▁mendi	-13.4111
dans	-13.4113
yetis	-13.4117
lite	-13.412
▁takri	-13.4123
▁ığ	-13.4125
▁kıt	-13.4125
▁cikar	-13.4127
lly	-13.4129
▁mental	-13.4132
inti	-13.4132
olo	-13.4132
▁şal	-13.4132
enek	-13.4133
▁çang	-13.4134
▁flora	-13.4139
▁luci	-13.4141
▁standartlari	-13.4141
▁geçmes	-13.4145
▁amira	-13.4152
onid	-13.4153
▁yankıla	-13.4155
kali	-13.4157
▁incelt	-13.4158
▁süleymani	-13.416
▁eklem	-13.416
bile	-13.4163
408	-13.4169
▁inat	-13.4171
▁aby	-13.4173
▁corne	-13.4174
iran	-13.4178
▁out	-13.4182
çov	-13.4184
▁valde	-13.4189
zac	-13.419
▁bateri	-13.4191
iba	-13.4194
▁tüketen	-13.4198
▁medi	-13.42
hall	-13.4213
ardeş	-13.4223
ravit	-13.4231
▁fabi	-13.4239
▁seyahatin	-13.4241
▁pent	-13.4247
▁lago	-13.4251
▁cell	-13.4252
▁grafi	-13.4253
att	-13.4254
▁goru	-13.4254
▁finance	-13.4259
563	-13.4262
uchs	-13.427
▁tekrarl	-13.4271
bacan	-13.4274
lanması	-13.4275
▁bb	-13.4277
mas	-13.4279
anah	-13.4279
▁kısaltı	-13.4281
▁libert	-13.4282
▁karş	-13.4287
▁iht	-13.4293
ashe	-13.4294
üre	-13.4295
eau	-13.4297
agne	-13.4297
▁kaun	-13.4302
kırı	-13.4308
▁wild	-13.4309
yanık	-13.4312
▁vah	-13.4313
hra	-13.4314
bölge	-13.4315
esign	-13.4315
▁kaybede	-13.4321
▁collis	-13.4326
▁beym	-13.4328
▁trum	-13.4332
mehmet	-13.4335
mily	-13.4337
▁sinirli	-13.4342
medig	-13.4346
▁cebe	-13.4346
ksim	-13.4349
▁somutlaş	-13.4356
▁zamanaş	-13.4356
duy	-13.4363
▁pra	-13.4365
oc	-13.4369
▁abbasi	-13.4369
▁cikari	-13.4369
lfa	-13.4372
açlandır	-13.4372
▁öztun	-13.4374
▁lincolnü	-13.4375
▁çıkarıla	-13.4381
▁gözlemle	-13.4382
▁kırılı	-13.4383
▁291	-13.4388
lit	-13.4394
sto	-13.4398
hramanmaraş	-13.4405
line	-13.4405
▁safa	-13.441
▁master	-13.4419
▁başp	-13.442
ecde	-13.4424
geld	-13.4425
▁çarptırılma	-13.4425
gevel	-13.4428
▁batti	-13.443
▁salah	-13.4433
mbay	-13.4435
mpon	-13.4438
ble	-13.4439
stiş	-13.444
hkp	-13.4445
▁ıstı	-13.4446
ron	-13.445
ahya	-13.4453
elde	-13.4455
59	-13.4455
dilek	-13.446
346	-13.4466
▁nüfu	-13.4469
▁ibr	-13.4474
▁anlatma	-13.4484
atkı	-13.4486
▁616	-13.4491
▁donu	-13.4492
heid	-13.4496
mpson	-13.4496
▁now	-13.4499
▁yonet	-13.45
imberl	-13.4502
▁ers	-13.4502
▁kurşunlan	-13.451
yatıl	-13.451
saki	-13.451
öv	-13.451
▁pirin	-13.4522
kım	-13.4524
▁muttali	-13.4524
▁korg	-13.4526
▁afrin	-13.4526
ese	-13.4527
moz	-13.453
737	-13.4538
▁thu	-13.454
hazır	-13.4542
▁şahan	-13.4543
amped	-13.4552
▁kirlen	-13.4554
evher	-13.4555
▁bağlan	-13.4555
akaret	-13.4557
guna	-13.4557
▁telefer	-13.4559
▁kuç	-13.4559
aybin	-13.4559
▁katran	-13.456
▁mavişeh	-13.4561
▁bata	-13.4562
süre	-13.4563
ei	-13.4565
▁saw	-13.4567
▁cobr	-13.4575
704	-13.4579
yus	-13.4588
hayı	-13.4591
232	-13.4593
ioğ	-13.4593
▁lava	-13.4595
▁mamur	-13.4597
onic	-13.46
▁yoruml	-13.46
fore	-13.4602
▁kemir	-13.4603
rrier	-13.4606
rüştü	-13.4609
ament	-13.4609
421	-13.4612
merkezi	-13.4619
▁geb	-13.4625
▁gui	-13.4627
inton	-13.4631
ahip	-13.4632
kızı	-13.4633
▁sems	-13.4639
çü	-13.464
▁esme	-13.4641
esto	-13.4641
ırılabil	-13.4641
▁ıs	-13.4642
masi	-13.4655
▁etmis	-13.4656
▁bard	-13.4657
▁sy	-13.466
tsev	-13.4661
vallah	-13.4661
▁mers	-13.4664
nzim	-13.4667
▁izol	-13.4668
▁yerleştiril	-13.4679
ulus	-13.4686
tab	-13.4686
atağ	-13.4691
peri	-13.4692
sabet	-13.4694
akla	-13.4694
amat	-13.4696
nif	-13.4697
▁fury	-13.4698
▁napa	-13.4703
arl	-13.4704
▁usuller	-13.4713
yim	-13.4719
ıstık	-13.472
esiye	-13.4722
acı	-13.4724
▁roberts	-13.4732
aslan	-13.4736
▁shu	-13.4741
▁linn	-13.475
evik	-13.4753
▁odes	-13.4755
▁ucuzla	-13.4757
▁fani	-13.4762
omos	-13.4764
▁yüzdür	-13.4768
▁485	-13.477
▁kr	-13.4777
hael	-13.4779
sul	-13.478
▁sehr	-13.4786
arışın	-13.4792
▁thr	-13.4794
aset	-13.4801
ont	-13.4802
▁hand	-13.4802
eth	-13.4807
▁istika	-13.4811
▁schn	-13.4812
vuk	-13.4814
▁mao	-13.4819
▁perr	-13.482
özel	-13.4829
▁ass	-13.483
lino	-13.4831
dinami	-13.4832
tage	-13.4832
▁kristaller	-13.4839
▁legal	-13.4842
öm	-13.4843
ayrım	-13.4849
▁balga	-13.4855
▁ista	-13.486
elç	-13.4862
iralama	-13.4863
uzul	-13.4863
▁kopar	-13.4865
639	-13.4873
muk	-13.4882
rosta	-13.4884
▁feyza	-13.4887
523	-13.4911
ales	-13.4917
▁direğ	-13.492
▁oca	-13.4921
ükte	-13.4924
tf	-13.4928
▁emme	-13.4929
▁genelle	-13.493
▁akd	-13.4934
stop	-13.4935
▁güm	-13.4936
ngton	-13.4936
ildig	-13.4937
amil	-13.4941
▁savaştığ	-13.4941
vos	-13.4941
▁erbak	-13.4945
▁panikle	-13.4947
düş	-13.4954
▁akpm	-13.4961
▁ıts	-13.4964
▁nezi	-13.4965
▁koron	-13.4965
▁bişi	-13.4968
▁türb	-13.4968
ys	-13.4969
pone	-13.4978
weg	-13.4983
kere	-13.4987
ashin	-13.4995
▁cemaatler	-13.5001
▁lisan	-13.5007
▁düsü	-13.5008
şken	-13.5009
ilet	-13.5011
▁tezh	-13.5012
ovie	-13.5013
yuş	-13.5015
▁sunabil	-13.5016
yecek	-13.5019
▁acent	-13.5021
▁yillari	-13.5024
rdiv	-13.5025
rın	-13.5025
▁metr	-13.5027
▁ınterp	-13.5027
kof	-13.5028
dona	-13.5029
vran	-13.5039
▁vaci	-13.5041
▁tö	-13.5045
▁çürüt	-13.5048
ktir	-13.5049
▁mensu	-13.5049
çiçe	-13.505
elele	-13.5052
▁taba	-13.5056
▁fri	-13.5057
▁ilmi	-13.506
beyaz	-13.5064
terapi	-13.5071
hana	-13.5073
▁hid	-13.5079
opa	-13.5079
▁ahh	-13.5082
ilari	-13.5094
ckerlar	-13.5097
3650	-13.5101
▁muhaber	-13.5101
fiz	-13.5101
irlin	-13.5105
▁deldir	-13.5106
▁cast	-13.5113
orve	-13.5117
▁harris	-13.5119
alyan	-13.5124
sına	-13.513
şin	-13.5133
▁sant	-13.5136
▁bozo	-13.5138
pla	-13.5144
▁interf	-13.5152
ysa	-13.5154
▁vor	-13.5157
lil	-13.5159
▁bişe	-13.5163
▁yetişebil	-13.5165
▁küreselleş	-13.5167
▁gua	-13.5178
nken	-13.5181
▁özgün	-13.5183
keçe	-13.5184
▁meng	-13.5195
sterda	-13.5198
▁ces	-13.5199
▁dagil	-13.5204
▁böbr	-13.5206
307	-13.5207
▁charlesı	-13.5212
▁coven	-13.5222
▁veh	-13.5223
▁cav	-13.5225
▁iştirakler	-13.5226
▁tsky	-13.5231
atoloji	-13.5232
▁fina	-13.5234
▁kazanı	-13.5238
scri	-13.5247
▁yaşan	-13.5252
mun	-13.5254
▁field	-13.5254
▁komer	-13.5264
ütü	-13.5268
obs	-13.5275
▁489	-13.5276
▁ry	-13.5277
kesi	-13.5284
çil	-13.5293
mfd	-13.5294
▁hasa	-13.5297
▁başlatıl	-13.5299
lent	-13.5302
yra	-13.5302
▁kell	-13.5303
▁jun	-13.5305
bes	-13.5306
▁762	-13.5307
▁ert	-13.5308
anga	-13.5314
▁dolayi	-13.5316
373	-13.5319
eşitlen	-13.5319
bih	-13.5321
▁kire	-13.533
▁kampu	-13.5335
▁kaplumbağalar	-13.5336
önem	-13.5342
▁kundu	-13.5343
▁grav	-13.5344
olom	-13.5348
▁eki	-13.5353
▁berl	-13.5355
▁kili	-13.5361
hset	-13.5362
sir	-13.5363
col	-13.5363
▁652	-13.537
lav	-13.537
okum	-13.5372
ait	-13.5373
cim	-13.5373
tça	-13.5375
sembu	-13.5376
rth	-13.5378
▁gözetil	-13.5385
tevaz	-13.5386
dedi	-13.5393
vard	-13.5398
▁iett	-13.5398
▁müteahhid	-13.5407
▁itiş	-13.541
anna	-13.5414
▁kof	-13.542
büh	-13.542
nış	-13.5424
ravi	-13.5426
stron	-13.5428
▁gülse	-13.543
ttir	-13.5433
göster	-13.5434
▁wh	-13.5434
▁görüşü	-13.544
eyt	-13.5444
efeld	-13.5444
emum	-13.5446
rland	-13.5452
magel	-13.5456
hasta	-13.5457
▁tey	-13.5459
nimet	-13.546
deta	-13.5468
▁çeşid	-13.5469
askon	-13.5472
▁görevli	-13.5472
bayram	-13.5488
bire	-13.5489
çlü	-13.549
pen	-13.549
▁nebi	-13.5492
yini	-13.5493
▁165	-13.5495
▁chen	-13.5497
hamit	-13.5498
niş	-13.5508
elman	-13.551
insan	-13.551
▁alf	-13.5511
hari	-13.5514
▁bright	-13.5519
mün	-13.5522
▁dama	-13.553
▁varya	-13.5551
ütle	-13.556
▁istemi	-13.5561
▁sonuçlandır	-13.5575
iga	-13.5577
▁carr	-13.5579
akl	-13.5582
mz	-13.5585
▁dayanı	-13.5586
ubert	-13.5588
fili	-13.5588
odak	-13.5591
▁osmanli	-13.5592
▁aktarıl	-13.56
yıldız	-13.56
▁salağ	-13.5605
kalp	-13.5611
cor	-13.5612
▁giris	-13.5615
▁sirket	-13.5615
panca	-13.562
stle	-13.5623
arp	-13.5623
enja	-13.5625
yaşa	-13.5628
▁kho	-13.5628
▁bağı	-13.5642
buğ	-13.5646
beğ	-13.5647
mbro	-13.5653
592	-13.566
▁yalanlan	-13.566
ionio	-13.5661
tego	-13.5661
eym	-13.5663
afta	-13.5664
pek	-13.5668
elli	-13.5671
▁sent	-13.5671
acagi	-13.5675
kadın	-13.5677
▁yanıtl	-13.5678
▁karis	-13.5679
▁şubesi	-13.5687
die	-13.5694
lvar	-13.5698
▁üniver	-13.5698
▁hams	-13.5705
kett	-13.5715
▁sebahat	-13.5716
hnam	-13.5728
▁termin	-13.5729
rity	-13.573
▁rebe	-13.5733
ndir	-13.5735
▁ster	-13.5735
▁hoşg	-13.5742
letme	-13.5747
abı	-13.5753
▁cani	-13.5756
ngi	-13.5758
lerk	-13.5761
ther	-13.5766
ault	-13.5767
295	-13.5768
▁chet	-13.577
▁ideali	-13.5772
▁mob	-13.5772
▁gidebil	-13.5773
▁alia	-13.5777
ilmasi	-13.5785
▁küçükba	-13.5791
oç	-13.5791
▁kalsay	-13.5797
tani	-13.5799
▁579	-13.5802
382	-13.5804
▁sigma	-13.5809
▁katei	-13.5812
piy	-13.5819
▁iske	-13.5826
cel	-13.5828
long	-13.5838
coğrafy	-13.584
▁bayii	-13.5842
leyh	-13.5844
güp	-13.5847
fk	-13.5848
▁incin	-13.585
oms	-13.5855
doks	-13.5857
temi	-13.5861
safa	-13.5863
berk	-13.5869
▁affede	-13.587
▁paso	-13.5874
ukhe	-13.5877
▁range	-13.5879
▁447	-13.5888
▁lucie	-13.5894
▁gururlan	-13.5911
▁farkı	-13.5926
▁469	-13.5926
▁kocasi	-13.5926
yoterapi	-13.5939
pulos	-13.5939
brit	-13.5942
buster	-13.5945
▁olmas	-13.5946
▁karsila	-13.595
▁umr	-13.5957
▁rig	-13.5961
▁doğr	-13.5961
▁manson	-13.5964
▁633	-13.5966
▁uçuru	-13.5966
▁özbak	-13.5969
▁basin	-13.5975
▁vuru	-13.5984
avo	-13.5987
yeşil	-13.5987
▁hidd	-13.5992
jelen	-13.5996
tler	-13.6
noch	-13.6003
▁vaad	-13.6007
▁üslu	-13.6015
▁eksil	-13.6021
▁üçer	-13.6025
sefer	-13.6033
sela	-13.6034
liva	-13.6034
▁püf	-13.6038
avun	-13.6042
ural	-13.6042
▁vı	-13.6053
nus	-13.6056
guti	-13.6062
▁testi	-13.6066
astopo	-13.6068
ragon	-13.607
▁ramo	-13.6075
▁durumda	-13.6076
cann	-13.6076
▁imda	-13.6077
örü	-13.608
▁kost	-13.6084
mmer	-13.6088
zl	-13.6088
▁wil	-13.6089
forge	-13.6091
afaka	-13.6096
212	-13.6101
▁mun	-13.6101
▁batık	-13.6108
dığı	-13.6114
ista	-13.6118
rıça	-13.6118
ative	-13.6123
▁başmü	-13.6128
▁ziy	-13.613
▁calis	-13.6132
garo	-13.6134
▁şil	-13.6135
▁fok	-13.6139
▁öğr	-13.614
▁müfe	-13.6144
080	-13.6145
▁yuru	-13.6146
▁632	-13.6152
fest	-13.6158
alf	-13.6159
▁kuyrukluyıldızı	-13.6164
▁713	-13.6167
amur	-13.617
bız	-13.6173
huk	-13.6178
▁moro	-13.618
abağ	-13.6194
▁töreni	-13.6205
▁yalçınka	-13.6206
icaz	-13.621
▁cad	-13.6214
▁micha	-13.6228
oyal	-13.6244
erm	-13.6247
arkoz	-13.6249
▁oste	-13.625
▁nadi	-13.6251
akış	-13.6252
▁tatmink	-13.6261
▁tipo	-13.6268
ehi	-13.6268
▁hö	-13.6271
alak	-13.6272
▁right	-13.6273
konje	-13.6274
▁üşü	-13.6283
▁babayiği	-13.6295
bro	-13.6297
öfle	-13.63
▁mutem	-13.6301
▁anıl	-13.6306
▁desti	-13.6308
oper	-13.6312
▁hace	-13.6318
chav	-13.6318
tarih	-13.6321
ikat	-13.6324
▁dışlan	-13.6326
henk	-13.6329
siyah	-13.6331
▁bulus	-13.6333
etih	-13.6333
▁zahi	-13.6333
▁ras	-13.6334
▁çıkarma	-13.6335
ener	-13.6337
kk	-13.6344
adim	-13.6344
▁zabk	-13.6348
▁kutup	-13.6349
▁ense	-13.6349
efs	-13.6351
▁opr	-13.6352
▁unit	-13.6356
▁billi	-13.6362
mağ	-13.6366
▁dilen	-13.6371
iss	-13.6371
▁yorg	-13.6372
lf	-13.6373
▁dell	-13.6376
▁sskd	-13.638
olanı	-13.6385
ikan	-13.6385
harca	-13.6389
▁cou	-13.6391
mou	-13.6395
ulvi	-13.6399
milyon	-13.64
▁hek	-13.6404
ümbü	-13.6406
liy	-13.6411
▁gökç	-13.6415
ısı	-13.6417
234	-13.6417
▁erci	-13.6423
ordon	-13.6425
▁dey	-13.6427
▁kac	-13.6427
vante	-13.6428
sol	-13.643
▁korn	-13.6439
fal	-13.6446
çalı	-13.6446
üyo	-13.6447
gönül	-13.6448
iako	-13.6452
icap	-13.6453
▁seyf	-13.6454
554	-13.6463
▁tari	-13.6463
▁müst	-13.6466
▁hamm	-13.6467
▁kıvra	-13.647
▁sava	-13.6471
▁yeşilça	-13.6482
▁saruh	-13.6484
▁içind	-13.6488
▁hosp	-13.649
oga	-13.6491
▁harbo	-13.6494
▁159	-13.6495
▁fpd	-13.6495
able	-13.6501
▁sosyalleş	-13.6507
▁susa	-13.6511
lie	-13.6512
8829	-13.6519
dep	-13.6521
anda	-13.6526
▁faso	-13.6529
▁gos	-13.6533
▁ihlalin	-13.6535
▁tekelleş	-13.6538
apa	-13.6539
▁listele	-13.6541
▁boyun	-13.6552
değe	-13.6555
▁piy	-13.6557
mail	-13.6559
best	-13.6559
dergi	-13.6562
▁ıso	-13.6569
▁dez	-13.6572
ldırım	-13.6585
▁demi	-13.6591
ipin	-13.6591
üoğ	-13.6597
aaf	-13.6599
lasyon	-13.66
▁sarıl	-13.6606
2006	-13.6608
şad	-13.6614
odik	-13.6614
allo	-13.6615
▁diy	-13.6622
site	-13.663
▁sirk	-13.6631
kamış	-13.6634
zmet	-13.6636
nsu	-13.6637
▁yakı	-13.6645
au	-13.6649
uche	-13.6654
▁demirk	-13.6654
▁fund	-13.6655
▁hell	-13.6656
▁gecti	-13.6656
ahir	-13.6657
stantin	-13.6661
cin	-13.6664
russel	-13.6664
nnem	-13.6665
idd	-13.6667
▁tanr	-13.6669
▁ayıb	-13.6677
burn	-13.6677
afad	-13.668
nei	-13.6681
reu	-13.6683
▁boral	-13.6687
pson	-13.6689
siness	-13.6689
tr	-13.6691
▁fan	-13.6693
▁save	-13.67
▁atl	-13.6701
boğaz	-13.6703
boyut	-13.6704
tions	-13.6709
▁kıskı	-13.6713
▁peşin	-13.6713
▁bilic	-13.6713
ternatif	-13.6716
dolu	-13.6717
▁ohh	-13.6723
▁ahm	-13.6727
fin	-13.6728
▁tom	-13.6729
▁anlamin	-13.6732
opya	-13.6735
▁pran	-13.6745
etum	-13.6754
erez	-13.6758
mamis	-13.6761
inan	-13.6763
▁neo	-13.6764
rvan	-13.6769
cs	-13.6778
rocke	-13.6782
iriş	-13.6783
▁vog	-13.6784
▁653	-13.6786
cha	-13.6788
▁roo	-13.6802
▁basbak	-13.6805
▁semir	-13.6808
aca	-13.6809
ografi	-13.6811
▁fotografi	-13.6812
davut	-13.6821
ahra	-13.6822
▁batt	-13.6823
▁515	-13.6823
▁gaf	-13.6826
▁ibar	-13.6826
▁berc	-13.6833
▁vu	-13.6839
yız	-13.6846
▁aldo	-13.6849
▁mond	-13.6849
riç	-13.6857
▁balı	-13.6859
▁bitir	-13.6869
▁ufa	-13.6872
▁zahir	-13.6874
▁848	-13.6877
likd	-13.6878
rc	-13.6879
▁637	-13.6879
gary	-13.689
lyas	-13.6891
▁gig	-13.6897
gol	-13.6898
kiş	-13.6905
post	-13.691
kışla	-13.6914
▁hürm	-13.6916
▁eli	-13.6916
rahat	-13.692
malari	-13.6921
lemesin	-13.6934
▁turş	-13.694
çakmak	-13.6948
ağla	-13.6949
seyya	-13.6949
led	-13.695
ımbay	-13.6956
▁but	-13.6958
▁beau	-13.6959
uyrukluyıldızlar	-13.6966
ila	-13.6976
faka	-13.6976
alma	-13.698
frey	-13.6986
▁ayta	-13.6987
rzene	-13.6991
▁yumrukla	-13.6995
▁ief	-13.6996
▁apo	-13.6996
▁ironi	-13.7005
drom	-13.7008
çukur	-13.7011
enj	-13.7015
663	-13.702
rost	-13.7021
care	-13.7022
▁og	-13.7026
vye	-13.703
ym	-13.7033
▁onu	-13.7037
rong	-13.7039
tesis	-13.7039
bilims	-13.7049
polat	-13.705
▁ciğ	-13.7052
utin	-13.7053
▁şahlan	-13.7066
sack	-13.7068
rys	-13.707
▁volk	-13.7072
sıya	-13.7073
kse	-13.7075
fred	-13.7076
larindan	-13.7076
ttigi	-13.7077
mbaye	-13.7078
▁şad	-13.7079
eser	-13.708
andel	-13.7085
adana	-13.7091
born	-13.7094
ardem	-13.7094
alit	-13.7095
▁vega	-13.7098
sap	-13.7099
▁kubbe	-13.7102
resmi	-13.7103
▁hicr	-13.7106
örük	-13.7106
ucak	-13.7107
gali	-13.711
▁845	-13.7117
▁sitem	-13.7117
traktör	-13.7119
bodr	-13.7122
nger	-13.7128
teks	-13.7128
▁zu	-13.7131
▁misi	-13.7133
yafet	-13.7133
house	-13.7135
ingo	-13.7138
▁reg	-13.7139
german	-13.7141
saj	-13.7143
▁ampu	-13.7147
▁dement	-13.7148
tarhan	-13.716
aint	-13.7161
klı	-13.7171
brad	-13.7172
aday	-13.7174
▁eza	-13.7178
▁kayn	-13.7178
▁stoğ	-13.7179
basket	-13.7181
025	-13.7181
▁garo	-13.7189
▁eğri	-13.7189
▁beg	-13.7191
tılı	-13.7199
kabiliyet	-13.72
▁karay	-13.7217
ican	-13.7219
ariou	-13.722
manyeti	-13.7221
▁totali	-13.7222
moni	-13.7223
semi	-13.7223
balon	-13.7225
▁kokl	-13.7229
ranje	-13.723
news	-13.7232
çeşitli	-13.7232
▁zulmü	-13.7234
▁yürüy	-13.7237
senkron	-13.7239
boğa	-13.7241
▁marcel	-13.7243
nco	-13.7247
391	-13.725
▁apar	-13.7254
elmas	-13.7259
comm	-13.7265
skin	-13.7267
guven	-13.727
▁ispan	-13.7271
heart	-13.7277
oter	-13.7277
ruhi	-13.7288
▁demirka	-13.7289
246	-13.729
uve	-13.729
▁volt	-13.7291
▁uluslara	-13.7292
beck	-13.7298
▁işk	-13.7298
bez	-13.7301
tiv	-13.7307
mid	-13.7308
▁gorb	-13.7309
▁nasr	-13.7312
263	-13.7313
tizm	-13.7326
▁macc	-13.7328
▁kızılc	-13.7329
minka	-13.7332
salak	-13.7334
ebahat	-13.7335
▁besc	-13.7336
stil	-13.7339
aft	-13.7343
panik	-13.7347
▁ail	-13.7348
rasmus	-13.7349
kle	-13.7355
anlari	-13.7357
ucc	-13.7358
oğl	-13.7358
▁büyükç	-13.736
▁mamul	-13.7368
▁deneyiml	-13.7372
ratio	-13.7372
▁sözcü	-13.7379
▁esed	-13.7379
▁acem	-13.738
carp	-13.7382
lbay	-13.7385
119	-13.7387
▁sho	-13.7391
▁icer	-13.7397
devir	-13.7403
▁duma	-13.7409
▁kazandi	-13.741
sevic	-13.7411
▁azg	-13.7412
osko	-13.7413
▁kubb	-13.7414
iri	-13.7415
▁raci	-13.742
oo	-13.7421
holland	-13.7422
meşru	-13.7424
evit	-13.7429
▁kuva	-13.7429
toz	-13.7432
gibi	-13.7433
kik	-13.7436
saw	-13.7436
mod	-13.7439
mekke	-13.7442
▁dtpy	-13.745
urya	-13.7456
▁572	-13.7456
sö	-13.7465
miye	-13.7465
▁çıkartı	-13.7466
ekşi	-13.7467
▁jes	-13.7467
stov	-13.747
söğüt	-13.7475
happ	-13.7477
essa	-13.7479
orduspo	-13.748
haf	-13.7486
kıla	-13.7487
labora	-13.7492
makta	-13.7497
▁şerefl	-13.7498
stone	-13.7499
igi	-13.7508
▁yanak	-13.7511
biri	-13.7511
konuş	-13.7513
▁merk	-13.7517
tus	-13.752
▁kanyıl	-13.7524
▁yalanl	-13.7527
sib	-13.7528
▁gulu	-13.7536
kaş	-13.7536
▁729	-13.7538
broke	-13.7538
age	-13.7538
skeç	-13.754
▁mari	-13.7542
osit	-13.7546
kom	-13.7548
city	-13.7548
reç	-13.755
hun	-13.7552
verilme	-13.7552
uaz	-13.7553
▁galli	-13.7555
▁gülün	-13.7558
rta	-13.7563
fare	-13.7564
▁gökder	-13.7567
▁creat	-13.7569
▁ıv	-13.7569
▁oluştur	-13.757
▁ola	-13.7572
▁355	-13.7573
acus	-13.7579
ourne	-13.7586
etmek	-13.7588
rıza	-13.7609
582	-13.761
▁haş	-13.7612
ğıt	-13.7614
▁piro	-13.7615
ölüm	-13.7622
andon	-13.7625
▁153	-13.7626
sebat	-13.7628
magn	-13.7636
▁abb	-13.764
▁jö	-13.7651
▁manyağ	-13.7658
▁elv	-13.766
rap	-13.7664
emezk	-13.7664
ışma	-13.7665
srail	-13.7665
lebi	-13.7667
▁patl	-13.7668
▁ferah	-13.7668
▁özetl	-13.7674
üv	-13.7676
iyad	-13.7677
▁nak	-13.7677
▁enj	-13.768
spanyol	-13.7681
ngo	-13.7685
▁kemalde	-13.7686
▁sec	-13.7687
koreograf	-13.7691
andır	-13.7693
adon	-13.7696
etti	-13.7697
asina	-13.77
▁somo	-13.7701
▁kalıt	-13.7712
▁bull	-13.7712
▁kapitali	-13.7721
▁ifa	-13.7726
landırı	-13.7727
▁milit	-13.7733
flor	-13.7734
boc	-13.7735
▁teor	-13.7736
▁830	-13.774
▁anıms	-13.7748
▁çınla	-13.7748
▁satışı	-13.7751
wo	-13.7756
▁ret	-13.7758
andall	-13.7758
▁309	-13.7761
asagı	-13.7764
rnett	-13.777
fendi	-13.7771
sse	-13.7772
▁taç	-13.7775
lham	-13.7775
▁evlendi	-13.7775
zho	-13.7775
▁bunalt	-13.7776
▁kararma	-13.7778
▁publi	-13.7779
▁game	-13.7781
anish	-13.7784
▁muaz	-13.7785
iraki	-13.7792
iren	-13.7794
▁ferh	-13.7801
▁dakik	-13.7806
▁philip	-13.7809
▁arala	-13.7809
▁tonla	-13.7811
sırt	-13.7813
▁başrolü	-13.782
▁cemaatle	-13.7821
kullan	-13.7824
▁anamu	-13.7825
▁frey	-13.7825
itch	-13.7827
azir	-13.7828
▁onbin	-13.7828
ito	-13.7837
plat	-13.7837
▁diplo	-13.7839
▁244	-13.784
▁atka	-13.7841
▁karistir	-13.7842
annis	-13.7843
ever	-13.7844
baa	-13.7844
▁küçükk	-13.7851
ürülme	-13.7851
[...]
