<pad>	0
<unk>	0
<s>	0
</s>	0
<0x00>	0
<0x01>	0
<0x02>	0
<0x03>	0
<0x04>	0
<0x05>	0
<0x06>	0
<0x07>	0
<0x08>	0
<0x09>	0
<0x0A>	0
<0x0B>	0
<0x0C>	0
<0x0D>	0
<0x0E>	0
<0x0F>	0
<0x10>	0
<0x11>	0
<0x12>	0
<0x13>	0
<0x14>	0
<0x15>	0
<0x16>	0
<0x17>	0
<0x18>	0
<0x19>	0
<0x1A>	0
<0x1B>	0
<0x1C>	0
<0x1D>	0
<0x1E>	0
<0x1F>	0
<0x20>	0
<0x21>	0
<0x22>	0
<0x23>	0
<0x24>	0
<0x25>	0
<0x26>	0
<0x27>	0
<0x28>	0
<0x29>	0
<0x2A>	0
<0x2B>	0
<0x2C>	0
<0x2D>	0
<0x2E>	0
<0x2F>	0
<0x30>	0
<0x31>	0
<0x32>	0
<0x33>	0
<0x34>	0
<0x35>	0
<0x36>	0
<0x37>	0
<0x38>	0
<0x39>	0
<0x3A>	0
<0x3B>	0
<0x3C>	0
<0x3D>	0
<0x3E>	0
<0x3F>	0
<0x40>	0
<0x41>	0
<0x42>	0
<0x43>	0
<0x44>	0
<0x45>	0
<0x46>	0
<0x47>	0
<0x48>	0
<0x49>	0
<0x4A>	0
<0x4B>	0
<0x4C>	0
<0x4D>	0
<0x4E>	0
<0x4F>	0
<0x50>	0
<0x51>	0
<0x52>	0
<0x53>	0
<0x54>	0
<0x55>	0
<0x56>	0
<0x57>	0
<0x58>	0
<0x59>	0
<0x5A>	0
<0x5B>	0
<0x5C>	0
<0x5D>	0
<0x5E>	0
<0x5F>	0
<0x60>	0
<0x61>	0
<0x62>	0
<0x63>	0
<0x64>	0
<0x65>	0
<0x66>	0
<0x67>	0
<0x68>	0
<0x69>	0
<0x6A>	0
<0x6B>	0
<0x6C>	0
<0x6D>	0
<0x6E>	0
<0x6F>	0
<0x70>	0
<0x71>	0
<0x72>	0
<0x73>	0
<0x74>	0
<0x75>	0
<0x76>	0
<0x77>	0
<0x78>	0
<0x79>	0
<0x7A>	0
<0x7B>	0
<0x7C>	0
<0x7D>	0
<0x7E>	0
<0x7F>	0
<0x80>	0
<0x81>	0
<0x82>	0
<0x83>	0
<0x84>	0
<0x85>	0
<0x86>	0
<0x87>	0
<0x88>	0
<0x89>	0
<0x8A>	0
<0x8B>	0
<0x8C>	0
<0x8D>	0
<0x8E>	0
<0x8F>	0
<0x90>	0
<0x91>	0
<0x92>	0
<0x93>	0
<0x94>	0
<0x95>	0
<0x96>	0
<0x97>	0
<0x98>	0
<0x99>	0
<0x9A>	0
<0x9B>	0
<0x9C>	0
<0x9D>	0
<0x9E>	0
<0x9F>	0
<0xA0>	0
<0xA1>	0
<0xA2>	0
<0xA3>	0
<0xA4>	0
<0xA5>	0
<0xA6>	0
<0xA7>	0
<0xA8>	0
<0xA9>	0
<0xAA>	0
<0xAB>	0
<0xAC>	0
<0xAD>	0
<0xAE>	0
<0xAF>	0
<0xB0>	0
<0xB1>	0
<0xB2>	0
<0xB3>	0
<0xB4>	0
<0xB5>	0
<0xB6>	0
<0xB7>	0
<0xB8>	0
<0xB9>	0
<0xBA>	0
<0xBB>	0
<0xBC>	0
<0xBD>	0
<0xBE>	0
<0xBF>	0
<0xC0>	0
<0xC1>	0
<0xC2>	0
<0xC3>	0
<0xC4>	0
<0xC5>	0
<0xC6>	0
<0xC7>	0
<0xC8>	0
<0xC9>	0
<0xCA>	0
<0xCB>	0
<0xCC>	0
<0xCD>	0
<0xCE>	0
<0xCF>	0
<0xD0>	0
<0xD1>	0
<0xD2>	0
<0xD3>	0
<0xD4>	0
<0xD5>	0
<0xD6>	0
<0xD7>	0
<0xD8>	0
<0xD9>	0
<0xDA>	0
<0xDB>	0
<0xDC>	0
<0xDD>	0
<0xDE>	0
<0xDF>	0
<0xE0>	0
<0xE1>	0
<0xE2>	0
<0xE3>	0
<0xE4>	0
<0xE5>	0
<0xE6>	0
<0xE7>	0
<0xE8>	0
<0xE9>	0
<0xEA>	0
<0xEB>	0
<0xEC>	0
<0xED>	0
<0xEE>	0
<0xEF>	0
<0xF0>	0
<0xF1>	0
<0xF2>	0
<0xF3>	0
<0xF4>	0
<0xF5>	0
<0xF6>	0
<0xF7>	0
<0xF8>	0
<0xF9>	0
<0xFA>	0
<0xFB>	0
<0xFC>	0
<0xFD>	0
<0xFE>	0
<0xFF>	0
.	-3.19716
,	-3.33837
'	-4.15785
▁ve	-4.35866
’	-4.54835
▁bir	-4.64867
▁	-4.67618
n	-5.17913
a	-5.27999
nin	-5.3808
e	-5.41827
▁bu	-5.42304
i	-5.42525
da	-5.44106
▁de	-5.47519
de	-5.49101
in	-5.51763
▁da	-5.52539
lar	-5.57801
▁için	-5.60144
nın	-5.6305
k	-5.64931
ın	-5.66924
ler	-5.67123
▁ile	-5.74961
m	-5.79083
na	-5.85505
ya	-5.95863
▁"	-6.01253
ne	-6.02673
ları	-6.04538
leri	-6.05555
ye	-6.06787
li	-6.09428
▁olarak	-6.14285
"	-6.14588
ı	-6.15576
-	-6.1761
:	-6.17988
▁(	-6.19493
)	-6.21024
▁“	-6.21519
la	-6.22519
▁çok	-6.25662
le	-6.26323
”	-6.30283
den	-6.30465
▁olan	-6.31478
▁Bu	-6.3185
dan	-6.32025
si	-6.34056
ni	-6.35034
r	-6.35127
▁daha	-6.38986
z	-6.39927
lı	-6.40211
▁Türkiye	-6.43126
s	-6.43456
nde	-6.44145
ta	-6.44909
t	-6.49323
▁en	-6.49354
nda	-6.50464
▁ise	-6.53533
▁sonra	-6.53815
▁-	-6.55392
u	-6.59453
ların	-6.59947
lerin	-6.60064
te	-6.60511
▁gibi	-6.61524
00	-6.61821
▁kadar	-6.64511
nı	-6.65461
un	-6.66549
▁dedi	-6.67482
an	-6.70237
l	-6.7185
▁olduğunu	-6.77136
ki	-6.78557
yi	-6.79285
▁Başkanı	-6.83663
▁0080	-6.84381
▁bin	-6.84974
▁büyük	-6.85589
ma	-6.88718
sı	-6.88888
▁ilk	-6.88971
yla	-6.89486
▁yer	-6.89827
▁var	-6.89865
di	-6.90501
y	-6.91585
▁söyledi	-6.92007
?	-6.92058
▁göre	-6.92077
▁her	-6.92173
▁diye	-6.95559
▁‘	-6.96603
▁tarafından	-6.96604
larını	-6.98567
▁yıl	-6.98849
▁yeni	-6.99394
▁o	-6.99772
yı	-7.0017
nun	-7.01088
▁iki	-7.01167
lara	-7.01334
▁olduğu	-7.02272
lik	-7.02993
▁ne	-7.03061
▁etti	-7.0482
▁2	-7.04968
lere	-7.05622
yle	-7.05696
lerini	-7.06168
▁önce	-7.06588
▁3	-7.07097
d	-7.07895
▁A	-7.10039
▁son	-7.10631
▁ilgili	-7.12378
▁Türk	-7.13351
p	-7.1437
en	-7.1479
▁yüzde	-7.15348
dir	-7.15745
▁1	-7.1665
▁iyi	-7.18681
▁devam	-7.21598
▁karşı	-7.22742
▁eden	-7.22755
lık	-7.2389
daki	-7.24075
▁arasında	-7.25097
ndan	-7.26521
K	-7.26906
▁ki	-7.27303
▁yapılan	-7.27328
▁ifade	-7.27443
...	-7.27586
sa	-7.27701
▁milyon	-7.28078
▁gelen	-7.28352
er	-7.28584
▁oldu	-7.28752
▁değil	-7.2923
dır	-7.29601
larının	-7.29635
tan	-7.29752
▁ardından	-7.3042
▁yaptığı	-7.317
ca	-7.33787
o	-7.3408
deki	-7.3411
▁ama	-7.34498
▁gün	-7.35018
lu	-7.35134
▁ABD	-7.35546
;	-7.35789
me	-7.35996
A	-7.36165
▁İzmir	-7.36233
nden	-7.36363
ü	-7.36502
▁zaman	-7.36518
▁S	-7.37344
▁5	-7.37411
▁ya	-7.37627
▁önemli	-7.38396
▁içinde	-7.39113
ten	-7.4116
▁4	-7.41558
lerinin	-7.41742
h	-7.4183
▁birlikte	-7.429
▁üzerine	-7.43542
▁alan	-7.44378
▁‘‘	-7.4536
▁konuştu	-7.45964
ti	-7.46379
▁Çin	-7.46506
▁İstanbul	-7.46666
▁10	-7.4776
▁yok	-7.51455
▁tüm	-7.51707
ün	-7.51861
larına	-7.52948
▁O	-7.53215
▁bulunan	-7.54769
larda	-7.56212
▁Genel	-7.56543
se	-7.58247
ci	-7.58376
▁aynı	-7.58403
ini	-7.58555
im	-7.59389
ce	-7.60552
lerine	-7.61411
▁nedeniyle	-7.61431
f	-7.62658
▁Bir	-7.63313
▁6	-7.63322
lerde	-7.63383
S	-7.63385
▁su	-7.63493
▁saat	-7.64404
ş	-7.64435
▁geçen	-7.66206
▁yılında	-7.67717
▁diğer	-7.67877
T	-7.6832
dı	-7.68352
ir	-7.68965
▁fazla	-7.69466
▁hem	-7.6998
oğlu	-7.69997
▁şekilde	-7.70395
▁iş	-7.71095
▁kendi	-7.71263
▁ay	-7.7141
▁kişi	-7.71701
▁Belediye	-7.71953
▁tek	-7.72584
al	-7.72917
▁yapan	-7.73251
ç	-7.73482
tı	-7.75419
▁üzere	-7.76094
▁bile	-7.76351
▁19	-7.77824
’’	-7.78247
▁K	-7.7842
▁Avrupa	-7.78469
▁kez	-7.78656
B	-7.7874
du	-7.7893
▁E	-7.79098
um	-7.79217
man	-7.79266
g	-7.798
sini	-7.80137
larla	-7.80254
▁verdi	-7.80542
mak	-7.82782
cı	-7.8335
▁Ankara	-7.83462
▁T	-7.83466
!	-7.83606
▁ancak	-7.83945
▁geldi	-7.84239
▁'	-7.84348
▁olmak	-7.84681
M	-7.85083
larında	-7.85235
lerle	-7.85529
▁Ancak	-7.85683
▁karar	-7.86115
ra	-7.86511
▁F	-7.86552
▁7	-7.86762
▁mi	-7.86785
▁G	-7.86841
ri	-7.87137
▁bazı	-7.87207
mış	-7.87328
ır	-7.87557
lardan	-7.87975
▁sadece	-7.87987
ine	-7.88003
/	-7.88102
▁şu	-7.8811
▁belirtti	-7.88196
▁şöyle	-7.88241
▁başka	-7.88629
▁Başkan	-7.88778
▁olacak	-7.88959
▁belirten	-7.89148
▁süre	-7.89638
▁şey	-7.90316
at	-7.90483
▁destek	-7.91306
▁an	-7.91486
▁aldı	-7.91494
E	-7.9163
▁bugün	-7.91878
P	-7.91988
tir	-7.92004
miz	-7.92185
▁veya	-7.92549
▁konusunda	-7.92704
mi	-7.92848
ar	-7.93233
lerden	-7.93236
ını	-7.93273
miş	-7.93407
▁ortaya	-7.93525
re	-7.93549
c	-7.9379
▁20	-7.93797
▁sahip	-7.93951
▁8	-7.94093
▁özel	-7.94569
lan	-7.94737
▁para	-7.94974
il	-7.95103
▁günü	-7.9516
▁hafta	-7.95323
▁Erdoğan	-7.95886
tır	-7.96164
▁biri	-7.96632
▁eski	-7.96901
▁dün	-7.97055
acak	-7.97174
lerinden	-7.97353
arak	-7.97382
▁Belediyesi	-7.97669
▁ben	-7.97846
C	-7.97985
▁böyle	-7.98889
▁açıklamada	-7.99307
mız	-7.99607
G	-7.99686
D	-7.99812
▁milyar	-8.00033
ecek	-8.00066
▁B	-8.00217
▁olması	-8.00484
▁üzerinde	-8.00986
▁dile	-8.01055
su	-8.01198
▁yol	-8.01604
▁Irak	-8.0162
sine	-8.01687
▁kabul	-8.01823
sını	-8.01867
▁Bakanı	-8.02035
▁CHP	-8.02117
▁yaptı	-8.02531
Y	-8.02573
▁açık	-8.02707
▁neden	-8.03095
b	-8.03522
ka	-8.03741
▁doğru	-8.0405
▁15	-8.0414
▁el	-8.04291
▁Müdürlüğü	-8.04903
▁belirterek	-8.05065
lerinde	-8.0511
▁C	-8.05193
▁az	-8.05195
▁yerine	-8.05587
▁dikkat	-8.06188
İ	-8.06272
▁çıktı	-8.06384
ması	-8.06743
▁Kurulu	-8.06874
F	-8.07045
Bu	-8.07559
▁Mehmet	-8.0799
▁başladı	-8.08291
▁hakkında	-8.08309
H	-8.08507
▁yaşındaki	-8.0891
▁M	-8.09095
▁görev	-8.09375
▁polis	-8.09541
el	-8.09577
▁Dr	-8.09678
▁kadın	-8.09784
▁edildi	-8.09881
▁*	-8.10042
lü	-8.10111
▁edilen	-8.1063
▁Ali	-8.10927
▁Başbakan	-8.11247
uz	-8.11449
çi	-8.11502
▁ikinci	-8.11565
▁eğitim	-8.11904
▁9	-8.12006
▁İ	-8.12057
▁bulunduğu	-8.12224
▁İl	-8.12235
▁insan	-8.1229
▁sıra	-8.12381
▁söz	-8.12446
▁üç	-8.12517
▁farklı	-8.12555
▁Parti	-8.12603
▁kaydetti	-8.12715
▁Bakanlığı	-8.12751
▁güzel	-8.12822
luk	-8.1288
▁Devlet	-8.13061
ba	-8.13274
▁16	-8.13564
▁12	-8.14122
I	-8.14248
v	-8.14377
larından	-8.14874
▁yüksek	-8.15014
▁Üniversitesi	-8.15096
▁yaklaşık	-8.1559
▁ev	-8.15692
inin	-8.159
ur	-8.15965
▁yakın	-8.16238
▁hiç	-8.16488
ha	-8.16585
▁Suriye	-8.1719
▁takım	-8.17322
▁Ama	-8.17504
erek	-8.17553
▁bulundu	-8.17558
▁dolar	-8.18346
▁H	-8.1841
▁uzun	-8.18924
siz	-8.19067
▁yeniden	-8.19324
▁bütün	-8.1956
▁yine	-8.19648
▁rağmen	-8.19856
iyor	-8.19925
▁''	-8.2001
ip	-8.20221
bi	-8.20225
ik	-8.20241
ken	-8.20312
▁bilgi	-8.20386
lama	-8.20487
nu	-8.20566
ndeki	-8.20656
▁bağlı	-8.21058
▁ediyor	-8.21874
▁iddia	-8.22556
▁P	-8.22581
▁Gül	-8.23019
▁hava	-8.23117
▁nasıl	-8.23172
sinin	-8.23196
▁Ne	-8.23202
▁mücadele	-8.23225
▁çıkan	-8.23635
O	-8.24065
liği	-8.24079
▁zor	-8.24398
▁geri	-8.24436
▁30	-8.24668
▁düzenlenen	-8.25522
ak	-8.25605
▁yanı	-8.25753
▁yönelik	-8.25794
lığı	-8.25873
),	-8.26136
▁11	-8.26223
mek	-8.26524
va	-8.26565
▁ettiği	-8.26801
▁hizmet	-8.26806
yu	-8.26945
sız	-8.27371
▁gece	-8.27386
ran	-8.27422
▁Er	-8.27785
."	-8.27793
Ş	-8.2838
▁18	-8.2841
▁iç	-8.2904
▁kısa	-8.29105
ıyor	-8.29129
▁al	-8.29364
▁konusu	-8.29499
▁ziyaret	-8.29624
dığı	-8.30113
▁altında	-8.30405
▁yardım	-8.30519
▁hiçbir	-8.30572
sin	-8.30777
▁sırasında	-8.31055
inde	-8.31301
mesi	-8.3134
▁bunu	-8.31401
▁D	-8.31654
▁basın	-8.31682
▁belediye	-8.31915
sel	-8.32147
yan	-8.32159
▁ilişkin	-8.32252
▁verdiği	-8.32284
▁ara	-8.32338
dur	-8.32647
▁aldığı	-8.32982
▁çalışma	-8.33401
▁Büyükşehir	-8.33422
▁ülke	-8.33584
▁Öz	-8.33639
ıp	-8.33972
▁ait	-8.34238
▁Ak	-8.34391
▁mı	-8.34412
ndaki	-8.34455
▁veren	-8.3473
▁Dünya	-8.34873
▁kişinin	-8.34943
▁artık	-8.3542
len	-8.35434
iz	-8.3564
▁dünya	-8.36057
▁Y	-8.36287
▁yapılacak	-8.36714
▁toplam	-8.36807
▁olur	-8.37372
▁aday	-8.37387
▁çıkar	-8.37531
▁mu	-8.37556
R	-8.37686
▁bunun	-8.37839
▁lira	-8.38088
▁imza	-8.38261
zi	-8.38444
sinde	-8.38575
▁Müdürü	-8.38621
han	-8.3865
▁Yeni	-8.38665
▁devlet	-8.38831
▁AB	-8.39104
▁AK	-8.39132
▁Milli	-8.39228
▁tam	-8.39346
▁kararı	-8.39386
sına	-8.39443
ına	-8.39882
▁belirtildi	-8.40029
or	-8.40877
ge	-8.40967
▁olay	-8.41666
us	-8.42075
niz	-8.42182
▁e	-8.42226
▁U	-8.42514
N	-8.42665
Ç	-8.42689
ay	-8.4271
ğ	-8.42713
gi	-8.42915
▁Kara	-8.43125
▁kız	-8.43151
diği	-8.43207
▁şunları	-8.4361
ktan	-8.43671
be	-8.4377
cu	-8.43804
▁çocuk	-8.43929
ım	-8.4397
▁kar	-8.44193
▁sonucu	-8.44279
▁gerektiğini	-8.44679
▁Ç	-8.44815
▁birçok	-8.45038
▁ederek	-8.45063
▁biz	-8.4549
▁ayında	-8.45544
larıyla	-8.45649
▁grup	-8.45727
▁yapı	-8.45914
▁Biz	-8.45921
▁hareket	-8.45993
▁genel	-8.46099
▁genç	-8.46464
▁Eğitim	-8.46508
▁oy	-8.46566
▁kaldı	-8.46598
▁Mustafa	-8.46655
▁Ben	-8.46697
sal	-8.46874
▁adlı	-8.46966
▁çalışan	-8.47526
▁anda	-8.47613
ul	-8.47637
▁üst	-8.47709
▁güvenlik	-8.47811
▁17	-8.4783
▁sağlık	-8.4826
▁ele	-8.48262
▁bizim	-8.48262
▁14	-8.48387
▁etmek	-8.48388
▁hazır	-8.48697
lo	-8.48736
▁olsun	-8.48949
▁En	-8.49382
▁parti	-8.49489
ö	-8.49536
▁13	-8.50134
▁suç	-8.50207
is	-8.50244
▁film	-8.50285
▁ağır	-8.50398
st	-8.50418
▁gelir	-8.50547
leriyle	-8.50551
▁meydana	-8.50677
▁yana	-8.50721
ke	-8.50817
▁olmadığını	-8.51077
▁ayrı	-8.51487
▁sahibi	-8.52036
▁özellikle	-8.52068
▁benim	-8.52282
▁teknik	-8.52379
▁kalan	-8.52596
▁yaz	-8.52606
▁Merkezi	-8.52725
x	-8.52758
▁kapsamında	-8.52779
spor	-8.52805
U	-8.52821
▁bildirdi	-8.52837
on	-8.52842
▁alınan	-8.5327
▁adam	-8.53271
▁durum	-8.53555
nün	-8.53566
▁25	-8.53963
▁Hastanesi	-8.54404
▁sağ	-8.54454
▁ayrıca	-8.54764
▁çeşitli	-8.54906
▁maç	-8.54959
▁açıklama	-8.55356
L	-8.55373
▁Her	-8.55559
▁Beijing	-8.55566
2	-8.55618
▁arada	-8.55644
▁ek	-8.55694
▁Cumhurbaşkanı	-8.56082
ında	-8.56087
dığını	-8.56114
▁Ahmet	-8.56175
ek	-8.56634
▁burada	-8.56665
▁Beşiktaş	-8.56734
sın	-8.57457
▁Yardımcısı	-8.57534
▁siyasi	-8.57636
▁yayın	-8.57729
▁Mart	-8.57854
▁kat	-8.58004
▁yoğun	-8.58029
▁at	-8.58057
▁bildirildi	-8.58403
▁100	-8.58447
▁Ay	-8.58532
▁yasa	-8.58582
▁savaş	-8.58624
▁haber	-8.58647
▁küçük	-8.58737
▁yönetim	-8.58828
maya	-8.58838
▁elde	-8.58989
▁yabancı	-8.59119
to	-8.59168
▁De	-8.59179
it	-8.59314
▁önünde	-8.59608
▁tarihi	-8.59612
▁Şubat	-8.5968
▁Me	-8.59781
▁il	-8.59787
▁Prof	-8.59926
▁50	-8.60006
▁El	-8.60008
et	-8.6028
▁kötü	-8.60413
▁I	-8.60494
diğini	-8.60701
nız	-8.6076
▁gelecek	-8.60821
▁önceki	-8.60851
sının	-8.60869
▁Daha	-8.60881
▁sırada	-8.60929
muş	-8.61125
sun	-8.61132
▁seçim	-8.61277
▁yıllık	-8.61398
▁eşi	-8.61582
▁ortak	-8.61773
▁ana	-8.61857
▁sayı	-8.61868
▁uygun	-8.61919
ıl	-8.61953
taki	-8.62018
▁adı	-8.62023
iş	-8.6204
▁Ha	-8.62138
▁Al	-8.6232
▁Sa	-8.62355
▁hemen	-8.62405
▁tekrar	-8.62572
▁Yılmaz	-8.62676
▁ön	-8.62861
tik	-8.63026
▁sonunda	-8.6304
▁dolayı	-8.63163
▁katıldı	-8.63165
za	-8.63234
▁tepki	-8.63308
▁China	-8.63326
san	-8.63589
▁h	-8.63633
▁göz	-8.63638
▁yaşayan	-8.63754
▁Se	-8.63953
▁halinde	-8.6401
▁sezon	-8.64021
▁Bunun	-8.64046
▁ceza	-8.64048
çı	-8.64092
▁Eylül	-8.64191
▁tür	-8.64365
▁sosyal	-8.64369
kan	-8.64402
unu	-8.64527
▁Almanya	-8.6455
▁askeri	-8.6469
j	-8.64747
▁ekipleri	-8.64817
▁boyunca	-8.64851
▁Ayrıca	-8.64894
▁Cumhuriyet	-8.65246
▁istedi	-8.65308
çe	-8.65692
▁ünlü	-8.65839
4	-8.65971
▁getirdi	-8.66044
▁oyuncu	-8.66048
▁öne	-8.66064
Ö	-8.66208
▁terör	-8.66306
▁arasındaki	-8.66315
3	-8.6643
▁Son	-8.66642
▁bak	-8.66772
▁geç	-8.66775
▁konuda	-8.66779
V	-8.66834
▁üniversite	-8.66848
▁Ma	-8.66887
▁ilgi	-8.66898
ının	-8.66944
▁açıkladı	-8.67632
▁Spor	-8.67726
ing	-8.67759
▁gol	-8.67821
▁dışında	-8.6816
▁İlçe	-8.68266
▁zamanda	-8.68295
▁La	-8.68331
▁Di	-8.68396
▁bulunuyor	-8.68567
ro	-8.68733
kten	-8.68758
▁çevre	-8.68811
ül	-8.68897
▁proje	-8.6917
ve	-8.69181
.”	-8.69251
▁Rusya	-8.69337
▁spor	-8.69409
▁aile	-8.6942
▁söyleyen	-8.69773
ter	-8.69925
▁sık	-8.69935
ol	-8.6994
▁dakika	-8.70049
AA	-8.70194
ydi	-8.7039
▁ekonomik	-8.70677
5	-8.70696
▁Ö	-8.70704
▁silah	-8.70764
▁sayıda	-8.70815
▁yaşanan	-8.70837
▁Fenerbahçe	-8.70987
▁Birliği	-8.7103
▁izin	-8.71049
sında	-8.71359
▁Su	-8.7145
lük	-8.71515
▁verilen	-8.71548
▁alındı	-8.7164
▁çekti	-8.71667
min	-8.71893
▁yapmak	-8.72059
▁AKP	-8.72075
▁Re	-8.72094
es	-8.72152
ılan	-8.7217
▁amacıyla	-8.72181
▁akşam	-8.72199
▁bi	-8.72496
▁uluslararası	-8.72535
▁k	-8.72568
▁olma	-8.73265
▁şimdi	-8.73373
▁Dışişleri	-8.73393
▁başlayan	-8.73412
▁konu	-8.73551
▁bana	-8.73662
ze	-8.73706
▁oluyor	-8.73818
▁derece	-8.73926
▁nedenle	-8.73992
fa	-8.74113
layan	-8.7417
▁Emniyet	-8.74326
▁gerçek	-8.74342
ver	-8.74398
▁adına	-8.7446
▁başarılı	-8.746
▁Mayıs	-8.74796
▁müdahale	-8.74919
der	-8.75112
kları	-8.75194
▁orta	-8.75315
▁gereken	-8.75337
▁baş	-8.7539
▁tedavi	-8.75407
▁içerisinde	-8.75624
▁yandan	-8.75836
▁zarar	-8.75896
▁alma	-8.75979
▁olsa	-8.75988
▁yatırım	-8.76056
os	-8.76151
ça	-8.76214
vi	-8.76387
klarını	-8.76406
▁dönemde	-8.76706
▁ciddi	-8.76844
▁gerek	-8.7686
ılması	-8.76861
▁Halk	-8.76879
▁sayısı	-8.76898
▁ilçe	-8.76906
▁tespit	-8.76958
▁puan	-8.77005
▁edecek	-8.77032
▁Na	-8.77055
ko	-8.77234
▁oyun	-8.77251
▁Galatasaray	-8.77266
do	-8.77453
▁Ka	-8.77463
ür	-8.77569
▁hedef	-8.77695
ği	-8.77744
▁olmayan	-8.77764
▁Olimpiyat	-8.77788
▁İZMİR	-8.77894
▁kontrol	-8.7799
ey	-8.78105
▁top	-8.78278
▁Ve	-8.78435
ev	-8.785
30	-8.78543
men	-8.78604
▁olabilir	-8.78678
▁yan	-8.78979
▁pek	-8.79033
▁Ra	-8.79057
▁teşekkür	-8.79336
▁İlk	-8.79504
▁yapma	-8.79639
▁Meclis	-8.79709
▁dava	-8.79795
ck	-8.79815
ga	-8.79872
son	-8.80176
landı	-8.80178
▁durumda	-8.80196
mı	-8.80198
▁Çünkü	-8.80301
▁hak	-8.80304
teki	-8.80632
Lİ	-8.80637
▁isteyen	-8.80762
▁sabah	-8.80851
▁altına	-8.8109
▁Yönetim	-8.81309
▁gözaltına	-8.81587
1	-8.81596
▁ileri	-8.81742
▁hep	-8.81973
▁kredi	-8.82265
▁Ya	-8.82411
İN	-8.82496
▁araç	-8.82499
▁Derneği	-8.8253
▁N	-8.82614
▁araya	-8.82844
▁Başkanlığı	-8.82882
▁metre	-8.82902
siniz	-8.82904
▁verildi	-8.8295
▁geliyor	-8.83069
▁soruşturma	-8.83155
▁yap	-8.83281
▁Mahkemesi	-8.83322
▁gerekiyor	-8.83674
bu	-8.83716
ladı	-8.83826
▁satış	-8.83985
▁yazı	-8.8406
▁yıldır	-8.84235
ed	-8.84275
▁alıyor	-8.84491
▁Aydın	-8.84498
▁24	-8.84807
▁itibaren	-8.84848
▁Ş	-8.84863
▁Do	-8.85084
▁çözüm	-8.85157
▁yapıldı	-8.85174
▁Atatürk	-8.85404
dik	-8.85641
▁fark	-8.85691
▁anne	-8.85694
▁merkezi	-8.85702
▁40	-8.85706
▁Temmuz	-8.85783
▁değer	-8.85807
ğı	-8.85981
▁yılı	-8.86176
tu	-8.86196
bir	-8.86214
as	-8.863
▁yanında	-8.86314
▁başına	-8.86442
▁resmi	-8.86509
▁biraz	-8.86642
iyle	-8.86672
▁yani	-8.86672
▁kan	-8.86722
▁başında	-8.86725
▁sonrası	-8.86794
▁temel	-8.86909
▁güç	-8.86951
▁Ocak	-8.86989
▁vergi	-8.86997
▁YTL	-8.87039
mıştı	-8.87191
▁ettiğini	-8.87469
▁şeklinde	-8.87634
DE	-8.87772
LER	-8.87778
▁belli	-8.87797
▁gerekli	-8.87808
▁İngiltere	-8.87813
lanan	-8.87928
▁güven	-8.88018
▁Haziran	-8.88058
▁mümkün	-8.88177
▁İş	-8.88247
▁tarihinde	-8.88248
▁üyesi	-8.8827
LAR	-8.88334
▁katılan	-8.88346
w	-8.88404
▁Mahallesi	-8.88609
ch	-8.88729
ren	-8.88889
▁halk	-8.88891
▁okul	-8.88918
▁transfer	-8.88932
▁milli	-8.89109
leme	-8.89186
▁Kültür	-8.89324
▁hale	-8.89324
▁a	-8.89359
▁çalışmaları	-8.89471
▁dört	-8.89476
▁otomobil	-8.89497
▁işaret	-8.89585
▁Can	-8.89671
▁22	-8.89679
▁adet	-8.8989
▁ses	-8.8989
▁talep	-8.89902
▁kamu	-8.89921
▁kaç	-8.89985
▁engel	-8.90005
▁yaşam	-8.90055
▁Fransa	-8.90078
Ü	-8.90084
nce	-8.901
▁sene	-8.90235
▁zaten	-8.90323
▁ülkenin	-8.90346
▁insanlar	-8.90378
▁beni	-8.90434
▁başkanı	-8.90522
ık	-8.90694
▁süren	-8.9084
▁İki	-8.90895
abilir	-8.90909
▁internet	-8.91096
▁Milletvekili	-8.91098
▁erkek	-8.91163
▁olmadığı	-8.91176
▁durumu	-8.9129
▁sorun	-8.91339
▁mahkeme	-8.91346
▁yemek	-8.91391
▁ateş	-8.91476
ıldı	-8.91614
▁dönem	-8.91682
▁kolay	-8.917
▁açısından	-8.91821
▁arama	-8.91926
▁21	-8.9197
▁Yıldırım	-8.92026
▁İran	-8.92204
▁Bankası	-8.92234
▁yanlış	-8.92267
▁herhangi	-8.9232
▁din	-8.92421
▁etme	-8.92531
▁üyeleri	-8.92733
▁bize	-8.92974
▁üzerinden	-8.92988
▁vardı	-8.93022
▁Ağustos	-8.93044
ber	-8.93117
▁pazar	-8.93385
go	-8.93412
can	-8.93412
▁vardır	-8.93509
▁konuşma	-8.93558
▁Merkez	-8.937
ydı	-8.93776
▁geçti	-8.94027
▁sivil	-8.94074
ici	-8.94102
bo	-8.94318
▁getiren	-8.94363
▁TL	-8.94457
mez	-8.9448
▁Lig	-8.94495
▁Be	-8.94526
▁takip	-8.94557
▁kendisine	-8.94559
▁hayatını	-8.94563
▁dünyanın	-8.94616
▁mal	-8.94651
▁yüz	-8.94977
suz	-8.9507
▁dahil	-8.95153
▁yazılı	-8.95324
▁onu	-8.95377
▁İsrail	-8.95476
▁zorunda	-8.95765
▁bas	-8.95853
ru	-8.95908
▁kim	-8.95912
hi	-8.95914
▁Uluslararası	-8.96171
dim	-8.96202
▁Anadolu	-8.96282
▁tercih	-8.96373
▁müzik	-8.96382
▁sa	-8.96472
meye	-8.96489
DA	-8.96593
▁henüz	-8.96632
▁kurulu	-8.96725
▁haline	-8.96769
▁karşısında	-8.96901
▁teslim	-8.96939
ış	-8.96994
kar	-8.97128
▁operasyon	-8.97191
▁Ko	-8.97389
▁sen	-8.97395
ng	-8.97518
Z	-8.97927
▁Hüseyin	-8.98008
▁TBMM	-8.98048
▁futbol	-8.98141
▁telefon	-8.98178
▁Ke	-8.98188
▁attı	-8.98189
▁soru	-8.98241
Türkiye	-8.98303
▁Demir	-8.98493
▁olup	-8.98553
sen	-8.98588
▁kullan	-8.98611
▁öyle	-8.98691
ist	-8.98762
▁yarın	-8.98783
▁re	-8.98835
tur	-8.98846
▁almak	-8.9889
▁giden	-8.98974
▁23	-8.99064
▁yılın	-8.99137
rken	-8.99155
▁anlatan	-8.99205
ut	-8.99325
▁maçı	-8.99369
▁örnek	-8.99404
▁çeken	-8.99485
▁geniş	-8.99544
▁Bo	-8.99596
▁onun	-8.99659
▁in	-8.99662
▁saygı	-8.99687
▁kap	-8.99807
▁R	-8.99858
▁deniz	-8.99931
▁kazandı	-8.99969
▁diyen	-9.00028
▁Polis	-9.00179
▁yapılması	-9.0018
▁güçlü	-9.00222
▁Deniz	-9.00459
▁yazar	-9.00504
▁alacak	-9.00621
▁Li	-9.00635
▁oluşan	-9.00928
7	-9.01048
nca	-9.01099
maz	-9.01157
▁serbest	-9.01285
inci	-9.01294
▁eylem	-9.01479
üz	-9.0154
▁diyor	-9.01659
▁sonuç	-9.01932
▁türlü	-9.01939
▁ak	-9.02019
acağını	-9.02026
▁faaliyet	-9.02251
▁siz	-9.02291
▁günlerde	-9.02523
ll	-9.02556
▁Oyunları	-9.02615
am	-9.02702
▁girdi	-9.02788
▁sürekli	-9.02878
▁kullandı	-9.02907
▁öğrenci	-9.02922
▁te	-9.02936
▁An	-9.03219
▁tur	-9.0334
▁önem	-9.03426
▁beri	-9.03488
▁c	-9.03592
▁anlattı	-9.03713
▁gitti	-9.03777
▁Ba	-9.03877
▁görüş	-9.04019
lenen	-9.04163
▁dış	-9.04191
▁bırak	-9.04509
▁Ege	-9.04563
▁birkaç	-9.04568
▁can	-9.04595
▁Antalya	-9.0461
▁Özel	-9.0477
▁sahne	-9.0481
dım	-9.04826
▁araştırma	-9.04886
▁bağ	-9.04967
▁500	-9.04998
▁as	-9.04999
▁yılda	-9.05126
▁Şimdi	-9.05241
dü	-9.05298
muz	-9.05335
siyle	-9.05437
▁uygulama	-9.05544
▁yaş	-9.05586
▁futbolcu	-9.05633
van	-9.05771
▁öğrenildi	-9.05868
▁ödeme	-9.05889
▁mahalle	-9.05958
▁kaynak	-9.05987
▁Kemal	-9.06012
▁gider	-9.06022
mizi	-9.06101
▁yapacak	-9.06102
▁Amerikan	-9.06326
▁kent	-9.06372
▁rahat	-9.06433
▁toplantı	-9.06551
no	-9.06622
▁ders	-9.06717
▁ma	-9.06748
▁giren	-9.06767
▁Alman	-9.06962
mişti	-9.07085
▁hesap	-9.07164
▁acı	-9.07243
▁kitap	-9.07253
▁Büyük	-9.07555
▁DE	-9.07564
6	-9.07712
▁başkan	-9.07718
▁Ekim	-9.07738
▁milletvekili	-9.07866
klerini	-9.07877
▁et	-9.07976
▁yerinde	-9.08029
▁Futbol	-9.0819
▁Sağlık	-9.08253
▁değildir	-9.08289
ör	-9.08358
▁sona	-9.08569
▁Nisan	-9.08574
▁istiyoruz	-9.08641
▁ona	-9.08711
▁madde	-9.08744
▁İlçesi	-9.08758
▁Kar	-9.08879
mo	-9.08977
▁Da	-9.08992
▁sarı	-9.09131
mızı	-9.09182
▁Anayasa	-9.09193
▁katkı	-9.09224
fi	-9.09302
com	-9.0931
▁İngiliz	-9.09338
▁Hasan	-9.09537
▁kaza	-9.09538
▁bölge	-9.09689
imiz	-9.09868
▁hükümet	-9.09874
pe	-9.10005
9	-9.10079
▁sanat	-9.10118
▁etki	-9.10225
▁köy	-9.10239
▁üretim	-9.103
▁ka	-9.1032
▁konuşan	-9.10374
▁buna	-9.10387
mıştır	-9.1052
▁Murat	-9.1059
▁başta	-9.10747
▁yapıyor	-9.10761
▁Ni	-9.10798
▁Mi	-9.10839
iye	-9.10856
▁kalma	-9.1105
▁toplantısında	-9.11069
▁üye	-9.1109
lay	-9.11109
▁yetkilileri	-9.11136
▁Hu	-9.11252
▁28	-9.11387
▁işbirliği	-9.11448
▁ta	-9.11598
▁yerde	-9.11624
▁f	-9.11625
▁yargı	-9.11676
▁geldiği	-9.1168
▁maçında	-9.11818
▁yere	-9.11838
▁diyerek	-9.11932
▁i	-9.11961
▁Ar	-9.12028
▁Abdullah	-9.12106
imi	-9.12161
▁verme	-9.12166
▁baba	-9.12253
▁Çok	-9.12289
▁hakkı	-9.12295
▁kendisini	-9.12416
nü	-9.12568
▁2013	-9.12606
▁BM	-9.12685
▁artış	-9.12778
maktadır	-9.12909
▁Ü	-9.12937
▁2.	-9.13063
▁Karşıyaka	-9.13068
▁döneminde	-9.13124
ılmış	-9.13191
▁etmesi	-9.1342
▁faiz	-9.13433
tü	-9.13471
▁mutlu	-9.13501
▁dışı	-9.13518
▁bulunduğunu	-9.13555
▁adım	-9.13588
▁çalış	-9.13624
lanma	-9.13633
▁Si	-9.13696
▁yerel	-9.13771
eceğini	-9.14007
▁Teknik	-9.14046
▁hala	-9.14047
▁kal	-9.14141
▁dizi	-9.14153
po	-9.14164
gu	-9.14171
eceği	-9.14188
▁adayı	-9.14281
LA	-9.14303
▁sıkıntı	-9.1431
▁cezası	-9.14323
th	-9.14582
lendi	-9.14848
lığa	-9.14889
▁alt	-9.14938
ok	-9.14983
▁Grubu	-9.15079
▁edilmesi	-9.15097
▁yıllarda	-9.15164
ebilir	-9.15178
▁Baş	-9.15215
▁herkes	-9.15217
▁All	-9.15282
▁kaydedildi	-9.15287
▁İbrahim	-9.15415
▁yolcu	-9.15418
▁Kulübü	-9.15474
▁olacağını	-9.15478
▁do	-9.15485
▁forma	-9.15628
▁ekonomi	-9.15681
▁beş	-9.15693
▁babası	-9.15816
unun	-9.15866
▁lazım	-9.16023
▁Fatih	-9.16125
yen	-9.16169
▁kişilik	-9.16258
▁bundan	-9.1635
▁toplum	-9.1635
▁kafa	-9.16426
▁sistemi	-9.16445
▁sergi	-9.16591
yon	-9.16646
▁Te	-9.16677
leştir	-9.16789
▁olduğuna	-9.168
ğu	-9.16841
▁asker	-9.16944
▁çık	-9.16959
▁gören	-9.1697
▁ediyorum	-9.16982
▁Ceza	-9.1699
▁Aralık	-9.17022
lerimiz	-9.17051
▁kara	-9.17091
▁Güvenlik	-9.17261
▁Ligi	-9.1734
▁taş	-9.17375
▁hızlı	-9.17429
▁ismi	-9.17485
▁teklif	-9.17485
▁Ev	-9.17514
ad	-9.1752
▁program	-9.17537
▁gösterdi	-9.17648
▁Z	-9.17681
▁hapis	-9.17691
Bir	-9.17743
▁düzenleme	-9.17777
▁alın	-9.17871
▁merkez	-9.17886
▁anlaşma	-9.18003
▁Euro	-9.18006
▁şehir	-9.18049
▁hangi	-9.18181
co	-9.18194
▁s	-9.1825
▁başarı	-9.18325
yim	-9.18424
▁PKK	-9.18447
bkz	-9.18461
▁kimse	-9.18475
▁görüşme	-9.18588
▁mü	-9.18741
▁vurguladı	-9.18752
▁L	-9.18757
▁olduklarını	-9.18794
▁hatta	-9.188
▁plan	-9.18817
▁enerji	-9.18893
▁yara	-9.19098
▁öncesi	-9.19129
▁aç	-9.1913
▁New	-9.19222
▁Tayyip	-9.19223
▁önüne	-9.19268
▁olumlu	-9.19292
shan	-9.1944
miyor	-9.19486
▁banka	-9.19513
▁Kuzey	-9.19548
▁Şube	-9.1956
▁W	-9.19607
▁sayesinde	-9.19608
▁Genç	-9.19717
▁San	-9.19744
ünü	-9.19752
▁sevk	-9.19761
▁Le	-9.19828
▁bölgede	-9.19875
İL	-9.19899
ırken	-9.1994
▁Sarı	-9.19979
▁Kadın	-9.20012
▁se	-9.20051
ton	-9.20134
▁alarak	-9.2015
▁ekip	-9.20163
▁Ticaret	-9.20312
▁Araştırma	-9.20312
▁hisse	-9.20402
▁savunma	-9.20419
▁durumunda	-9.20431
lak	-9.20467
▁etkili	-9.20498
▁er	-9.20599
▁davet	-9.20667
▁isim	-9.20769
▁değerlendirme	-9.20776
AN	-9.20871
▁Şahin	-9.20895
id	-9.20934
lat	-9.21025
▁bilim	-9.21042
▁kır	-9.21043
▁takımı	-9.21054
▁cevap	-9.21058
▁Doğan	-9.21286
▁Bakan	-9.21345
▁tamamen	-9.21486
▁Sanayi	-9.21523
▁rol	-9.21574
▁üçüncü	-9.21614
▁tak	-9.21655
▁uzak	-9.21663
▁işi	-9.21691
▁çünkü	-9.21807
▁tartışma	-9.21844
▁işlem	-9.21848
▁insanların	-9.21974
▁26	-9.21987
luğu	-9.22058
▁alanda	-9.22189
▁kaydeden	-9.22216
▁1.	-9.22228
fe	-9.22323
▁işçi	-9.2239
▁şirket	-9.22483
sinden	-9.22534
▁60	-9.22538
▁dakikada	-9.22564
▁Mo	-9.22585
▁normal	-9.22713
▁çalışmalar	-9.22713
▁p	-9.22755
taş	-9.22855
▁Amerika	-9.22904
▁Kasım	-9.23036
▁vermek	-9.2307
▁dil	-9.23132
▁bizi	-9.2325
▁saatlerinde	-9.23277
ıcı	-9.23385
▁kart	-9.23404
▁kapı	-9.23441
▁filmi	-9.23717
▁eş	-9.23836
tar	-9.23864
▁birinci	-9.23932
▁Olay	-9.23967
▁Ro	-9.23985
▁maçta	-9.23994
lıyor	-9.24006
▁kızı	-9.24073
▁yarış	-9.2408
▁aralarında	-9.24088
▁yarı	-9.24098
▁yönetimi	-9.24112
▁başvuru	-9.24217
▁Fakültesi	-9.24283
▁kilometre	-9.2441
CRI	-9.24429
he	-9.24435
▁veriyor	-9.24491
▁şeyler	-9.2453
▁koruma	-9.24542
▁200	-9.24577
▁görme	-9.24584
▁Doğu	-9.24689
▁International	-9.24719
▁dolu	-9.24743
▁alanı	-9.24751
▁Bey	-9.24832
larımız	-9.24834
▁Partisi	-9.24969
▁parça	-9.25013
▁27	-9.25076
bil	-9.25279
met	-9.25312
▁bilgisayar	-9.25312
ılacak	-9.25321
▁hasta	-9.25329
miştir	-9.25557
▁barış	-9.25575
▁sol	-9.25604
▁aylık	-9.25605
▁açtı	-9.25639
▁olmaz	-9.25658
liğe	-9.25753
▁sorunu	-9.25777
▁V	-9.25898
kleri	-9.26034
▁elektrik	-9.2607
▁gazete	-9.26165
▁bomba	-9.26207
▁yeri	-9.26227
▁gösteri	-9.26265
▁çift	-9.26293
▁ödül	-9.26311
▁ince	-9.26318
▁doğal	-9.26326
abilecek	-9.26412
▁kilo	-9.26414
inden	-9.26506
▁sınır	-9.26515
▁Ca	-9.26536
▁Kupası	-9.26547
▁di	-9.26551
▁altın	-9.26565
up	-9.26589
▁2012	-9.26598
▁zengin	-9.26621
▁sev	-9.26633
ret	-9.2665
▁Federasyonu	-9.26715
▁Öte	-9.26768
sıyla	-9.26797
▁yardımcı	-9.26861
▁Bölgesi	-9.26875
▁yaptıkları	-9.26991
▁be	-9.27009
▁Şu	-9.2709
▁kendini	-9.27118
yet	-9.27161
▁Recep	-9.27187
▁sistem	-9.27262
YA	-9.27277
▁verecek	-9.27306
ho	-9.27315
▁buldu	-9.2741
▁saha	-9.27428
mis	-9.27606
▁Kıbrıs	-9.2768
▁gerekir	-9.27725
ap	-9.27791
▁televizyon	-9.2782
▁gerçekleştiril	-9.27823
Ha	-9.27824
▁kulüp	-9.28006
8	-9.28071
▁ayı	-9.28106
▁olumsuz	-9.28202
▁Fa	-9.28248
▁Burada	-9.28258
▁baskı	-9.28285
kı	-9.28312
▁hayata	-9.28371
if	-9.28376
▁yaşında	-9.28481
ağı	-9.28561
acağız	-9.2864
▁yorum	-9.28723
▁kadro	-9.28766
▁2014	-9.28772
▁günlük	-9.28828
tim	-9.28852
0	-9.28933
▁gel	-9.2895
▁çaba	-9.28957
▁gösteren	-9.29114
▁yangın	-9.29204
dür	-9.29268
▁beraber	-9.29272
ley	-9.29351
▁ilan	-9.29451
▁temsil	-9.29558
▁ulaştı	-9.29578
▁kültür	-9.29605
▁yola	-9.29625
▁yolu	-9.29648
▁sonucunda	-9.29749
AR	-9.29973
▁düşük	-9.29993
▁iz	-9.30123
▁kazan	-9.30133
▁Kaya	-9.30177
ilen	-9.3027
acağı	-9.30272
pa	-9.30281
▁kesin	-9.30325
▁sonrasında	-9.30392
yız	-9.30393
▁belki	-9.30488
▁istiyorum	-9.30497
▁tahmin	-9.30579
▁ölüm	-9.30587
▁yanıt	-9.30625
▁marka	-9.30652
▁Sosyal	-9.30773
let	-9.30883
lüğü	-9.30908
▁The	-9.30917
▁Road	-9.3098
▁önümüzdek	-9.31062
iyet	-9.31159
ah	-9.31192
lanması	-9.31192
▁Geçen	-9.31197
▁Orta	-9.31214
▁ülkede	-9.31238
dar	-9.31279
üm	-9.31313
evi	-9.31371
▁sürdü	-9.31491
▁nokta	-9.31576
▁Cumhuriyeti	-9.31721
▁Bölge	-9.31762
ğını	-9.31764
▁Yunanistan	-9.31781
▁örgüt	-9.31839
▁bekleniyor	-9.31857
▁oğlu	-9.31954
▁sözleşme	-9.31982
▁tehdit	-9.32075
köy	-9.32102
▁net	-9.32137
Ben	-9.32175
▁oda	-9.32397
▁yaşadığı	-9.32469
ova	-9.32586
ER	-9.32631
▁dur	-9.32722
▁dolarlık	-9.32782
▁yaparak	-9.32825
▁mevcut	-9.329
▁Radio	-9.32913
layarak	-9.33133
▁lideri	-9.33331
▁sürede	-9.33358
▁Bar	-9.33388
▁protesto	-9.33395
▁öğretmen	-9.33421
▁konser	-9.33481
▁halde	-9.33484
▁kullanılan	-9.33579
mektedir	-9.33618
LI	-9.33644
▁inceleme	-9.33686
▁taşıyan	-9.33693
mizin	-9.33698
▁katıldığı	-9.33724
laşma	-9.33738
▁gündeme	-9.33846
▁dünyada	-9.33899
Biz	-9.33923
▁tamam	-9.33989
nci	-9.3401
▁oranı	-9.34071
▁anlat	-9.34102
▁Pa	-9.34116
▁hayvan	-9.34209
▁ekibi	-9.34213
▁hukuk	-9.34296
▁geldiğini	-9.34402
▁deprem	-9.34412
▁konuş	-9.34424
▁vurgulayan	-9.3446
▁teknoloji	-9.3448
▁yüzünden	-9.34527
▁Right	-9.34534
▁fotoğraf	-9.34568
sak	-9.34608
▁atan	-9.34699
▁Film	-9.34715
▁ediliyor	-9.34731
▁Reserve	-9.34774
▁eder	-9.34779
EN	-9.34816
▁ha	-9.34821
▁çalışması	-9.34856
gan	-9.34925
▁Shijing	-9.34979
▁100040	-9.34981
leşme	-9.34988
▁Çelik	-9.35021
▁sıcak	-9.35211
▁yüzden	-9.35219
alım	-9.3523
▁canlı	-9.35239
una	-9.35274
sanız	-9.35328
gen	-9.35372
▁kurum	-9.35402
▁yapmaya	-9.35419
▁olursa	-9.3545
▁boş	-9.35464
▁trafik	-9.35554
▁ton	-9.35595
▁Yüksek	-9.35639
▁görevi	-9.35678
▁Bülent	-9.35801
▁Güney	-9.35813
▁Ku	-9.35988
▁Odası	-9.35995
ımız	-9.36089
▁Grup	-9.36138
▁defa	-9.36218
ic	-9.36263
▁kon	-9.36348
▁gelişme	-9.36389
▁gemi	-9.36416
▁Ho	-9.36452
▁Rus	-9.36471
▁Bugün	-9.36482
▁sert	-9.36485
▁is	-9.36496
▁yağ	-9.36665
▁giriş	-9.36753
▁ücret	-9.36771
▁hakem	-9.36814
▁Yıldız	-9.36838
▁İslam	-9.36839
▁fiyat	-9.3687
▁Aynı	-9.36963
mıza	-9.37118
▁san	-9.37307
▁turizm	-9.37355
▁ba	-9.37419
mayı	-9.37468
uyor	-9.37471
▁Aziz	-9.37529
▁oldukça	-9.37586
▁He	-9.37589
▁döndü	-9.3761
▁say	-9.37617
▁/	-9.3762
▁sınıf	-9.37703
ji	-9.37745
▁kur	-9.37749
▁giderek	-9.37832
▁saldırı	-9.3785
▁arkadaşı	-9.38016
▁35	-9.38021
▁hayat	-9.38114
▁Ta	-9.38187
ünün	-9.38213
▁istediği	-9.38275
▁bunlar	-9.38365
▁arka	-9.38375
▁olmuş	-9.38385
▁varsa	-9.38395
▁istifa	-9.3855
mizde	-9.38605
şi	-9.3861
▁gerekçesiyle	-9.38626
20	-9.38679
▁şehit	-9.38691
▁Caddesi	-9.38701
ız	-9.38759
▁Hakan	-9.38821
▁sinema	-9.38885
yiz	-9.38934
▁desteği	-9.39015
▁ihale	-9.39019
▁rapor	-9.39076
TA	-9.39088
ger	-9.39249
▁Vali	-9.3926
▁yarışma	-9.39294
lanmış	-9.39386
▁Sayın	-9.39556
▁yaralı	-9.3966
▁Diyarbakır	-9.39785
liğini	-9.39831
▁kendisi	-9.39933
▁oranında	-9.39977
▁kriz	-9.40097
▁vatandaşlar	-9.40152
▁Co	-9.4021
▁park	-9.40258
sunuz	-9.40354
▁ke	-9.40422
▁giy	-9.40443
ıldığı	-9.40521
▁As	-9.40529
▁ulaş	-9.40563
sınız	-9.40563
mize	-9.40592
▁alınması	-9.40611
▁2007	-9.40624
▁büyüme	-9.4091
mer	-9.40938
yım	-9.40961
▁düzenlediği	-9.40975
tay	-9.4101
▁Hava	-9.41047
MA	-9.41063
▁Bazı	-9.41073
▁satın	-9.41102
▁yurt	-9.41115
▁kayıt	-9.41118
▁örgütü	-9.41146
▁Fransız	-9.41162
▁derin	-9.4129
▁kullandığı	-9.41345
▁aracı	-9.41383
▁So	-9.41396
masını	-9.41527
▁halkın	-9.41582
▁Kurumu	-9.41736
▁ilçesinde	-9.41745
▁yaşan	-9.41757
▁düzey	-9.41818
rak	-9.41857
▁görüntü	-9.41878
▁istiyor	-9.41912
din	-9.4196
▁artır	-9.41987
▁Tıp	-9.42001
▁altı	-9.42056
▁vatandaşların	-9.42056
▁geçmiş	-9.42127
▁çerçevesinde	-9.42158
▁sorumlu	-9.42172
▁benzer	-9.42238
▁geçtiğimiz	-9.42302
▁firma	-9.42358
▁29	-9.42421
tepe	-9.42641
irken	-9.42691
ük	-9.42726
▁ihtiyaç	-9.42731
madı	-9.42801
▁Mar	-9.42862
▁başlayacak	-9.42981
▁sanayi	-9.42987
▁Dış	-9.43039
sü	-9.43103
ince	-9.43109
ss	-9.43175
▁Komisyonu	-9.4327
▁Ata	-9.43329
▁cep	-9.43375
▁yasak	-9.43445
▁Eski	-9.43547
şe	-9.43561
LE	-9.43614
▁tabi	-9.43642
▁Ce	-9.43737
▁inan	-9.43825
▁Gök	-9.43838
▁liste	-9.4409
▁Ömer	-9.44162
▁darbe	-9.44202
▁kamp	-9.44396
mıyor	-9.44491
▁Pe	-9.44592
lin	-9.44621
ku	-9.44681
▁Ga	-9.44743
▁80	-9.44758
▁İkinci	-9.44837
▁işte	-9.45018
▁erken	-9.45097
▁b	-9.45214
ladığı	-9.45227
▁çek	-9.45263
▁bina	-9.4528
▁70	-9.45355
▁medya	-9.45381
amaz	-9.45496
ry	-9.45534
▁meclis	-9.45557
▁takımın	-9.45598
Dİ	-9.45599
▁MHP	-9.45611
▁Lo	-9.45617
▁olayı	-9.45656
▁kendilerine	-9.4567
▁yarat	-9.45708
sek	-9.45728
▁kapalı	-9.45776
▁yeterli	-9.45785
kaya	-9.45789
ildi	-9.45812
IN	-9.45859
▁Tüm	-9.45959
▁Konak	-9.45983
per	-9.46083
▁Ek	-9.46085
▁emekli	-9.46162
▁Buna	-9.46221
müş	-9.46241
AL	-9.46288
▁politika	-9.46299
▁trilyon	-9.46367
▁Altın	-9.46373
▁bölümü	-9.46378
▁ilişki	-9.46382
▁gücü	-9.46424
▁kırmızı	-9.46489
▁açılan	-9.4655
▁edildiği	-9.46666
lanıyor	-9.46742
▁orada	-9.46772
ıyla	-9.46836
▁Tek	-9.46876
▁Denizli	-9.46891
▁Ulusal	-9.46979
lma	-9.4698
ilmesi	-9.47044
mu	-9.47047
ama	-9.47194
▁Bursa	-9.47241
▁gitme	-9.47371
İM	-9.47408
ner	-9.47543
▁Gün	-9.47573
▁başı	-9.4764
▁ticaret	-9.47714
▁içi	-9.47742
▁düşen	-9.4776
▁bugüne	-9.47775
▁çocuğu	-9.47786
▁TV	-9.47845
ından	-9.47867
ste	-9.47927
▁g	-9.47938
▁size	-9.47951
▁hakim	-9.47954
▁tarım	-9.47969
▁Vi	-9.48161
▁Taş	-9.48204
▁Ri	-9.48266
liler	-9.48282
dikleri	-9.48358
▁Konseyi	-9.48436
▁annesi	-9.4844
▁Ol	-9.48493
▁düşünce	-9.48542
▁tatil	-9.48553
dha	-9.48575
▁etmeye	-9.48578
▁Sanat	-9.486
▁sefer	-9.48626
ledi	-9.48686
KA	-9.48717
duğu	-9.48734
▁petrol	-9.48833
▁öde	-9.48849
▁ediyoruz	-9.48892
▁2005	-9.48919
net	-9.49025
▁yaka	-9.49059
▁aslında	-9.49063
layacak	-9.49086
▁kay	-9.49151
▁hayal	-9.49285
▁öğrenciler	-9.49473
▁düştü	-9.49506
▁Osman	-9.49544
▁Trabzonspor	-9.49549
gün	-9.49636
ağa	-9.49732
cü	-9.49772
▁alanında	-9.49782
▁değiştir	-9.49806
▁kuru	-9.49861
▁av	-9.4987
▁otobüs	-9.49968
▁sözlerine	-9.50135
▁yapımı	-9.50144
▁sanatçı	-9.50163
▁sektör	-9.50228
▁Eğer	-9.50271
▁kurulan	-9.50297
▁kanun	-9.50302
▁yedi	-9.50335
▁direktör	-9.50482
başı	-9.50517
▁bilgiye	-9.50525
▁İtalya	-9.50535
▁Özellikle	-9.5056
▁çalışıyor	-9.50605
malı	-9.50622
laş	-9.50629
▁Man	-9.50642
▁sınav	-9.50644
▁Aslan	-9.50648
▁müşteri	-9.50677
hu	-9.50754
▁İsmail	-9.50775
▁yaralandı	-9.50799
▁terörist	-9.50809
▁Kan	-9.50819
▁gizli	-9.50851
▁yönünde	-9.50897
▁yıldız	-9.50939
landığı	-9.5094
lığın	-9.50954
yo	-9.50958
▁Köyü	-9.50959
▁hastane	-9.50989
leyen	-9.51006
▁çoğu	-9.51012
las	-9.51053
rt	-9.5108
hane	-9.51194
▁aş	-9.51196
▁vatandaş	-9.51388
madan	-9.51391
▁Rum	-9.51398
▁şarkı	-9.51405
▁dair	-9.51436
▁Kent	-9.51501
▁getir	-9.51567
▁demokrasi	-9.51657
ılarak	-9.51667
ımı	-9.51736
unda	-9.51743
▁90	-9.51757
▁öz	-9.51805
▁bütçe	-9.51824
▁Bornova	-9.51882
tal	-9.51904
▁d	-9.52064
▁gerçekten	-9.52064
▁dayan	-9.52132
mızda	-9.52194
ılıyor	-9.52206
▁demek	-9.52297
▁milletvekilleri	-9.52319
▁Bal	-9.5234
▁yaşamını	-9.52368
50	-9.52477
op	-9.52502
▁söylüyor	-9.5252
▁çocuklar	-9.52543
▁300	-9.52619
▁çocukların	-9.52754
▁hediye	-9.52759
▁servis	-9.52785
▁grubu	-9.52796
▁Osmanlı	-9.52803
▁korku	-9.52812
▁isimli	-9.52857
▁kadınlar	-9.52928
▁geleceği	-9.52936
▁adını	-9.52981
▁sıralarında	-9.53017
▁3.	-9.53042
▁sar	-9.53054
liğin	-9.53143
▁kira	-9.53153
▁öncesinde	-9.53181
▁Mü	-9.53229
▁itiraz	-9.53248
▁model	-9.53319
W	-9.53347
▁endişe	-9.53395
▁Amerikalı	-9.53465
▁hazırlık	-9.53508
▁Meclisi	-9.53566
üyor	-9.53607
▁arazi	-9.53679
▁Gi	-9.53679
▁gaz	-9.53764
▁of	-9.53766
▁konut	-9.53767
▁me	-9.53852
▁ihtiyacı	-9.53879
▁Batı	-9.53884
▁görevli	-9.53886
▁not	-9.53918
▁sonuna	-9.54024
▁uçak	-9.54044
▁yeşil	-9.54069
ov	-9.54113
▁Bunu	-9.54263
AT	-9.54268
lenmesi	-9.54281
▁Bodrum	-9.54327
▁Diğer	-9.54351
üp	-9.54509
tığı	-9.54723
iç	-9.54738
▁Çocuk	-9.54791
▁iptal	-9.54825
oz	-9.54827
▁ar	-9.54846
▁Koç	-9.54868
▁mekan	-9.54916
▁toplantıda	-9.5496
▁yoktur	-9.54976
▁Adana	-9.5506
▁İnsan	-9.55072
▁ortalama	-9.55123
▁yöneticileri	-9.55209
▁madalya	-9.55232
▁eksik	-9.55249
▁yak	-9.55254
mda	-9.55266
▁Takımı	-9.55334
▁renk	-9.55343
▁ol	-9.55348
▁sayılı	-9.5542
▁2008	-9.55435
▁yapıldığı	-9.55475
▁bayram	-9.55483
▁içine	-9.55488
▁ister	-9.55538
▁çıkacak	-9.55737
▁sporcu	-9.55823
▁veri	-9.55832
(	-9.55842
▁Bi	-9.55878
▁York	-9.55887
▁terk	-9.55919
▁Kendi	-9.55933
▁öneri	-9.55942
▁edip	-9.56089
▁Za	-9.56172
▁Yani	-9.56173
▁site	-9.56178
ciler	-9.56178
▁Kocaoğlu	-9.56218
▁sizin	-9.56228
▁Ge	-9.56333
▁plakalı	-9.56341
▁hükümetin	-9.56417
▁bölgesinde	-9.56456
tma	-9.565
▁çocukları	-9.56569
▁on	-9.56591
▁suyu	-9.56593
▁IŞİD	-9.56595
▁çalışmalarını	-9.56607
▁31	-9.56635
meyen	-9.56649
▁sigara	-9.56696
▁Po	-9.56746
▁belirlendi	-9.56753
▁aşırı	-9.5676
▁Çevre	-9.56804
▁yazdı	-9.56812
ğini	-9.56839
▁İşte	-9.56866
▁sonraki	-9.56932
▁Asya	-9.56952
▁kol	-9.5699
▁kapat	-9.57001
▁kaybetti	-9.57122
▁art	-9.57221
▁çıkıyor	-9.57243
▁fa	-9.57246
yse	-9.5725
▁sürüyor	-9.5725
▁alıp	-9.57292
tık	-9.57306
▁şeyi	-9.57396
▁tarih	-9.5741
▁tane	-9.57497
▁projesi	-9.57603
▁Bizim	-9.57603
▁fi	-9.57609
sam	-9.57623
▁Mahkeme	-9.57637
▁sokak	-9.57712
RA	-9.57907
▁filmin	-9.5793
▁yararlan	-9.58005
▁temiz	-9.58018
▁aktar	-9.58101
▁hazırlanan	-9.58172
▁karşılık	-9.58177
▁dik	-9.58236
▁Du	-9.58372
▁2002	-9.58387
dık	-9.58445
▁sağlamak	-9.5845
▁yapmış	-9.58462
▁Der	-9.5854
tin	-9.58588
▁u	-9.58597
▁kişiler	-9.58625
fer	-9.58652
▁kurul	-9.58776
▁üretimi	-9.58855
▁doğu	-9.58859
ucu	-9.5887
lılar	-9.589
▁BİR	-9.58925
▁söyle	-9.58951
ılır	-9.58967
diklerini	-9.59039
▁J	-9.59059
gar	-9.59121
▁fakat	-9.59173
▁Londra	-9.5922
▁Stadı	-9.59234
▁bilinen	-9.59324
▁olayın	-9.59333
sından	-9.59433
gin	-9.59441
▁ederken	-9.59465
▁mutlaka	-9.59473
ıyoruz	-9.59478
▁ilaç	-9.59487
J	-9.5949
var	-9.59504
▁yat	-9.59505
▁yalnız	-9.59521
▁Kürt	-9.59565
▁si	-9.59692
▁hal	-9.597
▁sevgi	-9.59709
lığını	-9.59749
▁Ki	-9.59771
ıyorum	-9.59789
▁süreci	-9.59816
▁arkadaşları	-9.59851
▁altını	-9.59854
Sİ	-9.5998
▁sonu	-9.59988
ban	-9.60002
▁gerçekleştir	-9.6011
▁kazanan	-9.60144
▁evde	-9.60151
▁2003	-9.60196
▁sağlıklı	-9.60197
▁engelli	-9.60223
▁Allah	-9.60244
▁To	-9.60302
▁reklam	-9.60322
az	-9.60341
sta	-9.60354
EL	-9.60369
▁savcı	-9.60375
▁geliştir	-9.60404
yor	-9.60417
▁heyeti	-9.6044
▁Hürriyet	-9.60471
▁sal	-9.60489
▁Manisa	-9.60513
▁onay	-9.6052
▁telefonu	-9.60539
▁yaşama	-9.60576
▁olmasına	-9.60626
▁ürün	-9.60684
▁üzerindeki	-9.60686
mde	-9.60743
▁araba	-9.60749
▁Ber	-9.60822
▁bakım	-9.60825
▁günde	-9.60851
▁hükümeti	-9.60928
▁çalıştı	-9.60934
▁dönüş	-9.60941
://	-9.60957
▁siyah	-9.60958
▁vurgu	-9.60992
▁No	-9.6103
▁toprak	-9.6107
▁Mu	-9.61093
ot	-9.6114
▁dosya	-9.61176
Ka	-9.61179
▁etmiş	-9.61191
▁verilmesi	-9.61213
▁ko	-9.61226
▁gir	-9.6123
▁asla	-9.61298
▁herkesin	-9.613
▁tanı	-9.61329
▁2004	-9.61373
▁yaptığını	-9.61392
▁bol	-9.61434
▁final	-9.61472
▁ordu	-9.61563
▁başlattı	-9.61578
▁olmadı	-9.61594
▁mo	-9.61637
▁kişilerin	-9.61646
▁karşıya	-9.61691
▁krizi	-9.61726
▁şirketi	-9.61777
▁olacağı	-9.61866
▁ser	-9.619
▁2006	-9.61963
▁Yu	-9.62095
▁Süper	-9.62135
▁aldığını	-9.62158
▁çıkması	-9.62229
▁Başbakanı	-9.62289
▁Bak	-9.6231
▁Uzun	-9.62322
▁arası	-9.62335
▁dünyaya	-9.6235
▁Adalet	-9.6235
▁sat	-9.62468
▁ölü	-9.62472
SA	-9.62642
▁Uğur	-9.62668
▁Har	-9.62707
▁devletin	-9.62722
▁At	-9.62724
▁edin	-9.62739
isi	-9.62754
▁yetkililer	-9.62862
▁kalk	-9.62906
bar	-9.62928
▁alması	-9.62954
▁45	-9.62998
▁Şen	-9.63008
▁Böylece	-9.63095
▁uyarı	-9.631
▁öğren	-9.63193
düğü	-9.63238
▁kes	-9.63244
▁muhalefet	-9.63264
▁yetkili	-9.63355
10	-9.63385
sizlik	-9.63418
▁2010	-9.63512
▁Ser	-9.63612
▁antrenman	-9.63645
▁kalp	-9.63687
cılık	-9.63692
▁genelinde	-9.63703
▁öldü	-9.63741
mesini	-9.63764
▁Turizm	-9.63868
▁hızla	-9.63899
Bahçe	-9.63953
sh	-9.64072
▁gönder	-9.64074
çu	-9.64096
▁şüpheli	-9.64113
▁mesaj	-9.64147
▁çıkma	-9.64157
▁beyaz	-9.64161
masına	-9.64176
▁nedeni	-9.64246
▁verir	-9.64325
▁2015	-9.64334
▁ihracat	-9.64391
www	-9.64412
aş	-9.64496
▁Bush	-9.64515
▁ilginç	-9.64528
zer	-9.64534
▁çıkış	-9.6461
▁dağ	-9.64617
dum	-9.64656
▁Ağır	-9.647
UN	-9.64756
EM	-9.64774
▁gösteriyor	-9.64845
üncü	-9.64858
▁mali	-9.64858
▁Ara	-9.64869
TE	-9.64874
▁Komitesi	-9.64887
▁Söz	-9.64927
▁olmaya	-9.64943
▁der	-9.64954
▁gelmesi	-9.64958
ası	-9.64987
▁seyirci	-9.65
▁sürü	-9.65038
▁otel	-9.65048
aç	-9.6507
▁İs	-9.65094
gerçekleştirilen	-9.65129
▁Jandarma	-9.65183
▁etkisi	-9.65242
▁İyi	-9.65259
▁edilecek	-9.65302
DEN	-9.65316
▁çıktığı	-9.65388
▁0	-9.65394
▁bakan	-9.65521
▁lider	-9.65543
▁VE	-9.65578
▁oynadığı	-9.65666
▁inşa	-9.65677
▁amacı	-9.65714
▁alır	-9.65756
▁Gür	-9.65773
av	-9.65847
▁doğrultusunda	-9.65849
▁onlar	-9.65855
▁konuşmada	-9.65899
▁aşağı	-9.65899
▁rakibi	-9.65905
lardı	-9.65936
mar	-9.65945
baş	-9.65964
bay	-9.6598
▁gördü	-9.66005
▁ver	-9.66051
▁Van	-9.66068
eli	-9.66105
▁2009	-9.6611
▁öğrencisi	-9.66204
▁değişiklik	-9.66235
▁Böyle	-9.66245
▁uyar	-9.66258
▁binlerce	-9.66266
▁siyaset	-9.66269
▁almaya	-9.66352
laştır	-9.66407
lardır	-9.66416
▁tutuklu	-9.66423
▁tanım	-9.66436
▁büyü	-9.66475
▁dolayısıyla	-9.6649
▁Burcu	-9.66521
şa	-9.66545
▁gıda	-9.66693
▁ayrıldı	-9.66754
cılar	-9.66756
▁Süleyman	-9.66801
▁kuş	-9.66878
▁kadınların	-9.66885
▁esas	-9.66887
▁iletişim	-9.66914
▁olmasını	-9.66918
TO	-9.67058
▁Kaza	-9.67065
▁Seçim	-9.67101
▁İç	-9.67113
hat	-9.67119
▁düşünüyorum	-9.67167
▁halka	-9.67198
▁Günlük	-9.67216
▁doğum	-9.67323
abiliyor	-9.67329
▁yük	-9.6736
YE	-9.67366
▁oyunu	-9.67374
▁çay	-9.674
▁kupa	-9.67431
▁istediğini	-9.67433
▁geçirdi	-9.67471
▁borç	-9.67556
▁risk	-9.67587
▁finans	-9.67704
▁onların	-9.6775
▁Müslüman	-9.67778
▁lise	-9.67789
▁inşaat	-9.67822
▁icin	-9.67827
▁Gençlik	-9.67926
ron	-9.67961
▁gelin	-9.68013
eri	-9.68019
yken	-9.68023
▁Komutanlığı	-9.68058
▁koy	-9.68149
▁kadının	-9.68154
▁cami	-9.68164
40	-9.68273
▁Türkçe	-9.68331
▁civarında	-9.68406
▁bunların	-9.68414
lerdir	-9.68438
▁götür	-9.68461
▁insanın	-9.68465
▁koydu	-9.6849
İR	-9.6849
▁ye	-9.68497
▁programı	-9.68506
▁pa	-9.68525
▁kamera	-9.68529
▁asıl	-9.68534
zar	-9.68544
▁dolara	-9.68558
▁tiyatro	-9.68561
▁Va	-9.68624
▁bulunması	-9.68634
cak	-9.68654
▁belge	-9.6867
▁fırsat	-9.68716
Sa	-9.68742
AK	-9.68797
nizi	-9.68817
▁halkı	-9.68843
har	-9.68892
yü	-9.68909
▁Mısır	-9.68962
▁yavaş	-9.68962
nızı	-9.68976
▁öğrencilerin	-9.69005
aj	-9.69016
dıklarını	-9.69067
ıldığını	-9.69073
▁Ze	-9.69092
▁doğa	-9.69093
▁2011	-9.69107
▁arttı	-9.69121
tür	-9.69131
▁kaldırıldı	-9.6914
▁Çinli	-9.69153
▁talebi	-9.69181
▁falan	-9.69236
elim	-9.69245
İZ	-9.69292
▁tamamladı	-9.6937
▁kullanma	-9.69401
▁Afganistan	-9.69401
▁Küçük	-9.69456
▁fikir	-9.69481
▁konuk	-9.6953
▁toplantısı	-9.69538
▁verdiğini	-9.69543
▁Şampiyonası	-9.69656
▁denetim	-9.69761
▁va	-9.69766
yum	-9.69842
▁kardeşi	-9.69889
amadı	-9.69989
▁iktidar	-9.70021
▁tut	-9.70036
▁Takım	-9.70094
▁fuar	-9.70116
▁ter	-9.70131
leş	-9.70224
▁bulun	-9.70227
▁önde	-9.70268
mp	-9.70302
▁kaldığı	-9.70335
Ya	-9.70391
▁hoca	-9.70401
▁şiddet	-9.70475
▁Sezer	-9.70487
SI	-9.70541
▁kentinde	-9.70627
ME	-9.70674
▁göster	-9.70692
pi	-9.70721
▁düzen	-9.70727
▁2000	-9.70752
▁dediği	-9.70879
süz	-9.70917
bey	-9.70943
▁hız	-9.70946
▁görmek	-9.70962
ang	-9.71026
▁ülkelerin	-9.71066
▁Mersin	-9.71135
▁kaçak	-9.71187
▁Kanunu	-9.71188
▁emniyet	-9.7123
▁Ja	-9.7128
▁içeri	-9.7138
▁şikayet	-9.71413
▁sorunları	-9.71465
iyoruz	-9.71508
▁Kılıçdaroğlu	-9.71524
▁adamı	-9.71538
▁hepsi	-9.71542
▁sayısının	-9.7156
▁Bil	-9.71572
▁Car	-9.71578
▁ayak	-9.71677
▁halen	-9.71754
ınca	-9.71763
▁oldukları	-9.71816
▁fiyatı	-9.71824
▁ortadan	-9.71922
▁Sonra	-9.72031
▁Meydanı	-9.72074
▁çağrı	-9.72152
ser	-9.72179
▁galibiyet	-9.72183
▁ekledi	-9.72217
ÜN	-9.72249
yar	-9.72302
ster	-9.7233
▁Bay	-9.72344
▁okuma	-9.72441
▁işler	-9.72518
▁yasal	-9.72642
▁öğretim	-9.72747
▁uyu	-9.72869
▁gurur	-9.7289
▁http	-9.72899
dıkları	-9.72928
▁belirtilen	-9.73016
▁kendilerini	-9.73038
gel	-9.73093
▁İspanya	-9.73129
▁kaleci	-9.73151
duğunu	-9.73203
▁Ramazan	-9.73249
▁çıkardı	-9.73267
▁evinde	-9.733
rı	-9.733
▁ada	-9.73385
izm	-9.7346
▁eve	-9.73525
▁dev	-9.73527
▁topu	-9.73545
15	-9.73577
▁sağlayan	-9.73602
▁yapacağı	-9.73617
▁Konya	-9.73633
▁Ter	-9.73691
▁ettiklerini	-9.73777
cilik	-9.73817
▁saç	-9.73843
▁alışveriş	-9.73866
▁kentin	-9.73981
tiği	-9.74002
▁ailesi	-9.74008
▁katıl	-9.74013
▁ç	-9.7402
▁maçın	-9.7408
▁ekran	-9.74087
DI	-9.74096
▁futbolcular	-9.741
▁sebep	-9.74122
▁maddi	-9.74154
▁biçimde	-9.7418
▁Pazar	-9.7418
▁toplu	-9.74189
▁bunları	-9.7422
▁Gu	-9.74235
▁yoksa	-9.74249
mızın	-9.74256
şan	-9.74278
▁bıraktı	-9.74343
▁Afrika	-9.74378
▁sermaye	-9.74457
▁merak	-9.74502
şehir	-9.74504
▁eğer	-9.74595
Kİ	-9.74631
abileceği	-9.74664
gun	-9.74689
▁Sultan	-9.747
Saray	-9.74744
▁Yer	-9.74832
nd	-9.74854
▁modern	-9.74884
▁Valisi	-9.74955
bank	-9.74962
▁dahi	-9.75084
▁anlamda	-9.75121
zan	-9.75134
liyor	-9.7517
▁temsilcileri	-9.75229
▁yayınlanan	-9.75233
▁umut	-9.75317
▁arkadaş	-9.75325
?"	-9.75337
▁Tarım	-9.75416
lamak	-9.75416
▁Üyesi	-9.75434
▁ikili	-9.75449
▁hizmeti	-9.75451
likle	-9.75475
▁kayıp	-9.75528
lim	-9.75531
▁Gaziantep	-9.75536
▁gereği	-9.75581
▁çiz	-9.75596
▁Selçuk	-9.75614
▁vermesi	-9.75635
▁attığı	-9.75656
▁gelip	-9.75662
▁hastaneye	-9.75666
▁kaybı	-9.75689
▁verilecek	-9.75751
▁edildiğini	-9.75772
▁denge	-9.75788
▁yetki	-9.75845
▁kampanya	-9.75874
▁Emre	-9.75891
▁seç	-9.75919
▁istediklerini	-9.75939
▁gazeteci	-9.75975
Ne	-9.76059
yarak	-9.76092
▁girme	-9.76101
LU	-9.76159
▁es	-9.76166
▁değişikliği	-9.76224
▁itibariyle	-9.7624
▁acil	-9.76256
tor	-9.76318
▁bilgiler	-9.76331
gü	-9.76375
▁içindeki	-9.76378
▁yapar	-9.76389
▁Metin	-9.76445
▁kısmı	-9.76491
▁anlamına	-9.76541
▁hafif	-9.76579
▁yapması	-9.76593
▁Cem	-9.76599
▁demokratik	-9.76614
eş	-9.76633
▁Japonya	-9.76644
▁uzman	-9.76653
▁Yeşil	-9.76659
▁görüşü	-9.76676
▁denildi	-9.7672
▁eğitimi	-9.76726
▁açılış	-9.76727
▁ağ	-9.76798
LARI	-9.76812
▁gelerek	-9.76837
larımızın	-9.76847
▁başladığı	-9.76867
▁Hal	-9.76878
cık	-9.76882
▁Çalışma	-9.76887
Ba	-9.7689
▁işe	-9.7697
▁gerektiği	-9.76978
▁çalışmalarına	-9.77045
▁uyuşturucu	-9.77071
▁yönetmen	-9.77098
▁patlama	-9.77109
▁anlayışı	-9.77208
▁don	-9.77216
demir	-9.77224
▁the	-9.77232
▁meslek	-9.77281
▁devre	-9.77292
▁Vakfı	-9.77353
▁güneş	-9.77368
▁Gazetesi	-9.77389
▁yaşandı	-9.77397
▁Ülke	-9.77398
▁yerini	-9.77413
▁düzenlenecek	-9.77443
▁yıla	-9.77458
▁Günü	-9.77543
▁aykırı	-9.77666
ket	-9.77747
▁Holding	-9.77791
tr	-9.77814
▁taşıma	-9.77872
▁kış	-9.77934
▁Çetin	-9.77973
▁kullanan	-9.78019
▁Pi	-9.7802
ong	-9.78112
▁karakter	-9.78215
▁görülen	-9.78217
▁t	-9.7822
▁harekete	-9.78343
mayacak	-9.78386
▁man	-9.78393
▁değeri	-9.78418
▁Barış	-9.78482
gül	-9.78501
▁rahatsız	-9.78574
▁Per	-9.78603
▁Savunma	-9.78611
▁uygulaması	-9.78613
▁Jo	-9.78636
laması	-9.78682
▁bebek	-9.78683
Tİ	-9.7872
İK	-9.78768
▁süreç	-9.78814
▁Yunan	-9.78905
▁güvenliği	-9.78954
▁açıldı	-9.79087
▁gidiyor	-9.79109
▁Akdeniz	-9.7913
▁Siz	-9.79133
▁Han	-9.79174
▁yaşlı	-9.79183
▁tüketici	-9.79193
hal	-9.79195
-2	-9.79263
asyon	-9.79297
▁kaynağı	-9.79323
▁başkenti	-9.79352
▁hata	-9.79376
▁kuzey	-9.79399
▁dikkati	-9.7944
▁vur	-9.79508
▁davran	-9.79513
▁hedefi	-9.79516
amayan	-9.79647
▁aklı	-9.79667
▁piyasa	-9.79669
▁farkı	-9.79679
▁yağmur	-9.79701
▁planı	-9.79769
▁olası	-9.79809
▁onur	-9.79838
zı	-9.79845
▁Lisesi	-9.79894
19	-9.79929
▁tribün	-9.7995
eceğiz	-9.79951
▁Kaynakça	-9.8002
▁2001	-9.80023
▁taşın	-9.80152
medi	-9.80219
▁duygu	-9.80276
▁kesinlikle	-9.80281
▁kenti	-9.80322
ly	-9.80324
▁sohbet	-9.804
▁sağlayacak	-9.80428
▁kanıt	-9.80429
▁batı	-9.80453
▁Savaşı	-9.80462
▁gram	-9.80488
oloji	-9.8057
▁Yorumu	-9.80621
▁Maliye	-9.80641
▁Aile	-9.80654
▁koşulları	-9.8067
▁mah	-9.80682
mayan	-9.80703
▁bağımsız	-9.80739
▁Yaklaşık	-9.80794
▁haberi	-9.80827
▁bulunma	-9.80904
▁istihdam	-9.80917
▁Kılıç	-9.80917
▁Sar	-9.80931
▁hayatı	-9.80952
ker	-9.80981
rma	-9.80987
▁yalan	-9.81005
▁onları	-9.81088
▁bal	-9.81089
▁Tur	-9.81117
▁olacaktır	-9.81202
dağ	-9.81242
▁verilme	-9.81252
▁Engin	-9.81271
▁kavga	-9.81274
layıp	-9.81275
ysa	-9.81307
▁Benim	-9.81318
▁performans	-9.81331
lenme	-9.81344
▁co	-9.81371
▁ticari	-9.81371
rek	-9.81391
▁oyuncusu	-9.81443
▁cinsel	-9.81443
makta	-9.81495
dal	-9.81509
▁gittiği	-9.81538
▁gidip	-9.81632
lendiği	-9.81668
▁Okulu	-9.81675
▁Anne	-9.81713
▁dans	-9.81834
▁Paris	-9.81862
Ma	-9.81863
▁Direktörü	-9.81865
ebilecek	-9.81933
▁ameliyat	-9.81959
▁SA	-9.81977
▁Arap	-9.81995
▁birisi	-9.81999
▁yıllar	-9.82004
dil	-9.8208
je	-9.82113
rat	-9.82152
▁personel	-9.82198
kal	-9.82208
*	-9.82221
▁Nur	-9.82262
▁çıkart	-9.82292
▁İşleri	-9.82379
▁orman	-9.82405
▁Basın	-9.82418
▁cesedi	-9.82418
▁Müdür	-9.82515
▁yanına	-9.82528
▁ulusal	-9.82555
▁amaç	-9.82631
▁senin	-9.82676
tt	-9.82716
▁Hi	-9.82717
▁Haber	-9.82723
lanacak	-9.8275
▁kardeş	-9.82818
▁Kal	-9.82833
▁34	-9.82867
▁aşk	-9.82922
▁video	-9.82946
▁kas	-9.82967
▁hoş	-9.82969
nuz	-9.82981
▁Var	-9.82995
▁dolaş	-9.83
▁oturan	-9.83002
seniz	-9.83033
▁şart	-9.83041
▁ifadelerini	-9.83055
▁Fakat	-9.83086
▁Yaşar	-9.83118
▁Yapılan	-9.83142
▁kaybeden	-9.83212
lardaki	-9.83226
les	-9.83257
▁payı	-9.83318
▁Genelkurmay	-9.83343
ES	-9.83352
▁sözü	-9.83362
▁yağış	-9.83462
▁pi	-9.83465
▁belirlenen	-9.8348
60	-9.83538
uk	-9.83608
larımızı	-9.83625
▁toplanan	-9.8365
▁Önce	-9.83654
emez	-9.83662
▁bırakma	-9.83674
▁fe	-9.83688
▁çalıştığı	-9.83704
AM	-9.83803
▁süredir	-9.83822
OR	-9.83878
▁dili	-9.83932
▁yaparken	-9.83973
▁gitmek	-9.83981
▁almış	-9.84034
▁yerli	-9.8405
▁uzay	-9.84082
▁tablo	-9.84083
rim	-9.84099
bet	-9.84105
İş	-9.84124
▁füze	-9.84143
▁kongre	-9.84147
▁m	-9.84166
bı	-9.84173
▁bağış	-9.84181
▁Ab	-9.8419
▁tahliye	-9.8421
ücü	-9.84239
▁hasar	-9.84294
ven	-9.84296
▁savundu	-9.84369
▁kendine	-9.84389
▁cinayet	-9.84415
▁düşüş	-9.8442
müz	-9.84422
▁taşı	-9.84476
▁Proje	-9.84485
▁gelme	-9.84528
meden	-9.84533
▁adalet	-9.84563
▁tazminat	-9.84612
▁raporu	-9.84627
▁Öztürk	-9.84635
mesine	-9.84678
▁tedavisi	-9.84735
▁insanları	-9.84748
▁otur	-9.84818
▁tip	-9.84842
▁yaygın	-9.84884
▁yaşıyor	-9.84939
▁ayağı	-9.84954
ET	-9.85104
ris	-9.85105
▁sana	-9.85118
▁400	-9.85137
▁ku	-9.85148
▁yalnızca	-9.85168
▁Kay	-9.85176
▁elinde	-9.85218
Türk	-9.85227
▁bilgileri	-9.85269
▁cam	-9.85308
▁Sadece	-9.85365
▁şirketin	-9.85401
▁sizi	-9.8543
▁cenaze	-9.85453
▁davası	-9.85579
▁masa	-9.85606
▁Kayseri	-9.85617
RE	-9.85631
▁Güzel	-9.85632
TÜ	-9.85634
▁getirildi	-9.85654
▁balık	-9.85661
▁Trabzon	-9.85678
▁ışık	-9.85691
▁sürdürdü	-9.85732
▁sahte	-9.85762
▁üret	-9.85763
▁parçası	-9.8577
▁açıklandı	-9.85798
▁yakından	-9.85816
▁Kim	-9.85853
▁yolunda	-9.85865
▁du	-9.85867
▁pe	-9.85884
IM	-9.85917
▁çöz	-9.85934
▁kimliği	-9.85937
▁Ana	-9.85938
▁kitle	-9.85977
▁kesim	-9.86056
▁yükseldi	-9.86062
▁olun	-9.86082
▁halkının	-9.86095
iyorum	-9.86103
▁150	-9.86142
11	-9.86142
▁sinir	-9.86146
▁geçiş	-9.86302
▁kıl	-9.86372
bur	-9.86377
uş	-9.86382
▁isteği	-9.86399
▁dök	-9.86426
▁tutuk	-9.86465
▁Kore	-9.86468
▁Yan	-9.8649
▁Dün	-9.86492
▁edil	-9.86552
▁başbakan	-9.86581
▁Orman	-9.86625
▁Bütün	-9.86642
▁yay	-9.86684
▁Tan	-9.86708
▁ifadesini	-9.8671
▁kelime	-9.86739
▁32	-9.86848
▁kullanımı	-9.86866
▁açılması	-9.86886
▁Washington	-9.86902
▁karşılaşma	-9.86965
▁seviye	-9.87002
▁Salonu	-9.87032
▁dağıt	-9.87048
▁rekabet	-9.87062
▁Güneş	-9.87072
▁Kuvvetleri	-9.87124
▁açtığı	-9.87271
▁evine	-9.87308
▁birinin	-9.87317
▁İtalyan	-9.87324
fet	-9.87378
▁Parkı	-9.87437
▁anlama	-9.87514
▁kurulması	-9.87564
▁Orhan	-9.87569
▁jandarma	-9.87615
▁izledi	-9.87645
▁karşın	-9.87678
▁to	-9.87725
▁ülkeler	-9.87787
▁işletme	-9.87822
▁Güler	-9.87887
▁Ünlü	-9.87893
▁tarafı	-9.87943
▁Hem	-9.88008
lanarak	-9.88031
▁gelmiş	-9.88041
▁edeceğiz	-9.88083
stan	-9.88141
▁hakları	-9.88249
▁bölgeye	-9.8826
vo	-9.88307
▁işin	-9.88334
mayın	-9.88339
▁sap	-9.88397
▁beklenen	-9.88474
▁katılma	-9.88588
▁yapıldığını	-9.88634
▁değişiklikler	-9.88771
▁uğra	-9.88776
▁geçme	-9.88776
▁ulaşım	-9.88859
landığını	-9.88903
▁Sen	-9.88918
▁çatışma	-9.88966
▁hatırlatan	-9.89027
▁olmuştur	-9.89036
▁Hukuk	-9.89072
▁Kurul	-9.89099
▁bil	-9.89173
▁olaylar	-9.89227
▁rakam	-9.89299
lerimizi	-9.89318
İT	-9.89322
▁yolda	-9.89326
▁bar	-9.89393
nızda	-9.89473
▁Fer	-9.8951
▁söylen	-9.89547
▁olmaması	-9.89629
▁Açık	-9.89674
▁Buca	-9.897
AB	-9.89714
▁taraf	-9.89718
▁satışı	-9.8977
lerimizin	-9.89804
lendirme	-9.89848
so	-9.89849
▁Yusuf	-9.89857
lari	-9.899
ğa	-9.89903
▁tabii	-9.89916
▁kültürel	-9.89985
▁dönemi	-9.90047
▁hattı	-9.90065
türk	-9.90134
▁gidecek	-9.90144
▁har	-9.9024
▁Gazete	-9.90272
▁İz	-9.90292
lerdeki	-9.90321
▁Ukrayna	-9.90337
ff	-9.90357
▁dini	-9.90361
zu	-9.90404
▁başkanları	-9.9041
▁görevini	-9.90422
▁İçişleri	-9.90425
▁kitabı	-9.905
meyi	-9.90526
▁yılından	-9.906
▁Es	-9.90644
▁oyuncular	-9.90654
▁yaptık	-9.90655
▁Bin	-9.90686
▁içeren	-9.90696
kim	-9.90705
mur	-9.90744
▁açıklaması	-9.90799
LERİ	-9.90861
▁Sekreteri	-9.9087
▁yüzü	-9.90899
ow	-9.90932
▁değerli	-9.90986
▁memnun	-9.91055
esi	-9.91113
▁oynayan	-9.91145
▁Fe	-9.91157
▁sıkı	-9.91223
▁kurtar	-9.91228
▁dalga	-9.91236
▁yaralanan	-9.91241
mon	-9.91276
▁edilme	-9.91285
ram	-9.91346
▁kişiye	-9.91349
ks	-9.91358
▁Park	-9.91371
▁pozisyon	-9.91412
tra	-9.91483
▁uğraş	-9.91504
rem	-9.91529
lamış	-9.91569
▁anayasa	-9.91599
▁çarptı	-9.91622
şu	-9.91627
▁Yargıtay	-9.91648
▁onlara	-9.91733
▁turist	-9.91751
▁Artık	-9.9178
▁it	-9.9185
▁yapılıyor	-9.91855
▁mezun	-9.91893
DAN	-9.91979
▁test	-9.92052
▁seri	-9.9206
▁belirtiliyor	-9.9208
ep	-9.92081
▁liraya	-9.92127
▁töreni	-9.92132
▁Bel	-9.92173
▁sorumluluk	-9.92202
▁zanlı	-9.92233
▁Güven	-9.92299
▁bünyesinde	-9.923
eği	-9.92308
ilmiş	-9.92355
▁Cuma	-9.92371
lerce	-9.92393
uncu	-9.92482
▁ürünleri	-9.92494
▁çağır	-9.92529
▁kurban	-9.92532
üs	-9.92545
▁cok	-9.92563
▁haberine	-9.92579
▁John	-9.92644
yol	-9.92692
▁noktada	-9.92711
▁yapısı	-9.92739
▁Üç	-9.92808
▁yürü	-9.92838
▁Açıklamada	-9.92846
▁gönderdi	-9.92863
▁gezi	-9.92872
▁yönel	-9.929
▁sonuçları	-9.92934
▁isimler	-9.92952
▁Ümit	-9.92956
lenmiş	-9.93022
▁Halil	-9.93023
▁turnuva	-9.93023
▁tekne	-9.93074
▁tanıt	-9.93079
▁yüksel	-9.93079
▁soğuk	-9.93091
▁Hazine	-9.93097
ski	-9.93124
▁paket	-9.93126
▁sordu	-9.93141
▁Kır	-9.93145
lenecek	-9.93174
▁merkezinde	-9.93175
ıt	-9.93244
meli	-9.93294
val	-9.93311
▁adamları	-9.93332
▁kişiyi	-9.9336
▁rakip	-9.9337
▁hat	-9.93371
▁aracın	-9.93412
▁Fi	-9.93421
▁gösterdiği	-9.93452
ED	-9.93525
▁tesis	-9.93556
▁anlaş	-9.93565
▁Hollanda	-9.93637
▁Festivali	-9.93673
▁açan	-9.93729
▁Arslan	-9.93757
▁standart	-9.93759
▁döviz	-9.93796
▁kale	-9.9381
▁Mücadele	-9.93831
▁demir	-9.93842
▁değiş	-9.93845
abileceğini	-9.93867
▁Bilim	-9.93921
sün	-9.93991
▁doktor	-9.94097
▁sor	-9.94102
▁laf	-9.94116
▁toplumun	-9.94121
▁kurtul	-9.94134
▁türkiye	-9.9414
kin	-9.94157
▁oynadı	-9.94169
▁heyet	-9.94195
▁sanık	-9.94236
▁girişim	-9.94259
▁fabrika	-9.94289
leniyor	-9.94308
yecek	-9.94313
▁Bundan	-9.94326
▁olimpiyat	-9.94349
▁bekliyor	-9.94356
▁Erzurum	-9.94423
▁çiçek	-9.94423
▁bo	-9.94457
▁aşama	-9.94463
▁am	-9.94471
▁ayda	-9.94507
▁intihar	-9.94571
paşa	-9.94608
yip	-9.94628
▁başlaması	-9.9473
LAN	-9.94736
▁kararını	-9.94855
▁dal	-9.94886
▁mar	-9.94968
▁doğrudan	-9.94982
▁sorunlar	-9.95006
▁girdiği	-9.95031
▁bölümünde	-9.95043
▁ilçesi	-9.95112
▁sendika	-9.95173
▁görüştü	-9.95182
▁bölüm	-9.95236
▁mağdur	-9.95267
yacak	-9.95277
▁evi	-9.95289
▁tren	-9.95312
▁alkış	-9.95333
▁Gör	-9.95338
▁Obama	-9.95392
▁türk	-9.95442
lis	-9.95466
▁zemin	-9.95467
▁lig	-9.95615
▁ga	-9.95627
sem	-9.9564
▁gerekçe	-9.95649
▁Yayın	-9.95698
▁sözlerini	-9.95707
12	-9.95717
maları	-9.95724
▁sağladı	-9.9577
▁bilme	-9.95773
lt	-9.95813
LIK	-9.9583
▁olmadan	-9.95861
▁süt	-9.95865
ral	-9.95876
▁bitki	-9.9607
ben	-9.96079
▁uçuş	-9.96203
▁geleneksel	-9.96229
▁İngilizce	-9.96262
hir	-9.96268
▁vatan	-9.96278
▁helikopter	-9.96294
▁sürpriz	-9.96294
▁kimlik	-9.96312
▁4.	-9.96361
▁silahlı	-9.96364
miyorum	-9.96382
▁düzenlendi	-9.96442
▁UEFA	-9.96445
▁kut	-9.96461
▁başar	-9.96474
▁insanı	-9.96527
▁alış	-9.96554
tro	-9.96575
▁Herkes	-9.9659
▁tuz	-9.9661
▁yılının	-9.96631
▁Ju	-9.96658
▁Baykal	-9.9668
▁uyum	-9.96723
▁hücre	-9.96748
▁izle	-9.968
▁kendisinin	-9.96826
▁arkasında	-9.96834
▁başlıyor	-9.96869
▁olmalı	-9.96951
▁inanıyorum	-9.97
▁saf	-9.97017
AŞ	-9.97031
▁kuvvet	-9.97046
▁kullanarak	-9.97069
▁aracılığıyla	-9.97074
kol	-9.9711
▁şiir	-9.9713
don	-9.97189
▁değişik	-9.97198
▁Salih	-9.97213
tör	-9.97215
▁girmesi	-9.97215
▁geçerli	-9.97232
ue	-9.97241
▁mektup	-9.97281
▁euro	-9.97281
▁sayfa	-9.97281
▁dernek	-9.97286
NA	-9.97303
▁anlam	-9.97327
▁Ci	-9.97329
▁göç	-9.97336
▁kere	-9.97351
▁organizasyon	-9.97395
▁sorgu	-9.97397
.’’	-9.97432
▁seçimi	-9.97528
▁Demirel	-9.97545
▁Çanakkale	-9.97574
▁millet	-9.976
▁Konu	-9.97657
▁uç	-9.97692
iği	-9.97696
45	-9.97749
▁Bunlar	-9.97752
▁kaynakları	-9.97853
▁or	-9.97885
▁tavsiye	-9.97893
▁bekleyen	-9.97905
▁so	-9.97917
▁vererek	-9.97945
▁sitesi	-9.97962
▁bakış	-9.97973
▁politikası	-9.9801
▁meyve	-9.98047
▁yapılmış	-9.98071
raf	-9.98142
madığı	-9.98149
▁boyu	-9.98175
▁İSTANBUL	-9.98186
▁buluştu	-9.98243
kat	-9.98287
▁heyecan	-9.98299
lanır	-9.98313
▁küresel	-9.98355
▁şeker	-9.98356
▁amaçlı	-9.9836
▁kimsenin	-9.98387
▁Suriyeli	-9.98403
▁sözleri	-9.98411
▁süresi	-9.98458
▁olayları	-9.98459
nıza	-9.98511
▁ortam	-9.98566
▁AA	-9.98566
▁Şubesi	-9.98582
▁teşvik	-9.98587
▁Davutoğlu	-9.98594
▁ısı	-9.98628
▁vermeye	-9.98666
▁temsilcisi	-9.98759
▁ilerleme	-9.98838
▁bey	-9.98843
▁yazdığı	-9.98862
▁po	-9.98868
wi	-9.98884
▁boz	-9.98899
▁kurma	-9.98905
ent	-9.98915
▁resim	-9.98926
▁gerçekleşti	-9.98973
▁ca	-9.98985
▁yatır	-9.98996
▁km	-9.99
▁(19	-9.99033
▁Ekonomi	-9.99072
▁pay	-9.99081
▁çekiyor	-9.99115
-1	-9.99157
▁basit	-9.99197
▁maddesi	-9.99203
sti	-9.99221
▁açıklamasında	-9.99286
▁gördüğü	-9.99329
GE	-9.9935
▁Yap	-9.99376
▁tören	-9.99396
▁Avusturya	-9.99407
▁uygulan	-9.99434
▁sahada	-9.99448
▁güney	-9.99475
▁güçleri	-9.99571
▁Savaş	-9.99582
▁oku	-9.99593
▁imkanı	-9.99606
▁yaptır	-9.9961
▁36	-9.99612
▁Karar	-9.99614
▁Okul	-9.99617
▁Gece	-9.99628
▁yaşadı	-9.99636
▁göreve	-9.99649
▁alacağı	-9.99654
▁:	-9.99666
▁pas	-9.99685
▁St	-9.99713
▁oran	-9.99747
▁reform	-9.9975
▁olmayı	-9.99754
ilir	-9.99754
▁ölen	-9.99757
▁fiyatları	-9.99765
▁temas	-9.99805
dere	-9.99809
▁alınacak	-9.99813
▁ettiler	-9.99829
larındaki	-9.99874
▁katılım	-9.99876
▁iste	-9.99904
▁cümle	-9.99913
ilecek	-9.99942
▁enflasyon	-9.9996
wa	-10
▁yaptıklarını	-10.0002
▁polisin	-10.0004
▁konuyla	-10.0004
▁köpek	-10.0007
▁Karadeniz	-10.0008
gı	-10.0009
▁şampiyon	-10.0011
▁Kamu	-10.0011
▁başarılar	-10.0012
80	-10.0015
▁Muğla	-10.0022
▁tipi	-10.0025
▁Filistin	-10.0026
▁getirdiği	-10.0027
▁kalması	-10.0033
▁Lu	-10.0033
▁DA	-10.0034
▁açma	-10.0035
▁Bilgi	-10.004
RI	-10.0044
▁ho	-10.0044
▁Eskişehir	-10.0045
▁IMF	-10.0047
▁Gökhan	-10.005
laştırma	-10.0051
▁getirme	-10.0052
par	-10.0058
▁hali	-10.0058
top	-10.0061
▁Samsun	-10.0061
▁konferans	-10.0062
▁teklifi	-10.0063
▁çizgi	-10.0068
▁çocuğun	-10.0071
▁ayır	-10.0073
▁memur	-10.0074
▁bulma	-10.0084
▁sok	-10.0087
▁kamyon	-10.009
rit	-10.0093
▁köşe	-10.0096
▁gerçekleşen	-10.01
▁nüfus	-10.0101
bek	-10.0103
bat	-10.0104
EK	-10.0111
dy	-10.0114
▁kulübün	-10.0115
▁gez	-10.0116
▁nükleer	-10.0117
▁dikkate	-10.0118
01	-10.0126
▁beyin	-10.0127
▁taraftar	-10.0139
▁açıdan	-10.0139
▁bazen	-10.014
leyerek	-10.0148
Gö	-10.0152
▁ziyareti	-10.0157
▁saniye	-10.0159
▁250	-10.0162
▁pilot	-10.0164
▁sonuçlar	-10.0165
▁özelliği	-10.0166
▁sağlanması	-10.0172
▁itfaiye	-10.0173
▁yukarı	-10.0173
▁tehlike	-10.0176
▁duruma	-10.0178
▁yıllardır	-10.0179
▁he	-10.0189
▁hakkını	-10.0192
▁bulan	-10.0195
▁buraya	-10.0198
▁Tel	-10.0199
▁Baba	-10.0201
▁Go	-10.0203
▁Hükümet	-10.0204
▁türü	-10.0205
▁Adnan	-10.0205
▁motor	-10.0209
▁Koca	-10.0209
madığını	-10.0212
▁geçir	-10.0213
▁edilmiş	-10.0221
diğimiz	-10.0223
iyeti	-10.0227
IZ	-10.0232
digi	-10.0236
ab	-10.0238
▁duvar	-10.0239
▁liralık	-10.0243
ans	-10.0243
▁Çek	-10.0245
▁karış	-10.0245
▁süreçte	-10.0248
▁geçirme	-10.025
▁İsviçre	-10.025
▁gül	-10.0253
▁)	-10.0253
▁şok	-10.0254
istan	-10.0254
▁haklı	-10.0256
▁Özdemir	-10.0256
▁numara	-10.0258
▁bedeli	-10.026
▁artması	-10.0262
▁şansı	-10.0271
larken	-10.0272
▁geçirdiği	-10.0272
▁Kur	-10.0275
ham	-10.0277
▁gözü	-10.0279
▁işle	-10.0287
▁dua	-10.0288
▁kartı	-10.0292
▁miktarı	-10.0292
▁ettikleri	-10.0295
EY	-10.03
▁Yasa	-10.0307
▁Twitter	-10.0309
altı	-10.0312
▁kaçır	-10.0317
▁festival	-10.0318
mekte	-10.032
duk	-10.0321
▁Beyaz	-10.0324
▁kahraman	-10.0326
▁anket	-10.0332
che	-10.0333
▁algı	-10.0334
▁kaydı	-10.0334
▁şans	-10.0334
▁Ala	-10.0337
▁ücretsiz	-10.0339
▁hastanede	-10.034
meyecek	-10.0347
▁mesajı	-10.0351
14	-10.0355
▁bekle	-10.0355
▁sürecinde	-10.0357
▁maden	-10.0362
düğünü	-10.0364
▁ettik	-10.0371
▁eşliğinde	-10.0374
amayacak	-10.0376
▁Bayramı	-10.0378
▁aşkın	-10.0383
▁bildiri	-10.0386
▁meydan	-10.0386
▁etmişti	-10.0387
▁daire	-10.0388
▁açıklamaya	-10.0392
.1	-10.0393
▁Sinan	-10.04
▁muhabirine	-10.0401
bra	-10.041
ebileceği	-10.0412
EV	-10.0414
▁bekliyoruz	-10.0419
▁özgürlük	-10.0433
▁miting	-10.0433
▁Mer	-10.0442
▁gor	-10.0442
ebileceğini	-10.0443
kü	-10.0443
▁33	-10.0444
▁Roma	-10.0444
▁çöp	-10.0448
▁eşit	-10.045
▁eşya	-10.0456
mik	-10.0458
UZ	-10.0474
▁Or	-10.0475
▁roman	-10.0475
▁sakin	-10.0477
▁Sch	-10.0478
▁yatak	-10.0485
▁eyalet	-10.0487
▁ANKARA	-10.0489
▁ilişkileri	-10.0493
▁yön	-10.0494
▁kaybed	-10.0496
▁Sokak	-10.0497
▁yönde	-10.0501
▁duyurdu	-10.0502
▁Yalçın	-10.0505
▁borsa	-10.0505
Her	-10.0512
kte	-10.0515
ettin	-10.0517
▁Bayram	-10.0518
▁altyapı	-10.052
şı	-10.0523
▁katılımcı	-10.0527
▁oynanan	-10.0531
abilmek	-10.0536
acaktır	-10.0537
we	-10.0538
▁sürdürüyor	-10.0539
İŞ	-10.0546
▁iddiaları	-10.0546
▁cadde	-10.0547
lem	-10.055
muştu	-10.0551
▁Tibet	-10.0553
▁grubun	-10.0556
▁görüldü	-10.0556
▁Paşa	-10.0557
▁hatır	-10.0561
▁Şa	-10.0563
▁Enerji	-10.0572
▁katılacak	-10.058
▁kalacak	-10.0581
UM	-10.0582
▁ambulans	-10.0587
▁düşman	-10.0588
▁tarihleri	-10.0592
IŞ	-10.06
▁vermiş	-10.06
▁birer	-10.06
▁sürecek	-10.0602
▁men	-10.0611
▁Onun	-10.0614
▁görüşmeler	-10.0615
▁duyduğu	-10.0616
ez	-10.0619
▁sürücü	-10.0626
ydu	-10.0633
▁İlhan	-10.0638
▁değerlendir	-10.064
▁düşünme	-10.064
▁aktardı	-10.0641
her	-10.0641
▁Boz	-10.0644
▁sahil	-10.0646
▁bilet	-10.0647
▁Yaş	-10.0653
▁projeler	-10.0655
▁usta	-10.0657
▁Muhammed	-10.0663
▁Bağ	-10.0666
▁bitir	-10.0667
▁Göz	-10.0669
▁konularda	-10.067
▁kimi	-10.0671
▁gazetecilere	-10.0672
ia	-10.0675
▁yönetici	-10.0676
▁Yüksel	-10.068
▁işleri	-10.0687
▁bağlantılar	-10.0688
▁Ti	-10.069
▁ödülü	-10.0692
▁akıl	-10.0692
▁mağaza	-10.0696
Cumhurbaşkanlığı	-10.0697
tti	-10.0698
▁filmde	-10.0701
75	-10.0701
▁erdi	-10.0707
▁dinle	-10.0708
▁öğrencileri	-10.0708
▁polise	-10.0711
liğine	-10.0712
mal	-10.0713
?”	-10.072
IR	-10.072
▁huzur	-10.0724
▁isteme	-10.073
▁Kat	-10.0734
▁Dairesi	-10.0734
▁Yine	-10.0736
▁ağaç	-10.0738
▁neler	-10.0738
▁çözümü	-10.074
▁aktif	-10.0741
▁Bursaspor	-10.0743
▁aşı	-10.075
▁sürdüren	-10.075
▁mutluluk	-10.0755
▁belir	-10.0756
▁Ödülü	-10.0756
▁zorunlu	-10.0758
▁önceden	-10.076
▁etkin	-10.0762
▁düş	-10.0767
▁Kısa	-10.077
arı	-10.078
▁yakınları	-10.0781
LİK	-10.0786
▁konuyu	-10.0791
▁düşün	-10.0792
▁bekleme	-10.0795
▁geçici	-10.0795
▁kurtarma	-10.0797
▁Pakistan	-10.0798
▁kanser	-10.0801
▁gönderme	-10.0801
ladığını	-10.0803
▁müze	-10.0804
▁yapmayı	-10.0805
▁oynama	-10.0808
▁köprü	-10.0808
ril	-10.0811
▁ortada	-10.0812
▁neredeyse	-10.0816
▁Fuarı	-10.0817
▁sevgilisi	-10.0817
▁Şam	-10.0818
▁Bölümü	-10.0822
▁esnaf	-10.0824
▁düşünüyor	-10.0826
▁tuttu	-10.0831
▁dedim	-10.0833
▁75	-10.0833
▁ihtimali	-10.0833
▁memuru	-10.0833
▁geçmesi	-10.0836
▁Ordu	-10.0837
▁dönüşüm	-10.0837
▁dönen	-10.0838
▁vadeli	-10.0841
haber	-10.0843
▁söylediği	-10.0846
▁toplumsal	-10.0846
▁Onlar	-10.0847
▁biliyor	-10.085
▁sorularını	-10.0851
▁şüphe	-10.0861
▁ligde	-10.0864
ros	-10.0866
▁çalışmalarının	-10.087
riz	-10.087
▁Dağ	-10.0873
▁dinleme	-10.0875
▁yapacağız	-10.0876
▁seni	-10.088
▁ortamda	-10.0883
mle	-10.0884
▁Ger	-10.0885
▁olmuştu	-10.0886
▁yaşamı	-10.0886
▁muhtar	-10.0892
sunu	-10.0898
▁Menderes	-10.0901
injiang	-10.0901
▁sorunun	-10.0909
▁yarım	-10.091
▁kişisel	-10.0918
bel	-10.092
▁yemeği	-10.0923
▁yaklaş	-10.0924
▁koru	-10.0926
şen	-10.0928
▁sesi	-10.093
▁kullanım	-10.0932
▁suçundan	-10.0932
lamaya	-10.0934
21	-10.0934
▁cenazesi	-10.094
▁kalem	-10.0941
▁lisans	-10.0944
leştirme	-10.0944
▁birlik	-10.0946
▁kutlama	-10.0947
▁bilin	-10.0947
▁firması	-10.0951
▁savaşı	-10.0953
▁sitesinde	-10.0958
▁gençler	-10.0958
▁bilimsel	-10.0967
▁Az	-10.0974
▁600	-10.0982
▁yoluyla	-10.0986
▁Arınç	-10.0987
tığını	-10.0989
ABD	-10.1025
▁gelişmeler	-10.1028
sk	-10.1035
▁Alp	-10.1035
▁aldık	-10.1046
▁eleştiri	-10.1048
▁sevgili	-10.1052
▁w	-10.1054
▁yerleşim	-10.1056
▁bit	-10.1057
▁ucuz	-10.106
▁olmayacak	-10.1061
▁BU	-10.1065
▁bisiklet	-10.1065
▁ağzı	-10.1068
▁Mor	-10.1083
▁alınma	-10.1084
yat	-10.1086
ras	-10.1095
▁alanları	-10.1099
▁ölçüde	-10.1099
▁boyut	-10.11
▁edeceğini	-10.1101
▁bildir	-10.1105
umuz	-10.1106
▁ortamı	-10.1107
▁hükümetinin	-10.1108
▁stat	-10.1108
▁zayıf	-10.1109
▁Terör	-10.1109
▁kural	-10.1111
lerindeki	-10.1113
land	-10.1119
▁deplasmanda	-10.1123
▁sınırı	-10.1124
▁Doç	-10.1124
malıdır	-10.1125
▁Serdar	-10.1128
▁lan	-10.1132
▁okula	-10.1136
yıp	-10.1141
▁düğün	-10.1142
▁numaralı	-10.1153
▁prim	-10.1155
▁Gel	-10.1156
öl	-10.1166
Mİ	-10.1167
▁çalışıyoruz	-10.1169
gal	-10.1175
▁kaldırılması	-10.1175
▁Kurt	-10.1177
▁cumhurbaşkanı	-10.1179
▁önlem	-10.1183
▁1.5	-10.1184
▁zam	-10.1184
▁çıkıp	-10.1185
▁indirim	-10.1188
▁bahçe	-10.1193
▁Örgütü	-10.1193
▁ülkeye	-10.1194
▁Balıkesir	-10.1197
▁alındığı	-10.1197
▁erkekler	-10.1199
▁yakalandı	-10.12
ebiliyor	-10.1202
Sen	-10.1203
▁geride	-10.1204
▁mahkum	-10.1206
▁tel	-10.1213
▁Onur	-10.1219
mus	-10.1219
▁görüyor	-10.1226
▁getirmek	-10.1226
▁Je	-10.1239
▁yoktu	-10.1241
▁Madrid	-10.1241
▁Kulüp	-10.1241
▁ayar	-10.1242
▁ö	-10.1245
▁tanıma	-10.1247
bin	-10.1248
▁ihlal	-10.125
▁Havalimanı	-10.125
▁Birinci	-10.1251
▁adresi	-10.1251
▁gönderildi	-10.1254
ligi	-10.1255
erken	-10.1258
▁Komutanı	-10.1261
▁düşür	-10.1263
▁kampanyası	-10.1266
▁Yıl	-10.1267
chi	-10.1269
▁belirlen	-10.1276
▁belirt	-10.128
▁Yapı	-10.128
▁yılları	-10.1285
▁Üniversite	-10.1287
▁dost	-10.1287
zen	-10.1291
▁Aliağa	-10.1291
▁taşıyor	-10.1293
▁bölgelerde	-10.1302
▁tanık	-10.1303
▁gidil	-10.1304
▁edilir	-10.1307
▁polisi	-10.1311
ali	-10.1314
▁kalbi	-10.1316
▁verici	-10.1317
▁adeta	-10.1318
▁getirilmesi	-10.1319
acağım	-10.1321
imizi	-10.1322
16	-10.1326
▁indir	-10.1327
▁dışarı	-10.1328
▁alınarak	-10.133
ümüz	-10.133
En	-10.1332
▁Ermeni	-10.1335
▁48	-10.1336
▁Kızıl	-10.1342
ard	-10.1345
▁örgütleri	-10.1345
▁sanki	-10.1346
▁hazırladığı	-10.135
▁albüm	-10.1352
▁çıkarak	-10.1354
▁getirilen	-10.136
▁gazetesi	-10.1362
▁Örneğin	-10.1364
▁Otel	-10.1365
▁uzat	-10.1366
▁tecavüz	-10.1366
lıklar	-10.1368
▁harcama	-10.1376
▁dönemin	-10.1376
▁takdirde	-10.1377
▁takıma	-10.1377
70	-10.1379
▁profesyonel	-10.1384
▁hizmetleri	-10.1384
▁koalisyon	-10.1393
▁Belçika	-10.1393
▁Bas	-10.1394
▁Gezi	-10.1394
▁evin	-10.1397
▁Ru	-10.1397
▁Bağdat	-10.1402
▁girecek	-10.1407
lam	-10.1413
▁gününde	-10.1414
▁işlemi	-10.1414
bul	-10.1416
▁sahaya	-10.1419
▁hastalığı	-10.1421
▁öğle	-10.1422
▁olayların	-10.1425
▁ez	-10.1427
▁ülkeleri	-10.1429
▁bayrağı	-10.1429
rdı	-10.1431
▁yönündeki	-10.1434
▁komisyon	-10.1438
▁Geçtiğimiz	-10.1438
▁alternatif	-10.1438
▁alkol	-10.1442
▁avukatı	-10.1442
▁yerlerde	-10.1447
ON	-10.1448
▁Para	-10.1451
ğunu	-10.1452
▁beyan	-10.1454
▁tamamı	-10.1458
ılıp	-10.146
▁oyuncuları	-10.147
▁günler	-10.1474
CI	-10.1475
▁çekil	-10.1475
▁başkanlık	-10.1478
▁değerlendiril	-10.1479
▁Dolayısıyla	-10.1481
▁golü	-10.1482
ilme	-10.1484
▁Belediyespor	-10.1488
▁kullanıcı	-10.149
▁savunan	-10.1493
▁sözcüsü	-10.1493
▁atma	-10.1494
▁ekipler	-10.1502
mın	-10.1506
syon	-10.1506
▁ş	-10.1506
▁hastalık	-10.1508
AD	-10.1511
▁Çiğli	-10.1511
▁paylaş	-10.1514
▁karşısına	-10.1516
▁projeleri	-10.1518
-20	-10.152
▁abi	-10.1523
Me	-10.1527
▁hakaret	-10.1529
▁idare	-10.1532
▁Kon	-10.1535
▁renkli	-10.1537
ACAK	-10.154
▁uçağı	-10.1542
▁duy	-10.1544
▁yarattığı	-10.1544
▁Ziraat	-10.1549
▁gide	-10.155
▁belde	-10.1551
ft	-10.1552
ktedir	-10.1552
▁değişim	-10.1554
▁sahipliği	-10.1559
▁Başbakanlık	-10.1559
▁yönetiminin	-10.1563
▁sektöründe	-10.1563
▁araştır	-10.1567
ço	-10.157
▁tüket	-10.1571
▁böylece	-10.1573
▁bedel	-10.1577
▁geçiyor	-10.1577
▁görünce	-10.1579
▁Ed	-10.158
masının	-10.1585
▁Turan	-10.1586
▁Zaten	-10.1586
▁okur	-10.1587
ou	-10.1589
▁içki	-10.159
▁işgal	-10.1601
▁kuruluş	-10.1604
▁başlat	-10.1613
▁komşu	-10.1613
▁karşılıklı	-10.1615
▁performansı	-10.1627
▁soy	-10.1627
lediği	-10.1629
▁55	-10.163
▁anı	-10.1632
▁farkında	-10.1635
▁çiftçi	-10.1635
▁yaşat	-10.1635
▁kalın	-10.1636
▁38	-10.1639
▁Çeşme	-10.1639
▁yık	-10.1643
▁NE	-10.1646
▁Oğuz	-10.1646
▁satışa	-10.1648
▁Yavuz	-10.1649
▁protokol	-10.1652
▁Tu	-10.1654
▁kıyafet	-10.1656
▁ordusu	-10.1661
abilmesi	-10.1661
▁çalışmaya	-10.1661
▁yetiş	-10.1663
▁başardı	-10.1663
▁Koruma	-10.1664
lon	-10.1667
▁sürece	-10.1668
▁sundu	-10.167
üne	-10.167
▁borcu	-10.1672
kır	-10.1673
umu	-10.1673
▁izleyen	-10.168
▁sel	-10.1687
▁artışı	-10.1688
▁gazetecilerin	-10.1691
▁işyeri	-10.1696
ili	-10.1697
▁korunması	-10.1698
kon	-10.1698
▁Şehit	-10.1714
▁Beş	-10.1716
▁İn	-10.1716
▁araçlar	-10.1717
▁görevlileri	-10.1718
17	-10.1722
kent	-10.1723
▁ilişkiler	-10.1726
▁çalın	-10.1738
▁birliği	-10.1739
▁Levent	-10.1742
▁ip	-10.1743
▁kaliteli	-10.1745
▁başlandı	-10.1748
▁devri	-10.1749
▁düşme	-10.1751
▁zafer	-10.1751
sat	-10.1752
▁Dava	-10.1752
üş	-10.1755
▁Şah	-10.1755
▁evet	-10.1757
▁bugünkü	-10.1759
▁tartışıl	-10.1759
▁sebebi	-10.176
▁Sun	-10.176
▁Ecevit	-10.176
ant	-10.176
▁ayakta	-10.1762
soy	-10.1767
▁davranış	-10.1769
▁yüzlerce	-10.1771
▁genellikle	-10.1773
▁Sü	-10.1774
yorum	-10.1781
▁herkese	-10.1781
tım	-10.1788
▁üstüne	-10.1788
▁Basketbol	-10.1788
▁HA	-10.1791
▁Ön	-10.1792
▁sik	-10.1794
22	-10.1794
▁kök	-10.1795
▁üretici	-10.1795
▁avukat	-10.18
▁Saddam	-10.1807
▁seyahat	-10.1807
▁Enstitüsü	-10.1807
▁şampiyonluk	-10.1811
IYOR	-10.1811
▁durumun	-10.1812
▁istihbarat	-10.1817
▁düzenledi	-10.1817
▁Ye	-10.1821
ilerek	-10.1824
▁salonu	-10.1826
▁kazı	-10.1827
▁içme	-10.1829
▁çalışmaların	-10.1831
▁Hindistan	-10.1835
▁zamanı	-10.1838
90	-10.184
▁ters	-10.184
▁nefes	-10.1842
▁önlemleri	-10.1849
25	-10.1854
▁İÇİN	-10.1854
▁boy	-10.1857
▁elinden	-10.1863
▁Akın	-10.1865
▁kullanılması	-10.1865
ayım	-10.1868
▁kura	-10.1869
▁ekmek	-10.1869
TI	-10.187
▁kazanma	-10.1871
▁hayran	-10.1871
▁kararın	-10.1872
▁piyasaya	-10.1873
▁yöntem	-10.1874
▁uygula	-10.1876
yer	-10.1877
▁vatandaşlarımız	-10.1879
imizin	-10.1879
▁hesabı	-10.1882
▁minibüs	-10.1883
▁yazık	-10.1884
▁kanal	-10.1886
▁niye	-10.1886
▁namazı	-10.1887
▁nedir	-10.1892
▁Ortadoğu	-10.1893
▁bölgedeki	-10.1895
▁kültürü	-10.1895
▁arz	-10.1909
▁yönetimindeki	-10.1912
▁günden	-10.1912
▁sınırları	-10.1918
▁bölgesi	-10.1919
▁kurşun	-10.1921
▁gönüllü	-10.1924
▁rüzgar	-10.1925
▁taksi	-10.1925
▁tarzı	-10.193
LÜ	-10.1932
▁yıldızı	-10.1934
▁Yurt	-10.1938
▁İşletme	-10.194
yerek	-10.1946
ize	-10.195
▁soruları	-10.1953
.(	-10.1953
▁42	-10.1953
▁edeceği	-10.1956
▁git	-10.1958
▁ekiplerinin	-10.1959
▁söyleyerek	-10.1959
ımızın	-10.1959
▁Gıda	-10.196
▁Sal	-10.196
▁Projesi	-10.1961
▁Din	-10.1964
emeyen	-10.1966
▁müsabaka	-10.1968
▁birbirine	-10.1968
▁problem	-10.1969
▁karıştı	-10.1973
▁maaş	-10.1976
car	-10.1978
muyor	-10.1979
▁kullanılma	-10.1979
▁birini	-10.1987
cik	-10.199
lacak	-10.1993
▁rekor	-10.1995
▁başlar	-10.1996
▁dergisi	-10.1996
lenerek	-10.1997
▁Top	-10.2001
▁eşlik	-10.2001
▁duyma	-10.2003
lıkla	-10.2004
▁65	-10.2007
▁kavuş	-10.2009
▁topla	-10.201
▁korumak	-10.2012
ja	-10.2014
▁vazgeç	-10.2014
▁buradan	-10.2015
▁alım	-10.2016
▁özellikleri	-10.2016
▁NATO	-10.2016
▁par	-10.2025
▁sağlığı	-10.2025
▁Özgür	-10.2027
▁mesafe	-10.2029
▁rolü	-10.2032
Al	-10.2033
▁Başkent	-10.2036
▁On	-10.2038
UR	-10.2041
▁gösterme	-10.2043
▁vurdu	-10.2044
sızlık	-10.2047
▁eylemi	-10.2047
Ko	-10.2051
▁Av	-10.2061
▁üstünde	-10.2066
▁bıçak	-10.2068
▁Avustralya	-10.2074
▁alanlarda	-10.2076
▁ac	-10.2077
▁yarısı	-10.2079
▁eseri	-10.2079
▁imha	-10.2084
kul	-10.2085
▁Et	-10.2086
▁açıkça	-10.2088
▁makam	-10.2093
▁kurdu	-10.2093
▁sahası	-10.2093
AZ	-10.2096
▁malzeme	-10.2096
24	-10.2096
▁yağışı	-10.2101
▁şartları	-10.2102
▁Ardından	-10.2103
OS	-10.2104
▁yen	-10.2112
res	-10.2112
▁af	-10.2113
şar	-10.2129
▁Tabii	-10.2129
likleri	-10.2131
▁yapıyoruz	-10.2136
▁filmleri	-10.2141
BA	-10.2142
▁vereceği	-10.2144
bb	-10.2144
pınar	-10.2144
▁edit	-10.2144
atör	-10.2148
▁yuva	-10.215
mediğini	-10.215
▁gerçeği	-10.2151
SE	-10.2152
▁kazandığı	-10.2155
▁çeşit	-10.2157
til	-10.2164
▁Valiliği	-10.2164
▁İŞ	-10.2171
▁çekerek	-10.2177
▁evli	-10.2178
▁çevir	-10.218
▁Saat	-10.2181
çü	-10.2182
▁dışına	-10.2187
sever	-10.2191
▁tabanca	-10.2192
▁depo	-10.2193
▁yazma	-10.2196
▁kıyı	-10.2199
▁ayakkabı	-10.22
▁isten	-10.2203
▁ihracatı	-10.2205
▁şube	-10.221
▁başladığını	-10.2211
MAN	-10.2212
▁Mal	-10.2212
▁görevlisi	-10.2212
▁boya	-10.2214
abilirsiniz	-10.2214
▁ikna	-10.2222
▁hayır	-10.2222
▁taraftarı	-10.2226
▁zamanlarda	-10.2229
PO	-10.223
▁sürülen	-10.2234
▁yapıp	-10.2235
▁tanıtım	-10.2235
lıkları	-10.2238
▁Hanım	-10.2239
▁bölgelerinde	-10.224
▁sağlıyor	-10.2241
ime	-10.2242
▁şarkıcı	-10.2245
07	-10.2246
CE	-10.2246
▁gönderdiği	-10.2252
lığına	-10.2253
▁yardımı	-10.2257
▁üzüntü	-10.2259
▁konusundaki	-10.2262
▁geçiren	-10.2268
emedi	-10.2268
▁İspanyol	-10.2278
▁izni	-10.228
▁polisler	-10.228
▁Gazi	-10.2288
▁özür	-10.2295
ld	-10.2296
▁hizmete	-10.23
▁yürüyüş	-10.2301
▁radyo	-10.2306
▁Şimşek	-10.2308
▁katı	-10.2308
▁sağlama	-10.231
▁37	-10.2318
▁Mahmut	-10.2318
▁takdir	-10.2318
▁AL	-10.232
ğe	-10.2321
▁olmaları	-10.2321
▁operasyonu	-10.2322
ktadır	-10.2327
▁Japon	-10.2332
▁Emin	-10.2332
▁öldür	-10.2335
▁toprağa	-10.2338
▁ortasında	-10.2339
▁Hastane	-10.2345
lilerin	-10.2349
▁avantaj	-10.235
▁1999	-10.2351
▁Sivas	-10.2356
▁Kongre	-10.2357
▁Taliban	-10.2357
▁seçimlerde	-10.2358
İYOR	-10.2359
▁Sabah	-10.236
▁benzeri	-10.2363
DU	-10.2366
▁la	-10.2367
▁tezkere	-10.2367
▁organize	-10.2368
▁verimli	-10.2373
pan	-10.2377
▁Bakanlar	-10.2381
▁boşalt	-10.2381
ers	-10.2388
▁özen	-10.2389
▁kaybetme	-10.2392
▁yürütülen	-10.2393
▁bağlantı	-10.2396
▁ilişkilerin	-10.2396
▁Edirne	-10.2397
▁güvenli	-10.24
▁imkan	-10.24
▁derken	-10.2402
▁geçer	-10.2408
▁yayımlanan	-10.2408
▁üyelerinin	-10.2409
▁atama	-10.241
▁eğlence	-10.2412
▁mücadelesi	-10.2415
▁Kız	-10.2416
▁analiz	-10.2418
▁kaygı	-10.2418
▁gör	-10.242
▁yeme	-10.2421
▁yarar	-10.2424
▁gönderilen	-10.2426
▁George	-10.2427
üt	-10.2427
▁sessiz	-10.2428
▁bence	-10.2429
▁devleti	-10.2432
▁Dİ	-10.2432
▁dergi	-10.2433
▁yönet	-10.2435
daş	-10.2437
▁tavır	-10.2437
▁kullanmak	-10.2446
▁semt	-10.2448
▁moral	-10.2448
▁sağlam	-10.2451
SO	-10.2451
▁eser	-10.2455
▁değilim	-10.2456
Rİ	-10.2457
Se	-10.2457
▁elektronik	-10.2457
▁vs	-10.2461
sar	-10.2463
▁ülkelerde	-10.2464
▁hikaye	-10.2466
▁dönme	-10.2466
▁hatırlat	-10.2466
▁çıkmış	-10.2467
▁başlatıldı	-10.2469
▁başkanlığında	-10.247
▁seçme	-10.2471
▁kimyasal	-10.2477
▁çıktığını	-10.2486
▁bitti	-10.2487
ECEK	-10.2488
▁çevril	-10.2497
▁kaldığını	-10.2502
CA	-10.2508
RO	-10.2512
▁çektiği	-10.2518
▁Özkan	-10.252
▁açı	-10.252
▁yolsuzluk	-10.252
▁hayatta	-10.2522
öz	-10.2522
▁tedbir	-10.2527
▁nerede	-10.2532
▁yüzyıl	-10.2538
▁olmaktan	-10.2544
▁kanalı	-10.2545
▁diş	-10.2548
▁çeyrek	-10.2548
▁tutan	-10.2554
▁başlatılan	-10.2555
port	-10.2555
▁kuruluşları	-10.2556
▁cezasına	-10.2557
landırma	-10.2558
▁götürüldü	-10.2558
gil	-10.2559
▁Sev	-10.2563
▁taraftarlar	-10.2569
▁yılına	-10.257
▁uyku	-10.2571
-19	-10.2573
▁kendileri	-10.2575
▁sığ	-10.2578
▁bazıları	-10.2579
om	-10.2587
▁Kes	-10.2587
mü	-10.2588
▁garanti	-10.2588
▁direniş	-10.2589
▁ayrılan	-10.2589
uç	-10.2589
▁müdür	-10.2594
▁aldıkları	-10.2599
▁MU	-10.2599
▁sektörü	-10.26
▁metrekare	-10.26
▁unut	-10.2604
▁eli	-10.2606
▁mühendis	-10.2607
ac	-10.2609
▁Esad	-10.261
▁İdaresi	-10.2613
▁mesele	-10.2616
▁Sakarya	-10.2619
▁çocuklara	-10.262
▁canlandır	-10.2621
▁durma	-10.2624
▁Saray	-10.2625
▁Soma	-10.2627
▁Yetkililer	-10.2628
▁okun	-10.2631
Ta	-10.2632
nizde	-10.2633
▁sp	-10.2635
▁insanlara	-10.2635
▁yardımcısı	-10.2644
▁ürünler	-10.2647
▁Adli	-10.2647
ullah	-10.2656
▁Adam	-10.2657
▁seçilen	-10.2658
▁geçtiği	-10.2661
▁Kı	-10.2665
▁başından	-10.2673
▁tehlikeli	-10.2677
▁yetiştir	-10.2678
▁Avukat	-10.268
▁bozul	-10.2682
▁suyun	-10.2683
▁Dağı	-10.2685
▁kalıyor	-10.2686
▁saatte	-10.2689
▁deneme	-10.2689
▁ettim	-10.2693
KE	-10.2694
▁tutuklandı	-10.2697
zo	-10.2698
rü	-10.2698
▁sezonu	-10.2701
▁çapında	-10.2705
▁evlilik	-10.2706
▁ocak	-10.2712
▁Kadınlar	-10.2716
▁Dil	-10.2717
▁bakanlık	-10.272
▁vali	-10.272
▁merkezine	-10.2721
Birleşik	-10.2722
▁and	-10.2723
luğa	-10.2725
bah	-10.2725
▁binası	-10.2728
ırım	-10.2737
▁kuruluşu	-10.2738
▁artarak	-10.2739
-3	-10.2744
▁iken	-10.2744
▁gözden	-10.2745
▁Erol	-10.2747
▁olabileceği	-10.2748
▁kedi	-10.2749
▁uyan	-10.275
leyici	-10.2758
abilen	-10.2759
▁sür	-10.2761
▁kalabalık	-10.2763
▁pat	-10.2766
▁vermedi	-10.2768
▁azalt	-10.2778
▁Askeri	-10.2778
▁yıldan	-10.2782
▁disiplin	-10.2783
▁bırakıldı	-10.2786
ÜR	-10.2787
▁dilekçe	-10.2788
ildiği	-10.2789
▁yarısında	-10.2789
▁devreye	-10.2791
leyip	-10.2791
▁Kut	-10.2795
pp	-10.2795
▁haberler	-10.2797
cil	-10.2801
▁ısrar	-10.2801
▁savaşın	-10.2801
▁AN	-10.2802
▁kapsamlı	-10.2804
lidir	-10.2806
▁Beldesi	-10.2806
yin	-10.2806
▁yolları	-10.2807
mediği	-10.2807
▁maruz	-10.2809
▁girişimi	-10.2813
cek	-10.2813
luyor	-10.2814
▁cumhuriyet	-10.2814
▁Şanlıurfa	-10.2814
▁Sayfa	-10.2816
ılmıştır	-10.2816
▁adıyla	-10.2817
▁ederim	-10.2817
▁görüşmelerin	-10.2821
amıyor	-10.2824
▁Çiçek	-10.2825
▁Ünal	-10.2825
▁sorusuna	-10.2826
▁Kanun	-10.2826
▁öncelikle	-10.2826
tis	-10.2835
ışı	-10.2836
▁faaliyetleri	-10.2836
ih	-10.2839
org	-10.284
▁kahve	-10.2843
▁içer	-10.2843
▁hamile	-10.2846
ıyordu	-10.2849
▁Tar	-10.2851
▁getirerek	-10.2852
▁seks	-10.2854
dra	-10.2856
▁Görev	-10.2857
▁gu	-10.2857
▁oyna	-10.286
▁günleri	-10.286
ud	-10.286
▁tamamlandı	-10.2861
maması	-10.2863
hri	-10.2868
▁geçirildi	-10.2871
▁salon	-10.2876
▁no	-10.2877
ts	-10.2879
▁kala	-10.2887
▁ailesinin	-10.2888
tel	-10.2895
▁Yönetimi	-10.2898
▁olduk	-10.2899
▁suçlu	-10.2901
▁Mak	-10.2907
▁getiriyor	-10.2908
▁Çarşamba	-10.2908
▁emin	-10.2911
35	-10.2916
▁önlemler	-10.2917
▁olanlar	-10.2917
▁açığı	-10.2921
▁öğrencilere	-10.2922
▁vatandaşın	-10.2923
▁teröristlerin	-10.2924
▁Acil	-10.2929
▁sürüldü	-10.2929
melidir	-10.2929
▁oyunları	-10.2931
▁Erkan	-10.2932
NE	-10.2933
▁vurul	-10.2937
▁çıkarma	-10.2937
▁yumurta	-10.294
▁Mardin	-10.2942
ruk	-10.2943
▁ziyaretçi	-10.2944
▁ruh	-10.2948
▁etkinlikler	-10.2949
▁çevresinde	-10.2949
▁söyleme	-10.2949
65	-10.2952
▁bat	-10.2954
▁Mutlu	-10.2954
▁artan	-10.296
▁Ayşe	-10.2961
leyecek	-10.2964
▁olabileceğini	-10.2964
▁Zaman	-10.2965
cular	-10.2966
▁sunduğu	-10.2966
▁haftada	-10.2967
▁İsveç	-10.2971
▁Dar	-10.2973
▁gruplar	-10.2978
▁bes	-10.2978
▁projenin	-10.2981
▁Hatta	-10.2981
▁pankart	-10.2982
▁kaçtı	-10.2984
off	-10.2985
▁oto	-10.2989
▁hacmi	-10.299
▁çözül	-10.2996
▁anlayış	-10.2997
▁olamaz	-10.2997
▁röportaj	-10.3003
▁fon	-10.3005
üsü	-10.3006
▁Ham	-10.3014
▁Hak	-10.3017
▁aldıklarını	-10.3017
▁mavi	-10.3019
▁Tom	-10.3019
▁kaldırıl	-10.302
05	-10.3022
▁AY	-10.3024
▁yerden	-10.3024
▁Sabancı	-10.3024
▁Meslek	-10.3025
▁oldum	-10.3026
▁temin	-10.3027
28	-10.303
▁Altay	-10.303
▁katil	-10.3035
▁belirledi	-10.3041
▁öğret	-10.3042
▁kulak	-10.3043
▁zamanında	-10.3044
▁denize	-10.305
art	-10.3052
▁iddiasıyla	-10.3052
▁İnan	-10.3052
rik	-10.3053
bre	-10.3056
▁çekildi	-10.3061
▁Karabağlar	-10.3062
▁Par	-10.3067
▁kalır	-10.3068
▁geliştirme	-10.3069
▁diren	-10.307
▁yapımcı	-10.307
▁modeli	-10.307
▁partinin	-10.3073
▁istek	-10.3075
▁töreninde	-10.3076
▁skor	-10.3081
▁DO	-10.3083
▁karayolu	-10.309
▁hatırlattı	-10.3094
▁gelince	-10.31
▁müdürü	-10.3109
▁konulu	-10.3109
▁diyalog	-10.311
▁Yol	-10.311
▁başarıyla	-10.311
▁Ulu	-10.3111
▁insani	-10.3114
▁mahkemeye	-10.3118
▁gayet	-10.3122
▁tutul	-10.3124
▁şiddetli	-10.3125
▁Cha	-10.3129
▁fırtına	-10.3131
▁Kor	-10.3136
▁Gerek	-10.314
▁idari	-10.3142
▁yakınlarında	-10.3143
▁Zafer	-10.3143
▁tasarım	-10.3144
▁bulmak	-10.3144
▁zorla	-10.3146
yoruz	-10.3147
▁afet	-10.3149
▁Şampiyonlar	-10.3154
kor	-10.3155
▁Wi	-10.3159
▁uygulanması	-10.3162
ebilmek	-10.3162
▁tutar	-10.3164
▁vekil	-10.3165
▁bölgenin	-10.317
▁tatlı	-10.3172
▁kurduğu	-10.3173
▁sezonun	-10.3174
▁Em	-10.3176
▁Gar	-10.3177
▁Pro	-10.3178
▁basketbol	-10.3179
▁komutan	-10.318
▁çal	-10.318
▁ilçede	-10.3188
tuğ	-10.3191
▁Tarihi	-10.3192
lerdi	-10.3195
▁özgür	-10.3195
▁yazarı	-10.3195
▁ufak	-10.3196
▁üzül	-10.3197
▁seçildi	-10.3198
▁açılma	-10.3199
larımıza	-10.3204
▁yerinden	-10.3204
▁hızı	-10.3205
▁maliyeti	-10.3207
▁çizdi	-10.3214
▁Efes	-10.3216
▁Clinton	-10.3217
▁takımının	-10.3219
▁Dünyanın	-10.3219
doğan	-10.3221
▁Bakanlık	-10.3226
▁kontrolü	-10.3227
▁fikri	-10.3228
▁sö	-10.3232
▁rastlan	-10.3235
mir	-10.3236
nur	-10.3239
▁araçları	-10.3243
▁sorunların	-10.3247
▁olduğunun	-10.3251
▁etkisiyle	-10.326
▁rejimi	-10.3261
▁fil	-10.3262
▁ayrılma	-10.3263
▁kesil	-10.3263
amadığı	-10.3265
SU	-10.3266
▁Fu	-10.3267
▁personeli	-10.3268
▁trafiği	-10.3271
▁tahsis	-10.3272
kur	-10.3276
▁mezar	-10.3278
▁hakkındaki	-10.3279
▁kalmış	-10.328
lanırken	-10.3291
▁Öcalan	-10.3293
▁Işık	-10.3294
▁THY	-10.3297
▁hüküm	-10.3298
iniz	-10.3299
▁gönül	-10.33
▁işlemleri	-10.3303
▁gördüğünü	-10.3306
nize	-10.3308
▁şaşır	-10.3308
▁TE	-10.3308
▁çalışmak	-10.3309
▁kasa	-10.3318
ğında	-10.332
▁Oysa	-10.332
▁atılan	-10.3325
▁misafir	-10.3326
▁Milletler	-10.333
▁oluştur	-10.333
imize	-10.333
▁Kale	-10.3331
▁vatandaşı	-10.3331
▁paketi	-10.3334
▁Müzesi	-10.3335
▁Özcan	-10.3336
▁şehri	-10.3338
▁tasarı	-10.3338
▁isimleri	-10.3341
▁yaşa	-10.3342
▁üretil	-10.3343
▁fırsatı	-10.3344
lerimize	-10.3344
▁sıfır	-10.3348
OL	-10.3351
▁Yaz	-10.3356
▁Has	-10.3356
▁izleme	-10.3357
▁Uygur	-10.3359
üstü	-10.336
▁açıklamalarda	-10.3361
▁bilir	-10.3364
lendiğini	-10.3365
▁belirli	-10.3366
▁ah	-10.3369
ney	-10.3369
▁Yasası	-10.3369
▁maça	-10.337
larım	-10.337
▁Ertuğrul	-10.337
▁Yönetmen	-10.337
▁gerçekleştirdi	-10.3372
▁sakinleri	-10.3374
▁Dal	-10.3374
▁ata	-10.3374
▁Hakları	-10.3375
▁unutma	-10.3377
▁çadır	-10.3381
▁kapan	-10.3383
▁Avcı	-10.3383
▁sürücüsü	-10.3387
memesi	-10.3388
▁fayda	-10.3389
▁çalıştır	-10.3389
▁öldüğü	-10.339
▁restoran	-10.3392
ight	-10.3392
▁anlamı	-10.3393
▁yazılım	-10.3393
▁ondan	-10.3397
aba	-10.3398
▁olurken	-10.3401
▁görül	-10.3401
▁mevsim	-10.3403
▁Şi	-10.3403
▁kadını	-10.3405
▁ahlak	-10.3406
▁düşünül	-10.3407
▁Aksu	-10.341
▁kına	-10.3412
▁miktarda	-10.3412
▁tepe	-10.3414
▁sakat	-10.3414
▁öğrenim	-10.3416
▁alırken	-10.3416
▁Urla	-10.3417
▁filmler	-10.3418
▁Salı	-10.3419
▁nesil	-10.3422
▁ulaşan	-10.3422
▁Pınar	-10.3425
▁okulun	-10.3425
▁atık	-10.3428
▁Kadir	-10.3428
▁çalışmalara	-10.3428
▁oturma	-10.3428
mdan	-10.3429
▁arkadaşlarımız	-10.3434
▁adamın	-10.3435
▁sporcular	-10.3435
▁Perşembe	-10.3436
▁Terim	-10.3437
larca	-10.3443
▁alet	-10.3443
08	-10.3445
▁selam	-10.3447
▁Moskova	-10.3447
▁birimleri	-10.3447
▁SE	-10.3448
▁bulunur	-10.345
▁aksa	-10.345
▁toplantıya	-10.3451
hit	-10.3453
▁gördüm	-10.3453
▁Geç	-10.3455
ation	-10.3455
▁azından	-10.3455
▁eleştir	-10.3456
▁etkinlik	-10.346
▁başrol	-10.3461
▁adaylığı	-10.3462
▁liman	-10.3463
▁isyan	-10.3464
▁güne	-10.3464
▁Marmara	-10.3469
▁Ayhan	-10.3471
▁düzeyde	-10.3479
▁anlar	-10.348
▁Mir	-10.348
▁olağanüstü	-10.348
▁YA	-10.3481
▁yürütme	-10.3483
▁kendimi	-10.3484
▁allah	-10.3487
▁imam	-10.3491
▁beklen	-10.3493
▁Cezaevi	-10.3495
▁yanıtladı	-10.3497
▁üstü	-10.3502
▁gönderil	-10.3503
▁basına	-10.3503
▁Gol	-10.3504
gaz	-10.3504
▁doları	-10.3506
▁başlattığı	-10.3509
▁Tü	-10.3509
▁ücreti	-10.3513
▁em	-10.3517
▁baz	-10.3518
▁puanla	-10.3522
▁partisi	-10.3522
dığımız	-10.3522
▁maçları	-10.3523
▁giyen	-10.3523
▁bağır	-10.3524
▁Demokrat	-10.3524
▁çatı	-10.3524
▁arasına	-10.3524
▁Adresi	-10.3525
▁vücut	-10.3525
▁bulunmaktadır	-10.353
koç	-10.353
▁çağrısı	-10.3531
▁yakaladı	-10.3534
leşen	-10.3535
▁koca	-10.3537
▁geldiğinde	-10.3539
▁olanak	-10.3547
rası	-10.3548
▁Mali	-10.355
cılığı	-10.3553
▁yaptığımız	-10.3553
▁kentte	-10.3554
▁uygulamaya	-10.3558
ara	-10.3558
▁Cengiz	-10.3558
▁tu	-10.3559
▁sahipleri	-10.3561
▁başlık	-10.3563
▁katkıda	-10.3564
▁İnternet	-10.3569
▁olacağız	-10.3573
▁Sol	-10.3576
▁etmeyi	-10.3576
▁transferi	-10.3581
▁otomobilin	-10.3585
▁set	-10.3586
▁tasarruf	-10.3586
RT	-10.3587
▁Bolu	-10.3589
▁Birleşmiş	-10.3596
▁başkent	-10.3598
96	-10.3599
▁kurumlar	-10.3601
▁Çakır	-10.3604
▁miktar	-10.3606
for	-10.3607
▁aylarında	-10.3608
18	-10.3613
84	-10.362
▁Önümüzde	-10.3624
▁adres	-10.3625
▁ekonomisi	-10.3626
▁Eren	-10.3627
▁Oda	-10.3629
▁gelişmesi	-10.3629
ınız	-10.3631
▁uygulanan	-10.3632
▁Toprak	-10.3638
▁başkanlığı	-10.3639
▁turu	-10.364
▁oynuyor	-10.3641
▁hızlandır	-10.3643
İH	-10.3649
▁değildi	-10.3649
▁Vekili	-10.3655
▁okulu	-10.3657
▁Bana	-10.3657
▁isabet	-10.366
▁karşılığında	-10.366
▁ilişkisi	-10.366
▁oynan	-10.3661
▁Faruk	-10.3661
▁değiştirme	-10.3661
rme	-10.3663
▁kanat	-10.3669
egedesonsoz	-10.3671
▁santral	-10.3671
▁görün	-10.3671
▁ihbar	-10.3673
▁araçların	-10.3673
▁resmen	-10.3674
▁sokakta	-10.3676
▁Berlin	-10.3676
▁Mes	-10.3678
▁katılmak	-10.368
▁itiraf	-10.3682
▁avukatları	-10.369
▁Başsavcılığı	-10.369
▁kızın	-10.3693
▁konuşmasında	-10.3693
▁Sözcüsü	-10.3694
▁Aday	-10.3694
▁metro	-10.3695
▁Tam	-10.3696
▁Fatma	-10.3696
▁seven	-10.3699
▁degil	-10.37
▁gerçekleş	-10.3705
▁koltuk	-10.3705
▁Yaşam	-10.3706
▁noktası	-10.3708
▁arkadaşım	-10.371
▁sahneye	-10.3712
▁Tesisleri	-10.3715
▁ad	-10.3716
▁kilit	-10.3717
▁v	-10.3717
▁okudu	-10.3719
‘	-10.372
▁yasağı	-10.3722
▁deneyim	-10.3723
▁Daire	-10.3723
▁olayda	-10.3725
▁kararının	-10.3727
iyorlar	-10.3727
▁sisteminin	-10.3734
▁oluşturduğu	-10.3736
▁oynayacağı	-10.374
▁Brezilya	-10.3742
▁ıs	-10.3745
▁Erdem	-10.3747
▁destekleme	-10.3751
▁hekim	-10.3752
▁dışındaki	-10.3753
İS	-10.3754
▁Ver	-10.3755
▁edilerek	-10.3755
▁becer	-10.3763
▁çekme	-10.3772
▁Ada	-10.3773
sit	-10.3784
▁başlangıç	-10.3785
▁saldırgan	-10.3785
▁ilgilen	-10.3789
▁bilen	-10.3794
▁dükkan	-10.3796
dro	-10.3797
▁diliyorum	-10.3798
doğu	-10.3799
▁yarıda	-10.3799
▁başarısız	-10.3803
▁uçağın	-10.3805
▁sekiz	-10.3808
▁karşılaştı	-10.3808
▁değinen	-10.3812
▁iyice	-10.3814
▁Pat	-10.3818
▁1-0	-10.3819
▁ger	-10.3819
TAN	-10.3819
▁Sak	-10.3826
▁Resmi	-10.3831
severler	-10.3833
▁Başka	-10.3838
▁yaklaşım	-10.3839
▁kalite	-10.3843
▁Ajansı	-10.3844
▁Ateş	-10.3845
▁bilmiyorum	-10.3846
cağı	-10.3846
▁ağrı	-10.3848
▁arzu	-10.3849
▁yayım	-10.3852
▁bilgilere	-10.3853
▁İddia	-10.3854
▁Dev	-10.3855
▁makine	-10.3855
13	-10.3858
▁2016	-10.3858
▁baskın	-10.3866
▁işçiler	-10.3869
55	-10.3872
Ge	-10.3873
▁düzenli	-10.3875
AP	-10.3875
▁olunca	-10.3876
▁İnşaat	-10.3877
▁Cumartesi	-10.3877
▁demiş	-10.3877
▁doğan	-10.388
▁oturum	-10.3881
▁vi	-10.3883
▁Mesut	-10.389
▁haksız	-10.389
arım	-10.3892
fo	-10.3896
UT	-10.3896
23	-10.3897
▁Uygulama	-10.39
iliyor	-10.3903
▁alana	-10.3905
▁Celal	-10.3905
▁ili	-10.3905
ırsa	-10.3906
▁dönüştü	-10.3907
▁KO	-10.3907
▁Özer	-10.3912
▁yapılacağı	-10.3913
▁Polat	-10.3914
▁arkadaşlar	-10.3919
af	-10.3919
▁Fırat	-10.3923
▁olmasının	-10.3923
▁Gazze	-10.3924
▁görünüyor	-10.3924
▁albümü	-10.3924
▁kum	-10.3924
▁düzeyinde	-10.3925
▁aldım	-10.3925
rah	-10.3926
▁Yazı	-10.3932
▁Savcı	-10.3933
▁Orgeneral	-10.3935
ble	-10.3937
▁Kazada	-10.3941
diğim	-10.3947
▁geleceğini	-10.3947
▁durumunun	-10.3949
▁gördük	-10.395
▁ülkeyi	-10.395
▁fotoğrafı	-10.3953
▁ilgisi	-10.3958
▁gerekse	-10.3959
tek	-10.396
▁belgesi	-10.3961
▁başvurdu	-10.3962
AF	-10.3963
hra	-10.3967
▁gazı	-10.3968
tri	-10.3968
98	-10.397
▁vize	-10.3972
▁OL	-10.3973
sil	-10.3977
▁gündür	-10.3977
▁Maç	-10.3978
▁Pazartesi	-10.3981
▁Çankaya	-10.3982
▁yaşandığı	-10.3982
▁birşey	-10.3986
▁Tah	-10.3991
Son	-10.3993
▁yiyecek	-10.3994
▁stratejik	-10.3996
▁çak	-10.3998
▁devir	-10.3999
uyla	-10.3999
Yeni	-10.4006
▁duruşma	-10.4009
▁muhabiri	-10.401
lanmıştır	-10.4011
67	-10.4016
ıyorlar	-10.402
▁gelişmiş	-10.4023
▁biliyorum	-10.4023
▁Şan	-10.4025
▁Kenan	-10.4029
▁oranları	-10.4032
▁veriler	-10.4033
▁ce	-10.4033
lanıp	-10.4034
▁uzlaşma	-10.4034
▁46	-10.4036
▁üzeri	-10.4036
▁tehlikesi	-10.404
▁oyunun	-10.4043
AV	-10.4044
▁başlıklı	-10.4046
▁çalıştığını	-10.4048
▁ör	-10.4052
▁duyarlı	-10.4061
▁olayla	-10.4063
▁işadamı	-10.4063
mden	-10.4066
▁dikkatli	-10.407
▁oluşturma	-10.4077
▁dayalı	-10.4084
▁Yatırım	-10.4087
▁işleme	-10.4089
▁mer	-10.409
▁görür	-10.4091
▁yurtdışında	-10.4092
▁Sel	-10.4094
▁ülkeden	-10.4094
▁hırsız	-10.4104
tıcı	-10.4106
DHA	-10.4106
NİN	-10.4107
▁adımlar	-10.4108
▁şekli	-10.4109
▁katrilyon	-10.411
ESİ	-10.4112
▁Toplum	-10.412
▁parlamento	-10.4122
İzmir	-10.4124
▁şampiyona	-10.4126
▁bok	-10.4131
▁ekibin	-10.4132
▁kritik	-10.4134
▁denk	-10.4135
▁kapasitesi	-10.4139
▁geçecek	-10.4139
bilir	-10.4144
▁seçil	-10.4146
▁yöneticiler	-10.4149
▁eleman	-10.4152
31	-10.4155
▁Vergi	-10.4155
yeceğini	-10.4157
DP	-10.416
▁kaynaklar	-10.4164
▁iade	-10.4168
▁isteyenler	-10.4168
▁zevk	-10.417
▁kariyeri	-10.417
▁etmedi	-10.4173
▁yeter	-10.4175
▁Türkmen	-10.4178
▁hepimiz	-10.418
▁Göztepe	-10.4183
AY	-10.4184
▁ikisi	-10.4185
▁bakımından	-10.4187
▁Bunların	-10.4189
▁perde	-10.4193
▁Suudi	-10.4194
kış	-10.4196
İstanbul	-10.4196
▁800	-10.4197
▁Sha	-10.4202
Bugün	-10.4205
▁olmasa	-10.4206
▁geliri	-10.4208
lor	-10.4209
▁Times	-10.4209
▁izlediği	-10.421
▁sahasında	-10.421
▁çekim	-10.4211
▁oluşturdu	-10.4213
▁tarihli	-10.4214
▁gideceği	-10.4218
▁litre	-10.4218
▁şeyin	-10.422
▁Nihat	-10.422
▁bayrak	-10.4221
▁BA	-10.4221
▁planlanan	-10.4222
▁etmiyor	-10.4226
tre	-10.4228
▁layık	-10.423
AS	-10.423
▁bilinci	-10.4239
▁mükemmel	-10.4241
De	-10.4242
vet	-10.4242
▁Gir	-10.4244
▁Büyükelçisi	-10.4244
▁hukuki	-10.4251
▁zamanlar	-10.4255
▁yükseliş	-10.4257
▁dön	-10.4261
▁yerlere	-10.4264
▁tuvalet	-10.4265
▁1998	-10.427
kçe	-10.4273
▁efsane	-10.4276
▁Azerbaycan	-10.4277
▁parayı	-10.4278
▁adli	-10.4279
▁Arı	-10.4279
▁ölme	-10.4279
▁YOK	-10.4279
▁anlaşması	-10.4281
▁Demirtaş	-10.4282
26	-10.4285
▁geçtiğini	-10.4286
▁açıklamaları	-10.4286
▁savun	-10.4286
▁bakma	-10.4288
▁amaçla	-10.4288
▁ülkemizde	-10.4288
▁organ	-10.4289
▁felaket	-10.4289
▁referandum	-10.4289
▁tebrik	-10.4289
▁AR	-10.4293
▁ulaşıl	-10.4296
▁teşkilat	-10.4305
Dünya	-10.4305
36	-10.4305
▁suçu	-10.4312
▁yarattı	-10.4316
▁laik	-10.4316
▁Am	-10.4319
▁tasar	-10.432
lanmıştı	-10.432
▁Peki	-10.4325
▁120	-10.4325
▁iddiası	-10.4326
▁Say	-10.4326
▁süper	-10.4326
▁Oyun	-10.4333
rse	-10.4335
▁Borsa	-10.4335
▁bulunmadığını	-10.4338
▁Michael	-10.4338
▁dar	-10.4343
▁Cihan	-10.4343
layıcı	-10.4344
gın	-10.4347
▁gençlerin	-10.4347
saydı	-10.4348
▁Kalkınma	-10.435
▁Bahçeli	-10.435
▁düşmesi	-10.4351
▁senaryo	-10.4353
▁değerleri	-10.4357
▁biber	-10.4358
▁neyse	-10.436
▁Kocaeli	-10.4361
▁taciz	-10.4362
▁yürürlüğ	-10.4362
acaklarını	-10.4364
▁onlarca	-10.4365
▁karakteri	-10.4365
▁ifadesi	-10.4366
lum	-10.4367
▁hazırlanıyor	-10.4368
▁programları	-10.437
▁beraberlik	-10.4371
▁sıkış	-10.4372
▁psikolojik	-10.4372
▁kuralları	-10.4374
▁maalesef	-10.4374
▁Siirt	-10.4374
▁kısım	-10.4378
▁belirtiyor	-10.438
▁kuzeyinde	-10.4382
▁alındığını	-10.4382
▁elbette	-10.4386
▁nakli	-10.4386
Gİ	-10.439
▁başarısı	-10.4391
▁akıllı	-10.4391
meleri	-10.4392
▁antrenör	-10.4392
şim	-10.4393
▁koyma	-10.4394
▁oyuncuların	-10.4394
▁şirketler	-10.4395
▁boşa	-10.4395
▁Kral	-10.4398
▁tanınan	-10.4399
▁Bor	-10.44
▁saldırıda	-10.44
▁Eş	-10.4401
▁EN	-10.4408
▁Malatya	-10.4409
▁radikal	-10.4411
İNE	-10.4411
▁giderken	-10.4411
▁kazanmak	-10.4414
▁Geri	-10.4417
▁maçını	-10.4418
▁Özgecan	-10.442
▁bakın	-10.4421
▁çıkarıldı	-10.4423
▁demişti	-10.4426
▁VAR	-10.4426
▁girmek	-10.4427
▁takımda	-10.4429
ire	-10.4432
▁krizin	-10.4433
▁motosiklet	-10.4435
▁sözleşmesi	-10.4439
▁peşinde	-10.4443
▁Yerel	-10.4444
▁tutma	-10.4445
▁değerlendirdi	-10.4445
▁Kö	-10.4446
▁pahalı	-10.4447
▁Teknoloji	-10.4447
▁inancı	-10.4447
▁çekilen	-10.4448
sunda	-10.4449
▁zehir	-10.4449
▁Balkan	-10.4452
luğunu	-10.4452
▁öte	-10.4453
▁güncel	-10.4457
▁döv	-10.4457
sik	-10.4458
▁liderleri	-10.4459
▁toz	-10.4462
▁moda	-10.4462
▁biliyoruz	-10.4465
▁başvur	-10.4466
vu	-10.4466
▁yolun	-10.4469
86	-10.4472
▁milletin	-10.4476
▁Kartal	-10.4478
▁üste	-10.4481
lav	-10.4488
▁Kimse	-10.449
▁almıştı	-10.4493
▁KKTC	-10.4496
▁üyeliği	-10.4498
öğretim	-10.4503
▁İdare	-10.4504
▁elini	-10.4504
▁göl	-10.4505
▁alanına	-10.4508
▁ihraç	-10.4509
▁İnönü	-10.4509
▁II	-10.4513
irse	-10.452
▁görüntüler	-10.452
▁Pan	-10.4521
▁riski	-10.4521
ecektir	-10.4523
▁ismini	-10.4524
sindeki	-10.453
▁gözleri	-10.4532
▁verildiği	-10.4533
▁kulübü	-10.4536
▁sorunlarını	-10.454
▁talimat	-10.4544
▁sektörünün	-10.4544
▁41	-10.4545
▁klasik	-10.4546
▁verdikleri	-10.4547
▁artırma	-10.4549
▁teröristler	-10.4551
▁Şirketi	-10.4555
▁Ok	-10.4556
▁ihalesi	-10.4556
▁tanrı	-10.4558
▁yönlendir	-10.4559
alan	-10.4561
bor	-10.4561
▁müziği	-10.4562
ÜZ	-10.4564
kara	-10.4564
▁gözlem	-10.4565
▁kadına	-10.4565
▁özgürlüğü	-10.457
▁yuan	-10.4572
▁sunuyor	-10.4573
UL	-10.4575
▁İzmirli	-10.4578
▁olsaydı	-10.4579
▁mağlup	-10.4583
▁go	-10.4583
▁sabit	-10.4584
ürü	-10.4585
▁bakar	-10.4585
▁kamuoyu	-10.4586
▁Şener	-10.4586
▁müzakere	-10.4588
▁değerlendiren	-10.4595
▁birbirinden	-10.4595
▁yitir	-10.4599
▁İnşallah	-10.4599
bri	-10.46
tif	-10.46
lenir	-10.4602
▁sponsor	-10.4608
▁kurmak	-10.4612
▁geçmişte	-10.4616
▁David	-10.462
▁44	-10.4627
▁öldürülmesi	-10.4629
▁nefret	-10.4633
▁Filistinli	-10.4633
▁düzenleyen	-10.4634
▁çekici	-10.4637
▁şirketlerin	-10.4638
▁yapılmasını	-10.464
▁ailenin	-10.4641
▁buluyor	-10.4644
▁telefonla	-10.4645
▁Hayat	-10.4645
▁kalitesi	-10.4645
▁seçmen	-10.4656
▁atarak	-10.4658
▁teori	-10.4658
▁beslenme	-10.466
▁Sey	-10.466
▁Burak	-10.4661
▁çalışanları	-10.4664
▁kurumların	-10.4664
▁yitirdi	-10.4664
▁derdi	-10.4665
▁Nuri	-10.4666
▁kuruldu	-10.4669
göz	-10.467
▁Marmaris	-10.467
▁Kredi	-10.467
▁yavru	-10.467
▁cuma	-10.4672
▁sezonunda	-10.4673
▁Şehir	-10.4685
▁ME	-10.4685
▁paylaştı	-10.4685
▁kalıcı	-10.4687
▁bayan	-10.4688
▁sinyal	-10.4695
▁Hacı	-10.4695
▁İlköğretim	-10.4696
▁çabaları	-10.47
seydi	-10.4703
▁TÜRKİYE	-10.4705
emiyor	-10.4706
▁şekil	-10.4706
▁üretilen	-10.4706
bağ	-10.4706
▁BO	-10.4706
mut	-10.4707
▁vurgulayarak	-10.471
Do	-10.471
▁kul	-10.4711
▁görüntüleri	-10.4719
▁Köy	-10.4721
▁DSP	-10.4722
▁TIR	-10.4722
▁izleyici	-10.4724
▁açıklayan	-10.4726
▁davanın	-10.4727
▁karara	-10.473
▁beğen	-10.4733
▁Zeki	-10.4734
▁tecrübe	-10.4739
est	-10.474
beyazlı	-10.4741
▁anlatıyor	-10.4746
▁yapım	-10.4749
ment	-10.4749
▁verdiklerini	-10.4753
lıdır	-10.4754
▁yönetiminde	-10.4755
▁istenen	-10.4757
▁vakit	-10.4758
▁Halep	-10.4759
32	-10.476
▁sınırlı	-10.4768
▁Kap	-10.477
▁futbolcuları	-10.477
▁yolunu	-10.4776
▁ürünü	-10.4776
abilme	-10.4778
▁has	-10.4779
▁önemi	-10.478
▁oylama	-10.4784
▁biçimi	-10.4785
▁söylediler	-10.4787
▁51	-10.479
▁dönemine	-10.4795
▁adliyeye	-10.4797
▁istendi	-10.4803
müştü	-10.4807
▁kıs	-10.4808
FA	-10.4808
▁noktasında	-10.4809
▁çete	-10.4812
▁Sami	-10.4814
▁47	-10.4815
▁Karaman	-10.4816
▁konular	-10.4819
leşmesi	-10.482
▁panel	-10.4821
▁popüler	-10.4821
log	-10.4823
▁Berk	-10.4825
ılırken	-10.4828
▁şişe	-10.4828
▁seyre	-10.4828
▁emri	-10.4829
▁Kuş	-10.483
▁etmektedir	-10.4831
▁aktör	-10.4836
ec	-10.4837
▁süs	-10.4837
baba	-10.4842
▁toplama	-10.4842
▁korun	-10.4845
▁törenine	-10.4846
▁DYP	-10.4847
▁idam	-10.4847
▁Kış	-10.4847
▁eşinin	-10.485
▁For	-10.4852
▁Kong	-10.4854
.*	-10.4857
▁Bulgaristan	-10.4859
▁Oktay	-10.486
▁Akça	-10.4861
▁inanç	-10.4861
▁güçlerinin	-10.4864
▁bildiği	-10.4866
▁cezaevinde	-10.4867
▁görüşmeleri	-10.4869
▁konuya	-10.487
dığım	-10.4871
▁hayırlı	-10.4871
▁sandalye	-10.4872
▁görülüyor	-10.4873
▁verdik	-10.4874
▁beklenti	-10.4876
▁şoför	-10.4877
▁sil	-10.4878
▁katılımıyla	-10.488
▁genelde	-10.4886
▁Selim	-10.4887
▁boru	-10.4889
▁götürdü	-10.4891
▁52	-10.4892
▁halkına	-10.4894
▁üstün	-10.4898
▁oynayacak	-10.4903
eceğim	-10.4903
▁zorlu	-10.4903
▁düz	-10.4905
▁coşku	-10.491
▁çıkarılan	-10.4911
▁seçimleri	-10.4913
▁diyorum	-10.4919
▁beden	-10.492
▁şeklindeki	-10.492
araya	-10.492
▁Hong	-10.492
▁VER	-10.4921
▁karşılığı	-10.4921
▁Sarayı	-10.4921
▁Soy	-10.4922
▁duruyor	-10.4924
▁manevi	-10.4925
99	-10.4928
rol	-10.4932
▁gösterilen	-10.4934
▁etkinlikleri	-10.4934
▁yürüten	-10.4934
▁mülteci	-10.4936
▁işkence	-10.4936
▁mesela	-10.4936
▁düştüğü	-10.4937
kça	-10.4937
▁yo	-10.494
▁kaçan	-10.4947
▁mektubu	-10.4949
▁Hikmet	-10.4949
▁sevin	-10.495
▁kusur	-10.4954
▁Mah	-10.4954
▁çekmek	-10.4958
▁geleni	-10.4962
▁çağdaş	-10.4962
▁Doğru	-10.4964
▁temsilci	-10.4965
▁Erdal	-10.4967
▁aydır	-10.4969
▁sürecinin	-10.4971
▁yöntemi	-10.4974
▁bürokrat	-10.4975
▁sözcü	-10.4976
mesinin	-10.4979
of	-10.4981
▁fotoğrafları	-10.4981
▁lüks	-10.4985
▁tavrı	-10.4988
!..	-10.4988
▁ligin	-10.499
▁kapatma	-10.4992
▁altındaki	-10.4993
▁eti	-10.4993
▁güçlendir	-10.4995
▁za	-10.4999
muştur	-10.5007
işi	-10.5007
▁Karşı	-10.5013
▁Başkanvekili	-10.5013
▁Tak	-10.5015
▁Kanada	-10.5015
▁Öğrenciler	-10.5017
ılacağını	-10.5021
▁üyelik	-10.5025
48	-10.5025
▁zira	-10.5027
▁Siyasi	-10.5028
▁Boy	-10.5029
▁hayati	-10.5031
▁eylemleri	-10.5032
▁isti	-10.5037
61	-10.5038
▁varlığı	-10.504
03	-10.5042
dük	-10.5042
▁hedefleri	-10.5043
▁katlı	-10.505
rip	-10.5054
▁tanesi	-10.5056
oo	-10.506
▁yatırımlar	-10.5063
▁adamlar	-10.5064
▁Mark	-10.507
▁49	-10.5077
TU	-10.5077
▁kanseri	-10.5078
▁sürdüğü	-10.5079
▁acaba	-10.5079
37	-10.5079
▁Kaymakamı	-10.5087
▁deme	-10.5088
▁geçmek	-10.5092
▁Oy	-10.5092
▁Çift	-10.5098
▁doldur	-10.5103
▁paralel	-10.5107
▁Batman	-10.5107
▁sıkıntısı	-10.5109
▁43	-10.511
▁tamamlanması	-10.5111
▁örneği	-10.5111
▁konum	-10.5111
▁700	-10.5112
▁tık	-10.5112
▁danışma	-10.5117
▁Yön	-10.5121
▁Col	-10.5121
▁anında	-10.5122
▁geldik	-10.5123
▁emek	-10.5126
▁meselesi	-10.5129
▁oynanacak	-10.5129
▁gerektir	-10.513
▁gecesi	-10.5131
▁uzmanlar	-10.5133
▁yaptım	-10.5134
▁satıl	-10.5137
vat	-10.5138
▁şunu	-10.5138
▁konuldu	-10.5143
▁şebeke	-10.5144
▁etnik	-10.5144
şer	-10.5145
▁görevlendir	-10.5146
▁Umut	-10.5147
▁oluşturan	-10.5148
▁çalıştıklarını	-10.515
▁dünkü	-10.515
▁devrim	-10.515
▁utan	-10.515
▁Tekin	-10.5151
▁kimin	-10.5154
▁çekin	-10.5157
▁Öğretim	-10.5157
▁başlığı	-10.5157
sch	-10.5157
▁bilgisi	-10.5157
▁kesme	-10.5158
▁düzenlemeler	-10.5163
▁manken	-10.5163
▁Robert	-10.5164
▁demektir	-10.5167
▁dördüncü	-10.517
▁uğur	-10.517
▁Alınan	-10.517
▁maçının	-10.5171
eğin	-10.5172
▁edebilir	-10.5175
rey	-10.5175
▁sayısında	-10.5177
▁yazan	-10.5179
▁duyduğunu	-10.5181
▁Microsoft	-10.5183
▁otopsi	-10.5183
▁yükselen	-10.5185
▁anti	-10.5188
▁grupların	-10.5193
lıktan	-10.5195
▁oranının	-10.5196
▁Engelliler	-10.5196
▁Kitap	-10.5196
dışı	-10.5198
ılacağı	-10.5201
tch	-10.5204
▁Telekom	-10.521
▁39	-10.5214
▁çalışacak	-10.5216
▁olduğumuz	-10.5217
eceklerini	-10.5218
▁yöre	-10.522
ilebilir	-10.5221
▁Lübnan	-10.5223
▁geliş	-10.5224
▁katliam	-10.5225
▁başlama	-10.5228
▁uzmanı	-10.523
▁okulda	-10.5232
▁Kızılay	-10.5233
97	-10.5234
iyordu	-10.5235
▁iklim	-10.5236
▁Yabancı	-10.5238
92	-10.5242
▁geçerek	-10.5243
▁Toplantı	-10.5246
▁Şirket	-10.5253
▁BAŞ	-10.5253
▁başlamış	-10.5253
▁yaşamak	-10.5262
▁Temsilcisi	-10.5262
▁harekat	-10.5265
▁söylemişti	-10.5265
▁kolu	-10.5268
▁MA	-10.5268
▁İpek	-10.5272
ebilmesi	-10.5273
▁kararları	-10.5273
fik	-10.5274
▁Yolu	-10.5276
▁abone	-10.5276
▁çoğunluğu	-10.5276
▁ham	-10.5277
▁öğrenme	-10.5278
▁Mimar	-10.5279
▁şarap	-10.5289
▁bizzat	-10.5289
▁entry	-10.529
▁kapısı	-10.529
olog	-10.5291
▁değiştiril	-10.5291
▁saçma	-10.5292
▁Mil	-10.5298
▁herkesi	-10.5299
▁çıkmak	-10.53
Kur	-10.53
etti	-10.5301
▁Çocuklar	-10.5303
▁dayanışma	-10.5303
▁hanım	-10.5307
▁kavram	-10.531
▁listesi	-10.5311
▁Kanal	-10.5315
▁gerektiğine	-10.5315
▁Güneydoğu	-10.5317
▁küfür	-10.5318
▁platform	-10.5322
Siz	-10.5322
vr	-10.5326
▁vermişti	-10.5327
▁manzara	-10.5329
▁istemiyle	-10.5333
▁oluşturuyor	-10.5333
▁kırmızılı	-10.5341
▁yetersiz	-10.5342
▁Arabistan	-10.5342
RAN	-10.5347
sur	-10.535
mail	-10.535
ildiğini	-10.5352
▁gösterisi	-10.5354
▁görevden	-10.5354
▁bulduğu	-10.5357
▁görülme	-10.5358
INI	-10.5359
▁geçiril	-10.5363
▁gizle	-10.5366
▁mes	-10.5366
▁şov	-10.5367
▁şehrin	-10.5367
▁durdur	-10.5368
▁nikah	-10.5369
▁İnce	-10.537
elli	-10.537
▁eleme	-10.5371
▁vergisi	-10.5372
ston	-10.5373
sey	-10.5374
▁Kongresi	-10.5376
dor	-10.5377
▁okulların	-10.5378
▁yanıtını	-10.5384
▁ilave	-10.5384
örü	-10.5388
▁Hasta	-10.539
▁form	-10.539
▁heykel	-10.5391
▁gücünü	-10.5394
▁sigorta	-10.5396
▁galip	-10.5396
▁parası	-10.5397
▁Hiç	-10.5399
▁arsa	-10.54
▁GEL	-10.54
▁Çık	-10.5402
▁dokun	-10.5404
ERİ	-10.5406
▁Gölü	-10.541
▁kalmadı	-10.5411
▁---	-10.5412
sidir	-10.5415
▁112	-10.5422
▁penaltı	-10.5423
▁bulunmadığı	-10.5424
▁yaratıcı	-10.5429
▁Organize	-10.5437
▁buz	-10.5442
ty	-10.5448
▁yerleri	-10.5449
▁Hakem	-10.5451
muzun	-10.5453
▁Ji	-10.5454
▁söylemek	-10.5464
▁rüya	-10.5464
kov	-10.5464
▁kuruş	-10.5464
▁Star	-10.5465
▁adayları	-10.5466
▁görüşmede	-10.5467
▁giriyor	-10.5469
▁emeği	-10.547
▁işsizlik	-10.5472
lanacağını	-10.5472
▁birlikleri	-10.5474
▁yedek	-10.5478
▁Oyuncu	-10.5481
▁sınıfı	-10.5482
▁eri	-10.5483
▁sistemleri	-10.5485
▁oluşturulan	-10.5489
▁tarafın	-10.5492
38	-10.5494
▁Gü	-10.5494
▁Serkan	-10.5495
▁şampiyonu	-10.5495
▁dostluk	-10.5495
▁belirlenmesi	-10.5499
▁açıklamalar	-10.55
▁Tim	-10.5502
▁hac	-10.5502
▁pist	-10.5503
▁pasaport	-10.5504
▁Oscar	-10.5504
▁kağıt	-10.5504
▁eline	-10.5507
▁indi	-10.551
▁idi	-10.5511
▁uydu	-10.5512
29	-10.5512
▁kategori	-10.5513
gerçekleştirdiği	-10.5513
▁Hoca	-10.5516
▁güzellik	-10.552
▁Babacan	-10.552
▁geriye	-10.5521
▁suçlama	-10.5521
▁Wa	-10.5522
▁önerisi	-10.5526
▁şah	-10.5527
▁doku	-10.553
▁Aslında	-10.5532
gra	-10.5534
Dr	-10.5536
▁okuyan	-10.5536
▁makinesi	-10.5537
hur	-10.5537
▁pazarı	-10.5539
▁Hatay	-10.554
▁İste	-10.554
▁ulaşma	-10.5543
▁Fuar	-10.5546
masıyla	-10.5548
▁ölçü	-10.5549
▁hareketi	-10.5557
▁Tay	-10.5558
▁ürünlerin	-10.556
▁göçmen	-10.5565
▁fatura	-10.5566
gh	-10.5566
▁Müzik	-10.5573
▁yapılır	-10.5575
64	-10.5575
▁satan	-10.5577
▁odaklan	-10.558
▁törende	-10.5582
▁alıcı	-10.5583
47	-10.5586
▁noktaya	-10.5591
▁oyuncunun	-10.5592
▁bitme	-10.5592
▁uygulamaları	-10.5594
▁milyonlarca	-10.5595
▁işçilerin	-10.5597
71	-10.5598
▁Coşkun	-10.56
▁çıkarılması	-10.56
▁Volkan	-10.5601
▁yapılacağını	-10.5601
▁kaya	-10.5602
27	-10.5604
▁kullanıyor	-10.5606
▁Del	-10.5607
▁yenilgi	-10.5607
▁Adayı	-10.561
▁sıcaklığı	-10.5611
▁Pek	-10.5613
laşan	-10.5616
▁yarışı	-10.5616
▁itibar	-10.5617
vel	-10.5618
▁Af	-10.562
▁tartış	-10.5621
▁herşey	-10.5622
▁operasyonda	-10.5628
ort	-10.5628
▁Şenol	-10.5632
▁konunun	-10.5632
▁düşünüyoruz	-10.5632
eyim	-10.5634
▁Öğretmen	-10.5635
▁GÜN	-10.5637
▁bireysel	-10.5641
▁web	-10.5642
▁kaba	-10.5643
bol	-10.5643
▁veriliyor	-10.5645
46	-10.5645
lıyız	-10.5646
liğinin	-10.5647
DER	-10.5649
▁yardımıyla	-10.5649
▁yaşadıkları	-10.5651
▁sever	-10.5656
▁Eşi	-10.5662
▁şikayetçi	-10.5663
usu	-10.5664
▁taraftan	-10.5667
▁eyaletinde	-10.5667
▁zeytin	-10.5669
▁elbise	-10.5669
likler	-10.5669
▁parmak	-10.567
yalım	-10.5671
▁Neden	-10.5671
▁Ziyaret	-10.5671
▁binanın	-10.5675
▁Sinema	-10.5677
▁bulunacak	-10.5677
▁sıkıntılar	-10.5678
▁aradı	-10.5678
▁kaybettiği	-10.5678
▁ajan	-10.5679
▁duyul	-10.5679
hen	-10.5681
▁somut	-10.5683
yüz	-10.5684
▁tarz	-10.5684
▁koyun	-10.5687
▁benimse	-10.5688
▁kayıtları	-10.5689
▁akın	-10.5692
ımızı	-10.5693
▁muayene	-10.5696
▁baraj	-10.5697
lerinizi	-10.57
▁sü	-10.5701
▁sektörün	-10.5702
▁Ban	-10.5704
▁Tem	-10.5704
▁hırsızlık	-10.5705
▁oranda	-10.5706
▁apartman	-10.571
▁Atina	-10.5712
▁ge	-10.5712
▁kişiden	-10.5712
▁dediler	-10.5712
▁Karaca	-10.5714
▁BDP	-10.5714
▁durdurma	-10.5714
▁işsiz	-10.5714
▁vatandaşları	-10.5714
▁tank	-10.5716
-4	-10.5717
memiş	-10.5718
▁Konferansı	-10.5719
▁Tarih	-10.5723
▁çıkardığı	-10.5724
▁bulunmak	-10.5726
▁Yücel	-10.5732
rarak	-10.5732
▁asist	-10.5735
▁Aşk	-10.5737
▁Ercan	-10.5738
▁şair	-10.5738
▁Bekir	-10.5743
▁dizisi	-10.5743
sunun	-10.5746
▁1000	-10.5749
▁meşru	-10.5753
▁Çam	-10.5754
▁Direktör	-10.5758
▁harca	-10.5759
▁ilçesine	-10.5762
ika	-10.5763
▁Acar	-10.5765
▁futbolcunun	-10.5766
▁kökenli	-10.5766
▁olduğundan	-10.5767
▁izmir	-10.5768
▁Çay	-10.5774
abildi	-10.5778
tion	-10.5778
istik	-10.578
▁cesaret	-10.578
▁Zi	-10.578
▁İşçi	-10.5781
▁babam	-10.5782
▁In	-10.5785
▁göstererek	-10.5787
▁Gökçek	-10.5787
44	-10.5788
leşmiş	-10.5794
▁husus	-10.5794
lıyorum	-10.5796
▁firmalar	-10.5796
▁kaldırılan	-10.5797
▁göstermek	-10.5799
▁vaka	-10.58
Bizim	-10.5803
▁kova	-10.5805
ebilirsiniz	-10.5806
▁keyfi	-10.5808
det	-10.5808
▁Kum	-10.5809
▁CD	-10.581
▁Eli	-10.5814
▁imar	-10.5817
▁ölenler	-10.5819
49	-10.5819
02	-10.5823
▁olmuyor	-10.5823
▁şef	-10.5825
▁Akpınar	-10.5825
▁olurdu	-10.5826
68	-10.5827
▁atıl	-10.5828
▁bölümünü	-10.5831
▁deri	-10.5834
91	-10.5835
▁Danıştay	-10.5836
▁reddetti	-10.5836
▁gömmek	-10.5838
▁bankalar	-10.584
▁kadınlara	-10.584
▁sey	-10.5841
yacağı	-10.5841
▁törenle	-10.5843
▁Ekonomik	-10.5844
▁belirleme	-10.5844
▁Belge	-10.5844
▁memleketi	-10.5849
▁Doktor	-10.585
▁kapsamda	-10.585
ilirken	-10.5851
ıyorsunuz	-10.5855
ciliği	-10.5856
▁oluşturul	-10.5856
▁getirecek	-10.5859
▁futbolcuların	-10.5861
▁öğretmenler	-10.5864
▁Putin	-10.5865
▁yapıştırın	-10.5866
IL	-10.5868
▁biridir	-10.5872
▁Sağ	-10.5875
▁muhalif	-10.5876
cisi	-10.5877
▁Kazan	-10.588
mıyorum	-10.5884
▁boyun	-10.589
▁yetkisi	-10.5891
▁Şar	-10.5893
▁bine	-10.59
▁değişti	-10.5901
▁yaşadığını	-10.5901
▁değiliz	-10.5902
▁Şırnak	-10.5907
▁Iraklı	-10.5908
▁politikaları	-10.5909
▁rengi	-10.5909
▁Sahil	-10.5909
▁mevki	-10.591
▁kardeşim	-10.5911
▁yüklü	-10.5917
RU	-10.5918
▁Tiyatro	-10.5919
▁Ziya	-10.592
▁deney	-10.592
▁seçenek	-10.5921
▁Özerk	-10.5922
olu	-10.5926
▁görevine	-10.5927
rul	-10.5934
▁Polonya	-10.5935
▁pencere	-10.5935
▁kopyalayıp	-10.5935
xi	-10.5935
▁Birlik	-10.5936
▁kırsal	-10.5937
▁geliştirilmesi	-10.5937
▁hap	-10.5938
fen	-10.594
▁Veli	-10.5945
mun	-10.5947
▁Korkmaz	-10.5949
lığının	-10.5949
▁eserleri	-10.595
▁Toplantıda	-10.5954
▁şimdiye	-10.5956
▁yaşı	-10.5957
laşması	-10.5958
▁Mac	-10.596
▁Musa	-10.5961
▁Toplantısı	-10.5962
▁İçin	-10.5963
▁Tal	-10.5967
▁askerler	-10.5968
▁finale	-10.5968
▁piyasada	-10.597
ig	-10.5971
▁tez	-10.5973
▁kimseye	-10.5973
▁YIL	-10.5982
eğe	-10.5984
deniz	-10.5988
▁günümüzde	-10.5988
▁günün	-10.5988
▁seminer	-10.5992
▁kıy	-10.5992
▁önündeki	-10.5993
▁verdim	-10.5996
▁planları	-10.5997
▁Fo	-10.5998
▁Rıza	-10.6006
▁Cemil	-10.6006
▁Limanı	-10.6007
▁Gal	-10.601
▁akşamı	-10.6011
▁Silahlı	-10.6017
▁çifti	-10.6018
94	-10.6018
▁faydalan	-10.6019
▁istanbul	-10.602
▁kilise	-10.6021
▁filminde	-10.6022
▁aksine	-10.6025
▁eğ	-10.6025
şir	-10.6026
▁Adı	-10.6027
▁tarihte	-10.6028
▁Hafta	-10.603
▁pop	-10.603
çiler	-10.603
▁sürdürme	-10.6031
▁köyü	-10.6032
▁aileleri	-10.6032
▁oynat	-10.6033
▁Kaide	-10.6036
ST	-10.6036
▁güneyinde	-10.6037
▁kararlı	-10.6038
▁istemiyorum	-10.604
▁temizlik	-10.604
lanacağı	-10.6044
ktif	-10.6047
Re	-10.6047
▁olmanın	-10.6051
lıların	-10.6051
diye	-10.6053
▁serisi	-10.6053
larınızı	-10.6054
▁Bayraklı	-10.6057
▁kapattı	-10.6057
by	-10.6059
▁merkezleri	-10.606
▁Real	-10.606
▁Paul	-10.606
suzluk	-10.6068
cuk	-10.6069
▁haberde	-10.6072
Çin	-10.6075
und	-10.6077
▁duruşu	-10.6077
▁market	-10.6079
▁Con	-10.6081
▁beklentileri	-10.6082
▁Toplam	-10.6083
▁taşıdığı	-10.6086
52	-10.6086
▁She	-10.609
▁oraya	-10.6093
▁oluştu	-10.6099
▁paylaşım	-10.61
▁halkımız	-10.6106
▁lacivertli	-10.6109
mamış	-10.6109
▁barın	-10.611
▁kapasite	-10.6112
▁hareketli	-10.6112
▁anlay	-10.6113
▁pro	-10.6114
▁Lin	-10.6116
▁ağırlık	-10.6118
▁kilogram	-10.6122
▁Banka	-10.6124
▁akp	-10.6125
▁Kom	-10.6128
▁seçin	-10.6129
OK	-10.613
▁ortağı	-10.6132
▁İZ	-10.6133
YAN	-10.6138
Çok	-10.6139
▁kop	-10.614
▁öldürdü	-10.6142
▁çağ	-10.6143
▁raporda	-10.6145
▁muhteşem	-10.615
▁gözyaşları	-10.615
▁otopark	-10.615
lemiş	-10.6151
▁Kaymakam	-10.6152
▁Bek	-10.6152
pol	-10.6153
set	-10.6155
▁duyuru	-10.6155
suna	-10.6158
▁koyduğu	-10.6158
▁ajansı	-10.6158
▁We	-10.6161
▁kurumları	-10.6162
▁damar	-10.6162
▁harika	-10.6166
▁boşanma	-10.6167
▁verip	-10.6168
▁arıyor	-10.617
▁yaşta	-10.6171
▁Hizmetleri	-10.6173
66	-10.6178
▁partiler	-10.6179
▁federasyon	-10.6179
▁karakol	-10.6183
▁şimdiden	-10.6185
▁Turgut	-10.6187
ses	-10.6187
meyin	-10.6188
him	-10.6192
▁sorusu	-10.6194
Cİ	-10.6195
▁firmaların	-10.6197
▁Yağ	-10.62
▁ölç	-10.62
▁sorumlusu	-10.62
racak	-10.6204
▁kulübe	-10.6208
ds	-10.621
▁sorma	-10.621
▁buradaki	-10.6211
▁Sivasspor	-10.6211
▁fiziksel	-10.6225
mba	-10.6228
geç	-10.6229
▁Mahalle	-10.623
▁Alan	-10.6233
▁tarihinin	-10.6233
▁kanı	-10.6233
▁vurgulandı	-10.6235
miyoruz	-10.6245
▁bulur	-10.6248
▁gitmesi	-10.6249
▁bulunul	-10.6252
▁ilerleyen	-10.6252
▁Önder	-10.6255
eb	-10.6257
▁hatırlatarak	-10.6257
▁babasının	-10.6257
▁buluş	-10.6258
The	-10.626
▁havuz	-10.6261
▁Yargı	-10.6262
▁öldürme	-10.6262
▁63	-10.6263
▁ticareti	-10.6264
▁Portekiz	-10.6267
▁teşhis	-10.6267
▁Program	-10.6267
▁şiş	-10.6268
▁yürüttüğü	-10.6268
▁direktörü	-10.627
▁davetli	-10.6271
▁Orada	-10.6276
▁yürek	-10.6277
▁Sorumlu	-10.6278
▁dostu	-10.6279
DÜ	-10.628
▁harf	-10.628
▁duran	-10.6285
▁aktaran	-10.6287
▁sayısını	-10.629
▁benzin	-10.6293
▁Otomobil	-10.6296
▁listesinde	-10.6296
▁görüyoruz	-10.6301
pla	-10.6302
▁Sergi	-10.6304
nç	-10.631
▁fakülte	-10.6311
▁Camii	-10.6311
▁Dere	-10.6312
▁Taksim	-10.6314
▁sorumluluğu	-10.6321
▁gemisi	-10.6321
▁Bahar	-10.6325
▁verirken	-10.6325
▁öfke	-10.6326
▁haklarını	-10.6331
bas	-10.6336
▁personelin	-10.6336
▁değişme	-10.6337
▁programında	-10.6337
▁plana	-10.6337
▁cemaat	-10.634
▁faktör	-10.6341
mb	-10.6343
▁yüzünü	-10.6344
▁uzaklaştı	-10.6345
▁insanlık	-10.6347
▁Operasyon	-10.6347
ilip	-10.6348
▁uzmanları	-10.6349
▁Ortak	-10.6351
resi	-10.6355
▁Üstelik	-10.6355
▁hazırlıklarını	-10.6356
▁aşamasında	-10.6356
acı	-10.6358
▁başladık	-10.6359
▁sun	-10.636
müştür	-10.6365
▁belgesel	-10.6366
▁balıkçı	-10.6368
▁yas	-10.6368
▁gelecekte	-10.637
▁maliyet	-10.6371
Çİ	-10.6373
▁filan	-10.6374
▁zirve	-10.6378
▁duru	-10.6379
▁Yangın	-10.6384
▁gündüz	-10.6385
▁Cor	-10.6385
▁forvet	-10.6385
▁denetimi	-10.6388
▁ömür	-10.6392
yacağını	-10.6392
“	-10.6396
▁oradan	-10.6397
▁olmazsa	-10.6397
▁2-0	-10.64
▁tutum	-10.6402
▁bel	-10.6404
TAR	-10.6405
MS	-10.6406
41	-10.6412
▁kitapları	-10.6414
▁konuşması	-10.6415
▁Öyle	-10.6416
▁tasarısı	-10.6417
gor	-10.6418
ttiği	-10.6421
▁konuşuyor	-10.6422
▁örgütün	-10.6422
▁sunulan	-10.6425
leşti	-10.6425
▁YAP	-10.6426
▁almayı	-10.6427
▁başvurusu	-10.6427
▁yöneticisi	-10.6428
mıyoruz	-10.6429
▁sakatlık	-10.6431
▁HDP	-10.6433
HA	-10.6435
▁taşıdı	-10.6437
▁golcü	-10.6438
▁dönemlerde	-10.6439
▁gerilim	-10.6443
▁arıza	-10.6446
▁yargılama	-10.6449
eğer	-10.6451
▁artıyor	-10.6452
▁Evi	-10.6455
▁sebebiyle	-10.6458
▁Soruşturma	-10.6459
▁85	-10.6461
▁56	-10.6461
▁özgü	-10.6462
39	-10.6462
▁kamuoyuna	-10.6465
93	-10.6465
34	-10.6465
▁bitirdi	-10.6469
▁atlat	-10.6471
▁ihmal	-10.6474
▁ro	-10.6475
▁kararlar	-10.6475
▁virüs	-10.6476
▁yetkilisi	-10.6478
▁Oku	-10.6482
▁içeriği	-10.6482
▁Kol	-10.6489
name	-10.6489
▁sanırım	-10.6491
▁Sto	-10.6491
▁katılması	-10.6492
▁girer	-10.6493
▁54	-10.6496
▁Ah	-10.6498
▁Men	-10.6499
▁x	-10.6501
▁siyasal	-10.6505
▁minik	-10.6505
▁belirtirken	-10.6506
▁ediyorlar	-10.6507
▁Cemal	-10.6507
▁Kurum	-10.6509
▁arayan	-10.6509
▁olmasından	-10.6509
▁TRT	-10.651
▁Fen	-10.6511
▁metrekarelik	-10.6518
▁duyurusunda	-10.652
▁Görüşme	-10.6521
▁kurs	-10.6521
lüğünü	-10.6522
▁gözler	-10.6523
▁içerik	-10.6523
▁ot	-10.6524
▁yapacağını	-10.6526
▁seçimlerinde	-10.653
▁giyim	-10.653
▁Kas	-10.6531
83	-10.6535
ling	-10.6543
▁tarla	-10.6543
Ancak	-10.6548
▁birimi	-10.6548
▁ekonomisinin	-10.6549
▁mücadelede	-10.6551
▁bütçesi	-10.6552
▁Roman	-10.6554
▁yaptırım	-10.6554
▁çanta	-10.6555
▁Ladin	-10.6557
▁tıp	-10.656
medim	-10.656
▁sayın	-10.6563
▁saldırıları	-10.6563
▁tüketimi	-10.6564
▁Elektrik	-10.6565
KI	-10.6567
▁istemiyor	-10.6568
▁yiy	-10.657
▁edebiyat	-10.6572
▁vatandaşlara	-10.6575
▁kullanılır	-10.6576
▁gösterileri	-10.6578
▁düşünen	-10.658
▁yıkıl	-10.6583
▁yakıt	-10.6583
▁Olayla	-10.6584
▁defans	-10.6585
▁Millet	-10.6585
▁askerlerin	-10.6589
▁evden	-10.659
▁bilmiyor	-10.6591
▁görüşlerini	-10.6593
▁Ağ	-10.6594
kaç	-10.6594
likten	-10.6595
▁Hayvan	-10.6596
▁anladı	-10.6597
▁ağırlıklı	-10.66
▁azaldı	-10.6602
▁bıçakla	-10.6604
berg	-10.6606
▁tesisleri	-10.6606
▁sevme	-10.6607
GA	-10.661
▁ağacı	-10.6611
▁mermi	-10.6616
▁Hay	-10.6619
▁ailesine	-10.662
▁oluşuyor	-10.662
▁Erzincan	-10.6625
▁aşamada	-10.6632
▁2.5	-10.6634
hil	-10.6636
▁gök	-10.6642
▁Sarıgül	-10.6643
▁Nehri	-10.6645
▁vücudun	-10.6648
▁bot	-10.6649
▁1980	-10.6649
▁dönüşü	-10.6651
▁kral	-10.6651
▁tarihlerinde	-10.6652
▁ila	-10.6654
▁yıldönümü	-10.6656
▁edilmesini	-10.6657
▁ülkesi	-10.6657
▁xx	-10.6658
▁önemine	-10.666
▁1990	-10.6663
emediği	-10.6665
▁Hiçbir	-10.6667
▁dünyasında	-10.6667
▁masaya	-10.6668
▁yıllarında	-10.667
▁kapsayan	-10.6671
gre	-10.6671
▁Art	-10.6672
▁düşüncesi	-10.6673
▁buluşma	-10.6673
▁yapabilir	-10.6674
▁kenarında	-10.6678
▁öp	-10.6678
▁oynamak	-10.6679
▁Belki	-10.668
▁kişilere	-10.668
▁sözlük	-10.6681
▁Kendisi	-10.6683
▁AD	-10.6683
▁bildiren	-10.6686
▁Sigorta	-10.6686
▁hayatım	-10.6686
▁yapmadı	-10.6688
▁ayrıntı	-10.669
▁kafe	-10.669
▁yaşadıklarını	-10.6693
▁haberleri	-10.6698
▁tutarı	-10.67
KAN	-10.67
▁aydın	-10.6701
▁Sınır	-10.6702
▁kaçın	-10.6704
▁kademe	-10.6705
▁markası	-10.6707
larsa	-10.6709
▁Not	-10.671
cal	-10.671
▁önünü	-10.671
▁sağladığı	-10.6715
▁Danışma	-10.6715
▁kork	-10.6715
▁Emine	-10.6718
▁desteğiyle	-10.6718
▁çök	-10.672
▁icra	-10.6722
▁olmasın	-10.6722
▁ölümü	-10.6723
▁sandık	-10.6724
▁ruhu	-10.6725
ÇE	-10.6725
▁kalkınma	-10.6731
▁gündem	-10.6731
▁zihniyet	-10.6733
▁Konser	-10.6734
▁metal	-10.6734
stro	-10.6734
▁numarası	-10.6737
▁sürdüğünü	-10.6737
▁saatlerde	-10.6738
▁bilinç	-10.6739
▁Tra	-10.6739
▁kuvvetli	-10.6741
▁döner	-10.6742
tigi	-10.6746
▁Yara	-10.6747
▁İlişkiler	-10.6748
▁istikrar	-10.6749
▁1997	-10.6753
▁televizyonu	-10.6753
▁havaya	-10.6753
▁malzemeleri	-10.6755
leyin	-10.6755
▁Ailesi	-10.6761
▁hücum	-10.6763
▁İMKB	-10.6763
▁dürüst	-10.6763
▁bölümde	-10.6764
▁şirketleri	-10.6764
▁değişen	-10.6765
▁mimar	-10.6766
boğa	-10.6767
95	-10.6768
▁servisi	-10.677
▁yerleşti	-10.6771
bal	-10.6771
▁vermeyi	-10.6772
▁düzeni	-10.6772
▁58	-10.6778
Ankara	-10.6778
▁sabır	-10.6779
▁Destek	-10.6779
▁Karşılaşma	-10.6782
59	-10.6784
▁diledi	-10.6785
▁MİT	-10.6785
▁TEK	-10.6787
ümü	-10.6789
▁bölgesel	-10.679
▁koku	-10.6791
Ara	-10.6792
▁gidiş	-10.6793
▁Kadıköy	-10.6794
▁lezzet	-10.6794
▁köylü	-10.6796
▁Ele	-10.6797
gg	-10.6798
Baş	-10.6798
▁davada	-10.6798
▁Özal	-10.6798
▁Birçok	-10.6799
▁girip	-10.6802
▁açılışı	-10.6803
lamıyor	-10.6806
▁olabilecek	-10.6807
Dk	-10.6809
▁Dernek	-10.6811
▁mesai	-10.6811
▁Olimpiyatları	-10.682
43	-10.6822
▁Kir	-10.6822
▁Dur	-10.6825
▁yürüme	-10.6825
lamıştı	-10.6827
▁Wil	-10.683
lemek	-10.6831
▁taze	-10.6836
▁evlen	-10.6837
▁Büyükelçi	-10.6838
Şu	-10.6839
▁FOTO	-10.6841
▁gösterdiğini	-10.6843
53	-10.6843
▁Partili	-10.6843
42	-10.6844
▁yürütül	-10.6845
fil	-10.6846
54	-10.6846
▁kente	-10.6849
▁inşaatı	-10.6852
▁karşıtı	-10.6854
▁Hazır	-10.6856
▁belirsiz	-10.6861
▁savaşa	-10.6862
▁edilmiştir	-10.6864
▁Tor	-10.6866
▁operasyonun	-10.6869
▁toplandı	-10.6869
▁araştırmalar	-10.687
layın	-10.6871
▁Gaziemir	-10.6872
▁inanılmaz	-10.6872
▁gelişimi	-10.6873
▁korsan	-10.6874
▁denilen	-10.6874
▁süresince	-10.6875
▁Eroğlu	-10.6875
Irak	-10.6877
▁57	-10.6882
▁Hakkı	-10.6883
▁kaldırdı	-10.6885
▁atış	-10.6886
▁istedikleri	-10.6886
lasyon	-10.6886
▁Tolga	-10.6887
▁Programı	-10.6887
İYE	-10.6888
▁Wang	-10.6892
üldü	-10.6892
mit	-10.6892
▁Kırmızı	-10.6893
▁olduğum	-10.6895
▁Bank	-10.6897
▁bunlara	-10.6899
▁edeceklerini	-10.6899
▁Zeynep	-10.6903
▁otomatik	-10.6903
▁Esnaf	-10.6903
tic	-10.6904
▁gözaltı	-10.6909
▁koşu	-10.6911
▁Pu	-10.6912
▁tecrübeli	-10.6913
▁isimlerin	-10.6914
▁sistemin	-10.6916
rıyor	-10.6917
▁evlenme	-10.6919
▁ic	-10.692
▁binasında	-10.6923
▁desteğini	-10.6924
▁Rize	-10.6925
olojik	-10.6928
▁Milan	-10.6928
▁Emekli	-10.6929
▁Romanya	-10.693
▁sipariş	-10.6934
▁Mumcu	-10.6934
yordu	-10.6935
▁kömür	-10.6935
▁tadı	-10.6939
▁komut	-10.694
▁tra	-10.6942
▁ağız	-10.6943
▁Far	-10.6943
say	-10.6945
▁oğlum	-10.6946
laştı	-10.6946
▁salı	-10.6948
▁çocuklarının	-10.6955
▁çare	-10.6957
▁niyet	-10.6962
▁kendisinden	-10.6962
▁Körfez	-10.6962
▁konuları	-10.6964
▁Chen	-10.6964
82	-10.6964
▁gayret	-10.6965
▁amerika	-10.6966
▁kızları	-10.6967
▁süreyle	-10.6967
▁amca	-10.6968
▁Gazeteciler	-10.6971
cilerin	-10.6973
lerken	-10.6974
▁kesti	-10.6974
63	-10.6976
▁kullanıldığı	-10.6977
▁Teşkilatı	-10.6983
69	-10.6984
▁yenerek	-10.6986
Kara	-10.699
▁strateji	-10.6992
çılar	-10.6994
amam	-10.6995
▁bizden	-10.6995
▁53	-10.6997
▁yazısı	-10.6999
▁köylüler	-10.7002
ola	-10.7004
▁sahiptir	-10.7008
▁bilgilendirme	-10.7011
▁yolculuk	-10.7012
▁filminin	-10.7013
▁boğu	-10.7013
ğına	-10.7013
SK	-10.7014
fak	-10.7016
▁okullarda	-10.7021
mayacağını	-10.7026
▁diyecek	-10.7029
▁Alsancak	-10.7029
▁Gençlerbirliği	-10.7029
▁görüşünü	-10.7029
▁subay	-10.703
▁kurucu	-10.703
▁dünyasının	-10.7031
inizi	-10.7035
cısı	-10.7038
▁harcan	-10.704
▁etrafında	-10.7041
amayacağı	-10.7044
▁göze	-10.7044
▁per	-10.7044
▁Google	-10.7045
▁Hülya	-10.7045
▁Kardeş	-10.7048
▁faydalı	-10.7053
yelim	-10.7054
▁Ülker	-10.7057
▁uyma	-10.7058
▁Sam	-10.706
▁donanım	-10.7061
▁konseri	-10.7061
▁ulaşmak	-10.7062
▁havada	-10.7062
▁sözler	-10.7063
leştirilmesi	-10.7063
▁verildiğini	-10.7063
▁Uzmanlar	-10.7065
Ama	-10.7066
▁uyarınca	-10.7066
▁baktığı	-10.7066
▁görevinden	-10.7069
▁sorular	-10.707
▁MÜ	-10.707
▁tarihe	-10.7071
mizden	-10.7074
▁coğrafya	-10.7076
▁doğalgaz	-10.7078
▁Tiyatrosu	-10.7078
▁Petrol	-10.7079
▁şeye	-10.708
▁etmesini	-10.7082
▁dünyadaki	-10.7086
▁hazırladı	-10.7087
tiğini	-10.7088
▁girmiş	-10.7088
▁Okan	-10.7088
dağı	-10.709
▁Mas	-10.709
▁İhale	-10.7092
▁kuruluşlar	-10.7093
▁çekilmesi	-10.7095
▁Fonu	-10.7095
▁yanıtlayan	-10.7099
▁bayanlar	-10.7102
▁yararlı	-10.7108
dö	-10.7109
▁ülkelere	-10.7112
▁bunlardan	-10.7118
▁öğretmeni	-10.7118
▁durdu	-10.7119
▁tanıtımı	-10.7122
uldu	-10.7123
LERİN	-10.7123
▁Necdet	-10.7124
▁Atilla	-10.7124
▁satır	-10.7125
IT	-10.7125
▁kapatılması	-10.7126
▁bölümünün	-10.7127
▁etkisini	-10.7127
çok	-10.7129
▁Toto	-10.7134
▁Önceki	-10.7136
▁gec	-10.7138
▁kom	-10.7138
▁Danimarka	-10.714
▁aldat	-10.7141
▁beklediklerini	-10.7142
▁önlemek	-10.7144
57	-10.7144
▁seçimde	-10.7149
iyo	-10.7149
▁Elazığ	-10.7156
likte	-10.7157
kül	-10.7158
▁konuşmasını	-10.7159
▁gölge	-10.7161
▁duygusal	-10.7162
▁izliyor	-10.7166
▁Mühendis	-10.7168
▁Sorun	-10.7169
üşü	-10.717
ct	-10.717
▁Deprem	-10.7172
▁YÖK	-10.7172
▁doğumlular	-10.7172
lıyoruz	-10.7174
▁Bro	-10.7174
Avrupa	-10.7176
▁kopar	-10.7177
▁uzan	-10.718
▁omuz	-10.7186
▁Gökçe	-10.7187
▁Pen	-10.7187
▁salonunda	-10.7188
▁James	-10.7189
dılar	-10.7192
▁yaratma	-10.7196
▁silin	-10.7202
▁aşık	-10.7202
ışma	-10.7204
▁sayede	-10.7206
▁kutu	-10.7206
▁çocuklarımız	-10.7209
▁istasyonu	-10.721
▁oluş	-10.721
▁düştüğünü	-10.7217
▁yaşandığını	-10.7217
▁oyuna	-10.7219
▁bankaların	-10.722
▁avrupa	-10.7221
▁vizyon	-10.7221
dikten	-10.7221
▁2-1	-10.7222
▁hariç	-10.7222
alp	-10.7226
▁düşünür	-10.7228
▁arttığını	-10.7229
ÜM	-10.7232
dol	-10.7232
▁asgari	-10.7237
▁mensupları	-10.7243
▁Filmin	-10.7243
Yİ	-10.7251
▁yapacaklarını	-10.7252
▁derecede	-10.7255
▁öldüğünü	-10.7256
▁işten	-10.7257
▁tarihine	-10.726
▁Wen	-10.7262
▁bini	-10.7264
▁Galeri	-10.7265
▁slogan	-10.7266
▁etkisiz	-10.7267
▁Temel	-10.7269
▁onunla	-10.7269
▁haz	-10.7272
▁organları	-10.7274
▁çalışmalarında	-10.7275
▁imkansız	-10.7277
▁sakla	-10.7278
▁kararına	-10.7279
▁sürecin	-10.728
▁Savcılığı	-10.7284
▁engelleme	-10.7285
▁Taraftar	-10.7285
▁düzenlenmesi	-10.7287
▁makale	-10.7287
▁çağrısında	-10.7287
▁hikayesi	-10.7287
▁blok	-10.7288
▁rahatsızlık	-10.7288
▁çarp	-10.7289
▁düşündüğü	-10.7293
▁Muh	-10.7295
▁kaldırma	-10.7296
GS	-10.7296
TUR	-10.7296
▁ayına	-10.7298
▁verilmesini	-10.7299
▁Hollywood	-10.7302
▁şeref	-10.7302
▁tekstil	-10.7302
▁finansman	-10.7302
▁pan	-10.7303
▁Üst	-10.7303
ura	-10.7305
58	-10.7306
leyeceği	-10.7306
▁öldürülen	-10.7309
▁yargılanan	-10.7309
▁İm	-10.7309
▁adlandırılan	-10.731
▁metin	-10.7311
▁örtü	-10.7311
▁yoksul	-10.7316
▁yoluna	-10.7317
▁59	-10.7318
▁yakalanan	-10.7319
▁kemik	-10.732
-10	-10.7321
▁kardeşler	-10.7322
Par	-10.7323
▁1996	-10.7324
rız	-10.7324
▁kenar	-10.7326
▁pis	-10.7327
form	-10.7328
▁ailelerin	-10.7331
shi	-10.7332
▁Meksika	-10.7334
▁Burhan	-10.7335
▁nereye	-10.7335
▁atı	-10.7337
▁arkadaşlarım	-10.7338
▁yakalan	-10.7339
▁nüfusu	-10.7343
▁kolları	-10.7346
▁kaptan	-10.7348
ex	-10.7349
▁samimi	-10.7349
▁sebze	-10.7351
▁suretiyle	-10.7351
▁özelleştirme	-10.7351
▁yeterince	-10.7352
▁süreli	-10.7353
▁şarkısı	-10.7355
▁Dönem	-10.7357
TER	-10.7358
gur	-10.7362
▁Bugüne	-10.7363
▁oranla	-10.7368
▁Onu	-10.7368
51	-10.7368
▁direkt	-10.7369
▁sıradan	-10.7369
▁İsmet	-10.737
▁beğeni	-10.7371
▁şampiyonluğu	-10.7374
▁kalmak	-10.7374
▁62	-10.7375
▁miras	-10.7376
▁anlaşmaya	-10.7376
▁kod	-10.7379
▁usul	-10.738
yeceğiz	-10.7381
▁Çağlayan	-10.7385
▁imalat	-10.7385
▁mor	-10.7386
▁tat	-10.7387
▁önemini	-10.7389
MEK	-10.739
zel	-10.7391
▁alınmış	-10.7392
▁kodu	-10.7396
▁galibiyeti	-10.7396
▁tutku	-10.7398
▁Tuncay	-10.74
▁ANAP	-10.74
▁etmiştir	-10.7402
▁saldırısı	-10.7404
▁sır	-10.7405
▁Veri	-10.7405
▁cevabı	-10.7407
▁talepleri	-10.7408
▁getireceği	-10.741
-15	-10.741
▁gelmedi	-10.7411
▁hizmetler	-10.7413
▁Trafik	-10.7417
▁elindeki	-10.7417
▁stres	-10.7417
▁yil	-10.7422
maktan	-10.7422
▁çalışırken	-10.7424
▁Yo	-10.7424
▁Ur	-10.7424
▁taraftarları	-10.7426
▁yaşanıyor	-10.7426
▁duman	-10.7432
56	-10.7433
▁GEÇ	-10.7433
mizle	-10.7436
▁artırılması	-10.7438
▁katılacağı	-10.7439
▁fena	-10.7442
▁çalışmalarımız	-10.7444
▁Brezilyalı	-10.7444
▁derhal	-10.7451
▁bulunmuştu	-10.7454
▁Op	-10.7458
▁KAR	-10.746
▁şoförü	-10.746
▁for	-10.746
▁Divan	-10.7462
▁ithal	-10.7463
▁Erkekler	-10.7463
▁indiril	-10.7464
▁atölye	-10.7466
▁esnasında	-10.7466
▁ARA	-10.7466
▁diyorlar	-10.7467
yeceği	-10.7467
▁Uşak	-10.7468
▁çıkaran	-10.7469
▁saldırıların	-10.7471
▁yönettiği	-10.7476
Benim	-10.7477
▁benden	-10.7479
▁yoldan	-10.748
▁Sağlam	-10.7481
▁köpeği	-10.7482
▁rüşvet	-10.7482
cha	-10.7483
lerimi	-10.7484
▁Saha	-10.7484
BB	-10.7487
▁açılacak	-10.7487
▁girerek	-10.7493
lüğe	-10.7499
▁Jintao	-10.7499
▁işadamları	-10.7499
▁dönük	-10.75
▁tanıdığı	-10.75
▁kapanış	-10.7501
▁sanıklar	-10.7501
▁Sendikası	-10.7502
▁medyada	-10.7502
▁işini	-10.7504
▁çizen	-10.7504
▁Fethiye	-10.7506
▁bakalım	-10.7506
▁oturdu	-10.7506
▁koştu	-10.7508
▁ifadeleri	-10.7509
diğiniz	-10.751
▁peş	-10.751
▁hayatın	-10.7512
▁rejim	-10.7515
▁Barcelona	-10.7515
▁Bergama	-10.7515
▁düşüyor	-10.7517
▁kucak	-10.7517
▁ülkedeki	-10.7521
▁Yarışma	-10.7521
▁kararıyla	-10.7521
▁birleşme	-10.7526
LEN	-10.7526
▁bırakıp	-10.7528
▁gitar	-10.7529
▁kampı	-10.753
▁konumu	-10.7531
▁büyükelçi	-10.7532
▁durumlarda	-10.7535
▁geçirmek	-10.7536
▁çağırdı	-10.7537
▁Arif	-10.7538
▁yanındaki	-10.7539
tekin	-10.7542
▁siyasetçi	-10.7543
▁misiniz	-10.7544
▁toprakları	-10.7545
masından	-10.7549
▁karanlık	-10.755
▁kaydedil	-10.755
▁sevinç	-10.7555
▁türban	-10.7557
▁koyu	-10.7558
ğım	-10.7563
▁Göl	-10.7563
▁ayının	-10.7565
▁herhalde	-10.7566
▁vuruş	-10.7566
avi	-10.7567
▁sözünü	-10.7567
▁kutsal	-10.757
▁tüketim	-10.7571
▁teknolojisi	-10.7571
lus	-10.7573
baz	-10.7573
▁irade	-10.7575
▁yapmıştı	-10.7575
▁aradan	-10.758
▁beklediği	-10.758
▁teşkilatı	-10.7581
▁Platformu	-10.7582
▁Eylem	-10.7583
▁Kaynak	-10.7584
▁kesinti	-10.7585
▁vicdan	-10.7585
▁üreten	-10.7586
▁açıklanan	-10.7587
▁bozma	-10.7591
VA	-10.7591
▁mikro	-10.7595
▁atıldı	-10.7598
▁Şükrü	-10.7599
▁pasta	-10.76
İD	-10.7601
▁delil	-10.7602
▁görsel	-10.7605
▁Uç	-10.7608
mazsa	-10.7612
▁gözet	-10.7613
▁sarf	-10.7613
▁şut	-10.7613
▁BİN	-10.7613
▁Tepe	-10.7614
▁takviye	-10.7616
▁havaalanı	-10.7616
▁Power	-10.7616
▁tesisi	-10.7617
▁Annan	-10.7617
▁Bulut	-10.7618
▁YENİ	-10.7621
▁özetle	-10.7622
▁kavramı	-10.7623
▁beyni	-10.7623
▁gri	-10.7623
SS	-10.7627
▁çıkarmak	-10.7627
▁belgeleri	-10.7631
▁müthiş	-10.7633
▁rehber	-10.7633
▁soykırım	-10.7633
park	-10.7634
▁sıcaklık	-10.7642
▁planlama	-10.7642
▁musunuz	-10.7643
▁reddedil	-10.7647
▁iftar	-10.7649
▁Blair	-10.765
▁kurulacak	-10.765
▁ısınma	-10.7651
▁grev	-10.7653
dd	-10.7654
▁göstergesi	-10.7657
▁Plan	-10.766
▁puanı	-10.7661
▁konudaki	-10.7663
▁Alex	-10.7665
EP	-10.7666
▁Yahudi	-10.7666
▁hastalıkları	-10.7668
▁Suç	-10.7673
makla	-10.7674
85	-10.7677
▁Tür	-10.7677
▁Beni	-10.7678
▁yapılabil	-10.7679
▁Düş	-10.7682
başkan	-10.7682
▁oluşturmak	-10.7683
▁hik	-10.7684
▁defalarca	-10.7685
oy	-10.7687
▁alanlarında	-10.7687
▁rakipleri	-10.7688
33	-10.769
▁Gerçek	-10.7691
▁Antalyaspor	-10.7694
▁kaybol	-10.7694
▁dert	-10.7695
▁turistler	-10.7696
▁ağabeyi	-10.7699
cel	-10.7699
▁Büyükelçiliği	-10.77
▁programına	-10.7702
▁ülkemiz	-10.7707
▁Yunus	-10.7708
▁gösterir	-10.7708
▁Yüz	-10.7709
star	-10.7709
▁tutun	-10.7711
▁maçına	-10.7716
▁müttefik	-10.7717
▁yanısıra	-10.7717
▁Ağrı	-10.7718
▁delege	-10.7718
▁ortaklık	-10.772
▁olaydan	-10.7722
▁dalında	-10.7727
▁Devleti	-10.7728
▁HSYK	-10.773
▁çıkışı	-10.773
▁Gümrük	-10.7734
▁denir	-10.7734
▁itibarıyla	-10.7735
▁karşılaşmada	-10.7736
▁antik	-10.7736
▁kuruluşların	-10.7737
▁Kaç	-10.774
▁play	-10.774
▁yönetimin	-10.7741
▁Çal	-10.7742
▁saklan	-10.7746
ılmaz	-10.7747
▁takı	-10.7747
graf	-10.7751
▁Kurtuluş	-10.7751
▁Vural	-10.7751
▁Dört	-10.7751
▁Güngör	-10.7752
▁yükselt	-10.7753
▁gelmişti	-10.7753
▁habere	-10.7754
▁etkinliği	-10.7754
▁taksit	-10.776
▁ödülünü	-10.7762
▁Ürdün	-10.7768
▁göğüs	-10.7768
▁bilinmeyen	-10.7769
▁Ekrem	-10.777
▁Hizmet	-10.7771
Ak	-10.7772
▁unutul	-10.7775
ğimiz	-10.7776
▁tatili	-10.7777
▁gelişen	-10.7779
▁uyardı	-10.7781
İNİ	-10.7781
lanmasını	-10.7783
▁Pamuk	-10.7785
▁cumartesi	-10.7785
▁bizler	-10.7786
▁soruya	-10.7786
dis	-10.7787
▁Ona	-10.7788
özü	-10.7793
▁memnuniyet	-10.7796
kuş	-10.7797
İB	-10.7799
▁akraba	-10.7799
0.000	-10.7801
▁sakatlığı	-10.7801
▁Saldırı	-10.7802
▁Kamil	-10.7803
▁halı	-10.7803
▁partilerin	-10.7803
▁ardı	-10.7805
▁Tunç	-10.7805
▁formül	-10.7806
İlk	-10.7807
▁haftalık	-10.7808
-5	-10.7809
▁Evren	-10.781
▁gazeteciler	-10.7811
▁81	-10.7816
posta	-10.7816
▁saatleri	-10.7818
▁Mavi	-10.7819
▁Kolları	-10.7819
▁Yardım	-10.7819
ebilen	-10.7822
sco	-10.7822
▁Hep	-10.7822
▁sürecini	-10.7824
Bİ	-10.7825
vin	-10.7826
▁Komisyon	-10.7829
▁dönüştürül	-10.7831
BE	-10.7836
ladıkları	-10.7836
▁saatlik	-10.7836
▁çabuk	-10.7837
▁firmanın	-10.7841
▁bölgeleri	-10.7842
▁SANA	-10.7844
▁işbirliğinin	-10.7846
▁verilerine	-10.7848
▁evlat	-10.7851
raz	-10.7854
▁macera	-10.7854
▁doğumlu	-10.7856
▁kursu	-10.7857
▁iktidarı	-10.786
▁seviyorum	-10.786
▁gun	-10.7861
▁seslendi	-10.7863
▁çalışanların	-10.7864
▁köyünde	-10.7864
▁hadi	-10.7867
sınlar	-10.7868
▁Doğal	-10.787
▁anahtar	-10.7871
ebilme	-10.7871
ğü	-10.7872
▁yetkililerin	-10.7878
mızdan	-10.7879
▁yığ	-10.7882
▁görecek	-10.7883
▁Doğa	-10.7885
▁birbirini	-10.7886
▁doğdu	-10.7888
▁umudu	-10.7889
▁Kaplan	-10.7893
▁atıyor	-10.7894
▁bölgesindeki	-10.7899
▁hamle	-10.79
▁ülkelerinin	-10.79
▁sevinci	-10.7901
▁sanatı	-10.7902
▁oluşturulması	-10.7906
▁artışla	-10.7908
▁faizi	-10.7908
▁seçimlerin	-10.791
▁grupları	-10.7914
▁Ergin	-10.7914
▁haftasında	-10.7916
▁sars	-10.7917
▁Sağlığı	-10.7918
▁kare	-10.7919
▁Önemli	-10.7923
▁Yiğit	-10.7923
▁idman	-10.7923
62	-10.7923
▁gösterim	-10.7923
▁garip	-10.7926
▁AŞ	-10.7927
▁şarkıları	-10.7927
▁hükmü	-10.793
▁potansiyeli	-10.7931
▁güvence	-10.7933
▁hic	-10.7933
▁seçime	-10.7935
▁aileler	-10.7935
ön	-10.7936
▁izleyiciler	-10.7936
▁dere	-10.7937
iyorsunuz	-10.7939
▁katma	-10.7939
▁Turkcell	-10.794
▁sistemine	-10.7942
▁seçti	-10.7942
▁partililer	-10.7943
76	-10.7944
▁hayatına	-10.7946
US	-10.7951
Kendi	-10.7952
sman	-10.7953
▁imzaladı	-10.7953
▁gazetesinin	-10.7956
▁Ceylan	-10.7958
▁biliniyor	-10.7958
▁etmeleri	-10.7959
▁tüp	-10.796
▁Erkek	-10.7962
▁yemin	-10.7964
▁kuran	-10.7964
sy	-10.7966
tter	-10.7966
▁kor	-10.7967
ph	-10.7969
▁istediğiniz	-10.7971
▁partisinin	-10.7971
▁Dan	-10.7972
▁gelişi	-10.7972
▁ocağı	-10.7974
▁branş	-10.7975
▁Demokrasi	-10.7977
▁bırakan	-10.7978
▁durumunu	-10.7981
▁bağımlı	-10.7981
▁tamamlayan	-10.7982
ug	-10.7983
▁inşası	-10.7986
Sayın	-10.7987
▁mart	-10.7987
▁önemlidir	-10.7989
ub	-10.7989
▁hassas	-10.7989
▁cennet	-10.7992
emeyecek	-10.7994
osu	-10.8
▁cihaz	-10.8001
▁72	-10.8001
dıktan	-10.8004
▁kazada	-10.8004
▁Kuru	-10.8005
▁kopya	-10.8006
▁imkanları	-10.8006
▁dinlenme	-10.8007
▁hastası	-10.8007
▁ilkeleri	-10.8009
▁iletti	-10.8009
ustu	-10.8009
▁Bayındır	-10.801
▁uyumlu	-10.801
▁kazanç	-10.8012
▁Taner	-10.8014
▁örneğin	-10.8018
▁64	-10.8022
▁stad	-10.8024
▁ihti	-10.8025
▁öngören	-10.8033
▁gelmek	-10.8034
▁sistemini	-10.8037
▁Fotoğraf	-10.8038
DO	-10.804
▁geriledi	-10.8043
los	-10.8043
▁Yakın	-10.8049
▁topladı	-10.8049
▁salonda	-10.8052
▁Adası	-10.8053
▁mensuplarının	-10.8055
amayacağını	-10.8057
▁trafiğe	-10.8062
▁veriyoruz	-10.8063
▁işlemlerinin	-10.8065
▁insana	-10.8069
▁militan	-10.8071
▁bulunmayan	-10.8071
▁diz	-10.8071
▁kalkan	-10.8072
▁sevdiği	-10.8074
▁ülkelerden	-10.8075
▁istedik	-10.8075
▁Süre	-10.8077
▁Sarkozy	-10.808
▁ihtiyaçları	-10.808
▁emanet	-10.808
lediğini	-10.8081
▁tarafında	-10.8083
▁budur	-10.8083
▁bankacılık	-10.8083
▁takımlarından	-10.8085
▁yaptılar	-10.8085
▁çıkmaya	-10.8092
▁yürüdü	-10.8092
▁liradan	-10.8093
ps	-10.8094
KO	-10.8095
▁Savcısı	-10.8096
▁sertifika	-10.8097
▁maçtan	-10.8099
▁açmak	-10.8101
▁gelişmeleri	-10.8102
▁gençlik	-10.8106
▁ölümüne	-10.811
Eğer	-10.811
▁arayarak	-10.8111
mel	-10.8111
▁Hayatı	-10.8112
SP	-10.8113
▁tırman	-10.8114
muza	-10.8114
kay	-10.8114
▁Merkel	-10.8115
▁Sedat	-10.8116
▁Dursun	-10.8117
▁yar	-10.8119
▁dokuz	-10.812
nizin	-10.8122
rie	-10.8123
▁Çağ	-10.8149
▁mecbur	-10.815
▁hitap	-10.815
▁Gözaltın	-10.8151
uyoruz	-10.8151
▁sunucu	-10.8151
▁yüzey	-10.8152
▁işbirliğini	-10.8154
oto	-10.8155
fat	-10.8158
▁Günay	-10.8159
▁Büro	-10.8159
▁uçakla	-10.8161
▁kutladı	-10.8164
▁Siyah	-10.8168
▁güvenliğini	-10.8168
▁OLDU	-10.8169
▁sokağa	-10.817
▁taraflar	-10.8171
▁askerin	-10.8176
had	-10.8179
▁Esen	-10.818
▁Is	-10.818
ino	-10.8182
▁yaratan	-10.8184
DİR	-10.8185
▁kurucusu	-10.8185
▁Nasıl	-10.8187
▁etmez	-10.8188
▁bahane	-10.8194
▁oldugu	-10.8196
Nİ	-10.8198
▁HAK	-10.8201
▁düşündü	-10.8201
▁çap	-10.8202
▁dersi	-10.8203
▁Muammer	-10.8204
▁matematik	-10.8204
▁kaydederek	-10.8206
çeşme	-10.8206
▁yurttaş	-10.8208
▁1994	-10.8209
▁kaynaklanan	-10.8212
▁başını	-10.8215
▁gelenek	-10.8221
▁merdiven	-10.8221
▁patlayıcı	-10.8222
Di	-10.8222
▁şahit	-10.8224
▁kalacağı	-10.8225
▁otomobili	-10.8225
▁Asker	-10.8226
amadığını	-10.8226
▁Saf	-10.8227
▁karışık	-10.8227
▁türkü	-10.8228
TAŞ	-10.8229
▁geldim	-10.8235
▁toplantısına	-10.8236
▁ikram	-10.8238
▁gasp	-10.824
▁War	-10.824
▁Araç	-10.8241
▁zeka	-10.8243
▁sınavı	-10.8243
▁dilim	-10.8244
▁350	-10.8246
▁bahar	-10.8247
▁harita	-10.825
Büyük	-10.8254
▁seans	-10.8257
▁Facebook	-10.8257
▁plaj	-10.8257
▁Pekdaş	-10.8258
▁değerlendirmesi	-10.8258
▁paranın	-10.8258
▁evlerine	-10.8259
mayacağız	-10.8259
▁işlemler	-10.826
vekil	-10.8261
▁sorununun	-10.8262
▁etkileme	-10.8264
etme	-10.8265
▁Arda	-10.8266
▁yolculuğu	-10.8266
▁yüzyılda	-10.8266
▁karşılama	-10.8269
▁Tartan	-10.8269
▁gecikme	-10.827
aslan	-10.827
▁bozuk	-10.8271
▁girişi	-10.8272
▁odasında	-10.8274
▁sembol	-10.8274
▁akademisyen	-10.8275
▁karşılaşacak	-10.8275
▁bununla	-10.8277
▁istedim	-10.8277
▁bebeğin	-10.8277
okul	-10.8278
▁ellerinde	-10.8278
▁durdurulması	-10.8278
ANI	-10.8281
▁evlerinde	-10.8281
▁Hav	-10.8283
▁talimatı	-10.8284
▁yapabileceği	-10.8285
▁üstünlüğü	-10.8285
▁bulundukları	-10.8286
▁hayatında	-10.8288
▁belediyenin	-10.829
▁sağlar	-10.8292
▁camia	-10.8293
▁fırlat	-10.8293
▁kanaat	-10.8293
ves	-10.8294
▁cihazı	-10.8294
▁Ağar	-10.8295
▁basını	-10.8295
▁1995	-10.8298
▁tarihinden	-10.8304
▁erkeklerin	-10.8306
▁vereceğini	-10.8307
▁duyur	-10.831
▁adil	-10.8312
▁bez	-10.8312
abiliriz	-10.8314
gon	-10.8314
▁Demokratik	-10.8316
nızın	-10.8318
▁sunul	-10.8318
▁kurumsal	-10.832
önü	-10.8321
▁Haluk	-10.8322
▁fabrikası	-10.8325
▁yüzme	-10.8326
▁kül	-10.8328
▁makamında	-10.8328
▁Zhang	-10.833
ZA	-10.8337
▁masum	-10.8337
▁tenis	-10.8337
▁uyandır	-10.8337
▁bölgesine	-10.834
▁kolaylık	-10.8341
PA	-10.8343
▁teşkil	-10.8343
kırmızılı	-10.8343
mayacağı	-10.8344
▁gittiğini	-10.8345
▁hele	-10.8345
▁Şeker	-10.8347
fes	-10.8348
acağına	-10.8348
▁Keskin	-10.8348
▁Emir	-10.8349
ÜK	-10.8351
▁görünüm	-10.8351
▁satılan	-10.8352
▁vefat	-10.8354
▁gerekirse	-10.8356
▁villa	-10.8356
▁seçimler	-10.8357
REN	-10.8357
▁TÜRK	-10.8358
▁kızım	-10.8359
▁gelmeye	-10.8361
▁İst	-10.8362
▁tarif	-10.8362
▁golle	-10.8364
!"	-10.8364
▁bağlantısı	-10.8364
▁Windows	-10.8365
▁Öğrenci	-10.8366
▁memleket	-10.8366
▁edilemez	-10.8367
▁Akademisi	-10.8371
▁Konuşma	-10.8376
▁koyan	-10.8377
▁yıka	-10.838
▁gerçekleştiren	-10.838
▁Gümüş	-10.8384
▁gerçekleşecek	-10.8384
▁verdiler	-10.8385
▁bulacak	-10.8386
▁başla	-10.8386
▁ziyaretinde	-10.8391
▁BE	-10.8391
▁yatırımcı	-10.8395
▁öğrencinin	-10.8395
▁dosyası	-10.8399
▁lokanta	-10.8401
▁meşale	-10.8402
▁parçaları	-10.8404
▁kayıtlı	-10.8404
▁Yazar	-10.8404
▁tarife	-10.8405
▁çerçevede	-10.8406
CU	-10.8408
▁geçirilmesi	-10.8414
RAK	-10.8415
▁Hayır	-10.8416
Daha	-10.8418
▁evre	-10.8418
Gel	-10.8419
LARIN	-10.8419
▁ülkemizin	-10.8419
▁İletişim	-10.842
▁açıklamasını	-10.842
▁kısmını	-10.842
▁seviyesinde	-10.8422
▁noktasına	-10.8423
hip	-10.8428
▁borçları	-10.8431
▁olaya	-10.8433
▁izlemek	-10.8434
▁SON	-10.8435
MAK	-10.8436
▁Kütahya	-10.8438
▁düşürül	-10.8438
▁çıplak	-10.8438
▁hisseleri	-10.8439
▁ja	-10.8439
TİK	-10.844
▁koşul	-10.8441
▁ülkelerinde	-10.8442
layacağı	-10.8443
▁Peter	-10.8445
▁İS	-10.8445
▁biten	-10.8446
▁belirttiler	-10.8447
▁posta	-10.8448
▁üstlendiği	-10.8452
▁Kuşadası	-10.8456
sko	-10.8456
▁tünel	-10.8457
▁Sitesi	-10.8457
▁maske	-10.8458
ymiş	-10.8459
▁vesile	-10.8462
▁birliklerimizin	-10.8463
▁tanış	-10.8465
▁Hükümeti	-10.8469
▁eksikliği	-10.847
lanmaya	-10.8475
▁mesleği	-10.8475
▁tahvil	-10.8475
▁pazartesi	-10.8475
▁korkusu	-10.8478
▁Bilgin	-10.848
▁Yoksa	-10.848
▁yılki	-10.8486
▁erişim	-10.8488
▁ihbarı	-10.849
▁görüşmesi	-10.8491
▁jüri	-10.8493
▁tehdidi	-10.8493
▁üs	-10.8494
MO	-10.8494
▁karşıladı	-10.8498
▁Ersoy	-10.8498
ovic	-10.85
▁keyif	-10.8501
▁ulaşması	-10.8502
▁76	-10.8502
▁Ergün	-10.8503
ılabilir	-10.8505
▁mide	-10.8508
▁Zor	-10.851
▁döşe	-10.8511
▁doktora	-10.8512
▁odası	-10.8512
▁1-1	-10.8514
asyonu	-10.8514
▁oğlunun	-10.8517
▁çiftin	-10.8518
▁kadınları	-10.8519
▁almıştır	-10.8524
▁yetiştirme	-10.8529
▁futbolu	-10.8529
▁atmosfer	-10.8529
▁bakıyor	-10.8531
▁kazanması	-10.8531
▁ayrılması	-10.8536
▁bahçesinde	-10.8537
▁turistik	-10.8538
▁bulunarak	-10.854
▁derbi	-10.8545
77	-10.8547
▁annem	-10.8547
▁gen	-10.8549
▁bireyler	-10.855
▁Cami	-10.8552
▁inanıyoruz	-10.8553
▁şartı	-10.8554
▁misyon	-10.8556
▁zorluk	-10.8556
▁hastaların	-10.8557
▁ofis	-10.8559
▁geçim	-10.8559
emeyeceğini	-10.8562
▁beyazlı	-10.8562
▁Borsası	-10.8563
key	-10.8566
▁tüfek	-10.8566
▁espri	-10.8566
▁Çevik	-10.8566
▁Avşar	-10.8567
▁kitabın	-10.8575
▁hastalığın	-10.8577
▁savcılık	-10.8581
▁saray	-10.8581
lenebilir	-10.8583
▁ag	-10.8584
▁kuyruk	-10.8585
▁ötürü	-10.8585
▁ispat	-10.8586
▁Ses	-10.8587
▁iniş	-10.8588
▁kasaba	-10.859
▁Hama	-10.859
▁şartlar	-10.859
▁asıllı	-10.8592
the	-10.8594
▁Onların	-10.8595
▁düzeltme	-10.8597
▁evinin	-10.8598
AYI	-10.8601
▁ressam	-10.8603
NIN	-10.8604
▁seti	-10.8604
▁hassasiyet	-10.8606
▁hane	-10.8607
▁Aksoy	-10.8608
▁alkollü	-10.861
LO	-10.8613
pet	-10.8615
Press	-10.8618
▁kayna	-10.8618
▁uygulamalar	-10.8618
▁Dayanışma	-10.8622
▁Kazakistan	-10.8622
▁birbirlerine	-10.8622
▁stand	-10.8622
▁ziyarette	-10.8626
▁endeksi	-10.8629
▁küme	-10.863
▁oyu	-10.8632
▁66	-10.8633
▁çıkacağı	-10.8637
▁kurumu	-10.864
▁Bulvarı	-10.864
▁uyruklu	-10.864
▁metreküp	-10.864
▁eserler	-10.8642
▁Olayın	-10.8644
gör	-10.8645
▁olanların	-10.8645
▁Maden	-10.8645
▁hepsini	-10.8646
▁Bü	-10.8647
▁önlenmesi	-10.8647
▁olacağına	-10.8649
▁askerleri	-10.865
mes	-10.865
▁çalışmanın	-10.8651
▁çatısı	-10.8653
▁birine	-10.8656
▁çarpı	-10.8656
▁2020	-10.8656
▁ibadet	-10.8659
▁vakıf	-10.8659
▁suikast	-10.8659
▁rahmet	-10.8659
▁Foça	-10.8661
▁Sistemi	-10.8661
▁Metro	-10.8664
▁bıraktığı	-10.8665
▁gerginlik	-10.8667
▁Post	-10.8668
▁oturduğu	-10.8668
▁yaşıyoruz	-10.8672
▁ihtiyaçlarını	-10.8673
▁artı	-10.8673
▁poz	-10.8676
▁politik	-10.8678
▁dijital	-10.8678
▁gümrük	-10.8678
▁gidin	-10.8678
rom	-10.868
▁yönetmeni	-10.8681
kale	-10.8684
06	-10.8685
▁ray	-10.8686
▁Hakkında	-10.8687
▁Um	-10.8687
▁cephe	-10.8688
▁yum	-10.8688
▁Bre	-10.8688
▁Gra	-10.869
▁eriş	-10.8692
▁anlamak	-10.8695
▁fotoğraflar	-10.8696
▁sonsuz	-10.8696
▁fizik	-10.8699
▁esnafı	-10.8701
▁bizimle	-10.8702
▁tanınmış	-10.8705
DK	-10.8706
▁tutuklama	-10.871
▁bağımsızlığı	-10.871
▁Hakim	-10.8713
▁uzaktan	-10.8714
▁inandığını	-10.8714
▁kahvaltı	-10.8715
reti	-10.8716
▁Melih	-10.8717
▁uğradı	-10.8717
▁işyerleri	-10.8717
▁şaka	-10.8718
▁niteliği	-10.8721
▁Gönül	-10.8721
▁soruyor	-10.8726
▁yakında	-10.8726
▁Rektör	-10.8727
▁yakalanması	-10.8727
cıoğlu	-10.8728
▁duyar	-10.8728
▁başa	-10.873
Tek	-10.8732
▁bırakılması	-10.8734
▁inşallah	-10.8734
▁olmayacağını	-10.874
▁sorusunu	-10.8742
▁araçta	-10.8746
▁sıraya	-10.8746
▁elimizden	-10.8748
▁sırt	-10.8752
▁TOKİ	-10.8753
▁gişe	-10.8753
▁Alanya	-10.8755
▁Papa	-10.8755
▁Bra	-10.8756
▁etkileri	-10.8756
▁boynu	-10.8759
▁futbolun	-10.876
▁Bat	-10.8762
▁alacağını	-10.8764
▁tamamlama	-10.8766
▁Tanı	-10.8767
▁gelmiştir	-10.8768
yolu	-10.8768
▁niyeti	-10.8769
▁Açıklama	-10.8771
▁Brüksel	-10.8772
▁eğitime	-10.8774
▁vakti	-10.8775
▁denen	-10.8775
şık	-10.8776
▁istemiyoruz	-10.8776
▁kazası	-10.8777
larımı	-10.8777
▁ekim	-10.8778
▁yönetil	-10.8778
▁avro	-10.8778
▁Denizlispor	-10.878
▁müdahalesi	-10.8781
kurt	-10.8782
▁mezunu	-10.8783
▁ilde	-10.8785
tmek	-10.8786
▁üretme	-10.8788
▁görüşmelerde	-10.879
▁ulaştığı	-10.879
▁gümüş	-10.879
▁pompa	-10.879
▁Gemi	-10.8791
▁Chris	-10.8791
▁61	-10.8791
▁onarım	-10.8793
▁uçakları	-10.8793
zken	-10.8794
▁açıyor	-10.8795
▁anlamlı	-10.8798
▁giril	-10.8798
▁aldığımız	-10.8802
▁simge	-10.8802
▁turda	-10.8803
İNDE	-10.8805
▁68	-10.8807
▁kocası	-10.8807
▁Avrupalı	-10.8808
şek	-10.8809
▁hektar	-10.8809
▁pişman	-10.8809
▁çekilme	-10.881
▁sabaha	-10.881
▁ideal	-10.8811
▁çevredeki	-10.8811
▁Sezon	-10.8812
▁ihtiyacını	-10.8817
▁sürecine	-10.8817
▁(20	-10.8818
▁Müsteşarı	-10.8818
▁gönderilmesi	-10.882
▁Bize	-10.882
▁diploma	-10.882
▁şeyleri	-10.882
▁görüşleri	-10.8822
▁isterim	-10.883
▁devral	-10.8831
▁Opera	-10.8832
▁KAL	-10.8832
▁Tokat	-10.8833
▁edilirken	-10.8836
▁benzet	-10.8837
▁görüyorum	-10.8837
▁Olaylar	-10.884
▁kurumun	-10.8841
▁İhsan	-10.8843
▁barışı	-10.8843
▁Oteli	-10.8846
▁toplumu	-10.8846
▁KDV	-10.8847
▁Liste	-10.8848
▁üzüm	-10.8849
▁parlak	-10.8849
78	-10.885
▁ambulansla	-10.885
▁Bah	-10.8854
▁Ex	-10.8854
ulur	-10.8858
▁koltuğu	-10.8859
▁endeks	-10.886
▁maçlarda	-10.8861
▁kapandı	-10.8863
▁varlık	-10.8865
▁ittifak	-10.8866
▁propaganda	-10.8866
▁Zonguldak	-10.8866
▁Sabri	-10.8869
▁konusunu	-10.8869
▁diplomatik	-10.887
▁bakınız	-10.8871
▁kör	-10.8872
▁Ulaştırma	-10.8872
Ay	-10.8876
▁destekleyen	-10.8881
▁Bosna	-10.8883
▁Sayı	-10.8884
▁etken	-10.8885
▁Devrim	-10.8888
▁aleyhine	-10.8888
▁zincir	-10.889
▁ettiğimiz	-10.8892
rio	-10.8898
▁kapısını	-10.8901
▁dünyası	-10.8901
fon	-10.8902
▁hedefimiz	-10.8902
vey	-10.8903
▁bastır	-10.8903
▁Sta	-10.8903
▁düzgün	-10.8905
▁zararlı	-10.8906
▁terörle	-10.8909
törü	-10.8909
▁Pas	-10.8911
▁anlaşıldı	-10.8914
▁baştan	-10.8916
▁afiş	-10.8919
▁vermeden	-10.892
▁gürültü	-10.8923
▁plaket	-10.8924
▁ordusunun	-10.8924
▁ırkçı	-10.8926
▁kesimi	-10.8926
ECE	-10.8927
▁çamur	-10.8928
▁bakanlığı	-10.893
▁fo	-10.8931
▁belgeler	-10.8931
▁berabere	-10.8933
▁çalma	-10.8933
▁gazetecinin	-10.8934
▁beklentisi	-10.8935
▁doğrusu	-10.8935
▁hayvanlar	-10.8942
▁mutfak	-10.8943
▁Meşale	-10.8943
▁çalışır	-10.8943
▁dünyayı	-10.8944
landırdı	-10.8946
▁doğusunda	-10.8946
muzu	-10.8947
▁Kayserispor	-10.8948
▁çelik	-10.8948
▁Eser	-10.8949
▁tanıştı	-10.8955
▁tutuyor	-10.8957
▁çıkarken	-10.8958
▁sunma	-10.8962
▁Çelebi	-10.8962
▁Hakkari	-10.8962
▁öldürül	-10.8964
▁rehin	-10.8965
TM	-10.8967
▁1993	-10.8967
▁Kav	-10.8968
MADI	-10.8969
gir	-10.8969
▁tartışmalar	-10.8969
▁Sert	-10.8969
▁sanatçılar	-10.8969
▁kendilerinin	-10.8971
▁girişimci	-10.8972
▁rakı	-10.8972
▁Tut	-10.8974
çay	-10.8976
▁yaya	-10.8976
bon	-10.8981
▁ekibinin	-10.8981
▁Derviş	-10.8981
▁şartlarda	-10.8983
▁katında	-10.8984
▁dereceye	-10.8989
▁verin	-10.899
▁taktik	-10.8991
▁içim	-10.8992
▁tesisler	-10.8992
▁göstermesi	-10.8994
▁söylüyorum	-10.8998
▁gruba	-10.9
▁açacak	-10.9001
▁Sivil	-10.9001
bilecek	-10.9003
▁ÇOK	-10.9003
▁istemeyen	-10.9005
ışık	-10.9006
▁işine	-10.9007
ASI	-10.9007
mesiyle	-10.9009
▁Martin	-10.9011
▁konumunda	-10.9011
▁dinledi	-10.9013
▁şunlar	-10.9017
▁harcamaları	-10.9017
▁soruşturmanın	-10.9018
▁kaş	-10.9019
cumhurbaşkanlığı	-10.902
▁Gösteri	-10.902
▁roket	-10.9021
▁ithalat	-10.9021
▁Bizler	-10.9022
▁katkısı	-10.9023
▁Raporda	-10.9027
▁görenler	-10.9027
▁Oto	-10.9027
▁Dam	-10.9028
Zİ	-10.903
▁bırakmak	-10.9031
Er	-10.9033
▁geçirilen	-10.9034
▁ilköğretim	-10.9036
▁Nüfus	-10.9039
▁Hayvancılık	-10.904
fir	-10.9041
▁odasına	-10.9043
zon	-10.9043
▁gündemde	-10.9044
▁edilmişti	-10.9045
▁masraf	-10.9046
▁ilkesi	-10.9047
▁olasılığı	-10.9048
▁Dizi	-10.9048
▁Mat	-10.9049
▁Kerim	-10.905
▁beklendiği	-10.9053
▁duyan	-10.9054
▁tescil	-10.9058
▁haziran	-10.9058
▁kaldırım	-10.9059
▁projelerin	-10.9061
▁saldırıya	-10.9061
▁yetin	-10.9065
▁Pri	-10.9069
▁keyifli	-10.9069
▁mıdır	-10.9069
▁tespiti	-10.907
▁patlat	-10.907
El	-10.9071
ero	-10.9073
▁fu	-10.9076
▁kürsü	-10.9078
▁ümit	-10.9078
Bil	-10.908
▁engelliler	-10.9084
Top	-10.9087
▁kuvvetleri	-10.9088
▁problemi	-10.9088
▁yaralanma	-10.9089
▁gündemi	-10.9091
▁işletmeci	-10.9092
▁mobil	-10.9094
▁cinayeti	-10.9096
▁mükellef	-10.9097
▁edici	-10.9097
▁Semih	-10.9097
▁medeniyet	-10.9098
▁gelişim	-10.9098
▁atmak	-10.9098
▁KUR	-10.9099
▁Andre	-10.9099
▁güreş	-10.91
para	-10.9101
▁görüntüsü	-10.9101
▁Parlamentosu	-10.9105
▁futbolcusu	-10.9107
▁Temiz	-10.9113
▁sunulacak	-10.9114
▁uzatma	-10.9115
▁Havaalanı	-10.9117
▁CEO	-10.9117
▁Asliye	-10.9117
amıyorum	-10.9117
▁görülür	-10.9121
▁Wu	-10.9123
▁(1	-10.9129
laştırılması	-10.9129
▁Jean	-10.9129
▁Kars	-10.9134
▁konularında	-10.9135
▁Necati	-10.9136
▁Çakıcı	-10.9137
▁sunan	-10.9143
▁İslami	-10.9144
▁kaldırıldığı	-10.9145
Kadın	-10.9146
▁Yarı	-10.9147
▁Mert	-10.9148
▁eleştirdi	-10.9149
INDA	-10.9156
▁Eyüp	-10.9156
▁pişir	-10.9157
▁fakir	-10.9157
▁direk	-10.9158
▁mevzuat	-10.916
Şimdi	-10.9161
▁1991	-10.9161
▁seviyor	-10.9163
▁örgütünün	-10.9163
▁kiralık	-10.9167
▁Tuna	-10.9168
▁yazıyor	-10.9168
Ro	-10.9175
▁Finans	-10.9176
▁Fener	-10.9177
▁Mezarlığı	-10.9179
▁aynen	-10.918
▁bağlantılı	-10.9181
▁anlamında	-10.9181
▁muhtemelen	-10.9182
▁Bill	-10.9186
▁artırmak	-10.919
▁Suçlar	-10.919
▁sanatçısı	-10.9193
▁yıllarca	-10.9193
▁Adem	-10.9193
▁azaltma	-10.9194
▁lehine	-10.9195
▁Atila	-10.9197
malıyız	-10.9202
▁kilometrelik	-10.9204
▁taraftarların	-10.9207
▁incelemelerde	-10.9209
▁Ordusu	-10.921
▁Rob	-10.921
▁sürerek	-10.9212
▁aylarda	-10.9214
▁Los	-10.9215
sinler	-10.9219
▁sezonda	-10.922
▁dışından	-10.9222
▁devredil	-10.9222
▁görmeye	-10.9224
▁şubat	-10.9225
UK	-10.9225
▁Bölgede	-10.9225
▁potansiyel	-10.9225
ting	-10.9229
▁katılımı	-10.9229
▁tahsil	-10.9229
▁sim	-10.923
gö	-10.923
▁Nas	-10.923
▁bakanlar	-10.923
▁suya	-10.9231
▁Saygı	-10.9231
▁mayın	-10.9232
▁girişinde	-10.9232
vaz	-10.9233
▁yüksekliği	-10.9234
▁Üçüncü	-10.9236
kız	-10.9236
▁Hamas	-10.9236
▁Haftası	-10.9242
▁yasası	-10.9245
vir	-10.9246
jan	-10.9247
Gün	-10.9248
▁ifadesinde	-10.925
▁adayların	-10.9252
burg	-10.9252
▁özellik	-10.9253
▁maaşı	-10.9254
▁Kosova	-10.9254
▁eskiden	-10.9255
▁Arafat	-10.9255
▁kullanılıyor	-10.9259
▁oyuncak	-10.9261
▁verileri	-10.9263
kçı	-10.9266
▁Erbil	-10.9268
▁iktidara	-10.927
▁oynaya	-10.9271
leştiği	-10.9272
teri	-10.9272
▁Kamp	-10.9273
▁nişan	-10.9274
▁müzisyen	-10.9274
▁toprağı	-10.9274
▁alev	-10.9275
▁rica	-10.9276
▁maddeler	-10.9277
▁ederse	-10.9277
yıl	-10.9278
▁giderilmesi	-10.9279
lacivertli	-10.9279
Böyle	-10.928
▁İmam	-10.9282
▁dostları	-10.9284
▁iktidarın	-10.9285
▁müzakerelerin	-10.9288
▁düşer	-10.9293
▁Shanghai	-10.9294
▁Münih	-10.9294
▁onayı	-10.9295
▁internette	-10.9296
▁izlenim	-10.9297
▁Servis	-10.9298
▁nitelendir	-10.9299
bit	-10.9306
▁merkeze	-10.9307
▁Mc	-10.931
▁vazgeçme	-10.931
▁sırtı	-10.9313
yacağım	-10.9313
▁uzaklaş	-10.9317
▁hayali	-10.932
▁Çiftçi	-10.9324
▁şirketinin	-10.9326
hak	-10.9327
▁fiyatlar	-10.9327
▁Pekin	-10.933
▁çözme	-10.9331
▁aşan	-10.9332
▁Dokuz	-10.9334
▁atlet	-10.9334
▁koş	-10.9335
▁değin	-10.9336
▁gittim	-10.9338
▁peşin	-10.9338
TV	-10.9338
▁ilçenin	-10.934
▁beton	-10.934
▁önergesi	-10.9341
▁BÜYÜK	-10.9341
▁dağıtım	-10.9343
ates	-10.9343
▁tahta	-10.9347
▁konulan	-10.9347
▁Aktaş	-10.9347
▁niteliğinde	-10.9348
▁Alevi	-10.9349
▁Bingöl	-10.9354
▁statüsü	-10.9355
▁NBA	-10.9357
La	-10.9358
INA	-10.936
▁taşıdığını	-10.9361
▁memnuniyeti	-10.9365
▁açlık	-10.9372
▁Edebiyat	-10.9374
▁istismar	-10.9374
▁Lideri	-10.9374
▁pozisyonu	-10.9378
▁Hükümetin	-10.9379
▁komik	-10.9379
▁ülkelerine	-10.9379
▁Medya	-10.938
▁Vatan	-10.938
▁kategorisinde	-10.9381
▁içecek	-10.9383
▁kısaca	-10.9385
▁Dilek	-10.9389
▁sloganlar	-10.939
▁Latin	-10.9392
kas	-10.9392
▁ulan	-10.9392
▁iddialı	-10.9392
▁gününe	-10.9395
▁Kurban	-10.9396
▁uyguladığı	-10.9396
▁67	-10.9398
▁Vatandaşlar	-10.9399
▁sonuçlarını	-10.9402
▁Dk	-10.9404
▁yapabilecek	-10.9405
▁grubunun	-10.9406
▁önerge	-10.9406
▁şiddetin	-10.9408
▁sporcuların	-10.9408
▁Şeyh	-10.9409
▁boyutu	-10.9413
▁işlemlerin	-10.9413
▁kayak	-10.9413
▁beraat	-10.9414
▁müdürlüğü	-10.9415
▁ayrıntılı	-10.9416
▁vadede	-10.9417
▁yaptırma	-10.9423
▁kendisiyle	-10.9424
▁anlaştı	-10.943
▁işlev	-10.9431
▁gelmez	-10.9433
▁tarafların	-10.9433
▁programda	-10.9433
▁Diyanet	-10.9434
▁yarışması	-10.9435
▁kıymet	-10.9435
▁huzuru	-10.944
▁Dede	-10.944
▁Prens	-10.944
▁vb	-10.944
▁yönetme	-10.9441
▁mini	-10.9445
▁pazarlık	-10.9449
▁1,5	-10.9451
▁siyasetin	-10.9453
▁baskısı	-10.9457
SPOR	-10.9457
▁koşullar	-10.9458
▁savunması	-10.9459
hl	-10.9459
▁arı	-10.9459
SİZ	-10.9465
▁Ren	-10.9465
▁kurtarmak	-10.9466
▁ER	-10.9469
▁dönmesi	-10.9469
▁kontrolünde	-10.9472
▁cik	-10.9473
▁randevu	-10.9474
▁istatistik	-10.9474
▁2-3	-10.9476
▁olmalıdır	-10.9477
▁askerlik	-10.948
▁zorundayız	-10.9481
▁ilkokul	-10.9486
▁hav	-10.9489
aydın	-10.9489
▁mimari	-10.949
▁uzanan	-10.949
SİN	-10.949
▁demokrat	-10.9492
▁Altı	-10.9493
LADI	-10.9493
▁olanağı	-10.9493
▁seçilmesi	-10.9494
▁başvuruda	-10.9494
▁tüfeği	-10.9495
▁İrlanda	-10.9495
▁İtfaiye	-10.9495
▁ulus	-10.9496
▁TMSF	-10.9496
▁Albay	-10.95
▁yaban	-10.9502
▁dakikalık	-10.9502
▁sos	-10.9506
▁burs	-10.9507
▁nereden	-10.9507
▁cezaevine	-10.9511
▁ilişkilerini	-10.9513
..."	-10.9515
▁Seferihisar	-10.9515
▁bakıldığında	-10.9515
▁cilt	-10.9515
amadık	-10.9516
▁oturup	-10.9518
▁Gen	-10.9518
ladıklarını	-10.952
▁Mut	-10.9521
▁uydur	-10.9523
▁beste	-10.9523
▁ruhsat	-10.9524
▁yoğunluğu	-10.9527
▁romanı	-10.9532
▁teker	-10.9532
▁fidan	-10.9532
Bo	-10.9533
▁övgü	-10.9536
▁açıklanması	-10.9536
▁KAY	-10.9536
▁geçit	-10.9537
allah	-10.9538
▁Inter	-10.9539
▁calis	-10.954
▁bulduk	-10.954
▁planlanıyor	-10.954
▁Atalay	-10.954
▁inceledi	-10.9542
▁isterse	-10.9544
▁dağıldı	-10.9544
▁77	-10.9545
cker	-10.9545
▁eşini	-10.9546
▁gündemine	-10.9546
▁çevirdi	-10.9547
biz	-10.955
yacaklarını	-10.9552
▁sürücüler	-10.9553
▁borçlanma	-10.9553
▁Arka	-10.9555
▁mensubu	-10.9555
▁tıbbi	-10.9555
▁Aykut	-10.9556
ÜL	-10.956
▁fiyatlarının	-10.9564
▁katılıyor	-10.9565
▁yapmasını	-10.9566
▁eleştiriler	-10.9567
▁heyecanı	-10.9574
▁mensup	-10.9575
▁plastik	-10.9576
SUN	-10.9577
▁arkadaşımız	-10.9577
▁talebinde	-10.9579
▁Sema	-10.9579
▁ima	-10.9579
▁açıklamıştı	-10.9582
▁yerlerinde	-10.9582
▁bizleri	-10.9585
▁tamir	-10.9585
▁gerçekleştiği	-10.9585
▁Gelecek	-10.9591
▁bizde	-10.9592
▁aşkı	-10.9594
▁tavuk	-10.9596
▁Sait	-10.9597
▁Sibel	-10.9599
▁terim	-10.9599
▁yıkım	-10.9601
▁Ekipler	-10.9601
▁Siyaset	-10.9602
▁Amirliği	-10.9603
▁Uzan	-10.9604
KON	-10.9605
blo	-10.9609
▁uy	-10.9609
▁açılmış	-10.961
▁uygulanacak	-10.9611
▁fır	-10.9611
▁burası	-10.9612
▁üssü	-10.9614
▁Kuvvet	-10.9619
▁İLK	-10.962
▁95	-10.9621
sor	-10.9621
-6	-10.9621
▁Foto	-10.9622
eceğine	-10.9625
▁biçim	-10.9626
▁yolla	-10.9629
▁planda	-10.963
▁girdiğini	-10.963
▁eğlen	-10.9634
▁amatör	-10.9637
▁kütüphane	-10.9637
▁torba	-10.9637
▁güçlerin	-10.9639
▁düzelt	-10.9641
tasyon	-10.9642
▁kullanılacak	-10.9644
layacağız	-10.9646
▁sure	-10.9646
▁yakalama	-10.9649
▁Fre	-10.9652
▁Katar	-10.9653
▁akım	-10.9653
▁Polisin	-10.9657
▁hafıza	-10.9658
▁Yalova	-10.9658
▁Tugay	-10.9658
▁chp	-10.9659
▁şimdilik	-10.9659
▁hapse	-10.966
▁Festival	-10.9661
▁akışı	-10.9662
▁sanığın	-10.9662
▁1992	-10.9664
▁peki	-10.9665
▁haliyle	-10.9666
▁Hat	-10.9666
▁GÖR	-10.9666
İP	-10.9669
▁açar	-10.967
lanabilir	-10.9672
?’’	-10.9672
rad	-10.9674
▁yaratmak	-10.9675
▁adliye	-10.9675
▁3-0	-10.9679
▁hayli	-10.9679
▁Köprüsü	-10.9679
▁kıta	-10.968
İki	-10.9681
So	-10.9686
▁edileceği	-10.9688
▁Def	-10.9691
lmaz	-10.9693
▁tl	-10.9693
öy	-10.9695
▁yor	-10.9698
▁bonservis	-10.9699
▁yapılanma	-10.97
larımızla	-10.9702
▁Ruh	-10.9704
▁Kart	-10.9708
▁beraberindeki	-10.9709
▁vermiyor	-10.971
▁forması	-10.9711
▁tavan	-10.9712
▁merkezli	-10.9715
▁görünen	-10.9715
▁lütfen	-10.9716
şak	-10.9717
▁TEM	-10.9717
▁olağan	-10.972
▁Balçova	-10.972
▁Norveç	-10.972
▁Şii	-10.9725
▁metni	-10.9725
▁azalma	-10.9726
▁hesabını	-10.9726
▁sokaklarda	-10.9727
▁sesini	-10.9728
▁edeceğim	-10.973
abildiği	-10.9732
kes	-10.9732
▁Dergisi	-10.9734
▁dışarıda	-10.9736
▁soruyu	-10.9739
▁Kahraman	-10.9741
▁müracaat	-10.9741
▁Girişim	-10.9741
▁Kasımpaşa	-10.9743
▁sözlü	-10.9744
▁görmüş	-10.9748
▁unuttu	-10.975
▁Gre	-10.9751
▁tasarımı	-10.9751
yılmaz	-10.9751
pro	-10.9752
yıldız	-10.9752
▁sir	-10.9754
▁maddeleri	-10.9755
▁arttığı	-10.9758
pres	-10.976
nizden	-10.9761
▁Ülkü	-10.9761
▁hayvanların	-10.9762
▁Arena	-10.9764
▁Zirvesi	-10.9765
▁rock	-10.9765
▁kısıt	-10.9767
▁YER	-10.9768
▁Tenis	-10.977
izasyon	-10.977
▁evliliği	-10.9773
▁arttırma	-10.9774
▁düşündüğünü	-10.9775
▁sıralama	-10.9775
bileceği	-10.9775
▁zirvesi	-10.9776
gerçekleştirildi	-10.9778
▁Kaynaklar	-10.978
▁kandır	-10.9781
▁çaplı	-10.9782
ografi	-10.9782
▁bombardıman	-10.9782
▁profesör	-10.9782
▁Fikret	-10.9782
▁mahsur	-10.9783
▁Tanrı	-10.9785
▁düşürme	-10.9786
▁olabil	-10.9789
▁sürerken	-10.9789
▁döneme	-10.979
▁ilacı	-10.9793
▁Çince	-10.9793
▁almadan	-10.9794
uar	-10.9797
▁toplantının	-10.9799
▁muamele	-10.9803
▁tatbikat	-10.9803
▁yeteneği	-10.9803
▁havası	-10.9804
▁gerçekleşmesi	-10.9806
▁bilmem	-10.9807
▁şeyden	-10.9808
▁projeyi	-10.981
eksiyon	-10.981
▁Sanık	-10.9813
▁atar	-10.9814
▁cezasını	-10.9816
▁geliştirmek	-10.9816
▁yılların	-10.9818
▁emir	-10.9818
gini	-10.9819
▁ettirme	-10.9821
▁ekiplerine	-10.9823
▁detaylı	-10.9824
▁turizmi	-10.9826
ska	-10.9829
▁hazırlama	-10.9832
▁Yasin	-10.9836
▁Uyar	-10.9836
▁Arjantin	-10.9838
▁olaylarda	-10.9838
▁kentsel	-10.9841
▁kule	-10.9842
▁vereceğiz	-10.9842
▁İzmirliler	-10.9842
▁yorumu	-10.9844
▁Bununla	-10.9844
▁ideoloji	-10.9846
▁karşılandı	-10.9848
▁saldır	-10.985
▁eyaletinin	-10.9853
Başbakan	-10.9857
▁ödenmesi	-10.9859
▁toplumda	-10.986
▁Suat	-10.986
lanmak	-10.986
▁evrak	-10.9861
▁çekimleri	-10.9861
hisar	-10.9862
▁sorgulama	-10.9862
▁milleti	-10.9864
▁olamadı	-10.9865
▁durumuna	-10.9866
▁okuduğu	-10.9867
▁ertesi	-10.9868
▁yapıyorlar	-10.987
▁yaralandığı	-10.987
EC	-10.9871
▁Hel	-10.9873
Or	-10.9874
▁kirliliği	-10.9876
▁kırık	-10.9879
▁girişimleri	-10.9879
▁verilmiş	-10.988
▁kaçırma	-10.9881
▁gerçekleştirdik	-10.9883
ılmaya	-10.9885
▁direksiyon	-10.9887
▁ortaklaşa	-10.9887
▁yollarını	-10.9887
▁otorite	-10.9887
▁adının	-10.989
▁öteki	-10.9891
▁kuyu	-10.9893
vil	-10.9894
▁Kel	-10.9894
▁satıcı	-10.9894
▁dönmek	-10.9897
▁Vatandaş	-10.9898
İnsan	-10.99
▁ekonominin	-10.9903
▁eleştiren	-10.9905
▁kırıklığı	-10.9905
aklı	-10.9905
▁tüken	-10.9908
▁aktarma	-10.9909
▁Kutlu	-10.9909
▁akla	-10.991
▁ilçemiz	-10.9912
▁askerlerinin	-10.9913
▁Öner	-10.9915
72	-10.9921
▁tuttuğu	-10.9928
zade	-10.9929
▁infaz	-10.9929
▁reel	-10.9932
Mar	-10.9932
▁Hamza	-10.9933
digim	-10.9933
▁gençlere	-10.9936
▁Piyasa	-10.9937
81	-10.994
▁topluluk	-10.994
Su	-10.9945
▁bastı	-10.9945
▁almadı	-10.9946
▁gelirken	-10.9946
▁Evet	-10.9946
▁kuşak	-10.9946
laşmış	-10.9948
▁hazırlıkları	-10.9949
▁refah	-10.9951
VE	-10.9951
▁maçlarında	-10.9951
▁Ermenistan	-10.9952
▁yaşar	-10.9954
▁anma	-10.9955
▁karşılaştığı	-10.9956
İST	-10.9956
▁kapak	-10.9957
▁yapılarak	-10.9957
bilirsiniz	-10.9959
▁görüldüğü	-10.9965
▁koyuyor	-10.9967
▁bebeği	-10.997
▁sürdürdüğü	-10.9971
▁yumruk	-10.9972
▁Akhisar	-10.9974
▁Nazi	-10.9976
▁panik	-10.9976
▁Durak	-10.998
▁duruşmada	-10.998
▁rezerv	-10.9982
▁çözülmesi	-10.9983
Ev	-10.9984
▁ayından	-10.9986
▁burnu	-10.9988
▁varmış	-10.999
▁söyler	-10.9992
▁taburcu	-10.9993
▁dinamik	-10.9993
▁olmadığına	-10.9995
▁Şirin	-10.9997
▁rakamlar	-10.9997
▁yatan	-10.9998
▁Yang	-11.0001
▁akademik	-11.0004
▁yayınladığı	-11.0005
ATI	-11.0006
yazı	-11.001
▁kirli	-11.001
▁geçmişi	-11.0013
▁indirme	-11.0014
▁altından	-11.0014
▁Ankaragücü	-11.0014
▁sıvı	-11.0014
▁sevilen	-11.002
▁TSK	-11.002
▁sokul	-11.0021
DIR	-11.0024
▁öncü	-11.0024
▁yoksun	-11.0025
▁siyasete	-11.0029
▁dayanarak	-11.003
cıların	-11.0031
▁ihtimal	-11.0031
RS	-11.0032
tuk	-11.0032
▁ayrıldığı	-11.0033
▁eğilimi	-11.0036
▁tedirgin	-11.0036
▁işveren	-11.0036
▁istikrarı	-11.0037
▁hatıra	-11.0037
▁seviyesi	-11.0039
▁açıkladığı	-11.004
▁bildirimi	-11.0042
▁yaprak	-11.0044
▁tartışması	-11.0044
▁kadrosunda	-11.0045
söz	-11.0051
▁ödemesi	-11.0052
-16	-11.0053
▁Kürdistan	-11.0055
▁ulaştığını	-11.0055
▁tutmak	-11.0055
▁ürettiği	-11.0056
▁yönetmelik	-11.006
▁ucu	-11.006
▁(2	-11.0061
▁Şeh	-11.0063
▁tok	-11.0066
▁fırın	-11.0067
▁TED	-11.0073
▁madenci	-11.0074
▁Tedavi	-11.0079
▁gönlü	-11.0079
▁öldürüldü	-11.0081
▁Sanatçı	-11.0084
▁düzenlen	-11.0087
▁gösteriler	-11.0087
▁ışığı	-11.0088
▁göstericiler	-11.0091
74	-11.0092
▁ülkesinde	-11.0092
▁Erhan	-11.0093
▁Televizyon	-11.0093
▁bacak	-11.0094
ilmiştir	-11.0097
▁sorununu	-11.0098
▁sesleri	-11.01
▁peynir	-11.01
ahmet	-11.01
▁zeytinyağı	-11.01
ward	-11.0102
▁vizyona	-11.0104
▁pazarlama	-11.0105
▁bekledi	-11.0105
▁kurgu	-11.0106
▁tamamlanan	-11.0108
▁hastalar	-11.0108
▁dışa	-11.0113
▁kazanacak	-11.0116
acağımız	-11.0117
▁işareti	-11.0117
▁aksi	-11.0117
tum	-11.0118
▁Kaba	-11.0118
▁soktu	-11.0119
▁Gürcistan	-11.0122
▁enfeksiyon	-11.0122
▁yazıda	-11.0123
▁yapılmasına	-11.0124
▁hastalıklar	-11.0124
▁Bö	-11.0125
▁pilotu	-11.0126
▁sıçra	-11.0129
▁Rektörü	-11.013
▁gerekmektedir	-11.013
▁hepimizin	-11.0134
▁haftalarda	-11.0138
▁ekiplerince	-11.0139
▁kıyasla	-11.0142
oyun	-11.0142
▁Kimi	-11.0142
▁ÇA	-11.0142
▁engellemek	-11.0143
efendi	-11.0143
▁PTT	-11.0143
▁Duruşma	-11.0143
▁öncelikli	-11.0145
▁olaylara	-11.0149
▁mayıs	-11.015
▁zamanlı	-11.015
▁yanıtı	-11.0152
▁kadrosu	-11.0152
▁Yüce	-11.0153
▁otelde	-11.0156
▁Tri	-11.0156
mistir	-11.0159
HAL	-11.016
▁versiyonu	-11.0162
▁vade	-11.0163
▁kısmının	-11.0164
▁müfettiş	-11.0165
▁Kazım	-11.0165
▁stadyum	-11.0166
▁Ağa	-11.0171
▁getirir	-11.0173
▁kuruluşlarının	-11.0175
87	-11.0176
▁Tabi	-11.0176
▁Yazıcı	-11.0177
▁araştırmacı	-11.0181
▁kelimesi	-11.0182
▁hazırlandı	-11.0186
▁ayağa	-11.0186
▁illerde	-11.0186
▁adaylık	-11.0186
▁Yozgat	-11.0187
▁Karayolları	-11.0187
▁iskele	-11.0187
▁sindir	-11.0188
▁meme	-11.0188
▁alımı	-11.019
▁mutluyum	-11.0191
▁ayakları	-11.0191
▁kesiminde	-11.0194
▁gelmesini	-11.0198
▁tarama	-11.0198
▁belirlenemeye	-11.02
▁mesajlar	-11.0201
▁yitiren	-11.0201
▁yahu	-11.0203
▁olduktan	-11.0206
▁Angeles	-11.0208
▁çoğal	-11.0208
▁Cephesi	-11.0208
▁ikamet	-11.0208
▁şifre	-11.0208
▁Apple	-11.0208
Burada	-11.021
gür	-11.0212
▁City	-11.0212
▁yaşamaya	-11.0215
▁kullanıldı	-11.0215
▁Gaziantepspor	-11.0215
▁Yarışması	-11.0216
▁Hollandalı	-11.0217
▁rahatsızlığı	-11.0217
▁ortaklığı	-11.0223
▁gencin	-11.0223
CHP	-11.0224
▁oyunlar	-11.0227
▁Tab	-11.0228
▁koruyucu	-11.023
▁havalimanı	-11.023
▁sağanak	-11.023
▁Powell	-11.0231
muzda	-11.0231
▁Bozdağ	-11.0232
▁doktoru	-11.0233
▁Topluluğu	-11.0233
▁çevresindeki	-11.0235
▁finalde	-11.0236
88	-11.0238
▁söyleşi	-11.0238
▁İmparatorluğu	-11.0239
▁finali	-11.0239
▁Düzen	-11.0239
▁İnsanlar	-11.024
▁Mus	-11.0241
▁kazasında	-11.0241
▁saldırılar	-11.0241
▁yönetimine	-11.0241
hua	-11.0241
▁seviyesine	-11.0243
▁karısı	-11.0243
▁üyelerine	-11.0245
▁duyduklarını	-11.0247
▁nöbet	-11.0248
▁takımdan	-11.0251
▁Ufuk	-11.0252
▁İstiklal	-11.0252
▁Çar	-11.0252
▁muhalifler	-11.0255
▁yaşamış	-11.026
biliyorsunuz	-11.0261
▁genc	-11.0267
birliği	-11.0267
iang	-11.0267
▁kazanarak	-11.0271
▁karı	-11.0272
▁Yok	-11.0272
▁vuran	-11.0274
▁sofra	-11.0274
▁geleneği	-11.0274
▁erecek	-11.0275
▁nisan	-11.0276
▁Sur	-11.0276
▁arkadaşlarının	-11.0276
▁büyüyen	-11.0279
▁çalışacağız	-11.028
▁sağlanacak	-11.0281
our	-11.0282
▁başlayacağı	-11.0283
▁istiyorlar	-11.0284
▁edilebilir	-11.0284
▁alarm	-11.029
▁bitirme	-11.0291
▁110	-11.0293
bahar	-11.0294
▁kuruluşun	-11.0294
▁Kenti	-11.0296
▁Selahattin	-11.0296
▁şık	-11.0296
▁aralıksız	-11.0298
▁tatmin	-11.0299
▁kok	-11.0299
▁görmesi	-11.03
▁evlendi	-11.03
▁Aksi	-11.0301
▁verilir	-11.0301
▁güçlendirme	-11.0302
▁ileride	-11.0303
▁enerjisi	-11.0305
▁açıp	-11.0306
ity	-11.0306
row	-11.0312
▁hani	-11.0313
▁gereksiz	-11.0317
▁tamamını	-11.0317
▁Asayiş	-11.0318
▁kontenjan	-11.0318
▁bronz	-11.0318
Co	-11.0319
▁zamandır	-11.0319
layabilir	-11.032
▁Rizespor	-11.0321
miştim	-11.0321
▁İŞTE	-11.0325
▁çabası	-11.0325
ZE	-11.0326
atif	-11.0328
lenmek	-11.0333
▁ağırlığı	-11.0334
▁çat	-11.0336
▁EGEDESONSÖZ	-11.0339
IP	-11.0339
▁tohum	-11.034
▁kamyonet	-11.0349
▁kişilerle	-11.0352
▁parasını	-11.0353
▁uyarısında	-11.0354
▁eğlenceli	-11.0357
Çocuk	-11.0358
▁çocuklarını	-11.036
▁hükümete	-11.036
▁Köse	-11.0361
▁mevduat	-11.0362
▁asfalt	-11.0362
▁DÜŞ	-11.0362
▁Efendi	-11.0362
▁guzel	-11.0363
▁Etki	-11.0363
▁soygun	-11.0364
▁Evli	-11.0366
▁Silah	-11.0368
bük	-11.0369
▁programın	-11.0374
▁raporunda	-11.0376
lenip	-11.0378
▁kalkış	-11.0378
▁geleceğe	-11.0384
▁çirkin	-11.0384
▁yırt	-11.0384
▁Baro	-11.0384
▁bahçesi	-11.0385
▁bankası	-11.0387
▁bulamadı	-11.0394
▁rakamın	-11.0395
üf	-11.0395
▁takımını	-11.0397
lıoğlu	-11.0398
▁imk	-11.0405
▁inen	-11.0406
▁yansıtma	-11.0406
▁Abdül	-11.0406
▁Binali	-11.0407
▁alınmasını	-11.0409
İl	-11.0411
▁testi	-11.0412
▁gazetesinde	-11.0413
▁beşinci	-11.0416
▁önerileri	-11.0417
LAMA	-11.042
▁yakınlarındaki	-11.0422
▁Tekel	-11.0425
▁toplanma	-11.0426
▁başvuran	-11.0429
▁yaklaştı	-11.0431
▁istikrarlı	-11.0435
mıştım	-11.0438
▁Final	-11.0439
▁İşler	-11.044
▁Sevgi	-11.0443
▁yönü	-11.0443
▁olmayacağı	-11.0445
▁değiştirdi	-11.0445
▁buluşan	-11.0447
▁gözle	-11.0449
▁ru	-11.045
▁Komünist	-11.0451
▁Rüştü	-11.0451
▁temenni	-11.0451
▁Barajı	-11.0451
▁OLMA	-11.0452
▁balkon	-11.0454
▁tarafsız	-11.0454
pazar	-11.0455
▁hedefliyor	-11.0455
▁kullanmaya	-11.0461
▁talebini	-11.0463
▁çevirme	-11.0463
▁temizleme	-11.0464
▁Sekreter	-11.0464
▁meş	-11.0465
▁getiri	-11.0466
▁günlerinde	-11.0466
▁atandı	-11.0467
▁depremin	-11.0471
▁öğleden	-11.0474
▁kişileri	-11.0475
▁Port	-11.0476
▁tarafta	-11.0482
▁günkü	-11.0484
▁ederiz	-11.0486
▁71	-11.0487
▁Bol	-11.0489
▁namaz	-11.0489
ood	-11.0489
▁esnafın	-11.049
▁Pir	-11.0492
▁yaşına	-11.0492
▁Söyle	-11.0495
▁etiket	-11.0496
▁önü	-11.05
▁Med	-11.0501
▁durak	-11.0503
ette	-11.0505
▁kanama	-11.0508
▁yüzüne	-11.0509
▁öykü	-11.0511
▁özgün	-11.0512
▁ihtiyacımız	-11.0513
▁söyledikleri	-11.0516
▁Elif	-11.0516
▁laboratuvar	-11.0518
▁Kontrol	-11.0518
▁Kapalı	-11.0518
▁Ker	-11.0518
yüzü	-11.0519
▁dönüyor	-11.0519
▁Beyoğlu	-11.0523
▁Fas	-11.0525
▁Shi	-11.0525
▁Adliyesi	-11.0531
▁denetle	-11.0531
▁yapılmaya	-11.0534
laşıyor	-11.0534
▁Ford	-11.0535
▁detayları	-11.0538
▁alanındaki	-11.0543
▁ateşkes	-11.0543
▁tutumu	-11.0543
▁Tav	-11.0545
▁aralık	-11.055
▁inanma	-11.0553
▁silahı	-11.0553
▁Stat	-11.0557
▁Planı	-11.0559
▁almasını	-11.056
bl	-11.0562
▁malzemesi	-11.0562
▁muhtelif	-11.0563
▁eylül	-11.0563
▁ibaret	-11.0563
▁Hareket	-11.0563
▁talip	-11.0563
▁torunu	-11.0563
▁mantığı	-11.0566
▁takibe	-11.0566
▁hasıla	-11.0566
▁sürdüreceği	-11.0566
▁Başta	-11.0566
▁bayi	-11.0569
▁rahatlıkla	-11.0569
▁temasları	-11.057
▁bulut	-11.0572
▁yayınladı	-11.0573
▁sınırında	-11.0574
iao	-11.0575
▁yıldızlı	-11.0576
▁3-4	-11.0577
▁kuşku	-11.0577
▁batısında	-11.058
▁Sergen	-11.0589
▁rast	-11.059
▁yapalım	-11.0593
oviç	-11.0599
▁aramızda	-11.06
▁Oğlu	-11.0602
▁gitmiş	-11.0605
YU	-11.0606
▁ortamında	-11.0606
▁koridor	-11.0608
▁stüdyo	-11.0608
▁voleybol	-11.0608
▁BBC	-11.0608
▁Yardımcı	-11.0609
▁abla	-11.0612
▁kriter	-11.0612
▁gelmiyor	-11.0613
▁açılışında	-11.0613
▁ihaleye	-11.0618
pas	-11.0618
▁ET	-11.0624
▁ekleme	-11.0625
hel	-11.0627
▁çalışmayı	-11.0627
▁Tok	-11.063
▁pekiştir	-11.0631
ğr	-11.0631
▁başladım	-11.0632
▁fren	-11.0632
▁yapılmak	-11.0636
▁öl	-11.0638
▁fazlası	-11.0639
▁özlem	-11.0639
▁Manisaspor	-11.0639
▁kamuoyunda	-11.0641
▁çerçeve	-11.0641
▁başarıya	-11.0642
▁Bunlardan	-11.0642
şah	-11.0644
▁06	-11.0646
▁metrelik	-11.0646
lendirdi	-11.0649
▁İnci	-11.0653
▁Bakırköy	-11.0653
▁Piriştina	-11.0653
▁otomotiv	-11.0653
▁Akşam	-11.0654
▁öğrenmek	-11.0656
▁hoşgörü	-11.0656
▁oluşması	-11.0658
▁İzzet	-11.0658
▁ulaşıma	-11.066
▁tutanak	-11.0662
▁Hani	-11.0662
▁kaderi	-11.0662
▁Kürtler	-11.0663
▁yazılan	-11.0664
▁tutarında	-11.0665
▁Williams	-11.0667
▁ağı	-11.0672
▁Yaka	-11.0673
TELEFON	-11.0676
▁Tüketici	-11.0676
▁muhabbet	-11.0676
▁ribaunt	-11.0676
▁Veysel	-11.0676
▁derneği	-11.0677
▁Web	-11.0681
▁yendi	-11.0687
▁dönüm	-11.0689
▁Kaptan	-11.0692
▁seyir	-11.0692
▁taşımak	-11.0696
▁seviyede	-11.0696
▁tehlikeye	-11.0697
▁imparator	-11.0699
▁akaryakıt	-11.0699
▁sunum	-11.0702
▁şehrinde	-11.0704
▁Kuran	-11.0706
▁düzel	-11.0707
▁giydiği	-11.0708
▁Maçın	-11.0709
ırız	-11.071
▁davranma	-11.0712
▁kalıp	-11.0715
▁netice	-11.0719
▁açtığını	-11.072
▁paylaştığı	-11.0721
▁Zorlu	-11.0721
▁Sichuan	-11.0722
▁İcra	-11.0722
▁yatırımcılar	-11.0722
▁Çolak	-11.0723
▁İşbirliği	-11.0723
▁azınlık	-11.0724
▁Tören	-11.0724
▁planladığı	-11.0725
BAN	-11.0726
▁iptali	-11.0728
▁hazırlığı	-11.0729
▁Yarın	-11.073
▁bulduğunu	-11.073
ACA	-11.0731
▁Güçlü	-11.0731
▁saldırdı	-11.0734
▁Düz	-11.0734
NT	-11.0735
▁satma	-11.0735
▁Hor	-11.0736
ther	-11.0736
▁suçlarından	-11.0738
▁islam	-11.0738
uyorum	-11.0738
▁olmakla	-11.074
▁bizlere	-11.0742
▁FIFA	-11.0745
▁esrar	-11.0745
▁şehirde	-11.0746
▁Şehircilik	-11.0746
▁gelsin	-11.0747
▁neticesinde	-11.0748
▁09	-11.0748
▁aranan	-11.0749
▁olgun	-11.0752
▁Bes	-11.0753
▁Gülen	-11.0755
▁Hemen	-11.0758
▁çarpıcı	-11.0759
▁Grand	-11.0761
▁Yılı	-11.0763
▁kabine	-11.0763
▁köyde	-11.0764
▁ÖZ	-11.0764
▁bakanı	-11.0765
▁750	-11.0765
▁Narlıdere	-11.0768
▁Sırbistan	-11.0768
▁katledil	-11.0769
▁çürü	-11.0769
▁liderliği	-11.077
▁feda	-11.0772
▁araştırmada	-11.0773
▁Gazeteci	-11.0774
▁kav	-11.0776
▁SSK	-11.0777
▁teröre	-11.0778
▁isteniyor	-11.0781
göl	-11.0781
▁sonuçlandı	-11.0782
liyiz	-11.0784
▁çel	-11.0785
▁yazmış	-11.0789
ADA	-11.0789
▁Bütçe	-11.0791
▁santimetre	-11.0791
▁müjde	-11.0791
▁korkunç	-11.0792
YO	-11.0793
▁ilçeye	-11.0794
▁yanından	-11.0795
89	-11.0795
▁kulis	-11.0796
▁sonuca	-11.0797
▁sırf	-11.0798
▁Tunceli	-11.08
▁KAP	-11.08
▁ilaçlar	-11.0803
Kar	-11.0804
BM	-11.0805
▁gar	-11.0807
▁anlatmak	-11.0808
Mu	-11.0808
▁müzakereler	-11.081
▁Cas	-11.0811
▁bırakın	-11.0811
▁Bunları	-11.0811
▁incelemede	-11.0815
▁düşünün	-11.0816
▁yazılmış	-11.0818
73	-11.0819
▁rakamları	-11.082
▁gözünü	-11.0821
▁kaydedilen	-11.0826
▁değişimi	-11.0827
AKP	-11.0827
▁ikincisi	-11.0829
stik	-11.0829
TEN	-11.083
amamış	-11.083
▁çıkmaz	-11.0833
▁74	-11.0836
▁perşembe	-11.0837
▁İstihbarat	-11.0837
▁Federal	-11.0837
▁Che	-11.0838
▁dolduran	-11.0838
▁annesinin	-11.0838
▁öngör	-11.0839
▁yapmıştır	-11.0841
▁yürüyüşü	-11.0841
▁ilçelerinde	-11.0842
▁çalışanı	-11.0844
▁memurları	-11.0846
▁karşılığını	-11.0847
▁sektörde	-11.0851
▁sloganları	-11.0851
▁haberdar	-11.0852
▁sanayici	-11.0853
▁gerileme	-11.0858
▁milliyetçi	-11.086
İMİZ	-11.0862
acaksınız	-11.0864
▁Kupa	-11.0866
79	-11.0868
▁edebilme	-11.0869
▁tedbirler	-11.0869
▁haritası	-11.087
▁çaldı	-11.087
▁yapacağım	-11.0873
▁üreticileri	-11.0874
▁görünme	-11.0876
▁şubesi	-11.0878
▁büyüklüğünde	-11.0879
IS	-11.088
▁Konuk	-11.0883
▁karikatür	-11.0884
Beşiktaş	-11.0884
▁duyguları	-11.0887
▁besin	-11.089
▁yetkililerinin	-11.0894
▁çıkarıldığı	-11.0897
▁Liu	-11.0901
▁planlıyor	-11.0902
▁Bürosu	-11.0905
▁projeye	-11.0905
▁Kentin	-11.0905
▁KİM	-11.0907
▁ilgilendiren	-11.0907
▁koordinasyon	-11.0907
▁Şerif	-11.0907
▁yolunun	-11.0908
▁büyümesi	-11.0908
▁Hepsi	-11.091
▁yetenek	-11.0911
▁dizinin	-11.0914
▁kullanıcıların	-11.0915
▁avcı	-11.0916
▁uçur	-11.0916
▁İsa	-11.0918
▁bekliyorum	-11.092
▁yılını	-11.0922
Mo	-11.0924
▁takımında	-11.0926
▁ilin	-11.0928
▁Cinayet	-11.093
▁Şişli	-11.0931
▁Bozkurt	-11.0931
MAZ	-11.0933
▁etsin	-11.0934
▁sulama	-11.0934
▁inceleyen	-11.0935
▁bölümleri	-11.0936
▁beklediğini	-11.0938
▁hukukun	-11.0938
▁düşmüş	-11.0939
▁Mis	-11.0942
▁öğrenen	-11.0943
▁Wal	-11.0946
▁topluluğu	-11.0948
▁yükselmesi	-11.095
ALI	-11.0953
uştu	-11.0953
▁mesajları	-11.0954
▁yüreği	-11.0954
▁Çorum	-11.0954
▁kaçınılmaz	-11.0954
EGEDESONSÖZ	-11.0954
▁zararı	-11.0956
▁Açılış	-11.0959
▁88	-11.0962
-7	-11.0966
▁dağıttı	-11.0966
▁şiddete	-11.0968
▁işçileri	-11.0971
sky	-11.0976
▁Masa	-11.0977
▁taahhüt	-11.0977
▁Libya	-11.0977
UŞ	-11.0978
Fenerbahçe	-11.0978
▁Güç	-11.0979
▁geçişi	-11.098
▁binaların	-11.0983
▁bittiği	-11.0983
▁diyoruz	-11.0984
▁adımı	-11.0984
▁bankanın	-11.0985
▁2017	-11.0986
▁çözmek	-11.0987
▁BAŞKAN	-11.0988
▁atıp	-11.0995
▁bilmediği	-11.0996
Yap	-11.0997
▁çalışmalarda	-11.0998
▁73	-11.1
▁nakil	-11.1001
▁Afgan	-11.1002
Devlet	-11.1002
▁skandal	-11.1002
▁Arama	-11.1003
ILDI	-11.1005
▁Batılı	-11.1006
▁69	-11.1006
▁arkadaşlarıyla	-11.1009
▁Firma	-11.101
▁sopa	-11.1011
▁organizasyonu	-11.1012
▁Kişi	-11.1012
▁Soylu	-11.1012
▁istemez	-11.1013
▁Ahmed	-11.1013
▁Devletleri	-11.1016
▁muhtemel	-11.1016
▁başkanlığını	-11.1017
▁nitelikli	-11.102
▁sanıkların	-11.1022
▁sağlayacağı	-11.1023
▁görmez	-11.1024
▁Bitlis	-11.1024
▁foto	-11.1024
▁çekilmiş	-11.1025
CAN	-11.1027
▁hayranları	-11.1029
▁Kilis	-11.103
doğ	-11.1032
▁binalar	-11.1032
▁Bilimler	-11.1032
▁eşyaları	-11.1033
▁yayınlandı	-11.1034
▁Özlem	-11.1035
▁ilgisini	-11.1037
▁egemen	-11.1039
▁eşim	-11.1039
▁yakınlarına	-11.1044
▁yükümlü	-11.1048
▁Yel	-11.1048
▁faaliyetlerini	-11.1048
▁Çınar	-11.1048
▁şiddeti	-11.1049
cy	-11.1049
▁hissetme	-11.1056
▁getirdiğini	-11.1058
▁iradesi	-11.1058
▁ağaçları	-11.1059
▁nedenlerle	-11.1063
▁güçlükle	-11.1064
▁senetleri	-11.1064
▁fiş	-11.1065
▁sağlandı	-11.1066
▁genişlet	-11.1066
▁Başkanımız	-11.1068
▁Yaralılar	-11.107
▁üreticisi	-11.107
▁istemedi	-11.1071
▁istekleri	-11.1073
▁You	-11.1073
▁takibi	-11.1073
Kon	-11.1074
cent	-11.1074
SIN	-11.1077
sol	-11.1077
▁Süt	-11.1078
▁Sevgililer	-11.1078
▁Pala	-11.1079
▁bela	-11.108
▁oluşum	-11.1084
▁hırs	-11.1085
▁Altun	-11.1086
▁1960	-11.1087
▁eksi	-11.1087
▁Başkanlık	-11.1087
▁sahnede	-11.1091
▁hissetti	-11.1091
▁deyip	-11.1092
▁aradığı	-11.1093
▁Konut	-11.1096
▁bacağı	-11.1099
▁kulağı	-11.1099
▁odaları	-11.11
▁Mobil	-11.1103
▁unsuru	-11.1104
▁nitelikte	-11.1106
▁İLE	-11.1113
▁Bru	-11.1115
▁baktı	-11.1115
▁duvarı	-11.1116
Li	-11.1117
▁öngörülen	-11.1121
▁beraberinde	-11.1124
▁diplomat	-11.1124
▁göstermiş	-11.1125
▁kemer	-11.1126
▁kırdı	-11.1126
Geçmiş	-11.1132
▁edecektir	-11.1134
▁kısmında	-11.1134
09	-11.1134
▁oluşur	-11.1135
SAN	-11.1138
▁yakalandığı	-11.1139
▁iyileşme	-11.1139
▁uygulamanın	-11.114
▁rövanş	-11.1143
▁Nitekim	-11.1143
▁kayded	-11.1144
▁yem	-11.1146
▁99	-11.1146
▁bulgu	-11.1148
▁başlayıp	-11.1149
▁koşullarda	-11.1152
▁Aygün	-11.1152
▁Lütf	-11.1153
▁Egemen	-11.1156
▁kralı	-11.1158
▁bulunacağı	-11.1158
▁Boş	-11.1159
▁doktorlar	-11.1165
▁Afyonkarahisar	-11.1167
▁çılgın	-11.1167
▁Yoğun	-11.1167
▁Küba	-11.1167
▁Başarı	-11.1167
▁sıkıştır	-11.1171
▁eğilim	-11.1171
▁davasında	-11.1173
heng	-11.1174
vit	-11.1174
▁Valilik	-11.1176
leştirdi	-11.118
▁önlemi	-11.1181
▁kapısında	-11.119
Yar	-11.119
mezse	-11.119
MET	-11.1191
iyon	-11.1191
▁sorulması	-11.1192
üğü	-11.1199
▁bırakılan	-11.1204
▁kurslar	-11.1206
▁gösterecek	-11.1206
▁sergiledi	-11.1207
▁sattı	-11.1208
▁alacağız	-11.1209
▁öv	-11.121
▁atmış	-11.121
▁Güzelbahçe	-11.1215
▁Müziği	-11.1215
▁hemşire	-11.1215
▁Turnuvası	-11.1216
▁işlerini	-11.1217
▁78	-11.1217
▁vermeyen	-11.1219
▁vurma	-11.1219
▁Toplu	-11.122
▁Şarkı	-11.1221
▁KU	-11.1221
amadım	-11.1223
▁Başsavcı	-11.1226
▁yöntemleri	-11.123
▁ertelen	-11.1236
çılık	-11.1239
▁United	-11.1239
▁82	-11.1239
▁rota	-11.1239
▁Bayraktar	-11.124
▁eserlerin	-11.1241
▁şüphesi	-11.1242
▁ilişkilerinin	-11.1244
▁Sorumlusu	-11.1245
▁yaşanması	-11.1245
▁Eskişehirspor	-11.1245
▁bilgisini	-11.1245
▁gördüğüm	-11.1246
▁işletmeler	-11.1247
▁83	-11.125
▁onlarla	-11.125
▁köyün	-11.1252
▁Müze	-11.1254
▁Gelir	-11.1256
▁sürüklen	-11.1258
▁unsurları	-11.1259
▁bölgeden	-11.126
▁Ece	-11.1261
▁tweet	-11.1263
rıldı	-11.1263
▁temmuz	-11.1263
amayınca	-11.1265
▁sonuçta	-11.1267
▁Durum	-11.1267
▁bulunuldu	-11.1268
▁Yat	-11.1271
DUR	-11.1272
▁uğrayan	-11.1272
▁kolayca	-11.1274
▁ötesinde	-11.1274
sizliği	-11.1275
▁Muhtar	-11.1279
▁göm	-11.1279
▁saldırının	-11.128
▁mantık	-11.1287
▁Disiplin	-11.1287
▁duyulan	-11.1287
▁Ofisi	-11.1288
▁Fenerbahçeli	-11.1291
▁rekoru	-11.1292
▁duruşmaya	-11.1293
▁bakımı	-11.1294
▁kızar	-11.1296
▁demeçte	-11.1297
▁Usta	-11.1298
▁uluslar	-11.13
üç	-11.1302
▁fonksiyon	-11.1312
▁Tuğ	-11.1313
▁çatışmalar	-11.1313
▁kaynaklandığını	-11.1316
▁haksızlık	-11.1317
▁Ram	-11.1318
▁Kaş	-11.1319
▁Yüzde	-11.132
▁yönlü	-11.1321
▁soruşturması	-11.1321
pat	-11.1323
▁Bildiri	-11.1324
▁yatağı	-11.1325
adam	-11.1326
▁Radyo	-11.1328
▁sevgisi	-11.1332
▁çıkmıştı	-11.1332
▁gitmeye	-11.1334
▁haberlerin	-11.1335
▁stok	-11.1337
▁makina	-11.1337
▁müs	-11.1337
▁mensuplarına	-11.1338
▁anımsa	-11.1338
şır	-11.1339
▁Alanı	-11.1339
▁Bina	-11.134
▁79	-11.1341
▁etrafı	-11.1342
▁malzemeler	-11.1342
▁ellerinden	-11.1344
▁Raporu	-11.1346
▁900	-11.1346
▁geçerken	-11.1348
▁kimseyi	-11.1348
irim	-11.1349
▁söylenen	-11.1349
04	-11.135
▁Yen	-11.1351
▁mesafede	-11.1351
▁ayrılık	-11.1354
▁başlatan	-11.1355
▁şer	-11.1357
▁140	-11.1359
▁buğday	-11.136
▁Organizasyon	-11.1361
▁parkı	-11.1361
▁Carlos	-11.1361
▁AS	-11.1362
▁yönden	-11.1363
▁mantar	-11.1365
▁sisteminde	-11.1367
▁savunuyor	-11.1368
▁ödeyecek	-11.137
▁Tesis	-11.1372
▁cev	-11.1373
▁çekimi	-11.1376
▁destekliyor	-11.1377
▁Kapı	-11.1378
▁oturt	-11.1378
▁atılması	-11.1384
▁130	-11.1384
▁protein	-11.1385
▁çağın	-11.1386
▁Nobel	-11.1387
▁takvim	-11.139
▁kursları	-11.1394
▁kullandıkları	-11.1397
ello	-11.1397
▁yorgun	-11.1397
▁cevabını	-11.1399
▁protokolü	-11.1401
▁Tuz	-11.1402
▁topluma	-11.1403
▁tempo	-11.1404
▁gelişmelerin	-11.1404
▁edilmesine	-11.1405
▁Avni	-11.1406
▁büyüdü	-11.1407
▁kavuştu	-11.1407
▁İstatistik	-11.1409
▁AVM	-11.1409
▁komedi	-11.1412
▁duyuyorum	-11.1413
▁çile	-11.1415
▁Efe	-11.1416
▁gebe	-11.1417
▁Kerem	-11.1419
▁etapta	-11.1419
▁küs	-11.1421
▁Maria	-11.1421
▁geçeceği	-11.1422
▁kesimin	-11.1423
▁Ergenekon	-11.1425
▁180	-11.1426
▁korunma	-11.1427
▁konuşmak	-11.1427
▁Sevgili	-11.1428
▁Kapısı	-11.1428
▁sürdürü	-11.1429
▁gerekçesi	-11.143
▁kaset	-11.1431
▁süresinin	-11.1432
▁Voleybol	-11.1434
▁sempati	-11.1434
▁TFF	-11.1434
▁ilçesindeki	-11.1437
▁kurtarıl	-11.1437
▁taleplerini	-11.1437
▁defile	-11.1439
▁istasyon	-11.1441
▁kaptır	-11.1441
▁nüfusun	-11.1442
▁bölünme	-11.1443
▁değiştirmek	-11.1443
▁Daum	-11.1443
hard	-11.1444
▁öğrendik	-11.1448
▁Karataş	-11.1449
▁hayatının	-11.1451
▁Mont	-11.1451
▁TAK	-11.1455
▁ÖN	-11.1455
▁Özge	-11.1456
▁yapacakları	-11.1457
▁muhafaza	-11.1457
▁başsağlığı	-11.1459
▁Boğaziçi	-11.1459
▁müvekkil	-11.1459
▁çoban	-11.1459
▁yatırımı	-11.1459
▁Demirören	-11.146
▁tarihten	-11.1462
▁Anket	-11.1465
▁muhabir	-11.1466
▁kapıyı	-11.1471
▁arkasından	-11.1472
labilir	-11.148
▁Ey	-11.1481
rup	-11.1481
▁sağladığını	-11.1482
▁rütbe	-11.1483
▁nakit	-11.1483
▁Kerry	-11.1484
▁Olgun	-11.1486
▁kamuoyunun	-11.1491
▁bö	-11.1494
▁grubunda	-11.1495
laştığı	-11.1498
▁kaz	-11.15
▁Sistem	-11.1505
▁katılarak	-11.1507
▁toplayan	-11.1508
▁orkestra	-11.1508
▁Meteoroloji	-11.1508
▁müslüman	-11.1508
▁nihayet	-11.1508
▁Torbalı	-11.1508
▁dayanıklı	-11.1508
▁merkezlerinde	-11.1508
▁Durmuş	-11.1511
▁sokma	-11.1511
▁patron	-11.1512
▁işletmelerin	-11.1512
Suriye	-11.1514
▁etkiledi	-11.1514
▁durağı	-11.1516
▁mutluluğu	-11.152
▁piyasası	-11.1521
▁Emek	-11.1521
müyor	-11.1522
▁başlamıştı	-11.1523
meyince	-11.1524
▁müdürleri	-11.1525
amaması	-11.1525
▁şarkılar	-11.1526
Şampiyon	-11.1528
tığımız	-11.1528
▁mekanizma	-11.1531
▁Bri	-11.1531
▁irtibat	-11.1533
▁mutabakat	-11.1533
▁açarak	-11.1535
▁sürmesi	-11.1535
▁Yolcu	-11.1535
▁geldikleri	-11.1537
▁gelebilir	-11.1537
▁raf	-11.1537
▁ekonomisine	-11.1537
hay	-11.1537
▁organik	-11.1539
▁besteci	-11.1541
▁Fuat	-11.1542
▁kadrosuna	-11.1543
MEN	-11.1545
-12	-11.1548
▁yorumunu	-11.1549
LARA	-11.1551
▁hayvanları	-11.1551
▁isterken	-11.1551
▁takvimi	-11.1552
▁once	-11.1553
▁1-2	-11.1553
yurt	-11.1554
▁cm	-11.1554
MASI	-11.1554
▁politikacı	-11.1555
▁kadin	-11.1555
▁ülkesinin	-11.1556
▁tayin	-11.1557
▁şansını	-11.1557
▁Tartışma	-11.1558
▁Tekirdağ	-11.1558
▁Unakıtan	-11.1558
▁böbrek	-11.1558
▁orijinal	-11.1558
▁General	-11.1558
▁periyod	-11.1558
▁ihanet	-11.1558
▁general	-11.1558
▁davul	-11.1559
▁ceset	-11.1561
▁uyarısı	-11.1563
▁kesildi	-11.1564
▁Dalı	-11.1566
cher	-11.1566
▁bombalı	-11.1567
▁hazırız	-11.1571
bert	-11.1571
▁ayırma	-11.1572
▁taraflı	-11.1576
lenmeye	-11.1576
▁yöneten	-11.1578
▁Vakıf	-11.1582
▁menfaat	-11.1583
▁seçeneği	-11.1583
▁Hatice	-11.1583
▁limit	-11.1583
▁atanan	-11.1585
▁kayıplar	-11.1585
▁Marşı	-11.1586
▁kurtardı	-11.1587
▁Çiller	-11.1589
▁sürme	-11.1591
▁1970	-11.1594
▁başvurma	-11.1595
▁yönlendirme	-11.1596
▁kardeşlerimiz	-11.1596
▁varlığını	-11.1598
▁aklıma	-11.1598
▁Zo	-11.1598
▁artırdı	-11.1601
▁istediğim	-11.1601
ring	-11.1602
▁maddelerin	-11.1604
▁çocuğunu	-11.1605
▁sözleriyle	-11.1606
▁çocuğa	-11.1608
▁biyolojik	-11.1608
▁çiğ	-11.1608
▁Sıra	-11.1611
▁kırsalının	-11.1611
▁varken	-11.1611
▁dağıtımı	-11.1611
▁yükseldiği	-11.1613
▁TCK	-11.1614
▁dille	-11.1617
▁dostluğu	-11.162
▁adlandırıl	-11.1621
▁makineleri	-11.1621
yınca	-11.1623
▁bombası	-11.1624
▁sisteme	-11.1624
▁müziğin	-11.1624
▁Değer	-11.1625
▁bölgelere	-11.1627
ulmuş	-11.1628
▁Cho	-11.163
▁yolundaki	-11.1631
▁Hıristiyan	-11.1633
▁Sovyet	-11.1633
▁istikamet	-11.1633
▁binasının	-11.1633
▁gülü	-11.1634
▁dönecek	-11.1634
▁kendimizi	-11.1635
iğe	-11.1635
bro	-11.1636
▁gazi	-11.1636
▁1500	-11.1636
▁borçlu	-11.1636
▁sütun	-11.1637
▁önerdi	-11.1638
▁ayrılmış	-11.1639
▁bakmak	-11.164
▁gelirse	-11.164
▁3.5	-11.1641
▁Nor	-11.1642
lendirilmesi	-11.1642
▁getirmesi	-11.1645
RET	-11.1646
▁Çan	-11.1647
▁gecik	-11.1648
TIR	-11.1648
▁bahse	-11.1651
▁damga	-11.1654
▁dolan	-11.1655
▁Antrenör	-11.1658
▁sekreter	-11.1658
▁CNN	-11.1658
▁Kaçakçılık	-11.1658
▁işlediği	-11.166
▁Törende	-11.166
▁Sözcü	-11.1661
▁yürüyen	-11.1662
▁etmeyen	-11.1662
▁arayışı	-11.1664
▁tarımsal	-11.1669
iyat	-11.167
▁başlatıl	-11.1674
▁emekçi	-11.1675
▁hatası	-11.1677
▁teknolojik	-11.1679
BİR	-11.168
▁büyüklüğü	-11.168
▁Caner	-11.168
▁karaciğer	-11.1683
▁konsept	-11.1683
▁çarşamba	-11.1683
▁İhbar	-11.1683
▁gayri	-11.1683
▁ikramiye	-11.1685
latma	-11.1685
▁yakınında	-11.1686
▁güvenilir	-11.1688
YORUM	-11.1689
nom	-11.1689
▁Hedef	-11.1693
▁midir	-11.1696
▁Yarış	-11.1698
emeyeceği	-11.1702
▁Başsavcısı	-11.1704
▁çıkmadı	-11.1704
▁Jiabao	-11.1708
▁edebilecek	-11.1708
▁taşeron	-11.1708
▁Satış	-11.1709
▁ETTİ	-11.1714
▁Alper	-11.1715
▁Alt	-11.1715
▁ab	-11.1715
▁yetenekli	-11.1716
▁taşınması	-11.1716
▁değiştirilmesi	-11.1717
▁yediği	-11.1717
▁şaşkın	-11.1718
▁oluşturur	-11.1719
▁güldü	-11.1721
▁yaklaşımı	-11.1723
▁yiyen	-11.1724
▁Koordinatörü	-11.1725
▁taşındı	-11.1725
▁alınıp	-11.1726
▁çalışmasını	-11.1727
▁yorumlar	-11.1728
▁yükseltme	-11.1728
▁Nevzat	-11.1734
▁Serbest	-11.1734
▁pirinç	-11.1734
▁Giresun	-11.1734
Önce	-11.1734
▁mesajını	-11.1734
YD	-11.1737
▁mülk	-11.1741
▁bahsedi	-11.1741
▁Com	-11.1746
▁talihsiz	-11.1747
▁Fidan	-11.1749
▁Akademi	-11.175
▁opera	-11.1751
meyeceği	-11.1752
▁yapıyorum	-11.1754
terapi	-11.1756
▁törene	-11.1756
▁barındır	-11.1759
▁Macaristan	-11.1759
▁pozitif	-11.1759
▁teşebbüs	-11.1759
▁Toyota	-11.1759
▁Kobani	-11.1759
▁Umarım	-11.1759
▁tıpkı	-11.1761
▁çığ	-11.1762
▁Pre	-11.1762
▁Kullan	-11.1763
▁ırk	-11.1764
▁gelişmekte	-11.1767
▁Denizi	-11.177
▁kentindeki	-11.1771
▁Federasyon	-11.1771
▁yankı	-11.1773
▁cari	-11.1777
fre	-11.1779
▁koyarak	-11.1779
▁söyleniyor	-11.1781
▁bulmuş	-11.1781
▁ap	-11.1783
▁karsi	-11.1783
▁Fevzi	-11.1784
▁Örnek	-11.1784
▁üzgün	-11.1784
▁Sektör	-11.1787
▁tutuklanan	-11.179
▁ankara	-11.1793
▁etmekte	-11.1794
▁bağlayan	-11.1798
▁tetik	-11.1806
▁Tarsus	-11.181
▁mucize	-11.181
▁ÇKP	-11.181
▁Sahne	-11.181
▁olacağım	-11.181
▁üçlü	-11.181
▁banyo	-11.181
▁çarpıştı	-11.1812
▁rektör	-11.1812
▁Steve	-11.1814
▁partiye	-11.1816
▁kalesi	-11.1816
▁projesinin	-11.1819
▁tutulması	-11.182
▁devrimci	-11.1822
▁kanlı	-11.1822
TAY	-11.1822
▁Duru	-11.1824
kapı	-11.1826
▁gezdi	-11.1827
NDA	-11.1827
▁tedbirleri	-11.1828
▁dışarıdan	-11.1829
MEDİ	-11.183
▁tasarımcı	-11.1835
▁başlangıcı	-11.1835
▁şeffaf	-11.1835
▁dedikodu	-11.1836
▁konuların	-11.1836
▁İdari	-11.1836
▁belirtilirken	-11.1836
▁buçuk	-11.1836
▁Uzay	-11.1836
▁yönünden	-11.1837
▁yaralandığını	-11.1838
▁tabak	-11.1838
▁start	-11.184
▁facia	-11.1841
▁arayıp	-11.1843
▁bilmeyen	-11.1844
ymış	-11.1848
▁alınıyor	-11.1851
▁yetiştiril	-11.1852
▁kurtuldu	-11.1854
▁yapay	-11.1855
▁karşımıza	-11.1856
▁çamaşır	-11.1861
▁beşiktaş	-11.1861
▁Yrd	-11.1861
▁patlaması	-11.1862
▁şerit	-11.1863
▁piyasalar	-11.1864
▁haberini	-11.1864
▁gene	-11.1865
‘‘	-11.1866
▁Uçak	-11.1867
▁kurulmuş	-11.1868
▁koyar	-11.187
▁operatör	-11.187
▁yenileme	-11.1871
▁Endeksi	-11.1871
▁Ulus	-11.1873
▁antrenörü	-11.1874
▁Hele	-11.1874
▁masası	-11.1879
▁olmamız	-11.188
▁soyunma	-11.1883
▁imzalanan	-11.1884
▁desteklediği	-11.1886
▁giydi	-11.1886
▁Kahramanmaraş	-11.1887
▁Manchester	-11.1887
▁Sırp	-11.1887
▁iflas	-11.1887
▁Sizin	-11.189
▁Hatip	-11.189
▁kenara	-11.1891
-25	-11.1893
▁kapatıldı	-11.1903
▁teminat	-11.1903
▁tartışmaya	-11.1905
▁87	-11.1905
▁kitapta	-11.1907
▁topar	-11.1907
▁kadarıyla	-11.1909
▁taban	-11.191
▁Denktaş	-11.1913
▁restorasyon	-11.1913
▁küçül	-11.1913
▁cem	-11.1913
▁Çağdaş	-11.1913
▁figür	-11.1914
▁tıkan	-11.1914
▁Hint	-11.1915
SIZ	-11.1915
▁şirketlerinin	-11.192
▁84	-11.1921
ebildiği	-11.1922
eddin	-11.1922
▁karşısındaki	-11.1923
İLDİ	-11.1923
▁özelliğini	-11.1925
▁yapabilme	-11.1926
▁takımına	-11.1928
gas	-11.1931
▁Tas	-11.1931
▁Cel	-11.1936
▁Üstün	-11.1937
▁Richard	-11.1938
▁tezahürat	-11.1938
▁vazgeçilmez	-11.1938
▁Göç	-11.1939
▁Çukurova	-11.1939
way	-11.1939
▁kurtuluş	-11.1941
▁aniden	-11.1941
▁Kab	-11.1941
▁tekniği	-11.1942
ılsın	-11.1945
▁komşuları	-11.1946
▁düşürdü	-11.195
▁öldürmek	-11.1953
▁demokrasinin	-11.1955
▁şik	-11.1959
▁önleme	-11.1962
▁Cerrah	-11.1964
▁kullanacak	-11.1964
▁Çözüm	-11.1964
▁razı	-11.1965
▁gezisi	-11.1965
▁anlamıyla	-11.1965
▁Sındır	-11.1965
▁belirtilerek	-11.1965
▁nesne	-11.1967
▁tutulan	-11.1968
▁gireceği	-11.1971
▁Bucaspor	-11.1972
▁izlemeye	-11.1973
▁etkilenen	-11.1974
▁esir	-11.1975
Artık	-11.1975
Vİ	-11.1977
Bunlar	-11.1979
▁sunuldu	-11.1982
▁deposu	-11.1983
▁erkeklerde	-11.1984
▁Bayan	-11.1989
▁cek	-11.199
▁Şüpheli	-11.199
▁Cenaze	-11.199
▁elma	-11.1995
▁Vo	-11.1997
▁Hamit	-11.1998
▁kasım	-11.2001
▁amaçlayan	-11.2002
▁özet	-11.2003
ığın	-11.2004
▁milletimiz	-11.2004
▁açıklamasının	-11.2008
▁gününü	-11.2008
▁tüy	-11.2008
▁olabiliyor	-11.2009
Der	-11.201
▁zorunluluğu	-11.2011
▁miydi	-11.2014
▁inanıyor	-11.2014
SİAD	-11.2016
▁Jones	-11.2017
▁zarf	-11.2017
▁direğ	-11.2018
▁Tahran	-11.2022
▁başlıca	-11.2023
▁kapasiteli	-11.2023
▁finalinde	-11.2025
▁heykeli	-11.2026
▁giyme	-11.2027
▁bilgilendir	-11.203
▁kaybetmesi	-11.2031
▁basketbolcu	-11.2032
▁Antik	-11.2033
▁fotoğrafını	-11.2033
askıya	-11.2036
▁Pak	-11.2036
▁abart	-11.2039
▁açıklamayı	-11.2041
▁Kilisesi	-11.2044
▁Marc	-11.2046
▁Sonuç	-11.2046
▁ediyordu	-11.2049
▁sahiplerine	-11.2049
▁uzaklıkta	-11.2051
▁birbirlerini	-11.2051
▁sigortası	-11.2052
▁bulunduklarını	-11.2053
Genç	-11.2055
▁King	-11.2058
▁gazetesine	-11.2059
▁ödenme	-11.2059
ttığı	-11.2059
▁Ödülleri	-11.206
▁yapılmadığı	-11.2062
▁dahilinde	-11.2062
▁işlevi	-11.2062
▁görüşen	-11.2062
LERE	-11.2065
▁kanadı	-11.2065
▁almaktadır	-11.2066
▁bünye	-11.2067
▁Kafkas	-11.2069
▁akciğer	-11.2069
▁temyiz	-11.2069
▁Zengin	-11.2069
▁unutulmaz	-11.2071
▁kumaş	-11.2071
▁işçisi	-11.2073
▁oturuyor	-11.2076
▁değerinde	-11.2076
▁takdim	-11.2078
▁canı	-11.208
▁bari	-11.208
gazi	-11.2082
▁unsur	-11.2086
▁Doğum	-11.2087
ılmak	-11.2087
▁idaresi	-11.2087
▁krem	-11.2088
▁bürosu	-11.2089
▁formu	-11.2091
▁inanan	-11.2092
▁Isparta	-11.2095
▁mağlubiyet	-11.2095
▁Erbakan	-11.2095
▁GALERİ	-11.2095
▁hormon	-11.2095
▁kendime	-11.2098
▁Tarık	-11.2099
▁Motor	-11.2099
Hayır	-11.2107
▁kulüplerin	-11.2109
▁arkasına	-11.2109
Başkan	-11.2111
▁ayıp	-11.2114
▁tanker	-11.2116
rab	-11.2117
▁DTP	-11.2121
▁kazanıyor	-11.2122
▁insanlarla	-11.2122
▁Haydar	-11.2123
▁burun	-11.2127
▁sergisi	-11.2127
▁kullanılarak	-11.2128
▁duruşması	-11.2129
▁geçip	-11.213
▁hükümlü	-11.2133
▁abd	-11.2133
▁İskender	-11.2135
▁Yılın	-11.2136
▁geçiriyor	-11.2137
▁resimleri	-11.214
▁gergin	-11.2142
▁liderler	-11.2143
▁Play	-11.2145
▁Muzaffer	-11.2148
▁robot	-11.2148
▁PARTİ	-11.2148
▁Üretim	-11.2148
▁DAHA	-11.2148
YI	-11.2149
Çocuğu	-11.2149
▁Kahve	-11.2149
▁otobüsün	-11.215
▁unutmayın	-11.215
UNU	-11.2151
sizliğin	-11.2153
▁Ebu	-11.2154
▁hain	-11.2155
▁aşağıdaki	-11.2155
▁yuz	-11.2162
▁tekme	-11.2163
▁dayanan	-11.2163
▁gerektiren	-11.2164
▁merkezindeki	-11.2166
▁bakanları	-11.2166
▁***	-11.217
▁patronu	-11.2172
▁sökü	-11.2174
▁Şükür	-11.2174
▁manşet	-11.2174
▁şiddetle	-11.2177
▁efendim	-11.2178
Amacımız	-11.2178
▁sporun	-11.2183
lot	-11.2187
▁vücudu	-11.2188
▁YOL	-11.2189
▁çim	-11.2192
▁kadroya	-11.2194
▁otobüsü	-11.2195
▁Leyla	-11.2199
▁vahşi	-11.2201
▁AİHM	-11.2201
▁soğan	-11.2201
▁yurtiçi	-11.2201
▁yükü	-11.2203
▁Cam	-11.2204
▁çöl	-11.2206
▁bölme	-11.2208
▁yapılırken	-11.2209
▁cinsiyet	-11.2209
▁genelge	-11.2211
KAT	-11.2213
▁anlattığı	-11.2213
▁kalitesini	-11.2214
▁uğradığı	-11.2215
▁çıkmasını	-11.2216
▁hastanın	-11.2221
ayrı	-11.2221
▁turistlerin	-11.2222
▁alem	-11.2223
▁dusun	-11.2223
▁Chirac	-11.2227
▁perakende	-11.2227
▁Ortaokulu	-11.2227
▁pratik	-11.2227
▁etmeden	-11.2228
▁Karayolu	-11.223
ileceği	-11.2231
▁karşılamak	-11.2232
▁Fil	-11.2236
▁Yolları	-11.2238
▁Boğaz	-11.2238
▁girmeye	-11.2239
▁nitel	-11.2241
▁yaşını	-11.2242
▁seçilmiş	-11.2242
▁karışan	-11.2243
▁Patlama	-11.2243
▁koymak	-11.2244
▁belirlenecek	-11.2245
▁cephesi	-11.2246
▁arkadas	-11.2247
▁Jia	-11.2248
▁Edinil	-11.2248
▁baska	-11.2249
▁oynamaya	-11.2252
▁etkinlikte	-11.2253
▁Hilmi	-11.2254
▁pazarında	-11.2255
▁açığa	-11.2255
hedeflediklerini	-11.2256
meyeceğini	-11.2257
meliyiz	-11.2258
▁Aralarında	-11.2258
▁çoğunlukla	-11.2263
▁bulundurma	-11.2264
▁semtinde	-11.2268
tto	-11.2275
▁yapmadan	-11.2277
eceğimiz	-11.2277
▁günah	-11.2278
▁durdurul	-11.2278
▁düşünmek	-11.2278
Bay	-11.228
▁Kavşağı	-11.2281
▁okuyucu	-11.2281
▁sterlin	-11.2281
▁Soru	-11.2282
▁Sonuçta	-11.2282
▁Tutuk	-11.2282
▁eksen	-11.2285
▁cezalı	-11.2286
▁anısına	-11.2287
büs	-11.2287
▁uzunluğunda	-11.229
▁istemesi	-11.2291
▁yetme	-11.2292
▁borcunu	-11.2295
▁tenisçi	-11.2295
▁yapılmıştır	-11.2297
ecegi	-11.23
▁My	-11.23
▁Mevcut	-11.23
▁yükselme	-11.2301
▁Yaman	-11.2302
▁araştırmaya	-11.2303
▁görüşmek	-11.2305
▁mutfağı	-11.2307
▁bölücü	-11.2308
▁Resim	-11.2308
▁Abbas	-11.2309
▁anılan	-11.2311
▁saptan	-11.2311
▁istemediğini	-11.2312
▁nehir	-11.2314
▁çalan	-11.2314
▁Spi	-11.2315
▁mobilya	-11.2316
▁Hangi	-11.2318
▁Konferans	-11.2318
▁Uzman	-11.2319
▁sürat	-11.2319
▁öğrendiği	-11.232
▁piyasalarda	-11.2322
▁And	-11.2325
▁zinciri	-11.2327
▁tah	-11.2329
ugh	-11.233
▁bozdu	-11.2331
▁başladıklarını	-11.2331
▁Koleji	-11.2334
▁DÖN	-11.2334
▁Abdul	-11.2335
▁Çaykur	-11.2335
▁etkilendi	-11.2336
▁gezen	-11.2337
▁ormanlık	-11.2337
LAY	-11.2339
▁sanal	-11.2341
▁Afet	-11.2345
▁oradaki	-11.2348
▁Muş	-11.2348
▁ciddiyet	-11.235
▁yerleştirme	-11.2353
▁duydu	-11.2356
▁fare	-11.2358
▁gösterge	-11.236
▁89	-11.2361
▁göğsü	-11.2361
▁kompleks	-11.2361
▁tesadüf	-11.2361
▁ehliyet	-11.2361
▁Günümüzde	-11.2361
▁mesleki	-11.2362
▁otelin	-11.2362
▁yasadışı	-11.2365
fel	-11.2366
-18	-11.2367
▁üretiminde	-11.2368
▁getirilme	-11.237
▁Aslı	-11.237
▁versin	-11.237
▁söylemiş	-11.237
▁tas	-11.2371
▁hukuka	-11.2374
▁gösterildi	-11.2376
▁yangının	-11.2376
bül	-11.2376
▁listesine	-11.2378
▁bayıl	-11.2379
▁gerçekleştirme	-11.2379
▁getirilmiş	-11.2388
▁dağılımı	-11.2388
▁zırhlı	-11.2388
▁domates	-11.2388
▁Şiddet	-11.2388
▁yelken	-11.2388
▁yürütüyor	-11.2388
▁görmüyor	-11.2389
▁Albayrak	-11.2389
▁Camisi	-11.239
▁dönüp	-11.239
▁galibiyetle	-11.2391
▁kazanmış	-11.2393
▁soğu	-11.2393
▁seferleri	-11.2394
▁bekletil	-11.2398
▁egemenliği	-11.2398
▁malum	-11.2404
▁yaşattı	-11.2405
▁vermediği	-11.2408
▁sorunlarının	-11.2409
▁Sendika	-11.241
▁redded	-11.2411
▁Haberde	-11.2413
▁fuhuş	-11.2415
▁Otobüs	-11.2416
▁Güreş	-11.2419
▁hedefliyoruz	-11.2419
▁öğrenilen	-11.242
▁açılışını	-11.2422
▁karşılaşmanın	-11.2423
▁davranışları	-11.2425
▁20.00	-11.2428
▁GÖZ	-11.243
▁Ölüm	-11.243
▁Kendisini	-11.2431
ANA	-11.2432
▁kapağı	-11.2432
▁otoyol	-11.2433
▁Ozan	-11.2441
▁fragman	-11.2443
▁armağan	-11.2443
▁çalışanlarının	-11.2443
▁Ferhat	-11.2445
▁Musul	-11.2445
▁bırakarak	-11.2445
Eski	-11.2446
▁sportif	-11.2446
▁ortalaması	-11.2448
▁savcılığa	-11.2448
▁mas	-11.245
kası	-11.2453
▁döneminin	-11.2455
▁Kamer	-11.2455
▁getirmeye	-11.2457
▁balon	-11.2458
▁tesislerin	-11.2458
▁sırayı	-11.246
▁sağlanan	-11.2463
emem	-11.2465
▁nitelik	-11.2466
▁Şaş	-11.2468
▁ağustos	-11.247
▁İhracatçı	-11.247
▁dehşet	-11.247
▁gezegen	-11.247
▁ÖNCE	-11.247
▁danışmanı	-11.2471
▁değerini	-11.2472
▁Afyon	-11.2472
▁yetişkin	-11.2474
▁hissi	-11.2475
▁sınıfta	-11.2475
▁sakınca	-11.2475
▁ithalatı	-11.2475
kos	-11.2476
▁Dinçer	-11.2476
▁rolünü	-11.2477
▁gözlemci	-11.248
hang	-11.248
▁binasına	-11.248
▁problemleri	-11.2481
▁geçmeye	-11.2483
▁üyelerinden	-11.2484
▁edebiyatı	-11.2485
▁militanları	-11.2485
▁beraberliği	-11.2485
▁belirlediği	-11.2489
▁arayış	-11.249
▁piyasasında	-11.2491
▁Bilal	-11.2493
▁noktaları	-11.2493
▁tatile	-11.2495
▁uğruna	-11.2497
▁Hizbullah	-11.2497
▁Sürücü	-11.2497
▁estetik	-11.2497
▁ziyade	-11.2497
▁öngörülüyor	-11.2497
▁Word	-11.2497
▁koz	-11.2498
▁YAPAR	-11.2499
▁saldırıyı	-11.2502
▁menajeri	-11.2505
▁Kalkan	-11.2506
▁kaybettik	-11.2506
inize	-11.2506
▁terörizm	-11.2507
▁kurtarılamadı	-11.2507
▁kablo	-11.2511
▁AP	-11.2513
▁kalmıştı	-11.2515
▁çalışıyorlar	-11.2516
▁nerde	-11.2517
▁hatalı	-11.2521
AZI	-11.2521
▁kavgaya	-11.2524
▁ANTALYA	-11.2524
▁Yürüyüş	-11.2524
▁çukur	-11.2524
▁arşiv	-11.2525
▁sis	-11.2525
▁ekmeği	-11.2526
▁görüp	-11.2526
▁heyecanlı	-11.2527
▁üstlendi	-11.2527
▁Tarkan	-11.2529
▁stil	-11.253
leştirilmiş	-11.2531
▁car	-11.2531
▁öğrendim	-11.2532
▁Kendisine	-11.2532
▁Ödül	-11.2532
▁paylaşma	-11.2533
▁değişiyor	-11.2533
▁İsrailli	-11.2533
▁başarıyı	-11.2542
▁koleksiyon	-11.2548
▁anıt	-11.2548
▁mahkemece	-11.2549
▁toplantısının	-11.2549
▁etmeyin	-11.255
▁Toplantıya	-11.2551
▁periyot	-11.2552
▁Milletvekilleri	-11.2552
▁köle	-11.2552
▁Mesela	-11.2553
▁kalmayı	-11.2554
▁kalarak	-11.2555
liğimiz	-11.2556
▁Dündar	-11.2556
▁mutlak	-11.2556
▁şanslı	-11.2557
▁sağlığını	-11.2557
jo	-11.2558
▁Aş	-11.2558
▁tokat	-11.2559
▁vermeyeceği	-11.2559
▁Rapor	-11.256
▁zorluklar	-11.2563
▁bitmesi	-11.2564
▁birincisi	-11.2565
▁İranlı	-11.2566
▁organı	-11.2568
▁eşitlik	-11.2568
▁ölçüm	-11.2569
▁kullanması	-11.257
▁geliştirdiği	-11.2572
▁meclisi	-11.2572
LANDI	-11.2573
▁Yıllık	-11.2576
▁çevreye	-11.2577
▁getirip	-11.2578
▁seçimlere	-11.2578
▁favori	-11.258
▁objektif	-11.258
▁Vadisi	-11.258
▁tahrik	-11.258
▁Çoban	-11.258
▁mısır	-11.258
▁160	-11.2583
BU	-11.2583
▁silahla	-11.2584
▁boyle	-11.2586
▁Kürtçe	-11.2589
▁sevindir	-11.2596
▁istediğimiz	-11.2605
▁sark	-11.2606
▁asansör	-11.2607
▁Fabrikası	-11.2607
▁Viyana	-11.2608
▁Val	-11.2608
▁kızının	-11.2609
▁Cemiyeti	-11.2609
▁Frank	-11.261
stra	-11.2611
▁papa	-11.2611
▁Zira	-11.2611
▁Kemalpaşa	-11.2611
HAN	-11.2613
▁ŞAM	-11.2613
▁çalıştık	-11.2615
▁öyküsü	-11.2615
▁Gürkan	-11.2616
▁Balık	-11.2616
▁olumsuzluklar	-11.2616
▁alınırken	-11.2618
▁AMA	-11.2618
liğinden	-11.2619
▁atlama	-11.2621
▁Dost	-11.2621
▁kaybolan	-11.2628
▁kısıtlama	-11.2628
Halk	-11.2629
▁ağrısı	-11.263
▁TC	-11.263
IMIZ	-11.2631
▁piyasaların	-11.2632
▁siyasetçiler	-11.2633
▁sunacak	-11.2633
▁defnedil	-11.2635
▁tezgah	-11.2635
sion	-11.2637
▁TOP	-11.2637
▁Taraf	-11.2638
▁suçlamaları	-11.2639
▁yöntemle	-11.264
arslan	-11.2641
YON	-11.2641
▁alınmasının	-11.2643
▁Barosu	-11.2643
▁Özbek	-11.2643
▁göreceğiz	-11.2646
cre	-11.2649
▁alabilir	-11.2651
▁Gelen	-11.2652
▁KARAR	-11.2652
▁düşündüm	-11.2655
▁alışverişinde	-11.2656
▁kırsalında	-11.2656
▁alıyoruz	-11.2658
▁basınında	-11.2662
▁TOBB	-11.2663
▁Şeref	-11.2663
▁Barzani	-11.2663
▁Maddi	-11.2663
▁nar	-11.2663
▁ciro	-11.2664
▁duygusu	-11.2664
▁Duran	-11.2667
▁Beko	-11.2669
KUR	-11.267
▁oluşumu	-11.2671
▁Birkaç	-11.2672
▁Çoğu	-11.268
▁başlı	-11.2682
▁ağlama	-11.2683
▁maddesinin	-11.2684
▁Luc	-11.2685
▁OY	-11.2687
▁edebileceği	-11.2688
▁yürüttü	-11.2689
▁telefonunu	-11.2689
▁Hareketi	-11.269
▁bilirkişi	-11.269
▁çelişki	-11.269
▁kaymakam	-11.269
▁Telefon	-11.269
▁logo	-11.2695
▁yapısal	-11.2697
▁Tuğba	-11.2698
▁seferber	-11.2698
▁yağı	-11.27
▁etmediği	-11.2701
▁tap	-11.2703
▁yaşadık	-11.2707
▁cihazlar	-11.2711
▁arkadaşının	-11.2715
ılabilecek	-11.2718
▁Tekstil	-11.2718
▁Uysal	-11.2718
▁Biraz	-11.272
▁oğulları	-11.272
▁Bektaş	-11.272
sburg	-11.2721
DS	-11.2721
▁kıskan	-11.2723
▁doz	-11.2723
▁çıkınca	-11.2723
▁çekerken	-11.2723
Barack	-11.2726
▁notu	-11.2727
▁durdurdu	-11.2731
hanesi	-11.2732
▁kazanır	-11.2733
▁ürünün	-11.2734
▁Arkadaşları	-11.2736
▁kaybettiğini	-11.2737
▁deplasman	-11.2739
ebiliriz	-11.2741
▁Köprü	-11.2745
▁Akar	-11.2746
▁dikkatini	-11.2746
▁öncesine	-11.2746
▁Alaattin	-11.2746
▁Gündoğdu	-11.2746
▁tütün	-11.2746
▁tabela	-11.2746
▁Farklı	-11.2747
▁suriye	-11.2747
▁tebliğ	-11.2747
▁dunya	-11.2747
▁ürünlerinin	-11.2749
▁ailelerine	-11.2749
▁Memur	-11.2754
▁kullanıcılar	-11.2754
▁görevlilerinin	-11.2754
▁anımsatan	-11.2754
▁erkeğin	-11.2756
▁göstermeye	-11.2756
▁gereğini	-11.2758
▁BİL	-11.276
MALI	-11.276
▁YAPIL	-11.2764
▁gerçekleştirmek	-11.2768
▁bağışı	-11.2768
▁KİŞİ	-11.2771
MER	-11.2772
▁döndüğü	-11.2774
▁kürt	-11.2774
▁zabıta	-11.2774
▁Show	-11.2775
▁Bağımsız	-11.2775
▁Duygu	-11.2775
▁bağlama	-11.2776
▁EDİL	-11.2776
▁yönüne	-11.2779
▁genişletil	-11.278
▁düzenlemesi	-11.2782
▁yanlarında	-11.2782
▁teması	-11.2783
▁ötesi	-11.2788
▁dize	-11.2793
▁sütü	-11.2794
evet	-11.2796
▁hesabından	-11.2796
▁yargılanmak	-11.28
▁Adil	-11.2802
▁ameliyatı	-11.2802
▁Cenevre	-11.2803
▁söndürme	-11.2803
▁düğme	-11.2803
▁meşhur	-11.2803
▁Ulusoy	-11.2804
sho	-11.2804
▁Aksaray	-11.2804
▁vermez	-11.2806
ılmıyor	-11.2806
▁bağladı	-11.2809
▁etkilenme	-11.2813
▁hatları	-11.2818
▁kararname	-11.2819
▁konuğu	-11.2819
▁canım	-11.2823
▁yansıdı	-11.2824
▁kesilmesi	-11.2827
▁bulması	-11.283
▁çarşı	-11.2831
▁iğne	-11.2831
▁umarım	-11.2831
▁yapmaz	-11.2831
▁şeridi	-11.2831
▁yanlısı	-11.2831
▁parmağı	-11.2831
▁tabut	-11.2832
▁Babası	-11.2832
▁Madde	-11.2832
▁okuyor	-11.2833
▁ortaokul	-11.2833
zhou	-11.2834
▁yaşındayken	-11.2836
▁kutusu	-11.2836
▁Düzce	-11.2837
▁kaldıkları	-11.2839
▁beslen	-11.284
▁damla	-11.2841
▁raporunu	-11.2842
▁dinleyen	-11.2844
▁Bence	-11.2845
▁eminim	-11.2845
▁etmeyeceği	-11.2848
▁fazlasıyla	-11.2849
▁menajer	-11.2851
landırılması	-11.2854
▁atmaya	-11.2857
▁Görüntü	-11.2859
▁Şey	-11.286
▁ayrılmak	-11.2861
▁çıkışında	-11.2861
▁Abi	-11.2862
▁kısmen	-11.2863
▁meslektaşları	-11.2864
▁genişleme	-11.2864
▁büro	-11.2865
▁takıldı	-11.2866
▁köklü	-11.2869
MÜ	-11.2869
▁İskenderun	-11.2873
▁olamayacağı	-11.2874
▁cezayı	-11.2875
▁hükme	-11.2875
▁böl	-11.2875
▁Akif	-11.2878
▁verebilir	-11.2881
rist	-11.2881
▁aşma	-11.2885
▁Zeytin	-11.2887
▁Selvitopu	-11.2888
▁ribaund	-11.2888
▁Ferrari	-11.2888
▁gövde	-11.2888
▁Vedat	-11.2888
▁gündeminde	-11.2889
▁Düzenleme	-11.289
▁darp	-11.2891
▁Tire	-11.2891
▁deneyimi	-11.2891
▁işletim	-11.2891
▁Yaptığı	-11.2892
▁kutlamaları	-11.2893
▁Bayanlar	-11.2895
▁Demek	-11.2898
▁tabanı	-11.2898
▁solu	-11.2898
▁kültürünü	-11.2898
▁başlayarak	-11.29
▁karşılaşmayı	-11.29
▁yayımlandı	-11.2901
▁kılın	-11.2902
▁otomobille	-11.2904
▁düşmanı	-11.2906
▁yargılanması	-11.2909
▁Zu	-11.2911
▁sıralarda	-11.2914
▁asit	-11.2915
▁Liverpool	-11.2916
▁Tüzmen	-11.2916
▁Küresel	-11.2917
bıyık	-11.2917
▁Forumu	-11.2917
▁yapmıyor	-11.2917
▁Siteniz	-11.2917
▁etmeli	-11.2918
▁sitenizde	-11.2918
▁oynar	-11.2919
▁Serhat	-11.2919
▁Yetkili	-11.292
▁ilham	-11.2923
▁keçi	-11.2927
▁İlker	-11.2928
▁uzaklıktaki	-11.2929
▁Elvan	-11.2934
▁başlanan	-11.2934
▁yollarla	-11.2938
▁karşılanması	-11.2938
▁hor	-11.2938
▁düşürülmesi	-11.2938
▁taşıt	-11.2939
▁tabir	-11.2943
▁Mevkii	-11.2945
▁evrensel	-11.2945
▁gözyaşı	-11.2945
▁Mahmud	-11.2945
▁taslağı	-11.2945
▁Dikili	-11.2945
▁mekanizması	-11.2947
lenirken	-11.2953
▁gömü	-11.2953
▁yapsın	-11.2954
▁disk	-11.2954
▁Cep	-11.2955
TİM	-11.2959
▁ulaşabil	-11.2959
▁çekip	-11.2962
SEL	-11.2963
▁öğrencilerinin	-11.2967
▁etkinliğin	-11.2969
▁kendinizi	-11.2972
▁ederler	-11.2972
▁Chelsea	-11.2973
▁karmaşık	-11.2973
▁bordo	-11.2973
▁bileşik	-11.2974
▁Buradaki	-11.2974
ören	-11.2975
▁prensip	-11.2976
▁Ebru	-11.2977
▁riskini	-11.2982
▁söylerken	-11.2984
▁Hamdi	-11.2985
▁döktü	-11.299
▁açıldığı	-11.2991
▁tartıştı	-11.2992
leştirmek	-11.2993
Allah	-11.2996
vizyon	-11.2996
mavili	-11.2997
▁çeviri	-11.2999
▁mutluluğunu	-11.3
▁çıkarıyor	-11.3002
▁ruhunu	-11.3002
▁Bilgisayar	-11.3002
▁sürdürülebilir	-11.3002
▁eşcinsel	-11.3002
▁milletvekilliği	-11.3002
▁çalışıyorum	-11.3004
▁ödenek	-11.3005
▁Kaymakamlığı	-11.3007
▁şahıs	-11.3009
▁Ayrı	-11.3012
▁aydınlat	-11.3013
▁ulaşımı	-11.3016
▁Tasarım	-11.3017
▁yaklaşan	-11.3017
▁sürdürecek	-11.3022
▁Kızı	-11.3022
▁gösterilme	-11.3022
▁sorar	-11.3025
▁sunmak	-11.3026
▁olacaktı	-11.3028
▁aziz	-11.3028
▁felç	-11.3031
▁Ünsal	-11.3031
▁AÇIKLAMA	-11.3031
▁Uslu	-11.3031
▁lastik	-11.3032
▁Yağmur	-11.3032
▁takma	-11.3032
▁Gelin	-11.3033
emedik	-11.3035
▁çocuğunun	-11.3035
▁havayolu	-11.3035
▁yumuşak	-11.3036
▁evvel	-11.3038
▁açıklamasına	-11.304
▁İslamcı	-11.3043
▁450	-11.3045
liyim	-11.3046
▁Gaz	-11.3046
▁Yedi	-11.3047
▁Üyeleri	-11.3049
▁oldugunu	-11.305
▁çoğunluk	-11.305
umuzu	-11.305
▁dershane	-11.3051
▁sırasıyla	-11.3053
▁kıran	-11.3059
▁Kerkük	-11.306
▁Muhammet	-11.306
▁nezdinde	-11.306
▁İşadamları	-11.306
▁Yakup	-11.306
▁gülümse	-11.306
▁kalori	-11.306
▁Brown	-11.306
▁tersine	-11.306
▁Selçuklu	-11.3061
▁namus	-11.3062
▁belirgin	-11.3063
▁yaptırdı	-11.3067
MIŞ	-11.3067
▁ısrarla	-11.3069
ladığımız	-11.3074
▁öldürüldüğü	-11.3076
▁cezalandırılma	-11.3078
▁ışığında	-11.3079
▁Adliye	-11.308
▁İktidar	-11.3081
▁işgali	-11.3081
▁üstelik	-11.3083
laşır	-11.3085
leştiren	-11.3086
▁Özen	-11.3087
▁Rod	-11.3088
▁Vladimir	-11.3089
▁Nazım	-11.3089
▁Çimen	-11.3089
▁beklemek	-11.3089
▁trend	-11.309
KÜ	-11.3093
▁Bazen	-11.3093
▁halini	-11.3095
▁programının	-11.3096
▁kullanılmış	-11.3097
KET	-11.3097
lerarası	-11.31
cor	-11.31
▁HAY	-11.3103
▁dis	-11.3103
▁Kriz	-11.3105
▁jet	-11.3107
▁verilmiştir	-11.3107
▁gösterdikleri	-11.311
▁götü	-11.311
▁indirdi	-11.311
▁kaynaklı	-11.3112
▁Ergen	-11.3113
▁May	-11.3114
▁giysiler	-11.3115
▁isimlerinden	-11.3115
▁(18	-11.3117
LENDİ	-11.3117
▁uygar	-11.3119
▁sizlere	-11.3119
▁servet	-11.312
▁enkaz	-11.312
▁HER	-11.3121
▁tanıyor	-11.3122
▁YSK	-11.3122
▁Denizcilik	-11.3124
▁Eyaleti	-11.3128
▁haklarına	-11.3133
▁seçiminde	-11.3135
ÜRÜ	-11.3137
▁lige	-11.3137
▁alındığında	-11.3138
▁1.3	-11.3139
▁kaptanı	-11.3141
▁operasyonlarda	-11.3142
▁Hepimiz	-11.3142
▁izlenme	-11.3144
▁Müftü	-11.3146
PAR	-11.3147
▁Pilsen	-11.3147
yiğit	-11.3147
▁yaptırdığı	-11.3148
▁sevdiğim	-11.3148
gram	-11.315
▁yazısında	-11.3151
kılıç	-11.3152
▁oteller	-11.3152
BER	-11.3153
▁Körfezi	-11.3153
▁bandı	-11.3153
▁imzalandı	-11.3153
▁çeyreğinde	-11.3154
7.5	-11.3155
▁haklarının	-11.3156
▁düşünerek	-11.3157
▁Orkestrası	-11.316
▁aydınlatma	-11.3161
▁BEN	-11.3162
▁bölgeyi	-11.3163
▁yaktı	-11.3166
▁tarafa	-11.3168
▁ettiril	-11.3168
▁büyükşehir	-11.3168
▁arabası	-11.3174
▁kayboldu	-11.3174
▁İrfan	-11.3176
▁Adıyaman	-11.3176
▁arıtma	-11.3178
gah	-11.3178
▁bilinçli	-11.3179
▁yasama	-11.3179
tüğü	-11.3179
▁konulması	-11.3179
▁bütünlüğü	-11.318
▁azalması	-11.318
▁erteleme	-11.318
▁kullandığını	-11.318
▁efendi	-11.318
▁kurtulmak	-11.318
▁basket	-11.3182
▁önder	-11.3183
▁Kandil	-11.3184
▁göstereceği	-11.3184
▁kullanır	-11.3189
▁bulunmuş	-11.3189
▁arzusu	-11.3189
▁kavuştur	-11.3191
▁atak	-11.3194
▁04	-11.3195
▁dakikasında	-11.3196
▁ilçelerde	-11.3199
▁birimler	-11.3203
▁skandalı	-11.3203
▁Atletico	-11.3206
▁Thomas	-11.3206
▁keşif	-11.3206
▁Kampanya	-11.3206
▁konuşulan	-11.3206
▁tuhaf	-11.3206
▁leke	-11.3211
▁Müsteşarlığı	-11.3211
▁haberinde	-11.3212
▁anlayama	-11.3212
▁hazırlandığı	-11.3214
▁camiası	-11.3214
▁güçlerine	-11.3215
▁Çayı	-11.3215
terör	-11.3217
▁emeklilik	-11.322
▁öngörü	-11.3221
▁yapacağımız	-11.3225
▁seçilme	-11.3226
▁kapsamına	-11.3226
▁edileceğini	-11.3229
▁ağaçlar	-11.3232
▁görünümü	-11.3232
▁kariyer	-11.3233
▁Milliyet	-11.3234
▁Başkonsolos	-11.3235
▁Çeşitli	-11.3235
▁taziye	-11.3235
ümüzü	-11.3235
▁kaşığı	-11.3235
▁Turgay	-11.3236
▁İzmit	-11.3236
▁işleyen	-11.3239
▁fiyatlarında	-11.324
▁etkileyen	-11.3242
▁helal	-11.3242
▁koruyan	-11.3244
▁gereksinim	-11.3244
▁bant	-11.3244
▁olduğumuzu	-11.3245
▁Dinç	-11.3245
▁gerçekçi	-11.3246
▁fazlasını	-11.3246
▁götürme	-11.325
▁oluşturduğunu	-11.3251
▁uygulanma	-11.3251
▁fotoğraflarını	-11.3253
▁hayatlarını	-11.3257
▁bölgesinin	-11.3258
ping	-11.326
▁Muharrem	-11.3264
▁pamuk	-11.3265
▁sözkonusu	-11.3265
▁çalışarak	-11.3265
▁bilmek	-11.3267
▁boğazı	-11.3271
war	-11.3271
▁biletleri	-11.3271
▁Orduspor	-11.3271
▁mac	-11.3273
▁tv	-11.3274
ağaç	-11.3274
▁fiziki	-11.3275
▁niyetli	-11.3279
▁Halen	-11.328
-100	-11.3285
▁yaşlarında	-11.3285
▁şike	-11.3285
▁rus	-11.3285
▁Çalış	-11.3287
▁çekmeye	-11.3288
▁pul	-11.329
▁gücünün	-11.3292
▁bazılarının	-11.3294
▁iddianame	-11.3294
▁World	-11.3294
▁gayrimenkul	-11.3294
▁Yetiş	-11.3294
▁çekişme	-11.3294
▁belirleyecek	-11.3295
▁dinleyici	-11.3298
▁beklerken	-11.3301
▁Red	-11.3305
▁pil	-11.3313
▁alabilecek	-11.3314
▁Kah	-11.3314
▁yarışmasında	-11.3314
▁Wei	-11.3315
▁vermiştir	-11.3323
▁kooperatif	-11.3324
▁şapka	-11.3324
▁Nusra	-11.3324
▁kalktı	-11.3324
▁Tro	-11.3327
▁arkadan	-11.3333
▁edemez	-11.3333
▁hattında	-11.3335
▁çektirdi	-11.3336
▁sayılma	-11.3339
▁tasarrufu	-11.334
▁Yanal	-11.3345
kap	-11.3346
▁hatalar	-11.3347
▁Yıllar	-11.3348
▁taşıyacak	-11.3348
Milli	-11.335
▁kast	-11.3353
▁DESTEK	-11.3354
▁müteahhit	-11.3354
▁Garanti	-11.3354
▁bedava	-11.3354
▁danışmanlık	-11.3354
▁GSM	-11.3354
itz	-11.3354
Tur	-11.3354
▁değindi	-11.3355
▁Uludağ	-11.3356
▁ömrü	-11.3358
2014	-11.3359
▁dolma	-11.336
▁öldüren	-11.336
ford	-11.3364
▁sloganı	-11.3365
▁bakımdan	-11.3367
▁ülkelerinden	-11.3368
▁tesisin	-11.3371
▁duygularını	-11.3371
▁Güner	-11.3372
▁mağduriyet	-11.3373
▁buluşacak	-11.3375
CO	-11.3376
▁sayfası	-11.3377
▁verdiğimiz	-11.3383
▁Hüsnü	-11.3383
▁RTÜK	-11.3383
▁Ödemiş	-11.3384
▁komisyonu	-11.3384
▁Koyu	-11.3384
▁deyince	-11.3384
▁ülkemize	-11.3385
▁sözcüğü	-11.3385
▁pusu	-11.3386
▁öğrendi	-11.3386
MP	-11.3389
▁altyapısı	-11.3391
▁şikayeti	-11.3392
ctor	-11.3392
▁17.00	-11.3393
▁vazgeçti	-11.3394
fur	-11.3395
▁sizden	-11.3397
▁Rock	-11.3402
▁yağma	-11.3405
▁kargo	-11.341
▁Cumhuriyetçi	-11.341
▁yurtdışına	-11.3412
▁Koordinasyon	-11.3413
▁DGM	-11.3413
▁Daily	-11.3413
▁Menemen	-11.3413
▁Dubai	-11.3413
Arkadaş	-11.3414
▁temelinde	-11.3414
▁Nar	-11.3415
▁yüce	-11.3415
emeyiz	-11.3417
▁sıralamasında	-11.3417
▁Tatil	-11.3418
▁fener	-11.3421
▁uçakta	-11.3421
▁his	-11.3422
▁ergen	-11.3423
▁Radyosu	-11.3425
layacağını	-11.3425
▁Çağlar	-11.3425
▁rant	-11.3429
▁simgesi	-11.343
▁sag	-11.343
▁çizgisi	-11.3431
▁nadir	-11.3432
▁tamamlanmasının	-11.3438
▁Seri	-11.3441
▁İKİ	-11.3442
▁sıfat	-11.3443
▁yaptıktan	-11.3443
▁yakışır	-11.3443
▁acele	-11.3444
▁DİSK	-11.3444
▁OLACAK	-11.3444
▁yarısını	-11.3446
▁etmediğini	-11.3447
▁kapılarını	-11.3447
Ülkemiz	-11.3453
▁Gerçekten	-11.3454
▁senedi	-11.3456
▁konuşmacı	-11.3456
▁usulü	-11.3459
▁kamerası	-11.346
▁yitirdiği	-11.3461
REK	-11.3462
▁sayfasında	-11.3463
▁motoru	-11.3466
▁yakınlarının	-11.3468
Geçen	-11.3471
▁Duman	-11.3472
▁özelliklerini	-11.3473
▁Kuveyt	-11.3473
▁ahşap	-11.3473
▁Yaşanan	-11.3474
▁istisna	-11.3474
▁Eriş	-11.3474
▁olgu	-11.3474
▁cezaevi	-11.3476
▁Organ	-11.3478
▁kişilerden	-11.3479
▁Sezen	-11.348
▁tri	-11.3481
▁hazine	-11.3481
▁komite	-11.3485
Yaş	-11.3493
lattı	-11.3496
-8	-11.3501
▁ilçedeki	-11.3501
▁kader	-11.3501
▁kullanıldığını	-11.3502
▁Değişik	-11.3504
▁Hırvatistan	-11.3504
▁Modern	-11.3504
▁gelişmesine	-11.3504
▁tutuş	-11.3505
▁Kamuoyu	-11.3506
▁ayrımı	-11.3506
▁kurtulma	-11.3507
hayır	-11.3507
▁Tony	-11.351
▁Uçar	-11.3511
▁burda	-11.3511
▁gelişmelere	-11.3511
▁bono	-11.3512
▁gazetelerde	-11.3512
▁yandaş	-11.3512
▁2,5	-11.3514
▁gerekiyordu	-11.3514
▁FC	-11.3518
▁Fransızca	-11.3519
▁BEŞİKTAŞ	-11.3519
▁Ölümler	-11.3519
▁kullanımına	-11.352
▁talimatıyla	-11.3523
▁jo	-11.3524
▁imajı	-11.3527
▁Lider	-11.3528
▁katliamı	-11.3528
▁aleyh	-11.353
▁özerk	-11.3534
▁esnek	-11.3534
▁Anıtı	-11.3535
ction	-11.3536
▁konvoy	-11.3537
▁buyuk	-11.3539
▁İnter	-11.3539
▁gerçekleşme	-11.3541
▁Uzmanı	-11.3542
▁Kalp	-11.3542
▁bildirilen	-11.3546
▁KARŞI	-11.3548
▁sebeple	-11.355
▁dayak	-11.3555
▁Tamer	-11.3559
▁hataları	-11.356
▁incelemeye	-11.356
▁ülkesine	-11.356
▁haberlere	-11.3561
▁ünite	-11.3562
▁çatışmaların	-11.3562
ebildi	-11.3564
▁AYDIN	-11.3564
▁WEB	-11.3564
▁galiba	-11.3564
▁Trakya	-11.3565
▁profil	-11.3565
▁Hastalıkları	-11.3565
▁halindeki	-11.3566
▁kontrolünü	-11.3566
▁Bakım	-11.3566
▁bulup	-11.3567
▁Sümer	-11.3567
▁porno	-11.3569
▁nöbetçi	-11.357
▁ettirdi	-11.3573
▁kanalları	-11.3574
▁hadise	-11.3574
▁Politika	-11.3574
▁sahiplerinin	-11.3575
▁hükümleri	-11.3577
▁ilerledi	-11.3579
▁halkını	-11.3581
▁Esra	-11.3582
biliyor	-11.3588
▁amaçlıyor	-11.359
▁yumuşa	-11.359
▁lirayı	-11.3592
Belediye	-11.3594
▁elektro	-11.3595
▁skorla	-11.3595
▁ilişkiye	-11.3595
▁Dans	-11.36
▁Kralı	-11.3601
▁yararına	-11.3602
rich	-11.3611
▁Turk	-11.3614
Tüm	-11.3615
▁vaat	-11.3616
▁harç	-11.3617
▁kaybetmiş	-11.3621
▁konak	-11.3623
▁endüstri	-11.3625
▁Abdülkadir	-11.3625
▁Özkök	-11.3625
▁ODTÜ	-11.3625
▁İmralı	-11.3625
▁götürülen	-11.3625
▁nihai	-11.3625
▁mafya	-11.3626
▁fındık	-11.3626
amiral	-11.3627
▁gelişti	-11.3628
▁unsurlar	-11.363
▁aralıklarla	-11.3631
▁Arzu	-11.3633
▁akan	-11.3635
▁günümüz	-11.3636
▁Tahir	-11.3642
GÜ	-11.3643
▁üretmek	-11.3644
▁kokusu	-11.3646
▁kurulduğu	-11.3647
▁BAY	-11.3648
▁naz	-11.3648
▁sıkça	-11.3648
▁edilmek	-11.3652
▁kesen	-11.3653
▁edince	-11.3654
İslam	-11.3656
▁Kastamonu	-11.3656
▁Kırıkkale	-11.3656
▁demiryolu	-11.3657
▁aştı	-11.3657
▁dağıtıldı	-11.3658
▁paylaşıl	-11.3662
▁hedefleyen	-11.3666
▁trans	-11.3667
▁inme	-11.3667
▁kırma	-11.3667
▁gönderildiği	-11.3671
▁Bayrak	-11.3673
UYOR	-11.3681
▁daima	-11.3681
▁boğaz	-11.3682
▁pota	-11.3683
vur	-11.3687
▁tepkisini	-11.3687
▁tablet	-11.3687
▁epey	-11.3687
▁gayreti	-11.3688
▁teklifini	-11.3689
▁bulunmuyor	-11.3689
▁caz	-11.369
▁gücümüz	-11.369
▁başarısını	-11.3691
▁Özgürlük	-11.3692
▁Bebek	-11.3692
▁ertelendi	-11.3694
[...]
