<pad>	0
<unk>	0
<s>	0
</s>	0
<0x00>	0
<0x01>	0
<0x02>	0
<0x03>	0
<0x04>	0
<0x05>	0
<0x06>	0
<0x07>	0
<0x08>	0
<0x09>	0
<0x0A>	0
<0x0B>	0
<0x0C>	0
<0x0D>	0
<0x0E>	0
<0x0F>	0
<0x10>	0
<0x11>	0
<0x12>	0
<0x13>	0
<0x14>	0
<0x15>	0
<0x16>	0
<0x17>	0
<0x18>	0
<0x19>	0
<0x1A>	0
<0x1B>	0
<0x1C>	0
<0x1D>	0
<0x1E>	0
<0x1F>	0
<0x20>	0
<0x21>	0
<0x22>	0
<0x23>	0
<0x24>	0
<0x25>	0
<0x26>	0
<0x27>	0
<0x28>	0
<0x29>	0
<0x2A>	0
<0x2B>	0
<0x2C>	0
<0x2D>	0
<0x2E>	0
<0x2F>	0
<0x30>	0
<0x31>	0
<0x32>	0
<0x33>	0
<0x34>	0
<0x35>	0
<0x36>	0
<0x37>	0
<0x38>	0
<0x39>	0
<0x3A>	0
<0x3B>	0
<0x3C>	0
<0x3D>	0
<0x3E>	0
<0x3F>	0
<0x40>	0
<0x41>	0
<0x42>	0
<0x43>	0
<0x44>	0
<0x45>	0
<0x46>	0
<0x47>	0
<0x48>	0
<0x49>	0
<0x4A>	0
<0x4B>	0
<0x4C>	0
<0x4D>	0
<0x4E>	0
<0x4F>	0
<0x50>	0
<0x51>	0
<0x52>	0
<0x53>	0
<0x54>	0
<0x55>	0
<0x56>	0
<0x57>	0
<0x58>	0
<0x59>	0
<0x5A>	0
<0x5B>	0
<0x5C>	0
<0x5D>	0
<0x5E>	0
<0x5F>	0
<0x60>	0
<0x61>	0
<0x62>	0
<0x63>	0
<0x64>	0
<0x65>	0
<0x66>	0
<0x67>	0
<0x68>	0
<0x69>	0
<0x6A>	0
<0x6B>	0
<0x6C>	0
<0x6D>	0
<0x6E>	0
<0x6F>	0
<0x70>	0
<0x71>	0
<0x72>	0
<0x73>	0
<0x74>	0
<0x75>	0
<0x76>	0
<0x77>	0
<0x78>	0
<0x79>	0
<0x7A>	0
<0x7B>	0
<0x7C>	0
<0x7D>	0
<0x7E>	0
<0x7F>	0
<0x80>	0
<0x81>	0
<0x82>	0
<0x83>	0
<0x84>	0
<0x85>	0
<0x86>	0
<0x87>	0
<0x88>	0
<0x89>	0
<0x8A>	0
<0x8B>	0
<0x8C>	0
<0x8D>	0
<0x8E>	0
<0x8F>	0
<0x90>	0
<0x91>	0
<0x92>	0
<0x93>	0
<0x94>	0
<0x95>	0
<0x96>	0
<0x97>	0
<0x98>	0
<0x99>	0
<0x9A>	0
<0x9B>	0
<0x9C>	0
<0x9D>	0
<0x9E>	0
<0x9F>	0
<0xA0>	0
<0xA1>	0
<0xA2>	0
<0xA3>	0
<0xA4>	0
<0xA5>	0
<0xA6>	0
<0xA7>	0
<0xA8>	0
<0xA9>	0
<0xAA>	0
<0xAB>	0
<0xAC>	0
<0xAD>	0
<0xAE>	0
<0xAF>	0
<0xB0>	0
<0xB1>	0
<0xB2>	0
<0xB3>	0
<0xB4>	0
<0xB5>	0
<0xB6>	0
<0xB7>	0
<0xB8>	0
<0xB9>	0
<0xBA>	0
<0xBB>	0
<0xBC>	0
<0xBD>	0
<0xBE>	0
<0xBF>	0
<0xC0>	0
<0xC1>	0
<0xC2>	0
<0xC3>	0
<0xC4>	0
<0xC5>	0
<0xC6>	0
<0xC7>	0
<0xC8>	0
<0xC9>	0
<0xCA>	0
<0xCB>	0
<0xCC>	0
<0xCD>	0
<0xCE>	0
<0xCF>	0
<0xD0>	0
<0xD1>	0
<0xD2>	0
<0xD3>	0
<0xD4>	0
<0xD5>	0
<0xD6>	0
<0xD7>	0
<0xD8>	0
<0xD9>	0
<0xDA>	0
<0xDB>	0
<0xDC>	0
<0xDD>	0
<0xDE>	0
<0xDF>	0
<0xE0>	0
<0xE1>	0
<0xE2>	0
<0xE3>	0
<0xE4>	0
<0xE5>	0
<0xE6>	0
<0xE7>	0
<0xE8>	0
<0xE9>	0
<0xEA>	0
<0xEB>	0
<0xEC>	0
<0xED>	0
<0xEE>	0
<0xEF>	0
<0xF0>	0
<0xF1>	0
<0xF2>	0
<0xF3>	0
<0xF4>	0
<0xF5>	0
<0xF6>	0
<0xF7>	0
<0xF8>	0
<0xF9>	0
<0xFA>	0
<0xFB>	0
<0xFC>	0
<0xFD>	0
<0xFE>	0
<0xFF>	0
.	-3.11529
,	-3.24728
'	-4.09657
▁ve	-4.27358
’	-4.48065
▁bir	-4.57234
▁	-4.85723
▁bu	-5.35369
n	-5.41509
nin	-5.41991
▁de	-5.44156
▁da	-5.44481
a	-5.44905
▁için	-5.51583
da	-5.53184
e	-5.57882
de	-5.60574
in	-5.62046
▁ile	-5.66304
nın	-5.70116
i	-5.71489
ın	-5.71662
lar	-5.84629
▁"	-5.92081
ler	-5.97732
▁olarak	-6.05243
"	-6.05249
na	-6.06627
:	-6.10601
▁“	-6.12477
k	-6.14229
m	-6.14871
ne	-6.15101
▁çok	-6.17293
-	-6.17643
▁(	-6.18682
)	-6.19483
ya	-6.2198
”	-6.23257
▁olan	-6.23639
ye	-6.27381
▁Bu	-6.27475
▁daha	-6.29908
▁Türkiye	-6.34071
dan	-6.34819
den	-6.3657
▁en	-6.41773
ları	-6.43114
leri	-6.43274
ı	-6.43938
▁ise	-6.44473
▁sonra	-6.46039
li	-6.46155
▁-	-6.46938
nde	-6.48955
la	-6.50084
▁gibi	-6.53747
▁kadar	-6.55471
le	-6.56782
ni	-6.58006
00	-6.59106
nda	-6.59606
▁dedi	-6.59883
ta	-6.68559
▁olduğunu	-6.6911
▁Başkanı	-6.74579
un	-6.74688
▁0080	-6.75339
▁büyük	-6.78101
▁bin	-6.78402
lı	-6.79248
te	-6.818
nı	-6.82521
▁ilk	-6.83917
▁her	-6.84378
▁göre	-6.85031
▁söyledi	-6.85032
z	-6.85834
▁var	-6.86239
▁‘	-6.87552
▁tarafından	-6.87557
▁diye	-6.87763
?	-6.88444
s	-6.88494
si	-6.90148
u	-6.91352
▁yıl	-6.92372
▁yer	-6.9396
▁yeni	-6.94376
▁olduğu	-6.95138
ların	-6.95962
lerin	-6.96913
ki	-6.97609
yi	-6.97628
▁iki	-6.97991
▁o	-6.98641
▁etti	-6.98664
yla	-6.98788
r	-6.98846
▁önce	-6.99369
nun	-6.99896
▁ne	-7.01579
▁ilgili	-7.03319
▁son	-7.03915
▁2	-7.05296
▁yüzde	-7.0641
▁3	-7.08627
yle	-7.10614
▁Türk	-7.13899
▁iyi	-7.14578
▁eden	-7.16625
t	-7.1837
▁devam	-7.1858
▁arasında	-7.18795
▁yapılan	-7.19325
▁gelen	-7.21106
▁ardından	-7.21376
▁oldu	-7.2185
yı	-7.21976
daki	-7.22083
dir	-7.22808
▁milyon	-7.2297
▁değil	-7.23359
▁karşı	-7.23482
▁ifade	-7.24042
▁1	-7.24153
▁yaptığı	-7.25048
ndan	-7.25229
▁ama	-7.25743
▁ABD	-7.2649
;	-7.26748
▁İzmir	-7.27329
larını	-7.27918
▁gün	-7.28477
▁ki	-7.28591
...	-7.28948
lerini	-7.31545
▁içinde	-7.31758
lik	-7.3176
▁önemli	-7.31971
lara	-7.32275
▁birlikte	-7.33851
▁üzerine	-7.34495
nden	-7.34606
▁5	-7.3474
deki	-7.34754
▁‘‘	-7.36316
lere	-7.36723
▁konuştu	-7.37454
l	-7.37728
▁zaman	-7.3778
▁Çin	-7.3789
▁ya	-7.3804
▁4	-7.38405
▁İstanbul	-7.38925
di	-7.40734
tan	-7.40918
dır	-7.41236
▁A	-7.43299
d	-7.44355
an	-7.44567
▁bulunan	-7.45718
▁yok	-7.47985
sı	-7.48081
▁tüm	-7.48202
▁Genel	-7.48887
▁aynı	-7.50245
▁alan	-7.5185
▁nedeniyle	-7.52383
sa	-7.53925
en	-7.54048
A	-7.54303
ma	-7.5577
▁10	-7.55806
▁geçen	-7.57148
▁fazla	-7.60612
▁yılında	-7.61159
▁şekilde	-7.6135
ten	-7.6227
▁hem	-7.62486
▁6	-7.62641
▁Belediye	-7.63115
er	-7.63746
▁Bir	-7.65048
▁kişi	-7.66388
▁tek	-7.66592
▁üzere	-7.67053
y	-7.67203
K	-7.68302
▁'	-7.68471
▁diğer	-7.68707
▁Avrupa	-7.69439
▁yapan	-7.69467
▁kez	-7.69582
ün	-7.69932
▁saat	-7.70067
lu	-7.70589
’’	-7.70781
lık	-7.71161
▁O	-7.71327
▁bile	-7.72463
▁kendi	-7.72755
▁verdi	-7.7302
ca	-7.73365
▁ancak	-7.74901
▁olmak	-7.75621
ü	-7.75719
larının	-7.76185
▁Ancak	-7.76631
▁geldi	-7.77689
▁Ankara	-7.77711
▁iş	-7.77795
o	-7.78188
▁sadece	-7.78953
▁belirtti	-7.79194
▁şöyle	-7.792
▁7	-7.79278
▁belirten	-7.80095
▁veya	-7.81347
▁bazı	-7.82012
p	-7.82479
▁Başkan	-7.82586
oğlu	-7.82883
▁konusunda	-7.83666
▁olacak	-7.83817
▁şu	-7.83891
▁ortaya	-7.84435
lerinin	-7.84675
larda	-7.85906
!	-7.86367
/	-7.86638
▁özel	-7.86642
▁Erdoğan	-7.8684
▁başka	-7.86898
▁bugün	-7.86974
▁süre	-7.87808
▁şey	-7.87887
lerde	-7.87958
▁dün	-7.88053
larına	-7.88093
▁sahip	-7.88234
▁Belediyesi	-7.88369
▁günü	-7.88472
me	-7.88552
▁aldı	-7.8919
▁ay	-7.89234
▁açıklamada	-7.90205
▁eski	-7.90294
▁20	-7.9031
▁su	-7.90426
▁S	-7.90661
▁8	-7.91017
▁destek	-7.91646
▁üzerinde	-7.92093
ti	-7.92309
▁Irak	-7.92589
▁Bakanı	-7.92947
▁CHP	-7.93068
▁karar	-7.93456
▁milyar	-7.93774
▁mi	-7.94871
▁yaptı	-7.94924
▁böyle	-7.95117
▁ben	-7.95507
se	-7.95834
▁belirterek	-7.96021
larla	-7.96022
▁yerine	-7.96483
▁kabul	-7.96683
lerine	-7.97222
▁olması	-7.97418
▁biri	-7.98499
ce	-7.98613
h	-7.98799
▁hafta	-7.98855
▁hakkında	-7.99276
▁yaşındaki	-7.99858
▁Mehmet	-7.99916
▁doğru	-8.00683
▁Müdürlüğü	-8.01041
▁Ali	-8.01303
▁*	-8.01433
▁edilen	-8.01591
miz	-8.01928
▁edildi	-8.01962
dı	-8.02109
▁Kurulu	-8.02165
▁Dr	-8.02195
▁dile	-8.02337
lerle	-8.03117
▁Başbakan	-8.03512
▁Bakanlığı	-8.03712
▁15	-8.03733
▁güzel	-8.03902
ci	-8.04558
▁neden	-8.0492
▁dikkat	-8.05118
▁Üniversitesi	-8.06008
▁Parti	-8.06034
▁başladı	-8.0643
▁yaklaşık	-8.06543
▁ikinci	-8.06566
tir	-8.06677
T	-8.06989
lerden	-8.07289
▁hiç	-8.07447
mız	-8.07609
▁16	-8.07839
▁Devlet	-8.07943
▁E	-8.08277
▁az	-8.08397
lardan	-8.08586
▁Suriye	-8.08628
du	-8.08754
▁para	-8.08866
im	-8.08986
▁çıktı	-8.0903
▁polis	-8.09052
▁kadın	-8.09091
▁kaydetti	-8.09247
▁bulunduğu	-8.09628
▁İl	-8.09675
▁yeniden	-8.10223
▁yüksek	-8.10596
▁uzun	-8.10637
▁rağmen	-8.10815
ini	-8.10874
Bu	-8.10891
▁''	-8.1117
▁söz	-8.11282
▁farklı	-8.11399
▁üç	-8.11469
▁yol	-8.11615
S	-8.12261
▁yine	-8.12742
▁insan	-8.12938
▁Ama	-8.13214
▁an	-8.13674
▁9	-8.13943
▁nasıl	-8.14139
▁açık	-8.14145
▁çıkan	-8.14554
E	-8.15115
▁ediyor	-8.15132
▁bağlı	-8.15302
▁eğitim	-8.16075
▁sıra	-8.16179
▁bütün	-8.16409
▁G	-8.16462
▁düzenlenen	-8.16475
▁yönelik	-8.1675
▁12	-8.17091
▁geri	-8.17171
İ	-8.18507
▁yakın	-8.18552
mi	-8.18685
ndeki	-8.19087
▁30	-8.19113
▁kısa	-8.19944
▁bilgi	-8.2031
um	-8.20493
▁dolar	-8.20593
al	-8.21282
▁altında	-8.21477
▁K	-8.21518
tır	-8.217
▁bulundu	-8.21812
▁sırasında	-8.22033
."	-8.22135
▁bunu	-8.22352
▁ilişkin	-8.22971
▁el	-8.24279
mış	-8.24302
▁Büyükşehir	-8.2439
sini	-8.24876
▁görev	-8.25216
▁yanı	-8.25272
▁veren	-8.25328
ken	-8.25659
▁kişinin	-8.25837
▁hiçbir	-8.26171
▁artık	-8.2638
uz	-8.26796
▁verdiği	-8.26805
B	-8.27052
▁F	-8.27098
▁ettiği	-8.27571
lerinden	-8.27761
▁ait	-8.28052
▁hizmet	-8.28224
G	-8.28367
▁18	-8.28564
f	-8.28668
▁bunun	-8.28696
▁Müdürü	-8.29561
▁aldığı	-8.29933
▁AB	-8.3001
▁Milli	-8.30139
▁yapılacak	-8.30276
▁dünya	-8.30354
▁konusu	-8.30473
▁mı	-8.30502
man	-8.30723
▁ülke	-8.31241
▁Gül	-8.31529
▁B	-8.31618
▁tam	-8.31786
▁AK	-8.32209
cı	-8.32788
▁belirtildi	-8.33246
▁kararı	-8.33479
C	-8.33687
▁M	-8.34092
▁olur	-8.34239
▁şunları	-8.34565
ir	-8.3469
▁birçok	-8.35988
▁ederek	-8.36031
▁lira	-8.36166
▁Dünya	-8.36191
tı	-8.36202
▁mücadele	-8.36228
▁biz	-8.36833
larında	-8.36948
▁yardım	-8.37336
▁basın	-8.37888
▁adlı	-8.37913
),	-8.3803
▁Mustafa	-8.38306
ş	-8.38491
▁gerektiğini	-8.38535
▁güvenlik	-8.38702
▁zor	-8.38997
▁çalışma	-8.39076
▁ziyaret	-8.39135
▁iddia	-8.39494
▁olsun	-8.39918
▁genel	-8.39938
miş	-8.40016
▁toplam	-8.4012
▁anda	-8.40144
c	-8.40188
M	-8.40368
ını	-8.40471
▁ayında	-8.40777
▁Yeni	-8.40872
D	-8.40883
▁bizim	-8.40894
larından	-8.4105
ndaki	-8.41455
I	-8.41508
▁meydana	-8.41585
ine	-8.41812
▁sağlık	-8.41826
▁Eğitim	-8.4211
▁takım	-8.42663
▁olay	-8.4327
ar	-8.43282
▁teknik	-8.43355
▁Merkezi	-8.43447
▁kalan	-8.43499
▁genç	-8.43622
Ş	-8.43964
▁alınan	-8.4418
el	-8.44389
O	-8.44464
▁sonucu	-8.44505
▁çocuk	-8.44506
▁belediye	-8.44634
sin	-8.44659
▁11	-8.44668
▁etmek	-8.44768
▁17	-8.45251
g	-8.45466
▁ele	-8.45483
▁olmadığını	-8.45542
▁hava	-8.45589
▁gece	-8.45808
▁Ben	-8.46039
▁aday	-8.46061
ktan	-8.46321
▁arada	-8.46443
▁devlet	-8.46454
▁Beijing	-8.46521
▁T	-8.46745
F	-8.46774
▁Biz	-8.46829
▁üst	-8.46832
▁Cumhurbaşkanı	-8.47035
▁25	-8.47053
▁Ahmet	-8.47149
P	-8.47243
▁C	-8.47306
▁kapsamında	-8.47478
sını	-8.47858
▁yoğun	-8.47902
▁Yardımcısı	-8.48485
ç	-8.48518
▁çeşitli	-8.48591
▁siyasi	-8.4861
▁Mart	-8.48763
▁Her	-8.48831
nün	-8.48915
nu	-8.49178
▁bildirildi	-8.49296
▁özellikle	-8.49473
▁yana	-8.49546
▁ev	-8.49661
▁benim	-8.49685
dur	-8.50173
b	-8.5052
▁ayrıca	-8.50566
▁Şubat	-8.50638
▁burada	-8.5074
▁14	-8.50797
▁bildirdi	-8.5161
▁küçük	-8.51654
▁önceki	-8.51709
▁Daha	-8.5181
mak	-8.51815
▁ağır	-8.51912
▁çalışan	-8.51981
lerinde	-8.51986
▁yıllık	-8.52218
ır	-8.52848
▁Prof	-8.5315
su	-8.53235
▁hemen	-8.5329
▁sahibi	-8.5362
▁Yılmaz	-8.53632
▁sırada	-8.5383
▁sonunda	-8.54007
▁Beşiktaş	-8.54018
▁China	-8.54281
▁yabancı	-8.54357
▁elde	-8.54547
▁iç	-8.54691
siz	-8.54799
▁halinde	-8.54975
▁Bunun	-8.55011
▁gelecek	-8.55037
lan	-8.55128
▁Eylül	-8.55159
▁Almanya	-8.55452
▁boyunca	-8.55805
▁adam	-8.55832
▁Ayrıca	-8.55846
▁tekrar	-8.55861
sine	-8.55981
▁100	-8.56367
▁Cumhuriyet	-8.5646
▁ayrı	-8.56473
▁H	-8.5656
▁Hastanesi	-8.56638
ra	-8.56797
▁ünlü	-8.56799
▁katıldı	-8.56948
▁önünde	-8.57059
▁uygun	-8.57124
▁arasındaki	-8.57184
▁ortak	-8.57221
▁19	-8.57396
H	-8.57427
niz	-8.57657
▁konuda	-8.57673
▁sosyal	-8.5779
▁D	-8.57794
▁dolayı	-8.5789
▁El	-8.57926
yu	-8.57931
▁ara	-8.58077
▁yaşayan	-8.58248
▁oy	-8.58274
▁grup	-8.58303
▁13	-8.58361
▁açıkladı	-8.58609
▁zamanda	-8.59117
▁Ne	-8.59245
▁dışında	-8.5925
at	-8.59273
▁imza	-8.59299
luk	-8.59757
▁Rusya	-8.60247
▁Ak	-8.6038
▁söyleyen	-8.60729
lü	-8.61132
▁ekipleri	-8.61181
▁öne	-8.61268
▁sayıda	-8.6131
▁askeri	-8.61497
▁ekonomik	-8.61523
ması	-8.61679
▁Fenerbahçe	-8.61875
▁Birliği	-8.61957
AA	-8.62272
arak	-8.62326
▁alındı	-8.62358
▁verilen	-8.62495
▁haber	-8.62548
▁sezon	-8.62656
▁gelir	-8.62883
▁tarihi	-8.63047
▁kız	-8.63109
▁amacıyla	-8.63128
▁ana	-8.63279
▁akşam	-8.63434
▁AKP	-8.63451
▁uluslararası	-8.63494
acak	-8.63802
▁50	-8.64314
▁başlayan	-8.6436
▁Dışişleri	-8.64364
larıyla	-8.64512
▁bana	-8.64554
▁İ	-8.64609
▁savaş	-8.65202
▁izin	-8.65287
▁Emniyet	-8.65297
▁adına	-8.65315
▁hareket	-8.65403
▁nedenle	-8.65403
.”	-8.65444
▁başarılı	-8.65578
▁Mayıs	-8.65764
▁istedi	-8.6587
▁kötü	-8.65997
ecek	-8.66091
iz	-8.66177
▁En	-8.66177
▁gereken	-8.66261
▁açıklama	-8.66265
▁yandan	-8.66714
▁yaşanan	-8.66966
▁seçim	-8.67335
leriyle	-8.67545
▁adı	-8.6814
▁olmayan	-8.68663
▁tespit	-8.68705
▁mu	-8.68749
▁İZMİR	-8.68848
▁Olimpiyat	-8.68933
Y	-8.68942
▁dakika	-8.69103
kten	-8.69194
▁Öz	-8.69204
▁bulunuyor	-8.6937
▁yönetim	-8.69432
▁film	-8.69513
▁getirdi	-8.6981
▁tedavi	-8.69879
▁pek	-8.69884
▁eşi	-8.70041
▁Spor	-8.70347
▁dönemde	-8.70646
ka	-8.70802
▁ön	-8.70806
▁Meclis	-8.70921
▁İlçe	-8.70939
▁kaldı	-8.71142
▁sık	-8.71174
▁Çünkü	-8.71248
il	-8.71296
▁çekti	-8.71682
lama	-8.71702
▁yapmak	-8.7181
▁parti	-8.71844
▁altına	-8.71938
ri	-8.71968
▁teşekkür	-8.72066
liği	-8.72212
▁olsa	-8.72268
taki	-8.72295
▁Yönetim	-8.72456
▁gözaltına	-8.72525
▁gerçek	-8.73099
▁terör	-8.7311
▁içerisinde	-8.73306
sız	-8.73335
▁edecek	-8.73478
▁Derneği	-8.73489
▁şimdi	-8.73538
R	-8.73758
▁hazır	-8.73874
▁ilgi	-8.73913
re	-8.73956
▁verildi	-8.73987
▁Mahkemesi	-8.74113
▁bi	-8.74222
▁zarar	-8.7424
yan	-8.74346
▁hep	-8.74412
▁Galatasaray	-8.74677
▁durum	-8.74779
▁araya	-8.74849
▁spor	-8.74896
sel	-8.74959
▁Son	-8.75266
▁ceza	-8.75551
▁oyuncu	-8.75647
▁gol	-8.75728
▁itibaren	-8.75799
▁derece	-8.75823
ip	-8.75931
▁ciddi	-8.75933
▁yapıldı	-8.76188
▁maç	-8.76247
▁Atatürk	-8.76353
▁sonrası	-8.76731
▁Temmuz	-8.76751
▁yani	-8.77227
U	-8.77263
▁başına	-8.77314
▁resmi	-8.77404
▁biraz	-8.77444
▁kontrol	-8.77457
ım	-8.77511
▁24	-8.77572
▁yılı	-8.77608
▁oluyor	-8.77718
▁ilçe	-8.77736
▁YTL	-8.77998
sinin	-8.7805
▁40	-8.78137
▁tür	-8.78381
▁P	-8.78388
▁şeklinde	-8.78604
▁belli	-8.78746
▁İngiltere	-8.78766
▁sayısı	-8.78855
▁üyesi	-8.78861
▁tepki	-8.78926
▁Haziran	-8.79034
▁il	-8.79035
▁isteyen	-8.79126
▁mümkün	-8.79138
teki	-8.79219
▁Mahallesi	-8.79518
▁kar	-8.79605
▁Aydın	-8.79623
▁suç	-8.79659
▁Başkanlığı	-8.79679
▁İlk	-8.79891
lığı	-8.79894
ik	-8.80102
▁vergi	-8.80222
▁hale	-8.80299
▁olabilir	-8.80323
▁yanında	-8.8041
▁işaret	-8.8049
▁gerek	-8.80505
▁yıldır	-8.80542
▁gerekiyor	-8.80575
▁ileri	-8.80776
▁adet	-8.80922
▁Fransa	-8.81033
▁ülkenin	-8.81219
▁beni	-8.81236
▁zaten	-8.81274
▁soruşturma	-8.81297
▁süren	-8.81338
han	-8.81508
▁ettiğini	-8.81788
▁durumu	-8.81824
▁Ocak	-8.81964
▁Milletvekili	-8.82057
2	-8.82518
▁açısından	-8.8278
▁sabah	-8.82841
▁Yıldırım	-8.82996
▁konu	-8.83003
ydi	-8.83119
▁Bankası	-8.83171
▁İran	-8.83197
▁tarihinde	-8.83266
▁herhangi	-8.83279
inin	-8.83438
▁üzerinden	-8.83605
▁göz	-8.83773
▁bize	-8.83817
mek	-8.83993
sın	-8.84001
▁Ağustos	-8.84011
▁ek	-8.84023
▁başında	-8.84072
▁vardır	-8.84313
▁durumda	-8.84329
▁hak	-8.84695
▁vardı	-8.84815
▁dört	-8.84992
▁Merkez	-8.85008
▁Kara	-8.85258
▁getiren	-8.85297
▁TL	-8.85426
▁kendisine	-8.85445
ur	-8.85447
▁dünyanın	-8.85508
▁geliyor	-8.85515
▁gerekli	-8.8588
iyor	-8.85905
▁e	-8.86031
▁dahil	-8.86083
▁insanlar	-8.86085
▁çalışmaları	-8.86208
▁İsrail	-8.8642
is	-8.86514
▁metre	-8.86562
▁onu	-8.86601
N	-8.86622
▁yaz	-8.86696
▁erkek	-8.86772
▁yazılı	-8.87011
▁puan	-8.87103
▁Uluslararası	-8.87119
mı	-8.87175
▁Anadolu	-8.87234
▁henüz	-8.87591
1	-8.87691
▁haline	-8.87694
▁sağ	-8.87788
▁karşısında	-8.87818
▁teslim	-8.87898
▁22	-8.87987
be	-8.88408
dığı	-8.88415
erek	-8.88453
▁Hüseyin	-8.88975
▁TBMM	-8.89
▁Ve	-8.89151
▁yayın	-8.89188
to	-8.89357
Türkiye	-8.89415
▁internet	-8.89425
▁olmadığı	-8.89502
▁olup	-8.89513
bi	-8.89561
▁başkanı	-8.8957
▁kredi	-8.89601
▁alıyor	-8.89672
▁giden	-8.89689
ay	-8.89978
▁kamu	-8.90003
▁anlatan	-8.90101
▁kat	-8.90125
ına	-8.90169
spor	-8.90222
▁çeken	-8.90411
▁onun	-8.90529
çi	-8.90538
▁çıkar	-8.90598
▁milli	-8.90623
▁Kültür	-8.90635
▁Er	-8.90979
ıp	-8.9106
▁hayatını	-8.91152
▁I	-8.9117
mesi	-8.91357
▁yılın	-8.91514
▁at	-8.91776
Ç	-8.91793
▁zorunda	-8.91819
▁oluşan	-8.9187
▁dönem	-8.91884
▁Su	-8.92017
▁geçti	-8.92135
▁serbest	-8.92251
et	-8.92379
len	-8.92502
▁Halk	-8.92628
sun	-8.92833
▁geç	-8.92846
▁türlü	-8.92866
▁oyun	-8.92908
ba	-8.93026
▁yarın	-8.9306
▁Deniz	-8.93302
▁müdahale	-8.93387
▁günlerde	-8.93436
▁Oyunları	-8.93484
▁sivil	-8.93641
▁sürekli	-8.93835
v	-8.93947
▁katılan	-8.94131
LAR	-8.9427
za	-8.94294
▁beri	-8.94419
▁kullandı	-8.94431
nız	-8.94571
▁İki	-8.94682
▁öyle	-8.94841
▁dış	-8.95197
us	-8.9538
▁birkaç	-8.95438
▁Ege	-8.95512
▁kolay	-8.95528
▁takip	-8.95538
▁yanlış	-8.95542
▁Antalya	-8.95568
▁orta	-8.95579
▁transfer	-8.95741
3	-8.95759
▁yılda	-8.9589
▁Özel	-8.95989
▁500	-8.96056
▁dava	-8.96131
▁anne	-8.96573
va	-8.96616
▁talep	-8.96625
▁müzik	-8.96737
bu	-8.96809
▁öğrenildi	-8.96857
▁silah	-8.96865
▁k	-8.96911
▁Polis	-8.96974
▁baş	-8.96976
▁temel	-8.9711
ö	-8.97169
▁Amerikan	-8.97182
▁almak	-8.97242
▁h	-8.97326
▁23	-8.97495
▁araç	-8.97508
gi	-8.97522
cu	-8.97546
▁giren	-8.97688
▁yaşam	-8.97697
▁çözüm	-8.97707
dığını	-8.97797
▁maçı	-8.97837
▁proje	-8.98133
▁anlattı	-8.98166
▁U	-8.98182
▁merkezi	-8.98263
▁yapılması	-8.98381
▁Ekim	-8.98657
▁ona	-8.98716
▁kan	-8.98752
ran	-8.98853
▁sona	-8.98855
V	-8.99126
▁değildir	-8.99179
▁tercih	-8.99235
İN	-8.99247
▁aile	-8.99356
▁İlçesi	-8.99361
▁yatırım	-8.99434
▁Nisan	-8.99519
ge	-8.99571
▁istiyoruz	-8.99594
▁Kemal	-8.9978
▁futbol	-8.999
▁Şimdi	-8.9995
▁sorun	-9.00219
▁İngiliz	-9.00259
▁güçlü	-9.00342
▁buna	-9.00393
▁Lig	-9.004
inde	-9.0064
▁diyen	-9.00882
▁fark	-9.01185
▁konuşan	-9.01257
▁geniş	-9.01578
▁başta	-9.01713
▁üyeleri	-9.01779
▁yere	-9.01791
mizi	-9.01835
▁yerde	-9.01899
▁toplantısında	-9.02038
▁21	-9.02103
L	-9.02179
muş	-9.0225
sinde	-9.02268
▁Hasan	-9.02277
it	-9.02613
lük	-9.02791
ğ	-9.02831
▁diyerek	-9.02868
▁halk	-9.02882
▁yerinde	-9.02997
▁Abdullah	-9.03059
▁sene	-9.03063
▁Çok	-9.03174
san	-9.03191
▁çevre	-9.03257
▁bak	-9.03309
▁kendisini	-9.03401
▁pazar	-9.03446
▁Can	-9.03479
com	-9.03607
▁Sağlık	-9.04127
▁mutlu	-9.04436
Ö	-9.04455
▁dışı	-9.04488
▁yerel	-9.04546
▁bulunduğunu	-9.04624
▁diyor	-9.04848
ydı	-9.04951
▁Teknik	-9.05028
mızı	-9.05038
on	-9.05146
▁yasa	-9.05243
▁değer	-9.05316
▁Murat	-9.05337
iş	-9.05521
▁önem	-9.05522
diği	-9.0553
▁28	-9.05664
▁sen	-9.05809
▁al	-9.05814
▁İş	-9.05965
▁başkan	-9.0599
▁sayı	-9.06023
tu	-9.0606
▁can	-9.06165
▁Grubu	-9.06199
▁kurulu	-9.06245
▁Alman	-9.06302
▁Büyük	-9.06309
▁İbrahim	-9.06392
▁güç	-9.06457
▁olacağını	-9.06638
▁La	-9.06656
zi	-9.0684
▁toplum	-9.06875
▁lazım	-9.06982
▁gören	-9.07048
▁Fatih	-9.07078
▁kişilik	-9.07088
▁satış	-9.07186
▁olduğuna	-9.07241
▁bundan	-9.07269
▁milletvekili	-9.07315
sına	-9.0735
ha	-9.07358
▁adayı	-9.07543
▁Karşıyaka	-9.07617
ek	-9.07818
▁ediyorum	-9.07902
▁Aralık	-9.07956
▁Ceza	-9.07959
▁Güvenlik	-9.08202
DE	-9.08267
▁hükümet	-9.08349
▁hızlı	-9.08371
▁girdi	-9.08395
LER	-9.08408
kan	-9.08552
▁soru	-9.08639
▁hapis	-9.08643
▁öncesi	-9.0882
▁Y	-9.09035
nca	-9.09059
▁otomobil	-9.09158
▁beş	-9.09297
▁PKK	-9.09396
bkz	-9.09416
▁yapıyor	-9.0942
▁All	-9.09495
▁vurguladı	-9.09545
▁Ay	-9.09571
▁hatta	-9.09715
▁olduklarını	-9.09791
▁yapacak	-9.09994
DA	-9.10006
▁Ç	-9.10114
▁Tayyip	-9.10196
▁din	-9.10207
▁okul	-9.10208
▁önüne	-9.10212
▁olumlu	-9.10254
▁artış	-9.10284
ve	-9.10406
ol	-9.1041
▁Kuzey	-9.105
▁kaydedildi	-9.10517
▁sayesinde	-9.10566
▁öğrenci	-9.10652
ter	-9.1066
▁Şube	-9.10746
▁kent	-9.10748
▁bölgede	-9.10828
▁Al	-9.10846
nce	-9.11012
▁alarak	-9.11043
son	-9.11067
▁alt	-9.11088
x	-9.11133
ul	-9.11189
▁yıllarda	-9.11199
▁Ticaret	-9.11271
▁etkili	-9.11279
▁hedef	-9.11403
Lİ	-9.11421
▁maçında	-9.11424
▁2.	-9.11551
ak	-9.11825
▁rol	-9.1191
▁baba	-9.12034
▁Euro	-9.12068
unu	-9.12085
siniz	-9.12125
▁insanların	-9.12161
▁BM	-9.12188
▁Doğan	-9.12224
▁’	-9.12374
▁tamamen	-9.12402
▁herkes	-9.12443
▁sonuç	-9.12445
▁Ö	-9.12572
▁Kulübü	-9.12581
▁Anayasa	-9.12636
inci	-9.12712
▁kim	-9.12756
▁çünkü	-9.12785
▁sarı	-9.12881
▁cezası	-9.129
▁enerji	-9.12984
▁gitti	-9.13051
▁kaydeden	-9.13166
▁rahat	-9.13246
▁Ligi	-9.13284
▁mal	-9.13391
▁kimse	-9.13438
▁De	-9.13471
▁Futbol	-9.13504
▁futbolcu	-9.13619
▁dakikada	-9.1362
▁a	-9.1385
▁Ar	-9.14007
▁Kasım	-9.14009
▁top	-9.14135
ke	-9.14136
▁bizi	-9.1417
▁hala	-9.14221
▁Amerika	-9.14317
4	-9.14448
▁döneminde	-9.14553
▁Şahin	-9.14624
▁aralarında	-9.14667
▁ses	-9.14712
sal	-9.14732
▁maçta	-9.14868
shan	-9.1499
▁26	-9.15051
▁telefon	-9.15114
▁Araştırma	-9.1514
▁birinci	-9.15156
▁Fakültesi	-9.15225
▁alanda	-9.15237
▁Partisi	-9.15277
▁Demir	-9.15329
▁hangi	-9.1533
ing	-9.15387
▁durumunda	-9.15421
▁200	-9.15445
diğini	-9.15544
▁International	-9.15687
▁cevap	-9.15716
▁üniversite	-9.16004
▁gösterdi	-9.16061
ze	-9.16062
▁sevk	-9.16072
▁yemek	-9.16128
ıyor	-9.16152
▁aylık	-9.16346
tik	-9.16363
▁Li	-9.16531
▁Kadın	-9.16752
can	-9.17026
▁yetkilileri	-9.17081
▁ateş	-9.17157
▁sistemi	-9.17168
▁işi	-9.1717
▁doğal	-9.17189
▁yaptıkları	-9.17393
▁Öte	-9.1749
▁Kupası	-9.17491
▁örnek	-9.17602
▁Federasyonu	-9.17692
▁N	-9.17841
▁babası	-9.17887
der	-9.17904
▁Bakan	-9.17999
▁adım	-9.18031
▁geldiği	-9.18136
▁Recep	-9.18169
▁kendini	-9.18381
▁arama	-9.1839
bir	-9.18411
▁attı	-9.18453
▁alacak	-9.18478
▁olma	-9.18544
klarını	-9.18634
ver	-9.18733
sen	-9.18764
▁kazandı	-9.18804
maya	-9.19125
ga	-9.1915
▁taş	-9.19215
▁hayata	-9.19231
▁deniz	-9.19239
▁asker	-9.19415
▁işbirliği	-9.19417
men	-9.1951
▁R	-9.19637
▁davet	-9.19647
▁edilmesi	-9.19692
▁günlük	-9.19753
▁yola	-9.19786
▁üye	-9.20013
▁gösteren	-9.20037
▁mahkeme	-9.20228
▁yan	-9.20346
▁vermek	-9.20463
▁çalışmalar	-9.2061
Bir	-9.20666
▁sonucunda	-9.20673
▁saatlerinde	-9.20673
▁beraber	-9.20675
▁27	-9.20779
▁takımı	-9.21264
▁1.	-9.21355
▁yapı	-9.21407
▁belki	-9.21437
▁istiyorum	-9.2144
▁üçüncü	-9.21486
▁sonrasında	-9.21511
▁oğlu	-9.21552
▁Sosyal	-9.21713
▁Road	-9.21931
▁üretim	-9.22085
▁60	-9.22098
▁Geçen	-9.22115
▁ülkede	-9.22156
▁şeyler	-9.22286
▁önümüzdek	-9.22435
çe	-9.2259
es	-9.22653
▁Yunanistan	-9.22728
▁bekleniyor	-9.22758
▁Cumhuriyeti	-9.22806
▁yeri	-9.22882
▁tehdit	-9.23044
▁araştırma	-9.23093
▁barış	-9.23105
▁Doğu	-9.2313
▁olmaz	-9.23182
▁yaş	-9.23206
▁New	-9.23219
sının	-9.23433
▁DE	-9.23615
CRI	-9.23621
▁dolarlık	-9.23639
▁katkı	-9.23687
▁hakkı	-9.23698
▁yaparak	-9.23728
▁dizi	-9.23744
▁mevcut	-9.23862
▁lideri	-9.23874
▁Radio	-9.23892
suz	-9.24094
▁sürede	-9.24193
▁halde	-9.24232
liğe	-9.24387
iye	-9.24406
▁Şu	-9.24511
▁kullanılan	-9.24524
▁olumsuz	-9.2458
▁katıldığı	-9.24584
▁taşıyan	-9.24645
▁düşük	-9.24709
▁gündeme	-9.24763
ck	-9.24816
▁görüş	-9.24859
ında	-9.24906
▁baskı	-9.24921
▁verecek	-9.24939
▁yüzden	-9.24939
▁madde	-9.25196
▁bilim	-9.25244
▁geldiğini	-9.25343
▁siz	-9.2536
▁vurgulayan	-9.25411
▁sorunu	-9.25438
▁kültür	-9.2545
▁Right	-9.2549
▁isim	-9.25495
▁yüzünden	-9.25508
▁kaç	-9.25523
▁filmi	-9.25527
▁kilometre	-9.25729
▁altın	-9.25729
▁Reserve	-9.25733
▁kaynak	-9.25863
▁Bölgesi	-9.2592
▁Shijing	-9.25938
▁100040	-9.25939
nü	-9.26039
▁teklif	-9.26131
▁canlı	-9.26142
▁yanıt	-9.26179
▁Re	-9.26185
▁koruma	-9.26209
as	-9.26209
▁Kıbrıs	-9.26321
▁yüz	-9.26384
▁sıcak	-9.26469
▁yönetimi	-9.26557
▁fotoğraf	-9.26744
▁Bülent	-9.26776
▁Güney	-9.26806
▁Odası	-9.26861
▁sanat	-9.26873
j	-9.26995
▁saygı	-9.27026
▁sert	-9.2709
▁yolu	-9.27152
tur	-9.27163
▁konuşma	-9.27202
▁et	-9.2758
▁Sanayi	-9.27582
os	-9.27583
▁sahne	-9.27685
▁2013	-9.27686
▁güven	-9.2771
▁/	-9.27771
▁s	-9.27783
dim	-9.27794
▁Aynı	-9.27806
▁Yıldız	-9.27825
st	-9.27836
▁normal	-9.27875
▁veriyor	-9.27946
▁ilan	-9.27962
▁elektrik	-9.27978
▁Bugün	-9.28059
▁uzak	-9.28339
▁dolu	-9.28349
▁ayı	-9.28366
▁forma	-9.28392
▁Aziz	-9.28509
▁oldukça	-9.28537
çı	-9.28643
▁dünyada	-9.28653
▁Sarı	-9.28685
▁giderek	-9.28771
▁Çelik	-9.28927
▁Grup	-9.29144
lo	-9.29199
▁savunma	-9.29238
▁istediği	-9.29254
▁şehir	-9.29298
▁olmuş	-9.29336
▁Sa	-9.29565
▁gerekçesiyle	-9.29578
ür	-9.29615
▁kendisi	-9.29628
▁Caddesi	-9.29632
▁işlem	-9.29652
▁bölge	-9.29676
▁Hakan	-9.29752
▁gerçekleştiril	-9.30001
▁The	-9.3005
▁ediliyor	-9.30052
▁yaşadığı	-9.30134
▁Vali	-9.30161
▁faaliyet	-9.30311
▁Sayın	-9.30329
▁başarı	-9.30632
ch	-9.30683
Ü	-9.30688
▁bomba	-9.30696
min	-9.30719
▁bilgisayar	-9.30722
▁faiz	-9.30731
▁Diyarbakır	-9.30742
▁alanı	-9.30942
▁İslam	-9.31007
▁oranında	-9.31228
▁kara	-9.31229
▁Kaya	-9.31372
▁Burada	-9.31546
▁Di	-9.31554
▁gerekir	-9.31582
▁35	-9.31583
▁sürdü	-9.31687
▁kullandığı	-9.31796
▁düzenlediği	-9.31868
▁varsa	-9.31874
▁satın	-9.31912
▁Fransız	-9.32135
▁acı	-9.32173
landı	-9.323
▁defa	-9.3235
▁halkın	-9.32362
▁Kurumu	-9.32476
5	-9.32603
▁ilçesinde	-9.32625
▁altı	-9.32646
▁uygulama	-9.32682
ça	-9.32682
dım	-9.32691
▁kızı	-9.32722
▁tahmin	-9.32733
▁kitap	-9.33026
▁çerçevesinde	-9.33147
▁sorumlu	-9.3316
▁geçtiğimiz	-9.33257
▁giriş	-9.33308
▁Olay	-9.33309
▁yardımcı	-9.33373
▁Genç	-9.33476
do	-9.33525
▁kaza	-9.33667
▁yapmaya	-9.33869
▁başlayacak	-9.3394
▁işçi	-9.33942
▁Dış	-9.33961
Ben	-9.34181
▁Komisyonu	-9.34228
▁atan	-9.34311
▁protesto	-9.34374
ko	-9.34413
▁tur	-9.34579
layan	-9.34656
▁Bey	-9.34707
▁şehit	-9.34755
ının	-9.34888
▁Ömer	-9.35112
iyle	-9.35205
YA	-9.35256
▁temsil	-9.35459
▁29	-9.35578
taş	-9.35632
▁erken	-9.35704
▁Buna	-9.35734
▁hayat	-9.35898
▁işte	-9.35945
▁bunlar	-9.36136
▁ismi	-9.3616
▁açtı	-9.36256
▁etmesi	-9.36408
▁istifa	-9.36451
▁Tüm	-9.3647
▁yurt	-9.36491
▁kendilerine	-9.36502
▁MHP	-9.36558
▁etme	-9.36666
▁yazı	-9.36695
▁merkez	-9.36695
▁kapalı	-9.36761
▁televizyon	-9.36876
▁engel	-9.36879
▁Konak	-9.3695
ed	-9.36974
▁trafik	-9.37151
▁Hava	-9.37155
▁buldu	-9.37303
▁trilyon	-9.37325
▁açılan	-9.37478
leme	-9.37563
▁edildiği	-9.37567
▁Rus	-9.37662
dik	-9.37745
▁c	-9.37754
▁ihtiyaç	-9.37778
▁Denizli	-9.37787
▁orada	-9.37875
▁Ulusal	-9.37925
▁kırmızı	-9.37937
▁hesap	-9.38118
ül	-9.38146
▁Bursa	-9.38147
▁olursa	-9.38329
▁bugüne	-9.38352
▁size	-9.38618
▁TV	-9.38643
▁vatandaşların	-9.38727
▁kesin	-9.38776
▁dil	-9.3891
▁tarım	-9.38955
▁yarı	-9.39022
lığa	-9.39024
▁ödeme	-9.3905
▁yazar	-9.39096
Sİ	-9.39145
▁Tıp	-9.39252
▁Konseyi	-9.3937
▁banka	-9.39609
fa	-9.39657
▁sanayi	-9.39714
▁gider	-9.39744
▁net	-9.39828
▁ediyoruz	-9.39829
mıştı	-9.39876
lanan	-9.39983
▁takımın	-9.39986
imiz	-9.4001
▁boş	-9.40053
▁aslında	-9.40062
▁zengin	-9.4007
▁eder	-9.4039
▁Ma	-9.40478
▁Osman	-9.4054
▁Trabzonspor	-9.40555
dha	-9.40611
▁alanında	-9.40833
▁Bazı	-9.40862
▁ak	-9.40864
▁Yüksek	-9.40911
▁sözlerine	-9.4102
▁ulaştı	-9.41088
▁etmeye	-9.41099
▁sınır	-9.41108
▁kurulan	-9.41151
▁Eğer	-9.41182
Biz	-9.41221
▁dair	-9.41247
▁bilgiye	-9.41267
ber	-9.4128
▁2014	-9.41356
▁İtalya	-9.41388
▁yaşında	-9.4139
▁Orta	-9.41431
sında	-9.41495
▁Aslan	-9.41566
▁görevi	-9.41623
▁Da	-9.4167
▁İsmail	-9.41747
▁istiyor	-9.41753
▁yaralandı	-9.41761
▁köy	-9.41781
▁benzer	-9.41804
mez	-9.41858
▁sözleşme	-9.41882
▁alınması	-9.41883
▁tabi	-9.41885
▁Köyü	-9.41933
mis	-9.41975
▁yönünde	-9.41988
▁2012	-9.42151
▁çaba	-9.42156
▁örgütü	-9.42161
▁Kar	-9.42225
▁sınıf	-9.42349
▁bas	-9.42563
▁cep	-9.42637
vi	-9.42666
LA	-9.42751
▁içine	-9.42834
▁Le	-9.42866
▁gerçekten	-9.4299
▁Ş	-9.43075
Z	-9.43116
▁yaşamını	-9.43235
▁milletvekilleri	-9.43278
muz	-9.43307
▁yeterli	-9.43312
sunuz	-9.43397
▁300	-9.4349
▁Z	-9.43554
w	-9.43621
▁turizm	-9.43651
▁desteği	-9.43692
▁isimli	-9.43698
▁Osmanlı	-9.43713
▁W	-9.43758
yim	-9.43763
ro	-9.43777
▁sıralarında	-9.43853
▁öncesinde	-9.43935
▁Meclisi	-9.43985
▁yargı	-9.44059
▁adını	-9.44104
▁marka	-9.4442
mizin	-9.44471
▁döndü	-9.44568
▁kurum	-9.44653
▁emekli	-9.44656
▁düştü	-9.44752
▁İkinci	-9.44767
▁şirket	-9.4478
▁Batı	-9.44783
▁bütçe	-9.44806
▁sonuna	-9.44876
▁Bölge	-9.44986
▁yeşil	-9.45014
▁Özellikle	-9.45043
▁Bunu	-9.45183
▁toplantıda	-9.45203
▁ton	-9.45262
▁Bodrum	-9.45279
▁Diğer	-9.45299
▁tatil	-9.45397
▁oranı	-9.45554
▁ticaret	-9.45802
▁on	-9.45852
▁Eski	-9.45859
▁yoktur	-9.45862
▁kafa	-9.45961
▁ekip	-9.45984
▁Adana	-9.46015
ebilir	-9.46034
▁yapıldığı	-9.46189
▁3.	-9.46252
maz	-9.46254
▁İnsan	-9.46261
▁toplantı	-9.4637
▁sinema	-9.46522
▁Bornova	-9.46541
(	-9.46554
▁darbe	-9.46629
▁ekibi	-9.46651
▁şeyi	-9.46713
▁Yani	-9.4672
ton	-9.46727
▁iptal	-9.46737
▁York	-9.46867
▁edip	-9.47053
ad	-9.47124
▁Kocaoğlu	-9.47165
▁alma	-9.47272
▁plakalı	-9.47314
▁ortalama	-9.47348
▁sonraki	-9.47456
▁IŞİD	-9.47598
▁ince	-9.47628
▁V	-9.47635
▁İşte	-9.47747
▁Asya	-9.47751
▁aşırı	-9.47755
▁Çevre	-9.47756
▁31	-9.47789
▁olayı	-9.47908
ren	-9.48002
▁çalışmalarını	-9.48022
sak	-9.48032
▁çalışması	-9.48101
▁sürüyor	-9.48126
LI	-9.48183
▁alıp	-9.48185
▁düşen	-9.48225
▁sol	-9.48254
sınız	-9.48268
▁Bizim	-9.48479
▁başvuru	-9.4868
▁of	-9.48873
mize	-9.48887
▁mü	-9.48936
▁Mahkeme	-9.48942
IN	-9.48942
▁belirlendi	-9.49031
▁hazırlanan	-9.49112
▁Film	-9.4917
▁petrol	-9.49191
ey	-9.49218
▁direktör	-9.49231
nci	-9.49477
▁Ba	-9.49513
▁saldırı	-9.49541
▁Baş	-9.4975
▁yapmış	-9.49826
▁içi	-9.49826
▁hasta	-9.49834
▁Koç	-9.49872
▁yapma	-9.49947
▁fakat	-9.50128
▁Stadı	-9.50186
▁Londra	-9.50197
▁bilinen	-9.5025
▁mutlaka	-9.50417
▁ederken	-9.50418
sanız	-9.50574
ist	-9.50733
▁annesi	-9.50806
▁altını	-9.50853
▁demek	-9.50866
▁tane	-9.50979
▁kazanan	-9.50989
7	-9.51041
▁sağlıklı	-9.5106
▁in	-9.51063
▁çalışıyor	-9.51095
▁olmasına	-9.51172
▁Allah	-9.51174
▁hukuk	-9.51186
▁Hürriyet	-9.51414
▁Manisa	-9.51522
▁üzerindeki	-9.51542
ız	-9.51561
▁saha	-9.51595
gerçekleştirilen	-9.51659
İL	-9.51806
▁er	-9.51887
://	-9.51914
▁mahalle	-9.52029
▁tartışma	-9.52049
▁siyah	-9.52083
▁kişilerin	-9.52096
▁herkesin	-9.52112
yen	-9.52214
▁çift	-9.52245
▁yaptığını	-9.52249
kları	-9.52251
▁kaybetti	-9.52349
▁arası	-9.52519
▁çıkıyor	-9.52635
▁etmiş	-9.52642
▁kilo	-9.52736
▁olacağı	-9.52869
▁çocukların	-9.5288
▁vatandaşlar	-9.52944
▁ölüm	-9.52973
▁çıkacak	-9.52981
▁operasyon	-9.53042
▁Takımı	-9.53048
rken	-9.53069
▁dünyaya	-9.53071
▁Süper	-9.53131
▁Başbakanı	-9.53197
▁sonu	-9.53326
▁Adalet	-9.53357
▁evde	-9.53433
ev	-9.53439
▁park	-9.53562
▁ürün	-9.53599
▁Na	-9.53775
ley	-9.53784
▁anlaşma	-9.53989
▁Böylece	-9.54072
▁kişiler	-9.54253
ünü	-9.54399
▁ekonomi	-9.54428
▁öldü	-9.54436
maktadır	-9.5444
▁do	-9.545
larımız	-9.54501
▁yolcu	-9.5453
▁kalp	-9.54546
▁genelinde	-9.54603
▁yara	-9.54616
▁hükümetin	-9.54616
▁grubu	-9.5467
ici	-9.54676
▁45	-9.54828
▁Turizm	-9.54855
▁Hu	-9.54922
▁program	-9.54979
abilir	-9.54995
▁görüntü	-9.55029
▁parça	-9.55035
▁beyaz	-9.55058
▁sağlamak	-9.55165
▁ihtiyacı	-9.55166
▁2015	-9.55287
▁olmaya	-9.55295
▁terk	-9.55295
▁Ha	-9.55407
▁Bush	-9.55464
▁ilginç	-9.55484
▁hızla	-9.55516
▁çocuklar	-9.55606
▁Ağır	-9.55676
▁hakim	-9.55812
ıl	-9.55821
▁Komitesi	-9.55831
▁2004	-9.55924
▁İyi	-9.56006
▁final	-9.56019
▁VE	-9.56046
▁90	-9.56053
▁BİR	-9.56064
▁Jandarma	-9.56142
hi	-9.56193
▁ders	-9.56222
▁öğrencisi	-9.56261
▁konuşmada	-9.56287
▁suyu	-9.56319
▁gaz	-9.56336
▁sistem	-9.56478
▁sigara	-9.56512
▁Van	-9.56565
▁çoğu	-9.5659
▁kadınların	-9.56619
▁öğrenciler	-9.56632
▁Bo	-9.56653
▁Söz	-9.56707
dür	-9.56718
liler	-9.56752
▁teknoloji	-9.56793
▁onlar	-9.56797
go	-9.56798
▁Kürt	-9.568
▁doğrultusunda	-9.56808
▁olmadı	-9.56832
▁ödül	-9.56871
lerimiz	-9.5691
▁süreci	-9.5694
6	-9.57029
▁madalya	-9.57036
kar	-9.5712
▁binlerce	-9.57183
mer	-9.57194
unun	-9.57316
▁sizin	-9.57319
▁dolayısıyla	-9.57437
▁yalnız	-9.57466
▁Burcu	-9.57479
klerini	-9.57483
▁yangın	-9.57556
▁Uzun	-9.57569
▁gıda	-9.5765
ğı	-9.57739
▁olmasını	-9.57775
▁Kent	-9.57805
▁filmin	-9.5783
▁günde	-9.57855
▁şirketi	-9.57871
▁Seçim	-9.58037
yım	-9.58059
▁engelli	-9.58085
▁düşünüyorum	-9.58115
▁sıkıntı	-9.58126
▁karşıya	-9.58132
▁Günlük	-9.58163
▁kart	-9.58164
▁bol	-9.58167
▁Sanat	-9.5821
eceğini	-9.58226
▁gösteri	-9.58281
ah	-9.58314
▁yasak	-9.58332
▁kullanma	-9.58388
yken	-9.58414
▁kadının	-9.58478
▁onların	-9.58501
▁sayılı	-9.58533
▁istediğini	-9.58551
▁inşa	-9.58675
▁finans	-9.58688
▁görüşme	-9.58688
▁arka	-9.58773
▁Gençlik	-9.58824
▁dolara	-9.58832
▁aldığını	-9.58864
gu	-9.58966
▁karşılık	-9.58971
▁Komutanlığı	-9.59017
▁bölgesinde	-9.59086
nızı	-9.59091
▁bunların	-9.59172
mıştır	-9.59249
meye	-9.59251
▁araba	-9.59294
▁hükümeti	-9.59308
▁plan	-9.59337
▁programı	-9.59373
▁civarında	-9.594
▁yaralı	-9.59534
▁re	-9.59569
▁halkı	-9.59592
▁inşaat	-9.59597
20	-9.59612
▁deprem	-9.5968
▁ayrıldı	-9.59925
▁falan	-9.60132
AN	-9.60146
acağını	-9.60218
▁hayvan	-9.60253
üncü	-9.60304
up	-9.60335
▁gösteriyor	-9.60347
▁Afganistan	-9.60354
▁Küçük	-9.60399
▁Böyle	-9.60409
▁medya	-9.60484
gan	-9.60566
▁Şampiyonası	-9.60592
alım	-9.607
köy	-9.60713
▁çocukları	-9.60835
mişti	-9.60845
▁kaldırıldı	-9.60898
ık	-9.60935
▁kriz	-9.60995
▁meclis	-9.61003
▁bölümü	-9.6101
▁kanun	-9.61023
▁önde	-9.61142
▁asla	-9.61177
let	-9.61258
▁fiyat	-9.61264
▁doğum	-9.6138
▁kuru	-9.61384
▁kentinde	-9.61411
▁Sezer	-9.61435
▁2007	-9.61454
▁arkadaşı	-9.6154
▁adamı	-9.61744
▁itiraz	-9.61745
▁toprak	-9.61809
▁konser	-9.61867
▁devletin	-9.6187
▁edilecek	-9.61872
▁görevli	-9.61878
▁gördü	-9.61918
▁Se	-9.6203
▁Kanunu	-9.62057
yiz	-9.6206
▁Mersin	-9.62121
▁oldukları	-9.62146
▁emniyet	-9.62189
▁düşünce	-9.62201
▁sayısının	-9.62276
▁değerlendirme	-9.62356
▁halen	-9.62357
ry	-9.62394
am	-9.62408
▁şiddet	-9.62476
▁Kılıçdaroğlu	-9.62494
▁inceleme	-9.62578
▁ortadan	-9.62664
▁sınav	-9.6271
mıza	-9.62751
▁80	-9.62802
▁insanın	-9.62896
▁ekledi	-9.62944
▁gizli	-9.62962
▁Meydanı	-9.63002
▁halka	-9.63015
▁Mo	-9.63034
▁firma	-9.63144
▁hayal	-9.6316
▁gelişme	-9.6318
▁eve	-9.63279
mektedir	-9.63286
liğini	-9.63303
▁öğretim	-9.63434
▁temiz	-9.63684
▁kendilerini	-9.63904
▁Ya	-9.63945
▁yasal	-9.63964
▁kulüp	-9.63973
▁belirtilen	-9.63974
▁reklam	-9.64023
▁İspanya	-9.64078
ği	-9.64176
▁Süleyman	-9.64223
▁Ramazan	-9.64246
▁70	-9.64276
▁yapacağı	-9.64286
▁Mi	-9.6429
tar	-9.64296
▁derin	-9.64361
▁büyüme	-9.64467
▁sağlayan	-9.64527
▁Konya	-9.64533
▁Altın	-9.64577
miştir	-9.64631
▁tarih	-9.64738
▁ettiklerini	-9.64752
▁demokrasi	-9.64777
▁kadınlar	-9.64952
▁mesaj	-9.6501
▁eğer	-9.65037
▁biçimde	-9.65065
▁yoksa	-9.65103
▁maddi	-9.65112
▁bunları	-9.65156
▁ihracat	-9.65176
▁yap	-9.65187
▁hediye	-9.65188
▁verdiğini	-9.65194
▁hisse	-9.65231
▁merak	-9.65259
▁etki	-9.65268
▁Rum	-9.65281
▁Uğur	-9.65284
▁gerçekleştir	-9.65294
mizde	-9.65352
DEN	-9.65384
▁2008	-9.6539
▁esas	-9.65471
▁eylem	-9.6549
▁yazdı	-9.65513
▁yetkili	-9.65521
▁dahi	-9.65678
▁olayın	-9.65698
▁Valisi	-9.65781
▁yaşama	-9.65794
▁geçmiş	-9.65855
Saray	-9.65874
▁örgüt	-9.65891
▁2002	-9.65911
▁2010	-9.65917
▁anlamda	-9.65956
evi	-9.65969
▁ücret	-9.66072
ılmış	-9.66115
▁yayınlanan	-9.66164
▁Amerikalı	-9.66175
▁kaldığı	-9.66216
▁attığı	-9.66221
▁eş	-9.66227
ğını	-9.6624
▁gereği	-9.66293
tim	-9.66363
▁Tarım	-9.66391
▁servis	-9.66404
▁Üyesi	-9.66409
▁Tek	-9.66418
▁hastaneye	-9.66488
▁Gaziantep	-9.66491
▁hız	-9.66513
▁Selçuk	-9.66586
▁gelip	-9.6659
▁görmek	-9.66594
▁çocuğu	-9.66616
▁verilecek	-9.66704
▁L	-9.66708
▁hazırlık	-9.66786
?"	-9.66795
▁edildiğini	-9.66816
8	-9.66828
lenen	-9.66839
▁Emre	-9.66862
▁Cem	-9.66892
▁istediklerini	-9.66938
▁yapımı	-9.66939
▁maçın	-9.6696
▁işe	-9.67002
▁içindeki	-9.67047
▁Türkçe	-9.67174
▁itibariyle	-9.67195
▁verme	-9.67219
▁2003	-9.67229
ut	-9.67293
W	-9.67334
▁hafif	-9.67366
▁anlamına	-9.67427
▁aracı	-9.67434
▁Metin	-9.67438
▁uçak	-9.67479
▁Ro	-9.67588
▁Japonya	-9.67613
▁Çocuk	-9.67662
▁çalışmalarına	-9.67678
▁denildi	-9.67686
▁gelerek	-9.67762
▁iletişim	-9.67771
▁toplantısı	-9.6784
▁acil	-9.67907
▁ordu	-9.67935
▁yavaş	-9.67949
▁topu	-9.67956
▁uyuşturucu	-9.68025
▁tamamladı	-9.68049
▁lider	-9.68094
▁the	-9.68188
▁Gazetesi	-9.68208
▁yaşandı	-9.68247
▁Vakfı	-9.68312
TA	-9.68329
▁meslek	-9.68359
▁düzenlenecek	-9.68381
▁oyunu	-9.68389
MA	-9.68409
▁kalma	-9.68689
▁harekete	-9.68703
siyle	-9.6871
▁Holding	-9.6875
▁kullanan	-9.68757
www	-9.68852
▁etkisi	-9.68885
▁oda	-9.69009
pa	-9.69143
▁görülen	-9.69143
▁öğrencilerin	-9.69239
▁çay	-9.69311
▁Barış	-9.69336
▁Bar	-9.69471
inden	-9.69508
▁rahatsız	-9.6959
▁Savunma	-9.6959
lardı	-9.69598
▁verilmesi	-9.69606
mo	-9.69608
▁yorum	-9.6972
▁tutuklu	-9.69721
▁vermesi	-9.69732
▁bayram	-9.69901
fi	-9.6992
▁Ra	-9.69981
▁yıla	-9.70007
▁başlattı	-9.70021
▁Akdeniz	-9.70115
▁başkenti	-9.70242
ör	-9.70248
▁ülkelerin	-9.70251
▁açıldı	-9.70293
▁Ko	-9.70347
▁almaya	-9.70379
▁2005	-9.70466
▁not	-9.70533
▁söylüyor	-9.70534
mu	-9.70601
▁Lisesi	-9.70745
▁telefonu	-9.70749
▁bakım	-9.70884
▁Kaynakça	-9.70976
ladı	-9.70976
mızın	-9.71089
▁ihale	-9.71139
▁sorunları	-9.71206
▁kesinlikle	-9.71233
▁çalıştı	-9.71292
▁sohbet	-9.71358
▁sevgi	-9.71401
ger	-9.71494
▁alması	-9.71535
▁Maliye	-9.7155
▁Savaşı	-9.71555
▁Yorumu	-9.71575
▁gram	-9.71593
▁toplu	-9.71635
mda	-9.71678
▁dikkati	-9.71731
▁Yaklaşık	-9.71741
▁tamam	-9.71769
van	-9.71783
▁Kılıç	-9.71875
▁San	-9.7188
▁b	-9.71911
▁sefer	-9.71926
▁oyuncusu	-9.71947
▁hata	-9.71955
▁Mısır	-9.71979
▁onları	-9.71992
▁görme	-9.7202
▁düzey	-9.72053
▁olacaktır	-9.7208
▁Basın	-9.72086
▁Benim	-9.72088
▁Engin	-9.72215
lanmış	-9.72243
▁İşleri	-9.72258
▁ticari	-9.7233
▁aç	-9.72442
▁Okulu	-9.7245
▁Aile	-9.72479
sinden	-9.72559
▁gidip	-9.72594
LE	-9.72597
▁kardeşi	-9.72601
▁kadro	-9.72621
▁sebep	-9.72632
▁öğretmen	-9.72666
▁Direktörü	-9.7279
▁aşk	-9.72792
10	-9.72834
▁Paris	-9.72842
▁Arap	-9.72964
▁yanına	-9.73075
▁as	-9.73133
▁bıraktı	-9.73332
▁yıldız	-9.73342
no	-9.73393
▁yerli	-9.73438
▁Ke	-9.73441
ER	-9.73459
▁ulusal	-9.73513
▁sana	-9.73534
▁Be	-9.73545
acağız	-9.73554
▁kazan	-9.73555
▁alın	-9.73569
▁korku	-9.73607
▁yerini	-9.73663
lılar	-9.73677
▁sanatçı	-9.73729
tepe	-9.73801
▁yedi	-9.73833
▁oturan	-9.7386
▁hepsi	-9.73866
▁çıktığı	-9.73911
▁be	-9.73938
▁yönetmen	-9.74014
▁Yaşar	-9.74067
lendi	-9.74079
▁Fakat	-9.74083
▁hakem	-9.74162
▁haberi	-9.74198
▁krizi	-9.74212
imi	-9.74212
▁Yapılan	-9.74233
▁Genelkurmay	-9.74324
▁çıkış	-9.74336
▁bilgiler	-9.7436
▁belirlenen	-9.74384
▁asıl	-9.74531
▁rapor	-9.74554
bo	-9.74563
▁Afrika	-9.74567
▁toplanan	-9.74584
▁konut	-9.74627
▁tiyatro	-9.74635
ov	-9.74644
▁süredir	-9.74706
▁mali	-9.74721
▁kayıt	-9.74729
lak	-9.7477
▁Te	-9.7487
▁Man	-9.74904
▁http	-9.74916
▁kendine	-9.74917
▁yaparken	-9.74919
▁öz	-9.74945
▁birinin	-9.75067
LARI	-9.75086
▁Takım	-9.75153
▁hasar	-9.75223
yse	-9.75336
▁gücü	-9.75381
nizi	-9.75485
▁icin	-9.75575
▁Öztürk	-9.75581
▁ka	-9.75585
▁iktidar	-9.75585
▁34	-9.75674
▁anlat	-9.75752
▁batı	-9.75793
▁almış	-9.75834
▁sizi	-9.75984
yo	-9.76036
▁yalnızca	-9.76095
▁karşın	-9.76129
co	-9.76132
▁elinde	-9.76193
▁borç	-9.76207
▁hal	-9.7627
▁Sadece	-9.763
rak	-9.76318
▁düzenleme	-9.76327
▁400	-9.7634
yız	-9.76367
30	-9.76379
▁av	-9.76475
▁nedeni	-9.76498
▁sergi	-9.76499
▁ışık	-9.76502
▁Sultan	-9.7654
▁Trabzon	-9.76544
▁Kayseri	-9.76569
▁balık	-9.76571
▁yakından	-9.76592
▁getirildi	-9.76604
▁otobüs	-9.7661
üm	-9.76665
▁ilaç	-9.76665
▁ölü	-9.76674
▁is	-9.76712
▁getir	-9.76721
ıyla	-9.76841
miyor	-9.76851
▁halkının	-9.76942
▁insanları	-9.77045
▁başladığı	-9.7709
▁Pazar	-9.77099
▁yolunda	-9.77102
▁onay	-9.77109
▁hizmeti	-9.7718
▁Dün	-9.7724
▁geçirdi	-9.77358
▁cenaze	-9.77378
▁başı	-9.77461
▁dini	-9.77499
dum	-9.77519
dık	-9.77531
▁Orman	-9.77555
▁Du	-9.77584
▁politika	-9.77677
or	-9.77709
▁yıllar	-9.77832
▁Washington	-9.77853
▁Kuvvetleri	-9.77862
▁açtığı	-9.77937
▁evine	-9.77951
▁Salonu	-9.77975
▁hakları	-9.77998
▁Güneş	-9.78065
din	-9.78084
▁işin	-9.78129
sam	-9.78164
▁siyaset	-9.78195
ılacak	-9.78201
▁endişe	-9.78204
▁ayak	-9.78234
▁eğitimi	-9.78281
▁Parkı	-9.78297
▁yükseldi	-9.783
▁kaleci	-9.78343
▁32	-9.78362
▁edin	-9.78405
▁İtalyan	-9.78415
▁Şen	-9.78432
▁açılış	-9.78445
▁ifadelerini	-9.78453
▁değişiklik	-9.78455
▁Güler	-9.78476
▁gidiyor	-9.78642
YE	-9.78659
luğu	-9.78679
▁evinde	-9.78697
▁alışveriş	-9.78791
▁san	-9.78794
id	-9.7883
▁Ünlü	-9.78883
▁edeceğiz	-9.78979
▁kaynağı	-9.79011
▁bölgeye	-9.79021
▁demokratik	-9.7905
▁gelmiş	-9.79153
▁çıkardı	-9.79317
▁beklenen	-9.79379
▁Sonra	-9.79447
▁güneş	-9.79448
▁2000	-9.7952
▁150	-9.7962
▁kısmı	-9.79633
ımız	-9.79668
▁kaçak	-9.79669
▁kal	-9.79683
▁cinsel	-9.79698
▁yapıldığını	-9.79724
▁açıklandı	-9.79751
gen	-9.79762
▁bakan	-9.79792
▁Kan	-9.79832
▁kampanya	-9.79868
▁2006	-9.79895
▁hatırlatan	-9.79912
▁Çetin	-9.79914
▁olmuştur	-9.7992
▁ilişki	-9.79933
▁oynadığı	-9.79953
sıyla	-9.79974
▁Buca	-9.80078
▁yağ	-9.8011
▁yılından	-9.80219
▁geçiş	-9.80291
ret	-9.80381
lanması	-9.8045
▁Kurul	-9.80463
▁sal	-9.80466
▁Ev	-9.80492
▁tabii	-9.80709
▁ikili	-9.80741
▁kayıp	-9.80741
▁ister	-9.80768
▁Yusuf	-9.80815
▁sağlayacak	-9.80867
▁modern	-9.80892
▁kültürel	-9.80923
▁orman	-9.81061
▁Çinli	-9.81116
▁gidecek	-9.81118
▁işler	-9.81135
▁model	-9.81283
▁şirketin	-9.81294
▁İçişleri	-9.81384
▁ha	-9.81448
▁yaptık	-9.81485
ho	-9.81488
▁sözü	-9.81513
▁İç	-9.81571
▁değerli	-9.81589
▁içeren	-9.81632
▁Sekreteri	-9.8179
▁video	-9.81804
▁denetim	-9.81818
▁gel	-9.81821
▁kişiye	-9.81863
▁oynayan	-9.81939
▁Günü	-9.81943
▁yalan	-9.81986
▁Güzel	-9.82018
0	-9.82085
▁Bütün	-9.82127
▁yaralanan	-9.82181
▁gelmesi	-9.8221
▁belge	-9.8222
▁ürünleri	-9.82313
▁galibiyet	-9.82381
layarak	-9.82386
▁savundu	-9.82449
▁süreç	-9.82487
▁Kaza	-9.82543
▁onlara	-9.82548
▁gemi	-9.82597
liğin	-9.82598
▁Yargıtay	-9.82604
▁amacı	-9.82616
▁dev	-9.82677
▁Artık	-9.827
▁kur	-9.82706
▁çıkması	-9.82712
▁nokta	-9.82714
▁sürdürdü	-9.82726
▁liraya	-9.82741
kleri	-9.82765
▁yapması	-9.82771
▁Üç	-9.82867
▁yapılıyor	-9.82902
▁ailesi	-9.82953
laşma	-9.82976
▁sektör	-9.83004
ok	-9.83041
▁belirtiliyor	-9.83046
▁cok	-9.83085
Türk	-9.8311
▁p	-9.83205
▁projesi	-9.83236
ünün	-9.83265
▁Gazete	-9.83329
▁gitmek	-9.83356
▁kaybeden	-9.83361
▁kış	-9.83374
▁Cuma	-9.83383
▁uyarı	-9.83478
▁haberine	-9.83487
▁fikir	-9.83504
▁An	-9.8367
▁ta	-9.83718
▁Açıklamada	-9.83809
▁gösterdiği	-9.83851
▁Ümit	-9.8391
▁soğuk	-9.83973
▁gerektiği	-9.84007
▁Orhan	-9.84063
▁Hazine	-9.84087
▁kişiyi	-9.84188
yum	-9.84223
he	-9.84224
▁kira	-9.84284
▁bünyesinde	-9.84302
dü	-9.84353
ırken	-9.84388
ama	-9.8441
▁konuş	-9.84418
Bahçe	-9.84495
▁)	-9.84498
▁açan	-9.84498
▁bekliyor	-9.84506
▁Hollanda	-9.84629
▁Arslan	-9.84716
▁döviz	-9.84747
SA	-9.84775
▁şarkı	-9.84778
▁Mücadele	-9.84806
▁Festivali	-9.84835
▁muhalefet	-9.8484
15	-9.84946
▁Han	-9.85017
▁hastane	-9.85025
dar	-9.85027
▁türkiye	-9.85096
ış	-9.85177
▁yağmur	-9.85232
▁uzman	-9.85273
tü	-9.85294
lerdir	-9.85309
rt	-9.85313
▁Bundan	-9.85317
▁Erzurum	-9.85416
▁m	-9.85417
▁intihar	-9.8553
ru	-9.85583
met	-9.85619
▁fiyatı	-9.85639
▁sokak	-9.85672
▁dik	-9.85782
▁kararını	-9.85798
lıyor	-9.85802
▁doğrudan	-9.85844
▁istihdam	-9.86188
▁Bal	-9.86195
▁ifadesini	-9.86217
ji	-9.86242
lığın	-9.86262
Dİ	-9.86302
▁gelin	-9.86324
ic	-9.86336
acağı	-9.86336
▁Obama	-9.8635
if	-9.86391
▁te	-9.86443
▁kentin	-9.8645
▁olmadan	-9.86553
▁cesedi	-9.86579
▁bölümünde	-9.86625
▁senin	-9.86625
▁arkadaş	-9.86745
▁yük	-9.86765
▁türk	-9.86768
▁0	-9.8683
eceği	-9.86848
▁birisi	-9.86871
ban	-9.86883
▁yolda	-9.86887
ysa	-9.86894
ll	-9.86978
leşme	-9.87002
▁silahlı	-9.87029
▁aykırı	-9.87059
▁görevini	-9.87071
▁değeri	-9.87137
▁geleneksel	-9.87182
▁Do	-9.87195
▁sporcu	-9.872
üz	-9.8723
▁yılının	-9.87235
▁me	-9.87251
▁sürpriz	-9.87253
▁İngilizce	-9.87279
▁Hem	-9.87298
▁kap	-9.873
▁J	-9.87305
▁kendisinin	-9.87343
▁hayatı	-9.87352
▁Haber	-9.87433
▁UEFA	-9.87442
malı	-9.87457
ılması	-9.87471
▁Gün	-9.87493
mıyor	-9.87495
th	-9.87496
▁Kore	-9.87574
▁konuk	-9.87625
▁Baykal	-9.87642
▁koydu	-9.87664
▁yarış	-9.87771
▁gazeteci	-9.87781
▁süt	-9.8782
▁sermaye	-9.87914
▁güvenliği	-9.8792
▁dönemi	-9.87931
▁inanıyorum	-9.87946
▁kullanarak	-9.87952
▁2001	-9.87984
▁No	-9.87986
▁di	-9.87996
▁aracılığıyla	-9.88032
▁ulaşım	-9.8812
▁demir	-9.88131
▁kere	-9.88208
J	-9.88269
▁kır	-9.8828
yon	-9.88335
▁Müdür	-9.88361
▁heyeti	-9.88444
▁Demirel	-9.88455
ılan	-9.88521
▁Çanakkale	-9.88522
▁düzenlendi	-9.88544
▁AA	-9.88574
▁performans	-9.88611
▁ma	-9.88694
▁bekleyen	-9.8886
▁vererek	-9.88864
▁değişik	-9.88918
▁temsilcisi	-9.88931
▁ettiler	-9.88949
▁Pi	-9.88973
▁meyve	-9.89006
▁Şubesi	-9.89023
▁kavga	-9.89068
▁İSTANBUL	-9.89134
▁f	-9.89157
▁arkadaşları	-9.89227
▁imkanı	-9.89256
▁km	-9.89262
▁kimsenin	-9.89265
▁açıklaması	-9.89298
▁terörist	-9.89316
▁çek	-9.89431
▁veri	-9.89467
▁lise	-9.89467
▁göreve	-9.89502
▁teşvik	-9.89546
▁Davutoğlu	-9.89552
▁bağımsız	-9.89578
ladığı	-9.89735
▁sanık	-9.89819
▁müşteri	-9.89827
▁bilgileri	-9.89967
ly	-9.90063
▁umut	-9.90093
▁basit	-9.90124
▁personel	-9.90196
▁açıklamasında	-9.90244
▁alınacak	-9.90294
▁uzay	-9.90305
▁tip	-9.90312
▁koy	-9.90329
▁Savaş	-9.90343
9	-9.90344
▁As	-9.90399
lat	-9.90401
▁gördüğü	-9.9043
▁So	-9.90564
▁Halil	-9.90573
▁Ukrayna	-9.90591
lanıyor	-9.90591
▁piyasa	-9.90625
▁getirdiği	-9.90626
▁kamp	-9.90733
az	-9.90775
lığını	-9.90885
▁ameliyat	-9.90896
▁konuyla	-9.90907
İş	-9.90913
▁Filistin	-9.90975
▁Müslüman	-9.90985
▁Karadeniz	-9.9103
▁liste	-9.91033
▁i	-9.91042
▁yetkililer	-9.91053
▁Ca	-9.91089
▁John	-9.9112
▁Taş	-9.91124
▁amaçlı	-9.91175
▁taraf	-9.9118
▁Muğla	-9.91206
amaz	-9.91255
AR	-9.91263
▁Kendi	-9.91268
LU	-9.91277
▁ayda	-9.91283
tr	-9.91302
▁yaptıklarını	-9.91311
▁cami	-9.91346
▁IMF	-9.914
kaya	-9.91404
▁şampiyon	-9.91421
▁Gökhan	-9.91433
lardır	-9.9144
▁dikkate	-9.91475
▁Eskişehir	-9.9148
ılarak	-9.91504
▁gerçekleşti	-9.91528
lanma	-9.91552
iyet	-9.91596
▁Açık	-9.91682
fe	-9.91703
▁yöneticileri	-9.91792
▁tahliye	-9.91819
▁duruma	-9.91838
pe	-9.91843
▁jandarma	-9.91851
▁beyin	-9.91863
tal	-9.91886
▁gerçekleşen	-9.91912
▁Park	-9.91919
▁yaygın	-9.91937
▁parçası	-9.91975
▁bağış	-9.92126
▁nükleer	-9.92155
▁arttı	-9.9216
▁özelliği	-9.92165
LERİ	-9.92174
▁Me	-9.92198
una	-9.92241
▁art	-9.92274
▁doktor	-9.92292
▁açıdan	-9.92303
▁bazen	-9.92309
▁Ga	-9.92448
▁vermeye	-9.92461
▁birer	-9.92607
▁fırsat	-9.9262
cak	-9.92686
▁itfaiye	-9.92687
▁yıllardır	-9.92702
▁250	-9.92749
▁vatandaş	-9.92768
başı	-9.92787
AB	-9.92872
baş	-9.92923
▁buraya	-9.92931
.’’	-9.92933
▁ettik	-9.92989
▁Adnan	-9.93007
▁Ki	-9.93026
ner	-9.93072
gin	-9.93098
▁süresi	-9.93114
ğu	-9.93183
▁edilmiş	-9.93199
▁ettikleri	-9.93212
▁liralık	-9.93224
▁renk	-9.93241
▁kuzey	-9.93277
▁bulunması	-9.93277
▁Hükümet	-9.93362
▁süreçte	-9.93363
ilen	-9.93448
▁toplumun	-9.93469
▁motor	-9.93479
▁kamera	-9.93496
▁Özdemir	-9.93497
▁memnun	-9.93614
▁farkı	-9.93643
▁başlıyor	-9.93678
hane	-9.93701
leyen	-9.93707
▁çizgi	-9.93748
▁çıkma	-9.93748
▁sözlerini	-9.93783
gar	-9.93787
▁çalıştığı	-9.93796
sü	-9.93857
▁2009	-9.93889
▁temsilcileri	-9.93938
tür	-9.94026
müş	-9.94033
▁haklı	-9.94078
▁Twitter	-9.9408
▁kol	-9.94102
▁Beyaz	-9.94171
ss	-9.94211
▁Proje	-9.94236
▁ücretsiz	-9.94321
▁olun	-9.94322
▁açıklamaya	-9.94323
elim	-9.94325
▁aşkın	-9.94341
▁Bayramı	-9.94434
▁geleceği	-9.94445
AL	-9.94547
ia	-9.94569
▁yaşlı	-9.94583
▁çekiyor	-9.94625
▁eşliğinde	-9.94703
uyor	-9.94709
▁isimler	-9.9471
▁Roma	-9.94797
▁etmişti	-9.9482
▁mezun	-9.94858
▁muhabirine	-9.94901
▁olaylar	-9.94989
▁Sinan	-9.95016
masını	-9.95097
▁sahte	-9.95098
▁bekliyoruz	-9.95138
▁alır	-9.95144
▁neler	-9.9515
▁sürecinde	-9.95158
kı	-9.9522
▁rakip	-9.95253
▁gurur	-9.95271
▁der	-9.95275
▁eşit	-9.95321
ster	-9.95396
▁33	-9.95483
▁noktada	-9.95484
▁boyu	-9.95578
▁olası	-9.95586
▁polisin	-9.95598
Ha	-9.95613
▁euro	-9.95747
▁kenti	-9.95762
▁merkezinde	-9.95802
▁ANKARA	-9.95886
▁davası	-9.95947
▁yaşıyor	-9.95961
▁Sokak	-9.95966
▁Ata	-9.96017
▁d	-9.96029
AK	-9.96031
▁dedim	-9.96032
▁sesi	-9.96122
▁tarihleri	-9.96191
▁oynanan	-9.96192
▁dediği	-9.96262
▁doğu	-9.96314
▁Gök	-9.96318
net	-9.96336
▁ülkeler	-9.96383
▁katılacak	-9.96434
▁Tibet	-9.96463
▁görüldü	-9.9651
▁Paşa	-9.96515
▁olmaması	-9.96522
larımızın	-9.96701
▁vurgu	-9.96728
▁otel	-9.96878
▁verir	-9.96908
▁bulan	-9.96924
▁üretimi	-9.97024
▁Hukuk	-9.97106
▁tazminat	-9.97134
cık	-9.97189
▁vermiş	-9.97255
▁İlhan	-9.97271
DAN	-9.97273
meyen	-9.97303
▁girdiği	-9.97342
▁geçerli	-9.97354
▁polise	-9.97381
▁Kamu	-9.97522
▁gazetecilere	-9.97551
▁Muhammed	-9.97592
▁kimliği	-9.97602
▁etkin	-9.97707
▁Yüksel	-9.97762
▁altyapı	-9.97764
sek	-9.97856
▁bebek	-9.97877
▁Ana	-9.97889
Cumhurbaşkanlığı	-9.97927
▁DA	-9.98001
ser	-9.98011
▁Ekonomi	-9.98082
▁yetki	-9.98082
▁dönüş	-9.98111
▁Dairesi	-9.98149
▁öneri	-9.98191
▁gönderdi	-9.98243
▁önceden	-9.98261
TE	-9.98283
▁Yine	-9.98299
▁ölen	-9.98338
▁göç	-9.9835
▁Ta	-9.98363
▁Ödülü	-9.98377
▁payı	-9.98405
?”	-9.98412
▁aktif	-9.98429
▁Bursaspor	-9.98434
▁küresel	-9.9844
▁2011	-9.98445
▁sürdüren	-9.98448
▁mutluluk	-9.98482
İM	-9.985
▁Şam	-9.98562
▁ortada	-9.98635
▁futbolcular	-9.98637
▁Gi	-9.98689
▁sıkı	-9.98713
▁aşağı	-9.98737
▁Kısa	-9.98792
bey	-9.98824
▁konuyu	-9.98831
▁geçici	-9.98878
ından	-9.98886
▁dans	-9.98901
▁Pakistan	-9.98988
abiliyor	-9.98991
▁kartı	-9.99017
▁seni	-9.99035
▁Va	-9.99041
▁çalışmalarının	-9.99042
▁Fuarı	-9.99083
▁neredeyse	-9.99116
▁sayfa	-9.99135
▁biliyor	-9.99139
▁cenazesi	-9.99142
*	-9.9926
larımızı	-9.99278
▁dönen	-9.9931
▁değişiklikler	-9.9932
▁vadeli	-9.99327
▁Bölümü	-9.99328
▁teklifi	-9.99369
▁toplumsal	-9.99394
▁ortamda	-9.99436
SI	-9.99444
▁Ordu	-9.99458
▁sorularını	-9.99492
cılık	-9.99495
▁Ri	-9.99508
▁Çalışma	-9.99512
▁çöp	-9.9952
▁36	-9.99529
▁değişikliği	-9.99535
▁kapı	-9.99559
▁sözleri	-9.99561
landığı	-9.99597
▁yapacağız	-9.99608
LIK	-9.99626
po	-9.99681
▁katılım	-9.9971
▁yarım	-9.99735
▁rekabet	-9.99743
▁ba	-9.99802
▁olmuştu	-9.99899
injiang	-9.99928
▁Menderes	-9.99966
▁Yunan	-10.0002
▁kişisel	-10.0004
▁çocuğun	-10.0007
haber	-10.001
▁kurul	-10.001
▁75	-10.0011
lüğü	-10.0015
lenme	-10.002
▁yakınları	-10.0026
▁suçundan	-10.003
▁aldık	-10.0035
▁Vi	-10.0038
▁turist	-10.004
40	-10.0041
▁yazdığı	-10.0043
▁seyirci	-10.0044
yet	-10.0047
ot	-10.0051
▁bilimsel	-10.006
▁600	-10.0066
▁Ni	-10.0071
▁yoluyla	-10.0077
▁kitabı	-10.008
▁kanser	-10.0081
▁Arınç	-10.0083
▁dili	-10.0085
▁adalet	-10.0089
var	-10.0095
lardaki	-10.0103
▁hoş	-10.0111
▁tavsiye	-10.0112
▁Bunlar	-10.0113
aj	-10.0115
▁gazete	-10.0116
▁kullan	-10.0121
irken	-10.0123
▁tipi	-10.0133
ABD	-10.0136
▁kaybı	-10.0139
▁olmalı	-10.014
▁sorumluluk	-10.0142
▁taşıma	-10.0144
▁Co	-10.0145
ova	-10.0148
▁okula	-10.0149
▁yerleşim	-10.0152
▁dur	-10.0158
▁Salih	-10.0158
ağı	-10.0159
cılar	-10.0165
▁şüpheli	-10.0167
les	-10.0168
▁başkanları	-10.0174
▁hükümetinin	-10.0179
▁Terör	-10.0183
▁taşıyor	-10.0185
▁hoca	-10.0186
▁gezi	-10.0187
▁ölçüde	-10.0187
▁edeceğini	-10.019
▁gerekçe	-10.019
▁gittiği	-10.0198
▁şart	-10.0201
▁Doç	-10.0207
şi	-10.0209
▁bırak	-10.021
▁Lo	-10.0214
▁talebi	-10.0214
▁yılları	-10.0215
▁mağdur	-10.0216
▁ada	-10.0216
▁öğrencileri	-10.0219
▁eksik	-10.0219
isi	-10.022
▁tarafı	-10.022
▁Serdar	-10.0223
ME	-10.0228
Ne	-10.0231
▁deplasmanda	-10.0235
eli	-10.0238
▁numaralı	-10.0242
▁erdi	-10.0245
▁sağlanması	-10.0247
▁Örgütü	-10.0254
▁ülkeye	-10.0256
lerimizi	-10.0256
▁çalışıyoruz	-10.0262
şe	-10.0267
▁alındığı	-10.0268
▁zam	-10.0272
lenmiş	-10.0273
▁Avusturya	-10.0273
▁dosya	-10.0274
▁çıkıp	-10.0276
▁cumhurbaşkanı	-10.0277
▁gazetesi	-10.0282
▁duyurdu	-10.0286
▁getirmek	-10.029
▁geride	-10.0291
▁çalış	-10.0296
▁1.5	-10.0299
▁Ho	-10.03
▁duygu	-10.0302
▁yapılmış	-10.0306
▁füze	-10.0307
ciler	-10.0311
▁rakibi	-10.0316
▁kalacak	-10.0321
▁aktardı	-10.0323
▁takıma	-10.0329
▁:	-10.0331
▁Madrid	-10.034
▁yoktu	-10.0342
▁Havalimanı	-10.0346
▁şansı	-10.0348
▁Güven	-10.0351
▁hazırladığı	-10.0353
▁Komutanı	-10.0355
▁lig	-10.0372
▁hastanede	-10.0373
bank	-10.0374
▁Ara	-10.0374
▁Aliağa	-10.0385
▁adeta	-10.0387
▁dışarı	-10.0394
ku	-10.0399
▁verici	-10.0401
▁Tan	-10.0404
eri	-10.0407
▁esnaf	-10.0408
▁devre	-10.041
▁yakalandı	-10.0417
▁alınarak	-10.042
▁kullanım	-10.042
ağa	-10.0427
▁sanki	-10.043
▁çıkarak	-10.0431
▁temas	-10.0432
▁bina	-10.0435
▁se	-10.0437
lerdeki	-10.0438
▁Po	-10.0439
▁geçiyor	-10.044
▁bağ	-10.0444
dıkları	-10.0444
▁patlama	-10.0446
▁çağrı	-10.0447
▁getirilen	-10.0454
▁takdirde	-10.0456
▁4.	-10.0456
▁gönderildi	-10.0458
mızda	-10.0458
▁Örneğin	-10.0459
mar	-10.0461
▁girecek	-10.0466
▁Bi	-10.0468
▁Otel	-10.0469
▁profesyonel	-10.048
▁karşılaşma	-10.0482
▁sahaya	-10.0487
dıklarını	-10.0488
▁Gezi	-10.049
▁kon	-10.049
▁Bağdat	-10.0498
▁avukatı	-10.0504
▁Sen	-10.051
▁yönde	-10.0513
▁katı	-10.0513
▁birini	-10.0514
▁inan	-10.0516
▁heyet	-10.0518
▁yönündeki	-10.0526
Sen	-10.0526
▁risk	-10.0531
▁Geçtiğimiz	-10.0532
▁alkol	-10.0534
▁alternatif	-10.0534
▁adamları	-10.0547
ıcı	-10.0553
▁enflasyon	-10.0557
▁sonuçları	-10.0559
▁başkanlık	-10.0561
▁komisyon	-10.0565
▁insanı	-10.0566
Me	-10.0566
▁köprü	-10.057
bay	-10.0572
▁Dolayısıyla	-10.0576
▁Belediyespor	-10.0577
▁savunan	-10.0582
▁hedefi	-10.0589
▁sözcüsü	-10.0589
▁karşısına	-10.059
▁renkli	-10.0607
▁Çiğli	-10.061
▁bağlantılar	-10.0617
iç	-10.062
cilik	-10.0623
▁hakaret	-10.0625
▁türü	-10.0626
cü	-10.0638
▁Başbakanlık	-10.0639
▁tablo	-10.0642
▁konularda	-10.0643
▁yönetiminin	-10.0644
▁Ziraat	-10.0644
▁şeker	-10.0647
▁içki	-10.0653
▁böylece	-10.0653
▁kulübün	-10.0654
▁sinir	-10.0659
▁Samsun	-10.0659
▁filmde	-10.066
▁sel	-10.0662
▁satışa	-10.0667
▁Turan	-10.0668
▁görünce	-10.0672
▁yarat	-10.0672
▁çalışmaya	-10.0678
▁Zaten	-10.0685
▁ısı	-10.0685
▁sevgilisi	-10.0686
▁anlama	-10.0692
▁oynadı	-10.0697
so	-10.07
▁karşılıklı	-10.07
▁sa	-10.07
▁düşünüyor	-10.0702
ben	-10.0719
▁resim	-10.072
▁sektöründe	-10.0725
▁laf	-10.0727
▁önlem	-10.0731
▁izledi	-10.0738
▁paket	-10.0738
▁Çeşme	-10.0739
▁Oğuz	-10.0743
▁Yavuz	-10.0745
▁ülkeleri	-10.0748
▁Bil	-10.075
▁bırakma	-10.0752
▁Yıl	-10.0753
▁Koruma	-10.0753
▁olayları	-10.0756
▁arkasında	-10.0761
▁tüketici	-10.0763
abilecek	-10.0763
▁çalışmaların	-10.0764
▁görevlileri	-10.0764
TI	-10.0766
▁Bilim	-10.0766
▁gazetecilerin	-10.0777
▁şikayet	-10.0783
▁Onun	-10.0785
▁Önce	-10.0786
ebilecek	-10.0788
▁cam	-10.0788
▁say	-10.0808
▁durumun	-10.0809
ince	-10.081
▁kay	-10.0811
▁hali	-10.0812
lay	-10.0813
▁He	-10.0817
ilmesi	-10.082
ınca	-10.0822
▁kaydı	-10.0824
rat	-10.0825
UN	-10.0825
▁evet	-10.0827
Her	-10.083
▁ekipler	-10.0831
▁kaliteli	-10.0837
19	-10.0837
▁Levent	-10.0838
▁herkese	-10.0853
▁Mal	-10.0853
kal	-10.0853
▁mektup	-10.0854
▁bugünkü	-10.0854
▁sebebi	-10.0857
▁Ecevit	-10.086
gı	-10.0861
▁tehlike	-10.0862
▁pay	-10.0865
▁yüzlerce	-10.0866
▁genellikle	-10.0867
25	-10.0868
▁üstüne	-10.0869
▁vatandaşlarımız	-10.087
▁ayakta	-10.0872
hu	-10.0872
50	-10.0873
▁hakkını	-10.0874
▁başarılar	-10.0875
▁kardeş	-10.0881
▁yazık	-10.0882
▁Basketbol	-10.0884
▁polisi	-10.0889
dikleri	-10.0892
▁Saddam	-10.0901
▁komşu	-10.0902
▁seyahat	-10.0903
▁Enstitüsü	-10.0903
kim	-10.0904
▁şampiyonluk	-10.0905
▁Nur	-10.091
▁düğün	-10.0913
sından	-10.0919
▁Enerji	-10.092
▁Pa	-10.0921
▁sorunun	-10.0923
▁SA	-10.0924
▁lan	-10.0931
▁ligde	-10.0932
▁55	-10.0933
▁nefes	-10.0935
▁Hindistan	-10.0935
▁elinden	-10.0936
▁Var	-10.0936
tığı	-10.094
lerimizin	-10.0943
▁ilişkileri	-10.0943
▁onur	-10.0945
▁gösterme	-10.0953
▁günden	-10.0954
▁piyasaya	-10.0955
▁sahada	-10.0958
▁daire	-10.0959
▁nedir	-10.0961
▁düzenledi	-10.0963
▁ekmek	-10.0966
▁isteği	-10.0967
▁niye	-10.0975
ker	-10.0979
▁bölgedeki	-10.098
▁tutuk	-10.0982
▁Ortadoğu	-10.0988
▁Za	-10.0992
▁48	-10.0993
▁okuma	-10.0994
▁sakin	-10.0995
ledi	-10.1002
▁Projesi	-10.1004
▁yönetimindeki	-10.1004
▁olmayı	-10.1004
▁sağlığı	-10.1008
▁Para	-10.1017
▁kurtarma	-10.1019
per	-10.1021
▁gönüllü	-10.1023
layıp	-10.1026
▁ekiplerinin	-10.1035
▁Bin	-10.1037
▁buradan	-10.1039
▁sağladı	-10.1047
▁aracın	-10.1049
nıza	-10.1049
▁ar	-10.105
▁güçleri	-10.1054
▁söyleyerek	-10.1055
▁Gıda	-10.1055
▁olimpiyat	-10.1055
ğa	-10.1056
▁kalem	-10.1057
▁birbirine	-10.1068
▁yarışma	-10.1069
NA	-10.107
▁Ü	-10.107
▁zamanı	-10.1071
aş	-10.1074
▁korumak	-10.108
▁tanım	-10.108
▁eşlik	-10.1084
▁yaşadı	-10.109
▁dua	-10.1093
▁42	-10.1095
▁sahil	-10.111
▁NATO	-10.1112
▁memuru	-10.1116
▁Ka	-10.1118
.(	-10.1125
▁sorunlar	-10.1126
▁töreni	-10.1128
▁Başkent	-10.1132
amayan	-10.1139
▁seri	-10.1141
▁iz	-10.1148
▁oynama	-10.1149
▁Okul	-10.1158
mur	-10.1164
▁uyum	-10.1172
▁işleri	-10.1173
yacak	-10.1175
▁kurulması	-10.1179
▁imha	-10.1179
▁tekne	-10.1181
▁65	-10.1193
uncu	-10.1197
▁Ardından	-10.1199
▁cinayet	-10.1203
▁Mu	-10.1206
▁Tabii	-10.1212
▁sürdürüyor	-10.1223
▁yapıyoruz	-10.1226
▁kullanımı	-10.1239
▁evli	-10.1242
▁kelime	-10.1247
▁savaşı	-10.1249
ıldı	-10.125
▁millet	-10.125
▁sendika	-10.1251
▁Valiliği	-10.1257
sem	-10.126
▁yerlerde	-10.1261
▁dışına	-10.1263
▁Saat	-10.1264
▁sonuçlar	-10.1267
gün	-10.1268
▁çekerek	-10.1269
lin	-10.1271
▁Gür	-10.1277
▁oyuncular	-10.1278
▁Suriyeli	-10.1287
▁yapıp	-10.1288
▁zamanlarda	-10.1292
▁ödülü	-10.1292
▁kalıyor	-10.1295
▁ayakkabı	-10.1296
▁cadde	-10.1301
▁birlik	-10.1306
▁g	-10.1308
▁atma	-10.1311
▁köşe	-10.1311
oz	-10.1312
▁başladığını	-10.1313
▁kapat	-10.1315
▁ikna	-10.1316
▁hizmete	-10.1317
▁hayır	-10.1322
▁sürülen	-10.1326
▁Hanım	-10.1331
▁don	-10.1332
▁konusundaki	-10.1335
▁mesajı	-10.1339
▁ilçesi	-10.1339
▁yapmayı	-10.134
▁görüyor	-10.1341
▁anlam	-10.1342
ap	-10.1344
▁benzeri	-10.1352
▁söylediği	-10.1354
▁geçiren	-10.1358
▁geçirdiği	-10.1359
lari	-10.136
▁eleştiri	-10.1372
▁numara	-10.1373
▁Yalçın	-10.1373
▁bisiklet	-10.1382
▁sürecek	-10.1386
▁Konu	-10.1388
▁protokol	-10.139
▁Ge	-10.139
▁38	-10.1391
▁özür	-10.1392
▁raporu	-10.1393
▁bilet	-10.1396
▁işletme	-10.1398
▁Şimşek	-10.1404
▁İsviçre	-10.1413
abileceği	-10.1414
▁Mahmut	-10.1414
▁katılma	-10.1418
▁edit	-10.1423
▁derken	-10.1429
▁ortasında	-10.1432
▁toprağa	-10.1434
▁Japon	-10.1437
ron	-10.1438
▁yapar	-10.1439
▁kesim	-10.144
▁Sivas	-10.1442
▁ambulans	-10.1442
▁tak	-10.1453
▁güvenli	-10.1455
▁sat	-10.1456
▁düşüş	-10.1456
▁Taliban	-10.1458
▁gençler	-10.1462
▁maddesi	-10.1462
▁organize	-10.1463
▁adresi	-10.1465
▁bulun	-10.1466
ket	-10.1468
▁Herkes	-10.147
▁özen	-10.1474
tt	-10.1474
▁Si	-10.1476
şa	-10.1477
▁Kongre	-10.1477
▁yürüyüş	-10.1479
▁üyelerinin	-10.1484
▁yürütülen	-10.1485
▁Mar	-10.1485
iyorum	-10.149
▁bazıları	-10.149
▁Edirne	-10.1493
▁kurban	-10.1493
rı	-10.1494
madan	-10.1498
▁eğlence	-10.1502
▁başlaması	-10.1503
▁yayımlanan	-10.1503
▁kala	-10.1505
▁bence	-10.1506
▁seçimi	-10.1508
▁değilim	-10.151
▁gönderilen	-10.1515
▁şans	-10.1521
▁George	-10.1523
▁kimlik	-10.1524
▁başlar	-10.1534
▁kas	-10.1535
▁mahkum	-10.1539
▁sağlam	-10.154
▁ettim	-10.1542
▁Ku	-10.1543
▁vs	-10.1546
▁şüphe	-10.155
▁dağ	-10.1555
▁elektronik	-10.1555
▁vurdu	-10.1556
▁Per	-10.1558
lanır	-10.1563
▁Lu	-10.1565
▁tren	-10.1569
ılıyor	-10.1569
▁tedavisi	-10.1569
▁çıktığını	-10.157
▁Bayram	-10.1572
▁hastalık	-10.1572
▁kimyasal	-10.1573
▁çıkmış	-10.1574
▁düşme	-10.1575
▁test	-10.1578
▁Balıkesir	-10.1585
▁zorunlu	-10.1585
▁yılına	-10.1587
duk	-10.1589
▁kaldığını	-10.16
▁Tur	-10.1603
▁ter	-10.1604
yü	-10.1605
▁Özkan	-10.1608
▁yolsuzluk	-10.1615
müz	-10.1622
diklerini	-10.1622
▁cezasına	-10.1624
▁bölüm	-10.1624
▁gününde	-10.1626
▁sürücü	-10.1627
▁olmaktan	-10.1627
▁oyuncuları	-10.1628
▁maden	-10.163
yor	-10.1632
▁sürece	-10.1633
▁yardımcısı	-10.1635
ımı	-10.1636
70	-10.1637
▁nerede	-10.164
▁aldıkları	-10.164
▁başlatılan	-10.1646
11	-10.1648
▁çarptı	-10.1653
▁götürüldü	-10.1654
▁başkanlığında	-10.1658
▁Yasa	-10.1659
▁görüştü	-10.1666
▁insanlara	-10.1668
eceğiz	-10.1668
▁çocuklara	-10.1669
▁Göz	-10.1672
▁edilir	-10.1673
▁ayrılan	-10.1674
▁alacağı	-10.168
▁çiçek	-10.1682
▁bitti	-10.1684
▁İdaresi	-10.1687
▁kamyon	-10.1688
▁diş	-10.1691
▁Yetkililer	-10.1693
▁metrekare	-10.1698
▁başından	-10.17
▁Çek	-10.1708
▁Dağı	-10.1709
▁Adam	-10.1713
▁Esad	-10.1719
▁vermedi	-10.1726
▁doğa	-10.1727
▁Mü	-10.1731
▁ihlal	-10.1735
▁tanıtım	-10.1737
▁rakam	-10.1741
mayın	-10.1742
▁Baba	-10.1743
▁planı	-10.1744
▁seçilen	-10.1749
▁geçtiği	-10.1753
▁Adli	-10.1753
▁görüşmeler	-10.1758
▁Onur	-10.1758
▁gelişmeler	-10.1761
▁tehlikeli	-10.1761
▁taraftar	-10.1763
▁olanlar	-10.1767
▁heyecan	-10.1769
İZ	-10.1773
▁ürünler	-10.1779
▁Avukat	-10.178
▁37	-10.1782
sizlik	-10.1783
▁Car	-10.1783
▁kalması	-10.1786
▁merkezine	-10.1788
▁olduk	-10.1789
ris	-10.179
▁sektörü	-10.1793
▁bey	-10.1797
▁saniye	-10.1797
▁evlilik	-10.1798
▁saç	-10.18
▁yardımı	-10.1801
▁ilerleme	-10.1802
▁tutuklandı	-10.1803
▁yıldan	-10.181
▁indirim	-10.1811
▁malzeme	-10.1811
▁olabileceği	-10.1816
mesini	-10.1816
Birleşik	-10.1818
▁Özgür	-10.1818
60	-10.1818
▁kitle	-10.1818
▁girmesi	-10.182
▁bölgesi	-10.1821
▁bölgelerde	-10.1822
En	-10.1824
▁gözden	-10.1825
leniyor	-10.1828
▁artarak	-10.183
▁Erol	-10.1833
dal	-10.1833
▁iken	-10.1833
▁Ermeni	-10.1839
▁Gece	-10.1841
▁ağaç	-10.1847
▁evi	-10.1852
▁Askeri	-10.1853
▁müze	-10.1854
▁İÇİN	-10.1855
▁kalabalık	-10.1858
▁Kanun	-10.1859
12	-10.1865
▁günler	-10.1868
▁devreye	-10.187
▁gitme	-10.187
▁kimi	-10.1874
hat	-10.1875
▁memur	-10.1881
▁başlandı	-10.1881
sh	-10.1885
IM	-10.1886
▁olduğunun	-10.1888
bel	-10.1894
▁Sun	-10.1894
mus	-10.1895
▁Bakanlar	-10.1897
▁hat	-10.1899
▁adıyla	-10.1901
▁kapsamlı	-10.1901
▁maruz	-10.1901
▁fiyatları	-10.1902
▁ederim	-10.1907
▁kararın	-10.1908
▁Sayfa	-10.1911
▁Yönetimi	-10.1913
ası	-10.1917
▁sorusuna	-10.1917
dağ	-10.192
▁Çiçek	-10.1921
▁Ünal	-10.1924
▁olmayacak	-10.1924
▁ser	-10.1924
▁vatandaşın	-10.1924
▁Har	-10.1925
▁oldum	-10.1925
▁Top	-10.1926
▁Beldesi	-10.1929
▁erkekler	-10.193
emez	-10.1931
▁emin	-10.1931
unda	-10.1934
▁algı	-10.1941
▁akıl	-10.1942
çü	-10.1942
▁hatır	-10.1942
▁getirerek	-10.1944
▁yönetici	-10.1944
▁Ser	-10.1946
▁koalisyon	-10.1948
▁(19	-10.1954
▁Birinci	-10.196
ğini	-10.196
▁tören	-10.1965
ang	-10.1965
çu	-10.197
▁ailesinin	-10.1971
▁Yeşil	-10.1971
▁öğrencilere	-10.198
▁yerden	-10.198
▁kongre	-10.1982
▁Üniversite	-10.1984
▁sordu	-10.1987
▁Bilgi	-10.1989
▁teröristlerin	-10.1993
▁projenin	-10.1998
▁kuruluş	-10.2002
▁Çarşamba	-10.2006
▁usta	-10.2011
▁alkış	-10.2011
▁Fe	-10.2012
PO	-10.2012
▁sürü	-10.2013
▁haftada	-10.2015
▁Erkan	-10.2019
▁sürüldü	-10.2019
▁Acil	-10.2023
▁artan	-10.2029
▁Ayşe	-10.2035
▁Anne	-10.2035
▁Mardin	-10.2036
▁getirme	-10.2039
▁insani	-10.2046
▁çevresinde	-10.205
Ka	-10.205
▁yıldızı	-10.2051
▁Mutlu	-10.2053
▁satışı	-10.2053
▁evin	-10.2054
gel	-10.2055
▁alanlarda	-10.2056
▁bırakıldı	-10.2059
▁geçirildi	-10.2061
▁içeri	-10.2064
▁it	-10.2066
▁günleri	-10.2068
▁Hatta	-10.2073
▁olamaz	-10.2076
▁denize	-10.2076
yar	-10.2082
▁olabileceğini	-10.2083
▁partinin	-10.2085
av	-10.2085
uk	-10.2089
ucu	-10.2092
▁hatırlattı	-10.21
land	-10.2102
▁and	-10.2103
▁aldıklarını	-10.2105
Kİ	-10.2106
mayacak	-10.2116
.1	-10.212
▁Sabancı	-10.212
▁Altay	-10.2122
▁korunması	-10.2122
▁Yol	-10.2127
▁kazı	-10.2133
▁yüzü	-10.2134
▁pas	-10.2134
▁Kur	-10.2134
▁iddiasıyla	-10.214
▁öncelikle	-10.2143
▁özellikleri	-10.2148
▁sitesi	-10.2149
lamak	-10.2151
▁Karabağlar	-10.2152
▁Yapı	-10.2154
▁dönemin	-10.2161
▁çekildi	-10.2165
AT	-10.2166
▁zamanında	-10.2172
▁mahkemeye	-10.2172
türk	-10.2174
ıyoruz	-10.2176
RA	-10.2178
bil	-10.2178
▁gelince	-10.219
zer	-10.2194
▁başarıyla	-10.2197
▁ortam	-10.2201
▁ucuz	-10.2203
▁Onlar	-10.2204
▁diyalog	-10.2206
tin	-10.2207
EL	-10.2208
▁kendileri	-10.2209
▁şiddetli	-10.2211
▁karakter	-10.2212
▁konulu	-10.2214
▁kullanmak	-10.2216
▁gayet	-10.2217
▁yakınlarında	-10.2217
▁bölgenin	-10.2221
ilmiş	-10.2225
▁sağlıyor	-10.2232
lenmesi	-10.2237
▁idari	-10.2238
▁seçildi	-10.2238
▁Dar	-10.2239
▁yerinden	-10.2242
▁töreninde	-10.2242
▁Zafer	-10.2243
▁maaş	-10.2248
▁düşman	-10.2249
kent	-10.2251
▁getirilmesi	-10.2253
▁nüfus	-10.2254
ize	-10.2255
▁oyunları	-10.226
▁açma	-10.2261
▁Tarihi	-10.2264
▁tatlı	-10.2265
▁anlar	-10.2265
ih	-10.227
▁ilçede	-10.2271
▁Hakları	-10.2273
▁takımının	-10.2275
▁okulun	-10.2278
▁Dünyanın	-10.2289
▁ufak	-10.2292
▁Yaz	-10.2293
▁Bakanlık	-10.2294
▁fayda	-10.2301
▁Şampiyonlar	-10.2302
▁otomobilin	-10.2304
Sa	-10.2306
▁Efes	-10.2308
▁Clinton	-10.2316
▁Gazi	-10.2322
▁çalışmak	-10.2324
▁At	-10.2327
▁uçuş	-10.2331
▁organizasyon	-10.2331
▁taşı	-10.2336
▁çağrısı	-10.2336
▁yararlan	-10.2339
▁Salı	-10.2341
mde	-10.2341
16	-10.2344
cik	-10.2345
▁etkisiyle	-10.235
▁maça	-10.235
▁anayasa	-10.2351
▁vatandaşı	-10.2352
▁hakkındaki	-10.2354
▁Sabah	-10.2357
▁ziyareti	-10.236
▁kaçtı	-10.236
▁pilot	-10.2362
▁suçlu	-10.2367
▁Saray	-10.2369
▁tasarım	-10.237
▁şarkıcı	-10.237
80	-10.2373
▁THY	-10.2391
▁yat	-10.2393
▁Milletler	-10.2393
▁Öcalan	-10.2394
üp	-10.2401
rma	-10.2402
▁dönüşüm	-10.2403
▁projeler	-10.2405
▁atılan	-10.2406
▁alış	-10.2409
▁adamın	-10.2414
▁Oysa	-10.242
▁Müzesi	-10.2422
▁misafir	-10.2422
▁Özcan	-10.2427
▁Yasası	-10.2429
▁çöz	-10.2432
▁kalmış	-10.2436
▁reform	-10.2438
▁açıklamalarda	-10.2439
op	-10.2441
▁sıfır	-10.2444
▁boya	-10.2448
▁kadını	-10.2449
▁Kurt	-10.2449
seniz	-10.2449
▁abi	-10.2454
▁Uygur	-10.2455
▁rekor	-10.2458
▁ye	-10.2461
▁Akın	-10.2463
▁Ertuğrul	-10.2466
▁çalışmalara	-10.2466
her	-10.2467
▁prim	-10.2467
▁sınırları	-10.2467
▁arkadaşlarımız	-10.247
▁açılması	-10.2475
pi	-10.2475
▁ondan	-10.2476
▁çadır	-10.2477
▁düzeyde	-10.248
▁öldüğü	-10.2482
▁basına	-10.2482
▁Aksu	-10.2485
ue	-10.2487
▁güne	-10.2488
şan	-10.2489
▁ulaşan	-10.249
▁olurken	-10.2495
▁artışı	-10.2495
▁Kadir	-10.2497
▁toplantıya	-10.2498
▁alırken	-10.2504
▁Urla	-10.2505
▁miktarda	-10.2506
▁kontrolü	-10.2513
▁önlemleri	-10.2513
amadı	-10.2521
▁adaylığı	-10.2522
▁kuş	-10.2524
▁Terim	-10.2524
▁gördüm	-10.2529
▁üzüntü	-10.2531
▁Perşembe	-10.2532
▁gerçekleştirdi	-10.2532
bet	-10.2533
süz	-10.2535
▁ol	-10.2537
▁alanları	-10.2539
▁bitki	-10.2539
▁İspanyol	-10.2541
▁bulunur	-10.2542
▁Moskova	-10.2543
▁azından	-10.2547
▁kalk	-10.2549
▁belde	-10.2554
mp	-10.2557
▁allah	-10.2558
▁Ayhan	-10.2559
▁bil	-10.2559
▁ilişkilerin	-10.2561
90	-10.2562
▁Marmara	-10.2565
▁avukat	-10.2565
▁arz	-10.2566
▁tesis	-10.2569
▁Pe	-10.257
▁ilgisi	-10.2571
▁firması	-10.2572
▁başardı	-10.2572
mon	-10.2576
▁Kal	-10.2576
▁olağanüstü	-10.2576
▁to	-10.2576
▁puanla	-10.2579
▁yağışı	-10.2582
▁başbakan	-10.2583
▁etmeyi	-10.2585
▁eylemi	-10.2588
▁Cezaevi	-10.2589
▁Az	-10.2593
▁uygulamaya	-10.2594
▁yanıtladı	-10.2595
ıldığı	-10.2597
▁arasına	-10.2598
▁giyen	-10.2601
gül	-10.2605
▁çizdi	-10.2611
▁Demokrat	-10.2612
▁başkanlığı	-10.2614
▁kentte	-10.2618
▁katkıda	-10.2618
▁bulunmaktadır	-10.2624
▁vatan	-10.2624
▁Adresi	-10.2625
▁boy	-10.2635
▁dernek	-10.2637
▁aylarında	-10.264
ıldığını	-10.2641
▁görevlisi	-10.2645
▁geldiğinde	-10.2647
▁Kim	-10.2653
▁olacağız	-10.2654
▁Cengiz	-10.2654
lim	-10.2656
▁arkadaşım	-10.2657
▁kanıt	-10.2659
▁İnternet	-10.2663
▁Bağ	-10.2666
▁bakış	-10.2668
▁Tam	-10.2668
▁Bana	-10.2669
▁operasyonu	-10.2673
▁yarattığı	-10.2674
▁katılmak	-10.2678
▁bedeli	-10.2678
je	-10.268
▁yaptığımız	-10.2681
▁değildi	-10.2682
▁bilen	-10.2689
▁Birleşmiş	-10.269
▁dalga	-10.2691
lerdi	-10.2692
▁kale	-10.2693
▁binası	-10.2693
▁depo	-10.2695
har	-10.2703
▁başkent	-10.2705
▁St	-10.2706
▁tasarruf	-10.2707
▁olmaları	-10.2707
▁ülkelerde	-10.2711
▁namazı	-10.2714
▁uygulanan	-10.2714
▁ruh	-10.2715
▁Önümüzde	-10.2716
▁belgesi	-10.2718
▁sahipliği	-10.2721
▁gönderdiği	-10.2723
▁Tel	-10.2726
▁sezonu	-10.2729
▁alım	-10.2729
▁Ol	-10.273
▁lisans	-10.2732
▁Toprak	-10.2733
▁bulma	-10.2734
▁kurşun	-10.2737
▁konuşmasında	-10.274
▁modeli	-10.2742
▁alana	-10.2742
▁masa	-10.2742
▁Fer	-10.2744
▁Tesisleri	-10.2744
ebileceği	-10.2745
▁Vekili	-10.2748
▁izni	-10.2748
▁Ru	-10.2749
▁hayatta	-10.275
▁Faruk	-10.2756
▁aş	-10.2757
▁kararının	-10.2759
▁sitesinde	-10.2759
▁karşılığında	-10.276
▁eseri	-10.2762
egedesonsoz	-10.2766
▁Berlin	-10.2767
▁resmen	-10.2768
ff	-10.2769
▁girme	-10.2769
75	-10.2772
▁sahneye	-10.2772
ard	-10.2775
▁albüm	-10.2776
▁sessiz	-10.2777
▁itiraf	-10.2778
▁bahçe	-10.2781
▁olayda	-10.2782
▁koca	-10.2782
▁Başsavcılığı	-10.2785
▁bağlantı	-10.2789
▁Sözcüsü	-10.279
▁Fatma	-10.279
nuz	-10.279
▁sisteminin	-10.2793
▁Emin	-10.2797
▁grubun	-10.28
▁kurtar	-10.2801
▁kilit	-10.2815
▁öğle	-10.2818
rek	-10.2821
▁işlemleri	-10.2825
▁yazarı	-10.283
▁duyduğu	-10.2832
▁sevgili	-10.2834
▁oluşturduğu	-10.2836
▁dışındaki	-10.2837
▁getiriyor	-10.2838
masına	-10.2838
tay	-10.2839
▁Erdem	-10.2845
▁yarıda	-10.2847
▁edilerek	-10.2847
▁Brezilya	-10.2848
▁gözü	-10.2848
▁Daire	-10.285
▁uyu	-10.285
▁partisi	-10.2851
▁transferi	-10.2854
▁sahipleri	-10.2855
▁ihbar	-10.2861
▁bayrağı	-10.2861
▁iyice	-10.2867
▁Belçika	-10.2868
▁gerçeği	-10.2872
▁göster	-10.2873
lanarak	-10.2875
▁başlatıldı	-10.288
▁seçimlerde	-10.2881
▁işgal	-10.2881
▁idare	-10.2883
▁yaka	-10.2884
ral	-10.2885
▁aldım	-10.2889
▁kuvvet	-10.289
▁Dİ	-10.2893
▁diliyorum	-10.2893
▁açılma	-10.2904
EN	-10.2904
▁bilgilere	-10.2905
▁değinen	-10.2906
▁hastalığı	-10.291
ng	-10.2916
▁Ja	-10.2917
▁Yu	-10.2919
▁co	-10.2921
▁1-0	-10.2921
▁tanık	-10.2922
▁To	-10.2928
▁müdürü	-10.2931
▁soruları	-10.2933
▁olmasının	-10.2936
▁içme	-10.2936
▁Ajansı	-10.294
▁bilmiyorum	-10.294
▁fotoğrafı	-10.2945
▁Resmi	-10.295
▁2016	-10.2953
▁kampanyası	-10.2956
▁sundu	-10.2963
gü	-10.2964
▁kedi	-10.2967
▁olunca	-10.2968
KA	-10.2968
▁Cumartesi	-10.2976
▁İnşaat	-10.2977
▁geleceğini	-10.2981
▁düzenli	-10.2983
▁Mesut	-10.2984
▁Başka	-10.2986
▁yapılacağı	-10.299
sta	-10.2996
▁Uygulama	-10.3
▁demiş	-10.3008
▁önlemler	-10.3009
▁Kazada	-10.301
-19	-10.3012
abilmek	-10.3016
▁Fırat	-10.3019
▁Gazze	-10.3019
▁görünüyor	-10.302
45	-10.302
▁Orgeneral	-10.303
▁durumunun	-10.3032
▁gerekse	-10.3039
▁ülkeyi	-10.304
▁saatte	-10.3041
▁ayar	-10.3042
▁istihbarat	-10.3045
DI	-10.3047
▁başarısı	-10.305
▁Jo	-10.3055
▁Hi	-10.3059
▁yaşandığı	-10.3061
▁belirli	-10.3062
▁gelişmiş	-10.3063
val	-10.3063
▁BU	-10.3066
▁uzlaşma	-10.3067
▁gündür	-10.3068
▁kahve	-10.3068
▁afet	-10.3069
▁üstü	-10.3072
▁açıkça	-10.3074
▁eser	-10.3076
▁seviye	-10.3076
▁Pazartesi	-10.3077
▁Çankaya	-10.3077
▁devleti	-10.3079
▁içer	-10.3082
▁stratejik	-10.3084
▁yumurta	-10.3089
▁zayıf	-10.3089
▁dikkatli	-10.3092
▁MU	-10.3094
ab	-10.3098
▁Kay	-10.3101
mayan	-10.3107
esi	-10.311
izm	-10.3116
▁uygulaması	-10.3117
Yeni	-10.3118
▁geçecek	-10.3121
ara	-10.3123
▁doları	-10.3125
▁Kenan	-10.3126
▁biliyorum	-10.3126
▁yağış	-10.3127
▁olayla	-10.3128
▁es	-10.3129
▁Kulüp	-10.313
▁başlıklı	-10.313
▁ülkeden	-10.3134
ydu	-10.3142
▁çalıştığını	-10.3144
▁Kadınlar	-10.3147
▁mücadelesi	-10.3155
▁Kızıl	-10.3159
▁işadamı	-10.3159
▁tutan	-10.3165
▁beyan	-10.3168
▁tanı	-10.3173
ktedir	-10.3174
▁şeyin	-10.318
▁üstünde	-10.3185
▁Sakarya	-10.3185
▁ordusu	-10.3191
▁tecavüz	-10.3191
▁dayalı	-10.3194
CE	-10.3199
mayı	-10.3201
▁katrilyon	-10.3206
▁tavır	-10.3208
▁taksi	-10.3209
meli	-10.321
▁Ala	-10.321
▁cümle	-10.3213
▁sar	-10.3213
bar	-10.3214
▁bakanlık	-10.3215
▁araçlar	-10.3224
▁mesele	-10.3227
Ma	-10.3227
▁kritik	-10.323
▁mağaza	-10.3231
▁Kız	-10.3232
fer	-10.3234
ligi	-10.3235
▁sahasında	-10.3235
İzmir	-10.3235
▁rüzgar	-10.3236
▁deneme	-10.3237
abilen	-10.3238
layacak	-10.3239
▁sorgu	-10.3246
▁olmasa	-10.3247
▁Av	-10.3249
▁sunduğu	-10.3259
▁miktarı	-10.326
▁anket	-10.326
▁Bunların	-10.3267
▁yerlere	-10.3274
▁perde	-10.3275
▁NE	-10.3276
▁Vergi	-10.3278
▁bakımından	-10.3282
umuz	-10.3284
▁Göztepe	-10.3285
▁tarihli	-10.3287
▁oran	-10.3288
landığını	-10.3289
▁Suudi	-10.329
▁800	-10.329
▁Zaman	-10.3291
▁Boz	-10.3291
▁Şanlıurfa	-10.3292
▁savcı	-10.3294
▁hukuki	-10.3294
▁birliği	-10.3296
zu	-10.3296
▁46	-10.3303
▁kendimi	-10.3303
▁Times	-10.3305
▁Fa	-10.3307
İstanbul	-10.3307
▁hattı	-10.3312
▁Nihat	-10.3314
▁hamile	-10.3314
▁planlanan	-10.3315
iyoruz	-10.3317
▁layık	-10.3325
▁Ön	-10.3329
▁Büyükelçisi	-10.333
▁kalite	-10.3333
▁man	-10.3334
kat	-10.3334
▁parayı	-10.3335
▁kızın	-10.3338
▁mükemmel	-10.334
▁çapında	-10.3343
▁zamanlar	-10.3343
▁Pan	-10.3345
ildi	-10.3347
IR	-10.335
▁bıçak	-10.3351
▁hesabı	-10.3352
▁doğan	-10.3354
▁davran	-10.3354
liyor	-10.3358
▁Koca	-10.3359
▁kurma	-10.336
▁şube	-10.336
▁standart	-10.3361
▁fırsatı	-10.3362
▁moral	-10.3364
▁adli	-10.3368
▁girmek	-10.3369
ebiliyor	-10.337
▁1998	-10.3371
▁takımda	-10.3374
▁YOK	-10.3374
▁Demirtaş	-10.3376
▁Azerbaycan	-10.3378
▁tebrik	-10.3385
▁Peki	-10.3387
▁projeleri	-10.3392
▁geçtiğini	-10.3393
▁anlayışı	-10.3397
▁Et	-10.3398
▁iade	-10.3399
▁hizmetleri	-10.3401
▁yatır	-10.3404
▁artması	-10.3406
ez	-10.3412
▁basketbol	-10.3413
▁la	-10.3414
▁süper	-10.3422
▁gençlerin	-10.3425
▁t	-10.3425
▁bar	-10.3426
ılır	-10.343
▁Işık	-10.3434
▁Michael	-10.3437
▁haberler	-10.344
▁120	-10.3442
▁uçağı	-10.3444
dere	-10.3445
▁Kalkınma	-10.3446
▁işlemi	-10.3446
▁bulunmadığını	-10.3449
▁yolun	-10.345
▁biber	-10.345
▁neyse	-10.345
▁onlarca	-10.3456
▁Kocaeli	-10.3457
▁taciz	-10.3458
▁Geri	-10.346
▁senaryo	-10.3461
▁Bahçeli	-10.3461
▁psikolojik	-10.3464
▁kuzeyinde	-10.3465
▁Siirt	-10.347
▁maalesef	-10.347
▁yürürlüğ	-10.347
▁topla	-10.3475
▁temin	-10.3479
▁Avustralya	-10.348
▁alındığını	-10.3483
▁akıllı	-10.3483
▁avukatları	-10.3484
▁hazırlanıyor	-10.3488
▁maçını	-10.3489
▁kazanmak	-10.349
▁tanınan	-10.3494
▁elbette	-10.3495
▁disiplin	-10.3497
lanacak	-10.3497
▁izleme	-10.3498
▁giderken	-10.3502
▁analiz	-10.3504
▁gruplar	-10.3506
▁radikal	-10.3506
abileceğini	-10.3507
ans	-10.3507
▁yolları	-10.3508
▁Malatya	-10.3512
bin	-10.3512
05	-10.3513
▁Özgecan	-10.3514
▁antrenör	-10.3518
▁pa	-10.3518
▁yemeği	-10.3519
▁VAR	-10.3521
bat	-10.3521
▁yarar	-10.3522
▁Es	-10.3524
▁motosiklet	-10.3531
▁Yerel	-10.3532
▁u	-10.3533
▁çekilen	-10.3533
▁Özer	-10.3535
▁si	-10.3539
▁arazi	-10.3539
▁vereceği	-10.3541
▁kadına	-10.3542
▁çeşit	-10.3542
▁roman	-10.3546
▁anlatıyor	-10.3549
▁vazgeç	-10.355
▁pahalı	-10.3551
▁biliyoruz	-10.3552
▁kalın	-10.3553
▁söylediler	-10.3554
sün	-10.3555
ks	-10.3556
lenerek	-10.3557
ste	-10.3558
▁almıştı	-10.356
▁büyü	-10.356
▁yarattı	-10.3561
▁mo	-10.3562
▁ver	-10.3563
▁DO	-10.3569
ilir	-10.357
▁alanına	-10.3571
▁Kartal	-10.3572
▁Kimse	-10.3577
UZ	-10.3577
▁Has	-10.359
▁uyku	-10.3594
▁karara	-10.3596
▁KKTC	-10.3597
▁verdikleri	-10.3597
▁anı	-10.3599
▁olayların	-10.3602
▁yüzyıl	-10.3604
▁ihraç	-10.3604
▁İnönü	-10.3605
▁arkadaşlar	-10.3605
▁geçmesi	-10.3605
▁etkinlik	-10.3606
-20	-10.361
lilerin	-10.3615
▁Bay	-10.3615
▁görüşü	-10.3616
▁çatışma	-10.3617
▁verildiği	-10.3618
lis	-10.3618
▁miting	-10.3623
▁İdare	-10.3626
▁kurmak	-10.3629
▁edeceği	-10.363
▁çık	-10.3637
▁sorunlarını	-10.3639
▁klasik	-10.3641
▁Hacı	-10.3642
▁ailenin	-10.3643
▁sektörünün	-10.3646
▁tuttu	-10.3646
üyor	-10.3647
▁kamuoyu	-10.3649
tel	-10.3653
▁ters	-10.3653
lon	-10.3655
▁okulu	-10.3658
lma	-10.366
▁izleyen	-10.3661
-1	-10.3665
▁tanıma	-10.3673
▁Şener	-10.3675
▁mağlup	-10.3679
▁sabit	-10.3679
▁Köy	-10.3681
▁değerlendiren	-10.3681
▁meydan	-10.3682
21	-10.3683
▁değerlendirdi	-10.3689
▁ata	-10.3689
▁İnşallah	-10.3692
▁birbirinden	-10.3693
▁kanal	-10.3695
▁Nuri	-10.3695
mdan	-10.3696
LİK	-10.3699
▁noktası	-10.37
▁olsaydı	-10.3702
▁uyar	-10.3705
▁yarışı	-10.3705
▁golü	-10.3706
▁kullanılması	-10.3706
▁gönderme	-10.3709
▁41	-10.3711
ud	-10.3715
▁David	-10.3716
İR	-10.3716
▁problem	-10.3718
▁başlattığı	-10.372
▁nefret	-10.3728
▁düzenleyen	-10.3729
▁çekici	-10.373
▁AL	-10.373
▁sap	-10.3734
13	-10.3735
ük	-10.3736
▁elini	-10.3737
▁1999	-10.3737
▁atarak	-10.3738
kte	-10.3739
▁Burak	-10.374
▁şok	-10.374
che	-10.3743
▁kurdu	-10.3749
oloji	-10.3752
▁çıkart	-10.3754
madı	-10.376
mekte	-10.3761
meyecek	-10.3761
▁telefonla	-10.3762
▁sezonunda	-10.3764
▁Filistinli	-10.3764
medi	-10.3765
▁kuruldu	-10.3767
▁Kredi	-10.3767
▁cuma	-10.3767
▁davanın	-10.3767
▁Marmaris	-10.3769
sunu	-10.3771
▁Meslek	-10.3773
▁kalıcı	-10.3779
em	-10.3782
▁geleni	-10.3784
▁uygulanması	-10.3784
▁Şehir	-10.3787
▁İlköğretim	-10.3791
▁salonu	-10.3792
▁üretilen	-10.3794
▁Soma	-10.3795
▁TIR	-10.3795
▁TÜRKİYE	-10.3797
▁hikaye	-10.3804
▁dergi	-10.3804
▁vurgulayarak	-10.3804
▁Yan	-10.3804
▁Ber	-10.3806
▁taraftarlar	-10.3806
▁Zeki	-10.381
▁açıklayan	-10.3812
▁DSP	-10.3817
▁fotoğrafları	-10.3818
▁yitirdi	-10.3819
▁avantaj	-10.3821
▁fırtına	-10.3821
kin	-10.3826
▁ifadesi	-10.3826
▁kulak	-10.3826
▁Sami	-10.3833
▁çıkarma	-10.3837
mle	-10.3837
▁polisler	-10.3842
lenecek	-10.3843
▁verdiklerini	-10.3844
Al	-10.3844
▁duruyor	-10.3845
▁kazandığı	-10.3845
▁kuruluşları	-10.3845
▁istenen	-10.3846
▁Din	-10.3847
▁duvar	-10.385
imizin	-10.3852
▁sınırlı	-10.3853
▁vakit	-10.3854
▁Halep	-10.3854
▁dönemine	-10.3856
▁değiştir	-10.3864
▁karşılaştı	-10.3867
▁kuruluşu	-10.3872
▁eşinin	-10.3873
▁yapım	-10.3874
▁aktör	-10.3874
▁sokakta	-10.3875
▁liman	-10.3878
▁tarzı	-10.3879
▁parası	-10.3882
▁Gu	-10.3884
▁dar	-10.3889
▁adliyeye	-10.3891
vo	-10.3892
▁kanseri	-10.3896
▁Beş	-10.3897
▁tahsis	-10.3897
▁Şehit	-10.3898
▁Eren	-10.3906
▁antrenman	-10.3906
▁radyo	-10.3907
▁noktasında	-10.3909
▁konuya	-10.3912
▁arzu	-10.3912
▁restoran	-10.3914
▁yarısı	-10.3914
▁popüler	-10.3917
▁güney	-10.392
▁etmektedir	-10.3923
eş	-10.3926
▁dinleme	-10.3928
▁bal	-10.3931
▁güçlerinin	-10.3932
tor	-10.3934
▁törenine	-10.3934
▁idam	-10.3935
▁saf	-10.3936
.*	-10.3936
lendirme	-10.3938
▁genelde	-10.394
▁51	-10.3943
▁DYP	-10.3943
nizde	-10.3943
▁44	-10.3948
▁halkına	-10.3948
▁yarısında	-10.3949
ig	-10.3949
▁zorla	-10.3949
ıyorum	-10.3952
▁gördük	-10.3954
▁üretici	-10.3954
▁Oktay	-10.3955
▁karşılığı	-10.3957
▁52	-10.3957
▁Bulgaristan	-10.3958
▁sev	-10.3959
▁gazı	-10.3961
▁helikopter	-10.3962
▁Ülke	-10.3964
yecek	-10.3965
▁sandalye	-10.3968
▁görülüyor	-10.3968
▁katılımıyla	-10.3974
▁öte	-10.3976
▁isimleri	-10.398
▁olanak	-10.3981
af	-10.3981
ktadır	-10.3983
▁kolu	-10.3985
ayım	-10.3987
▁meselesi	-10.399
▁çıkarılan	-10.3996
▁Sarayı	-10.3996
▁ilişkisi	-10.3998
▁kaçan	-10.4003
▁huzur	-10.4005
▁kaldırılması	-10.4005
▁şeklindeki	-10.4005
▁diyorum	-10.4005
makta	-10.4006
CA	-10.4007
▁kulübü	-10.4008
▁bilir	-10.4008
▁Hong	-10.4009
▁Siz	-10.401
▁çekmek	-10.4012
▁manevi	-10.402
▁düştüğü	-10.4021
▁gösterilen	-10.4023
▁yürüten	-10.4024
▁borcu	-10.4024
▁iddiaları	-10.4026
▁düşünme	-10.4027
▁çektiği	-10.4027
▁aydır	-10.4029
▁istendi	-10.4029
▁oynuyor	-10.403
▁işkence	-10.4032
▁mesela	-10.4032
▁vali	-10.4035
▁sürecinin	-10.4043
▁Hikmet	-10.4045
▁yolunu	-10.4048
umu	-10.4049
▁geçmek	-10.4049
▁atık	-10.4054
▁çağdaş	-10.4058
▁Erdal	-10.4059
▁Bel	-10.4059
larken	-10.406
▁üste	-10.4062
▁turu	-10.4062
▁Dil	-10.4063
sar	-10.4064
▁özgürlük	-10.4065
▁altındaki	-10.4069
dy	-10.4071
▁futbolcuları	-10.4075
▁kimin	-10.4079
bek	-10.4079
▁Kır	-10.4084
▁uçağın	-10.4085
▁katlı	-10.4087
larındaki	-10.4087
▁aktar	-10.4088
▁üyelik	-10.4088
▁lüks	-10.4089
▁43	-10.4093
▁hayati	-10.4094
▁ilişkiler	-10.4099
emeyen	-10.41
▁tut	-10.4106
▁talimat	-10.4107
▁hacmi	-10.4108
▁Başkanvekili	-10.4109
dil	-10.4112
▁yaptım	-10.4114
▁davranış	-10.4118
▁Siyasi	-10.4121
▁ihtimali	-10.4124
til	-10.4125
▁sürücüsü	-10.4125
lem	-10.4126
▁katil	-10.413
▁Dağ	-10.4135
▁ürünü	-10.4137
▁uç	-10.4147
▁Pınar	-10.4148
▁savaşın	-10.415
!..	-10.4155
▁İzmirli	-10.4157
▁bulmak	-10.4157
▁Kaymakamı	-10.4169
▁sürdüğü	-10.417
▁anında	-10.4176
▁giriyor	-10.4177
▁gözlem	-10.4178
▁garanti	-10.4179
▁acaba	-10.418
▁belirledi	-10.4187
▁sekiz	-10.4188
▁fuar	-10.4189
gil	-10.4192
▁kupa	-10.4194
▁af	-10.4198
▁Tom	-10.4203
▁mavi	-10.4204
▁eli	-10.4208
▁Batman	-10.4208
▁Tekin	-10.4208
▁paralel	-10.4209
84	-10.421
▁yazan	-10.421
▁Gar	-10.4214
▁oynanacak	-10.4216
▁sezonun	-10.4217
▁maçının	-10.4217
▁uzat	-10.4218
▁700	-10.4222
BA	-10.4223
▁haksız	-10.4228
▁oluşturan	-10.423
▁kaynakları	-10.4232
off	-10.4233
▁şehrin	-10.4233
▁bayan	-10.4233
▁imam	-10.4234
▁isyan	-10.4236
araya	-10.4237
▁am	-10.424
▁etnik	-10.424
zan	-10.4241
▁emek	-10.4242
▁çalıştıklarını	-10.4243
▁dünkü	-10.4243
▁uzmanı	-10.4245
▁metro	-10.4248
▁Umut	-10.4248
▁çözümü	-10.4249
maları	-10.4252
▁şunu	-10.4254
▁çıkmak	-10.4255
▁Öğretim	-10.4256
▁işçiler	-10.4259
▁demektir	-10.4261
▁Robert	-10.4262
nızda	-10.4265
▁oranının	-10.4267
▁Alınan	-10.4268
▁yükselen	-10.4268
▁duyduğunu	-10.4271
▁verdik	-10.4272
▁gönül	-10.4273
▁olduğumuz	-10.4274
▁çeyrek	-10.4279
▁otopsi	-10.4279
leş	-10.428
▁sayısında	-10.4282
▁Microsoft	-10.4282
▁oturma	-10.4283
▁sorunların	-10.4284
▁kurduğu	-10.4288
▁Yayın	-10.4291
▁yaşamak	-10.4292
▁gül	-10.4293
TO	-10.4293
▁düzen	-10.4294
▁yöneticiler	-10.4294
▁Kitap	-10.4299
▁Yatırım	-10.4304
▁Telekom	-10.4305
▁suçu	-10.4316
▁miktar	-10.4321
▁Lübnan	-10.4321
kü	-10.4322
meyi	-10.4324
▁geçerek	-10.4326
▁yasağı	-10.4328
▁mekan	-10.4329
▁bekleme	-10.433
▁harcama	-10.433
▁ücreti	-10.4335
gerçekleştirdiği	-10.4338
▁47	-10.434
▁söylemişti	-10.4345
▁tedbir	-10.4347
▁demişti	-10.4347
▁görüşmede	-10.4349
▁oyunun	-10.435
▁kazanma	-10.4352
▁rolü	-10.4358
▁Temsilcisi	-10.436
lidir	-10.4361
▁herkesi	-10.4363
▁Kor	-10.4367
▁İpek	-10.437
▁Kat	-10.4376
▁fabrika	-10.4377
▁şarap	-10.4385
▁entry	-10.4385
▁bizzat	-10.4386
▁makinesi	-10.4389
▁Ver	-10.439
▁ülkemizde	-10.4393
▁oluşturuyor	-10.4395
▁dediler	-10.4396
▁yaptır	-10.4397
▁ikisi	-10.4397
▁gerektiğine	-10.4397
▁dayanışma	-10.4398
▁düzeyinde	-10.4399
▁başlamış	-10.44
▁Bolu	-10.4404
▁görevden	-10.4408
▁Yolu	-10.4409
▁Go	-10.4411
▁Güneydoğu	-10.4412
▁vermişti	-10.4417
▁çatı	-10.4418
tık	-10.4418
RE	-10.4419
▁Engelliler	-10.4423
▁istemiyle	-10.4428
İK	-10.4434
▁Kongresi	-10.4435
yip	-10.4435
lenir	-10.4436
▁Arabistan	-10.4438
▁Sel	-10.4441
▁yetersiz	-10.4441
▁kalbi	-10.4443
lamış	-10.4445
▁Eş	-10.4447
▁sakat	-10.4448
▁çalışanları	-10.4448
▁devir	-10.4448
▁İnce	-10.4449
▁görüntüler	-10.4454
▁isabet	-10.4455
▁bulduğu	-10.4455
▁aşı	-10.446
leştirme	-10.4462
▁selam	-10.4462
▁azalt	-10.4469
▁adamlar	-10.4471
Se	-10.4472
▁yanıtını	-10.4477
▁söylemek	-10.4477
▁arsa	-10.4482
▁gösterileri	-10.4484
▁bulunmak	-10.4486
▁galip	-10.4492
▁Gölü	-10.4492
digi	-10.4497
▁bulunmadığı	-10.4498
▁112	-10.45
▁Hiç	-10.4501
▁müdür	-10.4501
▁kuruş	-10.4506
tti	-10.4507
melidir	-10.4509
▁site	-10.4511
▁gücünü	-10.4511
▁ligin	-10.4514
▁penaltı	-10.4519
abilmesi	-10.452
▁suyun	-10.4523
▁operasyonda	-10.4524
▁Polat	-10.4525
▁gördüğünü	-10.4527
▁kalır	-10.4532
▁Organize	-10.4532
UM	-10.4533
yin	-10.4544
▁Star	-10.4546
▁idi	-10.4548
▁Ci	-10.4553
▁bölgelerinde	-10.4557
▁işsizlik	-10.4558
▁emeği	-10.4561
▁buluştu	-10.4563
▁eline	-10.4564
▁karakteri	-10.4567
▁geriye	-10.4569
altı	-10.4571
▁39	-10.4572
▁farkında	-10.4573
▁yedek	-10.4573
▁sigorta	-10.4574
▁oluşturulan	-10.4575
▁şehri	-10.4579
tiği	-10.4583
▁belirlenmesi	-10.4585
▁Ti	-10.4585
▁şampiyonu	-10.4585
Do	-10.4585
▁Serkan	-10.4588
▁dostluk	-10.4588
▁ürünlerin	-10.459
▁bine	-10.4591
▁izleyici	-10.4596
TAN	-10.4597
▁Oscar	-10.46
▁kağıt	-10.46
▁sor	-10.4602
▁önemi	-10.4603
Dr	-10.4607
▁futbolcuların	-10.4612
35	-10.4615
▁Babacan	-10.4615
▁yapısı	-10.4617
▁milletin	-10.4619
▁işleme	-10.4623
▁Yer	-10.4623
▁Aslında	-10.4624
▁satan	-10.4627
bra	-10.4628
▁saldırıda	-10.4629
▁okuyan	-10.463
▁yöntem	-10.4632
▁götür	-10.4633
▁noktaya	-10.4638
▁Hatay	-10.4639
▁karıştı	-10.464
ham	-10.4645
▁ismini	-10.4648
uş	-10.4652
▁törende	-10.4652
▁dost	-10.4656
Ya	-10.4659
▁düş	-10.4661
luğa	-10.4666
▁Adayı	-10.467
▁performansı	-10.467
▁alıcı	-10.4671
▁Müzik	-10.4674
▁yaşadıkları	-10.4674
▁ca	-10.4676
▁oyuncunun	-10.4678
▁milyonlarca	-10.4687
▁girişimi	-10.4689
▁vücut	-10.469
▁Coşkun	-10.4696
▁Volkan	-10.4696
▁dayan	-10.4697
▁ocak	-10.4701
▁pozisyon	-10.4701
ja	-10.4702
▁indi	-10.4704
▁zorlu	-10.4705
▁kurumlar	-10.4706
▁Neden	-10.4706
▁Oyuncu	-10.4709
▁özgür	-10.471
▁riski	-10.4712
▁binanın	-10.4714
▁konunun	-10.4717
▁yapılacağını	-10.4718
hal	-10.4718
▁verimli	-10.4719
don	-10.4721
▁Şenol	-10.4726
▁düşünüyoruz	-10.4727
▁denk	-10.473
▁memleketi	-10.4731
▁koyun	-10.4737
▁bireysel	-10.4738
▁veriliyor	-10.4739
▁yardımıyla	-10.474
▁isteme	-10.475
▁taraftan	-10.4752
▁şikayetçi	-10.4754
▁oranda	-10.4755
ts	-10.4759
Tİ	-10.4768
▁kişiden	-10.4778
▁somut	-10.4779
ebileceğini	-10.4779
amıyor	-10.478
▁hırsızlık	-10.4781
ılıp	-10.4782
▁tuz	-10.4783
▁49	-10.4786
▁kaybetme	-10.4787
▁koşulları	-10.4788
öz	-10.479
▁İsveç	-10.479
▁geçer	-10.4805
▁1000	-10.4805
▁Atina	-10.4807
▁BDP	-10.4808
▁degil	-10.481
lıdır	-10.4818
▁İn	-10.482
▁getirecek	-10.4821
▁gecesi	-10.4822
▁Ercan	-10.4825
▁başar	-10.4826
▁Par	-10.4827
▁Karaman	-10.4833
▁ilçesine	-10.4833
▁şair	-10.4834
▁Bekir	-10.4836
▁kutlama	-10.4838
▁Konferansı	-10.4839
▁değişim	-10.4842
▁Tarih	-10.4847
arı	-10.4849
▁Ed	-10.4852
▁kadınlara	-10.4854
▁örneği	-10.4854
▁şirketlerin	-10.4855
▁Acar	-10.4855
▁futbolcunun	-10.4856
▁makam	-10.4857
▁imar	-10.4857
▁kardeşim	-10.4861
▁Direktör	-10.4861
▁göstermek	-10.4861
▁geldik	-10.4862
▁Dava	-10.4863
▁Celal	-10.4864
▁şekil	-10.4866
▁Gökçek	-10.4867
▁Aday	-10.4867
amayacak	-10.4867
▁yapılmasını	-10.4868
▁buz	-10.487
▁kökenli	-10.4871
▁beraberlik	-10.4875
▁şiir	-10.4875
17	-10.4876
lam	-10.4876
▁göstererek	-10.4877
▁kaldırılan	-10.4879
▁duyma	-10.488
▁izmir	-10.4885
▁askerler	-10.4885
▁yakaladı	-10.4886
▁olduğundan	-10.4887
▁sıkıntısı	-10.4888
▁paylaştı	-10.4898
▁bildiri	-10.4899
▁birşey	-10.4901
Bizim	-10.4905
▁kullanıyor	-10.4908
▁Ekonomik	-10.4911
▁düşmesi	-10.4916
▁şirketler	-10.4918
▁ekibin	-10.4918
▁Akpınar	-10.4919
▁olmuyor	-10.4923
▁Ulu	-10.4927
mü	-10.4927
▁akşamı	-10.4928
▁gömmek	-10.4932
▁verdim	-10.4933
▁Danıştay	-10.4934
Çin	-10.4934
▁Yurt	-10.4935
▁indir	-10.4936
▁mezar	-10.4939
▁bölümünü	-10.4939
▁değerlendirmesi	-10.4941
▁semt	-10.4944
▁pe	-10.4944
▁w	-10.4944
▁tabanca	-10.4946
LAN	-10.4948
▁kahraman	-10.495
sti	-10.4954
▁albümü	-10.4956
▁par	-10.496
▁Putin	-10.496
▁yapıştırın	-10.4961
18	-10.4966
▁uzmanlar	-10.4967
ros	-10.4968
▁borsa	-10.4968
▁Avcı	-10.4969
ven	-10.497
▁geliştirme	-10.497
14	-10.4972
▁düşün	-10.4973
▁Iraklı	-10.4974
▁beslenme	-10.4974
▁çiftçi	-10.4975
▁görevine	-10.4975
▁santral	-10.4975
üş	-10.4975
▁değiliz	-10.4979
▁kapsamda	-10.4981
▁Şa	-10.4982
bur	-10.4985
▁tecrübe	-10.4995
▁Ateş	-10.5001
▁moda	-10.5001
daş	-10.5002
▁Şırnak	-10.5002
▁Özerk	-10.5003
▁?	-10.5006
▁bakma	-10.5007
▁biridir	-10.5009
▁uyan	-10.5009
▁vergisi	-10.5012
▁şimdiye	-10.5014
▁geliri	-10.5018
▁çoğunluğu	-10.5019
▁gösterisi	-10.5022
NİN	-10.5024
kara	-10.5025
lerindeki	-10.5025
▁Toplantıda	-10.5026
soy	-10.5026
▁Toplantısı	-10.5027
▁olurdu	-10.5028
▁kopyalayıp	-10.5031
▁Veli	-10.5032
▁yaşadığını	-10.5033
▁Ziya	-10.5034
▁fa	-10.5035
▁bayrak	-10.5036
▁olmanın	-10.5043
▁finale	-10.5043
yer	-10.5044
▁Korkmaz	-10.5045
▁kimseye	-10.5048
yol	-10.5049
29	-10.5049
acağım	-10.505
▁piyasada	-10.5058
▁geliştirilmesi	-10.506
▁Real	-10.5064
▁önündeki	-10.5069
▁açıklamalar	-10.5069
malıdır	-10.5073
▁geçmişte	-10.5078
▁hepimiz	-10.5079
▁Sahil	-10.508
▁törenle	-10.5083
▁müziği	-10.5085
syon	-10.5086
▁Cemil	-10.5094
▁tuvalet	-10.5095
▁denge	-10.5098
▁Rıza	-10.5102
▁yatak	-10.5104
▁haberde	-10.5107
▁aksine	-10.5108
▁Limanı	-10.5108
▁birimleri	-10.5109
▁x	-10.5109
▁Silahlı	-10.5109
▁başlangıç	-10.5111
duğu	-10.5114
▁öde	-10.5118
▁günümüzde	-10.5118
▁laik	-10.512
22	-10.5121
▁temizlik	-10.5122
▁ayrılma	-10.5126
▁istanbul	-10.5127
▁tanesi	-10.5132
▁etmedi	-10.5132
▁tarihte	-10.5133
▁istemiyorum	-10.5134
▁yeme	-10.5134
▁men	-10.5135
▁artır	-10.5135
▁Kaide	-10.5137
▁fikri	-10.5142
▁Borsa	-10.5142
▁tel	-10.5142
▁taşıdığı	-10.5145
▁seçin	-10.5146
▁Bayraklı	-10.515
▁raporda	-10.5156
▁Toplam	-10.5156
lamaya	-10.5157
▁kalmadı	-10.5157
▁Ger	-10.5158
▁go	-10.5161
▁yüklü	-10.5162
▁Hafta	-10.5163
▁bilgisi	-10.5168
▁Selim	-10.517
laş	-10.517
▁üyeliği	-10.5172
▁sağlama	-10.5173
▁ayağı	-10.5177
▁verip	-10.5178
yarak	-10.5184
▁Sar	-10.5188
▁oraya	-10.5188
▁bakın	-10.5191
▁yön	-10.5192
▁makine	-10.5193
▁yönetiminde	-10.5194
Bugün	-10.5194
liğine	-10.5197
▁yaşan	-10.5198
▁geçirme	-10.5205
▁ortağı	-10.5206
▁Musa	-10.5208
▁litre	-10.5211
▁sorusu	-10.5211
▁web	-10.5214
▁araçların	-10.5214
▁amaç	-10.5214
▁efsane	-10.5216
▁kilogram	-10.5217
▁döv	-10.5219
▁Kong	-10.5221
▁fatura	-10.5221
Son	-10.5223
▁anlamı	-10.5225
▁tarz	-10.5225
▁oyuncuların	-10.523
▁dördüncü	-10.523
▁ağırlık	-10.5231
Çok	-10.5237
▁işsiz	-10.524
▁Hizmetleri	-10.5246
▁muhteşem	-10.5246
▁otopark	-10.5246
yıp	-10.5247
▁deneyim	-10.5249
▁götürdü	-10.525
▁hayırlı	-10.5254
▁günün	-10.5255
▁konferans	-10.5256
▁tutma	-10.5258
▁harika	-10.5261
▁öğrenim	-10.5262
▁şimdiden	-10.5263
▁seks	-10.5265
emedi	-10.5265
▁vurgulandı	-10.5269
▁Mali	-10.5271
▁çekme	-10.5271
gun	-10.5273
las	-10.5273
▁ad	-10.5274
▁sorumlusu	-10.5275
▁direktörü	-10.5276
▁kültürü	-10.5276
▁akp	-10.5279
▁ho	-10.528
▁uğraş	-10.5281
▁Turgut	-10.5285
▁gönder	-10.5285
▁buradaki	-10.5289
meden	-10.5295
▁Tu	-10.5298
▁almayı	-10.5298
▁In	-10.5299
▁festival	-10.5303
▁kulübe	-10.5304
bı	-10.5305
üs	-10.5305
aç	-10.5306
▁Sivasspor	-10.5306
▁şişe	-10.5309
▁stat	-10.5313
▁baraj	-10.5314
▁tarihinin	-10.5318
▁açığı	-10.5319
▁fiziksel	-10.532
lendiği	-10.532
▁paylaşım	-10.5321
▁plana	-10.5324
▁filmleri	-10.5326
▁koyduğu	-10.5329
▁duran	-10.5336
▁babasının	-10.5337
▁listesinde	-10.5337
eh	-10.5338
▁ortamı	-10.534
ers	-10.5341
▁Sol	-10.5343
▁markası	-10.5344
▁dönme	-10.5346
▁devri	-10.5346
demir	-10.5347
▁planları	-10.5347
▁söyle	-10.5347
▁hatırlatarak	-10.5349
▁Önder	-10.5349
asyon	-10.535
▁Mahalle	-10.5352
▁çıkarıldı	-10.5354
▁aktaran	-10.5355
iliyor	-10.5355
▁ilerleyen	-10.5356
The	-10.5357
▁kaygı	-10.536
▁derdi	-10.536
▁sayısını	-10.5361
▁he	-10.5365
rim	-10.5365
▁bitirdi	-10.5367
▁Mor	-10.5372
▁Çakır	-10.5374
▁Orada	-10.5375
▁Sorumlu	-10.5375
▁araçları	-10.5379
▁vatandaşları	-10.5379
▁insanlık	-10.538
▁zemin	-10.5382
▁benzin	-10.5383
▁Savcı	-10.5383
▁güneyinde	-10.5386
▁seçme	-10.5386
▁yüzünü	-10.5386
▁yöneticisi	-10.5386
▁Camii	-10.539
▁görüyoruz	-10.5396
chi	-10.5399
▁haberleri	-10.5401
imizi	-10.5405
▁Bahar	-10.5413
▁verirken	-10.5414
▁yenilgi	-10.5416
▁Doğru	-10.5417
▁Pro	-10.5418
▁yen	-10.542
▁hazırlıklarını	-10.5424
▁birden	-10.543
▁filan	-10.5433
▁haklarını	-10.5433
▁yaşamı	-10.5435
▁yetkilisi	-10.5438
şar	-10.5439
▁taraftarı	-10.5439
▁Taksim	-10.5441
EM	-10.5449
▁oluştu	-10.545
▁oradan	-10.5452
▁maçları	-10.5452
SE	-10.5453
▁Kanal	-10.5455
▁sakinleri	-10.5457
▁Üstelik	-10.5458
▁ağrı	-10.5458
▁grupların	-10.5463
▁vize	-10.5463
▁Ek	-10.5465
▁müzakere	-10.547
▁ömür	-10.5474
▁aşamada	-10.5477
▁eti	-10.5477
▁fon	-10.5481
▁forvet	-10.5481
▁programında	-10.5485
▁tutum	-10.5485
▁değiştirme	-10.5485
▁Hal	-10.5486
▁olmazsa	-10.5489
▁tamamlandı	-10.5493
▁gündüz	-10.5496
▁aklı	-10.5498
▁tutarı	-10.5498
▁2-0	-10.5498
▁ekonomisi	-10.5504
“	-10.5508
▁mücadelede	-10.5508
ili	-10.5509
top	-10.5512
▁sunulan	-10.5512
▁yargılama	-10.5514
▁tamamı	-10.5515
▁kolları	-10.5515
▁aşamasında	-10.5521
▁dönemlerde	-10.5521
▁gir	-10.5524
▁artıyor	-10.5526
▁HDP	-10.5527
gal	-10.5531
▁yukarı	-10.5531
▁kısım	-10.5533
▁seven	-10.5534
95	-10.5534
▁EN	-10.5535
▁arayan	-10.5536
▁yöre	-10.5537
▁bini	-10.5538
24	-10.5539
▁mesafe	-10.554
▁küfür	-10.554
▁arıza	-10.5542
▁sporcular	-10.5548
▁seçimlerinde	-10.5548
▁kullanılır	-10.5549
▁ediyorlar	-10.5551
▁gelecekte	-10.5553
▁askerlerin	-10.5553
▁filmler	-10.5553
▁sebebiyle	-10.5554
▁Not	-10.5554
▁kamuoyuna	-10.5554
▁köpek	-10.556
▁evden	-10.556
▁Soruşturma	-10.5561
ladığını	-10.5566
ımızın	-10.5568
▁Bas	-10.5569
▁ihmal	-10.557
▁olduğum	-10.5571
▁özgü	-10.5571
▁bilme	-10.5573
Ta	-10.5573
▁giyim	-10.5578
ACAK	-10.5579
▁başlama	-10.558
▁olmasın	-10.5583
▁bulunma	-10.5584
▁sanırım	-10.5586
▁konular	-10.5587
▁İşçi	-10.5588
▁Karşı	-10.5589
▁Alan	-10.5589
Dk	-10.5592
▁minik	-10.5592
mden	-10.5593
▁tepe	-10.5594
▁seçimleri	-10.5595
▁olmasından	-10.5597
▁toz	-10.5599
▁vatandaşlara	-10.5599
▁siyasal	-10.56
▁belirtirken	-10.5601
zo	-10.5601
▁TRT	-10.5601
mediği	-10.5604
▁yerleri	-10.5608
▁metrekarelik	-10.561
▁yöntemi	-10.5611
we	-10.5612
▁2'	-10.5615
İŞ	-10.5616
▁ölümü	-10.5617
▁duyurusunda	-10.5617
▁yavru	-10.5619
▁açı	-10.5623
▁personeli	-10.5623
org	-10.5628
▁ekonomisinin	-10.563
▁şekli	-10.5631
öl	-10.5631
▁Ailesi	-10.5632
▁yapacağını	-10.5633
▁etkinlikleri	-10.5633
mesine	-10.5634
▁CD	-10.5636
▁amaçla	-10.5637
37	-10.5637
▁bo	-10.5638
83	-10.5639
mın	-10.564
▁sistemleri	-10.5642
▁göçmen	-10.5647
‘	-10.5647
ilecek	-10.5647
▁Ladin	-10.5648
▁Şirketi	-10.5655
▁tarla	-10.5656
lt	-10.5656
Ancak	-10.5659
▁görüşlerini	-10.5659
▁zeytin	-10.566
▁yaklaşım	-10.5663
▁Elektrik	-10.5665
▁Olayla	-10.5666
▁eserleri	-10.5666
▁düşünen	-10.5667
▁tıp	-10.5667
▁Sch	-10.5668
tım	-10.5668
▁emri	-10.5673
▁çıkardığı	-10.5673
▁İşletme	-10.5674
▁yakıt	-10.5676
▁panel	-10.5678
▁İnan	-10.568
AŞ	-10.568
sey	-10.5683
▁54	-10.5683
▁ailesine	-10.5684
▁yıllarında	-10.5685
▁istemiyor	-10.5686
▁gözler	-10.5691
▁ağırlıklı	-10.5695
▁örgütleri	-10.5695
▁2.5	-10.5697
▁dağıt	-10.5698
▁eyaletinde	-10.5698
▁eşya	-10.57
▁kişilere	-10.57
tra	-10.5709
NE	-10.571
▁parmak	-10.5711
▁oluşuyor	-10.5712
layıcı	-10.5712
luyor	-10.5712
▁sandık	-10.5714
nd	-10.5716
▁Kazan	-10.5717
▁havaya	-10.5719
▁anlayış	-10.5722
▁tamamlanması	-10.5723
▁Erzincan	-10.5724
▁cumhuriyet	-10.5726
▁atama	-10.5727
▁inşaatı	-10.5729
▁havuz	-10.573
▁buluşma	-10.5731
▁masaya	-10.5733
▁arıyor	-10.5734
▁konuları	-10.5736
▁Nehri	-10.5737
▁Sarıgül	-10.5738
▁teknolojisi	-10.5739
▁önemine	-10.5741
▁minibüs	-10.5742
▁56	-10.5742
imize	-10.5743
▁diğeri	-10.5746
▁oynamak	-10.5748
▁tarihlerinde	-10.575
▁Fu	-10.5752
MAN	-10.5754
▁işçilerin	-10.5757
▁Hiçbir	-10.5758
▁63	-10.5763
▁sağladığı	-10.5764
▁tasarı	-10.5764
▁kapsayan	-10.5767
▁önünü	-10.5768
▁bildiren	-10.577
▁gelişmesi	-10.5771
▁düz	-10.5771
▁Belki	-10.5773
ril	-10.5782
ian	-10.5784
▁Olimpiyatları	-10.5789
Kur	-10.5793
▁filminde	-10.5794
▁Yaşam	-10.5795
▁kanı	-10.5796
▁yazılım	-10.5796
▁sayın	-10.5797
▁davada	-10.5798
▁icra	-10.5802
▁sistemin	-10.5803
▁Sınır	-10.5806
▁kuvvetli	-10.5806
▁duyarlı	-10.5806
▁kapattı	-10.5808
▁desteğiyle	-10.5808
laması	-10.5808
▁göl	-10.5809
▁okulda	-10.581
▁metal	-10.5813
▁Emine	-10.5814
▁Or	-10.5816
▁zafer	-10.5818
▁diledi	-10.5819
ildiği	-10.5824
▁ilave	-10.5824
▁Ada	-10.5825
▁yaşadıklarını	-10.5826
tek	-10.5828
▁saatlerde	-10.5828
ÜN	-10.5829
▁saçma	-10.5829
▁döner	-10.5832
▁kararlar	-10.5834
▁sürdüğünü	-10.5834
ong	-10.5841
▁belirtiyor	-10.5843
▁İlişkiler	-10.5844
▁Şah	-10.5844
DHA	-10.5845
▁Maç	-10.5846
laştırma	-10.5847
▁değişen	-10.5847
lanıp	-10.5849
▁imkan	-10.5849
▁Kış	-10.5854
▁1997	-10.5854
▁sik	-10.5856
▁dürüst	-10.5859
▁mülteci	-10.586
▁...	-10.5861
-3	-10.5862
Şu	-10.5862
▁gelme	-10.5864
▁birimi	-10.5865
leştir	-10.5865
▁İMKB	-10.5872
▁zirve	-10.5873
res	-10.5874
▁bölgesel	-10.588
▁karşıtı	-10.588
▁Karşılaşma	-10.5881
▁kente	-10.5883
▁olabilecek	-10.5883
▁girip	-10.5892
▁MİT	-10.5895
▁Kadıköy	-10.5895
lediği	-10.5897
▁istedikleri	-10.5899
▁kesme	-10.5901
ou	-10.5904
larımıza	-10.5904
▁Birçok	-10.5905
▁mesai	-10.5906
▁kapasite	-10.5907
▁85	-10.5913
▁anti	-10.5913
lerimize	-10.5915
▁yönlendir	-10.5915
tör	-10.5919
ant	-10.592
▁taze	-10.5924
▁Ye	-10.5927
▁okur	-10.5927
▁kut	-10.5929
▁sil	-10.5931
▁ulaşıl	-10.5939
▁gitmesi	-10.5941
▁Eroğlu	-10.5942
▁zira	-10.5945
▁muhabiri	-10.5946
▁FOTO	-10.5947
DU	-10.5949
▁edilmiştir	-10.595
▁bunlara	-10.595
▁Büyükelçi	-10.5951
▁Ter	-10.5954
▁Kum	-10.5956
▁Hastane	-10.5956
Ama	-10.5959
▁çağ	-10.596
▁Yücel	-10.5961
▁öğren	-10.5961
ali	-10.5962
▁gösterdiğini	-10.5963
▁başlığı	-10.5967
▁Gaziemir	-10.5968
▁inanılmaz	-10.5968
▁korsan	-10.5968
▁denilen	-10.5969
▁süresince	-10.597
▁şirketleri	-10.5972
▁Bank	-10.5973
lacak	-10.5974
▁edeceklerini	-10.5974
▁çocuklarının	-10.5976
▁inanç	-10.5979
▁Partili	-10.598
▁taşın	-10.598
▁yay	-10.598
▁anlaş	-10.5982
▁Tolga	-10.5983
Irak	-10.5984
▁Kırmızı	-10.5985
▁hanım	-10.5985
▁Wang	-10.5985
▁muhalif	-10.5992
▁kalkınma	-10.5994
ücü	-10.5997
▁Zeynep	-10.5999
▁otomatik	-10.5999
▁tecrübeli	-10.6001
▁Yazı	-10.6004
▁Esnaf	-10.6004
▁buluyor	-10.6013
▁BA	-10.6015
▁Rize	-10.6017
▁yatırımlar	-10.6019
▁sektörün	-10.6019
▁Romanya	-10.6019
▁Mumcu	-10.603
▁kömür	-10.603
▁şeye	-10.6033
▁binasında	-10.6034
▁53	-10.6034
İT	-10.6036
▁II	-10.6037
▁Emekli	-10.6038
▁arkadaşlarım	-10.6039
▁Banka	-10.6043
lıyız	-10.6043
▁süreyle	-10.6047
ep	-10.6047
▁unutma	-10.6048
▁Hakkı	-10.6049
▁kendisinden	-10.605
▁Tar	-10.6052
▁Karaca	-10.6053
▁saldırısı	-10.6056
▁göze	-10.6056
▁İŞ	-10.6056
▁kullanıldığı	-10.6059
▁takdir	-10.6061
▁Teşkilatı	-10.6061
▁görüşünü	-10.6062
▁filminin	-10.6064
ty	-10.6064
▁ulaşmak	-10.6067
▁çare	-10.6067
▁vi	-10.6069
▁ülkesi	-10.607
▁bizden	-10.607
▁MA	-10.6071
▁Evi	-10.6073
▁Del	-10.6073
▁ah	-10.6075
▁Körfez	-10.6079
▁yenerek	-10.6079
leyerek	-10.608
▁elbise	-10.6083
▁bilin	-10.6083
tro	-10.6084
▁üstün	-10.6084
▁yiyecek	-10.6091
▁Uzmanlar	-10.6092
▁maliyeti	-10.6093
layın	-10.6094
nize	-10.6094
▁sahiptir	-10.6095
▁bilgilendirme	-10.6097
▁yolculuk	-10.61
▁yeter	-10.6107
▁eleme	-10.6111
▁Teknoloji	-10.6113
▁subay	-10.6116
AS	-10.6124
▁dünyasının	-10.6124
▁Alsancak	-10.6129
▁tarihe	-10.6129
▁Gençlerbirliği	-10.6132
▁gündem	-10.6134
▁Sha	-10.6138
▁maliyet	-10.614
▁uydu	-10.6143
of	-10.6143
▁1'	-10.6143
82	-10.6145
▁Google	-10.6146
▁Hülya	-10.6146
Dünya	-10.6149
▁ülkelere	-10.615
▁faydalı	-10.615
luğunu	-10.615
▁Okan	-10.6151
▁sınırı	-10.6156
riz	-10.6159
▁uyarınca	-10.6159
▁kaybettiği	-10.6161
▁Sağ	-10.6167
▁Tiyatrosu	-10.6167
▁görevinden	-10.617
▁dünyadaki	-10.6171
▁doğalgaz	-10.6173
▁verildiğini	-10.6173
▁kapatılması	-10.6181
▁oluşturdu	-10.6183
▁özgürlüğü	-10.6183
▁yetkisi	-10.6187
▁Fonu	-10.6187
▁kalmak	-10.6188
▁gayret	-10.6189
▁İhale	-10.6189
▁oyuna	-10.6191
▁yanıtlayan	-10.6192
▁yararlı	-10.6192
abi	-10.6195
▁desteğini	-10.6196
▁koşu	-10.6198
yalım	-10.6198
▁ayır	-10.6205
▁Program	-10.6206
▁bunlardan	-10.6206
▁ekran	-10.6206
▁bölümünün	-10.6208
▁Petrol	-10.621
▁mensupları	-10.6212
▁baskın	-10.6216
▁Toto	-10.6217
▁Necdet	-10.622
▁Atilla	-10.622
▁Önceki	-10.622
▁önlemek	-10.6222
▁Fuar	-10.6222
▁sey	-10.6226
▁kura	-10.6233
▁gidil	-10.6234
tma	-10.6236
▁aşık	-10.6239
▁Hoca	-10.624
▁salonunda	-10.6244
▁atıyor	-10.6246
▁Bak	-10.6249
kta	-10.6251
leyip	-10.6251
▁ö	-10.6251
▁düzeni	-10.6252
▁Konser	-10.6252
▁çanta	-10.6254
▁duygusal	-10.6254
bb	-10.6256
▁doğumlular	-10.6256
▁beklediklerini	-10.6262
▁doku	-10.6263
▁hayran	-10.6264
▁düzenlemeler	-10.6265
▁pat	-10.6265
▁adımlar	-10.6265
▁kararına	-10.6268
▁paketi	-10.6268
▁işten	-10.6269
▁Sev	-10.6271
▁Deprem	-10.6276
▁YÖK	-10.6279
mik	-10.6279
▁şoförü	-10.6282
om	-10.6284
▁James	-10.6285
▁Wen	-10.6286
Avrupa	-10.6287
▁listesi	-10.629
▁strateji	-10.6294
▁sürecin	-10.6295
ruk	-10.6299
▁sayede	-10.6301
▁sözler	-10.6301
▁Fi	-10.6303
▁kodu	-10.6303
▁süreli	-10.6304
▁kod	-10.6309
▁derecede	-10.6311
▁teşkilat	-10.6311
▁arttığını	-10.6313
▁yaşandığını	-10.6314
ebilmek	-10.6315
▁düştüğünü	-10.6316
▁sıradan	-10.6316
▁avrupa	-10.6316
▁faizi	-10.6317
▁hariç	-10.6317
▁odaklan	-10.6317
DER	-10.632
▁Adı	-10.6322
▁etkisiz	-10.6323
▁tarihine	-10.6324
▁11.	-10.6325
▁organ	-10.6325
▁okulların	-10.6328
▁kasa	-10.633
düğü	-10.6331
▁isteyenler	-10.6332
▁yapacaklarını	-10.6333
▁asgari	-10.6333
▁onunla	-10.6337
larsa	-10.6338
▁faaliyetleri	-10.6338
▁hücre	-10.6346
▁öldürülmesi	-10.6348
▁tesisi	-10.6348
▁Kızılay	-10.6349
▁Karar	-10.6352
▁Temel	-10.6356
▁oynayacak	-10.6356
▁öldüğünü	-10.6357
▁ayına	-10.636
▁yoluna	-10.6361
▁yazma	-10.6362
mun	-10.6365
▁58	-10.6366
▁rahatsızlık	-10.6366
▁Savcılığı	-10.6369
▁belirleme	-10.6374
▁çekim	-10.6375
▁2-1	-10.6377
▁kaçır	-10.6378
▁62	-10.6381
▁çağrısında	-10.6382
▁blok	-10.6382
▁Am	-10.6383
▁boru	-10.6384
▁Men	-10.6386
▁sorumluluğu	-10.6395
▁gun	-10.6397
▁tekstil	-10.6398
▁adlandırılan	-10.6399
▁öldürülen	-10.6399
▁uygulamaları	-10.64
▁ku	-10.64
▁Hollywood	-10.64
▁yargılanan	-10.64
▁karayolu	-10.6401
▁yakalanan	-10.6402
28	-10.6402
lıkları	-10.6403
▁metin	-10.6403
.''	-10.6404
▁anlaşmaya	-10.6406
wa	-10.6409
▁yoksul	-10.6412
▁kaptan	-10.6415
▁1996	-10.6416
▁sıkıntılar	-10.6417
▁dinle	-10.642
▁çalışmalarında	-10.6421
▁dere	-10.6421
▁Kanada	-10.6424
▁deme	-10.6428
▁Otomobil	-10.643
▁Meksika	-10.643
▁nereye	-10.643
▁Onu	-10.6434
▁düzenlenmesi	-10.6435
tre	-10.644
▁yaşanıyor	-10.6445
▁köyü	-10.6446
▁samimi	-10.6446
▁suretiyle	-10.6446
▁sebze	-10.6446
▁yeterince	-10.6447
rit	-10.6449
▁Bugüne	-10.6449
▁özelleştirme	-10.645
▁okullarda	-10.645
▁kilise	-10.6451
▁çete	-10.6454
tis	-10.6455
▁Filmin	-10.6455
▁Bek	-10.6455
▁oranla	-10.6457
▁politikası	-10.6458
▁Hasta	-10.646
▁başvurdu	-10.646
▁İsmet	-10.6463
▁gözleri	-10.6464
▁cevabı	-10.647
▁gide	-10.6472
▁çıkaran	-10.6475
▁şampiyonluğu	-10.6476
▁Erkekler	-10.6476
▁etmiştir	-10.6477
▁ağ	-10.6478
▁Çağlayan	-10.648
▁yoldan	-10.6487
▁çalışacak	-10.6489
▁57	-10.6489
▁katliam	-10.649
▁deney	-10.649
▁dilekçe	-10.6491
zen	-10.6492
▁dal	-10.6492
▁mevki	-10.6493
▁manzara	-10.6496
▁ANAP	-10.6496
▁slogan	-10.6496
▁Tuncay	-10.6497
▁aradan	-10.6498
▁görüntüleri	-10.6501
▁geçir	-10.6502
▁Fen	-10.6502
Yİ	-10.6504
▁elindeki	-10.6506
▁sok	-10.6509
▁nüfusu	-10.6514
▁çalışırken	-10.6515
▁stres	-10.6516
▁çözül	-10.6518
amadığı	-10.6518
▁alınmış	-10.6518
▁Trafik	-10.6518
Siz	-10.6521
▁hareketi	-10.6521
▁ila	-10.6523
▁artırılması	-10.6529
▁z	-10.6531
▁bulunacak	-10.6531
▁diyorlar	-10.6532
▁Gör	-10.6532
▁duruşma	-10.6533
▁Brezilyalı	-10.6533
▁manken	-10.6533
▁yazısı	-10.6534
▁Sü	-10.6538
▁nikah	-10.6541
▁geçirmek	-10.6542
▁medyada	-10.6543
▁po	-10.6544
▁Ab	-10.6546
▁derhal	-10.6546
▁partilerin	-10.6549
▁paylaş	-10.6554
▁for	-10.6558
maması	-10.6558
▁geçme	-10.6559
▁sarf	-10.6559
▁ithal	-10.6559
▁Mark	-10.656
▁boz	-10.6561
▁esnasında	-10.6562
▁Uşak	-10.6562
▁Ce	-10.6564
▁yaklaş	-10.6571
▁yönettiği	-10.6571
▁Ban	-10.6571
rin	-10.6576
▁Sağlam	-10.6576
▁miras	-10.6578
▁servisi	-10.6579
▁açılacak	-10.658
▁girerek	-10.6581
▁koyu	-10.6581
▁oluşturma	-10.6581
▁çizen	-10.6582
▁rüşvet	-10.6584
▁Sendikası	-10.6587
▁Toplum	-10.6588
▁katılması	-10.6589
Benim	-10.6593
▁Jintao	-10.6595
▁dönük	-10.6595
▁sözleşmesi	-10.6595
mal	-10.6596
▁bakalım	-10.6598
▁kararıyla	-10.6599
▁benden	-10.66
Ge	-10.6601
▁ülkedeki	-10.6603
▁kalitesi	-10.6603
IZ	-10.6604
lerim	-10.6607
dığım	-10.6608
▁Bergama	-10.6611
▁kucak	-10.6612
▁araştırmalar	-10.6613
▁bırakıp	-10.6614
▁düşüyor	-10.6614
▁yanındaki	-10.6615
▁Barcelona	-10.6615
▁İz	-10.6619
▁ham	-10.6619
▁söyleme	-10.6621
ras	-10.6623
▁yapılır	-10.6628
▁misiniz	-10.6629
▁sözünü	-10.6631
ow	-10.6632
▁ayının	-10.6635
▁durumlarda	-10.6635
▁yapmıştı	-10.664
üstü	-10.6641
▁Arif	-10.6642
▁sevinç	-10.6647
▁çıkarılması	-10.6648
par	-10.6649
▁du	-10.665
▁cezaevinde	-10.6651
▁biçimi	-10.6653
▁BİN	-10.6653
▁toplandı	-10.6656
CI	-10.6657
▁partiler	-10.6659
▁herhalde	-10.6661
▁çıkarmak	-10.6662
▁kutsal	-10.6663
▁üreten	-10.6667
▁gemisi	-10.6669
▁açıklanan	-10.6672
▁kare	-10.6673
ft	-10.6681
lerce	-10.6682
▁YA	-10.6684
▁Hak	-10.6686
▁Suç	-10.6687
▁dön	-10.6689
▁Beni	-10.6691
▁3'	-10.6694
▁Şükrü	-10.6695
▁dert	-10.6696
▁görüşmelerin	-10.6696
▁kaynaklar	-10.6697
pınar	-10.67
▁Platformu	-10.6701
▁ç	-10.6702
diğimiz	-10.6702
▁sorular	-10.6703
▁v	-10.6705
▁Power	-10.6712
▁Bulut	-10.6713
▁rengi	-10.6713
▁kurulacak	-10.6716
▁YENİ	-10.6717
zar	-10.672
car	-10.6723
▁Plan	-10.6725
▁müthiş	-10.6728
▁bizler	-10.6731
▁sıcaklık	-10.6731
▁Annan	-10.6731
▁maçına	-10.6732
▁konudaki	-10.6734
▁ısınma	-10.6734
▁taşıdı	-10.6735
▁musunuz	-10.6736
▁oluşturmak	-10.6738
▁halı	-10.6741
▁seminer	-10.6744
▁iftar	-10.6745
▁Blair	-10.6745
▁öldürdü	-10.6746
gerçekleştirildi	-10.6748
▁habere	-10.6752
▁ortaklık	-10.6752
▁seçmen	-10.6752
▁ihracatı	-10.6756
▁Alex	-10.676
ılırken	-10.676
▁ağabeyi	-10.6764
▁programına	-10.6768
▁tüketim	-10.6769
EK	-10.6769
▁Gerçek	-10.6772
▁olaydan	-10.6775
-2	-10.6776
▁yasası	-10.6776
bri	-10.6777
▁Paul	-10.6778
▁defalarca	-10.678
▁59	-10.6781
aba	-10.6782
▁Antalyaspor	-10.6787
▁siyasetçi	-10.6788
▁şoför	-10.6793
▁Büyükelçiliği	-10.6794
07	-10.6794
▁denir	-10.6802
▁dalında	-10.6802
▁Sam	-10.6803
▁karış	-10.6811
▁yanısıra	-10.6813
▁Ağrı	-10.6813
▁edilmesini	-10.6816
▁Tiyatro	-10.6818
▁sınıfı	-10.6818
Ankara	-10.682
IYOR	-10.6821
▁koyma	-10.6823
▁HSYK	-10.6824
▁atıldı	-10.6824
▁mart	-10.6824
▁soruya	-10.6826
▁görsel	-10.6826
▁birine	-10.6826
▁Kolları	-10.6827
▁zehir	-10.6829
▁yürüdü	-10.683
▁taksit	-10.6832
▁Gümrük	-10.6833
▁itibarıyla	-10.6834
▁eleman	-10.6835
▁Öyle	-10.6835
▁ödülünü	-10.6839
▁saati	-10.6841
▁gelmişti	-10.6843
▁uyardı	-10.6844
▁Hayat	-10.6844
▁başrol	-10.6846
paşa	-10.6846
▁ili	-10.6846
▁Vural	-10.6848
▁haftalık	-10.6848
▁antik	-10.6849
▁uygulan	-10.685
▁play	-10.6851
▁Kurtuluş	-10.6851
▁saatlik	-10.6859
▁gelmedi	-10.6862
▁göğüs	-10.6864
▁Ürdün	-10.6864
▁Ekrem	-10.6864
▁bilinmeyen	-10.6864
sim	-10.6865
▁gelişen	-10.6868
▁vicdan	-10.6872
▁kıyafet	-10.6875
stan	-10.6875
▁bes	-10.6875
▁şartları	-10.6876
▁cumartesi	-10.6881
▁işbirliğinin	-10.6883
▁Üst	-10.6884
▁sakatlığı	-10.6886
İlk	-10.6887
▁KO	-10.6887
▁sevdiği	-10.6888
hil	-10.6888
▁başladık	-10.6892
99	-10.6892
▁firmanın	-10.6892
▁kuran	-10.6894
▁hastası	-10.6894
ds	-10.6898
kça	-10.6898
▁Hizmet	-10.6903
▁Yardım	-10.6904
▁l	-10.6904
▁platform	-10.6904
▁ş	-10.6906
▁Kamil	-10.6906
▁kanat	-10.6907
▁hizmetler	-10.6908
▁isten	-10.6908
üne	-10.6916
IL	-10.6917
▁tutar	-10.6919
▁hayatın	-10.6919
▁krizin	-10.6919
▁köyünde	-10.6921
▁kum	-10.6921
posta	-10.6924
▁babam	-10.6925
▁savaşa	-10.6925
▁seçime	-10.6925
▁Komisyon	-10.693
▁köylü	-10.6932
▁çabuk	-10.6932
▁sürecini	-10.6933
▁SANA	-10.6936
▁verilerine	-10.6937
tion	-10.6938
▁Kuş	-10.6938
▁ülkelerinin	-10.6948
nik	-10.6952
▁seviyorum	-10.6952
▁etmesini	-10.6952
▁kararları	-10.6954
▁ticareti	-10.6956
▁yak	-10.6958
▁doğumlu	-10.6959
▁oluşturulması	-10.6959
▁grev	-10.696
▁Eli	-10.6962
▁72	-10.6968
▁sahası	-10.6978
▁Cemal	-10.698
▁Mimar	-10.698
▁dek	-10.6982
▁bölgesindeki	-10.6983
▁biliniyor	-10.6984
▁Kaplan	-10.6986
▁imzaladı	-10.6986
ET	-10.699
▁insana	-10.6991
▁kararlı	-10.6991
▁damar	-10.6993
▁Doğa	-10.6993
▁sistemine	-10.6995
▁denetimi	-10.6995
▁mes	-10.6996
▁röportaj	-10.6997
▁tavrı	-10.6998
alı	-10.7
▁beden	-10.7001
▁durumları	-10.7001
▁hayatına	-10.7003
▁market	-10.7003
▁81	-10.7004
▁Ergin	-10.7004
NIN	-10.7005
baba	-10.7006
▁Yabancı	-10.7007
tığını	-10.7007
▁pi	-10.7009
▁Kap	-10.701
▁koltuk	-10.7013
▁Sağlığı	-10.7013
▁artışla	-10.7015
▁bırakan	-10.7016
▁Önemli	-10.7016
▁Yiğit	-10.7019
▁istediğiniz	-10.702
▁garip	-10.702
▁peşinde	-10.702
96	-10.7021
▁Der	-10.7029
▁yemin	-10.703
▁Turkcell	-10.7036
▁yetiştir	-10.7036
▁aşama	-10.7038
▁çağırdı	-10.7038
▁gazetesinin	-10.704
▁yaptılar	-10.7041
▁kullanıcı	-10.7044
▁partisinin	-10.7046
▁seçimde	-10.7047
▁gelişmeleri	-10.705
likten	-10.705
▁geliştir	-10.7054
▁AŞ	-10.7056
▁geriledi	-10.7057
▁firmaların	-10.7059
▁ilke	-10.7061
▁önemlidir	-10.7062
ümüz	-10.7067
ec	-10.7069
mediğini	-10.707
▁Demokrasi	-10.707
▁açmak	-10.7071
▁tamamlayan	-10.7073
▁etmiyor	-10.7074
▁seti	-10.7075
▁ölçü	-10.7075
▁girer	-10.7076
▁doğdu	-10.7078
▁nesil	-10.7079
▁budur	-10.7082
▁aradı	-10.7083
▁AN	-10.7088
▁güvence	-10.709
berg	-10.709
▁kazanç	-10.7094
▁Birlik	-10.7097
Sayın	-10.7098
▁hüküm	-10.7098
▁uyumlu	-10.7099
▁Taner	-10.7099
08	-10.7102
▁hassas	-10.7105
GE	-10.7108
▁istedik	-10.7109
▁maçtan	-10.7113
▁sistemini	-10.7113
▁Kas	-10.7116
▁şebeke	-10.7116
▁Adası	-10.712
▁kıl	-10.7122
▁ülkelerden	-10.7123
▁öngören	-10.7125
▁haftasında	-10.7126
▁kalkan	-10.7129
▁Fotoğraf	-10.7132
▁geldim	-10.7136
▁Kendisi	-10.7137
▁Erkek	-10.7142
▁tanrı	-10.7143
▁aileleri	-10.7144
▁mensuplarının	-10.7146
OS	-10.7146
▁işlemlerinin	-10.7149
▁veriyoruz	-10.7153
▁yüzme	-10.7154
▁etmez	-10.7156
▁Kale	-10.7157
▁Savcısı	-10.7157
▁odası	-10.7158
▁trafiğe	-10.7158
▁işini	-10.7161
▁federasyon	-10.7163
65	-10.7164
▁Arı	-10.7166
▁gençlik	-10.7166
likle	-10.7167
▁Sinema	-10.7168
▁reddetti	-10.7169
▁has	-10.7169
▁liradan	-10.717
▁bulunmayan	-10.7173
▁emanet	-10.7176
▁64	-10.7176
▁iklim	-10.7177
▁bankacılık	-10.7177
dığımız	-10.7178
▁takımlarından	-10.7179
▁Sarkozy	-10.718
▁ailelerin	-10.718
▁Mah	-10.7181
▁zevk	-10.7181
for	-10.7182
▁paranın	-10.7185
▁etkinlikler	-10.7185
▁Devleti	-10.7185
hit	-10.7187
▁başarısız	-10.7188
▁ke	-10.7189
▁güncel	-10.7191
▁belirsiz	-10.7192
sever	-10.7197
▁soy	-10.7197
▁arayarak	-10.72
▁boşanma	-10.7201
▁ölümüne	-10.7202
▁varlığı	-10.7206
▁öğretmeni	-10.7209
▁Merkel	-10.7211
▁Dursun	-10.7212
▁pankart	-10.7216
55	-10.7216
▁Mer	-10.7217
▁AY	-10.7218
Eğer	-10.7222
▁ayrılması	-10.7226
▁yaratan	-10.7227
▁meşru	-10.7228
▁Sedat	-10.723
▁işbirliğini	-10.723
▁bok	-10.7232
▁iletti	-10.7234
▁bağlantısı	-10.7234
▁firmalar	-10.7235
85	-10.7238
▁saatleri	-10.7241
▁ifadeleri	-10.7242
▁bilmiyor	-10.7245
▁hitap	-10.7246
▁Gözaltın	-10.7247
▁oldugu	-10.7249
▁Günay	-10.7249
▁işlemler	-10.7249
27	-10.7251
▁Büro	-10.7254
▁belediyenin	-10.7255
gın	-10.7258
76	-10.7258
RI	-10.7261
▁gecikme	-10.7261
▁özetle	-10.7262
▁tribün	-10.7263
▁düşünül	-10.7264
▁açıyor	-10.7264
▁OLDU	-10.7264
▁sokağa	-10.7264
▁adayları	-10.7265
▁etkisini	-10.7267
▁Siyah	-10.727
▁Nasıl	-10.7271
▁havada	-10.7272
▁istedim	-10.7273
▁kızım	-10.7273
▁no	-10.7274
▁müsabaka	-10.7275
▁kurucusu	-10.7275
▁durdurma	-10.7279
▁Far	-10.728
▁deri	-10.7281
▁bütçesi	-10.7283
▁git	-10.7291
▁yürüttüğü	-10.7295
kor	-10.7296
▁irade	-10.7298
lanacağı	-10.7298
▁Muammer	-10.7299
▁toplantısına	-10.73
▁kaydederek	-10.73
▁1994	-10.7301
▁tarihinden	-10.7302
▁kaya	-10.7303
▁kaynaklanan	-10.7303
hir	-10.7304
ent	-10.7304
ılmıştır	-10.7305
acaktır	-10.7306
▁verdiler	-10.7309
▁kesti	-10.7312
▁toplama	-10.7312
33	-10.7313
▁Arda	-10.7313
▁bununla	-10.7316
▁merdiven	-10.7317
▁patlayıcı	-10.7318
raf	-10.7318
▁şahit	-10.7318
▁durdurulması	-10.732
▁şaşır	-10.7323
▁durumunu	-10.7324
▁olanların	-10.7326
ble	-10.7328
▁Say	-10.7329
▁yürütme	-10.733
▁kazası	-10.7331
▁ikram	-10.7334
▁sorununun	-10.7336
▁Türkmen	-10.7336
▁bulur	-10.7336
▁Türkler	-10.7337
▁---	-10.7345
▁erkeklerin	-10.7345
miyorum	-10.7346
▁Öğrenciler	-10.7348
▁verilmesini	-10.735
▁evlerine	-10.7352
▁programları	-10.7353
▁Facebook	-10.7353
▁plaj	-10.7353
▁Pekdaş	-10.7353
▁350	-10.7355
▁artı	-10.7356
mut	-10.7358
istan	-10.7358
▁Tartan	-10.736
▁yüzyılda	-10.7361
▁belirttiler	-10.7364
▁ziyaretinde	-10.7364
▁dönüştü	-10.7366
▁ölenler	-10.7367
▁ellerinde	-10.7368
▁TE	-10.737
▁kül	-10.7372
▁Ortak	-10.7372
▁karşılaşacak	-10.7373
▁Ağar	-10.7378
De	-10.7383
▁adres	-10.7384
▁teşkilatı	-10.7384
zı	-10.7385
▁1995	-10.7391
▁adil	-10.7393
▁vereceğini	-10.7395
▁pro	-10.7395
▁Haluk	-10.7395
ime	-10.7398
▁olaya	-10.7398
▁Con	-10.74
▁bulundukları	-10.7402
ct	-10.7403
▁tehlikesi	-10.7406
▁form	-10.7407
▁hele	-10.7407
▁bulacak	-10.741
▁kurumsal	-10.7411
▁bebeğin	-10.7412
▁gittiğini	-10.7414
▁eksikliği	-10.7416
▁gösterir	-10.7416
▁bölgesine	-10.7417
▁içeriği	-10.742
▁Demokratik	-10.7421
31	-10.7422
▁odasında	-10.7422
▁nakli	-10.7424
▁kıyı	-10.7425
▁makamında	-10.7428
kon	-10.743
▁satılan	-10.7431
emiyor	-10.7431
fo	-10.7431
▁Emir	-10.7432
Kara	-10.7434
▁eyalet	-10.7436
▁öğrencinin	-10.7437
▁ihbarı	-10.7438
▁teşkil	-10.7439
▁golle	-10.7441
▁gerekirse	-10.7441
▁mide	-10.7441
▁devrim	-10.7442
▁numarası	-10.7443
▁Şeker	-10.7443
▁Keskin	-10.7443
▁villa	-10.7444
▁koyan	-10.7445
▁Akademisi	-10.7445
-5	-10.7448
▁katıl	-10.7448
TÜ	-10.745
▁etmeleri	-10.7452
▁Pat	-10.7453
▁gerçekleşecek	-10.7453
▁Bilgin	-10.7455
▁kitapları	-10.7455
▁imkansız	-10.7458
▁Çay	-10.7458
▁felaket	-10.7459
avi	-10.7461
▁edilemez	-10.7461
▁gerçekleştiren	-10.7462
▁kayıtlı	-10.7462
▁seçil	-10.7462
▁Windows	-10.7465
▁çifti	-10.7467
▁oynayacağı	-10.7467
▁işyeri	-10.7468
▁izlemek	-10.7471
▁Olaylar	-10.7472
▁Balkan	-10.7473
cek	-10.7473
-4	-10.7474
▁çerçevede	-10.7476
▁rüya	-10.7476
▁yılki	-10.7477
▁oturduğu	-10.7479
▁görüşmeleri	-10.7483
▁önemini	-10.749
▁askerleri	-10.749
▁üstlendiği	-10.7492
Re	-10.7493
▁Roman	-10.7493
▁On	-10.7494
▁tanıt	-10.7496
lanırken	-10.7496
▁Hükümeti	-10.7497
▁lokanta	-10.7497
▁meşale	-10.7497
▁Hayır	-10.7498
▁noktasına	-10.7498
▁Yazar	-10.75
laşan	-10.7503
▁biten	-10.7504
▁açıklamasını	-10.7505
▁okudu	-10.7505
▁girişimleri	-10.7506
▁TÜRK	-10.7506
▁Polonya	-10.7508
▁Wi	-10.7513
▁pasaport	-10.7514
▁Yunus	-10.7517
▁ülkemizin	-10.7518
▁kısmını	-10.7518
▁İletişim	-10.752
▁Çam	-10.752
▁tespiti	-10.7522
▁yaya	-10.7527
Daha	-10.753
▁şartlar	-10.7533
▁geçirilmesi	-10.7533
▁çıplak	-10.7534
▁Kütahya	-10.7537
▁bankaların	-10.754
saydı	-10.754
ettin	-10.7545
▁çatısı	-10.7547
▁kaçın	-10.7549
▁bahçesinde	-10.755
▁puanı	-10.7551
▁tünel	-10.7552
pan	-10.7554
▁tanıtımı	-10.7554
▁birliklerimizin	-10.7556
▁Kuşadası	-10.7557
▁Em	-10.7558
▁çalışır	-10.7562
▁fotoğraflar	-10.7563
▁Programı	-10.7564
by	-10.7565
▁uçakla	-10.7566
▁Sitesi	-10.7567
▁dizisi	-10.7569
▁bıraktığı	-10.7569
▁tahvil	-10.757
▁mesleği	-10.757
▁pazartesi	-10.757
▁Yangın	-10.7571
kçe	-10.7573
▁Yoksa	-10.7574
▁parlamento	-10.7578
▁katkısı	-10.7583
▁doktora	-10.7584
vet	-10.7584
▁Zor	-10.7586
▁hastaların	-10.7587
▁kutladı	-10.7587
▁tehdidi	-10.7589
▁jüri	-10.7589
▁Ersoy	-10.759
▁Ergün	-10.7591
26	-10.7591
mba	-10.7592
▁almıştır	-10.7595
ımızı	-10.7596
▁beklentisi	-10.7599
▁çekilme	-10.7599
▁”	-10.76
rü	-10.7602
▁oğlum	-10.7603
kla	-10.7604
▁oğlunun	-10.7607
▁savcılık	-10.7607
muyor	-10.7611
lığına	-10.7612
▁alanlarında	-10.7613
▁onayı	-10.7614
▁yar	-10.7614
▁içinden	-10.7616
hen	-10.7616
memesi	-10.7619
▁hızlandır	-10.7626
▁katılımcı	-10.7626
▁Kaymakam	-10.7627
▁bulunarak	-10.7629
▁turistik	-10.7629
▁direkt	-10.763
İS	-10.763
▁bölümde	-10.763
▁posta	-10.7631
▁sığ	-10.7632
cısı	-10.7632
▁Alp	-10.7636
▁Ren	-10.7636
▁ulaşma	-10.7637
▁askerin	-10.7637
▁arasından	-10.7637
▁edebiyat	-10.7638
▁endeksi	-10.7639
▁Borsası	-10.764
iniz	-10.7644
▁inanıyoruz	-10.7646
▁Onların	-10.7647
▁saray	-10.7647
▁kapandı	-10.7649
▁evinin	-10.765
▁durma	-10.7651
▁çalışmanın	-10.7655
oy	-10.7656
▁inancı	-10.7656
▁Ze	-10.7658
▁AR	-10.7658
▁Oda	-10.7659
▁Çevik	-10.7662
▁Avşar	-10.7663
▁iniş	-10.7664
liğinin	-10.7664
▁öfke	-10.7664
▁asıllı	-10.7665
▁ilde	-10.7665
▁tesisleri	-10.7667
▁katma	-10.7679
▁ötürü	-10.7681
▁ispat	-10.7681
77	-10.7683
▁bel	-10.7683
▁yönetmeni	-10.769
▁Cami	-10.769
Di	-10.7691
kol	-10.7693
▁eğitime	-10.7693
▁iddiası	-10.7697
▁ressam	-10.7699
ire	-10.7699
bal	-10.77
▁poz	-10.77
▁niteliği	-10.7701
▁Aksoy	-10.7702
▁yakalanması	-10.7702
▁alkollü	-10.7703
▁değerleri	-10.7703
▁sıraya	-10.7709
▁üzeri	-10.7713
▁Hayvan	-10.7715
▁Dayanışma	-10.7718
▁problemi	-10.7722
▁birbirlerine	-10.7722
▁yakında	-10.7723
▁Kazakistan	-10.7723
▁Olayın	-10.7723
▁uygulamalar	-10.7724
▁olacağına	-10.7725
beyazlı	-10.7728
▁Oyun	-10.7729
▁ulaştığı	-10.7731
▁Çocuklar	-10.7732
▁Bulvarı	-10.7736
▁uyruklu	-10.7736
▁metreküp	-10.7736
▁bizimle	-10.7739
▁önlenmesi	-10.7739
▁referandum	-10.774
▁açacak	-10.7741
▁turda	-10.7748
lüğe	-10.7748
▁2020	-10.7748
▁sabaha	-10.7749
▁parçaları	-10.7751
▁göstermesi	-10.7753
▁kasaba	-10.7754
▁vakıf	-10.7755
▁suikast	-10.7755
▁Foça	-10.7756
▁gerginlik	-10.7756
▁oturum	-10.7758
▁kadınları	-10.776
▁Sistemi	-10.776
▁yaşıyoruz	-10.7763
!"	-10.7764
▁anlamak	-10.7767
▁unut	-10.7768
▁ekim	-10.7769
▁dijital	-10.7774
▁gümrük	-10.7774
▁uzatma	-10.7775
▁belgesel	-10.7775
▁kova	-10.7776
▁Hakim	-10.7778
lendiğini	-10.7778
▁politik	-10.778
▁görüşmelerde	-10.7781
▁beyazlı	-10.7782
ag	-10.7784
▁tutuklama	-10.7785
▁öldürme	-10.7789
▁kul	-10.7789
▁başa	-10.779
şu	-10.7795
▁tanınmış	-10.7795
▁Özal	-10.7795
▁dinledi	-10.7798
▁yas	-10.7801
▁alacağını	-10.7806
▁öğrenme	-10.7809
▁beklen	-10.7812
▁edebilir	-10.7812
▁Melih	-10.7813
▁Hakkında	-10.7813
şer	-10.7816
▁inandığını	-10.7818
▁uzaktan	-10.7824
▁Sergi	-10.7824
▁Gönül	-10.7825
▁taraflar	-10.7826
landırma	-10.7826
▁1-1	-10.7828
inizi	-10.7828
▁elimizden	-10.7829
▁yuva	-10.7829
sch	-10.783
▁inşallah	-10.783
▁Sigorta	-10.7832
lıların	-10.7836
49	-10.7836
▁Bizler	-10.7839
▁Bize	-10.784
▁karşıladı	-10.7841
▁Açıklama	-10.7844
▁grupları	-10.7846
▁Alanya	-10.7847
▁gişe	-10.7849
▁denen	-10.7849
▁Tunç	-10.785
göz	-10.785
▁gelmiştir	-10.785
▁aydın	-10.7851
bul	-10.7857
▁TOKİ	-10.7858
▁çekilmesi	-10.7859
▁Avrupalı	-10.7861
▁harita	-10.7862
▁istek	-10.7862
▁aldığımız	-10.7864
▁mezunu	-10.7865
▁çıkışı	-10.7866
▁Brüksel	-10.7867
▁vakti	-10.7868
▁kırmızılı	-10.7869
▁avro	-10.787
çok	-10.787
▁istemiyoruz	-10.7871
▁şaka	-10.7871
▁Gemi	-10.7872
▁Denizlispor	-10.7873
▁açıklamaları	-10.7873
▁Toplantı	-10.7875
atör	-10.7878
▁önerisi	-10.7878
▁olmayacağını	-10.7879
▁görenler	-10.7882
▁anlamlı	-10.7883
▁tutuyor	-10.7885
▁rejim	-10.7885
▁gümüş	-10.7886
▁delil	-10.7887
OL	-10.7889
▁sürecine	-10.7891
▁66	-10.7891
▁abone	-10.7892
bağ	-10.7893
abilirsiniz	-10.7894
▁kariyeri	-10.79
▁konumunda	-10.7901
rem	-10.7902
▁sorusunu	-10.7903
▁hektar	-10.7905
▁değerlendiril	-10.7905
▁Zhang	-10.7905
▁ideal	-10.7906
▁Müsteşarı	-10.791
▁golcü	-10.791
▁dönüşü	-10.7912
▁5'	-10.7912
▁isterim	-10.7914
▁baştan	-10.7917
▁Ülker	-10.7917
▁eserler	-10.7918
▁Aşk	-10.7918
▁Oteli	-10.7918
▁defans	-10.7921
ebilmesi	-10.7923
▁Papa	-10.7926
▁hedefimiz	-10.7927
▁Tokat	-10.7928
madığı	-10.7929
▁edilirken	-10.793
▁61	-10.793
▁görüyorum	-10.793
▁girişim	-10.7936
▁terörle	-10.7939
▁İhsan	-10.7939
34	-10.7941
▁76	-10.7942
sk	-10.7942
▁baskısı	-10.7942
▁KDV	-10.7943
▁üzüm	-10.7944
▁parlak	-10.7944
▁dünyasında	-10.7945
İB	-10.7945
AY	-10.7947
▁mermi	-10.7948
66	-10.7952
▁kendilerinin	-10.7953
▁anlaşması	-10.7953
▁Hep	-10.7954
▁zararlı	-10.7957
▁sağlar	-10.7957
▁vermeden	-10.7958
▁Cor	-10.7958
dük	-10.7958
▁Yap	-10.7959
▁maddeler	-10.796
▁oynat	-10.7961
68	-10.7962
▁Sabri	-10.7963
▁diz	-10.7963
▁diplomatik	-10.7964
▁Ulaştırma	-10.7964
▁Mert	-10.7964
▁bakınız	-10.7964
▁pop	-10.7964
AP	-10.7965
▁Zonguldak	-10.7966
▁gök	-10.7969
▁muayene	-10.797
▁gözyaşları	-10.797
▁varlık	-10.797
▁destekleyen	-10.7971
▁Bosna	-10.7972
▁ambulansla	-10.7976
▁doğrusu	-10.7979
▁aleyhine	-10.7982
▁personelin	-10.7982
bas	-10.7983
geç	-10.7984
▁Martin	-10.7984
cılığı	-10.7985
lanmıştır	-10.7987
▁yatırımcı	-10.7989
▁öğret	-10.7991
▁oyu	-10.7992
▁geçmişi	-10.7992
▁seçimler	-10.7993
▁maaşı	-10.7996
▁berabere	-10.7996
▁gazetecinin	-10.7998
ram	-10.7999
32	-10.7999
▁çağır	-10.7999
▁düzgün	-10.8001
▁Danimarka	-10.8001
larım	-10.8002
▁dönmesi	-10.8003
▁topladı	-10.8003
▁ettiğimiz	-10.8003
▁suya	-10.8006
▁kurumları	-10.8008
▁ekibinin	-10.801
▁gönderilmesi	-10.801
▁pasta	-10.801
▁tüketimi	-10.8012
▁dünyayı	-10.8013
▁ruhu	-10.8013
▁işine	-10.8014
▁sunuyor	-10.8015
muştu	-10.8015
36	-10.8017
▁kurtul	-10.8019
▁bırakmak	-10.8019
▁konuldu	-10.8019
▁çamur	-10.8022
eb	-10.8024
▁ordusunun	-10.8025
▁satır	-10.8028
▁söylen	-10.803
▁örgütün	-10.8031
▁dereceye	-10.8031
▁Saha	-10.8032
▁çıkarken	-10.8037
▁kes	-10.8038
▁Meşale	-10.8039
▁kaldırma	-10.804
▁Sal	-10.8042
▁Kayserispor	-10.8042
ps	-10.8043
▁endeks	-10.8044
▁galibiyeti	-10.8044
▁Pamuk	-10.8057
▁Çelebi	-10.8058
▁Hakkari	-10.8058
▁şov	-10.8059
madığını	-10.8059
▁1993	-10.8059
▁Ok	-10.806
FA	-10.8063
▁deli	-10.8064
▁masum	-10.8065
▁ısrar	-10.8066
▁şarkısı	-10.8066
▁çelik	-10.8067
▁ce	-10.807
▁olasılığı	-10.8071
▁mevsim	-10.8073
▁soruşturmanın	-10.8074
▁har	-10.8075
HA	-10.8076
▁Derviş	-10.8077
▁ofis	-10.8078
▁taktik	-10.8079
▁şartlarda	-10.8082
▁şeyleri	-10.8084
ika	-10.8085
▁söylüyorum	-10.8085
ac	-10.8086
▁oku	-10.8087
▁atmak	-10.8087
ari	-10.8089
▁bıçakla	-10.809
▁Raporda	-10.8093
leştirilmesi	-10.8094
▁Eylem	-10.8095
▁gruba	-10.8096
▁konseri	-10.81
▁şunlar	-10.81
▁kuralları	-10.8101
▁istemeyen	-10.8102
Ba	-10.8104
▁Sivil	-10.8105
▁hap	-10.8106
▁ÇOK	-10.8108
48	-10.8108
▁saldırıya	-10.8113
und	-10.8114
iyorlar	-10.8115
cumhurbaşkanlığı	-10.8116
▁maçlarda	-10.8116
▁futbolcusu	-10.8117
▁Kaynak	-10.8117
▁geçirilen	-10.8119
lamıştı	-10.8121
▁ilköğretim	-10.8122
▁odasına	-10.8126
nur	-10.8126
▁duyan	-10.8127
leşen	-10.8128
▁Dev	-10.813
▁Kars	-10.8131
fet	-10.8134
▁güzellik	-10.8134
leyici	-10.8134
▁Nüfus	-10.8135
▁Hayvancılık	-10.8135
▁mayın	-10.8138
▁yerler	-10.8139
wi	-10.814
▁Kerim	-10.814
▁ödemesi	-10.8141
▁edilmişti	-10.8141
▁Los	-10.8141
▁Gen	-10.8142
PA	-10.8148
▁yurtdışında	-10.8148
sızlık	-10.8148
▁mıdır	-10.8151
▁tescil	-10.8154
laştı	-10.8154
▁gerilim	-10.8155
▁utan	-10.8155
▁kaldırım	-10.8155
OR	-10.8155
▁Ses	-10.8155
▁haziran	-10.8156
▁kazada	-10.8157
▁sunulacak	-10.8163
▁alınma	-10.8165
▁takımlar	-10.8168
0.000	-10.817
▁keyifli	-10.8171
41	-10.8172
▁kurucu	-10.8173
▁ümit	-10.8174
▁Bill	-10.8174
yoruz	-10.8175
▁etkileri	-10.8175
▁derbi	-10.8177
▁Şi	-10.8177
▁vekil	-10.8178
▁Fethiye	-10.8179
▁Cha	-10.8182
▁vermeyi	-10.8184
▁Jean	-10.8184
▁sırt	-10.8187
ef	-10.8193
▁Semih	-10.8194
eceğim	-10.8194
▁edici	-10.8195
▁güreş	-10.8196
▁artırmak	-10.8196
▁dışından	-10.8197
▁Parlamentosu	-10.8197
▁katında	-10.8199
▁kaldırdı	-10.82
▁sun	-10.8203
ilerek	-10.8203
▁hücum	-10.8203
▁Dk	-10.8205
▁sanatçısı	-10.8207
▁mobil	-10.8211
▁İste	-10.8212
▁Havaalanı	-10.8213
▁CEO	-10.8213
▁Asliye	-10.8213
▁Tuna	-10.8215
Rİ	-10.8217
▁sunan	-10.8222
▁memnuniyeti	-10.8223
▁konularında	-10.8227
▁konuşuyor	-10.8228
▁duman	-10.823
▁uyguladığı	-10.8237
▁Necati	-10.8237
▁malzemeleri	-10.8238
▁Çakıcı	-10.8238
▁anlamında	-10.824
▁anlaşıldı	-10.8242
▁belir	-10.8243
▁kiralık	-10.8245
▁salı	-10.8245
▁alanlar	-10.8247
LÜ	-10.8248
▁Ceylan	-10.8252
▁Eyüp	-10.8252
▁fakir	-10.8252
▁1991	-10.8253
▁ülkelerinde	-10.8254
▁bastır	-10.8257
▁üret	-10.8258
sik	-10.8259
▁yaşta	-10.826
▁atlat	-10.8261
▁örgütünün	-10.8262
▁aylarda	-10.8265
▁kök	-10.8265
▁istasyonu	-10.8267
▁bağlantılı	-10.8267
▁boyun	-10.8268
▁gündemde	-10.8269
▁duyuru	-10.8269
▁oturdu	-10.827
ECEK	-10.8271
Şimdi	-10.8272
▁Mezarlığı	-10.8273
▁aynen	-10.8274
▁yıllarca	-10.8274
▁ifadesinde	-10.8275
▁Adem	-10.8279
▁muhtemelen	-10.8279
ğe	-10.828
▁Gazeteciler	-10.8283
▁kilometrelik	-10.8284
▁açlık	-10.8284
▁Ordusu	-10.8285
masının	-10.8288
▁lehine	-10.8291
▁Öğrenci	-10.8292
▁Atila	-10.8292
▁68	-10.8292
lıktan	-10.8293
▁tahsil	-10.8294
▁sezonda	-10.8298
▁sürerek	-10.8299
▁Haftası	-10.8299
46	-10.83
art	-10.8301
▁dükkan	-10.8301
▁Dal	-10.8303
▁tartışması	-10.8305
▁iktidarı	-10.8307
▁unutul	-10.8309
▁Destek	-10.8309
▁Hamas	-10.8314
▁değişti	-10.8316
▁merkeze	-10.8317
▁şubat	-10.8317
▁iktidara	-10.8319
▁Suçlar	-10.832
▁heykel	-10.832
▁eskiden	-10.8321
▁etkileme	-10.8322
▁apartman	-10.8323
EY	-10.833
▁uğradı	-10.8332
▁Kart	-10.8335
▁Dede	-10.8336
▁incelemelerde	-10.8338
▁kapan	-10.8338
▁bit	-10.8342
▁gittim	-10.8347
▁boşalt	-10.8349
▁Kosova	-10.835
▁Arafat	-10.835
▁cephe	-10.8352
▁uyma	-10.8352
▁güvenliğini	-10.8356
UR	-10.8358
▁öğretmenler	-10.8358
▁Dört	-10.836
▁Erbil	-10.8363
▁programda	-10.8363
▁beklediği	-10.8365
▁iste	-10.8365
▁şiddetin	-10.8367
▁tat	-10.8367
39	-10.8368
▁skor	-10.8368
▁kullanılıyor	-10.8369
likleri	-10.8371
▁seçilmesi	-10.8371
▁giderilmesi	-10.8372
▁karanlık	-10.8373
▁İmam	-10.8375
▁şirketinin	-10.8378
▁çalışanların	-10.8378
▁ilçenin	-10.8382
▁gerçekleştirdik	-10.8383
▁aşan	-10.8384
▁süs	-10.8387
▁Münih	-10.839
vr	-10.8392
▁rica	-10.8392
▁bağır	-10.8393
kur	-10.8395
▁beğeni	-10.8395
▁Shanghai	-10.8395
▁Altı	-10.8396
▁merkezleri	-10.8396
▁koku	-10.8399
▁Ju	-10.8403
▁ülkelerine	-10.8405
▁gününe	-10.8405
ğü	-10.8405
▁hayvanların	-10.8407
▁güçlendir	-10.8409
71	-10.8409
tıcı	-10.8409
leyecek	-10.8411
▁sipariş	-10.8414
▁kelimesi	-10.8415
▁Çiftçi	-10.8416
▁Pekin	-10.8417
▁atlet	-10.8418
▁Lideri	-10.8419
▁Servis	-10.8422
▁gelmez	-10.8424
▁dokun	-10.8425
▁konulan	-10.8425
▁ziyaretçi	-10.8425
▁Je	-10.8426
67	-10.8426
▁tarafında	-10.8428
shi	-10.8428
▁isimlerin	-10.8431
▁Hakem	-10.8432
▁Dokuz	-10.8432
lüğünü	-10.8433
▁Aktaş	-10.8438
▁basını	-10.8445
▁Hükümetin	-10.8448
▁yaşı	-10.8449
▁Bingöl	-10.845
▁anma	-10.8451
▁gez	-10.8453
▁etrafında	-10.8457
▁so	-10.8458
▁cik	-10.846
▁eleştirdi	-10.846
RU	-10.8463
▁NBA	-10.8463
23	-10.8463
▁kızları	-10.8464
▁burs	-10.8465
alan	-10.8465
bak	-10.8466
▁kayak	-10.8466
▁vadede	-10.847
▁komik	-10.8471
▁turistler	-10.8471
▁sporcuların	-10.8471
▁Medya	-10.8473
▁tez	-10.8474
▁pazarlık	-10.8476
▁dolaş	-10.8477
▁Edebiyat	-10.8477
▁mini	-10.848
▁taşıdığını	-10.8481
laşmış	-10.8481
▁vermiyor	-10.8481
▁çabası	-10.8483
▁Kurban	-10.8491
▁dersi	-10.8493
yacağını	-10.8494
▁Bat	-10.8494
▁ga	-10.8495
▁başvuruda	-10.8495
▁ayrıntılı	-10.8499
▁kategorisinde	-10.8503
▁kendisiyle	-10.8503
▁araştır	-10.8503
▁grubunun	-10.8504
▁Şeyh	-10.8504
▁etkinliği	-10.8505
▁bitir	-10.8507
Mİ	-10.851
▁beraat	-10.851
▁Üçüncü	-10.851
▁saldırgan	-10.851
▁sloganlar	-10.8513
▁bankalar	-10.8515
▁gelmek	-10.8515
▁iddialı	-10.8519
▁kurumu	-10.8519
01	-10.8522
▁ulan	-10.8522
▁İslami	-10.8524
dışı	-10.8525
▁başını	-10.8526
▁kurtarmak	-10.8526
▁tarafların	-10.8528
▁İm	-10.8528
▁yıldönümü	-10.853
▁Diyanet	-10.853
▁yapabilecek	-10.8531
▁vb	-10.8532
▁Evren	-10.8533
▁askerlik	-10.8533
▁yılların	-10.8533
▁dağıldı	-10.8535
▁Prens	-10.8536
▁karşılaşmada	-10.8537
▁kutu	-10.8538
ment	-10.8542
▁Güngör	-10.8545
▁Cihan	-10.8547
▁bizleri	-10.8547
▁1,5	-10.8548
UL	-10.8549
▁Pek	-10.8551
▁fidan	-10.8552
▁olanağı	-10.8554
ebilen	-10.8554
sil	-10.8555
larınızı	-10.8555
▁dostu	-10.8557
▁talepleri	-10.8559
▁tasarımı	-10.8564
lerinizi	-10.8564
▁olmalıdır	-10.8566
▁niteliğinde	-10.8568
pp	-10.8568
▁dakikalık	-10.8569
mb	-10.8571
▁uzanan	-10.8574
▁zorundayız	-10.8574
▁faydalan	-10.8575
▁ilkokul	-10.8576
▁nereden	-10.8577
▁istikrar	-10.8578
▁omuz	-10.858
ny	-10.8581
▁ot	-10.8582
▁idman	-10.8582
▁ağı	-10.8582
▁planda	-10.8584
▁TMSF	-10.8589
▁tüfeği	-10.859
▁İtfaiye	-10.859
▁kazanması	-10.8592
lav	-10.8593
▁dağıtım	-10.8594
▁demokrat	-10.8595
▁2-3	-10.8595
▁beste	-10.8596
▁kırsal	-10.8598
▁otomobili	-10.8599
▁Albay	-10.8601
▁söyler	-10.8602
▁arkadaşımız	-10.8604
▁cezaevine	-10.8605
▁oyna	-10.8607
▁konuşmasını	-10.8609
▁Seferihisar	-10.8611
▁cilt	-10.8611
▁bakıldığında	-10.8611
▁yapabilir	-10.8612
▁yakalama	-10.8612
▁oturup	-10.8613
gh	-10.8613
64	-10.8617
▁izlediği	-10.8618
▁Sema	-10.8618
▁kafe	-10.862
▁oyunlar	-10.8625
▁yıkım	-10.8625
▁uygulanacak	-10.863
▁gündemine	-10.8632
▁Atalay	-10.8632
bon	-10.8633
▁planlanıyor	-10.8633
Ev	-10.8633
▁bilmem	-10.8634
▁çekimleri	-10.8635
sidir	-10.8637
▁geçit	-10.8637
▁fiyatlarının	-10.8645
▁kurumların	-10.8647
▁mektubu	-10.8648
▁burası	-10.8649
▁mensubu	-10.8651
▁tıbbi	-10.8651
▁Aykut	-10.8652
▁Dur	-10.8653
▁Dan	-10.8653
▁durdur	-10.8653
▁teröristler	-10.8656
▁binden	-10.8656
▁yönetimin	-10.8665
▁sanatçılar	-10.8666
▁borçlanma	-10.8667
▁bizde	-10.8668
▁plastik	-10.8672
▁kemik	-10.8677
▁evlenme	-10.8677
▁Sait	-10.8679
▁aşkı	-10.868
▁Ele	-10.8681
▁tl	-10.8682
▁dokuz	-10.8683
▁tezkere	-10.8684
▁Yönetmen	-10.8685
ation	-10.8685
▁sır	-10.8686
▁diyecek	-10.8689
▁Gelecek	-10.8692
▁tavuk	-10.8692
▁Sibel	-10.8693
▁Siyaset	-10.8693
▁Oy	-10.8694
▁Amirliği	-10.8695
▁yaratmak	-10.8696
▁üssü	-10.8698
acı	-10.8698
▁geliş	-10.8701
▁Uzan	-10.8701
▁Polisin	-10.8703
▁yoğunluğu	-10.8705
▁Festival	-10.8706
vat	-10.8709
nızın	-10.871
▁katılacağı	-10.8711
▁İLK	-10.8714
▁Ham	-10.8716
▁talebinde	-10.8717
▁sü	-10.8717
İki	-10.8718
ston	-10.8718
nç	-10.8718
▁amatör	-10.872
06	-10.8721
▁gerçekleşmesi	-10.8723
▁Tak	-10.8725
▁Göl	-10.8725
▁Katar	-10.8726
..."	-10.8727
▁şimdilik	-10.8728
▁girdiğini	-10.8728
mir	-10.8728
▁95	-10.873
▁uzmanları	-10.8731
▁torba	-10.8733
lenip	-10.8735
▁Danışma	-10.8738
▁oto	-10.8743
duğunu	-10.8745
dd	-10.8745
▁merkezli	-10.8746
▁edileceği	-10.8749
▁eşini	-10.8749
54	-10.8752
▁hapse	-10.8752
▁edil	-10.8752
▁sanığın	-10.8753
▁Yalova	-10.8754
▁kullanılacak	-10.8754
▁chp	-10.8754
▁Tugay	-10.8754
▁haliyle	-10.8754
kul	-10.8755
▁1992	-10.8756
▁gasp	-10.8756
▁Tür	-10.8756
▁peki	-10.8757
▁Foto	-10.876
47	-10.8761
▁mor	-10.8763
▁Fo	-10.8764
muzun	-10.8767
▁çekin	-10.8767
▁adliye	-10.8768
▁açıklamıştı	-10.8768
▁niyet	-10.8769
▁Kimi	-10.877
▁aya	-10.8772
▁atar	-10.8773
▁ag	-10.8774
▁Köprüsü	-10.8775
▁3-0	-10.8775
▁döneme	-10.8775
▁atış	-10.8775
▁görmüş	-10.8777
kül	-10.8777
▁hayli	-10.8781
?’’	-10.8782
▁ağız	-10.8783
▁hazırladı	-10.8784
▁almadan	-10.8787
▁metni	-10.8788
▁toplantının	-10.8789
-6	-10.8792
▁müzakerelerin	-10.8793
▁tutun	-10.8793
şen	-10.88
▁görünen	-10.8801
lerken	-10.8801
▁hırsız	-10.8802
tz	-10.8803
▁beraberindeki	-10.8804
▁lütfen	-10.8805
▁kapanış	-10.8809
▁sevin	-10.881
▁hayatında	-10.8812
▁ikiye	-10.8814
▁cesaret	-10.8814
▁olağan	-10.8816
▁Balçova	-10.8816
▁aksi	-10.8817
▁Norveç	-10.882
▁salon	-10.8822
▁Dergisi	-10.8824
▁seçti	-10.8825
▁Gel	-10.8825
▁geliştirmek	-10.8826
▁soruyu	-10.8827
▁taraftarları	-10.8829
▁Aksi	-10.8829
▁or	-10.8832
AM	-10.8832
▁kurumun	-10.8834
▁sesini	-10.8834
lanacağını	-10.8835
▁hadi	-10.8836
▁kopar	-10.8836
▁müracaat	-10.8837
rme	-10.8837
▁Çince	-10.8841
▁Kahraman	-10.8843
▁Zirvesi	-10.8843
▁donanım	-10.8846
▁kaba	-10.8846
▁Kasımpaşa	-10.8847
▁mensup	-10.8847
▁eğilimi	-10.8848
▁gidiş	-10.8848
▁adının	-10.885
▁Girişim	-10.8851
▁şeyden	-10.8855
▁Ülkü	-10.8857
▁projeyi	-10.8858
▁Arena	-10.8858
mizden	-10.8859
▁rock	-10.8859
▁çaplı	-10.8862
▁potansiyel	-10.8863
▁seç	-10.8863
▁görüşleri	-10.8866
▁hayranları	-10.8867
▁sürerken	-10.8873
▁Tenis	-10.8874
▁testi	-10.8875
tuğ	-10.8875
▁sevme	-10.8877
▁bombardıman	-10.8878
▁Fikret	-10.8878
▁mahsur	-10.8878
▁67	-10.8879
▁pozisyonu	-10.8879
▁GÜN	-10.8879
▁ekiplerine	-10.888
▁alımı	-10.8881
▁ekonominin	-10.8883
▁hesabını	-10.8883
yerek	-10.8884
▁Yargı	-10.8884
▁tarafın	-10.8884
▁ali	-10.8885
▁em	-10.8885
ight	-10.8886
▁bankası	-10.8887
▁oranları	-10.8888
ice	-10.8888
olu	-10.8889
▁Bununla	-10.8889
▁adaylar	-10.889
▁İçin	-10.8892
▁zanlı	-10.8893
▁takviye	-10.8893
▁mecbur	-10.8894
▁durumuna	-10.8895
▁ayından	-10.8898
▁Tanrı	-10.8898
▁Eşi	-10.8898
▁Yahudi	-10.8899
dor	-10.8902
ciliği	-10.8904
▁kopya	-10.8904
▁emir	-10.8906
78	-10.8907
▁altından	-10.8908
▁turnuva	-10.8909
▁Yasin	-10.8912
▁sanıklar	-10.8913
▁set	-10.8917
▁vereceğiz	-10.8918
▁dönmek	-10.892
▁Galeri	-10.892
meleri	-10.892
▁Doktor	-10.8921
bilir	-10.8922
▁dünyası	-10.8922
▁dergisi	-10.8922
▁önerge	-10.8925
▁Operasyon	-10.8926
▁detaylı	-10.8928
▁dışarıda	-10.8928
▁yükseliş	-10.8929
▁çiz	-10.8929
▁Wu	-10.8929
▁kentsel	-10.8929
57	-10.893
▁girmiş	-10.8931
▁yapıyorlar	-10.8931
los	-10.8933
▁Suat	-10.8933
▁hik	-10.8934
▁yazıda	-10.8935
▁kirliliği	-10.8935
▁liderleri	-10.8936
▁İs	-10.8937
▁koyuyor	-10.8937
▁edilme	-10.8938
▁yaşar	-10.894
▁Arjantin	-10.894
▁verin	-10.894
▁Tü	-10.8941
▁azalma	-10.8943
fir	-10.8944
▁keyfi	-10.8948
▁sokaklarda	-10.8948
▁potansiyeli	-10.895
▁siyasete	-10.8951
▁çabaları	-10.8952
▁ulus	-10.8952
▁yaralandığı	-10.8957
▁fe	-10.8957
▁açıkladığı	-10.8958
▁ip	-10.8959
▁kızlar	-10.896
▁ertesi	-10.8963
▁saldırıları	-10.8965
lanabilir	-10.8968
▁kuyu	-10.8968
Başbakan	-10.8969
larca	-10.8969
▁gençlere	-10.8969
▁bakanlar	-10.8972
▁77	-10.8973
▁örneğin	-10.8976
▁verilmiş	-10.8977
▁sözlü	-10.8978
▁Af	-10.8979
▁10'	-10.8979
▁kırık	-10.8981
▁öteki	-10.8981
▁Mavi	-10.8982
ecektir	-10.8982
▁direksiyon	-10.8983
▁askerlerinin	-10.8984
▁ro	-10.8985
▁satıcı	-10.8985
▁Wa	-10.8986
▁eleştiren	-10.8987
▁kırıklığı	-10.8987
▁direk	-10.8988
▁ortaklaşa	-10.8989
▁eyaletinin	-10.8989
ex	-10.8991
▁gölge	-10.8992
▁yollar	-10.8995
▁kazanacak	-10.8999
▁fırın	-10.9001
94	-10.9001
▁yatan	-10.9001
▁zamanlı	-10.9002
▁gelişim	-10.9004
▁yapılanma	-10.9009
İnsan	-10.9011
▁sözlük	-10.9012
▁reel	-10.9012
▁Yakın	-10.9012
▁depremin	-10.9017
▁artırma	-10.9019
▁ziyarette	-10.9023
▁Evet	-10.9024
▁bebeği	-10.9025
▁infaz	-10.9025
SO	-10.9026
▁hazırlıkları	-10.9026
▁duruşmada	-10.9027
ney	-10.9027
▁kadrosu	-10.9028
▁gelirken	-10.9031
▁olmadığına	-10.9032
▁YIL	-10.9034
▁birleşme	-10.9035
▁başla	-10.9036
▁hatıra	-10.9044
▁Ermenistan	-10.9047
▁Yaş	-10.9047
dılar	-10.9048
▁ulaşması	-10.9049
▁yapılarak	-10.9049
▁görüşmesi	-10.9049
▁planlama	-10.9052
▁mer	-10.9053
▁karşılandı	-10.9054
▁yayınladığı	-10.9054
▁otelde	-10.9057
▁görüldüğü	-10.9058
▁sonradan	-10.9059
▁sürdürdüğü	-10.9061
▁seçimlerin	-10.9061
▁konuşması	-10.9061
▁aileler	-10.9062
▁maçlarında	-10.9066
▁yumruk	-10.9068
▁futbolu	-10.9069
▁çevirdi	-10.9069
▁panik	-10.9069
▁Akhisar	-10.9069
▁bez	-10.907
▁adaylık	-10.9071
ses	-10.9071
▁bakıyor	-10.9071
▁Durak	-10.9072
▁Tok	-10.9073
▁fena	-10.9075
▁Gümüş	-10.9078
▁Dernek	-10.9079
▁durdu	-10.9082
say	-10.9082
▁cihaz	-10.9082
▁ülkesinde	-10.9084
det	-10.9087
▁taburcu	-10.909
DİR	-10.9091
▁tutmak	-10.9091
▁yanıtı	-10.9095
▁akademik	-10.9095
▁tasar	-10.91
▁yoksun	-10.9101
▁camia	-10.9104
▁bozma	-10.9106
▁Is	-10.9106
▁Berk	-10.9106
▁yönetmelik	-10.9107
59	-10.9107
port	-10.9108
▁sıvı	-10.911
▁Portekiz	-10.9112
▁TSK	-10.9112
74	-10.9112
▁sevilen	-10.9113
▁dayanarak	-10.9113
▁makale	-10.9114
üt	-10.9116
▁toplumu	-10.9117
▁toplumda	-10.9117
▁hamle	-10.9117
▁karısı	-10.9118
▁Ankaragücü	-10.9121
▁kesimi	-10.9123
▁inşası	-10.9127
▁mesajlar	-10.9128
ES	-10.9135
amayacağı	-10.9136
▁vur	-10.9142
▁ürettiği	-10.9146
diğim	-10.9147
ışı	-10.9147
▁Kürdistan	-10.9147
▁pazarlama	-10.9152
KO	-10.9152
▁çözülmesi	-10.9153
▁dosyası	-10.9154
▁hızı	-10.9155
▁olaylara	-10.9156
▁ışığı	-10.9158
▁dışa	-10.9162
▁ÇA	-10.9163
52	-10.9163
▁Erhan	-10.9164
▁kahvaltı	-10.9165
▁aldılar	-10.9165
▁yapılmasına	-10.9165
▁belirlenemeye	-10.9166
▁ulaştığını	-10.9166
▁haftalarda	-10.9167
Ko	-10.9167
▁vizyona	-10.9167
▁edeceğim	-10.9173
▁ucu	-10.9174
▁Tedavi	-10.9175
92	-10.9175
▁öldürüldü	-10.9175
lıkla	-10.9176
88	-10.9178
▁Elazığ	-10.9179
▁getirir	-10.9182
ovic	-10.9185
▁versiyonu	-10.9186
▁akın	-10.9188
▁Fener	-10.9189
rdı	-10.9189
▁kadrosunda	-10.9191
▁zeytinyağı	-10.9196
▁kurgu	-10.9199
▁tamamlanan	-10.9199
▁beton	-10.9199
▁engellemek	-10.9201
ling	-10.9201
▁almadı	-10.9203
▁Rektörü	-10.9205
xi	-10.9211
nak	-10.9212
▁kurs	-10.9217
▁varmış	-10.9217
▁yaratma	-10.9218
▁Gürcistan	-10.9218
▁Yang	-10.9218
▁Televizyon	-10.9219
iao	-10.9219
▁İnsanlar	-10.9221
▁kuruluşlarının	-10.9222
▁kısmının	-10.9223
▁gerekmektedir	-10.9223
▁Kir	-10.9224
▁hepimizin	-10.9225
▁oylama	-10.9228
▁yaşamaya	-10.923
▁takımdan	-10.9232
▁ekiplerince	-10.9232
▁bayanlar	-10.9235
▁kural	-10.9237
▁PTT	-10.9239
▁mayıs	-10.9241
▁itibar	-10.9244
▁ağzı	-10.9246
▁bat	-10.925
▁gitar	-10.9254
▁bildirimi	-10.9256
▁yapımcı	-10.9256
▁işareti	-10.9257
▁bakar	-10.926
▁stadyum	-10.9261
▁öncelikli	-10.9262
▁ger	-10.9265
▁yönetimine	-10.9266
▁Yazıcı	-10.9266
58	-10.9269
▁Yarışması	-10.9269
iki	-10.9269
▁ayağa	-10.927
▁işadamları	-10.9271
▁temsilci	-10.9273
▁Kazım	-10.9274
86	-10.9278
▁fi	-10.928
▁Karayolları	-10.9283
▁tarife	-10.9283
▁yetkililerin	-10.9283
▁ihtiyaçlarını	-10.9284
seydi	-10.9285
▁yitiren	-10.9285
▁ahlak	-10.9286
▁mutluyum	-10.9286
▁BAŞ	-10.9287
▁Yozgat	-10.9289
▁kesiminde	-10.929
▁kişileri	-10.9294
▁geleneği	-10.9295
▁üyelerine	-10.9295
▁olduktan	-10.9296
▁eri	-10.9298
▁programın	-10.9298
▁fazlası	-10.9298
▁Hollandalı	-10.93
▁annem	-10.9301
▁Angeles	-10.9305
▁delege	-10.9305
▁şubesi	-10.9305
▁sorununu	-10.9306
▁City	-10.9307
▁rahatsızlığı	-10.9307
▁Apple	-10.9308
▁Gaziantepspor	-10.9309
▁Hay	-10.9313
▁şarkıları	-10.9314
Burada	-10.9318
▁erecek	-10.9318
81	-10.9319
▁duvarı	-10.9319
▁Veri	-10.932
▁seviyesine	-10.9323
▁karşılaştığı	-10.9324
▁koruyucu	-10.9326
▁sağanak	-10.9326
▁Powell	-10.9326
▁çevresindeki	-10.9327
▁Bozdağ	-10.9327
▁söyleşi	-10.9328
▁Topluluğu	-10.9329
▁Kral	-10.9331
▁İmparatorluğu	-10.9332
▁mar	-10.9334
▁vuran	-10.9334
▁kampı	-10.9335
CHP	-10.9337
▁kazasında	-10.9337
▁Sey	-10.9338
▁110	-10.9338
▁İşler	-10.9339
▁bozuk	-10.934
▁arkadaşlarının	-10.934
▁finalde	-10.934
▁hastalıkları	-10.9341
luğun	-10.9341
▁ün	-10.9342
▁arı	-10.9343
▁hepsini	-10.9343
▁koşullar	-10.9345
▁ileride	-10.9345
rik	-10.9345
▁nöbet	-10.9346
▁çalışmalarımız	-10.9346
▁y	-10.9346
An	-10.9347
ls	-10.9347
▁şık	-10.9348
▁Ufuk	-10.9348
▁İstiklal	-10.9348
▁devamı	-10.9352
▁Cephesi	-10.9353
sinler	-10.9353
▁kazanarak	-10.9354
▁edilebilir	-10.9359
eği	-10.9361
▁zamandır	-10.9362
▁ani	-10.9363
▁talimatı	-10.9366
▁duyduklarını	-10.9367
▁ederse	-10.9369
▁nisan	-10.9371
▁büyüyen	-10.9371
▁sağlanacak	-10.9372
▁çalışacağız	-10.9373
lemek	-10.9374
▁yık	-10.9375
▁kullanıldı	-10.9375
▁açıp	-10.938
▁şeref	-10.9383
▁zamanla	-10.9384
TU	-10.9388
▁barışı	-10.9389
▁hükümete	-10.9391
▁Selahattin	-10.9392
▁HA	-10.9392
▁taraftarların	-10.9392
▁aralıksız	-10.9393
▁tatmin	-10.9394
▁giydiği	-10.9395
▁Shi	-10.9395
▁iptali	-10.9395
▁parasını	-10.9397
▁istiyorlar	-10.9398
tem	-10.94
name	-10.9401
▁kişilerle	-10.9402
▁Bölgede	-10.9405
▁gereksiz	-10.9405
yeceğini	-10.9411
▁Asayiş	-10.9414
▁bronz	-10.9414
▁değiştirdi	-10.9414
▁şut	-10.9414
▁Rizespor	-10.9416
▁ikincisi	-10.9417
▁İŞTE	-10.942
▁EGEDESONSÖZ	-10.942
▁Mas	-10.9421
ılacağını	-10.9423
93	-10.9425
▁başlık	-10.9426
▁lacivertli	-10.9427
▁Tri	-10.9428
▁çalışanı	-10.9432
▁inen	-10.9434
ğunu	-10.9434
▁kamyonet	-10.9436
▁çatışmalar	-10.9436
▁takımını	-10.9439
▁Köse	-10.9443
kov	-10.9444
emediği	-10.9445
▁hani	-10.9446
▁uyarısında	-10.9446
AD	-10.9448
▁çekilmiş	-10.9448
▁hayvanlar	-10.9448
▁kapatma	-10.9451
▁Dünyada	-10.9454
sınlar	-10.9455
▁mevduat	-10.9458
▁asfalt	-10.9458
▁guzel	-10.9458
▁beklenti	-10.9461
▁zeka	-10.9463
▁eğlenceli	-10.9465
▁meş	-10.9466
▁rakı	-10.9472
Su	-10.9472
▁ortaklığı	-10.9472
lıklar	-10.9473
▁boyutu	-10.9474
▁çalışanlar	-10.9475
▁sular	-10.9479
▁geleceğe	-10.948
▁çirkin	-10.948
▁takımları	-10.9481
dis	-10.9483
lemiş	-10.9486
▁Silah	-10.9486
▁çocuklarını	-10.9487
▁alınmasını	-10.9491
▁Binali	-10.9491
ön	-10.9491
tif	-10.9491
▁üs	-10.9492
▁coğrafya	-10.9492
61	-10.9493
▁imk	-10.9497
So	-10.9499
▁Web	-10.95
▁kullanmaya	-10.95
▁Başta	-10.9501
ılabilir	-10.9503
▁zorluk	-10.9503
▁korkusu	-10.9504
Gİ	-10.9504
DP	-10.9505
▁başvuran	-10.9507
▁önemlisi	-10.9507
▁çalma	-10.9507
▁malzemesi	-10.9509
gor	-10.951
▁yakınlarındaki	-10.951
▁beşinci	-10.951
▁İddia	-10.951
▁Asker	-10.9511
▁Ah	-10.9512
▁havası	-10.9513
▁teşhis	-10.9514
▁Doğal	-10.9517
▁istikrarlı	-10.9519
▁işle	-10.9519
▁tasarısı	-10.9519
liyiz	-10.9519
▁başladım	-10.9519
▁ajansı	-10.9523
▁günlerinde	-10.9524
▁yapmasını	-10.9525
ncı	-10.9525
▁hikayesi	-10.9528
MAK	-10.9528
tigi	-10.9528
▁buluşan	-10.953
▁birinde	-10.9531
▁gazetesinde	-10.9531
▁gitmiş	-10.9534
▁olmayacağı	-10.9535
▁Final	-10.9536
▁görün	-10.9536
▁macera	-10.9537
▁köylüler	-10.9538
▁akla	-10.9539
▁Tekel	-10.9539
leşti	-10.954
yacağım	-10.954
▁iktidarın	-10.9541
▁dersleri	-10.9543
▁trafiği	-10.9544
▁Sevgi	-10.9545
▁tutumu	-10.9546
▁Komünist	-10.9547
▁Rüştü	-10.9547
▁Yüce	-10.9547
▁21.	-10.955
dro	-10.9552
▁raporunda	-10.9553
▁sesleri	-10.9553
▁katılıyor	-10.9554
▁köyde	-10.9554
▁Milan	-10.9554
79	-10.9557
▁Rektör	-10.9557
Nİ	-10.9557
▁öğleden	-10.9558
▁gencin	-10.9559
▁başvurusu	-10.9561
▁ölme	-10.9562
▁soruşturması	-10.9566
▁atandı	-10.9567
gon	-10.9568
▁günkü	-10.9568
io	-10.9569
▁roket	-10.9569
▁yüzüne	-10.9571
mizle	-10.9574
▁hayali	-10.9574
▁ortamında	-10.9575
▁seviyede	-10.9576
▁Sekreter	-10.9576
▁Söyle	-10.9577
▁yaşına	-10.9578
▁ederiz	-10.9578
▁çıkmaz	-10.9578
53	-10.9579
▁kanalı	-10.9579
▁temizleme	-10.9579
▁gor	-10.958
▁KA	-10.9582
▁aralık	-10.9583
▁kapısı	-10.9584
key	-10.9584
İP	-10.9585
fak	-10.9588
▁korun	-10.9589
▁Adliyesi	-10.9589
▁özgün	-10.9589
▁kavram	-10.9591
▁kademe	-10.9594
▁üzül	-10.9596
▁yazılmış	-10.9596
▁OL	-10.9598
▁mantığı	-10.9599
▁Elif	-10.9602
▁tarafta	-10.9602
▁Ford	-10.9604
98	-10.9604
erken	-10.9604
▁Tor	-10.9605
▁açılışı	-10.9605
▁çiftin	-10.9608
▁zararı	-10.961
▁bırakın	-10.961
▁Beyoğlu	-10.9611
▁yarışması	-10.9612
▁bahar	-10.9613
▁öykü	-10.9613
▁Kontrol	-10.9614
▁ihtiyacımız	-10.9616
▁hedefliyor	-10.9617
▁yıldızlı	-10.9619
lanmıştı	-10.9619
▁İsa	-10.9622
doğan	-10.9623
▁duy	-10.9625
sy	-10.9628
▁Hayatı	-10.9629
▁TEK	-10.963
▁Ona	-10.963
▁ihtiyaçları	-10.963
▁siyasetin	-10.9631
▁alanındaki	-10.9633
▁ateşkes	-10.9638
▁Fas	-10.9638
▁yayınladı	-10.9639
▁sürme	-10.9639
▁dönüyor	-10.9639
▁mesajları	-10.9642
INI	-10.9642
▁Planı	-10.9644
▁doların	-10.9646
▁71	-10.965
▁belgeleri	-10.9652
▁yil	-10.9652
dra	-10.9653
▁ihtimal	-10.9653
▁duyguları	-10.9653
▁ihaleye	-10.9657
▁aramızda	-10.9659
▁muhtelif	-10.9659
▁boşa	-10.9659
▁talip	-10.9659
leşmesi	-10.966
▁çalışmayı	-10.966
▁takibe	-10.9661
ph	-10.9662
▁rahatlıkla	-10.9662
▁taşımak	-10.9663
▁yükselmesi	-10.9664
▁açılışında	-10.9665
▁Peter	-10.9666
IŞ	-10.9667
▁eylül	-10.9667
İYE	-10.9669
▁3-4	-10.967
▁kuşku	-10.9671
▁Yarın	-10.9672
▁yollarını	-10.9674
▁başarıya	-10.9674
▁herşey	-10.9676
▁çıkmaya	-10.9676
▁Hareket	-10.9679
▁Chen	-10.968
▁Sergen	-10.9682
▁yapalım	-10.9684
UK	-10.9686
▁iddialar	-10.9686
▁hareketleri	-10.9686
▁rastlan	-10.9687
▁bastı	-10.969
▁cinayeti	-10.969
RAN	-10.9691
▁Barajı	-10.9692
▁Maden	-10.9694
▁adımı	-10.97
bor	-10.97
▁gösterim	-10.97
▁yaptığım	-10.9701
▁öğrenmek	-10.9702
44	-10.9704
▁stüdyo	-10.9704
▁Finans	-10.9704
▁paylaştığı	-10.9704
▁BBC	-10.9705
▁yapılmak	-10.9706
▁Mak	-10.9707
▁görür	-10.9707
▁silahı	-10.9709
▁metrelik	-10.9713
▁fren	-10.9714
▁gelmiyor	-10.9714
▁dinlenme	-10.9715
Gel	-10.9715
▁olmakla	-10.9716
▁maddeleri	-10.9716
▁sponsor	-10.9718
şı	-10.9718
▁yazılan	-10.9718
La	-10.9719
▁ulaşıma	-10.9719
▁Yen	-10.972
▁saldırdı	-10.972
▁bulunmuştu	-10.972
▁4'	-10.9722
atı	-10.9724
▁buluş	-10.9725
Çİ	-10.9727
▁Dönem	-10.9728
idir	-10.9729
▁Bunlardan	-10.9729
▁pis	-10.9731
▁evlerinde	-10.9732
▁Manisaspor	-10.9732
▁izleyiciler	-10.9736
▁görmesi	-10.9736
▁2’	-10.9737
▁Fre	-10.9742
▁şehirde	-10.9743
▁teröre	-10.9743
▁direniş	-10.9745
▁binalar	-10.9745
87	-10.9747
▁ibadet	-10.9748
▁binaların	-10.9748
▁Öğretmen	-10.9748
▁yanından	-10.9748
MEK	-10.9749
▁Piriştina	-10.9749
▁otomotiv	-10.9749
▁hoşgörü	-10.9749
▁Bakırköy	-10.975
▁tüp	-10.9751
▁xx	-10.9751
▁sergisi	-10.9752
▁Vatan	-10.9753
lenebilir	-10.9755
gör	-10.9759
91	-10.9759
▁Akşam	-10.976
lip	-10.9761
▁araştırmada	-10.9761
ınız	-10.9762
▁yürüyüşü	-10.9762
▁yaşanması	-10.9763
ebilirsiniz	-10.9763
▁sever	-10.9763
▁gazeteciler	-10.9764
TELEFON	-10.9772
▁Veysel	-10.9772
▁tehlikeye	-10.9772
▁Hepsi	-10.9772
YO	-10.9774
▁ic	-10.9774
▁Williams	-10.9774
▁Efendi	-10.9775
ymiş	-10.9775
▁çekimi	-10.978
▁Tüketici	-10.9781
▁Kaptan	-10.9782
▁un	-10.9782
MO	-10.9783
iyeti	-10.9783
▁incelemede	-10.9784
▁Gülen	-10.9784
▁yerleşti	-10.9785
LO	-10.9785
eyim	-10.979
▁islam	-10.979
▁düzeltme	-10.9791
gg	-10.9791
ity	-10.9795
▁akaryakıt	-10.9795
▁bizlere	-10.9796
leşmiş	-10.9798
dol	-10.9798
▁kalıp	-10.9799
▁Maçın	-10.9801
▁değiş	-10.9806
▁kamuoyunda	-10.9808
kay	-10.9811
▁Zorlu	-10.9812
▁seyir	-10.9816
▁bahane	-10.9817
▁açtığını	-10.9817
▁netice	-10.9817
▁veriler	-10.9818
▁İcra	-10.9818
▁Sichuan	-10.9818
▁sorma	-10.9818
▁İşbirliği	-10.9818
▁abla	-10.9818
▁suçlarından	-10.9819
▁olduğunda	-10.9819
▁yetiş	-10.9821
▁batısında	-10.9822
lum	-10.9822
▁Kuran	-10.9823
örü	-10.9823
▁Yılı	-10.9825
▁gelsin	-10.9825
▁televizyonu	-10.9828
▁ilçeye	-10.9828
▁isteniyor	-10.983
set	-10.983
▁Güçlü	-10.9832
-16	-10.9833
▁tutarında	-10.9835
▁Hemen	-10.9837
▁Grand	-10.9838
hl	-10.9841
▁FIFA	-10.9841
▁esrar	-10.9841
▁Şehircilik	-10.9841
▁neticesinde	-10.9842
▁sloganları	-10.9842
▁aranan	-10.9843
▁750	-10.9844
▁sulama	-10.9845
▁çarpıcı	-10.9846
▁dönüm	-10.9851
▁ayakları	-10.9853
▁torunu	-10.9853
▁salonda	-10.9854
89	-10.9855
likler	-10.9856
▁kapısını	-10.9856
likte	-10.9857
GS	-10.9859
▁kurslar	-10.986
▁şiddeti	-10.986
▁namaz	-10.9863
▁Narlıdere	-10.9864
İNİ	-10.9864
▁SSK	-10.9867
09	-10.9867
cisi	-10.9869
▁Sırbistan	-10.9869
▁bulduğunu	-10.987
lus	-10.9873
▁bayi	-10.9879
▁ET	-10.988
ting	-10.988
▁eksi	-10.988
▁şehrinde	-10.9881
laştır	-10.9881
▁seviyor	-10.9882
▁sonuca	-10.9883
▁santimetre	-10.9887
▁yılını	-10.9887
▁tepkiler	-10.9887
▁korkunç	-10.9887
▁kenarında	-10.9888
▁Tunceli	-10.9888
▁sertifika	-10.9888
▁projeye	-10.9889
▁seviyesinde	-10.9889
▁Şirket	-10.9889
▁sırf	-10.989
▁Bunları	-10.989
▁Bütçe	-10.9896
▁destekleme	-10.9897
▁yetkililerinin	-10.9898
▁ithalat	-10.9899
▁düşünün	-10.9899
▁anlatmak	-10.9901
▁Konuk	-10.9904
▁annesinin	-10.9905
dem	-10.9906
ürü	-10.9912
cy	-10.9912
▁Mac	-10.9913
▁kaydedilen	-10.9913
▁inanma	-10.9913
▁yapmıştır	-10.9914
▁Devletleri	-10.9915
▁tır	-10.9915
▁Görev	-10.9915
▁dolduran	-10.9916
▁organizasyonu	-10.9916
REN	-10.9917
▁sur	-10.992
38	-10.9922
69	-10.9923
▁Liu	-10.9924
yr	-10.9924
▁sanıkların	-10.9926
▁sunum	-10.9926
▁yöntemleri	-10.993
▁Federal	-10.9933
▁perşembe	-10.9933
▁İstihbarat	-10.9933
▁üreticisi	-10.9934
hisar	-10.9937
Ak	-10.9938
▁haberdar	-10.994
Da	-10.9942
73	-10.9942
▁dizinin	-10.9944
▁inceledi	-10.9945
▁sonuçlarını	-10.9946
▁yapacağım	-10.9946
▁niyeti	-10.9947
▁kaldırıldığı	-10.9952
▁tüket	-10.9952
▁karşılığını	-10.9955
üf	-10.9956
▁Süt	-10.9956
Ar	-10.9959
▁şartı	-10.9964
▁yolunun	-10.9964
▁tartışmalar	-10.9965
AKP	-10.9965
▁Kupa	-10.9966
sol	-10.9968
▁sayıları	-10.9974
▁evlendi	-10.9975
▁zamana	-10.9977
uyla	-10.9977
▁vaka	-10.9978
▁büyüklüğünde	-10.9979
▁planlıyor	-10.9979
▁birileri	-10.9979
▁üstünlüğü	-10.998
▁odaları	-10.998
▁Yaralılar	-10.998
▁okullar	-10.9983
▁yuan	-10.9984
muzu	-10.9987
▁konusunu	-10.9992
▁Bürosu	-10.9993
▁öldür	-10.9993
Beşiktaş	-10.9995
-7	-10.9996
▁yediği	-10.9998
▁serisi	-11.0001
▁gözle	-11.0002
▁koordinasyon	-11.0003
▁ilgilendiren	-11.0004
▁görül	-11.0004
▁bankanın	-11.0005
▁Şerif	-11.0005
▁yo	-11.0006
▁Arama	-11.0008
▁sahnede	-11.0009
▁kralı	-11.001
▁öğrenen	-11.0011
▁enerjisi	-11.0011
▁bekliyorum	-11.0012
▁tatili	-11.0014
▁işletmelerin	-11.0017
▁imkanları	-11.0017
▁görmez	-11.0018
▁aldat	-11.0018
▁istemez	-11.0018
▁doktorlar	-11.0019
▁haberlerin	-11.0022
▁Divan	-11.0023
▁etsin	-11.0023
▁müdürleri	-11.0023
▁Gökçe	-11.0024
Büyük	-11.0024
▁beklediğini	-11.0025
▁söyledim	-11.0026
▁Cinayet	-11.0026
▁Şişli	-11.0026
▁Bozkurt	-11.0026
▁1980	-11.0027
▁göstericiler	-11.0027
▁inceleyen	-11.0028
▁soruyor	-11.0031
▁Yi	-11.0032
DIR	-11.0033
▁şiddete	-11.0036
kırmızılı	-11.0037
UT	-11.0041
56	-11.0043
▁çözmek	-11.0044
▁asist	-11.0046
▁beğen	-11.0048
▁Burhan	-11.0048
fen	-11.0049
▁birbirini	-11.0049
▁yüreği	-11.0049
▁kaçınılmaz	-11.005
▁Çorum	-11.005
▁Mat	-11.005
▁yerlerinde	-11.005
mla	-11.005
miyoruz	-11.005
▁Açılış	-11.0053
▁vazgeçme	-11.0055
▁değişme	-11.0056
▁ilçelerinde	-11.0057
▁tra	-11.0057
para	-11.0057
▁fizik	-11.0059
▁yükselt	-11.0064
▁atıp	-11.0064
EGEDESONSÖZ	-11.0066
▁amca	-11.0066
▁patlat	-11.0066
mistir	-11.0069
▁diyoruz	-11.007
▁sin	-11.0072
▁taahhüt	-11.0073
▁Libya	-11.0073
▁SON	-11.0074
▁Kaynaklar	-11.0074
▁çalışmalarda	-11.0075
▁gösterecek	-11.0076
▁istikrarı	-11.0076
▁kırdı	-11.0076
▁topluluğu	-11.0079
▁2017	-11.0079
▁turizmi	-11.008
▁yakınlarına	-11.0084
▁Yüz	-11.0085
▁arkadaşlarıyla	-11.0085
▁Tim	-11.0085
▁diren	-11.0088
Fenerbahçe	-11.009
▁bot	-11.009
▁izle	-11.009
▁Batılı	-11.0091
▁bırakılması	-11.0092
Top	-11.0092
lığının	-11.0095
▁nakil	-11.0097
▁Afgan	-11.0097
▁Art	-11.0098
▁73	-11.01
▁makineleri	-11.01
▁Firma	-11.01
▁Soylu	-11.0101
▁sonuçlandı	-11.0102
▁Başkanlık	-11.0103
▁evlat	-11.0103
▁değin	-11.0104
▁hissetme	-11.0105
▁beyni	-11.0105
▁Ahmed	-11.0105
olog	-11.0108
▁şarkılar	-11.0109
od	-11.0112
▁nitelikli	-11.0113
▁ac	-11.0113
Devlet	-11.0114
▁keyif	-11.0114
▁muhtemel	-11.0115
▁simge	-11.0115
▁Kişi	-11.0116
gaz	-11.0116
▁işlemlerin	-11.0118
▁meme	-11.0119
▁Bitlis	-11.012
▁Konut	-11.0122
▁uyarısı	-11.0123
Bo	-11.0123
▁lezzet	-11.0124
log	-11.0126
▁deyip	-11.0127
▁Özlem	-11.0127
▁operasyonun	-11.013
▁unsuru	-11.0132
Gö	-11.0134
▁uygulamanın	-11.0137
▁nedenlerle	-11.0137
▁1990	-11.0139
▁Mc	-11.0141
▁per	-11.0142
ite	-11.0144
▁Çınar	-11.0144
▁cezasını	-11.0145
▁hesapları	-11.0147
▁Ziyaret	-11.0153
▁oluşur	-11.0155
▁uçakları	-11.0156
▁Sevgililer	-11.0157
▁BAŞKAN	-11.0158
▁BÜYÜK	-11.0158
▁matematik	-11.0159
▁Tem	-11.0162
▁hayvanları	-11.0162
▁takibi	-11.0169
▁espri	-11.0173
▁Radyo	-11.0173
▁nitelikte	-11.0173
▁getirdiğini	-11.0175
03	-11.0176
▁başkanlığını	-11.0176
İNE	-11.0176
▁ARA	-11.0178
▁74	-11.0181
72	-11.0183
ino	-11.0185
▁Altun	-11.0188
▁ilgisini	-11.019
▁yazıyor	-11.0191
▁kulağı	-11.0194
▁kapasitesi	-11.0196
▁Millet	-11.0198
▁önlemi	-11.02
▁skandal	-11.0204
▁vefat	-11.0207
▁görecek	-11.0208
▁milleti	-11.0214
▁beraberinde	-11.0214
ast	-11.0214
▁yakını	-11.0214
▁ko	-11.0215
▁öngörülen	-11.0216
▁maçlar	-11.0217
▁Kom	-11.0219
▁edecektir	-11.0223
▁130	-11.0223
▁bölgeden	-11.0228
▁davasında	-11.0229
cular	-11.0229
▁küme	-11.0234
▁noktaları	-11.0234
▁gündemi	-11.0235
▁kitaplar	-11.0238
▁Nitekim	-11.0239
▁teori	-11.0242
oo	-11.0242
▁başlayıp	-11.0242
▁seferleri	-11.0246
▁Kardeş	-11.0247
▁yaklaşımı	-11.0248
▁İZ	-11.0249
▁görülür	-11.025
▁Soy	-11.025
▁ilişkilerinin	-11.0251
▁kitabın	-11.0252
▁koşullarda	-11.0252
▁Saldırı	-11.0252
▁SE	-11.0255
▁69	-11.0258
▁konuşmak	-11.0261
▁çağın	-11.0262
▁Afyonkarahisar	-11.0263
▁çılgın	-11.0263
▁Küba	-11.0263
▁KAY	-11.0266
▁kısmında	-11.0267
▁alacağız	-11.0268
▁Durum	-11.0268
▁Yoğun	-11.0269
▁vermeyen	-11.0269
▁atılması	-11.027
▁ocağı	-11.0271
yorum	-11.0274
ON	-11.0277
▁gördüğüm	-11.0278
▁bilgisini	-11.0282
▁82	-11.0283
▁topa	-11.0284
▁Metro	-11.0285
▁bırakılan	-11.0288
▁(1	-11.0288
biz	-11.029
▁gürültü	-11.029
▁Şarkı	-11.0291
▁83	-11.0291
▁900	-11.0294
▁Valilik	-11.0294
▁gelmesini	-11.0294
▁hedefleri	-11.0297
ilme	-11.0298
▁kaçırma	-11.0301
▁kalacağı	-11.0301
▁Gelir	-11.0301
▁Turnuvası	-11.0302
ılacağı	-11.0303
▁sonuçta	-11.0304
▁ihalesi	-11.0307
▁rekoru	-11.0307
▁takma	-11.0308
▁Müziği	-11.0311
▁hemşire	-11.0311
▁Güzelbahçe	-11.0311
▁baz	-11.0313
▁Başkanımız	-11.0313
Er	-11.0317
▁düzenlemesi	-11.0317
▁katılımı	-11.0318
oto	-11.0319
▁11'	-11.0319
▁uluslar	-11.0319
▁alet	-11.0319
▁yendi	-11.032
▁gözaltı	-11.0321
▁onlarla	-11.0322
laşması	-11.0323
▁sorulması	-11.0323
▁Raporu	-11.0323
▁Alanı	-11.0324
▁Alt	-11.0325
▁saldırının	-11.0325
▁bekle	-11.0325
▁bedel	-11.0326
IT	-11.033
elli	-11.0332
▁gelişmelerin	-11.0332
▁ötesinde	-11.0334
▁Bayraktar	-11.0335
▁harcan	-11.0336
▁Sorumlusu	-11.0338
medim	-11.0338
▁Çağ	-11.0338
▁Eskişehirspor	-11.0339
▁yem	-11.034
▁yasanın	-11.034
▁United	-11.0344
▁Um	-11.0345
▁kolayca	-11.0346
▁İLE	-11.0351
▁güveni	-11.0351
▁ez	-11.0351
▁bombası	-11.0355
▁yapanlar	-11.0355
▁140	-11.0356
▁yolla	-11.0356
▁baktı	-11.0358
▁eylemleri	-11.0358
▁tweet	-11.0359
▁temmuz	-11.0359
▁cennet	-11.036
▁uğrayan	-11.0361
pen	-11.0362
ora	-11.0362
▁duyulan	-11.0363
▁duruşmaya	-11.0365
sco	-11.0365
63	-11.0368
▁giy	-11.0369
▁Kapı	-11.0369
▁rakamın	-11.0369
▁Aygün	-11.0372
▁bitmesi	-11.0373
nal	-11.0373
gra	-11.0374
landırdı	-11.0376
▁hayatının	-11.0377
▁Başarı	-11.0377
▁sağlandı	-11.0378
▁hatları	-11.038
▁örtü	-11.038
mesinin	-11.0381
▁Disiplin	-11.0383
▁bilinci	-11.0384
▁yönden	-11.0388
iang	-11.0388
▁savunuyor	-11.039
▁cihazı	-11.039
▁kuruluşlar	-11.039
▁Yüzde	-11.039
▁Usta	-11.0391
▁demeçte	-11.0392
▁ellerinden	-11.0392
▁Dalı	-11.0392
▁ağacı	-11.0393
sman	-11.0393
▁nüfusun	-11.0395
▁13.	-11.0396
02	-11.0399
og	-11.04
▁yapacakları	-11.0402
▁takvimi	-11.0404
▁tartış	-11.0407
▁göstergesi	-11.0408
▁yönlü	-11.0411
▁kesinti	-11.0412
▁çıkmıştı	-11.0412
▁hareketli	-11.0415
▁söylenen	-11.0417
▁senetleri	-11.0418
▁başlatan	-11.042
▁olamadı	-11.042
▁yönet	-11.0421
▁kararla	-11.0421
▁topluma	-11.0421
the	-11.0421
▁Ofisi	-11.0422
▁mensuplarına	-11.0423
▁mah	-11.0426
▁imalat	-11.0427
▁kimseyi	-11.0428
▁ödeyecek	-11.0428
▁birlikleri	-11.043
▁Gösteri	-11.0432
▁haksızlık	-11.0432
▁sürmesi	-11.0433
▁Alevi	-11.0435
▁ilişkilerini	-11.0437
▁yum	-11.0438
▁geçerken	-11.0438
▁hatası	-11.0439
▁Wal	-11.0443
▁ME	-11.0445
▁kaybetmesi	-11.0446
▁edilmesine	-11.0449
yacağı	-11.0449
▁Fenerbahçeli	-11.045
gur	-11.0451
TEN	-11.0453
▁güldü	-11.0453
▁hic	-11.0455
▁sektörde	-11.0455
▁değiştirmek	-11.0455
▁Organizasyon	-11.0456
▁buğday	-11.0456
▁Tra	-11.0457
▁mantar	-11.0458
▁gecede	-11.0459
▁Carlos	-11.0459
▁konuların	-11.0461
cam	-11.0461
Ro	-11.0462
pro	-11.0462
▁büyümesi	-11.0465
▁tanış	-11.0466
eğe	-11.0471
▁cemaat	-11.0474
▁zincir	-11.0475
▁araçta	-11.0476
-15	-11.0476
▁yatırımları	-11.0476
▁mantık	-11.0476
▁tarif	-11.048
▁protein	-11.0481
▁Nobel	-11.0483
SU	-11.0485
▁Avni	-11.0485
▁Ece	-11.0487
▁yapmadı	-11.0487
▁saklan	-11.0488
▁düşünür	-11.0489
▁ateşi	-11.0492
▁Efe	-11.0492
▁Hele	-11.0493
▁romanı	-11.0493
▁Opera	-11.0495
▁Kapısı	-11.0496
▁Geç	-11.0502
▁karşılama	-11.0502
▁cm	-11.0503
▁kütüphane	-11.0504
▁mimar	-11.0505
▁İstatistik	-11.0505
▁komedi	-11.0506
▁arkasından	-11.0506
▁AVM	-11.0506
▁dağıtımı	-11.0507
▁duyuyorum	-11.0507
▁kaset	-11.0507
▁söyledikleri	-11.0508
tta	-11.0508
▁görüntüsü	-11.0509
▁Kerem	-11.0511
▁180	-11.0512
▁girişinde	-11.0513
▁süresinin	-11.0514
▁büyüdü	-11.0516
etti	-11.0516
▁tempo	-11.0516
▁ilçesindeki	-11.0518
▁Ergenekon	-11.0518
▁etapta	-11.0519
▁Daum	-11.052
mazsa	-11.052
▁kavuştu	-11.0522
▁patlaması	-11.0522
▁politikaları	-11.0524
▁balıkçı	-11.0526
▁Sevgili	-11.0526
▁kapıyı	-11.0527
▁türban	-11.0527
▁tarihten	-11.0527
▁kurtardı	-11.0528
larımı	-11.0528
▁Voleybol	-11.053
tme	-11.0532
▁bek	-11.0533
▁alanın	-11.0533
▁satıl	-11.0534
▁fabrikası	-11.0534
▁memnuniyet	-11.0536
▁yurttaş	-11.0536
▁Karataş	-11.0538
▁görevleri	-11.0538
▁kaynaklandığını	-11.0543
▁cevabını	-11.0544
▁TFF	-11.0544
▁Pen	-11.0545
▁paylaşma	-11.0545
▁otur	-11.0547
▁bakmak	-11.0548
▁başsağlığı	-11.0554
▁Boğaziçi	-11.0555
▁yürü	-11.0555
▁Demirören	-11.0555
▁çoban	-11.0555
▁gelebilir	-11.0555
):	-11.0555
▁Kon	-11.0556
▁Anket	-11.0556
▁esnafın	-11.0556
▁kocası	-11.0558
▁toplamda	-11.0565
ılmaz	-11.0565
▁finali	-11.0572
kış	-11.0574
▁izliyor	-11.0575
▁uğra	-11.0576
▁Gazeteci	-11.0579
▁nakit	-11.0579
▁değerlendir	-11.058
▁Olgun	-11.058
▁Kerry	-11.058
▁hekim	-11.058
▁kamuoyunun	-11.0581
▁fo	-11.0582
▁partililer	-11.0582
▁sözde	-11.0583
▁engelliler	-11.0584
▁komşuları	-11.0585
▁katılarak	-11.0586
▁tu	-11.0586
▁olaylarda	-11.0587
▁patron	-11.0588
▁toplayan	-11.059
▁sağladığını	-11.0591
▁verileri	-11.0593
cilerin	-11.0593
rmak	-11.0594
▁eğilim	-11.0595
▁mikro	-11.0596
▁sisteme	-11.0598
▁içe	-11.0598
▁ekonomisine	-11.0599
▁Sistem	-11.06
▁gelirse	-11.0601
▁Meteoroloji	-11.0604
▁müslüman	-11.0604
▁dayanıklı	-11.0604
▁Şirin	-11.0605
▁Durmuş	-11.0605
rey	-11.0606
▁durağı	-11.0607
est	-11.0608
▁Torbalı	-11.0608
▁Tah	-11.0609
▁açarak	-11.0612
▁istediğim	-11.0614
▁başlamıştı	-11.0616
▁EL	-11.0616
▁TEM	-11.0618
▁bombalı	-11.0619
▁kullanacak	-11.0619
▁sütun	-11.0622
▁pencere	-11.0622
▁hain	-11.0623
▁fiyatlar	-11.0624
▁uy	-11.0624
Suriye	-11.0626
▁evlen	-11.0628
amayacağını	-11.0628
▁irtibat	-11.0629
▁mutabakat	-11.0629
▁yükselme	-11.063
▁organik	-11.0631
▁sisteminde	-11.0631
▁Fuat	-11.0632
▁kadrosuna	-11.0632
▁görmeye	-11.0632
▁once	-11.0633
▁ülkesinin	-11.0638
▁isterken	-11.0639
▁kurulmuş	-11.0639
▁taşınması	-11.0641
▁atanan	-11.0642
▁Ey	-11.0643
▁besteci	-11.0645
▁bende	-11.0645
▁duruşu	-11.0649
▁yorumunu	-11.065
▁teknolojik	-11.065
▁isterse	-11.0652
▁mutluluğu	-11.0652
▁General	-11.0654
▁Tartışma	-11.0654
▁Tekirdağ	-11.0654
▁Unakıtan	-11.0654
▁böbrek	-11.0654
▁orijinal	-11.0654
▁ihanet	-11.0654
▁general	-11.0654
▁taraflı	-11.0654
▁88	-11.0658
▁3’	-11.0658
▁öncelik	-11.0658
▁Çift	-11.0661
▁hazırız	-11.0662
▁dönecek	-11.0663
▁kop	-11.0663
42	-11.0668
▁birim	-11.067
▁Çiller	-11.067
El	-11.0677
INA	-11.0677
▁Hatice	-11.0679
▁aklıma	-11.0679
▁Kapalı	-11.0679
▁Marşı	-11.0679
▁seçeneği	-11.0679
Kendi	-11.0683
▁kıy	-11.0683
▁varken	-11.0684
▁etmeyen	-11.0685
▁sözleriyle	-11.0687
▁Post	-11.0689
▁işçisi	-11.069
▁gelenek	-11.0691
deniz	-11.0693
▁yazarları	-11.0693
▁istemesi	-11.0694
yeceği	-11.0697
▁meclisi	-11.0697
anne	-11.07
▁üretme	-11.0701
içi	-11.0701
▁bozdu	-11.0701
▁çocuğa	-11.0703
▁Ker	-11.0707
▁TCK	-11.0708
▁yolculuğu	-11.071
▁biyolojik	-11.071
▁atölye	-11.0711
▁ihtiyacını	-11.0712
▁Kutlu	-11.0712
▁rahmet	-11.0713
▁hukukun	-11.0714
▁yönel	-11.0714
▁bölgelere	-11.0717
▁yolundaki	-11.0717
▁Denizi	-11.0719
▁finansman	-11.0719
▁1500	-11.072
▁şansını	-11.072
Kadın	-11.0721
▁kırsalının	-11.0724
▁tahta	-11.0724
▁gezdi	-11.0725
▁kullanıcıların	-11.0725
▁binasının	-11.0728
▁Un	-11.073
▁takvim	-11.0732
DÜ	-11.0733
▁ettiğim	-11.0733
▁Hıristiyan	-11.0735
eme	-11.0738
▁Zi	-11.0739
▁kesildi	-11.0739
▁Vatandaş	-11.0741
Tek	-11.0741
▁tayin	-11.0742
▁Caner	-11.0743
▁elma	-11.0744
▁midir	-11.0746
zade	-11.0746
▁önerdi	-11.0747
▁kazanıyor	-11.0747
▁3.5	-11.0747
irse	-11.0749
▁yapın	-11.0749
▁alınıyor	-11.075
▁damga	-11.0751
▁pazarı	-11.0752
▁CNN	-11.0754
▁Kaçakçılık	-11.0754
▁Sözcü	-11.0755
nis	-11.0758
▁tarımsal	-11.0759
tle	-11.0764
▁Hedef	-11.0766
▁ceset	-11.0766
▁yayınlandı	-11.0766
▁Törende	-11.0767
▁aktarma	-11.0771
▁yürüyen	-11.0772
▁olacağım	-11.0774
▁değiştirilmesi	-11.0775
SPOR	-11.0775
▁partiye	-11.0778
▁karaciğer	-11.0779
▁çarşamba	-11.0779
▁İhbar	-11.0779
▁ikramiye	-11.078
▁Ulus	-11.0784
iyo	-11.0785
▁olmamız	-11.0786
▁kayna	-11.0788
▁durumdan	-11.0789
▁Alper	-11.0789
lendirilmesi	-11.0789
▁söyleniyor	-11.0792
▁Başsavcısı	-11.0792
▁kendimizi	-11.0794
▁kör	-11.0795
▁Pir	-11.0797
▁1-2	-11.0801
▁Sezon	-11.0802
zel	-11.0802
gre	-11.0802
▁Jiabao	-11.0804
▁yetenekli	-11.0804
▁taşeron	-11.0804
▁edebilecek	-11.0805
memiş	-11.0805
▁topar	-11.0806
▁kitapta	-11.0806
▁törene	-11.0807
▁karı	-11.0807
▁Fidan	-11.0808
▁Satış	-11.0809
▁alınıp	-11.0809
INDA	-11.0809
▁yiyen	-11.081
▁anahtar	-11.0811
▁gelişmekte	-11.0812
▁99	-11.0812
bert	-11.0814
▁mesajını	-11.0815
muştur	-11.0817
▁Koordinatörü	-11.0817
▁AS	-11.0817
ildiğini	-11.0818
▁binada	-11.0819
ırsa	-11.0821
▁Gol	-11.0823
EV	-11.0823
▁Başsavcı	-11.0824
▁yapıyorum	-11.0827
▁dağıttı	-11.0827
hak	-11.0828
▁ten	-11.0828
▁kullanması	-11.0829
▁Serbest	-11.0829
▁pirinç	-11.0829
▁Nevzat	-11.0829
▁yaşamış	-11.083
rip	-11.083
▁gelmeye	-11.0832
▁oyuncak	-11.0833
▁işlerini	-11.0833
▁yöneticilerin	-11.0833
▁heyecanı	-11.0834
▁gidin	-11.0834
▁ETTİ	-11.0835
▁kanlı	-11.0835
▁Tören	-11.0837
▁yakınında	-11.0838
▁yor	-11.0844
▁78	-11.0845
mel	-11.0845
▁Yok	-11.0846
ski	-11.0847
▁cari	-11.085
▁Bayındır	-11.085
▁kentindeki	-11.0851
▁istismar	-11.0852
▁götürme	-11.0853
▁projesinin	-11.0854
▁Toyota	-11.0855
▁pozitif	-11.0855
▁teşebbüs	-11.0855
▁Kobani	-11.0855
▁tıpkı	-11.0856
▁mülk	-11.0857
▁varan	-11.0858
▁yankı	-11.0859
▁gar	-11.086
▁mühendis	-11.086
▁Macaristan	-11.0861
▁ortalaması	-11.0862
97	-11.0862
▁koyarak	-11.0862
▁düşer	-11.0862
▁yönünden	-11.0862
▁Seri	-11.0863
▁Federasyon	-11.0864
▁kavramı	-11.0865
ring	-11.0866
▁husus	-11.0867
▁almasını	-11.0868
▁Umarım	-11.0868
ion	-11.0871
▁ja	-11.0871
▁suçlama	-11.0877
▁Fevzi	-11.088
▁resimleri	-11.0881
▁tutuklanan	-11.0882
▁takımına	-11.0883
▁bağlayan	-11.0883
▁randevu	-11.0884
▁tutulması	-11.0884
ld	-11.0884
▁Akademi	-11.0884
▁ankara	-11.0886
▁kuvvetleri	-11.0887
▁İzmirliler	-11.0887
▁Duru	-11.0887
SK	-11.0889
▁yolcular	-11.0895
▁gelirleri	-11.0895
▁güçlükle	-11.0896
Bunlar	-11.0896
▁Gir	-11.0897
▁devrimci	-11.0901
cha	-11.0902
▁Tarsus	-11.0906
▁banyo	-11.0906
▁saldır	-11.0907
▁örnekler	-11.0908
▁tartışmaya	-11.0908
▁dışarıdan	-11.0908
▁antrenörü	-11.0908
▁yönlendirme	-11.0912
▁öp	-11.0913
▁sorgulama	-11.092
▁inanıyor	-11.092
▁kutlamaları	-11.0924
▁aramada	-11.0924
▁ÇKP	-11.0925
▁güçlerin	-11.0926
▁KAL	-11.0926
▁bölgeleri	-11.0927
▁partili	-11.0928
▁Sin	-11.0929
▁yaralandığını	-11.093
▁İdari	-11.0931
▁belirtilirken	-11.0932
▁seçilmiş	-11.0933
▁Uzay	-11.0933
▁istasyon	-11.0934
▁arayıp	-11.0935
İYOR	-11.0936
▁Kı	-11.0936
▁kenara	-11.0938
▁karşımıza	-11.0938
▁Sizin	-11.0941
▁bilmeyen	-11.0942
▁merkezde	-11.0942
▁kıyasla	-11.0943
emeyecek	-11.0944
▁dök	-11.0946
▁alanların	-11.0946
▁gene	-11.0948
▁yorumlar	-11.0948
▁afiş	-11.0951
▁Maria	-11.0951
Böyle	-11.0954
▁otomobilde	-11.0954
▁soyunma	-11.0955
▁beşiktaş	-11.0957
▁Yrd	-11.0957
ymış	-11.0957
▁buçuk	-11.0957
▁Boy	-11.0958
▁gerçekleştirme	-11.0958
▁Uçak	-11.096
larınız	-11.096
▁şerit	-11.0961
▁imzalanan	-11.0967
▁şirketlerinin	-11.0968
▁hisseleri	-11.0971
▁köpeği	-11.0973
‘‘	-11.0974
▁memleket	-11.0976
ÜR	-11.0977
▁talebini	-11.0979
▁forması	-11.0981
▁şifre	-11.0981
▁Kahramanmaraş	-11.0983
▁Manchester	-11.0983
▁Sırp	-11.0983
▁iflas	-11.0983
▁Endeksi	-11.0983
yat	-11.0984
diler	-11.0984
▁kadarıyla	-11.0985
▁oturuyor	-11.0986
▁sigortası	-11.0987
▁kayıplar	-11.0988
▁koyar	-11.0989
▁İrlanda	-11.099
▁engelleme	-11.099
▁eğ	-11.0991
▁demokrasinin	-11.0993
▁dille	-11.0995
▁bazında	-11.0996
▁polislerin	-11.0996
▁elden	-11.0998
▁detayları	-11.1001
▁karşısındaki	-11.1001
▁Saygı	-11.1002
▁ödenmesi	-11.1005
▁olabiliyor	-11.1005
▁EV	-11.1005
▁May	-11.1008
▁Denktaş	-11.1008
▁otobüsü	-11.1008
▁Vo	-11.1011
yazı	-11.1012
ğimiz	-11.1015
▁Çağdaş	-11.1018
▁davranışları	-11.102
▁çıkmadı	-11.102
▁öldürmek	-11.1021
line	-11.1022
▁yorumu	-11.1023
▁Gençler	-11.1024
▁çarpıştı	-11.1026
▁yemekleri	-11.1027
▁Çal	-11.1028
▁belgeler	-11.1029
▁yapmaları	-11.103
▁vücudun	-11.1032
▁Richard	-11.1034
▁tezahürat	-11.1035
▁izlemeye	-11.1036
▁vazgeçilmez	-11.1036
▁tekniği	-11.1036
ere	-11.1037
▁zinciri	-11.1037
▁tutulan	-11.1038
▁çalıştır	-11.1038
▁sunucu	-11.1038
▁Çukurova	-11.1039
▁görünüm	-11.1039
▁tekme	-11.1043
▁Sta	-11.1044
▁otobüsün	-11.1047
▁yaratıcı	-11.105
lanmaya	-11.105
▁esir	-11.1052
▁anlamıyla	-11.1053
▁açıklamasının	-11.1053
▁yaptırım	-11.1054
▁Pri	-11.1054
▁aniden	-11.1057
▁Mel	-11.1057
▁çıkacağı	-11.1059
▁razı	-11.1061
▁Sındır	-11.1061
▁girmeye	-11.1061
▁erkeklerde	-11.1061
▁ra	-11.1061
▁görülme	-11.1061
▁belirtilerek	-11.1061
YI	-11.1062
▁etkilenen	-11.1063
▁nesne	-11.1064
lıyoruz	-11.1065
▁Bucaspor	-11.1065
▁anlattığı	-11.1066
▁Bayan	-11.1072
▁Çözüm	-11.1076
▁teması	-11.108
iyon	-11.1083
▁84	-11.1084
çılar	-11.1085
▁karın	-11.1086
▁ikamet	-11.1086
▁Cenaze	-11.1086
Artık	-11.1087
▁amaçlayan	-11.1091
cil	-11.1091
▁merkezinin	-11.1092
▁start	-11.1093
▁kasım	-11.1093
▁sahiplerine	-11.1093
▁açıklamayı	-11.1095
▁Doğum	-11.1097
▁direğ	-11.1097
▁van	-11.1098
▁devlete	-11.1099
▁şik	-11.11
▁yükü	-11.11
▁özelliğini	-11.11
▁Hamit	-11.11
▁Hastanesine	-11.1102
nizin	-11.1103
▁zorunluluğu	-11.1104
SP	-11.1109
▁ayın	-11.1111
▁kapasiteli	-11.1111
▁Jones	-11.1113
▁Tahran	-11.1114
▁başlıca	-11.1116
▁finalinde	-11.1117
▁pazarında	-11.1117
▁kendime	-11.1118
▁gününü	-11.112
▁görüşen	-11.1121
ÇE	-11.1121
▁beklentileri	-11.1122
▁Bra	-11.1123
Li	-11.1124
▁79	-11.1126
▁seçimin	-11.1127
▁ayıp	-11.1128
▁sanatı	-11.1128
▁haberini	-11.1128
▁gazetesine	-11.1129
ografi	-11.113
▁Ödülleri	-11.113
▁yatırımı	-11.1133
▁abart	-11.1135
▁düşünmek	-11.1136
▁şikayeti	-11.1138
▁KU	-11.1139
▁Dilek	-11.114
▁inanan	-11.1141
▁insanlarla	-11.1142
bit	-11.1144
▁uzaklıkta	-11.1145
▁dahilinde	-11.1145
▁19.	-11.1146
▁We	-11.1147
▁bulunduklarını	-11.1147
▁krem	-11.1148
▁almaktadır	-11.1148
▁Antik	-11.115
RO	-11.1151
▁gizle	-11.1155
vekil	-11.1156
▁vizyon	-11.1157
▁Sonuç	-11.1157
▁Sanatçı	-11.1158
▁soykırım	-11.1161
▁atı	-11.1161
▁tüfek	-11.1161
▁akciğer	-11.1165
▁temyiz	-11.1165
▁Zengin	-11.1165
▁kumaş	-11.1165
▁Kilisesi	-11.1165
▁müdürlüğü	-11.1166
▁basketbolcu	-11.1167
▁takdim	-11.1167
▁silahlar	-11.1168
▁unutulmaz	-11.1169
▁Yılın	-11.117
dö	-11.1173
▁kolaylık	-11.1173
çin	-11.1174
MEN	-11.1175
▁çevirme	-11.1177
▁***	-11.1177
▁takımla	-11.1182
müştü	-11.1184
▁genişlet	-11.1185
▁tanker	-11.1186
▁tanıştı	-11.1187
▁My	-11.1187
▁kayıtları	-11.119
ünde	-11.119
▁facia	-11.119
▁GALERİ	-11.1191
▁Isparta	-11.1191
▁kadroya	-11.1191
▁Erbakan	-11.1192
▁Tarık	-11.1192
▁Motor	-11.1192
▁geliştirdiği	-11.1193
▁taban	-11.1194
anlar	-11.1194
▁miydi	-11.1196
▁taşındı	-11.1196
uç	-11.1198
▁yağı	-11.1201
▁çim	-11.1202
▁dayanan	-11.1202
▁görüşmek	-11.1204
▁üretil	-11.1204
▁geçip	-11.1205
▁Ji	-11.1206
ell	-11.1208
▁Kuru	-11.1211
ÜM	-11.1212
▁burun	-11.1213
▁sabır	-11.1213
▁arkasına	-11.1215
▁Latin	-11.1215
▁doz	-11.1215
Ay	-11.1216
▁Haydar	-11.1218
▁DTP	-11.1218
Hayır	-11.1218
▁kullanılarak	-11.122
▁karışık	-11.1222
▁hükümlü	-11.1222
▁boyut	-11.1224
▁önerileri	-11.1224
▁Mes	-11.1225
▁edebiyatı	-11.1226
▁abd	-11.123
▁hastanın	-11.123
▁rejimi	-11.1232
▁geçmeye	-11.1232
▁sıralama	-11.1233
▁fotoğrafını	-11.1233
▁yayım	-11.1235
▁çaldı	-11.1236
▁İskender	-11.1237
▁etmeden	-11.124
▁j	-11.1241
▁evrak	-11.1242
▁bölme	-11.1243
▁Muzaffer	-11.1243
▁PARTİ	-11.1244
▁robot	-11.1244
▁ruhsat	-11.1244
▁Üretim	-11.1244
▁DAHA	-11.1244
▁unutmayın	-11.1245
▁aşağıdaki	-11.1245
▁haz	-11.1246
▁gerektiren	-11.1246
mızdan	-11.1246
▁uğradığı	-11.1246
62	-11.1247
▁kanadı	-11.1247
▁tamir	-11.1248
▁maddelerin	-11.1248
▁merkezindeki	-11.1249
kçı	-11.125
-10	-11.1251
▁hastalığın	-11.1253
emeyeceği	-11.1254
▁mutfak	-11.1255
▁yapmadan	-11.1256
▁yılındaki	-11.1258
▁onarım	-11.1259
▁turistlerin	-11.1259
suzluk	-11.126
!”	-11.1261
▁ateşe	-11.1261
düğünü	-11.1262
▁futbolun	-11.1267
▁Leyla	-11.1268
ımıza	-11.1269
▁Şükür	-11.127
▁işçileri	-11.127
▁okuyor	-11.127
▁Yolları	-11.1274
▁karşılamak	-11.1274
ladıkları	-11.1275
▁takımında	-11.1275
▁deneyimi	-11.1275
▁açar	-11.1278
▁kalkış	-11.1278
▁sür	-11.1279
▁organı	-11.1279
▁efendim	-11.1281
▁siyaseti	-11.1282
▁dilim	-11.1284
pla	-11.1284
▁sis	-11.1285
▁belirlenecek	-11.1288
▁patronu	-11.1288
▁projelerin	-11.1289
▁genelge	-11.129
▁rota	-11.129
▁yenileme	-11.1292
▁araştırmaya	-11.1296
▁soğan	-11.1297
▁eğitimin	-11.1298
ullah	-11.1299
▁çöl	-11.1301
▁dusun	-11.1302
▁yapılırken	-11.1302
▁sure	-11.1302
04	-11.1302
ıyorlar	-11.1302
▁koymak	-11.1302
▁Aralarında	-11.1303
▁esnafı	-11.1307
▁karışan	-11.1308
▁sürdürü	-11.1312
▁AİHM	-11.1314
▁etmekte	-11.1314
▁düşür	-11.1315
çiler	-11.1316
51	-11.1316
▁bakanı	-11.1318
sunun	-11.1319
▁rakipleri	-11.132
▁etken	-11.1321
▁Ortaokulu	-11.1323
▁pratik	-11.1323
▁Chirac	-11.1323
▁atıl	-11.1324
▁arabası	-11.1324
▁arkadas	-11.1324
▁müdahalesi	-11.1324
▁Karayolu	-11.1324
iyordu	-11.1326
lerimi	-11.1327
▁AP	-11.1327
abildi	-11.1329
▁cezaları	-11.133
▁Araç	-11.133
▁Edinil	-11.1332
▁Patlama	-11.1332
▁cinsiyet	-11.1334
▁oyunda	-11.1335
▁etkinlikte	-11.1335
DO	-11.1339
▁ithalatı	-11.134
▁ardı	-11.1341
▁anıt	-11.1343
▁internette	-11.1344
▁Şar	-11.1345
▁Muş	-11.1346
▁Boğaz	-11.1347
▁tenis	-11.1348
▁belirlen	-11.1349
▁çoğunlukla	-11.135
▁açığa	-11.135
▁Hilmi	-11.1351
▁1-	-11.1352
▁Biri	-11.1352
ilebilir	-11.1352
▁bulması	-11.1353
▁Ligde	-11.1353
▁oynamaya	-11.1353
▁hukuka	-11.1354
alp	-11.1355
▁Kenti	-11.1356
sat	-11.1356
▁tadı	-11.1357
▁ırkçı	-11.1358
▁çıkarıyor	-11.136
▁canı	-11.136
▁günah	-11.136
▁Yaman	-11.1361
▁anılan	-11.1364
uma	-11.1364
▁Konferans	-11.1367
yelim	-11.137
▁şiddetle	-11.1374
▁kursu	-11.1375
▁Eser	-11.1376
▁ücretleri	-11.1376
▁Sonuçta	-11.1376
▁işçinin	-11.1376
▁Kavşağı	-11.1376
▁sterlin	-11.1377
▁temenni	-11.1378
▁anısına	-11.1379
▁suçlamaları	-11.1381
▁Ad	-11.1382
▁tok	-11.1383
▁çalan	-11.1385
▁tenisçi	-11.1387
ILDI	-11.1387
▁uzunluğunda	-11.1389
▁yapılmıştır	-11.139
▁yapmaz	-11.139
▁nehir	-11.1391
▁kandır	-11.1391
▁Mevcut	-11.1393
▁Pas	-11.1393
▁sanal	-11.1395
▁sorunlarının	-11.1397
▁tedbirler	-11.1398
▁Aslı	-11.1401
▁bölücü	-11.1403
▁Abbas	-11.1404
▁mobilya	-11.1405
▁Resim	-11.1405
rul	-11.1406
park	-11.1406
▁sunuldu	-11.1406
▁söylemiş	-11.1406
▁Kav	-11.1406
▁yazın	-11.1407
▁bulunuldu	-11.1408
▁başlatıl	-11.1408
rar	-11.1409
▁mesleki	-11.141
▁umudu	-11.1411
▁gezen	-11.1411
▁düşürdü	-11.1411
▁Afet	-11.1414
▁açılışını	-11.1415
▁başladıklarını	-11.1418
▁ormanlık	-11.1422
KON	-11.1424
▁kaybettik	-11.1424
▁akraba	-11.1427
▁başvurma	-11.1429
▁incelemesi	-11.1429
▁İzzet	-11.143
▁Hangi	-11.143
▁Çaykur	-11.143
▁Abdul	-11.1431
▁oradaki	-11.1432
Ara	-11.1432
▁Belge	-11.1432
▁Gra	-11.1432
▁Camisi	-11.1432
▁işveren	-11.1433
▁belirlediği	-11.1435
▁egemenliği	-11.1437
LERİN	-11.1437
▁Esen	-11.1438
▁yaklaştı	-11.1439
▁versin	-11.1439
Başkan	-11.1439
▁kapıları	-11.144
▁malum	-11.1442
layacağız	-11.1442
arım	-11.1442
▁getirmeye	-11.1443
▁gen	-11.1445
▁Etki	-11.1445
ero	-11.1446
▁listesine	-11.1446
▁87	-11.1452
▁istemediğini	-11.1453
▁Koleji	-11.1454
▁değişimi	-11.1454
▁balkon	-11.1457
▁göğsü	-11.1457
▁Günümüzde	-11.1458
▁yasadışı	-11.1459
▁başladılar	-11.1461
▁vermez	-11.1462
mıyorum	-11.1464
▁birincisi	-11.1466
▁çalışanlarının	-11.1469
-18	-11.1469
▁raporları	-11.1469
▁Haberde	-11.1472
▁formül	-11.1473
▁karşılaşmanın	-11.1477
▁kablo	-11.148
▁kurtuldu	-11.148
▁yetenek	-11.1481
▁tarafsız	-11.1483
▁alev	-11.1484
▁domates	-11.1484
▁yelken	-11.1484
▁dönüp	-11.1485
▁galibiyetle	-11.1485
▁Albayrak	-11.1485
▁zırhlı	-11.1487
▁öncü	-11.1487
▁yürütüyor	-11.1488
▁siyasetçiler	-11.1489
▁basında	-11.149
▁otelin	-11.1492
▁gösterildi	-11.1493
kale	-11.1493
▁ayni	-11.1493
▁sırayı	-11.1494
▁Şiddet	-11.1495
▁li	-11.1497
▁ediyordu	-11.1498
LERE	-11.1498
mat	-11.15
▁gerçekleşme	-11.15
▁bilgilerin	-11.1501
▁Yarışma	-11.1503
yolu	-11.1504
▁üretiminde	-11.1506
▁telefonları	-11.1507
▁otoyol	-11.1508
▁menajeri	-11.1508
▁Babası	-11.1509
▁kanaat	-11.151
sit	-11.1511
▁fuhuş	-11.1511
▁Otobüs	-11.1511
▁hafıza	-11.1511
▁Güreş	-11.1512
▁Halkın	-11.1513
▁öğrenilen	-11.1515
▁160	-11.1515
▁hedefliyoruz	-11.1515
▁özellik	-11.1515
▁bırakarak	-11.1517
▁döneminin	-11.1517
▁edenler	-11.1518
kes	-11.1518
▁Ozan	-11.1521
▁adama	-11.1523
▁muhafaza	-11.1524
▁baska	-11.1526
▁fakülte	-11.1529
▁rolünü	-11.1529
▁çevreye	-11.1531
▁sınıfta	-11.1532
▁ilkesi	-11.1533
▁verilir	-11.1534
▁ağrısı	-11.1535
▁Tal	-11.1536
▁bağımsızlığı	-11.1538
▁tatile	-11.1538
▁armağan	-11.1538
▁Ferhat	-11.1539
▁Musul	-11.1539
▁atlama	-11.1539
▁Uzman	-11.154
diğiniz	-11.154
▁savcılığa	-11.154
▁sportif	-11.154
▁duyar	-11.1542
▁yerleştirme	-11.1544
▁silin	-11.1544
▁binasına	-11.1545
ıt	-11.1546
▁plaket	-11.1546
▁değişiyor	-11.1546
▁sağlanan	-11.1546
▁depremde	-11.1547
▁ameliyatı	-11.1547
▁kuşak	-11.1547
▁ülkemiz	-11.1548
ÜZ	-11.155
▁mac	-11.1551
iği	-11.1555
▁yazmış	-11.1555
▁önü	-11.1555
▁YER	-11.1556
ib	-11.1557
▁Com	-11.1558
▁ala	-11.1558
▁piyasasında	-11.156
▁gösterge	-11.156
▁sınavı	-11.156
▁kartları	-11.1561
▁Nar	-11.1564
▁20.00	-11.1564
▁konum	-11.1565
▁ağustos	-11.1566
▁dehşet	-11.1566
▁gezegen	-11.1566
▁Afyon	-11.1566
▁Dinçer	-11.157
▁üyelerinden	-11.1571
▁ÖNCE	-11.1573
▁yanlarında	-11.1573
▁Bilal	-11.1574
▁car	-11.1575
AF	-11.1575
▁kaldırıl	-11.1576
▁saldırıyı	-11.1577
▁çalışıyorlar	-11.158
şık	-11.158
▁kavgaya	-11.1582
▁dağılımı	-11.1583
aklı	-11.1583
▁kesimin	-11.1584
abiliriz	-11.1585
emi	-11.1585
▁yangının	-11.1586
▁almaları	-11.1588
▁kurtarılamadı	-11.1588
▁sunacak	-11.1588
▁kalmıştı	-11.1592
▁Word	-11.1593
▁uğruna	-11.1593
▁ziyade	-11.1593
▁estetik	-11.1593
▁öngörülüyor	-11.1593
▁danışmanı	-11.1593
▁Sürücü	-11.1593
▁giril	-11.1593
▁YAPAR	-11.1594
▁verebilir	-11.1594
▁eşitlik	-11.1594
▁yardımcıları	-11.1594
lli	-11.1595
olojik	-11.1596
▁--	-11.1596
▁Kalkan	-11.1596
▁Stat	-11.1598
▁Hizbullah	-11.1599
rası	-11.16
▁etmediği	-11.1601
▁kapağı	-11.1601
▁mevzuat	-11.1602
▁Kendisine	-11.1606
▁beraberliği	-11.1607
▁üçte	-11.1607
▁sütü	-11.1608
▁önergesi	-11.1609
▁durak	-11.161
▁dinamik	-11.1611
▁başarıyı	-11.1613
▁BE	-11.1613
▁öğrendim	-11.1614
▁bilinç	-11.1614
yordu	-11.1614
▁seçimlere	-11.1614
▁mahkemece	-11.1617
▁duygusu	-11.1618
▁harf	-11.162
▁ANTALYA	-11.162
▁çukur	-11.1621
▁görüp	-11.1622
▁Toplantıya	-11.1622
▁Tarkan	-11.1622
▁uygula	-11.1623
▁üstlendi	-11.1624
hedeflediklerini	-11.1624
▁enfeksiyon	-11.1625
▁terörizm	-11.1625
▁Hani	-11.1625
▁voleybol	-11.1626
lanmasını	-11.1626
▁mahkemede	-11.1627
▁girişi	-11.1628
▁bildir	-11.1628
▁İranlı	-11.1628
▁kalarak	-11.1629
▁İsrailli	-11.1632
one	-11.1633
▁toplantısının	-11.1633
▁artırdı	-11.1633
▁mahkemenin	-11.1633
▁durdurdu	-11.1634
▁geçişi	-11.1635
LARA	-11.1636
leştiği	-11.1637
▁müzisyen	-11.1639
▁mücadelenin	-11.1642
▁gazi	-11.1642
▁boyle	-11.1643
▁çalıştık	-11.1645
▁harekat	-11.1647
▁köle	-11.1648
▁Mesela	-11.1648
sur	-11.1648
▁artışın	-11.165
amadığını	-11.165
▁Dündar	-11.165
▁kızının	-11.1651
▁Milletvekilleri	-11.1654
▁sevinci	-11.1656
▁yorumları	-11.1656
▁sporu	-11.1656
▁96	-11.1657
▁satışları	-11.1657
▁Hama	-11.1657
▁getirip	-11.1657
▁tokat	-11.1658
▁Kamp	-11.1659
▁ibaret	-11.1659
▁gençleri	-11.1659
▁mutlak	-11.166
TK	-11.1662
▁Yıllık	-11.1662
▁faaliyetlerini	-11.1663
▁TC	-11.1663
▁illerde	-11.1664
▁Balık	-11.167
▁Güç	-11.167
üşü	-11.1672
▁Kentin	-11.1672
▁olgun	-11.1672
▁ab	-11.1674
▁etmeyin	-11.1674
lme	-11.1674
▁evleri	-11.1674
bre	-11.1675
▁kok	-11.1675
▁favori	-11.1675
▁objektif	-11.1675
▁tahrik	-11.1675
▁mısır	-11.1676
▁Çoban	-11.1676
▁alınmasının	-11.1678
▁bakımı	-11.1678
▁pilotu	-11.1679
▁Kürtçe	-11.168
atif	-11.1681
layacağı	-11.1681
▁Dost	-11.1682
▁Fabrikası	-11.1684
▁Lin	-11.1684
Mar	-11.1685
▁Vadisi	-11.1687
▁istediler	-11.169
Der	-11.1691
usu	-11.1696
▁kabine	-11.1697
▁AT	-11.1697
rio	-11.1697
▁hatalı	-11.1698
▁ligi	-11.1699
bük	-11.1701
▁Ödül	-11.1703
▁asansör	-11.1703
▁Zira	-11.1703
▁Viyana	-11.1703
▁Cemiyeti	-11.1704
▁Frank	-11.1704
▁Kemalpaşa	-11.1705
▁ŞAM	-11.1705
▁kaybolan	-11.1706
hua	-11.1706
▁Gürkan	-11.1706
▁alınırken	-11.1707
kas	-11.1707
▁düşündüm	-11.1712
43	-11.1713
▁Gelen	-11.1716
LADI	-11.1717
▁demesi	-11.1718
▁koleksiyon	-11.1721
▁tık	-11.1723
▁öncesine	-11.1723
▁ayrıntı	-11.1725
▁yetiştirme	-11.1725
lıyorum	-11.1729
▁Mut	-11.173
▁mesafede	-11.173
▁çıktık	-11.1731
▁tezgah	-11.1731
▁istatistik	-11.1731
▁atmış	-11.1731
▁alıyoruz	-11.1733
cıoğlu	-11.1734
▁Özbek	-11.1734
▁Barosu	-11.1734
▁Ste	-11.1735
▁havadan	-11.1736
▁göreceğiz	-11.1738
sis	-11.1738
▁sopa	-11.1738
▁rehber	-11.1739
▁diyenler	-11.1739
▁Buz	-11.174
▁Duran	-11.174
▁maddesinin	-11.1744
▁tuttuğu	-11.1744
▁ret	-11.1745
▁Beko	-11.1746
▁mekanizması	-11.1747
▁görünme	-11.1748
▁Kürtler	-11.1749
▁arkadaşının	-11.175
▁ray	-11.175
mışlar	-11.1751
▁kararında	-11.1751
▁çevir	-11.1753
▁çizgisi	-11.1754
masıyla	-11.1756
▁tank	-11.1757
▁kanalları	-11.1758
▁Barzani	-11.1758
tak	-11.1759
▁Hareketi	-11.1762
▁Maddi	-11.1762
▁Birkaç	-11.1763
▁istediğimiz	-11.1763
▁alışverişinde	-11.1765
sindeki	-11.1765
▁koz	-11.1765
▁yapısal	-11.1766
tch	-11.1768
▁okun	-11.1769
evet	-11.1769
uf	-11.177
▁türleri	-11.1772
▁Gü	-11.1773
▁hassasiyet	-11.1775
▁bildiği	-11.1775
▁ailelerine	-11.1775
▁yayımlandı	-11.1777
▁yaşadık	-11.1777
▁Pala	-11.1781
▁TOBB	-11.1781
ACA	-11.1781
▁bilirkişi	-11.1786
▁KUR	-11.1788
▁seçenek	-11.1788
▁seferber	-11.179
▁Tuğba	-11.179
▁çelişki	-11.1791
▁ciro	-11.1791
▁gu	-11.1791
▁eşim	-11.1792
▁takı	-11.1795
▁deplasman	-11.1796
▁oldular	-11.1798
▁Telefon	-11.1798
▁yasama	-11.1801
▁topluluk	-11.1801
Halk	-11.1803
▁kullandıkları	-11.1804
▁göstermeye	-11.1804
▁ürünlerinin	-11.1805
▁Biraz	-11.1805
▁Devrim	-11.1807
▁Sanatlar	-11.1808
▁adayların	-11.181
zken	-11.1812
▁branş	-11.1814
bol	-11.1814
▁Tekstil	-11.1814
▁Uysal	-11.1814
▁Bektaş	-11.1816
▁teker	-11.1816
Barack	-11.1817
▁çıkınca	-11.1817
▁çekerken	-11.1817
RT	-11.1818
▁ÖZ	-11.182
▁övgü	-11.1821
▁çocuklarına	-11.1827
▁görevlilerinin	-11.1828
▁sakla	-11.1831
▁birbirlerini	-11.1832
amaması	-11.1833
▁tas	-11.1834
▁kına	-11.1838
SIZ	-11.1841
▁Alaattin	-11.1842
▁Gündoğdu	-11.1842
▁tütün	-11.1842
▁tebliğ	-11.1842
▁KİŞİ	-11.1842
▁dunya	-11.1843
▁oynar	-11.1843
▁Memur	-11.1844
▁Mir	-11.1844
üsü	-11.1848
▁anımsatan	-11.1848
▁siteleri	-11.1848
▁şanslı	-11.1849
▁malzemeler	-11.1852
▁Farklı	-11.1853
▁biletleri	-11.1855
▁yönüne	-11.1859
▁erkeğin	-11.186
▁Bor	-11.186
▁92	-11.1862
baz	-11.1864
▁amerika	-11.1864
▁gerçekleştirmek	-11.1864
▁KAR	-11.1865
▁düşmanı	-11.1865
▁görüşmenin	-11.1867
▁gösteriler	-11.1867
▁döndüğü	-11.1868
▁kaybettiğini	-11.1869
▁yansıdı	-11.1869
meyin	-11.1869
▁konuğu	-11.1871
▁Show	-11.1871
▁işletmeler	-11.1873
▁etkiledi	-11.1876
mit	-11.1876
▁zabıta	-11.1878
▁Chris	-11.1879
yal	-11.188
▁Bağımsız	-11.1882
form	-11.1883
▁avcı	-11.1887
▁yaptırdı	-11.1887
▁hesabından	-11.1887
▁09	-11.1888
▁aydan	-11.1888
▁Nazi	-11.189
işi	-11.189
▁gelişimi	-11.189
▁devi	-11.1891
▁yargılanmak	-11.1891
▁koşul	-11.1892
ica	-11.1896
▁atmaya	-11.1896
▁canım	-11.1897
▁Gelin	-11.1898
▁Türklerin	-11.1898
▁Cenevre	-11.1899
▁meşhur	-11.1899
▁Bence	-11.1899
mes	-11.1899
▁Ulusoy	-11.1899
▁Aksaray	-11.1899
lerse	-11.19
▁köyleri	-11.1902
abildiği	-11.1904
▁pil	-11.1909
▁ajan	-11.1911
▁damla	-11.1912
mamış	-11.1912
▁dikkatini	-11.1912
lor	-11.1912
▁etkilenme	-11.1913
tip	-11.1914
▁YAP	-11.1918
rad	-11.1918
▁ayrılmak	-11.192
▁yaptırdığı	-11.192
▁89	-11.1921
▁Dam	-11.1923
ımın	-11.1925
▁altyapısı	-11.1926
▁kişiyle	-11.1926
▁cezayı	-11.1926
▁çarşı	-11.1927
▁iğne	-11.1927
▁umarım	-11.1927
▁şeridi	-11.1927
▁yanlısı	-11.1927
▁parmağı	-11.1927
▁düşürme	-11.1927
▁ortaokul	-11.1928
imde	-11.1928
▁otomobille	-11.1928
▁Düzce	-11.1929
▁fazlasıyla	-11.193
▁çözme	-11.193
▁tarama	-11.1931
▁yaşındayken	-11.1931
imin	-11.1932
Yar	-11.1933
Press	-11.1934
▁eminim	-11.1935
▁dinleyen	-11.1936
▁getirilme	-11.1937
▁kötüye	-11.1938
▁hükme	-11.1939
▁listede	-11.1939
▁Bayanlar	-11.194
ceği	-11.1941
▁Şey	-11.1941
LEN	-11.1942
▁balon	-11.1943
▁beklemek	-11.1943
▁sergiledi	-11.1943
are	-11.1943
▁başlı	-11.1945
▁dağıtıldı	-11.1947
▁taleplerini	-11.1948
vel	-11.1949
▁çalışmasını	-11.1951
▁tavan	-11.1952
▁yaptırma	-11.1952
▁çıkışında	-11.1952
Cİ	-11.1955
▁silahla	-11.1955
▁Tire	-11.1956
▁meslektaşları	-11.1956
▁kısmen	-11.1956
▁düşürülmesi	-11.1956
▁sözcü	-11.1957
mail	-11.1959
▁kime	-11.1959
▁ödemek	-11.1959
▁Akif	-11.1962
▁havanın	-11.1963
▁Ur	-11.1963
▁okulları	-11.1964
▁yapsın	-11.1965
▁yağma	-11.1965
▁saldırılar	-11.1965
▁düşüncesi	-11.1965
▁Demek	-11.1967
▁Kut	-11.1967
▁köklü	-11.1967
▁sonsuz	-11.1967
▁İskenderun	-11.1968
▁gereğini	-11.1969
▁darp	-11.197
▁öğrencilerinin	-11.1972
▁çak	-11.1973
▁baktığı	-11.1973
▁kesilmesi	-11.1975
yüz	-11.1975
▁karşılaşmayı	-11.1975
▁gündeminde	-11.1976
▁kamerası	-11.1976
emeyeceğini	-11.1978
▁Mİ	-11.198
▁maddenin	-11.1981
▁Selvitopu	-11.1984
▁ribaund	-11.1984
▁Ferrari	-11.1984
▁Vedat	-11.1984
ümü	-11.1986
▁Müze	-11.1987
▁işletim	-11.1988
▁sıcaklığı	-11.1988
▁hattında	-11.1989
▁olacaktı	-11.1989
▁başlayarak	-11.1989
cer	-11.1989
▁İlker	-11.1991
▁Zeytin	-11.1991
▁parkı	-11.1991
▁Düzenleme	-11.1992
▁bonservis	-11.1994
▁Hel	-11.1996
▁keçi	-11.1997
▁piyasaların	-11.1998
▁peynir	-11.1999
▁açıldığı	-11.1999
▁2-	-11.1999
▁Bilimler	-11.2001
▁iskele	-11.2004
ışık	-11.2005
▁söndürme	-11.2006
▁sağlığını	-11.2006
ska	-11.2007
▁azaltma	-11.2007
▁Küresel	-11.2007
▁kültürünü	-11.2008
Pa	-11.2009
nes	-11.2009
▁programa	-11.2009
rol	-11.2011
▁malı	-11.2011
▁Tüzmen	-11.2012
▁sitenizde	-11.2013
▁Serhat	-11.2013
▁geçin	-11.2014
▁ilham	-11.2015
▁Düzen	-11.2017
▁geçiril	-11.2018
▁Liverpool	-11.2018
▁başlanan	-11.202
▁yazarlar	-11.202
▁Elvan	-11.202
▁ciddiye	-11.2021
▁Uyar	-11.2022
▁parçalar	-11.2022
▁uzaklıktaki	-11.2022
▁Akça	-11.2024
▁basınında	-11.2027
▁Dizi	-11.2027
▁usul	-11.2028
LARIN	-11.2029
TV	-11.2033
▁mucize	-11.2034
▁kaldıkları	-11.2034
▁aradığı	-11.2037
▁Yedi	-11.2038
▁Mevkii	-11.2041
▁gözyaşı	-11.2041
▁Mahmud	-11.2041
▁taslağı	-11.2041
▁Dikili	-11.2041
▁ittifak	-11.2041
▁evrensel	-11.2041
▁menajer	-11.2044
▁Play	-11.2046
▁Buradaki	-11.2046
▁çekip	-11.2046
▁asit	-11.2047
▁kendinizi	-11.2049
▁mücadeleye	-11.205
▁Baro	-11.2051
▁kırsalında	-11.2054
▁Hamdi	-11.2054
▁sökü	-11.2055
▁tamamını	-11.2056
▁Forumu	-11.2059
▁müziğin	-11.206
▁hazırlandı	-11.2062
stro	-11.2063
▁Siteniz	-11.2064
▁sunmak	-11.2064
▁SO	-11.2065
▁sıralarda	-11.2066
▁faaliyetler	-11.2067
Be	-11.2067
ESİ	-11.2067
▁Chelsea	-11.2069
▁karmaşık	-11.2069
▁prensip	-11.207
▁bordo	-11.207
▁Ebru	-11.2071
▁dostları	-11.2071
▁za	-11.2071
ilirken	-11.2072
leştiren	-11.2072
▁bileşik	-11.2073
▁Andre	-11.2074
▁söylerken	-11.2074
▁azalması	-11.2075
IP	-11.2075
▁ifadeler	-11.2075
▁yaşa	-11.2076
▁bölümleri	-11.2076
▁ilçeleri	-11.2076
üç	-11.2077
MIŞ	-11.2078
▁gittik	-11.208
▁tanıkları	-11.2081
▁yaklaşan	-11.2081
pol	-11.2082
▁çocuğunun	-11.2083
▁çalışıyorum	-11.2085
▁açıklamasına	-11.2085
▁Özen	-11.2086
▁azaldı	-11.2086
▁tartıştı	-11.2087
▁elemanları	-11.2091
▁aydınlatma	-11.2093
▁heyecanlı	-11.2094
▁Kaymakamlığı	-11.2095
▁aileye	-11.2098
▁milletvekilliği	-11.2098
▁sürdürülebilir	-11.2098
▁eşcinsel	-11.2098
▁ödenek	-11.2099
▁aziz	-11.2099
▁kıran	-11.2101
▁Yetkili	-11.2102
kaç	-11.2102
▁dedik	-11.2102
▁yumuşak	-11.2103
▁mutluluğunu	-11.2106
▁ileriye	-11.2107
▁Bilgisayar	-11.2107
ZA	-11.2109
▁kapak	-11.2111
ona	-11.2111
eng	-11.2111
larımızla	-11.2112
▁ısrarla	-11.2112
▁bağladı	-11.2113
▁yollarla	-11.2113
▁komutan	-11.2114
Allah	-11.2115
▁karşılanması	-11.2119
▁şampiyona	-11.2121
▁büyükelçi	-11.2121
diye	-11.2122
▁operasyonlar	-11.2126
▁felç	-11.2127
▁kral	-11.2128
▁Ünsal	-11.2128
▁Tasarım	-11.2128
▁gayri	-11.2129
▁Uslu	-11.2129
▁alarm	-11.2129
▁havayolu	-11.2129
▁evvel	-11.2129
▁kazanmış	-11.2131
▁öv	-11.2131
lüyor	-11.2132
▁erişim	-11.2133
▁kaynaklı	-11.2133
▁doğusunda	-11.2134
▁İnci	-11.2135
▁450	-11.2135
lenirken	-11.2136
▁Yağmur	-11.2137
▁çıkarıldığı	-11.214
▁ödülleri	-11.2141
dikten	-11.2141
▁sag	-11.2142
▁sırasıyla	-11.2144
▁kredisi	-11.2146
...”	-11.2146
lemesi	-11.2147
fu	-11.2149
▁karşılaşması	-11.215
▁virüs	-11.2152
▁peşin	-11.2153
▁sakatlık	-11.2153
▁programının	-11.2155
▁tersine	-11.2155
▁Muhammet	-11.2156
▁nezdinde	-11.2156
▁İşadamları	-11.2156
▁Brown	-11.2156
▁Yakup	-11.2156
and	-11.2156
▁belirgin	-11.2157
▁İslamcı	-11.2159
rah	-11.216
▁Kerkük	-11.2162
▁laboratuvar	-11.2163
▁Selçuklu	-11.2164
▁öldürüldüğü	-11.2167
▁skandalı	-11.2169
KE	-11.2171
▁liderler	-11.2172
▁üstelik	-11.2172
▁taraftarın	-11.2173
▁İktidar	-11.2173
▁unsur	-11.2174
▁karakol	-11.2176
▁haklarının	-11.2179
cıların	-11.218
▁haklarına	-11.2181
▁va	-11.2181
▁varlığını	-11.2184
▁Vladimir	-11.2185
▁lige	-11.2185
▁Nazım	-11.2186
▁Bazen	-11.2186
▁yırt	-11.2187
▁isimlerinden	-11.2188
▁efendi	-11.219
▁dersler	-11.219
▁Kriz	-11.219
ASI	-11.2191
▁sevdiğim	-11.2193
▁verilmiştir	-11.2196
▁düşmüş	-11.2196
▁ru	-11.2198
▁jet	-11.2198
gir	-11.22
▁oğulları	-11.2201
digim	-11.2204
kapı	-11.2205
▁görevlerini	-11.2205
▁Sur	-11.2205
▁sizlere	-11.2207
▁hayatlarını	-11.2207
▁ışığında	-11.2208
▁akışı	-11.2208
ray	-11.2211
▁yeteneği	-11.2211
▁HER	-11.2212
▁Adliye	-11.2213
▁tarafa	-11.2214
▁enkaz	-11.2215
▁bilmek	-11.2215
nel	-11.2215
▁yarışmada	-11.2217
▁tesisin	-11.2218
▁Körfezi	-11.2218
▁Denizcilik	-11.2218
▁bölgeyi	-11.222
▁büyükşehir	-11.2224
▁yazısında	-11.2229
▁gerekçesi	-11.2229
SİN	-11.2229
▁fazlasını	-11.223
▁sürdürecek	-11.223
yn	-11.2232
▁YSK	-11.2232
▁bayıl	-11.2235
▁katliamı	-11.2235
▁kaptanı	-11.2235
▁hataları	-11.2236
▁fu	-11.2236
▁Ağ	-11.2237
DS	-11.2237
▁güçlerine	-11.2239
▁Eyaleti	-11.2241
▁zihniyet	-11.2242
▁oluştur	-11.2243
▁Pilsen	-11.2243
▁98	-11.2244
GA	-11.2244
▁kurtulmak	-11.2244
▁düşünerek	-11.2246
▁arttığı	-11.2246
▁bitirme	-11.2247
▁çeyreğinde	-11.2248
▁bilinçli	-11.2249
▁içerik	-11.2249
dıktan	-11.225
▁imzalandı	-11.225
▁getirmesi	-11.225
▁hane	-11.2252
▁Orkestrası	-11.2252
▁bedeni	-11.2253
▁alındığında	-11.2254
▁ilçelerde	-11.2256
▁Hepimiz	-11.2257
lecek	-11.2257
▁halini	-11.2257
▁düşürül	-11.2261
▁sokul	-11.2261
▁bütünlüğü	-11.2263
▁çevredeki	-11.2264
▁ilkeleri	-11.2265
vur	-11.2267
▁Cas	-11.2267
laştırılması	-11.2267
▁hatalar	-11.227
▁operasyonlarda	-11.2271
▁ederler	-11.2271
▁İrfan	-11.2272
▁Adıyaman	-11.2272
▁arıtma	-11.2273
▁eylemler	-11.2274
▁Kandil	-11.2275
▁kısaca	-11.2276
ates	-11.2276
▁krizinin	-11.2277
▁ge	-11.2278
▁yazıları	-11.2283
yıl	-11.2284
▁bulunul	-11.2284
▁planladığı	-11.2284
▁erteleme	-11.2285
▁emeklilik	-11.2285
cc	-11.2287
▁100'	-11.229
lit	-11.229
▁dakikasında	-11.2291
▁bazılarının	-11.2295
▁Ebu	-11.2296
▁cev	-11.2296
▁telefonunu	-11.2298
▁çekmeye	-11.2298
▁oldugunu	-11.2298
muza	-11.2301
▁Atletico	-11.2301
▁Thomas	-11.2301
▁tuhaf	-11.2302
▁keşif	-11.2302
▁konuşulan	-11.2302
uar	-11.2302
▁borçlu	-11.2302
ço	-11.2304
▁leke	-11.2304
▁seçilme	-11.2307
BB	-11.2307
▁Müsteşarlığı	-11.2308
▁kullanılma	-11.2309
▁saygın	-11.2309
▁büyüklüğü	-11.2311
nizden	-11.2311
▁sınırında	-11.2311
▁sloganı	-11.2314
▁kapatıldı	-11.2317
▁kapsamına	-11.2317
▁döşe	-11.2317
▁Halen	-11.2319
▁yaşattı	-11.2319
▁işleyen	-11.2322
▁Dinç	-11.2323
▁stand	-11.2323
bah	-11.2324
▁atak	-11.2325
▁çat	-11.2327
▁indirdi	-11.2328
▁indirimi	-11.2328
LAMA	-11.233
▁taziye	-11.2331
▁Turgay	-11.2331
▁İzmit	-11.2331
▁koruyan	-11.2332
▁etkileyen	-11.2333
▁kaşığı	-11.2333
▁müdahalenin	-11.2334
▁bant	-11.2335
▁karsi	-11.2335
▁İS	-11.2336
▁çalışarak	-11.2337
▁Çeşitli	-11.2337
our	-11.2338
muzda	-11.2339
▁06	-11.2342
oyun	-11.2342
▁haberinde	-11.2342
▁bölgesinin	-11.2343
▁fiziki	-11.2343
iti	-11.2344
▁değindi	-11.2345
yeni	-11.2347
▁edileceğini	-11.2348
göl	-11.2348
▁olduğumuzu	-11.2348
▁tarihini	-11.2351
▁çıkıl	-11.2352
▁karikatür	-11.2355
▁kor	-11.2355
▁gerçekçi	-11.2356
▁oluşturduğunu	-11.2356
▁kullandığını	-11.2358
▁tura	-11.2359
▁Muharrem	-11.236
▁pamuk	-11.236
▁sözkonusu	-11.2361
▁gücünün	-11.2361
ladıklarını	-11.2363
▁uçakta	-11.2364
▁Sto	-11.2365
▁Orduspor	-11.2365
kurt	-11.2365
▁niyetli	-11.2366
▁iddianame	-11.2366
▁burda	-11.2368
▁olanakları	-11.2368
▁simgesi	-11.2368
▁tasarrufu	-11.2369
▁kalktı	-11.2377
▁çal	-11.2377
▁Milliyet	-11.2377
▁takıldı	-11.2379
▁şike	-11.2379
çay	-11.2379
▁tv	-11.2383
▁yarışmasında	-11.2384
tum	-11.2385
▁Güner	-11.2386
▁burnu	-11.2387
▁dolan	-11.2389
▁Pak	-11.2389
▁eleştiriler	-11.2389
yınca	-11.239
▁gayrimenkul	-11.239
▁propaganda	-11.239
▁belirleyecek	-11.239
▁kazanın	-11.2391
▁sıkış	-11.2392
▁ruhunu	-11.2393
▁koruması	-11.2393
▁beklerken	-11.2394
▁ağlama	-11.2394
▁arkadan	-11.2394
▁vermiştir	-11.2394
▁ayna	-11.2396
kuş	-11.2396
▁World	-11.2399
▁ülkelerinden	-11.2401
▁seçiminde	-11.2403
▁açısı	-11.2403
▁muhalifler	-11.2404
▁modelleri	-11.2405
▁bayramı	-11.2405
▁formu	-11.2406
▁haritası	-11.2406
▁mezarı	-11.2406
mann	-11.2407
▁motoru	-11.2407
▁müjde	-11.2407
▁cek	-11.2409
▁hatırlat	-11.241
▁azınlık	-11.2414
▁Çalış	-11.2414
▁kiloda	-11.2415
▁fotoğraflarını	-11.2415
▁beklendiği	-11.2416
▁ömrü	-11.2417
▁ziyarete	-11.2418
▁kooperatif	-11.242
▁Nusra	-11.242
biliyor	-11.242
▁zirvesi	-11.2422
▁komisyonu	-11.2423
manın	-11.2424
▁soya	-11.2425
▁şapka	-11.2425
▁öğrendik	-11.2426
▁Yanal	-11.2427
▁sizden	-11.243
▁öldüren	-11.2432
malıyız	-11.2433
▁Ülkenin	-11.2433
iyorsunuz	-11.2433
▁zamanki	-11.2436
▁Temiz	-11.2436
▁maçından	-11.2437
meyeceğini	-11.2437
▁yapacağımız	-11.2441
▁Ergen	-11.2442
▁bakımdan	-11.2443
▁vade	-11.2444
▁ülkemize	-11.2446
▁gec	-11.2446
▁ER	-11.2449
▁müteahhit	-11.2449
▁Garanti	-11.2449
▁bedava	-11.2449
▁DESTEK	-11.245
▁Uludağ	-11.2451
Ni	-11.2451
▁VER	-11.2451
▁Abdül	-11.2453
▁danışmanlık	-11.2454
▁yönetime	-11.2456
▁değişmesi	-11.2456
▁alabilir	-11.2457
▁çözüme	-11.2457
▁yapay	-11.2458
▁buluşacak	-11.2459
▁Gerek	-11.246
▁konulması	-11.2461
▁avantajı	-11.2463
▁komutanı	-11.2465
▁bekledi	-11.2466
▁DP	-11.2469
▁usulü	-11.2469
▁nedeninin	-11.2469
▁ekrana	-11.2471
▁Oto	-11.2472
▁anlay	-11.2473
sizliği	-11.2475
▁taşıyacak	-11.2475
▁Kalp	-11.2476
▁rant	-11.2477
▁bulunmuş	-11.2479
▁Hüsnü	-11.2479
▁RTÜK	-11.2479
▁Ödemiş	-11.2479
▁çatışmaların	-11.2479
▁sözcüğü	-11.248
▁yaşından	-11.248
▁gezisi	-11.248
askıya	-11.2482
▁içeride	-11.2482
▁seviyesi	-11.2483
amıyorum	-11.2484
▁Çağlar	-11.2488
▁kargo	-11.2489
▁17.00	-11.2489
▁OY	-11.2492
▁GSM	-11.2492
▁verdiğimiz	-11.2493
▁kullanıcılar	-11.2493
▁KİM	-11.2494
▁kaybetmiş	-11.2495
▁Dans	-11.2495
▁yakınlarının	-11.2498
▁uzaklaştı	-11.2498
▁senedi	-11.2498
▁Bon	-11.2498
ılmaya	-11.2499
▁yurtdışına	-11.2501
ırım	-11.2503
▁Ekipler	-11.2503
▁konuşmacı	-11.2504
Le	-11.2504
istik	-11.2507
▁Daily	-11.2509
▁Koordinasyon	-11.2509
▁Dubai	-11.2509
▁Menemen	-11.2509
sor	-11.2509
▁DGM	-11.2511
▁edemez	-11.2513
▁deyince	-11.2513
▁Tatil	-11.2513
▁limanı	-11.2513
▁Radyosu	-11.2516
▁tamamlanmasının	-11.2517
ebilme	-11.2519
acaklarını	-11.2519
▁nadir	-11.252
▁alabilecek	-11.2521
▁puana	-11.2525
▁davetli	-11.2526
▁fener	-11.2529
▁yöneticilerinin	-11.253
▁yöntemle	-11.253
lacivertli	-11.2531
▁yönetil	-11.2531
▁sayfasında	-11.2532
▁yaptıktan	-11.2534
▁gelişmelere	-11.2534
ub	-11.2534
▁davranma	-11.2535
▁FC	-11.2537
▁gayreti	-11.2539
▁kişilerden	-11.2539
▁yakışır	-11.2539
▁birey	-11.2539
▁Şeref	-11.2539
▁acele	-11.2539
▁DİSK	-11.254
Arkadaş	-11.254
▁olgu	-11.254
▁Üyeleri	-11.2541
▁hukuku	-11.2541
▁OLACAK	-11.2541
▁Yo	-11.2541
▁tatbikat	-11.2542
ğında	-11.2545
▁istekleri	-11.2548
▁etmediğini	-11.2548
▁çıkmasını	-11.255
▁duygularını	-11.2552
▁Duman	-11.2552
▁giydi	-11.2553
▁gerileme	-11.2554
▁Hadi	-11.2554
▁kullanımına	-11.2557
VA	-11.2558
▁oynaması	-11.2558
▁Ölümler	-11.2561
▁sıralamasında	-11.2561
▁gelişmesine	-11.2562
▁kursları	-11.2562
▁döktü	-11.2562
▁Cumhuriyetçi	-11.2562
▁cezalandırılma	-11.2563
▁bor	-11.2564
▁benimle	-11.2564
▁Eriş	-11.2565
▁atmosfer	-11.2566
▁üretmek	-11.2566
▁sokma	-11.2566
▁konusuna	-11.2568
▁Gerçekten	-11.2568
yap	-11.2569
▁Kuveyt	-11.2569
▁ahşap	-11.2569
▁istisna	-11.2569
▁detay	-11.257
▁haberlere	-11.2571
kız	-11.2572
▁hazine	-11.2572
▁evlerin	-11.2573
▁Sezen	-11.2573
▁Bakım	-11.2574
▁bölümler	-11.2575
▁aldığım	-11.2575
▁ayrımı	-11.2577
▁incelemeye	-11.2579
▁kayboldu	-11.258
suna	-11.2581
▁uzan	-11.2581
▁örnekleri	-11.2582
Geçen	-11.2582
▁Yaşanan	-11.2583
▁ilçedeki	-11.2583
▁Kaba	-11.2584
▁mücadeleyi	-11.2588
▁Red	-11.2589
sir	-11.259
▁Devletin	-11.259
▁gazetelerde	-11.2592
▁farkla	-11.2593
▁Kol	-11.2594
▁dediğini	-11.2595
▁istemediği	-11.2595
▁atması	-11.2596
mayacağını	-11.2596
sion	-11.2597
▁güçlük	-11.2598
▁İKİ	-11.2598
▁projede	-11.2599
▁his	-11.2599
▁harcamaları	-11.2599
▁Fransızca	-11.26
▁Tony	-11.2602
▁Uçar	-11.2602
▁bono	-11.2602
▁gerekiyordu	-11.2603
▁Hırvatistan	-11.2606
orta	-11.2607
▁foto	-11.2608
ette	-11.261
-8	-11.261
▁kullanıldığını	-11.261
▁Modern	-11.2611
▁yerlerini	-11.2612
▁BEŞİKTAŞ	-11.2612
▁temelinde	-11.2613
▁talimatıyla	-11.2614
▁yaşamın	-11.2614
hayır	-11.2614
lamıyor	-11.2617
▁ülkesine	-11.2617
▁özelliklerini	-11.2617
▁sahiplerinin	-11.2618
▁ilişkiye	-11.2621
▁akan	-11.2622
▁gözlendi	-11.2622
▁kontrolünü	-11.2624
ping	-11.2624
▁anımsa	-11.2625
▁dayak	-11.2627
▁yaban	-11.263
▁halindeki	-11.263
BAN	-11.2631
▁buyuk	-11.2632
▁pişman	-11.2632
▁Uzmanı	-11.2633
▁bildirilen	-11.2633
lüğün	-11.2635
▁Kralı	-11.2636
▁oluşması	-11.2638
▁memurları	-11.2638
▁halkını	-11.264
▁Yolcu	-11.264
▁Politikalar	-11.2641
▁2,5	-11.2641
Baş	-11.2641
▁lirayı	-11.2642
▁Hazır	-11.2643
şim	-11.2645
▁skorla	-11.2645
▁KARŞI	-11.2645
▁Tamer	-11.2646
▁yüze	-11.2647
fon	-11.2651
Mu	-11.2655
MS	-11.2658
tmek	-11.266
▁tarihin	-11.266
▁AYDIN	-11.266
▁galiba	-11.266
▁WEB	-11.266
▁Trakya	-11.266
▁konvoy	-11.2661
hur	-11.2662
▁nöbetçi	-11.2663
▁akademisyen	-11.2664
▁Şii	-11.2665
kut	-11.2666
▁kıs	-11.2666
▁kapılarını	-11.2667
▁sınava	-11.2667
▁uyandır	-11.2668
▁öğrendi	-11.267
▁grubunda	-11.2674
▁temeli	-11.2675
▁önünden	-11.2676
▁çalışmış	-11.2678
Tüm	-11.2678
▁kule	-11.2678
▁boğu	-11.2678
mam	-11.2679
▁buldum	-11.268
▁hazırlığı	-11.2681
▁havalimanı	-11.2682
▁pul	-11.2682
▁günümüz	-11.2683
▁Esra	-11.2683
▁savunması	-11.2683
▁Beşiktaşlı	-11.2685
▁çifte	-11.2685
-100	-11.2685
▁caz	-11.2688
adam	-11.2689
▁korkma	-11.269
rarak	-11.2691
▁bulup	-11.2693
▁vaat	-11.2693
▁güvenilir	-11.2694
▁kaldım	-11.2694
▁Anıtı	-11.2695
▁hadise	-11.2695
▁harç	-11.2695
teri	-11.2695
▁ifadesine	-11.2697
▁sürdürmek	-11.2697
▁teröristin	-11.2697
▁haftadır	-11.2698
▁edilmesinin	-11.2699
▁böylesi	-11.2701
▁konak	-11.2701
▁Hastalıkları	-11.2702
▁karıştığı	-11.2702
zat	-11.2703
▁açması	-11.2703
Belediye	-11.2705
LANDI	-11.2706
▁Pre	-11.2707
▁oluşu	-11.2707
▁itirazı	-11.2708
▁nedenleri	-11.2708
▁yararına	-11.2709
▁sebeple	-11.2709
▁amk	-11.2715
Bİ	-11.2716
▁kariyer	-11.2717
OK	-11.272
▁Pu	-11.2721
▁Abdülkadir	-11.2721
▁ODTÜ	-11.2721
▁götürülen	-11.2721
▁nihai	-11.2721
▁İmralı	-11.2721
▁mafya	-11.2721
▁fındık	-11.2721
▁Özkök	-11.2722
▁Akay	-11.2722
▁kuruluşların	-11.2723
Bunun	-11.2724
▁gösterilmesi	-11.2724
▁refah	-11.2724
▁Arzu	-11.2725
▁Tahir	-11.2726
▁aralıklarla	-11.2726
▁kampa	-11.2726
▁ürünün	-11.2726
▁sir	-11.2727
kendi	-11.2727
▁yakalandığı	-11.2728
▁kıta	-11.2729
tha	-11.273
▁sürücüler	-11.273
▁bulunduğuna	-11.2732
▁mükellef	-11.2732
▁belediyeye	-11.2733
▁sıkça	-11.2733
▁ettiril	-11.2734
çak	-11.2735
▁Evde	-11.2735
▁ihlali	-11.2736
▁ilin	-11.2737
▁edince	-11.2737
tus	-11.2738
▁Lama	-11.2739
nizle	-11.2739
ort	-11.2744
tekin	-11.2744
▁komite	-11.2745
SS	-11.2748
▁10’	-11.2749
▁Fon	-11.2749
▁sorduğu	-11.2749
lular	-11.2751
▁Kastamonu	-11.2752
▁Kırıkkale	-11.2752
▁yatırımcıların	-11.2752
▁demiryolu	-11.2753
▁organları	-11.2755
▁soktu	-11.2755
▁hedefleyen	-11.2756
▁savun	-11.2758
▁kurulduğu	-11.2758
▁atacak	-11.276
▁cezaevi	-11.2762
▁daima	-11.2762
İç	-11.2763
▁görülmesi	-11.2763
▁Mil	-11.2765
▁uydur	-11.2765
İslam	-11.2767
müyor	-11.2768
▁senedir	-11.2769
ADA	-11.277
▁öğrencilerimiz	-11.277
▁gör	-11.277
racak	-11.2771
▁Bit	-11.2771
▁Bayrak	-11.2772
▁iyileşme	-11.2774
▁katılanlar	-11.2775
▁gözüm	-11.2779
uh	-11.2779
UŞ	-11.278
▁tartışmaları	-11.2782
▁tablet	-11.2783
▁Soru	-11.2783
▁epey	-11.2783
▁yapılmasının	-11.2783
▁bulunmuyor	-11.2783
▁Bebek	-11.2784
▁dolardan	-11.2784
▁Evli	-11.2784
▁Özgürlük	-11.2786
▁Bizans	-11.2788
▁seslendi	-11.279
▁Peker	-11.2792
▁teklifini	-11.2792
▁vücudu	-11.2792
cem	-11.2792
▁Cu	-11.2793
▁Bre	-11.2794
▁krize	-11.2798
▁görüldüğünü	-11.2798
▁grupta	-11.2799
▁gerçekleri	-11.2801
▁davul	-11.2802
▁MÜ	-11.2803
söz	-11.2803
▁olduğumu	-11.2803
▁konuşmalar	-11.2803
▁AMA	-11.2803
▁hakkının	-11.2808
▁Üstün	-11.2813
▁4.5	-11.2813
▁Salon	-11.2813
▁muhtaç	-11.2814
▁keşke	-11.2814
▁Sürekli	-11.2814
▁alışkanlığı	-11.2814
▁Nurettin	-11.2814
▁doping	-11.2814
▁Emlak	-11.2815
▁Çalışkan	-11.2815
▁Bizi	-11.2816
▁şirkete	-11.2817
▁4-5	-11.2817
▁doldur	-11.2817
Orta	-11.2819
▁ÇIK	-11.282
▁Alışveriş	-11.2821
▁açıklarında	-11.2821
▁güçler	-11.2824
▁öngörüyor	-11.2825
▁ağırlığı	-11.2825
▁vermesini	-11.2827
▁eğit	-11.2828
▁eserlerin	-11.2829
▁defile	-11.2829
▁cihazlar	-11.283
▁etmeniz	-11.283
▁yapılabilir	-11.283
▁yakalan	-11.2831
▁Val	-11.2833
ğr	-11.2833
▁tepkisini	-11.2839
▁özellikler	-11.2841
▁sevgisi	-11.2845
▁SONRA	-11.2845
▁İnter	-11.2847
eceklerini	-11.2847
▁alamayan	-11.2849
KAN	-11.2851
▁açıklanması	-11.2852
▁askerinin	-11.2852
ys	-11.2852
▁YAŞ	-11.2852
▁deneyimli	-11.2855
▁sağlamaya	-11.2857
▁sözlerle	-11.2858
▁almaz	-11.2861
▁profesör	-11.2863
▁geçiriyor	-11.2865
▁savaşta	-11.2868
kir	-11.287
▁dişi	-11.2871
şehir	-11.2871
▁İşlem	-11.2873
▁araştırması	-11.2873
▁indirme	-11.2874
▁oluşacak	-11.2874
▁çelenk	-11.2876
▁formasını	-11.2876
▁DENİZLİ	-11.2876
▁azaltılması	-11.2877
▁Jose	-11.2878
▁us	-11.2879
2'	-11.288
▁vesile	-11.2884
▁anlatarak	-11.2884
▁yaprak	-11.2884
▁ÖSYM	-11.2885
▁yaşını	-11.2886
▁takımımız	-11.2886
▁yarışında	-11.2886
Mi	-11.2886
▁soyle	-11.2887
▁davayı	-11.2889
▁Heyeti	-11.2889
▁fiş	-11.289
▁Kuvvet	-11.2893
▁eşine	-11.2893
masından	-11.2893
lerimizde	-11.2893
▁fiyatlarında	-11.2893
▁Meydan	-11.2894
▁puanlık	-11.2895
▁Gal	-11.2897
▁nişan	-11.2898
Bana	-11.29
▁konumu	-11.2901
▁koş	-11.2903
▁1’	-11.2903
▁verileceği	-11.2905
▁makyaj	-11.2907
▁gözünü	-11.2907
▁Vatandaşlar	-11.2907
▁üniversiteye	-11.2908
▁başarısını	-11.2908
▁ruhsatsız	-11.2909
▁arayışı	-11.2909
▁yükümlü	-11.2914
▁zeki	-11.2914
▁kaldırmak	-11.2916
▁dokunma	-11.2918
▁iradesi	-11.292
age	-11.2922
SAN	-11.2923
Genç	-11.2923
mezse	-11.2923
takım	-11.2924
▁sitesinden	-11.2924
▁talebin	-11.2926
/...	-11.2926
▁kullanır	-11.2927
yurt	-11.293
▁takımların	-11.2931
▁avukatlar	-11.2931
▁yürüyüşe	-11.2932
▁akrabaları	-11.2933
▁onlardan	-11.2934
▁opera	-11.2935
▁alandaki	-11.2935
▁feda	-11.2936
▁iddialarını	-11.2937
▁motivasyon	-11.2938
oş	-11.2939
▁Hizmetler	-11.2941
▁aştı	-11.2941
▁97	-11.2941
▁gösterilme	-11.2942
▁kaos	-11.2946
▁köşesinde	-11.2947
▁Emek	-11.2947
▁rakamı	-11.2948
▁Özay	-11.295
▁Bö	-11.295
DK	-11.2951
sinda	-11.2951
▁belediyelerin	-11.2952
▁gördükleri	-11.2953
▁Liman	-11.2953
▁goz	-11.2954
▁haberleşme	-11.2956
▁içecek	-11.2956
nos	-11.2958
▁seans	-11.2959
▁bekler	-11.296
▁üretiminin	-11.2962
▁yaktı	-11.2963
▁Mete	-11.2963
ıma	-11.2966
▁açılmış	-11.2966
ıyorsunuz	-11.2967
▁dis	-11.2967
▁Muhtarı	-11.2968
▁yarışları	-11.2968
▁üyeler	-11.2969
▁Sıra	-11.2969
▁üzücü	-11.2969
▁kağıdı	-11.2969
▁aktivite	-11.297
▁Ço	-11.2971
▁tıklayın	-11.2971
▁diyelim	-11.2971
▁yayınlanacak	-11.2973
▁Konuşma	-11.2977
▁fil	-11.2978
▁kırma	-11.2979
▁hepsinin	-11.2982
▁yapıya	-11.2986
▁evladı	-11.2989
▁yerlerinden	-11.299
▁Örgüt	-11.2991
▁üretime	-11.2996
▁işlediği	-11.2998
▁tablosu	-11.2998
▁kültürünün	-11.2998
▁sanatçıların	-11.2999
▁MİLYON	-11.3001
▁coğrafi	-11.3001
▁Cizre	-11.3001
▁Personel	-11.3001
▁poşet	-11.3001
▁politikalar	-11.3001
▁çatışmalarda	-11.3001
▁geliştirilen	-11.3002
▁mimari	-11.3002
▁bakanları	-11.3002
▁Filiz	-11.3002
▁yansıyan	-11.3003
raz	-11.3004
▁sanatçının	-11.3004
▁Apps	-11.3004
Ve	-11.3005
▁Dere	-11.3007
▁Pentagon	-11.3007
▁adaylığını	-11.3009
▁orkestra	-11.3009
▁tesislerinde	-11.301
▁başkanının	-11.301
▁gelenler	-11.3011
▁silahların	-11.3013
▁For	-11.3016
▁eyleme	-11.3017
▁başarıları	-11.3017
▁toprakları	-11.3017
▁Henüz	-11.3019
▁Doğumlar	-11.3021
▁Yemek	-11.3021
▁bela	-11.3023
AV	-11.3026
▁ilaçlar	-11.3026
▁BDDK	-11.3028
Mo	-11.3028
▁gözlerini	-11.3028
tıkları	-11.3028
▁düzelt	-11.3031
▁Hamza	-11.3031
▁sevdiğini	-11.3031
▁söylemesi	-11.3032
▁kontenjan	-11.3032
▁Zabıta	-11.3032
▁Denetim	-11.3032
▁Dicle	-11.3032
▁İlgili	-11.3032
stik	-11.3034
▁Vergisi	-11.3035
▁alakalı	-11.3036
▁koridor	-11.3038
▁Nas	-11.3038
▁topladığı	-11.3038
▁çarpan	-11.3038
▁eliyle	-11.304
▁Diş	-11.3041
▁çözümler	-11.3045
▁meraklı	-11.3045
▁ulaştırma	-11.3046
metre	-11.3047
▁Normal	-11.3049
▁yüzyılın	-11.305
▁yıka	-11.305
hri	-11.3052
▁pompa	-11.3054
▁oluşumu	-11.3058
▁Form	-11.3059
▁Jan	-11.3059
▁izinsiz	-11.306
▁jo	-11.3062
▁futbolculara	-11.3062
▁Bol	-11.3062
▁kitabında	-11.3063
▁çevresi	-11.3064
▁tişört	-11.3064
▁Altınordu	-11.3064
▁Sezgin	-11.3064
▁haklarında	-11.3064
▁indiril	-11.3064
▁söylediğini	-11.3064
▁yoğunluk	-11.3065
insan	-11.3068
▁katına	-11.3069
▁bık	-11.3071
▁dışarıya	-11.3071
▁kurarak	-11.3074
▁zirvede	-11.3074
▁çalıştım	-11.3074
▁eyaleti	-11.3075
▁gecenin	-11.3075
▁dondurma	-11.3077
▁ölümünden	-11.3078
▁yollardan	-11.3079
▁satılıyor	-11.3079
▁gelişi	-11.308
▁sayısız	-11.3082
▁üyeliğine	-11.3082
BO	-11.3086
▁SU	-11.3088
▁saldırıların	-11.3088
▁çeker	-11.3089
▁etiket	-11.3089
MADI	-11.3091
▁tetik	-11.3092
▁yapmıyor	-11.3092
▁katıldığını	-11.3092
▁başlarında	-11.3093
▁ablası	-11.3093
jan	-11.3094
▁hiçbiri	-11.3094
▁evinden	-11.3096
▁Denetleme	-11.3096
▁Sönmez	-11.3096
▁diktatör	-11.3096
▁tahrip	-11.3096
ura	-11.3098
▁edilmektedir	-11.3099
Kar	-11.3099
▁86	-11.31
▁mücadelesinde	-11.31
▁yansıtma	-11.3101
▁Koşusu	-11.3101
▁değerini	-11.3101
İMİZ	-11.3102
▁1950	-11.3102
▁Adil	-11.3103
▁anlaşmanın	-11.3103
▁programını	-11.3103
▁kullanılabilir	-11.3103
▁güzelliği	-11.3105
▁yuz	-11.3106
sunda	-11.3106
▁Yağ	-11.3106
larımızda	-11.3108
▁Servisi	-11.3108
▁gergin	-11.3109
▁araçla	-11.3109
yıldız	-11.3111
▁helal	-11.3112
▁verilme	-11.3112
▁sağlığına	-11.3114
▁91	-11.3116
▁Toplu	-11.3116
▁getirildiği	-11.3117
▁Herkesin	-11.3118
ix	-11.3119
ola	-11.3123
▁alevler	-11.3123
liyim	-11.3125
▁1.3	-11.3125
▁yakalamak	-11.3126
▁köye	-11.3127
▁rektör	-11.3127
▁MANİSA	-11.3128
▁ramazan	-11.3128
▁Jinping	-11.3128
▁Sünni	-11.3128
rse	-11.3128
▁uğur	-11.3129
▁Çakmak	-11.3129
▁sera	-11.3129
▁Aydoğan	-11.3129
▁kutluyorum	-11.3129
▁Kullan	-11.313
▁1989	-11.313
▁hayvancılık	-11.313
jin	-11.3133
▁iddianamede	-11.3134
▁yerlerine	-11.3135
ug	-11.3135
▁tesislerin	-11.3135
IMIZ	-11.3136
▁olmanız	-11.3137
▁hazırlayan	-11.3139
▁koleksiyonu	-11.3139
▁inme	-11.3139
▁tüken	-11.314
▁makamı	-11.3141
jo	-11.3141
▁BAŞBAKAN	-11.3142
▁1.2	-11.3142
KÜ	-11.3143
▁başaran	-11.3146
▁peşine	-11.3147
yüzü	-11.3147
yalı	-11.3148
▁saldırısına	-11.315
▁hakemi	-11.315
mayacağı	-11.3153
▁yaşat	-11.3153
▁bardak	-11.3154
▁yüzey	-11.3154
▁sıkıntıları	-11.3156
▁devamlı	-11.3158
▁isteyenlerin	-11.3158
▁Örnek	-11.3159
▁Usame	-11.316
▁iştirak	-11.316
▁Süre	-11.316
▁Gündüz	-11.316
▁seçkin	-11.3161
▁işlevi	-11.3162
▁Egemen	-11.3164
▁ap	-11.3166
▁far	-11.3167
▁Boğazı	-11.3169
▁bırakmadı	-11.3171
▁puandan	-11.3173
lla	-11.3173
▁oranını	-11.3173
▁İmar	-11.3174
Bil	-11.3176
▁Lise	-11.3176
▁filmlerin	-11.3177
▁sonuçların	-11.3178
Çünkü	-11.3178
▁vatandaşımız	-11.3179
▁ayrıldığı	-11.318
▁Jack	-11.318
▁kirli	-11.3182
▁kentine	-11.3183
▁konusunun	-11.3185
▁Ruh	-11.3186
▁19.00	-11.3187
war	-11.3187
İH	-11.319
▁birliklerimiz	-11.3191
▁Mercedes	-11.3192
▁intikam	-11.3192
▁yönetimini	-11.3192
▁Muhitti	-11.3192
▁Şafak	-11.3192
▁gücüne	-11.3192
▁programlar	-11.3193
▁savunarak	-11.3193
▁arttırma	-11.3194
▁katılmaya	-11.3195
▁Arapça	-11.3196
▁notu	-11.3198
▁zirveye	-11.3198
▁lanet	-11.3199
▁desteğin	-11.3201
▁harca	-11.3201
▁kapanan	-11.3202
BM	-11.3202
▁merakla	-11.3202
▁paraları	-11.3203
▁sizler	-11.3205
cor	-11.3206
▁saatler	-11.3207
evleri	-11.3209
▁eğitimini	-11.3209
laştırılmış	-11.3209
▁oluş	-11.3209
▁Don	-11.321
Bütün	-11.321
▁reformu	-11.3212
▁Okumaya	-11.3212
▁bozulma	-11.3212
lanmaktadır	-11.3213
▁çaresiz	-11.3214
▁Ram	-11.3216
bilecek	-11.3217
▁Yeter	-11.3218
▁dünyasına	-11.3219
▁etkiliyor	-11.3219
▁piyasası	-11.322
▁oluştuğunu	-11.322
▁sorulara	-11.322
▁ölç	-11.3221
▁alakası	-11.3223
▁Geliştirme	-11.3224
▁Black	-11.3224
▁KOBİ	-11.3224
▁komplo	-11.3224
▁çarparak	-11.3225
▁fişek	-11.3225
▁Stadyumu	-11.3226
▁müfettiş	-11.3226
▁taşır	-11.3227
▁Kab	-11.3227
▁gelmektedir	-11.323
▁kızların	-11.323
▁tanışma	-11.323
ttığı	-11.3231
▁biçim	-11.3231
▁3-1	-11.3232
▁kesen	-11.3238
▁okumak	-11.3239
aga	-11.3239
▁bacağı	-11.3239
▁attığını	-11.324
liğimiz	-11.324
▁doktoru	-11.3242
▁sayfalık	-11.3243
▁seviyesinin	-11.3243
▁Den	-11.3245
▁Çan	-11.3248
illa	-11.3251
acağına	-11.3253
lıoğlu	-11.3255
▁odaklı	-11.3256
▁yatırımların	-11.3256
▁anlaşılan	-11.3257
leştirmek	-11.3258
AYA	-11.3259
▁göndererek	-11.3259
lilere	-11.326
▁Daimi	-11.326
▁geçim	-11.326
hem	-11.326
▁başlamak	-11.3261
▁birimler	-11.3261
▁iyisi	-11.3261
▁Tro	-11.3261
▁madenci	-11.3262
▁özü	-11.3263
▁çocuğunu	-11.3265
Bay	-11.3265
▁şahıs	-11.3266
▁zorluklar	-11.3267
▁şaşkınlık	-11.3267
▁yenen	-11.3268
▁belirlemek	-11.3269
?..	-11.327
▁bay	-11.3271
US	-11.3274
▁ribaunt	-11.3275
▁Bora	-11.3276
matik	-11.3276
▁yayını	-11.3277
▁Med	-11.3279
▁basının	-11.3281
Evet	-11.3283
leyin	-11.3284
▁görevliler	-11.3284
▁liderlik	-11.3285
▁gereksinim	-11.3285
▁soyun	-11.3286
▁kentinin	-11.3287
▁Endonezya	-11.3288
▁bıçağı	-11.3288
▁mağara	-11.3288
▁sünnet	-11.3288
-12	-11.3288
▁morguna	-11.3289
▁ulke	-11.3289
▁Köksal	-11.3289
▁Özelleştirme	-11.3292
▁Sudan	-11.3293
▁Johnson	-11.3293
▁Samsunspor	-11.3293
▁Akdağ	-11.3294
▁devletinin	-11.3295
▁yönetme	-11.3296
▁çarptırıldı	-11.3296
▁belirt	-11.3298
▁düşünülen	-11.3299
▁Sir	-11.3301
iyi	-11.3303
▁varil	-11.3305
▁faaliyeti	-11.3307
▁oluruz	-11.3307
▁rehin	-11.3309
▁sinyal	-11.3311
▁ismin	-11.3311
▁Nor	-11.3314
▁çam	-11.3314
▁olanı	-11.3317
cher	-11.332
gazi	-11.3321
▁Cüneyt	-11.3321
▁uçtu	-11.3322
▁bakteri	-11.3322
lması	-11.3323
▁(20	-11.3323
▁verileceğini	-11.3324
▁1982	-11.3325
MALI	-11.3325
▁İçeri	-11.3326
▁işbirliğiyle	-11.3326
▁girerken	-11.3326
▁isminin	-11.3327
MEDİ	-11.3327
▁valilik	-11.3328
▁nice	-11.3328
gim	-11.3329
▁Rekabet	-11.3329
▁golünü	-11.333
▁muamele	-11.3332
▁istemişti	-11.3334
▁Enver	-11.3336
may	-11.3339
▁sektörüne	-11.3339
mıyoruz	-11.3342
▁tedbirleri	-11.3343
▁kalitesini	-11.3344
▁kaldık	-11.3345
▁Çar	-11.3346
▁İdris	-11.3353
▁tahammül	-11.3353
▁rakamlar	-11.3355
▁sırrı	-11.3356
▁kalkıp	-11.3357
RAK	-11.3358
▁SEV	-11.3359
▁bilinir	-11.3359
▁Duruşma	-11.336
▁firmasının	-11.336
▁sars	-11.3361
▁Luc	-11.3364
leştirdi	-11.3365
▁buhar	-11.3367
▁ardında	-11.3368
▁dönüştürül	-11.3369
▁yargılanma	-11.337
▁Mus	-11.3371
▁Demirci	-11.3371
▁hissi	-11.3372
▁sayılan	-11.3374
▁boğaz	-11.3375
▁kg	-11.3379
▁tutanak	-11.3379
▁satmak	-11.3379
▁Dolar	-11.338
▁sağlaması	-11.338
▁Başbakanımız	-11.3381
▁sanayici	-11.3383
▁başlayacağı	-11.3384
▁pkk	-11.3386
▁patates	-11.3386
▁Karabük	-11.3386
▁Günaydın	-11.3387
▁kaçmaya	-11.3387
▁belirleyen	-11.3387
▁basamak	-11.3387
▁kav	-11.3387
▁Bro	-11.3389
▁kuralı	-11.3389
▁oyundan	-11.339
▁diplomat	-11.339
▁mutsuz	-11.339
▁tümü	-11.3393
▁kurultay	-11.3394
▁Strateji	-11.3394
▁ekşi	-11.3395
▁üreticileri	-11.3395
▁Sak	-11.3395
▁okullara	-11.3395
▁ayırdı	-11.3396
▁bayrakları	-11.3396
▁değiştiril	-11.3397
▁oynaya	-11.3397
▁kriterleri	-11.3397
▁kutusu	-11.3398
▁Op	-11.34
▁bölümüne	-11.3401
▁çıkarıp	-11.3401
▁yatırımcılar	-11.3401
ılınca	-11.3402
▁sembol	-11.3404
med	-11.3404
Hükümet	-11.3407
▁yerin	-11.3408
▁Tepe	-11.3409
▁Törene	-11.3411
▁soran	-11.3411
▁koruyor	-11.3412
▁düşüncelerini	-11.3412
▁yaratıyor	-11.3414
▁diri	-11.3416
▁öğretmenlerin	-11.3416
▁hazırlama	-11.3417
▁filme	-11.3418
▁kostüm	-11.3419
▁yetiştiril	-11.3421
nızdan	-11.3421
▁kişiliği	-11.3421
▁benziyor	-11.3423
▁rezervasyon	-11.3424
▁kıyafetleri	-11.3426
▁sürdürme	-11.3427
▁Aşık	-11.3427
▁komitesi	-11.3427
▁Oran	-11.3429
▁kisi	-11.343
▁Yönetmeni	-11.343
▁Tosun	-11.343
▁Çocukların	-11.3432
▁unvanı	-11.3433
▁maddesinde	-11.3433
▁Oyuncular	-11.3435
▁sağlayacağını	-11.3435
▁Sert	-11.3436
▁ede	-11.3436
▁boşluk	-11.3437
ttiği	-11.3438
▁başkanımız	-11.3438
▁gitmeye	-11.3438
fes	-11.3439
▁Sat	-11.344
Galatasaray	-11.344
▁topraklarında	-11.3442
▁Doğuş	-11.3444
▁etmenin	-11.3445
▁kardeşler	-11.3445
günkü	-11.3446
/1	-11.3446
▁toplantılar	-11.3446
▁hazırlanması	-11.3446
▁kirlet	-11.3447
▁iyileştirme	-11.3447
▁ekleme	-11.3447
▁Hat	-11.3449
amadık	-11.3449
▁yapmaktan	-11.3451
▁Bisiklet	-11.3452
▁Yukarı	-11.3452
▁yeğeni	-11.3452
▁paralar	-11.3452
maktan	-11.3453
▁hazırlanmış	-11.3453
▁makul	-11.3454
▁Arjantinli	-11.3454
▁anons	-11.3455
[...]
