<pad>	0
<unk>	0
<s>	0
</s>	0
<0x00>	0
<0x01>	0
<0x02>	0
<0x03>	0
<0x04>	0
<0x05>	0
<0x06>	0
<0x07>	0
<0x08>	0
<0x09>	0
<0x0A>	0
<0x0B>	0
<0x0C>	0
<0x0D>	0
<0x0E>	0
<0x0F>	0
<0x10>	0
<0x11>	0
<0x12>	0
<0x13>	0
<0x14>	0
<0x15>	0
<0x16>	0
<0x17>	0
<0x18>	0
<0x19>	0
<0x1A>	0
<0x1B>	0
<0x1C>	0
<0x1D>	0
<0x1E>	0
<0x1F>	0
<0x20>	0
<0x21>	0
<0x22>	0
<0x23>	0
<0x24>	0
<0x25>	0
<0x26>	0
<0x27>	0
<0x28>	0
<0x29>	0
<0x2A>	0
<0x2B>	0
<0x2C>	0
<0x2D>	0
<0x2E>	0
<0x2F>	0
<0x30>	0
<0x31>	0
<0x32>	0
<0x33>	0
<0x34>	0
<0x35>	0
<0x36>	0
<0x37>	0
<0x38>	0
<0x39>	0
<0x3A>	0
<0x3B>	0
<0x3C>	0
<0x3D>	0
<0x3E>	0
<0x3F>	0
<0x40>	0
<0x41>	0
<0x42>	0
<0x43>	0
<0x44>	0
<0x45>	0
<0x46>	0
<0x47>	0
<0x48>	0
<0x49>	0
<0x4A>	0
<0x4B>	0
<0x4C>	0
<0x4D>	0
<0x4E>	0
<0x4F>	0
<0x50>	0
<0x51>	0
<0x52>	0
<0x53>	0
<0x54>	0
<0x55>	0
<0x56>	0
<0x57>	0
<0x58>	0
<0x59>	0
<0x5A>	0
<0x5B>	0
<0x5C>	0
<0x5D>	0
<0x5E>	0
<0x5F>	0
<0x60>	0
<0x61>	0
<0x62>	0
<0x63>	0
<0x64>	0
<0x65>	0
<0x66>	0
<0x67>	0
<0x68>	0
<0x69>	0
<0x6A>	0
<0x6B>	0
<0x6C>	0
<0x6D>	0
<0x6E>	0
<0x6F>	0
<0x70>	0
<0x71>	0
<0x72>	0
<0x73>	0
<0x74>	0
<0x75>	0
<0x76>	0
<0x77>	0
<0x78>	0
<0x79>	0
<0x7A>	0
<0x7B>	0
<0x7C>	0
<0x7D>	0
<0x7E>	0
<0x7F>	0
<0x80>	0
<0x81>	0
<0x82>	0
<0x83>	0
<0x84>	0
<0x85>	0
<0x86>	0
<0x87>	0
<0x88>	0
<0x89>	0
<0x8A>	0
<0x8B>	0
<0x8C>	0
<0x8D>	0
<0x8E>	0
<0x8F>	0
<0x90>	0
<0x91>	0
<0x92>	0
<0x93>	0
<0x94>	0
<0x95>	0
<0x96>	0
<0x97>	0
<0x98>	0
<0x99>	0
<0x9A>	0
<0x9B>	0
<0x9C>	0
<0x9D>	0
<0x9E>	0
<0x9F>	0
<0xA0>	0
<0xA1>	0
<0xA2>	0
<0xA3>	0
<0xA4>	0
<0xA5>	0
<0xA6>	0
<0xA7>	0
<0xA8>	0
<0xA9>	0
<0xAA>	0
<0xAB>	0
<0xAC>	0
<0xAD>	0
<0xAE>	0
<0xAF>	0
<0xB0>	0
<0xB1>	0
<0xB2>	0
<0xB3>	0
<0xB4>	0
<0xB5>	0
<0xB6>	0
<0xB7>	0
<0xB8>	0
<0xB9>	0
<0xBA>	0
<0xBB>	0
<0xBC>	0
<0xBD>	0
<0xBE>	0
<0xBF>	0
<0xC0>	0
<0xC1>	0
<0xC2>	0
<0xC3>	0
<0xC4>	0
<0xC5>	0
<0xC6>	0
<0xC7>	0
<0xC8>	0
<0xC9>	0
<0xCA>	0
<0xCB>	0
<0xCC>	0
<0xCD>	0
<0xCE>	0
<0xCF>	0
<0xD0>	0
<0xD1>	0
<0xD2>	0
<0xD3>	0
<0xD4>	0
<0xD5>	0
<0xD6>	0
<0xD7>	0
<0xD8>	0
<0xD9>	0
<0xDA>	0
<0xDB>	0
<0xDC>	0
<0xDD>	0
<0xDE>	0
<0xDF>	0
<0xE0>	0
<0xE1>	0
<0xE2>	0
<0xE3>	0
<0xE4>	0
<0xE5>	0
<0xE6>	0
<0xE7>	0
<0xE8>	0
<0xE9>	0
<0xEA>	0
<0xEB>	0
<0xEC>	0
<0xED>	0
<0xEE>	0
<0xEF>	0
<0xF0>	0
<0xF1>	0
<0xF2>	0
<0xF3>	0
<0xF4>	0
<0xF5>	0
<0xF6>	0
<0xF7>	0
<0xF8>	0
<0xF9>	0
<0xFA>	0
<0xFB>	0
<0xFC>	0
<0xFD>	0
<0xFE>	0
<0xFF>	0
.	-3.44997
▁	-3.54085
,	-3.581
▁ı	-3.90329
▁i	-4.02187
▁e	-4.4133
▁ve	-4.59238
▁da	-4.60034
▁de	-4.60874
▁a	-4.70463
▁bir	-4.72063
▁lar	-4.72713
▁in	-4.72917
▁si	-4.75407
▁an	-4.76489
▁sı	-4.80186
▁ları	-4.82423
▁ler	-4.84816
▁ol	-4.86881
▁nda	-4.89331
▁en	-4.90349
▁u	-4.9226
▁leri	-4.93367
▁ma	-4.94428
▁n	-4.94813
▁ın	-5.0597
▁m	-5.15242
▁bu	-5.20949
▁ne	-5.25042
▁nin	-5.25417
▁nde	-5.26146
▁il	-5.2943
▁nı	-5.30274
▁ni	-5.33642
▁ki	-5.35184
▁nın	-5.40397
▁na	-5.45967
▁iç	-5.55292
▁me	-5.57899
▁ü	-5.59444
▁li	-5.63532
▁yap	-5.65959
▁ya	-5.69829
▁ye	-5.76039
▁lı	-5.8169
▁ıl	-5.83935
▁lik	-5.91152
n	-5.94172
▁den	-5.953
dığ	-5.95902
▁un	-6.00113
▁al	-6.01745
duğ	-6.02296
▁arak	-6.04326
▁lık	-6.0617
ndan	-6.08866
▁dan	-6.0993
▁diğ	-6.11957
▁yıl	-6.13161
▁le	-6.17217
▁ce	-6.20641
▁la	-6.20877
▁nu	-6.24516
▁yan	-6.25441
▁"	-6.26922
▁su	-6.3083
▁di	-6.32926
▁im	-6.33337
i	-6.34168
▁ön	-6.35428
▁mak	-6.35956
"	-6.36565
▁yer	-6.36993
▁ed	-6.37035
▁t	-6.37855
▁ara	-6.40198
▁gel	-6.43584
▁ver	-6.43667
▁iş	-6.44375
:	-6.45491
▁te	-6.46815
▁ta	-6.47118
▁çok	-6.47562
▁(	-6.48058
)	-6.48551
-	-6.48724
▁nun	-6.48977
▁“	-6.50183
▁cı	-6.53508
▁daha	-6.53563
▁yla	-6.53832
▁nden	-6.53889
▁et	-6.54053
lığ	-6.54298
▁ım	-6.54654
▁gün	-6.55948
▁sonra	-6.56385
”	-6.59975
▁lu	-6.60033
yle	-6.61633
k	-6.62275
▁mek	-6.636
▁geç	-6.64539
▁türkiye	-6.64975
▁başka	-6.65073
▁bul	-6.66157
▁o	-6.66624
▁ci	-6.68781
▁tığ	-6.69574
▁çalış	-6.71444
▁üzer	-6.72744
a	-6.73496
liğ	-6.74487
▁gör	-6.74639
▁yi	-6.75185
▁is	-6.77779
▁-	-6.7876
▁çık	-6.80028
▁son	-6.8023
ı	-6.80684
▁yeni	-6.81943
e	-6.84697
▁ca	-6.85674
▁kendi	-6.85725
▁cu	-6.86037
▁konu	-6.8625
imiz	-6.87493
▁kadar	-6.88337
000	-6.88934
▁dedi	-6.9092
▁gibi	-6.9105
▁el	-6.91722
▁um	-6.91876
tiğ	-6.92754
008	-6.9345
▁taraf	-6.94156
▁büyük	-6.94671
▁yüz	-6.95818
▁ımız	-6.9661
▁var	-6.99487
▁ilk	-6.9951
▁yı	-6.99582
▁kişi	-7.00249
▁her	-7.0188
m	-7.02396
▁ay	-7.02467
▁ar	-7.03035
▁yol	-7.03494
▁bin	-7.03542
▁karşı	-7.04164
▁sa	-7.05213
t	-7.05331
▁acak	-7.0663
▁belediye	-7.07069
▁ülke	-7.07804
▁kal	-7.08621
▁ecek	-7.10116
▁biz	-7.10344
▁iki	-7.10624
▁ev	-7.11255
▁yen	-7.11375
▁yaşa	-7.11408
▁tan	-7.1194
▁ir	-7.1204
eceğ	-7.12385
▁ama	-7.13638
s	-7.14909
acağ	-7.15274
▁bil	-7.15851
▁ben	-7.16773
▁söyledi	-7.17063
▁zaman	-7.1824
lar	-7.18475
ler	-7.19231
▁kullan	-7.19313
▁‘	-7.20719
▁baş	-7.22367
▁er	-7.23348
▁ifade	-7.24093
▁maç	-7.24646
▁dünya	-7.25266
▁türk	-7.25553
?	-7.25689
▁siz	-7.26578
▁karar	-7.26614
▁iyi	-7.26784
▁süre	-7.29339
▁alt	-7.29659
▁ad	-7.29737
▁3	-7.29902
▁gerek	-7.30499
▁dır	-7.30682
▁özel	-7.30725
▁sıra	-7.30791
▁2	-7.31923
▁bölge	-7.3205
d	-7.32509
▁dı	-7.32548
▁genel	-7.32937
▁takım	-7.33355
▁başkan	-7.33522
▁lan	-7.34026
▁erek	-7.34417
▁izmir	-7.34702
▁ilgili	-7.34913
▁insan	-7.35459
▁iste	-7.35858
▁tir	-7.36189
▁etti	-7.363
▁orta	-7.36307
▁olay	-7.36695
▁kadın	-7.36827
▁bakan	-7.37081
▁parti	-7.38777
in	-7.39027
▁söz	-7.3919
▁kat	-7.39749
▁ten	-7.40134
▁ancak	-7.40435
▁gir	-7.41281
▁önem	-7.4181
dık	-7.42193
▁oyun	-7.43112
▁ilçe	-7.43643
▁mış	-7.44292
▁ard	-7.44464
▁görev	-7.44731
si	-7.44785
▁milyon	-7.44952
r	-7.45363
▁ün	-7.45448
▁se	-7.45804
▁devam	-7.46171
ma	-7.46555
de	-7.47382
▁miş	-7.48047
▁merkez	-7.48133
▁k	-7.48633
da	-7.48659
▁dik	-7.49353
▁kur	-7.49392
▁açıkla	-7.49797
▁yaş	-7.50451
▁düzenle	-7.50632
b	-7.51093
▁değil	-7.51794
▁dir	-7.51972
▁durum	-7.52234
l	-7.52562
▁sayı	-7.5304
▁r	-7.53966
▁başla	-7.54122
▁tarih	-7.55487
▁at	-7.55722
▁film	-7.55787
▁çek	-7.55892
▁z	-7.56102
▁devlet	-7.56235
▁yok	-7.56689
▁müdür	-7.56759
▁istanbul	-7.57343
▁getir	-7.57688
▁1	-7.58057
▁art	-7.58143
▁bak	-7.58796
▁aç	-7.58846
▁yardım	-7.59422
▁polis	-7.595
▁çocuk	-7.60173
▁belir	-7.60591
▁iyor	-7.60614
▁tüm	-7.61613
▁ul	-7.6177
u	-7.63148
▁nü	-7.63586
▁4	-7.64114
▁ır	-7.6423
▁oldu	-7.6487
;	-7.6541
▁luk	-7.65868
▁5	-7.66148
▁sür	-7.66301
▁aynı	-7.66458
li	-7.66602
▁yönetim	-7.67671
▁güven	-7.68036
leri	-7.68656
lüğ	-7.68949
▁şey	-7.69595
▁konuştu	-7.69651
▁eğitim	-7.69712
▁alan	-7.69766
y	-7.71203
▁halk	-7.71564
▁futbol	-7.72049
▁çi	-7.72519
▁bilgi	-7.72794
▁diğer	-7.73199
ları	-7.73453
▁‘‘	-7.73794
o	-7.74457
▁aday	-7.747
▁bugün	-7.74884
▁hayat	-7.74932
...	-7.75242
p	-7.75259
▁üye	-7.75938
▁çin	-7.75973
▁dış	-7.76998
▁yaz	-7.77094
▁kent	-7.77154
▁dur	-7.78748
▁dön	-7.78984
▁10	-7.79228
▁tek	-7.79283
an	-7.79348
ya	-7.79566
▁hafta	-7.79737
▁ilişki	-7.80615
▁hakkı	-7.81202
▁söyle	-7.81488
▁konuş	-7.81595
▁nedeniyle	-7.81708
▁genç	-7.81806
▁yakın	-7.81818
▁kurul	-7.81821
▁haber	-7.82429
me	-7.8278
▁seçim	-7.82936
▁sız	-7.8322
▁ıp	-7.83434
di	-7.83656
▁daş	-7.84021
▁lü	-7.84222
▁fark	-7.84399
▁proje	-7.84504
▁göster	-7.84685
▁tur	-7.84839
▁hizmet	-7.84863
▁gid	-7.84955
▁ceza	-7.85026
▁tır	-7.8509
▁anla	-7.85633
▁ak	-7.85823
▁hastane	-7.85963
▁ayrı	-7.86044
▁abil	-7.86383
▁vatan	-7.86468
▁oyna	-7.86576
▁sağ	-7.86736
▁üniversite	-7.87065
▁leş	-7.87198
▁başarı	-7.87831
▁spor	-7.88089
▁böyle	-7.89058
▁ül	-7.89168
▁fazla	-7.89225
▁topla	-7.89479
▁sağla	-7.89643
te	-7.89959
▁eş	-7.90006
▁aile	-7.90185
▁bazı	-7.90368
▁ıyor	-7.90376
luğ	-7.90394
▁dür	-7.90684
g	-7.90856
▁dil	-7.91316
▁hak	-7.91505
la	-7.91803
▁düğ	-7.91933
▁ankara	-7.92021
▁avrupa	-7.92455
▁şekil	-7.92699
▁hem	-7.92749
▁ip	-7.93156
▁başbakan	-7.93218
▁saat	-7.93246
▁dün	-7.93307
▁hava	-7.93507
▁toplantı	-7.93573
▁sor	-7.93881
ın	-7.94025
▁kız	-7.94273
sı	-7.95043
▁eski	-7.95654
▁öğrenci	-7.95791
▁sahip	-7.95986
▁para	-7.96153
en	-7.96676
▁bas	-7.96773
▁gazete	-7.96813
▁san	-7.96885
▁miz	-7.97086
▁du	-7.97313
▁sun	-7.97685
▁şu	-7.9835
▁düş	-7.9844
▁kazan	-7.98549
▁soru	-7.99612
▁lig	-8.00164
▁sade	-8.00599
▁duk	-8.0067
▁bura	-8.01037
▁göz	-8.01086
▁savaş	-8.01177
lı	-8.0139
▁kez	-8.01394
▁dönem	-8.01861
▁okul	-8.02476
▁grup	-8.03127
▁kim	-8.03986
▁on	-8.04133
▁cü	-8.05046
▁deniz	-8.05669
▁oluş	-8.05733
er	-8.05967
▁ziyaret	-8.06014
▁6	-8.06098
▁ikinci	-8.06433
▁gerçekleş	-8.06682
▁geliş	-8.07046
▁len	-8.07146
▁değiş	-8.07454
ğ	-8.07599
▁oy	-8.07782
le	-8.08103
▁ulaş	-8.08272
▁tık	-8.08324
▁güzel	-8.08409
▁yüksek	-8.08549
▁göre	-8.08644
▁milli	-8.08668
▁sen	-8.08792
▁can	-8.08964
laş	-8.09244
▁arkadaş	-8.0943
ye	-8.09431
▁mücadele	-8.09836
▁lük	-8.09939
▁mahkeme	-8.09949
▁adam	-8.10077
▁verdi	-8.10284
ş	-8.10377
▁iddia	-8.10917
▁belirtti	-8.11006
▁bırak	-8.11074
▁uzun	-8.12293
▁gül	-8.1287
▁destek	-8.12936
dir	-8.13277
▁lira	-8.13863
▁abd	-8.13882
▁mi	-8.13887
▁üst	-8.13918
▁şöyle	-8.14369
▁öl	-8.14532
▁hali	-8.14539
▁ık	-8.1593
▁veya	-8.16045
▁ırak	-8.16411
▁açıklamada	-8.16809
▁zor	-8.17167
▁taşı	-8.17244
▁doğru	-8.17368
nün	-8.18027
▁ti	-8.18582
▁yaklaşık	-8.1866
▁sü	-8.18855
▁dikkat	-8.19045
▁git	-8.19159
▁meydan	-8.19426
bu	-8.19549
▁7	-8.20065
h	-8.20449
▁20	-8.20488
▁çı	-8.20634
▁tut	-8.2088
z	-8.20937
▁tür	-8.21073
▁tı	-8.21189
▁hareket	-8.21949
▁hükümet	-8.21968
▁sezon	-8.22249
▁üç	-8.224
▁saldırı	-8.22514
ta	-8.22538
▁bekle	-8.2301
▁gece	-8.23025
▁suriye	-8.23086
▁erdoğan	-8.23331
▁ekip	-8.23551
▁yu	-8.23757
▁geri	-8.23968
▁suç	-8.23984
ebil	-8.24112
▁hasta	-8.24393
▁teknik	-8.24403
/	-8.24705
▁duy	-8.24714
▁köy	-8.25057
▁mehmet	-8.25138
▁yara	-8.25162
▁açık	-8.25385
▁iz	-8.25461
ümüz	-8.25535
!	-8.25564
▁geldi	-8.25763
▁şirket	-8.25971
▁top	-8.2629
▁milyar	-8.26394
▁yazı	-8.26629
▁baba	-8.27168
▁ği	-8.27225
▁ali	-8.27255
▁mahalle	-8.27351
▁sistem	-8.27553
yacak	-8.27585
▁ora	-8.27625
▁banka	-8.27836
▁bütün	-8.28063
▁8	-8.28116
▁kabul	-8.28143
▁şimdi	-8.28318
▁dr	-8.28621
▁ağır	-8.28684
c	-8.28715
▁dakika	-8.29418
▁isim	-8.2957
▁koru	-8.29647
▁az	-8.29792
▁çevre	-8.30153
▁15	-8.30281
▁kısa	-8.31089
▁hiç	-8.31491
▁kaynak	-8.31755
▁meclis	-8.3202
▁boy	-8.32053
▁program	-8.32164
▁edildi	-8.32556
▁araştır	-8.32804
▁anne	-8.33008
▁aldı	-8.33139
▁sanat	-8.34175
▁hazır	-8.34387
▁silah	-8.34483
▁bun	-8.34589
▁dava	-8.34631
al	-8.3493
▁araç	-8.35347
▁değer	-8.35409
▁cumhuriyet	-8.35566
f	-8.35924
▁bölüm	-8.35973
▁suz	-8.37223
▁örgüt	-8.37249
▁sonuç	-8.37378
▁ış	-8.37465
▁sonuc	-8.37576
▁ur	-8.38099
sa	-8.38221
▁kaç	-8.38264
ne	-8.38273
▁sat	-8.38349
▁dol	-8.38617
dır	-8.38877
▁yaptı	-8.38895
▁yetki	-8.39034
▁uluslararas	-8.39187
▁kaydetti	-8.39241
▁16	-8.39598
▁sorun	-8.39967
un	-8.4012
▁hedef	-8.40315
▁görüş	-8.40504
çok	-8.40553
▁gönder	-8.40677
▁chp	-8.40824
yacağ	-8.40951
▁100	-8.41193
▁oda	-8.41202
▁neden	-8.41406
▁herkes	-8.41675
▁kaza	-8.4183
▁yürü	-8.41943
▁üm	-8.42871
▁dolar	-8.42968
▁izle	-8.43328
▁başladı	-8.43422
▁belirterek	-8.4346
▁ses	-8.43479
▁terör	-8.43539
▁ça	-8.43765
▁büyükşehir	-8.43863
▁çe	-8.43885
▁puan	-8.43886
▁operasyon	-8.44054
▁öde	-8.44118
▁saha	-8.44248
▁yarı	-8.44997
▁pazar	-8.4504
▁g	-8.45681
▁kültür	-8.4581
▁oku	-8.46002
▁rağmen	-8.46006
▁12	-8.46109
▁çıktı	-8.46486
▁yapı	-8.46742
▁seç	-8.46851
▁*	-8.46961
▁kapsam	-8.4741
▁düşün	-8.47438
▁tören	-8.47853
▁savun	-8.48092
▁yön	-8.48387
▁bağlı	-8.48469
▁erkek	-8.48784
cı	-8.48887
▁9	-8.4891
▁kes	-8.49568
▁30	-8.49724
▁ürün	-8.49767
▁hiçbir	-8.49802
▁tanı	-8.49829
▁temsil	-8.5011
▁lider	-8.50113
▁engel	-8.50279
▁sosyal	-8.50354
dı	-8.50499
▁hız	-8.50539
▁yayın	-8.50565
▁nasıl	-8.50704
▁grub	-8.50766
iniz	-8.50893
▁sev	-8.5111
ü	-8.51209
▁fotoğraf	-8.51353
▁yönelik	-8.51469
▁bulundu	-8.51639
▁olacak	-8.51833
▁güç	-8.51854
▁plan	-8.51928
▁d	-8.51988
▁otur	-8.52372
▁vali	-8.52539
▁hazırla	-8.52542
▁nokta	-8.53011
▁bit	-8.53072
▁belirtildi	-8.53184
▁mustafa	-8.5395
▁mız	-8.54142
▁bina	-8.54736
▁koy	-8.54917
▁yat	-8.55061
▁ait	-8.55519
."	-8.5577
▁yasa	-8.55832
▁gerçek	-8.55849
▁askeri	-8.55909
▁ortak	-8.56075
▁milletvekili	-8.56313
▁ek	-8.56338
▁sınır	-8.56384
▁tartış	-8.56596
▁satış	-8.56631
▁karşılaş	-8.56691
▁küçük	-8.56796
na	-8.57038
▁say	-8.57218
yerek	-8.57655
▁uygulama	-8.57662
▁mutlu	-8.57827
▁olimpiyat	-8.57843
aa	-8.57878
▁ba	-8.58092
▁up	-8.58472
▁emniyet	-8.58916
▁hep	-8.59174
▁ik	-8.59382
),	-8.59534
▁tik	-8.59589
▁tam	-8.59627
nin	-8.60066
▁ınız	-8.60239
▁yoğun	-8.60946
▁otomobil	-8.61397
▁tedavi	-8.61408
▁fiyat	-8.61575
ca	-8.61706
▁madde	-8.61954
▁transfer	-8.62091
▁çeşit	-8.62135
▁sık	-8.62138
▁yıldız	-8.62454
▁kar	-8.62493
▁beşiktaş	-8.62854
▁mı	-8.62964
▁kin	-8.62998
▁asker	-8.63011
ti	-8.63082
▁şunlar	-8.63189
v	-8.63483
oğ	-8.63713
▁belirle	-8.63728
▁niz	-8.63806
▁18	-8.6392
ci	-8.63948
▁içeri	-8.64166
▁şampiyon	-8.64186
▁telefon	-8.6438
oğlu	-8.64549
ç	-8.64683
▁cumhurbaşkanı	-8.64831
▁kardeş	-8.64841
▁ödül	-8.64908
▁akşam	-8.64926
▁kapı	-8.64956
▁ünlü	-8.65138
▁muş	-8.65334
▁üş	-8.65478
▁çünkü	-8.65602
il	-8.6565
▁incele	-8.66008
▁firma	-8.66469
▁ediyor	-8.66574
▁yaban	-8.66674
se	-8.66797
▁site	-8.66833
ar	-8.67151
▁ahmet	-8.67193
▁f	-8.6765
▁kan	-8.67757
▁toplum	-8.6778
▁şubat	-8.67794
ir	-8.68005
▁ban	-8.6822
▁sektör	-8.68626
▁ticaret	-8.68693
▁hale	-8.68702
▁sabah	-8.68704
▁ölüm	-8.6877
im	-8.68878
umuz	-8.69046
▁ilgi	-8.69358
▁gözaltı	-8.69508
▁üretim	-8.69816
▁kara	-8.69865
▁11	-8.69973
▁eylem	-8.70026
▁yüksel	-8.7051
ün	-8.70518
▁siyasi	-8.70593
▁uz	-8.70855
▁b	-8.71144
▁sanayi	-8.72033
▁bildirildi	-8.72208
▁ayrıl	-8.72826
▁tepki	-8.72925
▁derece	-8.73197
▁kuru	-8.73201
▁uygula	-8.73229
▁ordu	-8.73488
lu	-8.7352
▁etki	-8.73783
▁inan	-8.74154
▁görüşme	-8.74281
▁direktör	-8.74418
▁hat	-8.74803
▁öğren	-8.74901
▁sevgi	-8.74927
▁açı	-8.74993
▁park	-8.75036
su	-8.75629
yecek	-8.75767
▁bi	-8.75882
▁mart	-8.76472
ka	-8.76478
▁piyasa	-8.76575
▁zarar	-8.76577
▁sahne	-8.76685
▁eylül	-8.77368
▁bildirdi	-8.7738
▁asl	-8.77542
▁vergi	-8.77636
▁anlam	-8.78026
▁sarı	-8.78172
ce	-8.78203
den	-8.78545
▁soruşturma	-8.78678
▁şekl	-8.78697
▁şube	-8.78824
▁prof	-8.78887
▁yarat	-8.78903
▁ekonomi	-8.78928
▁internet	-8.79451
▁sahib	-8.79766
▁almanya	-8.7995
'	-8.80106
▁salon	-8.80231
lik	-8.80312
▁oran	-8.80601
el	-8.80711
▁nız	-8.80817
▁rapor	-8.81098
▁25	-8.81201
▁dolayı	-8.81421
▁kapa	-8.8151
▁50	-8.8165
▁çift	-8.81765
at	-8.81932
▁s	-8.82124
▁kuzey	-8.82369
▁fenerbahçe	-8.82487
▁çözüm	-8.82566
erek	-8.82611
lan	-8.82679
▁kadro	-8.82689
▁hemen	-8.82749
▁china	-8.83012
▁galatasaray	-8.83108
▁kupa	-8.83129
▁mu	-8.832
▁ateş	-8.83212
▁kitap	-8.83336
▁katıldı	-8.8336
arak	-8.83368
▁17	-8.8341
▁açıkladı	-8.83425
▁yani	-8.83756
▁beraber	-8.83855
▁kötü	-8.83913
▁hal	-8.83985
▁sav	-8.84067
▁yaşam	-8.84355
▁dışişleri	-8.8442
▁görüntü	-8.84551
▁arka	-8.84622
yeceğ	-8.84638
▁büyü	-8.84839
ö	-8.85175
▁aydın	-8.85325
▁işbirliği	-8.85377
dan	-8.85581
▁beijing	-8.86145
yi	-8.86366
▁yarış	-8.86562
▁müdahale	-8.86641
▁imza	-8.86666
▁turizm	-8.86872
▁pek	-8.86923
▁kuruluş	-8.86948
▁izin	-8.8703
.”	-8.87107
▁talep	-8.87586
▁bel	-8.87609
▁şehir	-8.87724
▁kriz	-8.87793
▁mayıs	-8.87911
▁uygun	-8.87968
▁barış	-8.8801
▁ücret	-8.88559
▁liste	-8.88778
▁13	-8.88899
▁the	-8.88955
▁şarkı	-8.89429
▁teşekkür	-8.89518
man	-8.89629
▁doğ	-8.89727
▁doğu	-8.89975
▁sokak	-8.90054
▁taraftar	-8.90575
▁14	-8.90671
▁faaliyet	-8.90768
▁metre	-8.90806
du	-8.90917
▁gösteri	-8.91
▁uçak	-8.91201
▁ab	-8.91926
▁rusya	-8.91943
▁sin	-8.92189
▁19	-8.92351
▁gündem	-8.92455
▁kredi	-8.92548
▁öz	-8.92549
▁tesis	-8.92665
▁euro	-8.92673
▁teklif	-8.92676
▁terörist	-8.93384
▁kuvvet	-8.9345
▁demir	-8.93612
▁şiddet	-8.93635
▁temmuz	-8.9375
ur	-8.93776
▁tamamla	-8.93779
tir	-8.93781
▁tespit	-8.94099
2	-8.94223
▁sıkıntı	-8.94233
▁tekrar	-8.94248
▁oğl	-8.94293
▁vurgula	-8.94333
▁h	-8.94392
▁ekonomik	-8.94614
▁yarak	-8.94744
▁katkı	-8.94894
▁çocuğ	-8.95037
▁yönetici	-8.95192
▁kart	-8.95382
▁ileri	-8.95391
▁birinci	-8.95415
▁kale	-8.95433
ıyor	-8.95535
▁saatler	-8.95604
▁kolay	-8.95687
iz	-8.9573
▁kayded	-8.95859
▁millet	-8.95873
▁mesaj	-8.95938
▁atatürk	-8.9607
▁ocak	-8.96373
▁taş	-8.96516
▁derneğ	-8.96951
▁hukuk	-8.98145
▁giy	-8.98295
▁politika	-8.98663
ik	-8.98735
mış	-8.98989
▁öğretmen	-8.99225
▁ince	-8.99253
▁dinle	-8.99296
▁zaten	-8.99316
▁ız	-8.99452
▁dizi	-8.9963
ır	-8.99662
▁sivil	-8.99818
▁komutan	-9.00049
ni	-9.00179
▁istedi	-9.00211
▁işlem	-9.00472
▁enerji	-9.0051
ri	-9.00527
▁kanun	-9.00614
▁kol	-9.00688
▁kulüp	-9.01019
iyor	-9.0111
1	-9.01314
▁amaç	-9.01328
mak	-9.01378
▁kurtar	-9.01467
▁kamu	-9.01474
▁özgür	-9.01654
▁hayvan	-9.01734
▁için	-9.0175
▁vur	-9.01932
▁bilim	-9.0211
▁müzik	-9.02249
▁haziran	-9.02297
▁birbir	-9.02333
▁ici	-9.0252
▁uyor	-9.02747
re	-9.02823
▁belli	-9.02869
▁belge	-9.02919
▁verildi	-9.03089
▁dört	-9.03164
▁sürü	-9.0322
▁israil	-9.03229
▁antalya	-9.03271
ge	-9.03565
▁otel	-9.03718
sel	-9.03882
▁ciddi	-9.04092
spor	-9.04305
▁alındı	-9.04335
▁serbest	-9.04568
tı	-9.04669
▁batı	-9.0481
um	-9.0505
▁gın	-9.05187
▁artış	-9.05265
▁kamp	-9.05522
▁şehit	-9.05607
▁avukat	-9.05855
▁eğ	-9.05948
▁anadolu	-9.06379
▁gemi	-9.06494
acak	-9.06508
▁doğum	-9.06524
▁parça	-9.06786
▁kır	-9.06872
▁biraz	-9.06987
ra	-9.07016
▁bulunuyor	-9.07049
▁ingiltere	-9.07228
▁getirdi	-9.07613
▁konser	-9.07642
▁gol	-9.07933
▁resm	-9.08012
iş	-9.08035
▁mal	-9.08105
▁uzman	-9.08117
▁temel	-9.08132
▁kafa	-9.08229
▁yıp	-9.08277
▁boz	-9.08359
▁ihale	-9.08372
▁öte	-9.08524
▁servis	-9.08533
▁aşk	-9.0861
ki	-9.0869
▁komisyon	-9.08921
▁dahil	-9.08953
C	-9.09003
▁başvuru	-9.09041
▁ağustos	-9.09125
mi	-9.09253
▁teslim	-9.09265
▁cadde	-9.0934
▁ingiliz	-9.09462
▁24	-9.09544
▁yemek	-9.09744
▁bayram	-9.0975
▁eser	-9.09894
▁jandarma	-9.09903
▁televizyon	-9.09921
us	-9.09927
▁bey	-9.10085
▁kimse	-9.10769
▁yorum	-9.10858
▁uzak	-9.11028
▁iran	-9.11105
▁sıcak	-9.11199
▁siyaset	-9.11329
▁kay	-9.11331
▁takip	-9.11416
▁akp	-9.11483
▁kayıt	-9.11565
▁ise	-9.11569
sin	-9.1161
▁henüz	-9.11651
▁düzey	-9.11722
▁kulübü	-9.11957
miş	-9.12173
▁fakülte	-9.12188
▁adet	-9.12234
▁olur	-9.1235
▁işaret	-9.12658
▁ihracat	-9.12659
▁22	-9.12845
▁şart	-9.12975
▁beş	-9.13013
▁40	-9.13065
▁güney	-9.13106
to	-9.13254
▁tehlike	-9.1352
▁fransa	-9.13603
▁federasyon	-9.13614
▁herhangi	-9.13987
on	-9.14084
▁güçlü	-9.14116
is	-9.14119
▁çekti	-9.14606
▁patla	-9.14729
▁yapıldı	-9.15136
▁seviye	-9.15213
▁ytl	-9.15316
▁ism	-9.15406
▁kontrol	-9.15476
▁çal	-9.1599
▁yarın	-9.16099
▁anayasa	-9.16278
▁hüseyin	-9.16332
▁uş	-9.16401
▁tl	-9.16642
▁nisan	-9.16782
▁faiz	-9.16991
▁toprak	-9.1725
▁for	-9.17332
▁sınıf	-9.17384
▁baskı	-9.1764
ine	-9.17726
▁otobüs	-9.17755
▁itibaren	-9.17977
▁örnek	-9.18009
▁açılış	-9.18148
▁yerel	-9.18185
▁ege	-9.18194
tır	-9.18371
▁ders	-9.186
▁yanlış	-9.18718
▁ekib	-9.19069
▁dü	-9.19207
ek	-9.19238
▁abdnin	-9.19309
ması	-9.19574
▁nere	-9.1959
▁çaba	-9.19808
▁bomba	-9.19831
▁yanıt	-9.19883
ba	-9.19969
▁üçüncü	-9.19979
bi	-9.20062
▁kongre	-9.20318
▁ulusal	-9.20637
ing	-9.2078
▁ayak	-9.20794
▁marka	-9.2099
▁başkent	-9.21021
▁sağlık	-9.21191
▁karşıyaka	-9.21298
▁tercih	-9.2137
▁yeşil	-9.21423
▁kilometre	-9.2168
▁öyle	-9.21733
▁iktidar	-9.21765
▁orman	-9.21964
▁sol	-9.21988
▁medya	-9.22025
▁gelir	-9.22075
▁tarım	-9.22148
▁çalışan	-9.22367
▁davet	-9.22669
▁dağ	-9.22836
▁elektrik	-9.22843
▁biri	-9.22844
▁olan	-9.23015
mıştı	-9.23126
▁trafik	-9.23133
es	-9.23304
▁yarışma	-9.23481
▁teknoloji	-9.23482
▁2.	-9.23489
yse	-9.23727
▁götür	-9.23902
▁kemal	-9.241
▁arac	-9.24135
▁dost	-9.24305
▁sevk	-9.2443
et	-9.24442
▁imkan	-9.24657
▁amerika	-9.24706
▁yurt	-9.24861
ecek	-9.24924
▁doktor	-9.25199
▁fuar	-9.25301
▁istiyoruz	-9.25358
A	-9.25427
▁23	-9.25592
▁şahin	-9.25595
▁desteğ	-9.25834
com	-9.25861
▁mümkün	-9.25883
▁daire	-9.25983
ve	-9.26025
▁güc	-9.26172
3	-9.26194
▁kaybet	-9.26255
▁500	-9.26335
▁birkaç	-9.26352
▁numara	-9.26607
▁mü	-9.26621
▁çıkar	-9.26639
▁saygı	-9.26838
▁ür	-9.26935
▁kesim	-9.26936
▁saye	-9.27363
ul	-9.27514
ak	-9.27689
▁yalnız	-9.27877
▁idare	-9.27879
▁amerikan	-9.28081
▁hasan	-9.28281
▁şans	-9.28406
’	-9.28407
▁ilerle	-9.28412
▁lise	-9.28416
▁öğrenildi	-9.2848
▁abdullah	-9.28495
▁tatil	-9.28652
▁ibrahim	-9.28701
▁deprem	-9.2903
▁inşaat	-9.29036
▁güneş	-9.29139
dur	-9.29184
▁ihtiyaç	-9.2939
▁boş	-9.29417
▁katılım	-9.29566
▁uyarı	-9.29568
▁paylaş	-9.29597
▁galibiyet	-9.29943
▁fakat	-9.29977
▁veri	-9.30073
▁yatırım	-9.30284
▁bilgisayar	-9.30311
▁doğal	-9.30401
4	-9.3042
▁28	-9.30499
▁yaka	-9.30556
▁personel	-9.30655
uz	-9.30662
▁sayfa	-9.30669
nın	-9.30712
▁geniş	-9.30761
▁şüphe	-9.31189
▁aş	-9.31395
▁new	-9.31669
▁hesap	-9.31723
▁islam	-9.3183
▁murat	-9.31981
mek	-9.3204
▁21	-9.32104
▁tu	-9.32211
▁yönet	-9.32442
▁istifa	-9.32639
▁önle	-9.32793
▁üyor	-9.3298
gi	-9.33031
▁fatih	-9.3304
▁1.	-9.33073
▁renk	-9.33125
▁kaydedildi	-9.33142
▁ederek	-9.33418
▁acı	-9.33429
▁bağlantı	-9.33512
▁kullandı	-9.33531
len	-9.33664
▁tak	-9.33671
▁sinema	-9.33732
▁sın	-9.33747
▁tiyatro	-9.3376
▁yılmaz	-9.33862
▁gaz	-9.33873
▁çöz	-9.33875
▁model	-9.33975
▁beri	-9.34095
▁süper	-9.34105
▁kanal	-9.34282
ken	-9.34327
▁kalk	-9.34338
lama	-9.34519
▁gerekiyor	-9.34542
▁acil	-9.34765
▁heyet	-9.34798
▁tamamen	-9.34906
▁kon	-9.35197
▁sefer	-9.35284
ay	-9.35332
bir	-9.35345
bkz	-9.35464
ke	-9.3553
▁hepsi	-9.35647
▁kampanya	-9.3566
▁kısm	-9.35712
▁adalet	-9.35801
as	-9.35842
▁ihtiyac	-9.35858
▁bahçe	-9.3601
ver	-9.36437
▁vurguladı	-9.36477
▁gezi	-9.36493
lık	-9.36506
inde	-9.36516
▁hatırla	-9.36753
▁kap	-9.3685
▁kaldı	-9.37005
▁hapis	-9.37456
▁tıp	-9.37565
▁normal	-9.37586
▁unut	-9.3795
▁defa	-9.37989
▁basın	-9.38048
▁geçti	-9.38475
tüğ	-9.38652
▁not	-9.38686
▁zirve	-9.3887
▁dal	-9.38936
▁hata	-9.39011
▁2013	-9.39241
▁uğra	-9.39336
sal	-9.39388
▁eyalet	-9.39484
▁yazar	-9.39599
ol	-9.39609
▁hangi	-9.39615
tan	-9.39673
▁all	-9.39717
▁oluyor	-9.3974
▁karış	-9.39763
ini	-9.39862
▁miktar	-9.39895
▁tayyip	-9.39895
▁dağıt	-9.39896
st	-9.39902
▁ha	-9.39905
▁tip	-9.39926
▁harca	-9.40084
ıl	-9.40113
▁vardır	-9.40204
▁karşıla	-9.40397
▁büyükelçi	-9.40549
▁sert	-9.40641
▁risk	-9.4073
▁esnaf	-9.40733
ip	-9.40816
▁şikayet	-9.40921
▁cinayet	-9.4093
▁çay	-9.40957
tik	-9.4098
▁borsa	-9.40987
▁meslek	-9.41211
▁sal	-9.41229
▁üre	-9.41233
▁yağ	-9.41276
sın	-9.41295
▁bursa	-9.41452
▁beyaz	-9.4148
▁lazım	-9.41557
yici	-9.41573
ıcı	-9.41662
▁demokrasi	-9.41716
▁protesto	-9.41766
▁rakam	-9.41766
dha	-9.4183
▁recep	-9.41977
▁gerekçesi	-9.42095
▁olarak	-9.42319
▁çerçeve	-9.42391
▁hakem	-9.42449
▁çağrı	-9.42704
▁muz	-9.42773
▁yakala	-9.42832
▁masa	-9.42914
▁aziz	-9.43189
▁bağla	-9.43232
▁gösterdi	-9.43408
▁kapalı	-9.4346
▁duygu	-9.43678
▁kanser	-9.43682
ad	-9.43714
▁tane	-9.43808
▁süreç	-9.43828
▁cenaze	-9.43959
▁kasım	-9.44107
▁tamam	-9.44172
▁anlattı	-9.44175
▁emekli	-9.44319
yış	-9.44482
▁sınav	-9.44542
▁şampiyona	-9.44627
▁yük	-9.44735
▁alıyor	-9.44748
ım	-9.44807
▁olsun	-9.44831
▁çağ	-9.44941
▁din	-9.44999
▁akl	-9.45083
▁rahat	-9.4517
▁taleb	-9.45467
▁kitab	-9.45588
▁değerlen	-9.45641
▁turist	-9.45853
▁sürek	-9.45916
▁tuğ	-9.45954
▁azal	-9.45971
▁gönül	-9.45977
▁tahmin	-9.46054
▁kürt	-9.46093
▁girişim	-9.46123
▁kırmızı	-9.46301
▁dergi	-9.4644
▁aktar	-9.46463
▁görün	-9.46468
▁yor	-9.46542
▁muhabir	-9.46713
▁plaka	-9.46737
▁düşük	-9.46756
▁60	-9.46834
▁biçim	-9.46942
ko	-9.47022
▁allah	-9.4705
▁aslan	-9.47267
▁200	-9.47292
▁malzeme	-9.47377
▁rol	-9.4747
▁kaya	-9.47498
va	-9.47516
▁diyarbakır	-9.47822
▁işletme	-9.47826
▁dük	-9.47832
▁teşkilat	-9.47869
▁hisse	-9.48133
▁anlaşma	-9.4817
▁vardı	-9.48249
ro	-9.48338
▁eksik	-9.48544
▁hakim	-9.4868
▁gizli	-9.48685
▁yöntem	-9.48737
▁bol	-9.48957
▁performans	-9.49002
▁uza	-9.49064
▁27	-9.49202
▁konferans	-9.49226
▁cami	-9.49298
▁fransız	-9.49313
8	-9.49319
▁buluş	-9.4932
ül	-9.49324
▁öneri	-9.49338
▁araba	-9.49623
▁c	-9.49712
son	-9.49818
▁memur	-9.49876
▁sakat	-9.5018
j	-9.50307
▁şehr	-9.50413
▁cevap	-9.50522
mis	-9.50555
▁26	-9.50646
▁pay	-9.50711
▁2012	-9.5075
▁kamera	-9.50774
ında	-9.50827
▁of	-9.50908
▁paket	-9.50949
▁road	-9.50996
ed	-9.51015
▁rus	-9.51096
▁destekle	-9.51442
▁duruşma	-9.51455
▁fırsat	-9.51455
RI	-9.51707
▁kurtul	-9.51757
▁bayrak	-9.51805
▁geliyor	-9.51838
▁kilo	-9.5189
▁mevcut	-9.51987
▁kamuoyu	-9.52151
ngshan	-9.52164
▁dolu	-9.52269
▁bütçe	-9.52384
▁denetim	-9.52398
▁ton	-9.52543
▁mısır	-9.52698
▁bağ	-9.528
▁malı	-9.52823
▁yargı	-9.53002
▁olduğunu	-9.53045
▁radio	-9.53086
x	-9.53139
▁net	-9.53396
▁kesin	-9.5351
▁temiz	-9.53667
▁manisa	-9.53928
▁International	-9.54031
▁emin	-9.54069
▁osman	-9.54152
▁koşul	-9.54264
▁kaymakam	-9.54308
▁yık	-9.54415
rights	-9.54507
▁müş	-9.54509
▁ediyorum	-9.54613
S	-9.54614
do	-9.54627
▁tbmm	-9.54653
▁bodrum	-9.54745
▁shiji	-9.54746
▁değildir	-9.54749
▁kulüb	-9.54842
▁reserve	-9.54985
▁yıldırım	-9.54986
▁ışık	-9.55026
▁kavga	-9.55033
▁ilaç	-9.55121
han	-9.5522
▁dolayısıyla	-9.55228
▁devre	-9.55251
▁edin	-9.55426
lerin	-9.55641
▁zengin	-9.55686
▁benze	-9.5569
▁dışarı	-9.55706
▁yağış	-9.55709
▁dönüş	-9.55806
▁yetiş	-9.55808
maz	-9.55935
▁organizasyon	-9.55948
▁bedel	-9.55954
ch	-9.55987
oz	-9.56038
▁uçağ	-9.56102
mesi	-9.56109
▁cuma	-9.56139
▁kaybed	-9.5616
▁basketbol	-9.56216
▁hayır	-9.56231
▁erke	-9.56277
iye	-9.56324
▁olabilir	-9.56422
▁antrenman	-9.56432
▁ramazan	-9.56432
▁çarp	-9.5651
ların	-9.56714
niz	-9.56771
os	-9.56824
▁metin	-9.56963
040	-9.57295
▁bm	-9.57315
▁gez	-9.57361
▁cezaevi	-9.57386
▁konsey	-9.57412
▁tasarı	-9.57422
▁darbe	-9.57546
▁siyah	-9.57885
▁fabrika	-9.57903
▁hoca	-9.57921
▁tehdit	-9.58148
▁kazandı	-9.58195
▁onur	-9.58202
miz	-9.58517
▁çoğu	-9.58534
▁p	-9.58537
▁koca	-9.58578
▁temas	-9.58607
E	-9.58783
▁re	-9.58885
mıştır	-9.58977
▁ekipleri	-9.59007
der	-9.59016
▁gıda	-9.59142
ha	-9.59166
▁komite	-9.59169
▁rahatsız	-9.59178
▁başvur	-9.59205
▁tabi	-9.59309
▁to	-9.59396
▁kural	-9.59467
▁nüfus	-9.59642
▁pkk	-9.59687
be	-9.59775
▁müşteri	-9.59895
▁ışid	-9.60053
▁halde	-9.60153
▁roman	-9.60244
▁süt	-9.60431
it	-9.60566
ten	-9.60647
▁seri	-9.6065
▁dosya	-9.60655
▁bar	-9.60847
▁köprü	-9.60863
▁york	-9.6093
▁petrol	-9.60997
▁sar	-9.61001
or	-9.61272
▁konak	-9.61274
▁iptal	-9.61356
ınca	-9.61375
▁şen	-9.61428
çi	-9.61506
▁ada	-9.61723
▁merak	-9.61802
fa	-9.61926
▁sekreter	-9.61927
▁makam	-9.61942
▁ortalama	-9.62014
▁yay	-9.62078
▁borç	-9.62173
▁cep	-9.62292
ydi	-9.62383
▁hediye	-9.62442
ıp	-9.6251
▁tutuk	-9.62557
▁uğur	-9.62562
▁35	-9.62584
▁girdi	-9.62652
▁bülent	-9.627
▁yunanistan	-9.62701
▁3.	-9.6281
▁rakip	-9.62959
▁as	-9.63185
▁tv	-9.63199
sinde	-9.63248
▁sendika	-9.63337
▁sergi	-9.63379
▁ömer	-9.63481
▁ismail	-9.63503
▁bal	-9.63504
▁av	-9.63632
▁kalite	-9.63677
▁bekleniyor	-9.63727
tu	-9.63747
▁amac	-9.63976
▁trilyon	-9.64002
▁edecek	-9.64075
▁çiz	-9.6426
kar	-9.64328
▁trabzonspor	-9.64356
▁yaralandı	-9.64392
▁üretici	-9.64528
▁korku	-9.64563
▁dans	-9.64566
ran	-9.6483
▁be	-9.64919
▁bayan	-9.65136
lo	-9.65406
▁alışveriş	-9.65587
▁ilan	-9.65823
maktadır	-9.65885
▁he	-9.66041
▁hürriyet	-9.6605
▁70	-9.66103
▁itiraz	-9.66121
▁tabii	-9.66306
▁umut	-9.66346
▁2014	-9.66371
▁deplasman	-9.66389
▁sözleşme	-9.66434
▁sigara	-9.66573
6	-9.66592
▁bağımsız	-9.66639
▁turnuva	-9.66658
▁rekor	-9.6666
▁seyir	-9.66779
▁mali	-9.66886
▁adliye	-9.66954
▁yak	-9.67061
▁van	-9.67154
▁kurs	-9.67251
▁29	-9.67328
▁konuk	-9.67514
▁bornova	-9.67635
▁inşa	-9.67665
▁ayrıca	-9.67851
▁bebek	-9.67991
▁londra	-9.68013
▁geçmiş	-9.68015
▁motor	-9.68054
ev	-9.68143
▁albüm	-9.68268
▁yip	-9.68373
▁saç	-9.68379
dik	-9.68391
▁uy	-9.68549
▁problem	-9.6856
▁adana	-9.68594
▁belirlendi	-9.6861
7	-9.68709
▁mezar	-9.68712
▁çiçek	-9.68801
▁ediliyor	-9.68828
▁yönetme	-9.68863
▁vazgeç	-9.68876
▁ölçü	-9.68966
▁ikili	-9.6933
▁istiyorum	-9.69399
▁liman	-9.69448
yı	-9.69516
▁300	-9.697
▁heyecan	-9.69701
ist	-9.69738
▁fayda	-9.69895
▁aşama	-9.70017
▁hesab	-9.7022
▁kral	-9.7025
▁90	-9.70265
can	-9.70316
san	-9.70334
kan	-9.70366
yüş	-9.70382
▁değerlendirme	-9.70492
▁ağaç	-9.7051
ga	-9.70582
▁kıbrıs	-9.70654
yan	-9.70676
yo	-9.70801
▁italya	-9.70806
bo	-9.70915
▁gereğ	-9.70977
▁filistin	-9.71061
▁yeter	-9.71073
▁planla	-9.71089
idir	-9.7123
▁test	-9.713
▁kış	-9.71355
▁adres	-9.7148
▁akıl	-9.71685
▁gen	-9.71741
▁olası	-9.71753
so	-9.7188
▁kurban	-9.71933
pa	-9.71934
▁soy	-9.71981
▁gider	-9.7209
▁artık	-9.72091
▁konut	-9.72182
▁uyuşturucu	-9.72192
▁sok	-9.72353
ab	-9.72385
▁gitti	-9.72438
▁ameliyat	-9.72477
▁karakter	-9.72477
▁rum	-9.72683
▁itfaiye	-9.73049
miştir	-9.73161
sen	-9.73173
▁gram	-9.73175
dim	-9.73196
▁saray	-9.73283
▁madalya	-9.7334
▁belde	-9.73472
▁men	-9.73514
▁sürdü	-9.73566
▁doğa	-9.73812
▁yet	-9.73898
ter	-9.73973
▁kuş	-9.74118
▁yansı	-9.74243
kü	-9.74302
▁/	-9.74359
▁yapıyor	-9.74365
▁aşağı	-9.74383
▁deri	-9.74559
lari	-9.74595
▁dair	-9.74614
▁düşünce	-9.74647
▁antrenör	-9.74786
▁uyar	-9.74943
▁hikaye	-9.75019
ck	-9.75048
▁yeterli	-9.75067
▁dernek	-9.75078
▁ucu	-9.75159
▁yapılacak	-9.75185
▁bor	-9.75194
siz	-9.75403
▁organ	-9.75418
her	-9.75506
▁öğretim	-9.75529
▁kira	-9.7556
▁yargılan	-9.75745
▁ayağ	-9.75753
▁31	-9.75816
▁attı	-9.75817
▁slogan	-9.7596
▁resim	-9.75964
▁sigorta	-9.76256
▁ruh	-9.76314
▁sahil	-9.76332
▁buldu	-9.76392
▁etkile	-9.76434
▁reklam	-9.76553
T	-9.76641
R	-9.76776
yabil	-9.76786
▁huzur	-9.76848
▁iletişim	-9.76855
▁diyor	-9.76913
▁mühendis	-9.76918
▁ist	-9.76954
▁nite	-9.76992
ze	-9.77004
go	-9.77199
▁başar	-9.77276
▁peş	-9.77354
muş	-9.77461
▁devrim	-9.77465
▁mekan	-9.77659
▁finans	-9.77737
▁üz	-9.77741
▁semt	-9.77756
▁paris	-9.77763
▁2007	-9.77924
▁80	-9.77941
▁gök	-9.78236
İ	-9.78273
▁asya	-9.78293
▁kenar	-9.78376
cu	-9.78469
▁açtı	-9.78569
▁dev	-9.78589
▁gaziantep	-9.78653
▁ambulans	-9.78655
▁takdir	-9.78663
▁kırsal	-9.78673
▁kahraman	-9.78732
(	-9.78744
▁sürüyor	-9.78883
▁cihaz	-9.78959
▁falan	-9.78976
▁tüket	-9.79082
▁emre	-9.79177
saray	-9.79289
▁yaklaş	-9.79293
▁çetin	-9.79415
▁pozisyon	-9.7957
▁ysa	-9.79582
▁milletvekil	-9.79614
ana	-9.79738
▁endeks	-9.79748
▁maliyet	-9.79815
▁co	-9.79928
://	-9.80183
▁ihbar	-9.80185
▁ilginç	-9.80185
▁fikir	-9.80185
▁gurur	-9.80196
▁koç	-9.80265
▁abdde	-9.80422
mez	-9.8074
mektedir	-9.80898
▁gun	-9.8105
mo	-9.81229
▁kalp	-9.81232
▁ölü	-9.81261
▁muğla	-9.81425
▁istikrar	-9.81425
▁müslüman	-9.81495
türk	-9.81557
▁veriyor	-9.8159
ık	-9.81636
▁adli	-9.81668
▁ekle	-9.81725
▁gerekir	-9.81729
▁duvar	-9.81752
▁taban	-9.81754
▁kutla	-9.81935
▁nla	-9.81973
▁2008	-9.82011
▁yüzyıl	-9.8209
▁önlem	-9.8243
▁kaybetti	-9.82563
ton	-9.82565
lü	-9.82587
▁eşya	-9.82651
5	-9.82662
taş	-9.82744
▁zan	-9.82992
▁binlerce	-9.82997
▁eleştir	-9.8324
▁hafif	-9.83265
acağız	-9.83364
▁yararlan	-9.83393
asyon	-9.83486
▁yağmur	-9.83637
▁çap	-9.83674
▁45	-9.83772
▁koş	-9.83779
ama	-9.83856
▁mağaza	-9.83952
türkiye	-9.83959
▁bilet	-9.84068
▁kork	-9.84228
▁kelime	-9.84273
▁ilgilen	-9.84295
▁selçuk	-9.84348
▁uzay	-9.84405
▁aşırı	-9.84441
▁asıl	-9.84486
bahçe	-9.84558
▁organize	-9.84597
▁uyum	-9.84736
ür	-9.84832
▁müze	-9.84924
▁zafer	-9.85049
▁komşu	-9.85159
▁doğrultu	-9.85225
▁şoför	-9.85241
▁beklenti	-9.85242
▁endişe	-9.85431
madı	-9.8546
▁kıyı	-9.85561
▁füze	-9.85565
▁sebep	-9.85565
▁daya	-9.85708
ydı	-9.85861
▁makine	-9.85878
www	-9.8589
▁arazi	-9.86061
ünce	-9.86107
▁vekil	-9.86216
▁stad	-9.86245
▁ediyoruz	-9.86358
▁vakf	-9.8638
▁çatışma	-9.86423
▁ağrı	-9.86442
▁tablo	-9.86567
sun	-9.86677
lanma	-9.86926
▁2005	-9.86993
▁şeker	-9.87001
köy	-9.87187
▁W	-9.87253
za	-9.87301
▁tutar	-9.87368
▁göl	-9.87404
▁cinsel	-9.87543
▁konya	-9.87608
▁mensup	-9.87911
▁video	-9.87943
▁hu	-9.88165
▁tat	-9.88305
▁uç	-9.88357
▁demokratik	-9.88365
▁cem	-9.88433
▁pas	-9.88469
▁modern	-9.88528
▁tedbir	-9.88537
▁trabzon	-9.88579
landı	-9.88583
pe	-9.8864
ör	-9.88657
▁kılıç	-9.88751
▁muhtar	-9.88872
▁afrika	-9.88977
van	-9.89045
▁hır	-9.89072
▁üzerine	-9.89119
▁ticari	-9.89208
▁civar	-9.8923
▁müzakere	-9.89254
larda	-9.89293
▁esas	-9.89444
▁süleyman	-9.89602
▁j	-9.89612
▁ümit	-9.89645
tü	-9.89747
▁tahliye	-9.89885
▁pilot	-9.89993
lay	-9.90043
co	-9.90285
▁muhalefet	-9.90352
▁soğuk	-9.90361
▁forma	-9.90398
▁davran	-9.90503
▁japonya	-9.90592
ot	-9.90608
▁genelkurmay	-9.90664
▁atla	-9.90682
▁yim	-9.90803
▁cam	-9.90848
▁tarz	-9.90915
▁şiir	-9.90941
▁örneğ	-9.90981
▁ayır	-9.91144
▁yayınla	-9.91155
▁yurtdışı	-9.91255
▁mutlaka	-9.91275
▁kaçak	-9.91293
▁sevin	-9.91487
zi	-9.91503
▁ter	-9.91624
▁çoğun	-9.91869
rken	-9.9187
▁yürütül	-9.91871
aj	-9.9191
▁bünye	-9.91943
▁eğlence	-9.9195
▁davranış	-9.92008
▁yo	-9.92103
▁final	-9.92126
▁sakin	-9.92131
▁yapacak	-9.92139
▁sermaye	-9.92291
men	-9.92447
iyet	-9.92476
lendi	-9.92515
▁strateji	-9.92639
▁öğle	-9.92639
▁düğün	-9.92957
▁ardından	-9.92994
▁tanıtım	-9.92995
▁üretil	-9.93129
am	-9.9319
▁set	-9.93206
▁denge	-9.93248
yarak	-9.93495
▁reform	-9.93692
▁karadeniz	-9.93694
▁ulaştı	-9.93718
▁tren	-9.93756
inin	-9.93847
▁edebiyat	-9.94045
▁kavuş	-9.94071
▁namaz	-9.94364
▁mesele	-9.94403
▁vade	-9.94543
▁maden	-9.94556
abil	-9.9462
▁engelle	-9.94635
▁dök	-9.94734
▁trafiğ	-9.94756
▁akdeniz	-9.94761
▁maddi	-9.94763
▁depo	-9.9487
▁diş	-9.94929
▁yaşlı	-9.9497
▁yaşandı	-9.95044
▁kapasite	-9.95113
▁radyo	-9.95185
ıyoruz	-9.9527
▁birim	-9.9534
▁tanış	-9.95391
▁eşit	-9.9542
▁v	-9.95423
▁cumartesi	-9.95471
▁tüketici	-9.95473
▁boyut	-9.95485
▁eleştiri	-9.95488
▁ispanya	-9.95562
▁arap	-9.95575
▁şam	-9.95705
▁kaldırıldı	-9.95717
medi	-9.95742
▁holding	-9.95831
▁istiyor	-9.96124
▁yasal	-9.9622
▁doku	-9.96313
▁alın	-9.96414
▁ağ	-9.96501
yıcı	-9.96748
▁2006	-9.96769
liği	-9.96892
▁kariyer	-9.96918
▁y	-9.96949
unuz	-9.97037
▁2010	-9.9712
▁müziğ	-9.97287
▁mersin	-9.97394
hane	-9.97399
mişti	-9.97466
▁erzurum	-9.97588
▁orhan	-9.97655
tepe	-9.97663
?"	-9.97697
▁dikkati	-9.978
▁ş	-9.9791
ebilir	-9.97996
▁platform	-9.98017
sız	-9.98261
bey	-9.98316
▁aykırı	-9.98363
▁istasyon	-9.98408
▁bush	-9.98423
▁boğaz	-9.9864
▁2015	-9.98774
▁mhp	-9.98837
▁dalga	-9.98976
mıyor	-9.99072
he	-9.99073
▁birlikte	-9.99129
▁bıçak	-9.99194
abilir	-9.99296
▁http	-9.99432
▁başlattı	-9.99506
▁cesed	-9.99535
▁danışman	-9.99604
▁no	-9.99783
▁büro	-9.99876
▁hasar	-9.99903
▁tel	-9.99936
▁yetkilileri	-10.0007
▁sezer	-10.0018
▁metrekare	-10.0025
▁tazminat	-10.0025
▁hanım	-10.0027
▁tanık	-10.005
▁düştü	-10.0056
ben	-10.0059
▁2009	-10.0065
▁terk	-10.0073
▁400	-10.0075
▁han	-10.0078
▁adım	-10.0087
▁tekne	-10.0092
▁2002	-10.0093
▁eskişehir	-10.0096
▁kayseri	-10.01
▁2000	-10.0103
▁beğen	-10.0112
ss	-10.013
gu	-10.0132
▁imam	-10.0138
▁konuşmada	-10.014
▁geçirdi	-10.0149
▁maaş	-10.0157
10	-10.0172
▁itibari	-10.0182
▁kıyafet	-10.0187
▁gin	-10.0187
▁düşman	-10.0188
▁Washington	-10.0195
▁2003	-10.0206
▁gördü	-10.0211
fi	-10.0213
▁uefa	-10.0215
▁2004	-10.0217
▁amerikalı	-10.0222
üp	-10.0226
▁34	-10.0234
▁afganistan	-10.0254
▁baykal	-10.0254
▁tecavüz	-10.0259
▁altyapı	-10.0262
M	-10.0275
K	-10.0279
▁tecrübe	-10.0288
▁sohbet	-10.0292
cumhurbaşkanlığı	-10.0293
▁ekledi	-10.0307
▁niyet	-10.0319
ıdır	-10.0325
▁anket	-10.0329
▁miras	-10.0334
▁kedi	-10.0345
▁tepe	-10.0346
▁dua	-10.0348
▁karayolu	-10.0372
▁mavi	-10.0375
▁döndü	-10.0377
▁kod	-10.0381
lerde	-10.0382
▁italyan	-10.0391
▁mektup	-10.0406
▁sultan	-10.0409
▁dolaş	-10.0411
▁bat	-10.0413
▁önemli	-10.0432
▁ayakkabı	-10.0448
▁senaryo	-10.0448
▁meyve	-10.0448
tar	-10.0449
▁öztürk	-10.045
▁çevir	-10.0456
▁onay	-10.0467
▁tenis	-10.0473
▁ekran	-10.0491
▁zorun	-10.0491
sında	-10.0492
▁kültürel	-10.0495
çı	-10.0499
▁bursaspor	-10.0508
▁diye	-10.052
▁ters	-10.0528
▁ra	-10.053
vi	-10.0531
W	-10.0535
▁bunlar	-10.054
▁fon	-10.055
▁düzen	-10.055
▁üstlen	-10.0558
▁rejim	-10.0567
▁toprağ	-10.0567
▁baraj	-10.0568
▁döviz	-10.0568
bil	-10.0573
▁açıklandı	-10.0575
▁ortam	-10.0585
lara	-10.0586
▁açıldı	-10.0594
▁tibet	-10.0596
▁pazartesi	-10.0607
▁cephe	-10.0607
▁çizgi	-10.0608
▁32	-10.0613
▁perşembe	-10.0616
▁tü	-10.0616
tur	-10.0627
▁mezun	-10.064
▁hayran	-10.0643
▁güreş	-10.0647
az	-10.0651
▁osmanlı	-10.0658
▁2011	-10.0673
▁zorla	-10.0674
▁başsavcı	-10.0686
▁sürpriz	-10.0687
▁özdemir	-10.0687
▁unsur	-10.0693
malı	-10.0705
ah	-10.0706
▁duyuru	-10.0712
lere	-10.0719
ını	-10.0722
▁tribün	-10.0727
▁tasarım	-10.0728
20	-10.0731
ön	-10.074
ova	-10.0742
▁düz	-10.0748
yebil	-10.0764
▁standart	-10.0768
alım	-10.0775
▁150	-10.0785
ına	-10.0793
▁yetkililer	-10.0798
▁hayal	-10.0808
▁çatı	-10.0808
▁kategori	-10.0808
▁dahi	-10.0813
▁engin	-10.0814
▁bağış	-10.082
▁ajans	-10.0821
rk	-10.0826
▁taksi	-10.0827
no	-10.0829
▁meli	-10.0833
kur	-10.0833
▁öner	-10.0842
▁kore	-10.0842
ırken	-10.0843
▁çağır	-10.0855
▁öldü	-10.086
▁arzu	-10.0864
▁bay	-10.0877
▁değin	-10.0879
▁demokrat	-10.0889
▁alternatif	-10.089
▁geleneksel	-10.09
▁arada	-10.0917
▁verecek	-10.0926
ov	-10.0943
▁göç	-10.0947
▁yaparken	-10.0952
▁yayımlan	-10.0955
ser	-10.0971
haber	-10.0973
▁olmaz	-10.0986
po	-10.0988
▁getirildi	-10.099
▁düzenlendi	-10.0991
▁roma	-10.0994
▁koşu	-10.0999
▁tamamladı	-10.1009
▁so	-10.1013
▁festivali	-10.1013
▁helikopter	-10.1014
▁çanakkale	-10.1014
▁çu	-10.102
dü	-10.1026
acaktır	-10.1029
▁yavaş	-10.1035
▁evet	-10.1045
▁ke	-10.1059
▁bazen	-10.1059
▁yitir	-10.106
*	-10.1061
tek	-10.1066
dr	-10.1071
▁yalan	-10.1077
▁pa	-10.1094
min	-10.1094
▁olmadı	-10.1095
▁yalçın	-10.1097
▁has	-10.1111
▁maliye	-10.1115
▁uc	-10.1118
▁yunan	-10.1127
▁mahkum	-10.114
▁gazi	-10.114
▁çiftçi	-10.1142
let	-10.1147
▁istek	-10.1178
ic	-10.118
▁köşe	-10.1182
▁yukarı	-10.1182
▁yemeğ	-10.1182
▁belçika	-10.1194
▁denildi	-10.1201
ley	-10.1208
biz	-10.1212
▁36	-10.1213
yınca	-10.1218
lığı	-10.1224
▁çarşamba	-10.1224
▁istihbarat	-10.123
▁john	-10.1236
▁galeri	-10.1236
ça	-10.1241
ger	-10.1241
nde	-10.1257
lin	-10.1266
▁istihdam	-10.1267
0	-10.1281
▁4.	-10.1293
miyor	-10.1296
▁yükseldi	-10.1297
▁talimat	-10.1301
▁yusuf	-10.1309
▁düşünüyorum	-10.131
▁saniye	-10.1316
▁küresel	-10.1328
▁alacak	-10.1339
ue	-10.1349
▁mağdur	-10.1352
▁yumurta	-10.1352
▁miting	-10.1354
▁33	-10.1362
▁yatak	-10.1379
B	-10.139
▁sebeb	-10.1396
▁ayrıntı	-10.1396
▁köpek	-10.1402
▁intihar	-10.1408
▁muhalif	-10.1439
▁teşvik	-10.1439
yince	-10.1439
▁ilhan	-10.1487
▁garanti	-10.1489
ladı	-10.149
▁çinli	-10.1502
▁aracılığıyla	-10.1526
▁rekabet	-10.1526
▁çöp	-10.1526
▁rektör	-10.1526
▁havalimanı	-10.1526
▁gökhan	-10.1527
▁şaş	-10.1535
▁profesyonel	-10.1538
ll	-10.1552
off	-10.1555
▁döv	-10.1563
▁amir	-10.1567
ber	-10.1567
D	-10.1567
▁efsane	-10.1569
▁vizyon	-10.157
yız	-10.1571
fe	-10.1572
dür	-10.1574
▁paşa	-10.1576
mer	-10.158
▁adn	-10.1592
▁parlamento	-10.1625
▁kas	-10.1629
baş	-10.1654
▁sahte	-10.1669
▁detay	-10.1677
nun	-10.1687
▁samsun	-10.1698
▁üyeleri	-10.1701
leme	-10.1701
▁hüküm	-10.1701
▁ayrıldı	-10.1713
▁yazdı	-10.1721
▁kutu	-10.1734
▁gerçekleşti	-10.1736
▁ham	-10.175
başı	-10.1774
▁yasak	-10.1775
larında	-10.1776
▁söylüyor	-10.1797
▁şok	-10.1799
ara	-10.1802
▁muhammed	-10.181
▁kere	-10.1819
▁bo	-10.1828
▁kamyon	-10.1836
▁belirtiliyor	-10.1838
▁aliağa	-10.1838
▁levent	-10.1839
▁kaptan	-10.1839
▁etraf	-10.1842
▁cik	-10.1843
▁uçuş	-10.1846
▁çalıştı	-10.1848
▁dile	-10.1853
▁etmişti	-10.1858
▁zorlu	-10.1866
▁kilise	-10.1877
▁enflasyon	-10.1882
▁heykel	-10.1882
lerini	-10.1882
▁basit	-10.1889
▁sinan	-10.1901
eğ	-10.1913
▁don	-10.1923
▁pakistan	-10.1928
▁dere	-10.1937
bel	-10.1952
▁belediyesi	-10.1966
▁kop	-10.1976
▁değişik	-10.1993
▁savundu	-10.1996
▁olduğu	-10.2006
▁inşallah	-10.2013
▁arslan	-10.2019
▁imparator	-10.2019
▁çalışıyor	-10.202
▁toplantısında	-10.2024
▁eder	-10.2025
▁havaalanı	-10.203
mar	-10.203
▁çeşme	-10.2036
▁göm	-10.2041
▁tutuklan	-10.2047
▁çıkardı	-10.205
▁cok	-10.2051
▁cık	-10.2061
▁şanlıurfa	-10.2065
iç	-10.2069
▁ka	-10.2096
▁saatte	-10.2107
av	-10.2109
▁abdli	-10.2113
▁özür	-10.2114
▁yoktur	-10.2122
leştir	-10.2123
eceğiz	-10.2124
yiz	-10.2124
▁dar	-10.2145
ham	-10.215
▁gergin	-10.2158
▁sel	-10.2159
▁gösteriyor	-10.2161
evi	-10.2168
▁moda	-10.2173
gel	-10.2183
per	-10.2186
▁körfez	-10.2205
▁ilköğretim	-10.2207
▁bilimsel	-10.2209
hi	-10.2223
▁ihtimali	-10.2237
▁aksi	-10.2242
▁şah	-10.2242
▁bile	-10.2242
▁tasarruf	-10.2252
▁karakol	-10.2253
▁kayıp	-10.2254
▁ö	-10.2256
▁nur	-10.2258
nda	-10.2268
▁edeceğiz	-10.2269
▁kaynağ	-10.2274
▁sergile	-10.2275
▁adeta	-10.2289
▁ekmek	-10.2289
▁sürdürdü	-10.2297
▁olacaktır	-10.2298
▁bisiklet	-10.2299
▁kitle	-10.2302
▁skor	-10.2324
▁laf	-10.2332
▁kıl	-10.234
aş	-10.2342
▁hücre	-10.2346
▁cümle	-10.2346
▁vi	-10.2351
▁imzala	-10.2372
ılır	-10.2377
▁tuz	-10.2378
▁ağz	-10.2385
▁çete	-10.2386
met	-10.2392
▁hollanda	-10.2392
▁gümüş	-10.2394
▁rüzgar	-10.2394
ina	-10.2395
▁kasaba	-10.2395
▁erdem	-10.2397
▁çelik	-10.2403
▁ok	-10.241
em	-10.2423
w	-10.2431
▁zeki	-10.2443
▁ingilizce	-10.2466
9	-10.2473
▁kalbi	-10.248
▁koalisyon	-10.249
▁meşale	-10.249
ılıçdaroğ	-10.249
▁memnuniyet	-10.249
ço	-10.2503
ia	-10.2507
din	-10.2513
▁önder	-10.2524
▁olmuştur	-10.2526
▁enstitü	-10.2535
▁insani	-10.2537
▁salih	-10.2541
udi	-10.2542
mayın	-10.2548
ok	-10.2557
çe	-10.2561
▁bebe	-10.2566
▁uğraş	-10.2571
bugünkü	-10.2583
ecektir	-10.2585
▁dayanışma	-10.2587
▁nükleer	-10.2587
ılma	-10.2589
▁çıkıyor	-10.2599
▁gelecek	-10.2629
▁yönetmen	-10.2633
▁müsteşar	-10.2636
▁ruhsat	-10.2636
▁serdar	-10.2636
▁icra	-10.2637
kent	-10.2644
▁adı	-10.2655
▁işyeri	-10.2663
▁km	-10.2672
▁olması	-10.2674
▁memnun	-10.2682
▁balıkesir	-10.2685
▁gerçeğ	-10.2685
▁hazine	-10.2685
▁kocaoğ	-10.2687
ndı	-10.2687
ru	-10.2701
▁zam	-10.2713
ron	-10.2714
▁tanrı	-10.2721
▁peki	-10.2725
▁ilke	-10.2735
▁elektronik	-10.2745
▁çalışıyoruz	-10.2752
▁kalem	-10.2755
th	-10.2755
▁mesafe	-10.2783
▁memleket	-10.2792
▁yapış	-10.2792
50	-10.2797
▁vurgu	-10.2797
▁bulun	-10.2797
luk	-10.2829
▁avusturya	-10.2833
▁hamile	-10.2835
▁yapan	-10.284
cak	-10.2846
▁toplumsal	-10.2854
ey	-10.2856
iyoruz	-10.2877
▁48	-10.2883
▁ziraat	-10.2884
▁kaybol	-10.2888
▁afet	-10.2899
▁gümrük	-10.29
dım	-10.2904
▁niye	-10.2916
▁uyu	-10.2932
▁ısrar	-10.2933
▁foto	-10.2935
▁nefes	-10.294
▁yaklaşım	-10.2944
▁hedefle	-10.295
▁kalkınma	-10.2952
gan	-10.2955
▁hisset	-10.297
▁ettiler	-10.2974
gül	-10.2977
▁seans	-10.299
ren	-10.2995
▁gelen	-10.2997
▁abi	-10.2997
▁özgü	-10.2998
▁sokağ	-10.2998
▁kök	-10.3001
ilme	-10.3005
▁halil	-10.3012
▁çam	-10.3014
yu	-10.3027
▁durumda	-10.303
tür	-10.3034
▁siirt	-10.3035
▁havuz	-10.3037
▁ofis	-10.3041
▁hoş	-10.3045
▁alkol	-10.3049
▁A	-10.305
▁55	-10.3064
▁böl	-10.307
ry	-10.3075
▁avantaj	-10.3086
▁katliam	-10.3086
▁duyurdu	-10.3086
I	-10.3087
lak	-10.3091
▁do	-10.3093
▁tamamlanma	-10.3093
diği	-10.3106
▁buz	-10.3116
▁kişisel	-10.3118
▁250	-10.3122
gen	-10.3134
▁sivas	-10.3136
▁üzüntü	-10.3137
▁şebeke	-10.3137
▁nöbet	-10.3137
▁bekliyoruz	-10.3138
ıyorlar	-10.3163
the	-10.317
üm	-10.3171
▁yakış	-10.3174
▁or	-10.3176
▁hindistan	-10.3189
▁vücud	-10.3189
▁idari	-10.3189
ıyorum	-10.3193
▁şener	-10.3195
say	-10.3217
tr	-10.3219
▁ermeni	-10.3229
.5	-10.3236
▁2001	-10.324
▁ukrayna	-10.324
▁egemen	-10.324
▁arz	-10.3241
yon	-10.3245
▁arasında	-10.3247
▁yım	-10.325
▁kavram	-10.3251
▁isyan	-10.3273
up	-10.3276
▁kızıl	-10.3282
▁isteyen	-10.3285
▁kocaeli	-10.3292
▁minibüs	-10.3292
▁avustralya	-10.3292
▁bıraktı	-10.3293
▁olanak	-10.3296
bay	-10.3297
▁0	-10.33
▁iddiası	-10.3303
▁bırakıldı	-10.3305
dem	-10.332
▁klasik	-10.3328
▁edirne	-10.3333
lıyor	-10.3334
▁yavuz	-10.3345
▁sandalye	-10.3345
mu	-10.3346
▁demirtaş	-10.3347
dk	-10.3352
▁toz	-10.3357
▁duman	-10.336
▁esad	-10.3374
▁mez	-10.3377
▁gönderildi	-10.3378
▁dilekçe	-10.3396
▁göçmen	-10.3398
▁kaçakçı	-10.3398
▁geçirildi	-10.3398
▁karabağ	-10.3398
iyorum	-10.3399
▁rastla	-10.3401
▁sunuz	-10.3403
▁fe	-10.3404
▁kurt	-10.3409
▁bahar	-10.3421
▁kırık	-10.3425
▁doğan	-10.3426
25	-10.3431
▁ata	-10.3433
lerinin	-10.344
▁sponsor	-10.345
▁tekstil	-10.345
▁tuvalet	-10.3451
▁rakib	-10.346
▁benzeri	-10.3468
▁öncü	-10.3474
pi	-10.3476
▁çatış	-10.3477
▁karşıt	-10.3484
▁olağanüstü	-10.3504
▁alev	-10.3504
▁önce	-10.3514
ıldı	-10.3516
▁K	-10.3517
▁mimar	-10.3543
▁moskova	-10.3557
▁tavsiye	-10.3557
▁beden	-10.3561
▁gar	-10.3561
▁restoran	-10.3562
lerinde	-10.3566
40	-10.3567
▁düzel	-10.3581
15	-10.3585
▁protokol	-10.3588
▁adresi	-10.359
▁doç	-10.3596
▁edit	-10.36
▁ettik	-10.361
▁eleman	-10.3611
leş	-10.3611
larının	-10.3614
▁sığın	-10.3621
▁sırt	-10.3623
▁erkan	-10.3626
▁tezkere	-10.3626
▁ederken	-10.3629
▁ge	-10.3652
egedesons	-10.3665
▁kopyala	-10.3665
▁mahmut	-10.3665
▁özkan	-10.3667
yla	-10.3671
▁götürüldü	-10.3672
▁öngör	-10.3673
.(	-10.3675
▁prim	-10.3688
fer	-10.3689
▁misafir	-10.3719
▁radikal	-10.3719
▁sürdürüyor	-10.372
▁har	-10.3722
▁37	-10.3734
▁atan	-10.3734
▁kapsa	-10.3738
▁duyarlı	-10.3746
▁sil	-10.3752
▁koydu	-10.3753
bat	-10.3754
mus	-10.3758
▁sta	-10.3758
▁uyan	-10.3759
ali	-10.3765
▁saldırgan	-10.3774
▁robert	-10.3774
▁dağıl	-10.3778
sini	-10.3786
izm	-10.3788
ilir	-10.3795
▁1.5	-10.3805
▁ağla	-10.381
yeni	-10.3811
id	-10.3815
▁rakibi	-10.3819
bet	-10.3819
▁lim	-10.382
sh	-10.3823
▁po	-10.3823
▁koku	-10.3827
▁pankart	-10.3829
ının	-10.3833
▁köken	-10.3834
▁temizle	-10.3836
sidir	-10.3849
ji	-10.3853
60	-10.3861
▁oğuz	-10.3863
▁hacmi	-10.3868
▁alkış	-10.3876
▁hakaret	-10.3884
▁yargıtay	-10.3885
▁cevab	-10.3885
▁lisans	-10.3885
▁dokuz	-10.3888
▁ho	-10.3901
▁kimyasal	-10.3902
▁moral	-10.3904
▁laik	-10.3914
ildi	-10.3914
▁suriyeli	-10.392
▁eden	-10.3931
ılmıştır	-10.3933
▁yaptık	-10.3937
▁disiplin	-10.394
▁plaj	-10.394
▁milliyet	-10.3947
▁cuk	-10.3948
▁siniz	-10.3967
▁derin	-10.3971
▁emir	-10.3978
▁sinir	-10.3988
▁japon	-10.3991
▁yetenek	-10.3995
▁harekat	-10.3996
70	-10.3997
▁verilecek	-10.4007
▁işadam	-10.4009
▁futbolcu	-10.4011
▁yapılıyor	-10.4013
abilme	-10.4032
▁aktif	-10.4038
▁bağır	-10.4044
▁seyahat	-10.4052
▁durak	-10.4073
las	-10.4078
▁açığ	-10.409
▁per	-10.409
acağım	-10.409
abilirsiniz	-10.4092
▁aktardı	-10.4099
paşa	-10.4101
larını	-10.4104
▁metro	-10.4107
▁menajer	-10.4108
▁george	-10.4111
▁fa	-10.4111
kı	-10.4112
▁başlayacak	-10.4117
▁mor	-10.4127
les	-10.4133
▁65	-10.4133
▁usta	-10.4135
▁polat	-10.4138
ğı	-10.4147
dağ	-10.4158
abilecek	-10.4164
▁analiz	-10.4165
▁önerge	-10.4167
lendir	-10.4173
▁kanıt	-10.418
▁75	-10.4182
▁michael	-10.4185
▁katil	-10.4194
ret	-10.4198
▁çekiyor	-10.4203
▁real	-10.4204
lanıyor	-10.4212
▁inanıyorum	-10.4224
▁indirim	-10.4225
▁iade	-10.423
▁golü	-10.423
▁ger	-10.4232
land	-10.4232
▁kutlama	-10.4234
▁kaliteli	-10.424
meli	-10.426
▁altay	-10.4262
aç	-10.4265
yor	-10.4267
▁go	-10.4273
ris	-10.4274
▁derken	-10.4275
▁potansiyel	-10.4279
▁madrid	-10.428
▁galip	-10.428
kaya	-10.4284
▁torun	-10.4285
türki	-10.4287
▁ayhan	-10.4301
▁camia	-10.4317
▁bildiri	-10.4321
▁arı	-10.4326
om	-10.4327
▁ulus	-10.4334
yol	-10.4334
▁motosiklet	-10.4337
▁harita	-10.4337
▁mesela	-10.4338
▁direniş	-10.4341
çeyrek	-10.4349
▁ispanyol	-10.4352
dığı	-10.4361
ünüz	-10.437
ap	-10.4376
▁gerekçe	-10.4379
▁kasa	-10.4382
▁fikr	-10.4395
▁bağdat	-10.4395
▁otopsi	-10.4395
▁arınç	-10.4395
▁hekim	-10.4396
▁koltuğ	-10.4396
▁ortadoğu	-10.4398
▁sıkış	-10.4399
▁kir	-10.44
▁kadir	-10.4401
mon	-10.4405
net	-10.4412
sü	-10.4413
▁suy	-10.4416
oloji	-10.4425
▁bekliyor	-10.4432
▁sap	-10.4435
▁izledi	-10.4436
▁tutuklandı	-10.4436
▁sus	-10.4444
▁fatura	-10.4454
▁müsabaka	-10.4454
▁penaltı	-10.4454
▁fidan	-10.4455
ou	-10.4457
▁yas	-10.4458
30	-10.4465
▁ro	-10.4466
-1	-10.4466
▁litre	-10.447
▁özgecan	-10.4476
▁coşku	-10.4479
▁nihat	-10.449
▁ze	-10.4492
▁erdi	-10.4495
▁diz	-10.4504
▁zira	-10.4511
▁akraba	-10.4513
▁hikmet	-10.4513
▁istatistik	-10.4513
▁gayret	-10.4513
ış	-10.452
if	-10.4521
ly	-10.4523
▁rüya	-10.453
▁ölen	-10.4531
▁kum	-10.4555
nca	-10.4558
▁özen	-10.4559
▁olmuş	-10.4567
▁geçerli	-10.4574
▁ağa	-10.4576
▁olmuştu	-10.4577
▁forum	-10.4577
▁erdal	-10.4579
▁deneyim	-10.4585
▁gazze	-10.4585
▁gür	-10.459
▁güçlendir	-10.4609
▁değerlendiril	-10.461
▁sorgu	-10.4614
▁ertuğrul	-10.4631
▁rıza	-10.4632
▁ağabey	-10.4632
.9	-10.4632
▁aşık	-10.4644
▁anlat	-10.4653
lenme	-10.4655
▁halep	-10.4658
▁diren	-10.4665
▁sp	-10.4675
ste	-10.4682
▁zeytin	-10.4691
▁mağlup	-10.4691
sak	-10.4693
▁dükkan	-10.4693
▁ala	-10.4695
▁seks	-10.4696
▁vs	-10.4711
▁resmi	-10.4739
üz	-10.4751
▁felaket	-10.4752
▁kalaba	-10.4752
▁ithalat	-10.4761
▁görüldü	-10.4762
ho	-10.4766
elim	-10.4768
▁nesil	-10.4769
▁acaba	-10.4774
lerdir	-10.4786
▁42	-10.4794
▁morg	-10.4797
▁gu	-10.48
▁and	-10.4806
▁kütüphane	-10.4812
▁voleybol	-10.4812
▁yenilgi	-10.4812
▁star	-10.4817
▁evren	-10.4822
▁oynadı	-10.4824
▁yakalandı	-10.484
uk	-10.4854
▁röportaj	-10.4867
udur	-10.4872
▁keyif	-10.4873
▁david	-10.4873
▁maz	-10.4885
ücü	-10.4892
▁belirsiz	-10.4895
▁600	-10.4898
▁düzenledi	-10.4902
şu	-10.4905
▁jo	-10.4912
▁yitirdi	-10.4914
.30	-10.4932
▁taliban	-10.4935
▁mardin	-10.4935
▁faruk	-10.4935
▁psikolojik	-10.4943
▁yasağ	-10.4946
▁oyuncu	-10.4947
11	-10.4949
tık	-10.4974
ff	-10.4974
05	-10.4984
leşme	-10.499
▁sakarya	-10.4995
▁şair	-10.4998
▁sevinç	-10.4999
▁kesinti	-10.5001
▁turan	-10.5005
diğini	-10.5019
▁beyan	-10.5022
▁çarşı	-10.5024
maktır	-10.5025
ez	-10.5029
▁hayati	-10.5034
▁ilet	-10.5039
dal	-10.5045
▁düzenli	-10.5046
▁diyalog	-10.5058
▁yöre	-10.5058
▁dördün	-10.5058
▁çankaya	-10.5058
▁şarap	-10.5058
▁torba	-10.5061
▁anıt	-10.5062
unda	-10.5065
imi	-10.5065
▁şef	-10.5066
▁yaygın	-10.5081
don	-10.5081
▁ayşe	-10.5083
▁göztepe	-10.5087
▁bitki	-10.509
kara	-10.5096
▁elbise	-10.5121
▁mevsim	-10.5121
▁çanta	-10.5122
▁orgeneral	-10.5123
▁sakla	-10.5123
sine	-10.513
eş	-10.5146
sey	-10.5149
emedi	-10.5151
▁tad	-10.5151
▁izn	-10.5158
iliyor	-10.517
▁pe	-10.5174
gı	-10.5175
▁menderes	-10.5184
ikna	-10.5186
▁korunma	-10.5187
▁uzlaş	-10.5188
▁erol	-10.5189
▁times	-10.519
▁kanat	-10.5198
▁bakanlığı	-10.52
ği	-10.5207
▁kontrolün	-10.5212
-2	-10.5213
▁gidiyor	-10.5228
art	-10.5229
▁hissed	-10.5232
▁üzere	-10.5238
▁play	-10.5244
▁şimşek	-10.5247
▁alışkan	-10.5248
▁uyku	-10.5248
▁elbette	-10.5248
▁minik	-10.525
▁dsp	-10.525
▁arena	-10.5251
▁tem	-10.5252
zat	-10.5255
▁salı	-10.5256
▁apartman	-10.5256
▁işgal	-10.5258
▁120	-10.526
tim	-10.5273
yucu	-10.5278
▁tük	-10.5284
▁efendi	-10.5293
▁baro	-10.5308
▁kritik	-10.5311
lig	-10.5312
▁özcan	-10.5314
▁irade	-10.5315
liler	-10.5315
▁başlandı	-10.5318
▁saddam	-10.5323
▁resmen	-10.5325
▁başardı	-10.5335
▁süz	-10.5342
▁nev	-10.5344
▁gönderdi	-10.5347
deki	-10.5363
▁işadamı	-10.5365
▁abla	-10.5369
erken	-10.5371
▁başlatıldı	-10.5371
▁yönetimi	-10.5374
▁mülteci	-10.5375
▁aleyh	-10.5375
▁bulgaristan	-10.5375
▁1-0	-10.5375
▁stadyum	-10.5375
▁vize	-10.5376
▁yarar	-10.5376
▁panel	-10.5379
▁gündüz	-10.5379
▁yapacağız	-10.5381
maruz	-10.5383
yen	-10.5385
▁çare	-10.5389
▁hükm	-10.5393
ıyordu	-10.5404
▁genişle	-10.5408
eysel	-10.5416
▁dikkatli	-10.5421
▁sey	-10.5422
▁eğilim	-10.5439
▁netice	-10.5439
80	-10.5442
gün	-10.5444
▁akpnin	-10.5447
ans	-10.5449
▁takımı	-10.546
iyorlar	-10.5462
öz	-10.547
ımız	-10.547
▁bulut	-10.5475
ıntı	-10.5478
▁kararı	-10.5479
▁ga	-10.5481
abiliyor	-10.5486
▁tanım	-10.5495
ja	-10.5497
▁eren	-10.5498
▁form	-10.5503
▁verir	-10.5503
▁vücut	-10.5504
▁opera	-10.5505
▁amatör	-10.5508
lerine	-10.5522
▁yoktu	-10.5526
▁chpn	-10.5535
▁fizik	-10.5555
▁Web	-10.5566
▁ihraç	-10.557
▁şeref	-10.557
▁yapıyoruz	-10.5571
▁hatay	-10.5572
▁brezilya	-10.5581
ang	-10.5586
▁nehr	-10.5587
▁birşey	-10.5592
▁ihlal	-10.5592
▁kartal	-10.5595
▁güvence	-10.5597
ut	-10.56
kırmızı	-10.5609
▁rock	-10.5614
sk	-10.5617
▁nato	-10.5623
▁özer	-10.5629
▁kulak	-10.563
▁isveç	-10.5631
▁38	-10.5631
▁beyazlı	-10.5633
ban	-10.5635
▁tahsis	-10.5635
▁şırnak	-10.5635
▁iftar	-10.5636
▁patron	-10.5636
▁mikro	-10.5637
▁isviçre	-10.5645
▁devir	-10.565
▁S	-10.5658
▁çizdi	-10.5675
▁yaşadı	-10.5675
▁metal	-10.5676
▁dedim	-10.5679
uyor	-10.569
▁kaybı	-10.5692
ebilme	-10.5694
▁itiraf	-10.5702
▁yavru	-10.5702
▁oktay	-10.5702
▁kağıt	-10.5703
▁popüler	-10.5703
▁grev	-10.5707
▁aldık	-10.5713
▁5.	-10.5721
▁aksu	-10.5743
tak	-10.5763
▁konum	-10.5765
▁özlem	-10.5766
▁bahsed	-10.5768
▁takvim	-10.5768
▁fırat	-10.5769
▁market	-10.5769
▁parmak	-10.5769
▁fen	-10.577
▁yahudi	-10.5772
gü	-10.5776
▁edilecek	-10.5779
▁giyim	-10.5787
▁yü	-10.5789
▁geçir	-10.5793
▁kurulu	-10.5795
▁suçlama	-10.5796
▁ufak	-10.58
▁mobil	-10.5815
▁dilek	-10.5816
▁kapat	-10.5818
▁yanıtla	-10.583
ku	-10.5833
▁arjantin	-10.5835
▁bağımlı	-10.5835
▁yoksul	-10.5835
▁etkisi	-10.5838
▁tavır	-10.584
▁antik	-10.5841
res	-10.5843
af	-10.5846
▁sema	-10.5846
ks	-10.5846
▁maske	-10.5848
nu	-10.5852
▁oldum	-10.5854
tor	-10.5858
▁alet	-10.5858
▁arttı	-10.5859
▁kutsal	-10.5863
▁stat	-10.5868
ski	-10.588
▁aracı	-10.5881
▁twitt	-10.5882
izmir	-10.5887
amaz	-10.5893
▁beste	-10.5893
şar	-10.5901
▁sürüldü	-10.5903
▁marmara	-10.5903
▁isabet	-10.5903
▁fatma	-10.5903
▁güneydoğu	-10.5903
▁pınar	-10.5906
▁yuva	-10.591
ağ	-10.5913
▁taşıyor	-10.5916
▁51	-10.5918
▁istemi	-10.5922
▁çadır	-10.5923
▁deney	-10.5929
▁saf	-10.5931
▁öldürülme	-10.5932
▁ladin	-10.5941
▁efes	-10.5961
▁ser	-10.5963
▁adlandırıl	-10.5967
leniyor	-10.5969
▁malatya	-10.597
▁mektub	-10.5971
▁layık	-10.5971
▁gecik	-10.5971
▁derbi	-10.5972
▁yedek	-10.5972
▁kızılay	-10.5973
▁diploma	-10.5977
▁haberde	-10.5979
▁yurd	-10.5981
▁toto	-10.5983
▁belirledi	-10.5994
▁kule	-10.5999
▁söylediler	-10.6001
▁ünal	-10.601
madım	-10.6018
▁beğeni	-10.602
▁ortaokul	-10.6036
▁jüri	-10.604
▁turgut	-10.604
▁bekir	-10.6041
▁bot	-10.6042
malıyız	-10.6043
▁arafat	-10.6046
yıp	-10.6051
▁şiş	-10.606
▁bölgesel	-10.6072
▁olurken	-10.608
gin	-10.6081
ince	-10.6084
?”	-10.6084
▁mit	-10.609
▁üstün	-10.6093
▁ittifak	-10.6108
▁köpeğ	-10.6108
▁gayet	-10.6109
▁kablo	-10.6111
▁vadi	-10.6113
lat	-10.6113
▁va	-10.6118
bura	-10.6119
▁naz	-10.6121
▁burak	-10.6132
▁olmalı	-10.6138
▁yürür	-10.6144
▁pro	-10.616
mil	-10.6161
▁imar	-10.6161
mem	-10.6166
mur	-10.6169
▁(19	-10.6171
laştır	-10.6174
▁çök	-10.6176
▁vakıf	-10.6178
▁muayene	-10.6178
▁vicdan	-10.6178
▁militan	-10.6178
▁çevik	-10.6178
▁ışığ	-10.6178
▁taciz	-10.6178
▁koltuk	-10.6178
▁putin	-10.6179
▁1000	-10.6179
▁kaygı	-10.6179
▁boya	-10.6185
▁ipek	-10.6193
35	-10.6197
tal	-10.62
malıdır	-10.6203
▁urla	-10.621
ılmış	-10.6221
op	-10.6223
▁boşal	-10.6225
▁seçildi	-10.6234
▁çü	-10.6242
▁vitamin	-10.6248
▁ah	-10.6249
▁bdp	-10.6249
▁karşılan	-10.6252
▁işlev	-10.6254
bar	-10.626
12	-10.6261
▁facebook	-10.6264
▁kahve	-10.6264
▁sıfır	-10.6265
dar	-10.6266
▁ercan	-10.6267
ız	-10.6282
tay	-10.6286
geç	-10.6286
▁52	-10.629
▁11.	-10.6303
▁gözyaş	-10.6304
ılıyor	-10.6304
kal	-10.6305
▁zincir	-10.6305
üs	-10.6306
dünya	-10.6312
16	-10.6315
nı	-10.6317
dig	-10.6317
▁cennet	-10.6318
▁kurşun	-10.6318
▁mesut	-10.6319
▁1998	-10.6319
▁çiğli	-10.6322
▁doğalgaz	-10.6334
▁içinde	-10.6336
▁zeka	-10.6347
lanır	-10.6359
arken	-10.6366
▁tank	-10.6369
▁yargıla	-10.6375
nız	-10.6383
▁44	-10.6384
▁katrilyon	-10.6389
▁mersi	-10.639
▁çekildi	-10.6393
▁hatırlattı	-10.6394
▁birara	-10.6395
▁golcü	-10.6396
▁diliyorum	-10.6398
▁tara	-10.6402
▁muhteşem	-10.6405
▁gerile	-10.6413
rak	-10.6418
▁çakır	-10.6433
▁bur	-10.6434
▁kontrolü	-10.6436
▁celal	-10.6441
pınar	-10.6449
yum	-10.645
▁post	-10.6452
▁ku	-10.6453
gar	-10.6457
▁pamuk	-10.6461
mı	-10.6469
▁ceng	-10.647
ie	-10.647
▁gerçekleştirdi	-10.6477
har	-10.648
▁edilir	-10.6485
▁tırman	-10.6489
▁algı	-10.649
▁kaldır	-10.6495
▁49	-10.65
▁pi	-10.65
lıdır	-10.6518
mayacak	-10.6523
tra	-10.6524
imha	-10.6524
▁aktör	-10.6525
▁mevki	-10.6527
emez	-10.6531
▁olağan	-10.6531
amıyor	-10.6531
▁Kılıçdaroğlu	-10.6533
▁şaşkın	-10.6533
▁seminer	-10.6533
▁koordinatör	-10.6533
▁nikah	-10.6533
▁tokat	-10.6533
▁kısım	-10.6533
▁bulunmaktadır	-10.6534
▁sivasspor	-10.6534
▁2016	-10.6535
▁sordu	-10.6538
▁üste	-10.6541
▁toplantıda	-10.6545
▁aşı	-10.6553
90	-10.6567
▁günü	-10.6569
og	-10.6569
rek	-10.6569
vat	-10.658
oy	-10.6592
▁katılımı	-10.6594
▁pis	-10.6601
▁degil	-10.6603
▁seyred	-10.6606
▁rolü	-10.6608
▁ilkokul	-10.6608
▁kader	-10.6612
▁çıkacak	-10.6615
▁toplam	-10.6626
▁birey	-10.6632
▁vaka	-10.6633
ner	-10.6636
▁katılan	-10.6636
▁tarif	-10.6643
sp	-10.6648
▁kare	-10.6664
▁türkü	-10.6666
▁karı	-10.6667
▁yiğit	-10.6674
▁virüs	-10.6678
▁tünel	-10.6679
yar	-10.668
▁avro	-10.668
▁ceset	-10.6686
şi	-10.6687
▁perde	-10.6688
bank	-10.6689
ant	-10.6692
▁ila	-10.6697
▁hatt	-10.6708
pp	-10.6709
▁46	-10.6714
▁maalesef	-10.6716
sta	-10.6721
▁general	-10.6729
soy	-10.6735
zar	-10.6737
muştu	-10.6741
▁idam	-10.6743
▁lacivert	-10.6748
▁teşhis	-10.6752
▁volkan	-10.6752
▁ağız	-10.6752
▁pekdaş	-10.6753
▁birik	-10.6755
▁br	-10.6762
▁bilinç	-10.6762
▁belirlenme	-10.6765
▁tabur	-10.6767
):	-10.6767
▁uzaklaş	-10.677
ral	-10.6771
▁yücel	-10.6775
▁gor	-10.6777
▁katıl	-10.6777
yüz	-10.678
ray	-10.6781
▁salla	-10.6783
▁delil	-10.6787
▁ru	-10.6794
▁alırken	-10.6796
▁uygulanma	-10.6798
▁kaçtı	-10.6801
kon	-10.6801
▁okur	-10.6803
▁ot	-10.681
▁cemil	-10.6814
▁imzalan	-10.682
▁ekipler	-10.6824
▁benzin	-10.6829
▁hele	-10.6837
dere	-10.6841
▁zayıf	-10.6849
▁112	-10.6856
▁ederk	-10.6859
yet	-10.6863
▁baz	-10.6866
inda	-10.6874
tin	-10.6876
▁yangın	-10.6883
▁alır	-10.6883
▁thy	-10.6885
▁statü	-10.6885
▁akademi	-10.6887
▁almıştı	-10.6892
▁atölye	-10.69
▁refah	-10.69
▁harika	-10.6901
▁gasp	-10.6901
▁kemer	-10.6901
müş	-10.6906
▁nuri	-10.6916
nce	-10.6923
▁subay	-10.6927
75	-10.6927
▁boru	-10.6934
yk	-10.6941
00	-10.6945
▁sağlıyor	-10.6949
▁güler	-10.6959
▁ithal	-10.6965
▁efe	-10.6966
yer	-10.6966
▁mo	-10.6974
▁zevk	-10.6975
▁suçla	-10.6976
▁idman	-10.6976
▁marş	-10.6976
▁değiştir	-10.6981
beyaz	-10.6986
▁yiz	-10.6989
▁ıraklı	-10.6996
▁desteği	-10.6998
▁1999	-10.6998
▁ekibi	-10.7011
▁43	-10.7011
▁çığ	-10.7012
ef	-10.7012
dığını	-10.7014
▁şişe	-10.7015
▁kına	-10.7019
▁rize	-10.7021
▁grubu	-10.7027
baba	-10.7035
▁clinton	-10.7048
▁esna	-10.705
▁sipariş	-10.7051
▁bayrağı	-10.7051
bek	-10.7052
▁başkanvekil	-10.7053
yıl	-10.7054
▁mükemmel	-10.7055
▁kapsamında	-10.7058
▁bizzat	-10.7061
mam	-10.7073
rt	-10.7075
▁hatırlat	-10.7077
▁ailesi	-10.708
▁lo	-10.7098
▁eri	-10.7111
▁ımf	-10.7113
ıyla	-10.7113
rı	-10.7118
dy	-10.712
▁acar	-10.7125
▁ahlak	-10.7126
▁başlangıç	-10.7128
▁kaide	-10.7128
▁mekanizma	-10.7128
▁yunus	-10.7128
▁ecevit	-10.7128
▁tarla	-10.7128
▁bilinc	-10.7128
▁hdp	-10.7128
sinin	-10.7132
▁parlak	-10.7132
top	-10.7136
▁ytlye	-10.7142
▁alaka	-10.7143
▁başkanı	-10.7143
▁abdye	-10.7168
▁değilim	-10.7169
▁coşkun	-10.7171
▁hacı	-10.7174
▁800	-10.7177
▁ap	-10.7177
liyor	-10.7181
lidir	-10.7184
kat	-10.7192
▁olduk	-10.7195
mü	-10.7201
▁ömür	-10.7204
▁dyp	-10.7205
.*	-10.721
laştırma	-10.721
▁sez	-10.7212
tt	-10.7224
▁geçen	-10.7235
mp	-10.7235
▁beslenme	-10.725
▁ber	-10.7253
▁çarptı	-10.7268
▁gü	-10.7272
gaz	-10.7272
.4	-10.7278
▁davutoğ	-10.7281
▁ribaunt	-10.7282
▁masraf	-10.7282
▁hayvancılık	-10.7282
▁kusur	-10.7283
▁forvet	-10.7283
▁burn	-10.7292
▁trt	-10.7295
▁par	-10.7295
rf	-10.7296
sim	-10.7296
ard	-10.7297
▁satı	-10.7297
gs	-10.7301
▁hukuki	-10.7305
▁finale	-10.7306
▁belirli	-10.7306
▁kaçın	-10.7308
▁anı	-10.731
▁mesai	-10.7313
▁camii	-10.7317
▁görüyor	-10.7322
▁festival	-10.7323
▁700	-10.7328
▁yarattı	-10.733
▁kazı	-10.7332
yim	-10.7335
▁hazırlanıyor	-10.7338
▁63	-10.7341
▁es	-10.7348
medim	-10.7355
▁sağladı	-10.7359
▁göğüs	-10.736
▁pencere	-10.736
▁nefret	-10.736
▁tebrik	-10.736
▁somut	-10.736
▁berlin	-10.7361
▁şov	-10.7361
▁sekiz	-10.7361
▁yaşıyor	-10.7362
▁sarıgül	-10.7362
▁akpınar	-10.7365
▁mum	-10.7369
▁zeynep	-10.7373
▁fener	-10.738
▁obama	-10.7381
▁sami	-10.7383
iyordu	-10.7386
meyen	-10.7402
▁ettim	-10.7403
▁orkestra	-10.7405
üyor	-10.741
▁39	-10.7411
ac	-10.7417
▁vurdu	-10.7419
digi	-10.7424
▁af	-10.743
26	-10.7436
▁değildi	-10.7437
irken	-10.7438
▁müdürlüğü	-10.7445
hal	-10.7445
▁inönü	-10.7455
▁google	-10.746
▁pahalı	-10.7461
gerçekleştirildi	-10.7467
ib	-10.7481
▁olmadığını	-10.7484
hat	-10.7494
logram	-10.7498
▁yürek	-10.7499
bur	-10.75
siniz	-10.7503
▁saati	-10.751
,5	-10.7512
▁azerbaycan	-10.7518
▁skandal	-10.7518
▁donanım	-10.7519
▁geçiyor	-10.7519
▁ihmal	-10.752
may	-10.7521
▁istendi	-10.7522
▁kömür	-10.7534
▁ssk	-10.7534
▁yandan	-10.7538
▁altın	-10.7538
▁ırk	-10.7539
▁besle	-10.7542
▁inanç	-10.7544
rim	-10.7545
▁belirti	-10.7546
▁kulübe	-10.7554
▁başlıyor	-10.7558
▁sur	-10.756
▁divan	-10.7561
▁yapar	-10.7563
meyin	-10.7592
AR	-10.7595
▁öykü	-10.7598
▁köşk	-10.7598
▁zonguldak	-10.7598
▁arabistan	-10.7598
▁işkence	-10.7598
▁polonya	-10.7598
▁karanlık	-10.7598
▁siyasal	-10.7598
▁foça	-10.7599
▁alkollü	-10.7599
▁meğ	-10.76
▁düşünüyor	-10.7605
▁katılacak	-10.7609
▁romanya	-10.7611
▁çak	-10.7616
▁asist	-10.7616
▁kendisi	-10.7626
▁st	-10.7628
▁şan	-10.7658
▁geleni	-10.7663
▁41	-10.767
▁lübnan	-10.7679
▁fırtına	-10.7679
▁evlat	-10.7688
▁adil	-10.77
▁ona	-10.7707
▁izmirli	-10.771
▁senet	-10.771
▁kın	-10.7712
▁far	-10.7713
sını	-10.7725
▁hani	-10.774
mb	-10.7741
▁bulunan	-10.7746
▁boşan	-10.775
19	-10.7758
▁anahtar	-10.776
▁hakkari	-10.776
▁vakit	-10.776
▁damga	-10.776
▁uygur	-10.7761
▁garip	-10.7761
▁bini	-10.7767
▁villa	-10.7769
▁bekl	-10.7783
▁araştırma	-10.7788
▁buca	-10.7789
▁olacağız	-10.7793
▁albay	-10.7799
▁dayalı	-10.7806
▁tüp	-10.7807
▁fi	-10.7811
-19	-10.7812
▁yanıtladı	-10.7813
▁arkadaşları	-10.7816
▁tanımla	-10.7818
tma	-10.7819
▁taksit	-10.7825
▁iskele	-10.7836
▁hülya	-10.7842
▁kriter	-10.7842
▁lezzet	-10.7842
▁marmaris	-10.7842
▁öfke	-10.7842
▁rehber	-10.7842
▁entry	-10.7843
▁sene	-10.7843
▁bek	-10.7844
▁dürüst	-10.7845
▁sabit	-10.7846
▁türban	-10.7846
27	-10.7851
▁profesör	-10.7856
▁simge	-10.7863
▁rüşvet	-10.7875
▁D	-10.7885
▁fu	-10.79
▁görüştü	-10.7902
ph	-10.7909
▁2-1	-10.7915
ilirken	-10.7915
31	-10.7916
şehir	-10.7919
▁lüks	-10.7924
▁ürdün	-10.7924
▁koordinasyon	-10.7925
▁kursiyer	-10.7925
▁alsancak	-10.7925
▁yalova	-10.7925
▁2.5	-10.7925
▁kolej	-10.7925
▁bordo	-10.7927
▁çukur	-10.7927
irk	-10.7929
▁kenan	-10.7929
▁ziya	-10.7934
▁çıplak	-10.7946
lardır	-10.7947
▁cemal	-10.7949
▁bulunur	-10.7962
▁yaprak	-10.7964
▁geçit	-10.7969
amadı	-10.797
▁masum	-10.797
larına	-10.7971
ian	-10.7986
▁alış	-10.7987
ılırken	-10.7994
var	-10.7995
suz	-10.8006
▁asansör	-10.8008
▁endüstri	-10.8008
▁hollywood	-10.8008
▁kazakistan	-10.8008
▁yararlı	-10.8009
▁iklim	-10.8009
▁ederim	-10.8019
▁B	-10.802
▁balkan	-10.8025
22	-10.803
sat	-10.8038
▁bok	-10.8043
▁uşak	-10.8045
▁cins	-10.8046
▁karşılaştı	-10.8049
berg	-10.8056
▁sundu	-10.8056
▁paralel	-10.806
▁utan	-10.8069
sam	-10.8075
-15	-10.8083
▁karayol	-10.809
▁verdik	-10.8092
▁james	-10.8092
▁küfür	-10.8092
▁kemik	-10.8092
▁kuşku	-10.8093
▁1997	-10.8093
lem	-10.8094
▁herşey	-10.8095
sıyla	-10.8103
▁anti	-10.811
▁dijital	-10.8111
eri	-10.8113
▁gösterge	-10.8116
ih	-10.8117
eli	-10.8117
▁eğlen	-10.8118
▁kong	-10.8122
▁kırmızılı	-10.8124
▁türkmen	-10.8132
▁ray	-10.8135
▁yardımı	-10.8135
▁kapatılma	-10.8139
şer	-10.8139
yip	-10.8139
▁blok	-10.8143
▁kars	-10.8145
▁yönel	-10.8146
▁sergilen	-10.8147
che	-10.8162
ett	-10.8163
▁ceb	-10.8167
▁hücum	-10.8177
▁koleksiyon	-10.8177
ite	-10.8177
▁gerilim	-10.8178
▁düşüş	-10.8179
▁açıklamasında	-10.8179
▁esrar	-10.8179
▁öcalan	-10.8181
▁gören	-10.8184
▁abnin	-10.819
▁arif	-10.8199
▁M	-10.8213
13	-10.8218
▁yakaladı	-10.8218
▁56	-10.8224
▁terim	-10.8225
▁disk	-10.8226
▁sunu	-10.8228
ize	-10.8237
daş	-10.8238
larımız	-10.8242
insan	-10.8254
▁imalat	-10.8262
▁erzincan	-10.8262
▁kadıköy	-10.8262
▁yakıt	-10.8263
▁zabıta	-10.8263
▁keyf	-10.8263
▁abone	-10.8264
▁tarafından	-10.8264
▁iddianame	-10.8265
▁gölge	-10.8266
▁yaşanan	-10.8266
▁rahmet	-10.8266
bak	-10.8268
▁gözlem	-10.8269
▁belgesel	-10.827
▁direk	-10.8271
masın	-10.8274
▁bulvar	-10.8276
▁oylama	-10.8277
eceğim	-10.8282
laşma	-10.8284
ft	-10.829
14	-10.8292
▁gökçek	-10.8294
lek	-10.8296
▁olup	-10.8306
“	-10.8319
▁mayın	-10.8333
▁görsel	-10.8334
▁boğul	-10.8336
sar	-10.8342
▁mark	-10.8344
▁za	-10.8347
▁seçenek	-10.8349
▁herhalde	-10.8349
▁otomatik	-10.8349
bas	-10.8349
▁avşar	-10.8349
▁manevi	-10.835
▁şenol	-10.8351
▁küme	-10.8358
▁kaçır	-10.8361
tti	-10.8361
▁uzmanlar	-10.8364
▁saatlik	-10.8376
ts	-10.8378
mal	-10.8384
abd	-10.8385
▁ağırla	-10.8386
▁özerk	-10.8396
▁kirala	-10.8396
press	-10.8408
▁cd	-10.8412
sas	-10.8412
▁şut	-10.8416
▁olmayan	-10.8425
▁rahatla	-10.8432
▁prens	-10.8432
maya	-10.8433
▁astsubay	-10.8436
▁facia	-10.8436
▁cesaret	-10.8436
▁bozuk	-10.8436
▁kab	-10.8445
▁çıkarıldı	-10.8446
▁damar	-10.845
▁paul	-10.8453
▁düzenlenme	-10.8456
org	-10.8466
▁mantık	-10.8468
fir	-10.847
lis	-10.8471
▁açıklanma	-10.8473
▁web	-10.8477
ılacak	-10.848
▁yükle	-10.8486
ram	-10.8489
24	-10.8489
ani	-10.8508
til	-10.8508
tes	-10.8521
▁hong	-10.8524
ney	-10.8526
ong	-10.8529
▁raporda	-10.853
▁alanya	-10.8531
▁akciğer	-10.8535
▁atlet	-10.8535
▁şa	-10.8538
▁nişan	-10.8541
▁akın	-10.8541
▁paylaştı	-10.8544
▁alex	-10.8545
▁tavr	-10.8546
▁57	-10.8564
▁etmektedir	-10.8565
allah	-10.8567
▁gelin	-10.8575
▁devr	-10.8581
ilk	-10.8582
istanbul	-10.8588
▁gerçekleştir	-10.8591
▁kullanılır	-10.8591
▁oluştu	-10.8594
▁selam	-10.8595
yin	-10.8601
▁yıka	-10.861
ation	-10.8611
▁barcelona	-10.8612
▁federal	-10.8612
▁muammer	-10.8612
▁kuşadası	-10.8612
▁turkcell	-10.8612
▁otoyol	-10.8612
▁biber	-10.8615
▁haluk	-10.8616
cc	-10.8618
mayan	-10.862
hu	-10.8623
▁gazetesi	-10.8623
▁kanad	-10.8625
▁yaratı	-10.8636
▁l	-10.8643
▁merkezi	-10.8644
▁halinde	-10.8644
pos	-10.8649
hai	-10.8651
daha	-10.8659
▁hayali	-10.8666
özel	-10.867
wi	-10.8674
▁bank	-10.8675
ledi	-10.8688
▁jet	-10.8699
▁güzergah	-10.8701
▁manzara	-10.8701
▁asayiş	-10.8701
▁tescil	-10.8701
▁sofra	-10.8701
▁tolga	-10.8701
▁uyruk	-10.8701
▁arıza	-10.8703
zel	-10.8705
▁kor	-10.8709
▁meşru	-10.8709
▁oto	-10.8714
makta	-10.8718
▁T	-10.8719
nik	-10.872
▁beceri	-10.8729
lerden	-10.8739
▁giderk	-10.8743
▁makale	-10.875
▁hap	-10.8755
ket	-10.8757
▁sınız	-10.876
▁değerlendirdi	-10.8762
▁günay	-10.8766
▁6.	-10.8778
ilmiştir	-10.878
▁kayb	-10.8783
▁diplomat	-10.8783
▁pop	-10.8785
▁merdiven	-10.8791
▁telekom	-10.8791
▁taşkın	-10.8791
▁los	-10.8792
▁fikret	-10.8793
▁müftü	-10.8793
▁yakalanma	-10.8794
▁antalyaspor	-10.8799
▁sch	-10.8803
▁buluştu	-10.8804
erk	-10.8814
▁islami	-10.8819
▁dediler	-10.8819
▁ortağı	-10.8819
▁microsoft	-10.8822
▁düzgün	-10.8823
▁selim	-10.8825
mey	-10.8833
ağa	-10.8837
▁vatandaşlar	-10.8841
17	-10.8843
▁gençler	-10.8845
▁1-1	-10.8854
▁diledi	-10.8855
09	-10.8856
▁öngörü	-10.8865
▁pet	-10.8875
▁95	-10.8875
lük	-10.8877
▁yozgat	-10.8882
▁işveren	-10.8882
▁zihniyet	-10.8882
▁2-0	-10.8882
▁hassasiyet	-10.8882
▁ikram	-10.8884
▁sedat	-10.8886
▁his	-10.8889
▁sırasında	-10.8898
yak	-10.8899
ster	-10.89
ent	-10.8913
ex	-10.8916
▁yetkili	-10.8928
▁işyer	-10.8947
ıyorsunuz	-10.895
▁leh	-10.8966
▁saatleri	-10.897
▁coğrafya	-10.8974
▁istiklal	-10.8974
▁sertifika	-10.8974
▁çözülme	-10.8974
▁kademe	-10.8974
▁böbrek	-10.8974
▁delege	-10.8974
▁mermi	-10.8976
yın	-10.8978
▁brezilyalı	-10.8978
▁babacan	-10.8983
bb	-10.8984
▁soma	-10.8984
ağı	-10.8987
:00	-10.8991
▁defans	-10.8995
▁abye	-10.8997
demir	-10.9
▁47	-10.9008
39	-10.901
▁özetle	-10.9013
yap	-10.9014
sek	-10.9015
meyecek	-10.9016
ici	-10.9018
▁kaş	-10.9024
▁hi	-10.9028
ep	-10.9036
▁62	-10.9036
▁unvan	-10.9042
alt	-10.9043
▁mil	-10.9046
▁sha	-10.9056
▁58	-10.906
abildi	-10.9064
▁sabır	-10.9066
▁matematik	-10.9066
▁bergama	-10.9066
▁macera	-10.9067
▁düşünüyoruz	-10.9067
▁formül	-10.9067
▁sportif	-10.9068
▁plaket	-10.9068
▁finansman	-10.9071
▁bill	-10.9074
▁şerit	-10.9074
▁ergin	-10.9076
▁kaz	-10.908
▁birliği	-10.9082
▁kör	-10.9083
sanız	-10.9084
fon	-10.9085
▁bez	-10.91
▁ja	-10.91
28	-10.9113
▁beyn	-10.9119
▁yaygınlaş	-10.9126
▁85	-10.9141
bugün	-10.9144
▁psikoloji	-10.9147
▁etap	-10.9152
▁hadi	-10.9155
▁dib	-10.9156
▁gaziemir	-10.916
▁tayfun	-10.916
▁gişe	-10.916
▁mutfak	-10.916
▁husus	-10.916
▁emlak	-10.916
▁belirtirken	-10.9161
lardan	-10.9161
▁davutoğlu	-10.9162
▁korkut	-10.9172
▁vural	-10.9176
zen	-10.9177
ile	-10.9177
▁benzer	-10.918
▁gördüm	-10.9182
▁bakı	-10.9182
▁bildir	-10.9184
maları	-10.919
▁konusu	-10.9191
▁erkeğ	-10.9192
▁etmek	-10.9204
iyorsunuz	-10.9225
par	-10.9229
48	-10.9243
yat	-10.9246
▁vermedi	-10.9249
▁bayındır	-10.9254
▁bonservis	-10.9254
▁ayrım	-10.9254
▁komünist	-10.9254
▁lütfen	-10.9257
▁kuşak	-10.9257
▁filan	-10.9259
nis	-10.9262
▁ünite	-10.9269
stan	-10.927
▁çalışırken	-10.9282
çu	-10.9296
▁çekerek	-10.9297
▁öğrenciler	-10.9302
▁suat	-10.9307
▁öldür	-10.9311
82	-10.9314
▁kıy	-10.9317
nur	-10.9321
▁atina	-10.9323
▁defter	-10.9325
▁bale	-10.9334
madan	-10.9337
ilecek	-10.9338
▁bürokrat	-10.9349
▁gürültü	-10.9349
▁müttefik	-10.9349
▁necdet	-10.9349
▁sebebiyle	-10.9349
▁çiğ	-10.9349
▁power	-10.9349
▁meksika	-10.9349
▁manken	-10.9351
▁söylemişti	-10.9351
▁1980	-10.9351
car	-10.9352
▁tempo	-10.9352
▁veren	-10.9354
▁getiriyor	-10.9354
▁abdül	-10.9355
▁ersoy	-10.9359
▁mevzuat	-10.936
▁ideal	-10.9363
sever	-10.9363
▁ağar	-10.9367
sına	-10.9374
▁makina	-10.9387
tri	-10.9388
▁imkb	-10.9389
ılması	-10.9395
-3	-10.9398
▁yaptım	-10.9399
▁gökçe	-10.9411
▁ju	-10.9415
▁mert	-10.9415
29	-10.9418
▁kuruldu	-10.9418
▁tahsil	-10.9444
▁yaparak	-10.9445
▁plastik	-10.9446
▁takviye	-10.9446
▁şükür	-10.9446
▁mutfağ	-10.9446
▁servet	-10.9446
▁atletizm	-10.9446
▁zarf	-10.9447
▁çınar	-10.9448
ker	-10.9449
▁mobilya	-10.9452
▁etnik	-10.9461
▁infaz	-10.9462
bun	-10.9464
▁fer	-10.9467
▁şi	-10.9468
▁kktc	-10.9476
ilmişti	-10.9487
unu	-10.9487
▁tahri	-10.9491
cü	-10.9492
ebilirsiniz	-10.9499
▁sistemi	-10.9502
▁mahkemesi	-10.9506
dum	-10.9509
▁bacağ	-10.9512
sının	-10.9516
bö	-10.9521
▁tutuklu	-10.9524
ud	-10.9524
▁akpli	-10.9527
▁olun	-10.9529
▁golle	-10.953
▁zem	-10.9531
▁kaydet	-10.9532
07	-10.9536
▁yüce	-10.9541
▁akademisyen	-10.9543
▁propaganda	-10.9543
▁ressam	-10.9543
▁yanısıra	-10.9543
▁kafile	-10.9543
▁laboratuvar	-10.9543
▁1994	-10.9544
▁panik	-10.9544
▁stres	-10.9544
▁meslektaş	-10.9545
▁hamle	-10.9546
büyük	-10.9547
kol	-10.9547
▁aksoy	-10.9548
▁kocaoğlu	-10.9553
▁oğul	-10.9556
vo	-10.9562
▁finalde	-10.9564
▁yaşanıyor	-10.9567
▁etmiş	-10.9569
▁koyu	-10.957
▁biridir	-10.9579
▁heyeti	-10.9582
▁görünüyor	-10.9599
meliyiz	-10.9602
▁insanlar	-10.961
rit	-10.9611
▁gizle	-10.9617
▁projesi	-10.9618
▁oluşturdu	-10.9624
▁pu	-10.9626
▁filmi	-10.9641
▁atmosfer	-10.9641
▁branş	-10.9641
▁otopark	-10.9641
lt	-10.9641
▁deli	-10.9641
▁bitlis	-10.9643
▁taktik	-10.9648
▁götürdü	-10.9651
▁nedir	-10.9654
▁göt	-10.9657
▁fena	-10.9664
▁onayla	-10.9666
▁politik	-10.9674
▁başvurdu	-10.9675
▁bahset	-10.9682
▁daim	-10.9691
ika	-10.9701
ty	-10.9703
▁x	-10.9703
▁oluşturuyor	-10.9704
▁diyen	-10.9705
▁tanıtıl	-10.9706
▁koyun	-10.9717
▁değ	-10.9724
gun	-10.9727
we	-10.9727
▁satır	-10.9727
lanmıştır	-10.9738
▁kooperatif	-10.974
▁gönl	-10.974
▁kurumsal	-10.974
▁serkan	-10.9741
▁burcu	-10.9741
▁tema	-10.9743
▁eksi	-10.9744
sinda	-10.9747
▁geliştirilme	-10.975
▁saban	-10.9751
landır	-10.9758
lardı	-10.976
▁olamaz	-10.9761
ebiliyor	-10.9761
▁belirttiler	-10.9773
duk	-10.9788
▁pkkn	-10.9793
▁cm	-10.9799
şin	-10.9802
▁etmiştir	-10.9804
▁fırla	-10.9804
avi	-10.9804
by	-10.9806
▁kut	-10.9806
bal	-10.9807
▁özal	-10.9808
▁görülüyor	-10.9809
kay	-10.9823
‘	-10.9827
▁anımsa	-10.9829
sch	-10.9829
uyorum	-10.9831
-20	-10.9833
uyoruz	-10.9834
▁teşkil	-10.9838
▁felsefe	-10.984
▁mesleğ	-10.984
▁pompa	-10.984
▁necati	-10.984
▁demektir	-10.984
▁gelenek	-10.9841
▁ptt	-10.9841
▁barındır	-10.9841
▁samimi	-10.9841
▁ilave	-10.9841
▁Wang	-10.9843
▁kayserispor	-10.9843
ttı	-10.9846
▁aykut	-10.9848
▁tuk	-10.9848
▁ulu	-10.9851
devlet	-10.9852
▁şeyh	-10.9852
▁aktaş	-10.9853
▁önemlidir	-10.9855
▁diyanet	-10.9862
▁kalacak	-10.9865
▁ülkü	-10.9867
▁tutukla	-10.9879
▁aksa	-10.9882
mektir	-10.9883
▁pat	-10.9885
▁durağ	-10.9891
una	-10.9903
▁kayak	-10.9907
21	-10.9913
mamıştır	-10.9922
▁yapılır	-10.993
dılar	-10.9933
▁kok	-10.9933
▁9.	-10.994
▁münih	-10.9941
▁temenni	-10.9941
▁itibarıyla	-10.9941
▁merkel	-10.9941
▁ceylan	-10.9941
▁fıfa	-10.9941
▁yelken	-10.9941
name	-10.9944
▁karn	-10.9944
bağ	-10.9945
ari	-10.9949
ydu	-10.9949
▁hatip	-10.9953
85	-10.9956
▁koro	-10.9961
02	-10.9968
▁etmedi	-10.998
▁ük	-10.9986
▁çalışkan	-10.9987
▁gönderilme	-10.9987
76	-10.9988
▁kuyu	-10.9991
▁kamil	-10.9993
ow	-10.9996
ny	-10.9997
▁ödenme	-10.9998
▁dert	-11
▁vefat	-11.0016
cılar	-11.0016
sik	-11.002
▁aygün	-11.002
59	-11.0034
▁yargılanma	-11.0037
▁hemşire	-11.0043
▁kütahya	-11.0043
▁selahattin	-11.0043
▁tuncay	-11.0043
▁çabuk	-11.0043
▁çorum	-11.0043
▁tehdid	-11.0043
▁denizlispor	-11.0043
▁başlar	-11.0045
▁yasin	-11.0045
▁şaka	-11.0047
▁hesapla	-11.0047
▁eşi	-11.0047
▁del	-11.0048
▁rakı	-11.0049
▁kararname	-11.0051
▁turistik	-11.0051
▁kıta	-11.0052
▁versiyon	-11.0054
ullah	-11.0058
▁pist	-11.0058
▁odaklan	-11.0067
▁am	-11.007
▁us	-11.0071
▁sabri	-11.0081
lon	-11.0083
▁bankası	-11.0086
▁çağrıl	-11.0087
daki	-11.0098
▁yum	-11.0102
▁kam	-11.0113
▁aldım	-11.0121
lerle	-11.0137
▁müthiş	-11.0146
▁portekiz	-11.0146
▁tatbikat	-11.0146
▁soğan	-11.0146
▁kdv	-11.0146
▁tekerlek	-11.0146
▁kosova	-11.0146
▁1991	-11.0147
▁kuzu	-11.0148
▁gidecek	-11.0149
▁sonsuz	-11.0149
wa	-11.0149
▁tavuk	-11.0149
▁hafıza	-11.015
▁afiş	-11.0151
▁yürüdü	-11.0164
▁danıştay	-11.0166
▁asgari	-11.0172
unca	-11.0172
▁veda	-11.0176
▁soyun	-11.0179
▁66	-11.018
▁kalıyor	-11.0186
18	-11.0188
▁örneğin	-11.0191
▁zehir	-11.0196
ligi	-11.0199
▁61	-11.0203
▁denir	-11.0207
▁giriş	-11.0212
io	-11.0223
▁geliştir	-11.0231
▁güncel	-11.0245
▁bulunmuştu	-11.0246
▁sözleri	-11.0246
▁olmak	-11.0248
▁tahvil	-11.025
▁zırh	-11.025
▁hassas	-11.025
▁kurtuluş	-11.0251
▁keçi	-11.0252
ling	-11.0254
▁kul	-11.0255
sm	-11.0256
kapı	-11.0257
üdür	-11.0257
▁muhtemel	-11.0264
amadık	-11.0265
▁çıkarken	-11.0272
▁meme	-11.0275
▁edilmiştir	-11.0275
▁ç	-11.0281
▁değerlendirilme	-11.0284
abi	-11.0286
ada	-11.0287
gal	-11.029
▁yuan	-11.0301
▁taze	-11.0304
larıyla	-11.0308
▁elçi	-11.0319
İstanbul	-11.032
▁21.	-11.0326
▁con	-11.0338
▁ken	-11.0348
▁ocağ	-11.0349
55	-11.0355
▁fethiye	-11.0355
▁müzisyen	-11.0355
▁egedesonsöz	-11.0355
▁sebze	-11.0355
meden	-11.0356
▁1996	-11.0356
sunuz	-11.0358
▁feth	-11.0361
84	-11.0364
▁atalay	-11.0366
▁ergün	-11.0368
▁kapak	-11.0377
ane	-11.0378
▁iskender	-11.038
▁stand	-11.0382
08	-11.0386
dor	-11.0394
▁finalin	-11.0395
ucu	-11.04
▁53	-11.0403
dd	-11.0404
rey	-11.0404
61	-11.0411
ancak	-11.0417
of	-11.042
ılmıştı	-11.0423
şan	-11.0423
▁hızlandır	-11.0427
▁ediyorlar	-11.0432
cik	-11.0436
65	-11.0436
ğu	-11.0443
▁bayrağ	-11.0461
▁jintao	-11.0462
▁kasırga	-11.0462
▁kuyruk	-11.0462
▁mevduat	-11.0462
▁seferihisar	-11.0462
▁süresince	-11.0462
▁espri	-11.0462
▁tabela	-11.0462
▁şahıs	-11.0462
▁vakti	-11.0462
yrd	-11.0463
▁kamyonet	-11.0464
▁duygusal	-11.0466
▁incir	-11.0469
▁vermişti	-11.047
▁tıbbi	-11.047
▁peygamber	-11.0479
▁bacak	-11.0495
▁7.	-11.0495
ırak	-11.0497
miyorum	-11.0498
▁sıvı	-11.0501
▁berk	-11.0506
del	-11.0508
▁Wu	-11.0513
▁işte	-11.0516
▁dayak	-11.0518
üç	-11.0532
▁demişti	-11.0538
rs	-11.0547
▁başkanlığı	-11.0553
tım	-11.0559
▁uyardı	-11.0561
!..	-11.0564
ms	-11.0569
▁derviş	-11.0569
▁ehliyet	-11.0569
▁narlıdere	-11.0569
▁ertesi	-11.0569
▁çöl	-11.057
▁emanet	-11.0571
▁kasımpaşa	-11.0571
▁fiziksel	-11.0571
▁1990	-11.0571
▁burs	-11.0572
▁beton	-11.0573
▁atilla	-11.0573
▁bilmiyorum	-11.0578
▁denk	-11.0578
▁asıllı	-11.058
▁sürdür	-11.0586
▁biliyorum	-11.0587
▁port	-11.0587
▁melih	-11.0589
▁pir	-11.059
▁ulan	-11.0592
▁hane	-11.0603
krem	-11.0607
▁hsyk	-11.061
kad	-11.0613
▁direkt	-11.0613
nd	-11.0619
▁350	-11.0622
▁gan	-11.0639
▁We	-11.0649
▁tekrarla	-11.0662
▁adem	-11.0666
mıyorum	-11.0676
▁norveç	-11.0678
▁yeteneğ	-11.0678
▁çirkin	-11.0678
▁komedi	-11.0678
▁tunç	-11.0678
▁faktör	-11.0678
▁hayırsever	-11.0679
▁grand	-11.0681
▁veysel	-11.0681
▁damat	-11.0682
fen	-11.0683
▁tunceli	-11.0685
▁almıştır	-11.0686
▁tansiyon	-11.0688
▁oyuncak	-11.0691
▁mc	-11.0691
hur	-11.0698
lerimiz	-11.0699
▁erbil	-11.0701
▁tahta	-11.0701
eski	-11.0711
▁ismet	-11.0711
emiyor	-11.0716
avrupa	-11.0717
▁durumunda	-11.072
▁72	-11.0722
49	-11.0724
▁geldik	-11.0726
▁81	-11.073
▁kürdistan	-11.0732
nel	-11.0737
kor	-11.0737
23	-11.0741
tığını	-11.0744
iyo	-11.0744
▁varsa	-11.0755
▁ertele	-11.0755
vir	-11.0759
▁iniş	-11.0763
67	-11.0768
▁ergen	-11.0772
fo	-11.0776
hem	-11.0781
dis	-11.0786
▁anlatıyor	-11.0786
▁asfalt	-11.0788
▁danimarka	-11.0788
▁mükellef	-11.0788
▁suretiyle	-11.0788
▁derhal	-11.0788
▁hitap	-11.0788
▁burhan	-11.0788
▁kampüs	-11.079
32	-11.0791
müştür	-11.0793
▁hatıra	-11.0794
▁akdağ	-11.0796
ırlar	-11.08
▁dk	-11.0802
▁ayarla	-11.0809
ata	-11.0814
▁tff	-11.0819
▁milan	-11.082
▁açıklamıştı	-11.0821
▁olmayacak	-11.0821
71	-11.0826
▁kazanç	-11.0827
ers	-11.0831
▁değiliz	-11.0831
▁8.	-11.0837
val	-11.0849
▁tamamlandı	-11.0849
▁fas	-11.0851
▁sırada	-11.0856
▁karaman	-11.0859
▁kot	-11.0861
▁maria	-11.0864
masını	-11.087
zon	-11.0879
▁tüken	-11.088
▁istedim	-11.0884
▁atak	-11.0885
▁kalan	-11.0887
kut	-11.0887
▁kanıtla	-11.0888
▁geriledi	-11.0894
▁balçova	-11.0899
▁lokanta	-11.0899
▁otomotiv	-11.0899
▁pasaport	-11.0899
▁beşinci	-11.0899
▁muhtelif	-11.0899
tis	-11.0899
▁hariç	-11.09
acaklar	-11.09
▁kulis	-11.09
▁şahit	-11.0901
▁alarm	-11.0901
▁tapu	-11.0903
▁söyleşi	-11.0906
▁çakı	-11.0907
▁istemiyorum	-11.0907
▁osc	-11.0907
▁üs	-11.0909
▁bolu	-11.0912
93	-11.0915
ünü	-11.0918
▁sanatçı	-11.0918
▁cha	-11.0919
lıyoruz	-11.0919
▁tez	-11.0919
▁jean	-11.0924
▁yaptır	-11.0925
sev	-11.0929
▁belirtiyor	-11.0931
▁hain	-11.0931
!"	-11.0932
▁çevr	-11.0933
▁mimari	-11.0936
▁reddet	-11.0939
▁atama	-11.0951
▁67	-11.0958
▁yatağ	-11.0961
chp	-11.0965
chi	-11.0971
▁emri	-11.0972
▁ri	-11.0973
je	-11.0977
▁kül	-11.0981
▁boyn	-11.0982
gil	-11.0985
▁edip	-11.0995
lam	-11.1
▁car	-11.1001
▁görevlendiril	-11.1004
ebilecek	-11.1006
▁kura	-11.1008
for	-11.1008
▁elif	-11.1009
▁korkunç	-11.1011
▁liverpool	-11.1011
▁çoban	-11.1011
▁sağanak	-11.1011
▁bbc	-11.1011
▁medeniyet	-11.1011
▁roket	-11.1012
95	-11.1012
▁komik	-11.1013
▁musunuz	-11.1014
▁akhisar	-11.1014
▁ısınma	-11.1017
eni	-11.1017
▁telaf	-11.1024
▁poz	-11.1025
gh	-11.1026
▁rövanş	-11.1027
▁tart	-11.1027
larin	-11.1027
▁profil	-11.1031
▁veriliyor	-11.1038
ua	-11.1038
▁eyüp	-11.104
▁danış	-11.1044
▁altun	-11.1044
▁Wi	-11.1045
▁reddetti	-11.1047
▁ilçesinde	-11.1053
▁demirel	-11.1054
▁pen	-11.1069
▁goller	-11.1071
▁sürükle	-11.1073
▁dene	-11.108
▁durdurulma	-11.1087
üstü	-11.1088
▁64	-11.109
▁she	-11.1091
cık	-11.1093
fran	-11.1094
▁oldug	-11.1095
▁komuta	-11.1101
▁olurdu	-11.1102
▁gal	-11.1115
▁seçin	-11.1117
▁ajan	-11.1121
▁sure	-11.1122
▁oluştur	-11.1123
64	-11.1123
▁elazığ	-11.1124
▁nakli	-11.1124
mekte	-11.1125
▁hektar	-11.1125
▁kahvaltı	-11.1125
▁çorba	-11.1125
▁talip	-11.1125
▁1993	-11.1126
▁diyerek	-11.1126
▁bozdağ	-11.1127
▁54	-11.1128
▁sözkonu	-11.1128
▁fren	-11.113
unun	-11.1131
▁burun	-11.1132
▁kılın	-11.1132
diler	-11.1137
▁yapıt	-11.1141
▁verdim	-11.1141
▁yök	-11.1161
▁taşıdı	-11.1164
▁gereken	-11.1166
▁avm	-11.1166
sağ	-11.1171
altı	-11.1176
▁kurmay	-11.1182
▁aldat	-11.1182
kul	-11.119
cil	-11.1194
36	-11.1197
▁alarak	-11.1197
lenir	-11.1204
vu	-11.1213
sıdır	-11.1213
ilen	-11.1216
doğ	-11.1223
tırıldı	-11.1223
▁hay	-11.1225
▁bitir	-11.1237
▁atila	-11.1238
▁---	-11.1238
▁pişman	-11.124
▁başsağlığı	-11.124
▁randevu	-11.124
▁tencere	-11.124
▁alem	-11.1248
▁alay	-11.1253
▁kulağ	-11.1254
▁oynuyor	-11.1255
▁umud	-11.1256
çin	-11.126
▁deneme	-11.1261
▁haz	-11.1262
memiş	-11.1264
▁edilirken	-11.1266
68	-11.1268
▁hapse	-11.1269
▁tuttu	-11.1272
müştü	-11.1278
▁karşılandı	-11.1278
ymiş	-11.1278
nıyor	-11.1279
▁köse	-11.128
▁bitti	-11.1284
▁giysi	-11.1287
▁atıldı	-11.1293
▁tok	-11.1293
▁hati	-11.1293
▁keşke	-11.1294
▁eriş	-11.1307
tığı	-11.131
▁duru	-11.1312
▁tavan	-11.1312
üst	-11.1314
çü	-11.1316
▁oluşturulma	-11.1322
kış	-11.1325
▁kalın	-11.1326
▁sera	-11.1329
gon	-11.1333
tig	-11.1336
ros	-11.1337
ıydı	-11.1343
▁ülker	-11.1344
▁tasarla	-11.1353
yacağız	-11.1355
▁bronz	-11.1356
▁fevzi	-11.1356
▁gezegen	-11.1356
▁manchester	-11.1356
▁ötürü	-11.1356
▁kağıd	-11.1356
▁çamaşır	-11.1356
▁müracaat	-11.1356
▁şükrü	-11.1357
▁cinsiyet	-11.1357
34	-11.1357
larken	-11.1359
▁manisaspor	-11.1362
tel	-11.1363
▁sadık	-11.1366
▁dağıldı	-11.1371
▁city	-11.1373
▁fuhuş	-11.1375
▁yaşıyoruz	-11.1376
one	-11.1376
▁şekilde	-11.1381
▁dek	-11.1385
kas	-11.1386
-100	-11.1387
uyordu	-11.1391
▁emr	-11.1393
▁gelmişti	-11.1397
▁odak	-11.1399
ct	-11.1405
lendirme	-11.1409
▁gördük	-11.141
01	-11.1412
▁sözcü	-11.1412
▁tamir	-11.1412
nar	-11.1412
▁kiraz	-11.1415
▁mus	-11.1421
-4	-11.1434
gn	-11.1436
▁kilit	-11.1437
alı	-11.1441
▁76	-11.1458
sün	-11.146
▁kafe	-11.146
▁düşüyor	-11.1463
▁red	-11.1466
▁ford	-11.1466
sınız	-11.1467
▁ihsan	-11.1469
▁istikamet	-11.1474
▁soykırım	-11.1474
▁traktör	-11.1474
▁müjde	-11.1474
▁ufuk	-11.1474
▁aynen	-11.1475
▁tabut	-11.1476
▁oldugu	-11.1477
▁amca	-11.1478
▁misiniz	-11.1481
larla	-11.1481
▁bingöl	-11.1482
▁binali	-11.1482
▁adamları	-11.1484
▁isteğ	-11.1493
▁nakit	-11.1494
düğünü	-11.1499
▁giriyor	-11.1501
▁sürecek	-11.1502
ankara	-11.1502
▁gazeteci	-11.1504
▁ışın	-11.1507
▁you	-11.1508
▁çalışmaları	-11.1514
▁toki	-11.1523
▁Wa	-11.1528
▁val	-11.1529
▁Williams	-11.153
▁cihan	-11.1533
▁tor	-11.1534
▁dolay	-11.1538
tem	-11.1538
syon	-11.1543
acağını	-11.1544
▁konuldu	-11.1546
mavi	-11.1549
▁hükümeti	-11.155
▁59	-11.155
54	-11.1555
şim	-11.1555
▁tüketim	-11.1557
muştur	-11.1563
-10	-11.1563
sem	-11.1565
▁eroğlu	-11.1566
▁toplandı	-11.1566
day	-11.1567
▁bakanı	-11.1568
yal	-11.1577
▁fo	-11.1577
▁peynir	-11.1593
▁blair	-11.1593
▁meteoroloji	-11.1593
▁otorite	-11.1593
▁zeytinyağı	-11.1593
▁asbaşkan	-11.1593
▁tüfek	-11.1594
▁ateşkes	-11.1594
▁angeles	-11.1595
▁hakimiyet	-11.1595
▁biliniyor	-11.1599
▁sosyalist	-11.1602
▁logo	-11.1602
▁sopa	-11.1605
amıyorum	-11.1605
▁denetleme	-11.1607
▁hizbullah	-11.1613
▁bela	-11.1614
▁akademik	-11.1614
▁karşıladı	-11.1616
injiang	-11.1616
▁çarpı	-11.1618
81	-11.1619
my	-11.1627
▁ister	-11.1631
▁boşanma	-11.1637
▁united	-11.1638
luğu	-11.1639
▁anlaşıldı	-11.164
-16	-11.164
kız	-11.1645
▁yayımla	-11.1649
▁seçilme	-11.1652
▁öv	-11.1662
ilmesi	-11.1672
eme	-11.1673
▁sırrı	-11.1678
▁fin	-11.1682
yeceğiz	-11.1698
▁takibe	-11.17
▁derd	-11.1702
▁iletti	-11.1702
▁bölü	-11.1702
▁edilmesi	-11.1703
▁14.	-11.1706
▁kabin	-11.1707
muyor	-11.1712
▁yayla	-11.1712
▁fragman	-11.1713
▁pirinç	-11.1713
▁veteriner	-11.1713
▁numune	-11.1713
▁orijinal	-11.1713
▁irlanda	-11.1713
▁robot	-11.1714
▁jones	-11.1714
▁izmit	-11.1715
▁muhtemelen	-11.1717
▁fırt	-11.172
kel	-11.172
▁flor	-11.1721
abiliriz	-11.1723
▁içer	-11.173
▁uğru	-11.1735
▁sarf	-11.1738
lma	-11.1739
37	-11.1741
▁ac	-11.1743
03	-11.175
▁vb	-11.1752
rack	-11.1755
▁vereceğiz	-11.1755
mışlar	-11.1756
▁çince	-11.1768
raf	-11.1775
ion	-11.1779
ment	-11.1781
hd	-11.1787
▁aydınlat	-11.1792
▁kazada	-11.1793
▁martin	-11.1793
89	-11.1802
ülke	-11.1806
▁ch	-11.1809
▁komut	-11.1817
anı	-11.1818
sy	-11.1819
91	-11.1822
mamış	-11.1824
▁çağırdı	-11.1825
▁redded	-11.1826
▁pan	-11.1827
▁hac	-11.1827
▁benimse	-11.183
▁kıymet	-11.1831
▁yüreğ	-11.1833
▁öldürüldü	-11.1835
▁armağan	-11.1835
▁bombardıman	-11.1835
▁istismar	-11.1835
▁üss	-11.1835
▁direksiyon	-11.1835
▁yükümlü	-11.1835
▁tohum	-11.1835
▁tugay	-11.1836
▁geleneğ	-11.1836
iyat	-11.1836
▁algıla	-11.184
▁kav	-11.1841
▁hakkında	-11.1843
▁2-3	-11.1844
▁sütun	-11.1846
▁demirci	-11.1852
▁durdu	-11.1852
nuz	-11.1853
▁mucize	-11.1856
ayım	-11.1858
▁kazım	-11.1861
ds	-11.1862
▁bahçeli	-11.1863
▁olanağ	-11.1863
▁şeytan	-11.1864
mıştım	-11.1871
▁konsolos	-11.1872
▁fil	-11.1886
▁2,5	-11.1889
▁melek	-11.1893
istan	-11.1896
iao	-11.1899
öl	-11.1901
evet	-11.1908
▁gelmiştir	-11.191
▁seven	-11.1913
▁anap	-11.1914
▁dram	-11.1915
bl	-11.1917
-6	-11.1927
amadım	-11.1935
artık	-11.1938
▁alevi	-11.194
▁sorgula	-11.1949
söz	-11.195
rom	-11.1954
▁beraat	-11.1958
▁ibadet	-11.1958
▁okyanus	-11.1959
▁stüdyo	-11.1959
▁kapanış	-11.1959
▁sünnet	-11.1959
▁bakırköy	-11.1959
▁çağlayan	-11.1959
▁yarımada	-11.196
▁inanıyoruz	-11.1965
bul	-11.1969
..."	-11.197
mayacağız	-11.197
hak	-11.1977
▁biliyoruz	-11.198
▁demet	-11.198
▁78	-11.1983
▁sirke	-11.1986
▁çıkart	-11.1992
▁planlanıyor	-11.1994
ses	-11.1995
pro	-11.1995
▁esen	-11.1995
▁yaşayan	-11.1996
▁oluşuyor	-11.1998
▁ster	-11.2001
▁paylaşım	-11.2006
▁dede	-11.2007
cy	-11.2018
▁kontrolde	-11.2021
tör	-11.2028
▁stok	-11.2036
vrak	-11.2053
▁çarptırıl	-11.2054
▁danışma	-11.2058
▁tutku	-11.206
▁68	-11.2062
79	-11.2064
▁sığ	-11.2066
▁güçleri	-11.2069
yn	-11.207
▁havayol	-11.2075
acaksınız	-11.2078
ilerek	-11.2079
▁kapandı	-11.2079
▁ciro	-11.208
▁eşcinsel	-11.2084
▁gürcistan	-11.2084
▁santimetre	-11.2084
▁metreküp	-11.2084
▁taziye	-11.2084
▁teminat	-11.2084
▁chris	-11.2084
▁köklü	-11.2085
▁hamza	-11.2085
▁mahsur	-11.2085
▁1995	-11.2085
▁hanedan	-11.2085
▁askı	-11.2086
▁erbakan	-11.2087
▁biyolojik	-11.2088
mazken	-11.209
miştim	-11.2094
▁çekin	-11.2094
▁ankaragü	-11.21
▁edilmişti	-11.2101
▁hamit	-11.2102
▁esin	-11.2106
▁kurgu	-11.2106
şa	-11.2106
▁abbas	-11.2119
▁sait	-11.2129
▁verdiler	-11.2145
emedim	-11.2153
▁hur	-11.2159
▁kun	-11.2163
▁taksim	-11.2166
▁yapay	-11.2169
▁almış	-11.217
konsolos	-11.2173
69	-11.2173
▁oral	-11.2174
98	-11.2176
▁nazi	-11.2178
46	-11.2178
▁kimya	-11.2183
▁sunuyor	-11.2203
33	-11.2203
▁ato	-11.2204
▁yenilen	-11.2204
▁tobb	-11.2208
▁tarık	-11.221
▁oruç	-11.221
▁boğaziçi	-11.221
▁kalkan	-11.2211
▁çiller	-11.2211
▁gözetim	-11.2211
▁dolandırıcı	-11.2212
▁uysal	-11.2215
▁kesilme	-11.2217
▁kontroller	-11.2218
▁sırasıyla	-11.222
landırıl	-11.2222
mistir	-11.2224
▁sırbistan	-11.2227
para	-11.2229
ırım	-11.2229
hil	-11.223
▁73	-11.2231
▁referandum	-11.2231
▁cilt	-11.2232
▁sh	-11.2234
57	-11.2235
▁ova	-11.2247
▁13.	-11.2248
▁file	-11.225
▁yapmıştı	-11.225
organik	-11.2251
park	-11.2258
rio	-11.2258
▁müfettiş	-11.2258
45	-11.2263
▁imzaladı	-11.2266
▁kaplan	-11.2285
▁77	-11.2291
▁sevda	-11.2296
cal	-11.2296
yaz	-11.2303
▁110	-11.2306
ec	-11.2308
▁kıyasla	-11.2316
▁teori	-11.2326
▁müs	-11.233
tırdı	-11.2332
▁powell	-11.2335
▁artıyor	-11.2336
▁sak	-11.2336
▁diyorlar	-11.2337
▁afyonkarahisar	-11.2338
▁semih	-11.2339
▁iğne	-11.2339
▁öğret	-11.234
▁zhang	-11.234
▁şerif	-11.234
▁şık	-11.2341
▁frank	-11.2345
▁kocaman	-11.2346
medik	-11.2346
▁sümer	-11.2347
▁2020	-11.2347
▁ceo	-11.235
▁ekşi	-11.2351
▁kuyum	-11.2353
96	-11.2372
83	-11.2373
▁vesile	-11.2377
Ka	-11.2378
▁140	-11.2382
▁cor	-11.2384
ston	-11.2388
jo	-11.2389
▁derneği	-11.2393
▁fan	-11.2399
97	-11.2405
▁kurdu	-11.2406
▁kazandır	-11.2407
▁kalkın	-11.2408
▁önlenme	-11.2408
▁katar	-11.241
dp	-11.2411
▁ebu	-11.2416
▁gözük	-11.2418
▁dışında	-11.2423
göl	-11.2424
▁alınacak	-11.2428
▁pala	-11.2433
nt	-11.2435
ebiliriz	-11.2437
xi	-11.2443
bor	-11.2449
▁rezerv	-11.2451
cat	-11.2455
▁dinamik	-11.2468
▁brüksel	-11.2468
▁coğrafi	-11.2468
▁karaciğer	-11.2468
▁pekiştir	-11.2468
▁pozitif	-11.2468
▁ömr	-11.2468
cha	-11.2468
▁restorasyon	-11.2469
▁ermenistan	-11.2469
▁carlos	-11.2469
▁müteahhit	-11.247
lılar	-11.247
▁razı	-11.2471
▁ölçek	-11.2471
▁yaralanma	-11.2473
▁konyaspor	-11.2473
▁çamur	-11.2476
▁elma	-11.2478
tic	-11.2479
rc	-11.248
▁düzenlenecek	-11.2483
▁1500	-11.2483
ura	-11.2485
▁it	-11.2489
mesin	-11.249
▁neşe	-11.2494
▁kaldırdı	-11.25
▁bulgu	-11.2502
▁gitar	-11.2505
▁cemaat	-11.2509
42	-11.2509
▁sonucu	-11.2509
ort	-11.2511
▁çim	-11.2514
▁jia	-11.2518
▁sayısı	-11.2519
Bu	-11.2525
▁cezalandırılma	-11.2528
▁ertelen	-11.2531
sco	-11.2532
▁imaj	-11.2538
▁metn	-11.254
▁avcı	-11.2541
▁yayınladı	-11.2541
leriyle	-11.2541
▁yanaş	-11.2541
mayı	-11.2543
▁alp	-11.2543
oto	-11.2544
lenecek	-11.2544
göz	-11.2551
▁görgü	-11.2558
▁tck	-11.2559
onu	-11.256
▁şifre	-11.2565
▁yanlı	-11.2566
ygar	-11.2569
mediğini	-11.2576
▁yöneticileri	-11.2595
▁akaryakıt	-11.26
▁başlangıc	-11.26
▁vladim	-11.26
▁gizem	-11.26
▁buğday	-11.26
▁tutanak	-11.26
▁fosil	-11.26
▁doping	-11.26
▁kürsü	-11.26
▁fakir	-11.26
▁radar	-11.2601
▁zorundayız	-11.2601
▁filiz	-11.2601
▁bileşen	-11.2602
▁fuat	-11.2602
▁harç	-11.2604
▁temsilcileri	-11.2609
94	-11.2621
▁davul	-11.2625
lanacak	-11.263
▁çavuş	-11.263
▁verirken	-11.2634
▁turk	-11.2635
▁tay	-11.2641
▁hırs	-11.2646
vet	-11.2647
▁kıs	-11.2655
▁kavşağ	-11.2656
▁geçecek	-11.2658
▁genelge	-11.2663
esi	-11.2665
53	-11.2666
▁hatırlatıl	-11.267
▁kurum	-11.2672
ht	-11.2674
▁veli	-11.268
▁kandır	-11.2682
72	-11.2689
▁hızlı	-11.2689
▁dayı	-11.269
▁hav	-11.2691
▁1-2	-11.2691
vaz	-11.2692
düğü	-11.2693
▁bilir	-11.27
▁74	-11.2706
▁konulma	-11.2711
hayır	-11.2712
melidir	-11.2722
mik	-11.2727
vil	-11.273
▁tc	-11.2732
▁black	-11.2733
▁global	-11.2733
▁keşif	-11.2733
▁piyano	-11.2733
▁tarsus	-11.2733
▁tekirdağ	-11.2733
▁çubuk	-11.2733
genetik	-11.2733
▁defile	-11.2734
▁müvekkil	-11.2734
▁irfan	-11.2734
▁yeğen	-11.2734
▁kaba	-11.2734
▁öldürdü	-11.2735
▁hasret	-11.2735
▁kutladı	-11.2735
▁faul	-11.2736
▁bıçakla	-11.2742
▁erişim	-11.2743
▁hor	-11.2748
▁ucuz	-11.2749
bri	-11.2758
uluyor	-11.276
ıyorsun	-11.2761
43	-11.2764
▁şura	-11.2765
▁filo	-11.277
▁giderilme	-11.2771
▁nakil	-11.2773
47	-11.2775
▁ren	-11.2777
▁raf	-11.2777
▁istedik	-11.2778
▁çekiş	-11.2781
yken	-11.279
▁kapattı	-11.2791
▁gay	-11.2796
sit	-11.2797
▁bos	-11.2797
▁öp	-11.2799
06	-11.28
▁başlat	-11.2805
▁bağlam	-11.2808
▁sağlayacak	-11.281
▁by	-11.2812
yel	-11.2813
92	-11.2819
▁1,5	-11.2819
ecekler	-11.2819
▁ayva	-11.2819
▁biliyor	-11.2821
86	-11.2822
▁ayıp	-11.2827
▁festivalin	-11.2839
▁boyle	-11.284
▁start	-11.2847
▁itibar	-11.2847
cin	-11.2854
nmaktadır	-11.2854
▁sos	-11.2858
▁cenazesi	-11.2861
▁hint	-11.2864
▁kesti	-11.2864
▁adıyaman	-11.2868
▁ahşap	-11.2868
▁aktivite	-11.2868
▁fahri	-11.2868
▁kontenjan	-11.2868
▁konvoy	-11.2868
▁kırklareli	-11.2868
▁mağlubiyet	-11.2868
▁rehabilitasyon	-11.2868
▁taner	-11.2868
▁çılgın	-11.2868
▁göğs	-11.2868
▁richard	-11.2868
▁tablet	-11.2868
▁bıçağ	-11.2868
▁maraton	-11.2869
▁tezahürat	-11.2869
▁nitekim	-11.2869
▁katledil	-11.2869
▁suikast	-11.2869
▁19.00	-11.2869
▁övgü	-11.287
▁sunulacak	-11.2871
▁fail	-11.2873
kir	-11.2875
ege	-11.2878
▁ederiz	-11.2881
▁inter	-11.2882
▁etme	-11.2885
▁tmsf	-11.2885
▁hoşgörü	-11.2888
▁tartan	-11.2888
▁yoğunlaş	-11.2889
ıpkı	-11.2895
▁taşeron	-11.2897
▁oturdu	-11.2912
▁başladık	-11.2914
▁topal	-11.2916
▁isa	-11.2916
▁ahmed	-11.2917
con	-11.2917
vis	-11.2928
▁ibaret	-11.2928
▁w	-11.2932
▁günkü	-11.2936
74	-11.2938
▁yapmış	-11.2938
diril	-11.2942
▁karaca	-11.2944
▁pul	-11.2954
riz	-11.2958
▁ji	-11.2958
▁ece	-11.2961
dıklarını	-11.2965
▁söylem	-11.2975
▁seyret	-11.2978
▁topladı	-11.2979
▁1.3	-11.298
▁onaylan	-11.2985
▁kalmadı	-11.2988
▁yel	-11.2993
masıdır	-11.2995
▁3.5	-11.2996
iyorsun	-11.2997
-5	-11.3002
ilmis	-11.3003
▁domates	-11.3005
▁macaristan	-11.3005
▁tüzmen	-11.3005
▁teyze	-11.3005
▁ikamet	-11.3005
▁afgan	-11.3006
▁bulunduğunu	-11.3006
▁görüyoruz	-11.3007
▁prenses	-11.3008
ilebilir	-11.3012
▁özelleştirme	-11.3012
▁borçlan	-11.3019
▁suyu	-11.302
▁dp	-11.3022
▁söyledim	-11.3026
▁tanker	-11.303
▁kutan	-11.3031
▁ayar	-11.3032
tre	-11.3035
zer	-11.3037
99	-11.3038
terör	-11.3042
▁kad	-11.3049
▁istem	-11.3051
▁yakup	-11.3056
▁kullanıldı	-11.3061
▁eleştirdi	-11.3068
▁ebru	-11.3071
atör	-11.3071
▁saldırdı	-11.3075
yani	-11.3079
▁tony	-11.3083
▁fay	-11.3084
ışık	-11.3088
lıyorum	-11.3093
▁pil	-11.3097
▁hazırladı	-11.3098
bana	-11.3104
63	-11.3105
▁alacağız	-11.3112
▁ez	-11.3115
▁dekan	-11.3119
▁tüy	-11.312
▁böcek	-11.3121
▁yöntemi	-11.3122
▁karma	-11.3123
▁84	-11.3125
▁futbolcular	-11.3129
▁rengi	-11.3132
▁genc	-11.3133
▁cesedi	-11.3133
▁yılında	-11.3137
▁yönetil	-11.3138
▁ihti	-11.3138
▁dehşet	-11.3144
▁hıristiyan	-11.3144
▁konfederasyon	-11.3144
▁koridor	-11.3144
▁muamele	-11.3144
▁piriştina	-11.3144
▁portakal	-11.3144
▁smith	-11.3144
▁bülten	-11.3144
▁tweet	-11.3144
▁3-0	-11.3144
▁köle	-11.3144
▁beyin	-11.3145
▁fişek	-11.3145
▁yorgun	-11.3145
▁küba	-11.3147
▁yaptılar	-11.3147
▁standard	-11.3149
▁vedat	-11.3161
▁lütf	-11.3164
▁kene	-11.3164
rma	-11.317
dağı	-11.3176
maması	-11.3178
sha	-11.3179
ymış	-11.3182
▁sahiptir	-11.3182
attin	-11.3185
leştirme	-11.3185
▁hic	-11.3187
▁yenile	-11.3187
▁ergenekon	-11.3189
▁cr	-11.319
eb	-11.3193
▁pekin	-11.3193
▁gerçekleştiril	-11.3195
yoruz	-11.3202
▁atıl	-11.3203
▁demiş	-11.3204
urken	-11.3209
diğ	-11.3209
kend	-11.3219
▁89	-11.3221
rat	-11.3224
ora	-11.3224
tk	-11.3227
▁kı	-11.3235
▁değerlendir	-11.3241
gl	-11.3249
▁arsa	-11.3253
▁usul	-11.326
ras	-11.3261
bra	-11.3262
▁tsk	-11.3266
leşti	-11.3272
▁girecek	-11.3274
ırız	-11.3279
▁bahane	-11.3285
▁deyrezzor	-11.3285
▁perakende	-11.3285
▁piyade	-11.3285
▁hristiyan	-11.3285
▁hilmi	-11.3285
▁titiz	-11.3285
▁mermer	-11.3285
▁kıdem	-11.3285
▁serhat	-11.3286
▁bardak	-11.3286
▁musul	-11.3286
▁kompleks	-11.3286
nırken	-11.3287
▁yüksekokul	-11.3287
tirilecek	-11.3288
des	-11.3289
▁budur	-11.329
▁rota	-11.329
▁yorul	-11.3291
hayat	-11.3291
▁sağlam	-11.3292
▁ayna	-11.3293
▁özay	-11.3295
▁abdden	-11.33
▁hamdi	-11.3304
ahmet	-11.331
▁sürekli	-11.3316
vit	-11.3323
▁sinirlen	-11.3328
şükran	-11.333
▁tüf	-11.3333
▁tüt	-11.3334
▁dayan	-11.3336
77	-11.3339
hr	-11.3342
▁değiştirilme	-11.3344
▁doğuş	-11.3347
▁sever	-11.3351
▁dinç	-11.3355
▁altında	-11.3356
▁misyon	-11.3356
▁kapla	-11.3359
▁bitirdi	-11.3362
▁ner	-11.3364
▁uzer	-11.3371
▁etmesi	-11.3373
▁bölümü	-11.3373
▁sakatlan	-11.3381
halk	-11.3383
▁yumruk	-11.3385
▁yasakla	-11.3386
tırma	-11.3391
▁diyet	-11.3392
▁mıdır	-11.3394
▁87	-11.3396
zo	-11.3405
lerinden	-11.3406
▁santral	-11.3407
masi	-11.3417
▁karşılanma	-11.3425
▁bostan	-11.3427
▁abdülkadir	-11.3428
▁dedikodu	-11.3428
▁muhabbet	-11.3428
▁arşiv	-11.3428
▁fındık	-11.3428
▁pentagon	-11.3428
▁17.00	-11.3428
▁mağara	-11.3428
▁tezgah	-11.3428
▁Word	-11.3428
▁balkon	-11.3429
▁1992	-11.3429
▁2017	-11.3432
▁devral	-11.3433
git	-11.3439
niversitesi	-11.344
▁izleyen	-11.3441
▁oldular	-11.3448
▁rica	-11.345
▁tutuklanma	-11.3451
▁83	-11.3452
▁gri	-11.3453
▁sergen	-11.3453
▁duruyor	-11.3454
▁diyorum	-11.3457
bert	-11.3457
▁okudu	-11.3462
▁darp	-11.3465
sade	-11.3466
▁scott	-11.3467
▁karşılaşacak	-11.3469
▁ulusoy	-11.347
▁erhan	-11.3473
ınız	-11.3478
▁çıkan	-11.3478
▁ettiğini	-11.3479
▁nehir	-11.348
▁tuğba	-11.3482
▁ikiz	-11.3484
88	-11.3487
diklerini	-11.3488
nem	-11.3492
uruldu	-11.3494
genç	-11.3495
ala	-11.3502
▁130	-11.3507
gg	-11.351
▁çocukları	-11.351
▁gözü	-11.3526
▁talih	-11.3528
▁yaşar	-11.3533
▁örtü	-11.3539
arım	-11.3541
▁kayna	-11.3544
▁değişti	-11.3544
▁mana	-11.3546
teri	-11.3547
▁sunuldu	-11.3559
▁750	-11.3562
▁olabil	-11.3563
▁desteklenme	-11.3564
▁motivasyon	-11.3573
▁çikolata	-11.3573
▁şeffaf	-11.3573
▁gurbet	-11.3573
▁gürbüz	-11.3573
▁tedirgin	-11.3573
▁ekmeğ	-11.3573
▁hırvatistan	-11.3573
▁operatör	-11.3573
▁kandil	-11.3574
▁gürkan	-11.3574
▁rizespor	-11.3575
▁kaos	-11.3576
▁dunya	-11.3577
▁mutluyum	-11.3577
kes	-11.3577
▁istemiyoruz	-11.3579
meye	-11.3579
▁gele	-11.3581
pol	-11.3582
▁güngör	-11.3582
▁kuşat	-11.3583
▁hollandalı	-11.3583
▁poster	-11.3583
latif	-11.3586
madığını	-11.3588
abilirler	-11.3591
▁tbmmye	-11.3592
bro	-11.3592
▁papa	-11.3593
▁olmalıdır	-11.3594
ford	-11.3602
▁gec	-11.3602
sizlik	-11.3603
▁giren	-11.3608
yağı	-11.361
▁süs	-11.3612
100	-11.3623
mıyoruz	-11.3624
▁batılı	-11.3629
▁--	-11.363
▁leyla	-11.3632
▁mevkii	-11.3639
ix	-11.3639
illa	-11.364
▁tarife	-11.3642
▁ulke	-11.3644
▁bileşi	-11.3648
mut	-11.3649
66	-11.365
▁71	-11.3652
▁tüsiad	-11.3655
▁bosna	-11.3656
▁geçer	-11.3657
▁yar	-11.3661
ona	-11.3664
▁gelmiş	-11.3673
ciler	-11.3679
hir	-11.3684
shi	-11.3685
gra	-11.3703
▁zekeriya	-11.372
▁nihayet	-11.372
▁club	-11.372
▁Windows	-11.372
▁patates	-11.372
▁mafya	-11.3721
▁nobel	-11.3722
▁kemalpaşa	-11.3722
▁bayraktar	-11.3723
▁akdoğan	-11.3723
▁duyuyorum	-11.3724
▁karargah	-11.3724
layan	-11.3725
41	-11.3726
tina	-11.3727
▁albayrak	-11.3727
▁kurultay	-11.3729
▁beko	-11.3732
▁(1	-11.3733
▁ozan	-11.3737
▁cerrahi	-11.3737
▁beyoğlu	-11.3737
▁gideril	-11.3738
siyon	-11.3741
▁besin	-11.3746
▁gala	-11.3748
▁taşınma	-11.3749
key	-11.3753
nacak	-11.3754
seç	-11.3755
▁aldılar	-11.3767
ürü	-11.3767
star	-11.3767
▁bulunacak	-11.3772
▁kah	-11.3775
▁kom	-11.3778
▁bağışla	-11.378
emeyecek	-11.378
sc	-11.3786
tuğ	-11.3788
▁pasta	-11.3791
▁sanal	-11.3792
ene	-11.3795
▁caz	-11.3796
▁burada	-11.3799
mız	-11.38
ılabilir	-11.3802
▁sto	-11.3803
tas	-11.3804
▁bulunuldu	-11.3808
▁başrol	-11.381
▁youtube	-11.3812
▁bayi	-11.3812
ele	-11.3824
▁dönemde	-11.383
ysa	-11.3839
▁buhar	-11.3841
rik	-11.3841
▁daum	-11.3844
mun	-11.3845
▁oba	-11.3853
▁mavili	-11.3854
▁geldim	-11.3857
56	-11.3862
▁planlıyor	-11.3863
▁gelmedi	-11.3863
▁tekin	-11.3865
▁dönüştü	-11.3866
▁mensubu	-11.3869
▁müebbet	-11.3869
▁nezdinde	-11.3869
▁rap	-11.3869
▁uludağ	-11.387
▁şirin	-11.387
▁muhafazakar	-11.387
▁emrah	-11.387
▁çukurova	-11.387
▁tebliğ	-11.3871
▁dindar	-11.3871
▁bucaspor	-11.3871
▁devredil	-11.3872
▁milletvekilliği	-11.3872
▁periyot	-11.3872
mamalı	-11.3872
tion	-11.3873
▁demek	-11.3874
▁plak	-11.3875
▁yayınevi	-11.3876
▁kerim	-11.3876
▁yıldır	-11.3878
▁3-4	-11.3878
▁eliyle	-11.3879
arka	-11.3879
▁bilal	-11.388
▁kirli	-11.3883
mışlardır	-11.3885
▁ceviz	-11.3885
▁fed	-11.3887
cel	-11.3889
▁sındır	-11.3892
▁kerem	-11.39
▁doldur	-11.3909
şah	-11.3914
▁şike	-11.3917
▁yang	-11.3917
üş	-11.3919
▁finali	-11.3922
▁ettiği	-11.3925
▁kadınlar	-11.3925
▁ortada	-11.3925
58	-11.3933
▁bra	-11.3934
maç	-11.3936
anne	-11.3938
▁katılıyor	-11.394
cağ	-11.3949
▁shi	-11.395
▁aradı	-11.3961
gor	-11.3967
▁vermiş	-11.3971
ılamadı	-11.3972
▁olsa	-11.3975
mail	-11.3976
mişler	-11.3986
has	-11.3988
▁krem	-11.4001
▁sek	-11.4005
tro	-11.4016
▁ker	-11.4019
▁faşist	-11.4021
▁nijerya	-11.4021
▁çalımbay	-11.4021
▁anlaşmazlık	-11.4021
▁azınlık	-11.4021
▁basamak	-11.4021
▁izlenim	-11.4021
▁yasemin	-11.4021
▁kırıkkale	-11.4021
▁klima	-11.4021
▁hel	-11.4022
eceğini	-11.4022
▁balbay	-11.4023
▁turgay	-11.4023
▁ihanet	-11.4024
▁1960	-11.4024
affer	-11.4025
lanması	-11.4028
▁ronaldo	-11.4029
▁bakkal	-11.4033
▁öteki	-11.4034
▁hasılat	-11.4034
▁gerçi	-11.4037
landırdı	-11.4039
rezervasyon	-11.4041
▁gözyaşı	-11.4045
indedir	-11.4051
▁paha	-11.4054
▁havayo	-11.4055
▁olmuyor	-11.4065
▁yedi	-11.4068
vel	-11.4069
▁ispat	-11.4073
Ma	-11.4076
anlar	-11.4079
▁çalışacağız	-11.4079
işi	-11.4084
kır	-11.4084
▁06	-11.4092
▁saptan	-11.4092
▁fır	-11.4095
▁nice	-11.4099
▁alper	-11.4105
hut	-11.4106
dak	-11.4107
▁çat	-11.4109
▁tekme	-11.411
det	-11.411
lah	-11.4111
▁görür	-11.4112
▁alınıyor	-11.4112
▁özle	-11.4122
▁kort	-11.4135
ska	-11.4144
ting	-11.4155
▁cerrah	-11.4157
▁yapmak	-11.4163
▁nitelendir	-11.4165
▁liberal	-11.4168
▁irtibat	-11.4175
▁kahramanmaraş	-11.4175
▁taahhüt	-11.4175
▁thomas	-11.4175
▁tişört	-11.4175
▁unakıtan	-11.4175
▁çelebi	-11.4175
▁ferrari	-11.4175
▁kobani	-11.4175
▁gereksinim	-11.4175
▁rtük	-11.4175
▁bedava	-11.4175
▁hormon	-11.4175
kaç	-11.4175
▁cnn	-11.4175
▁yayılma	-11.4175
▁korsan	-11.4176
▁sulh	-11.4176
▁sıçra	-11.4176
▁şengül	-11.4177
▁çerçevesinde	-11.4179
▁bakteri	-11.418
▁balık	-11.4183
kil	-11.4185
▁keskin	-11.4185
Ba	-11.4189
diye	-11.4191
▁buluyor	-11.4191
▁harun	-11.4196
cre	-11.4205
cek	-11.4212
▁latin	-11.4218
▁ilham	-11.4224
▁tim	-11.4226
▁aksiyon	-11.4236
▁festivalde	-11.4244
▁stadı	-11.4247
▁bakır	-11.4248
▁usulü	-11.4251
fr	-11.4267
aile	-11.4281
inden	-11.4285
▁sır	-11.429
▁hattı	-11.429
iyim	-11.4293
▁yüzey	-11.4295
▁özge	-11.4297
bin	-11.4299
mişlerdir	-11.4311
▁dağıtıldı	-11.4317
52	-11.4322
enerbahçe	-11.4327
▁chelsea	-11.4331
▁galiba	-11.4331
▁travma	-11.4331
▁protein	-11.4331
▁Sarı	-11.4331
▁cenevre	-11.4331
▁vapur	-11.4331
▁parmağ	-11.4331
▁dubai	-11.4331
▁çapraz	-11.4331
▁çelişki	-11.4331
▁kumaş	-11.4332
▁felç	-11.4332
▁enkaz	-11.4332
▁zanned	-11.4332
▁görüyorum	-11.4333
▁üzüm	-11.4334
▁portal	-11.4335
▁sanatsever	-11.4335
tv	-11.4341
doğu	-11.4346
▁patent	-11.435
fak	-11.4357
▁dikili	-11.436
▁sonunda	-11.4362
ob	-11.4366
▁yandaş	-11.4367
▁çile	-11.4369
▁düşür	-11.4369
▁yetiştiril	-11.4371
▁ersan	-11.4374
▁calis	-11.4375
▁hedefliyor	-11.4378
ilmez	-11.4381
▁çalışıyorlar	-11.4386
kale	-11.4403
alp	-11.4409
▁sürüklen	-11.4414
mes	-11.4421
▁aut	-11.4426
▁idi	-11.443
▁ney	-11.4431
▁bilge	-11.4443
▁düğme	-11.4446
bı	-11.4447
▁koz	-11.4447
arız	-11.445
-8	-11.445
lim	-11.4455
nabilir	-11.4463
▁nadir	-11.4465
▁duyar	-11.4466
▁82	-11.4471
gazi	-11.4477
akp	-11.4479
▁19.	-11.4481
▁öcal	-11.4482
▁91	-11.4488
▁gövde	-11.449
▁tübitak	-11.449
▁chavez	-11.449
▁diego	-11.449
▁okyay	-11.449
yorum	-11.449
▁kerry	-11.449
EDE	-11.449
▁şifa	-11.4491
▁prensip	-11.4491
▁tatmin	-11.4492
▁konuşmasında	-11.4492
▁sabancı	-11.4493
▁güçlen	-11.4496
▁tasarlan	-11.4496
▁tarımsal	-11.4497
ello	-11.4498
▁karataş	-11.4498
▁evvel	-11.4498
▁haberdar	-11.4499
▁yayınlandı	-11.4501
▁destan	-11.4502
▁güçlendirilme	-11.4502
▁edilmektedir	-11.4506
▁orduspor	-11.4507
’’	-11.451
▁der	-11.4513
73	-11.4514
▁edilen	-11.4515
özü	-11.4518
telefon	-11.4521
amazsınız	-11.4521
▁hamas	-11.4524
sman	-11.4527
▁toplanma	-11.4533
▁zorunda	-11.4537
▁böylece	-11.4544
yük	-11.4545
iang	-11.4547
gir	-11.4549
▁sağlanacak	-11.4551
çık	-11.4555
▁once	-11.4568
rid	-11.4573
lıydı	-11.4575
▁şüphelen	-11.4578
▁kese	-11.4587
ruk	-11.4589
rol	-11.4592
▁çarpış	-11.4599
rul	-11.4599
çam	-11.4599
▁ısın	-11.4603
▁caner	-11.4607
▁ismi	-11.4608
▁gösterildi	-11.4614
▁yıldön	-11.4625
yun	-11.4631
hisar	-11.4632
gur	-11.4634
lls	-11.4636
▁kullanılıyor	-11.4638
▁bilen	-11.4644
sis	-11.4648
bre	-11.4648
▁karikatür	-11.4651
▁lojman	-11.4651
▁tüpraş	-11.4651
▁diktatör	-11.4651
▁intikam	-11.4651
▁aptal	-11.4651
▁afyon	-11.4652
▁buçuk	-11.4652
▁izzet	-11.4652
▁rahmi	-11.4653
▁sonbahar	-11.4653
▁ciddiyet	-11.4654
▁1970	-11.4655
▁icraat	-11.4656
▁hazırız	-11.4656
▁üret	-11.4657
▁kargo	-11.4661
▁banyo	-11.4661
▁ziyade	-11.4662
ore	-11.4662
▁carl	-11.4663
▁hazırlanma	-11.4666
▁tümör	-11.4675
▁bilkent	-11.4677
ight	-11.4679
Türkiye	-11.4684
seydi	-11.4693
manın	-11.4695
▁durumu	-11.4697
eti	-11.4697
▁veriyoruz	-11.4708
ER	-11.4709
▁kullanıyor	-11.4712
▁olmadığı	-11.4712
▁kurak	-11.4722
orta	-11.4722
leştirildi	-11.4723
▁soz	-11.4725
▁iflas	-11.4727
▁takı	-11.4728
daydı	-11.4742
▁imzalandı	-11.4749
▁sevgili	-11.4755
▁met	-11.4759
▁harf	-11.476
▁20.00	-11.4761
▁uzan	-11.4773
▁oyuncular	-11.4773
ruh	-11.4779
▁çeyr	-11.478
est	-11.4787
dışı	-11.4789
kap	-11.4792
▁kati	-11.4795
duğunu	-11.4797
▁incelenme	-11.4798
▁ısıt	-11.4804
▁16.00	-11.4806
▁bora	-11.4812
▁rüşt	-11.4813
▁karabük	-11.4814
▁endonezya	-11.4815
▁feribot	-11.4815
▁sendrom	-11.4815
▁kravat	-11.4815
▁fedakar	-11.4815
▁guzel	-11.4815
▁etiket	-11.4816
▁paniğ	-11.4816
▁mitoloji	-11.4817
▁romantik	-11.482
▁69	-11.482
▁görkem	-11.4821
etme	-11.4824
olog	-11.4829
▁sanatkar	-11.483
ilmektedir	-11.483
▁cesur	-11.4836
landırma	-11.4836
▁bono	-11.4837
▁World	-11.4837
tah	-11.4839
▁bulgar	-11.4844
lerara	-11.4847
▁unesco	-11.4847
▁şer	-11.4848
ym	-11.4854
▁idl	-11.4857
yargı	-11.4858
04	-11.4859
▁edebil	-11.4861
▁kutlu	-11.4863
▁olsaydı	-11.4864
▁mir	-11.4873
▁kalır	-11.4879
▁kesi	-11.488
▁vererek	-11.4882
▁türkiyenin	-11.4887
▁fp	-11.4889
▁yapmıştır	-11.4893
▁söndürme	-11.4893
eç	-11.4895
yd	-11.4898
▁maçı	-11.4902
▁kutlan	-11.491
▁istediler	-11.4915
▁bana	-11.4919
ity	-11.4922
▁uğradı	-11.4927
azmi	-11.4928
çay	-11.494
ast	-11.4942
▁soyle	-11.4947
▁92	-11.4949
istik	-11.495
▁hissi	-11.4954
▁uçur	-11.4956
llo	-11.4957
▁96	-11.4958
▁dönüştürül	-11.496
▁konuşuyor	-11.4961
▁uydu	-11.4969
78	-11.4976
ıldığını	-11.4977
▁sün	-11.4978
▁kür	-11.498
▁enfeksiyon	-11.4981
▁kraliçe	-11.4981
▁müşavir	-11.4981
▁ribaund	-11.4981
▁silopi	-11.4981
▁odtü	-11.4981
▁gayrimenkul	-11.4982
▁hüsn	-11.4982
▁kucağ	-11.4982
▁pratik	-11.4982
▁mantar	-11.4983
▁haciz	-11.4983
▁gürsel	-11.4985
▁gsm	-11.4985
▁grip	-11.4988
lanmıştı	-11.4991
▁tahir	-11.4999
▁demiryo	-11.5001
▁solak	-11.5005
süz	-11.5009
51	-11.501
▁yurtiçi	-11.5011
▁karadağ	-11.5012
▁anlamı	-11.5014
hn	-11.5016
▁üssü	-11.5021
▁900	-11.5022
▁nasil	-11.5022
out	-11.5027
▁yapmadı	-11.5027
zan	-11.5029
▁oynayacak	-11.5033
▁işit	-11.5034
▁baran	-11.5035
rız	-11.5041
▁iletiş	-11.5043
▁tarihsel	-11.5044
▁super	-11.5048
▁istemiyor	-11.5051
▁yankı	-11.5053
▁oluşur	-11.5058
▁koyuyor	-11.5065
▁giden	-11.5066
▁gücü	-11.5069
pon	-11.507
▁görüşmede	-11.5071
-18	-11.5073
▁öğreti	-11.5078
cho	-11.5084
▁çalı	-11.5088
çak	-11.5091
ilirk	-11.5091
eyim	-11.5105
▁türkoğlu	-11.5106
eh	-11.5108
rich	-11.5117
▁abdi	-11.5123
cra	-11.5123
▁kaydı	-11.5123
sky	-11.513
ındadır	-11.5131
▁evlen	-11.5137
▁birbirleri	-11.5144
▁kala	-11.5148
▁sarkozy	-11.5149
▁ambalaj	-11.5151
▁britanya	-11.5151
▁gecekondu	-11.5151
▁kerkük	-11.5151
▁reuters	-11.5151
▁seçeneğ	-11.5151
▁dayanıklı	-11.5151
▁nakledil	-11.5151
▁yeryüzü	-11.5151
maksimum	-11.5151
▁sönmez	-11.5151
▁belirtilirken	-11.5151
▁kuzeydoğu	-11.5153
▁senato	-11.5153
ılmaktadır	-11.5153
▁bedensel	-11.5155
▁figür	-11.5155
▁kaçağı	-11.5155
▁yumuşak	-11.5156
▁mail	-11.5156
▁kumar	-11.5156
▁daniel	-11.5157
▁sabot	-11.5158
▁karışık	-11.5158
▁hamur	-11.5158
▁ds	-11.516
▁atay	-11.5161
atif	-11.5162
▁halim	-11.5162
▁akif	-11.5163
▁tutun	-11.5164
▁kaynaklar	-11.5165
▁dondurma	-11.5167
▁isteniyor	-11.5169
bü	-11.517
▁karsi	-11.517
▁alçak	-11.5174
▁kapatıldı	-11.5175
▁cıa	-11.5177
▁surat	-11.5178
▁18.00	-11.5178
▁kanama	-11.5179
▁akpye	-11.5185
Sa	-11.5186
▁değiştirdi	-11.5192
▁gr	-11.5194
▁kobi	-11.5195
cer	-11.5196
▁sayısal	-11.5196
▁önerdi	-11.5198
etti	-11.5199
hit	-11.5202
ndığını	-11.5204
amerika	-11.5207
savaş	-11.5208
▁dikkatini	-11.5211
▁gittim	-11.5212
▁çarpıştı	-11.5215
▁başlığı	-11.5216
▁kek	-11.522
tetik	-11.5221
oc	-11.5228
▁yorumla	-11.5229
▁arkadaşı	-11.5231
▁dilim	-11.5235
▁97	-11.5237
▁kilis	-11.5245
▁1-	-11.5248
▁rant	-11.5254
▁pes	-11.5258
▁öngörülüyor	-11.526
tam	-11.526
▁vas	-11.5261
▁ag	-11.5271
▁sabr	-11.5273
▁cop	-11.528
▁çar	-11.5284
▁turne	-11.5286
▁88	-11.5287
▁vefa	-11.5289
▁namus	-11.529
▁yazıda	-11.5297
gr	-11.5299
▁annesi	-11.5301
▁tekno	-11.5301
▁bant	-11.5307
▁nitele	-11.5314
memişti	-11.5319
▁zehirlen	-11.5319
▁chirac	-11.5323
▁muhtaç	-11.5323
▁oksijen	-11.5323
▁cüzdan	-11.5323
▁keşfed	-11.5323
▁Diyarbakırspor	-11.5323
▁michel	-11.5323
▁söylenti	-11.5324
▁yüzük	-11.5324
▁hamburg	-11.5324
▁gömlek	-11.5324
▁kuzeybatı	-11.5324
▁tokyo	-11.5324
▁ikramiye	-11.5325
▁korkmaz	-11.5327
▁söyleniyor	-11.5329
▁helal	-11.533
▁terörizm	-11.533
▁hamam	-11.5331
▁tayland	-11.5332
ano	-11.5332
dedi	-11.5332
▁günaydın	-11.5334
▁aydınlık	-11.5336
▁iletil	-11.5342
▁dokunulmaz	-11.5342
▁link	-11.5345
▁tork	-11.5347
doğan	-11.5349
▁fare	-11.5351
▁cihat	-11.5352
kendi	-11.5354
ius	-11.5357
▁tabir	-11.5358
yarı	-11.536
▁pres	-11.5363
▁söyl	-11.5374
uş	-11.5377
▁çıkmıştı	-11.5378
▁saz	-11.5381
▁pr	-11.5383
▁bari	-11.5389
takım	-11.5389
larıdır	-11.5391
▁chpye	-11.5394
▁mis	-11.5395
jan	-11.5395
▁tayin	-11.5397
kadın	-11.5397
▁dvd	-11.54
lıkları	-11.5401
▁ulusu	-11.5404
▁pla	-11.5407
sson	-11.5414
▁olgu	-11.5414
ish	-11.5423
▁jac	-11.5425
▁kesildi	-11.5426
▁mevkiin	-11.5433
sinler	-11.5442
ui	-11.5455
▁fonksiyon	-11.5455
yana	-11.5457
▁450	-11.5457
▁şerid	-11.5462
▁yapılması	-11.5463
▁çocuklar	-11.5475
▁denetle	-11.5479
▁olursa	-11.5484
▁olsay	-11.5487
larak	-11.5493
▁casus	-11.5493
▁kg	-11.5494
▁14.00	-11.5496
ılan	-11.5497
▁finlandiya	-11.5499
▁objektif	-11.5499
▁barzani	-11.5499
▁ısparta	-11.5499
▁bereket	-11.5499
▁tunus	-11.5499
▁şafak	-11.5499
▁taslak	-11.5499
▁özkök	-11.5499
▁sloganı	-11.5499
▁zihinsel	-11.5499
▁usame	-11.55
lacivertli	-11.55
▁yaptığı	-11.55
▁magazin	-11.55
▁band	-11.5501
▁gömül	-11.5503
▁unutmayın	-11.5503
▁fırın	-11.5503
▁ıslah	-11.5503
▁nakliye	-11.5504
▁alabil	-11.5504
▁koçak	-11.5504
▁baska	-11.5507
▁ysk	-11.5507
▁dündar	-11.5508
ami	-11.5509
▁taktir	-11.5513
▁cahil	-11.5514
▁ihtimal	-11.5515
▁beslen	-11.5517
▁mahallesi	-11.552
▁yeraltı	-11.5527
▁gülümse	-11.5528
tch	-11.5535
▁gerekmektedir	-11.5537
▁eşek	-11.5538
▁180	-11.5538
▁iptali	-11.5539
2)	-11.5543
hay	-11.5545
▁ünsal	-11.5551
lüğü	-11.5555
uydu	-11.5556
beyazlılar	-11.5571
▁telefonu	-11.5573
▁döner	-11.5575
▁yapılırken	-11.5575
ımı	-11.5576
ade	-11.5579
▁kullanıl	-11.5584
▁jose	-11.5585
ves	-11.5585
▁öden	-11.5587
▁dera	-11.5593
hep	-11.5596
poli	-11.5608
▁gösterir	-11.561
▁boğa	-11.5616
▁evlad	-11.5616
▁tıklay	-11.5623
▁daral	-11.5624
▁müz	-11.5629
500	-11.563
▁bayıl	-11.563
▁faz	-11.5631
şen	-11.565
kos	-11.5654
▁barın	-11.5659
lenirken	-11.5668
▁yama	-11.567
▁mahmud	-11.5677
▁arıyor	-11.5677
▁iktisadi	-11.5677
▁konsept	-11.5677
▁kılavuz	-11.5677
▁sempozyum	-11.5677
▁üsküdar	-11.5677
▁senfoni	-11.5677
▁online	-11.5677
▁kavşak	-11.5677
▁monica	-11.5677
▁gercek	-11.5678
▁gerilla	-11.5678
▁bozulma	-11.5678
▁şapka	-11.5678
▁estetik	-11.5678
▁amacıyla	-11.5679
▁karagöz	-11.568
▁alınırken	-11.568
▁hedefliyoruz	-11.568
▁bekliyorum	-11.5682
▁demirören	-11.5683
larından	-11.5685
lerdi	-11.5687
▁king	-11.5687
meyiz	-11.569
▁tahra	-11.5692
▁nusra	-11.5692
fre	-11.5692
▁gerektiğini	-11.5693
▁örgütü	-11.5694
yılmaz	-11.5694
▁farklı	-11.5694
▁taşındı	-11.5695
▁muhafaza	-11.5699
▁yana	-11.5701
▁edilerek	-11.5702
dow	-11.5704
iv	-11.5705
eceği	-11.5709
ençlerbir	-11.571
▁tlye	-11.5712
açık	-11.5723
ons	-11.5723
▁inek	-11.5723
▁yöneltil	-11.5734
hattin	-11.5736
muz	-11.5739
likleri	-11.574
▁sapta	-11.5748
yönet	-11.575
▁madem	-11.5755
▁alıyoruz	-11.5773
▁bık	-11.5778
luyor	-11.5778
bm	-11.5779
pen	-11.5787
▁midir	-11.5787
▁kaldım	-11.5791
▁10.00	-11.5791
aka	-11.5794
▁ediyordu	-11.5796
rut	-11.5797
▁jon	-11.58
mann	-11.5803
mba	-11.5803
▁sakın	-11.5805
▁şirketi	-11.5805
▁sağlandı	-11.5805
▁kos	-11.5811
▁değişiklik	-11.5816
▁79	-11.582
▁türker	-11.5823
büt	-11.5824
▁doy	-11.5826
low	-11.5832
▁ölç	-11.5837
▁açıklama	-11.5837
▁denizli	-11.5837
▁kayboldu	-11.5849
▁çıkmış	-11.5849
med	-11.5851
▁kafkas	-11.5855
▁üyesi	-11.5857
▁varil	-11.5857
▁berlusconi	-11.5859
▁mutabakat	-11.5859
▁referans	-11.5859
▁tevfik	-11.5859
▁cezire	-11.5859
▁meşhur	-11.5859
▁maymun	-11.5859
▁tavşan	-11.5859
▁antlaşma	-11.5859
▁havza	-11.586
▁gökalp	-11.586
▁eroin	-11.586
▁denktaş	-11.586
▁hibe	-11.5861
▁kaydettiler	-11.5861
▁intikal	-11.5861
▁selvi	-11.5861
▁evrensel	-11.5863
▁normalde	-11.5864
▁sinop	-11.5864
▁çelenk	-11.5866
▁cenk	-11.5867
▁akgün	-11.5871
▁topbaş	-11.5871
▁eksen	-11.5873
▁malum	-11.5876
▁güzelbahçe	-11.5877
ox	-11.5877
▁çıkış	-11.5878
▁tıkan	-11.5878
▁cafe	-11.5882
▁bı	-11.5883
▁bizans	-11.5883
itz	-11.5883
1)	-11.5886
▁tabiat	-11.5886
▁mont	-11.5888
▁kısmen	-11.5892
▁bölgesi	-11.5898
uf	-11.5903
▁donanma	-11.5909
▁kev	-11.591
▁pazarlama	-11.5912
▁programı	-11.5915
tkı	-11.5922
▁93	-11.5935
yalım	-11.5946
▁mantığ	-11.5948
▁varken	-11.5951
sakınca	-11.5954
▁yanıl	-11.5954
iti	-11.5955
eceksiniz	-11.5956
▁adamı	-11.596
▁dj	-11.5961
ere	-11.5964
▁bon	-11.5966
▁olanı	-11.597
▁erman	-11.597
▁ölümü	-11.5974
▁odası	-11.5977
▁başlamıştı	-11.5978
şeh	-11.598
▁hami	-11.5985
▁yağma	-11.5991
hou	-11.5993
lanırken	-11.5993
▁leke	-11.5997
▁hiz	-11.5997
▁partisi	-11.5999
▁ekim	-11.5999
▁E	-11.6004
fire	-11.6007
liydi	-11.6009
▁çocuğu	-11.6014
▁elmas	-11.602
mos	-11.6021
▁je	-11.6023
▁kullanan	-11.6028
▁ekipman	-11.6028
.’’	-11.603
miyordu	-11.603
▁mutlak	-11.6033
▁trakya	-11.6034
mesidir	-11.6038
ung	-11.6041
▁kucak	-11.6043
▁çeçen	-11.6044
uharrem	-11.6044
▁bilirkişi	-11.6044
▁frankfurt	-11.6044
▁pantolon	-11.6044
▁poşet	-11.6044
▁rütbe	-11.6044
▁antonio	-11.6044
▁bandırma	-11.6044
▁süreyya	-11.6044
▁brown	-11.6044
▁mutsuz	-11.6045
▁idris	-11.6045
▁kordon	-11.6045
▁tuhaf	-11.6045
▁tersane	-11.6045
▁berber	-11.6045
▁kişinin	-11.6046
▁daily	-11.6046
▁puro	-11.6046
▁ığdır	-11.6046
leridir	-11.6046
▁yuvarlak	-11.6046
▁mağduriyet	-11.6047
▁saka	-11.6048
▁johnson	-11.6048
▁söylüyorum	-11.6049
▁dershane	-11.605
▁osmaniye	-11.605
▁kostüm	-11.605
burg	-11.6052
▁sonucunda	-11.6052
nak	-11.6057
▁başroller	-11.6058
fat	-11.6058
▁08	-11.6058
▁indi	-11.6059
▁kopya	-11.6062
▁cild	-11.6069
era	-11.607
▁zen	-11.6078
▁canavar	-11.6081
yebilir	-11.6084
gır	-11.6088
-30	-11.6092
dil	-11.6094
deyim	-11.6096
▁sürerken	-11.6097
▁sonuçlandı	-11.6097
▁anayasal	-11.6107
tl	-11.6108
▁artırdı	-11.6109
▁damla	-11.6109
▁derya	-11.6115
▁yil	-11.6119
▁bilmiyor	-11.6119
bazı	-11.6123
tap	-11.6124
nü	-11.6127
masının	-11.6128
yaklaşık	-11.6131
▁sökül	-11.6141
yazı	-11.6141
▁xx	-11.6145
col	-11.6147
cilik	-11.6148
tacağız	-11.6148
▁imra	-11.6151
▁mars	-11.6152
meleri	-11.6161
▁che	-11.6163
pat	-11.6166
▁protokolü	-11.6169
▁safi	-11.617
▁twitterda	-11.617
▁koştu	-11.6173
▁bakın	-11.618
zam	-11.6186
▁yuz	-11.6189
tigi	-11.6203
parti	-11.6207
▁başvurul	-11.6211
▁kalmış	-11.6213
▁ordusu	-11.6213
kti	-11.6222
▁rehin	-11.6222
çek	-11.6223
▁zar	-11.6227
▁terbiye	-11.6233
▁çankırı	-11.6233
▁favori	-11.6233
▁fıkra	-11.6233
▁komando	-11.6233
▁piyango	-11.6233
▁piyanist	-11.6233
▁senarist	-11.6233
▁tuğgeneral	-11.6233
▁çekirdek	-11.6233
▁abluka	-11.6233
▁provok	-11.6233
▁taklit	-11.6233
▁bayern	-11.6233
▁shanghai	-11.6233
▁vagon	-11.6233
▁montaj	-11.6234
▁devriye	-11.6235
▁kavur	-11.6235
▁asılsız	-11.6236
▁terzi	-11.6236
▁zorundadır	-11.6236
▁demeçte	-11.6236
▁seferber	-11.6237
▁hapishane	-11.6237
▁süsle	-11.6238
▁özgüven	-11.6239
▁solist	-11.624
▁gore	-11.624
▁seviyorum	-11.6241
▁basket	-11.6241
▁avni	-11.6243
▁esir	-11.6243
▁garson	-11.6244
▁tosun	-11.625
▁öğrendim	-11.6251
▁isterim	-11.6252
▁seba	-11.6254
sav	-11.6257
sur	-11.6259
KA	-11.6261
mit	-11.6269
amıyoruz	-11.6271
mişlerdi	-11.6273
▁çevirdi	-11.6274
▁ihtimalle	-11.6275
▁oluruz	-11.6278
ilip	-11.628
▁balo	-11.6282
saf	-11.6283
▁istiyordu	-11.6289
mir	-11.629
▁vo	-11.629
zin	-11.6294
▁atlas	-11.6295
masına	-11.6305
▁makul	-11.6308
emiyorum	-11.6308
▁edecektir	-11.6311
▁bastı	-11.6311
▁erecek	-11.6311
ola	-11.6314
▁çıkmadı	-11.6321
yeşil	-11.6327
beşiktaş	-11.6327
yabilir	-11.633
mışlardı	-11.6331
▁kazak	-11.6335
rie	-11.6338
▁erdoğanın	-11.6341
▁99	-11.6342
▁ulaşım	-11.6346
4)	-11.6347
▁çeviri	-11.6348
bes	-11.635
bis	-11.635
▁dip	-11.6357
▁donatıl	-11.6359
▁kün	-11.6361
▁polisi	-11.6362
▁olanlar	-11.6363
▁ürünleri	-11.6366
lanan	-11.6366
▁kavuştu	-11.6368
▁evlendi	-11.6369
▁god	-11.637
▁temizlen	-11.6371
▁gayri	-11.6379
▁ertelenme	-11.6383
eceg	-11.6384
▁pak	-11.6385
▁gö	-11.6385
▁türkan	-11.6388
▁halkı	-11.6391
▁posta	-11.6392
yasa	-11.6394
▁yaşadık	-11.6396
3)	-11.6402
▁azaldı	-11.6407
lıklar	-11.6416
kov	-11.6419
▁eğit	-11.6419
▁deve	-11.6422
▁charles	-11.6425
▁kastamonu	-11.6425
▁sovyet	-11.6425
▁toyota	-11.6425
prestij	-11.6425
▁grafik	-11.6425
▁karaburun	-11.6425
▁kuaför	-11.6425
▁şehid	-11.6425
▁dgm	-11.6425
▁stoper	-11.6426
▁merve	-11.6426
▁güneybatı	-11.6426
▁acele	-11.6426
▁bektaş	-11.6427
▁judo	-11.6427
▁viyana	-11.6427
rettin	-11.6427
▁efsanevi	-11.6427
▁savrul	-11.6428
sil	-11.6428
▁saptandı	-11.6428
▁yenimahalle	-11.6429
▁golünü	-11.6429
▁esnek	-11.6429
▁erciyes	-11.643
▁sayesinde	-11.6433
▁sırp	-11.6433
▁adanaspor	-11.6434
▁selçuklu	-11.6435
.45	-11.6438
▁aslında	-11.6439
▁akıntı	-11.644
hı	-11.6447
▁oynarken	-11.6447
▁cehennem	-11.6452
▁tahrik	-11.6452
▁edilmiş	-11.6452
skişehirspo	-11.6457
▁ile	-11.646
▁yıkım	-11.646
▁nedenle	-11.6465
madığı	-11.6467
şak	-11.6471
▁azı	-11.6478
▁elvan	-11.6483
hl	-11.6488
rlar	-11.6488
▁bob	-11.6494
bon	-11.6498
▁gelmesi	-11.6499
▁fiş	-11.6501
öğret	-11.6517
ayni	-11.6525
gerçek	-11.6529
erkek	-11.653
güzel	-11.653
fenerbahçe	-11.653
▁Win	-11.6536
▁getirir	-11.6539
▁olmasın	-11.6542
▁yapılan	-11.6542
▁***	-11.6542
▁çalışma	-11.6544
tif	-11.6544
▁kaldık	-11.6546
yy	-11.6547
▁santrali	-11.6549
▁kaybetmişti	-11.6549
afiyet	-11.6551
▁ısır	-11.6553
▁yapılmıştır	-11.6553
▁ör	-11.6559
▁talebi	-11.6561
nden	-11.6562
▁tamer	-11.6565
▁yüzme	-11.6566
ğını	-11.6567
▁ederler	-11.6568
▁ört	-11.6573
dun	-11.6575
▁3-1	-11.6579
çağ	-11.6579
▁öd	-11.6583
▁girmesi	-11.6591
▁mö	-11.6592
▁suçlaması	-11.6594
▁zanlı	-11.6596
▁fı	-11.6597
agi	-11.6598
alatasaray	-11.6616
set	-11.6617
▁alaçatı	-11.6621
▁başantrenör	-11.6621
▁karmaşık	-11.6621
▁lojistik	-11.6621
▁çember	-11.6621
▁şölen	-11.6621
▁kasıt	-11.6621
▁lastik	-11.6622
▁bilinir	-11.6622
▁homs	-11.6622
▁bozkurt	-11.6622
▁harici	-11.6622
▁kanuni	-11.6623
dev	-11.6624
▁gölbaşı	-11.6624
▁gaziantepspo	-11.6624
▁1982	-11.6624
▁çakmak	-11.6625
▁mülkiyet	-11.6625
▁sansür	-11.6625
▁yoğurt	-11.6625
▁samsunspor	-11.6627
▁denizaltı	-11.6627
uyorlar	-11.6628
▁ödev	-11.6628
▁kontrollü	-11.6628
▁çıray	-11.6629
▁hadise	-11.6632
▁nesne	-11.6632
▁double	-11.6635
▁özver	-11.6636
▁döktü	-11.6638
▁şe	-11.6641
▁yıldönüm	-11.6642
ardı	-11.6644
nat	-11.6645
▁golf	-11.6652
atılım	-11.6653
olay	-11.6659
▁104	-11.6659
▁hz	-11.6666
▁yamaç	-11.6669
▁önemse	-11.6673
ars	-11.6675
iran	-11.6677
▁başladım	-11.6677
▁160	-11.6678
hel	-11.6678
▁steve	-11.6683
okul	-11.6684
alan	-11.6685
▁yapılmadı	-11.6685
uştur	-11.6687
▁çifti	-11.6691
▁atandı	-11.6701
▁kuşağ	-11.6703
▁doğrula	-11.6704
yacağım	-11.671
‘‘	-11.6715
yok	-11.6722
öğretim	-11.6723
▁başlatılma	-11.6732
sd	-11.6735
▁4.5	-11.6737
▁iranlı	-11.674
▁vardir	-11.6741
malarda	-11.6743
iki	-11.6745
62	-11.6754
▁pre	-11.6758
▁gündoğ	-11.6759
düz	-11.6761
▁ödene	-11.6762
▁sars	-11.6764
▁yanında	-11.6766
▁anımsat	-11.6782
landırılma	-11.6788
▁periyod	-11.6791
ladım	-11.6795
anti	-11.6796
viz	-11.68
▁kate	-11.6806
▁gole	-11.6809
▁myk	-11.6812
▁13.00	-11.6818
▁bag	-11.6819
▁vahşi	-11.682
▁atletico	-11.6821
▁hacettepe	-11.6821
▁jiabao	-11.6821
▁kolombiya	-11.6821
▁ceyhun	-11.6821
▁iktisat	-11.6821
▁cizre	-11.6821
▁katolik	-11.6821
▁makyaj	-11.6822
▁yetiştirici	-11.6822
▁kudüs	-11.6822
▁show	-11.6822
▁öğe	-11.6822
▁porno	-11.6822
▁defnedil	-11.6822
▁samimiyet	-11.6822
▁şaban	-11.6822
▁mutluyuz	-11.6823
▁gümüşhane	-11.6823
▁muhammet	-11.6823
▁tütün	-11.6824
▁kahir	-11.6825
rse	-11.6825
zor	-11.6825
▁planlıyoruz	-11.6826
▁blo	-11.6826
▁dun	-11.6827
▁anlayışı	-11.6827
▁nimet	-11.6827
▁inceleme	-11.6829
lacivertliler	-11.683
▁edilemez	-11.683
▁akyüz	-11.6833
tilerek	-11.6833
▁görülür	-11.6833
▁reha	-11.6834
▁sark	-11.6844
▁1.4	-11.6845
lev	-11.6846
▁mod	-11.6846
lıyız	-11.685
▁pkkya	-11.6855
▁tatlı	-11.6856
dürülüyor	-11.6859
▁trend	-11.686
rad	-11.6862
▁talimatı	-11.6862
larini	-11.6863
▁evli	-11.6864
▁hatun	-11.6864
▁almaktadır	-11.6869
cisi	-11.6874
▁çalışıyorum	-11.6874
▁etmiyor	-11.6874
urum	-11.6875
kamış	-11.6876
▁yunanlı	-11.6884
▁akçay	-11.6885
▁parçala	-11.6885
▁taraftarlar	-11.6888
zure	-11.689
▁rumen	-11.6895
ord	-11.6898
▁ky	-11.6898
▁karıştı	-11.6899
pas	-11.6901
▁gelişme	-11.6902
sol	-11.6902
▁golleri	-11.6909
port	-11.6909
▁anabil	-11.6911
ayrı	-11.6913
fal	-11.6913
▁esra	-11.6915
islam	-11.6915
▁besi	-11.6916
ambu	-11.6917
▁doz	-11.6918
▁game	-11.6918
oğul	-11.6921
▁William	-11.6929
▁bölünme	-11.6943
▁çalışması	-11.6947
▁üretme	-11.6949
▁takla	-11.6952
▁devrildi	-11.6955
▁yakınları	-11.6955
▁rolünü	-11.6956
▁küre	-11.6957
▁(3	-11.6959
▁sam	-11.6959
uyla	-11.6961
ena	-11.6963
?..	-11.6964
moon	-11.6966
gele	-11.6966
ıs	-11.6971
▁polisler	-11.6974
▁indirilme	-11.6975
▁çarptırıldı	-11.6976
adam	-11.6976
▁tansu	-11.6977
▁başkanları	-11.6982
▁etmez	-11.6992
fuz	-11.6995
▁hayda	-11.7003
gram	-11.7003
▁pano	-11.7007
▁küs	-11.7007
▁çürü	-11.7012
iydi	-11.7013
▁sergiledi	-11.7018
▁ras	-11.7018
▁heyelan	-11.7025
▁kahkaha	-11.7025
▁manşet	-11.7025
▁muharebe	-11.7025
▁muhasebe	-11.7025
▁parlamenter	-11.7025
▁karpuz	-11.7025
▁manavgat	-11.7025
▁gerets	-11.7026
▁selanik	-11.7026
▁levha	-11.7026
▁kaçınılmaz	-11.7026
▁ferah	-11.7027
▁termal	-11.7027
▁yurtsever	-11.7028
▁sarkozynin	-11.7028
▁metrobüs	-11.7028
▁lif	-11.7028
ülür	-11.7029
▁köksal	-11.7029
▁botaş	-11.7029
▁harbi	-11.703
▁ertelendi	-11.7032
cem	-11.7032
mayız	-11.7033
▁4-5	-11.7033
▁badem	-11.7033
▁kuran	-11.7034
▁davetiye	-11.7034
▁anımsattı	-11.7034
gul	-11.7035
▁pota	-11.7036
▁sekil	-11.7036
▁çatal	-11.7037
▁ihtila	-11.7037
▁aydoğan	-11.7038
memiştir	-11.704
▁zemin	-11.7041
▁yargıç	-11.7041
▁gerçekçi	-11.7041
▁yaşında	-11.7042
▁bardağ	-11.7045
▁türbe	-11.7049
▁takıldı	-11.705
▁tsi	-11.705
vin	-11.705
▁down	-11.7052
diğinde	-11.7053
▁ksk	-11.7055
▁kanada	-11.7058
tos	-11.7063
▁yasaklan	-11.7067
▁kabine	-11.7068
vak	-11.707
▁merhaba	-11.7072
▁beşir	-11.7073
▁kalori	-11.7074
▁restor	-11.7074
ueen	-11.7078
▁bağladı	-11.7081
▁aileleri	-11.7083
-11	-11.7084
erim	-11.7086
▁gizlen	-11.7089
ju	-11.7089
▁verilmedi	-11.7089
▁almadı	-11.709
larinda	-11.7091
afad	-11.7092
ues	-11.7095
ria	-11.7098
far	-11.7101
▁dönüyor	-11.7101
▁sön	-11.7106
▁ayında	-11.7107
▁türü	-11.711
▁girer	-11.7114
▁West	-11.7116
▁aysal	-11.7117
hh	-11.7123
mamıştı	-11.7126
edil	-11.7127
mada	-11.7129
▁skorer	-11.713
ıldığı	-11.7131
fu	-11.7133
uc	-11.7134
row	-11.7134
fil	-11.7141
mel	-11.7146
▁sakinleri	-11.7159
▁emel	-11.7172
▁yapıyorum	-11.7177
▁love	-11.7181
▁uçağı	-11.7183
▁chi	-11.7183
▁kalmıştı	-11.7184
▁mario	-11.7185
▁devril	-11.7187
▁yahu	-11.7187
▁dinledi	-11.7188
mediği	-11.7205
-12	-11.721
▁düşünün	-11.7212
▁kov	-11.7219
▁bah	-11.7226
▁alıp	-11.7227
▁fetih	-11.7234
▁kuveyt	-11.7234
▁mübarek	-11.7234
▁orleans	-11.7234
▁poyraz	-11.7234
▁resepsiyon	-11.7234
▁zürih	-11.7234
▁baygın	-11.7234
▁cüneyt	-11.7234
▁istisna	-11.7234
▁christoph	-11.7234
▁tedarik	-11.7234
▁yepyeni	-11.7234
▁menemen	-11.7234
▁iyimser	-11.7234
▁arsenal	-11.7234
▁lodos	-11.7234
▁adapazarı	-11.7234
▁epey	-11.7234
▁yirmi	-11.7235
▁pikni	-11.7235
▁akbulut	-11.7235
▁menkul	-11.7235
▁libya	-11.7235
▁hemşehri	-11.7235
▁hande	-11.7235
▁ipekçi	-11.7236
▁yaşındayken	-11.7236
▁arapça	-11.7236
▁spoi	-11.7236
▁bulunurken	-11.7237
▁trans	-11.7238
▁tarafindan	-11.7239
▁altındağ	-11.7239
▁hedefleniyor	-11.7241
▁onarım	-11.7241
▁vekalet	-11.7242
▁gezdi	-11.7242
▁stil	-11.7246
yım	-11.7246
▁milas	-11.7247
▁yaraladı	-11.7249
▁olayda	-11.7252
old	-11.7254
▁sök	-11.7255
sv	-11.7255
▁cari	-11.7256
▁varol	-11.7257
▁dağıttı	-11.7262
▁aksaray	-11.7262
▁seviş	-11.7263
teknolojik	-11.7263
▁ınter	-11.7264
▁güçlendirme	-11.7265
▁babası	-11.7266
uyg	-11.7267
ikin	-11.7272
▁balyoz	-11.7275
▁muh	-11.7277
▁abdul	-11.7283
▁abdyi	-11.7286
emeyiz	-11.7288
▁dedik	-11.7292
▁çalışacak	-11.7294
▁tuna	-11.7295
▁hayl	-11.7297
▁komiser	-11.7301
▁hit	-11.7303
▁yaptırdı	-11.7307
sınlar	-11.7308
ılmaz	-11.7311
beni	-11.7311
hor	-11.7312
ito	-11.7314
▁dusun	-11.7326
▁sağlamak	-11.7334
seniz	-11.7339
▁yılbaşı	-11.7341
▁uğurla	-11.7342
▁lanet	-11.7345
naz	-11.7345
▁satılma	-11.7346
siyle	-11.7346
ziyer	-11.7354
ath	-11.7356
▁sıfat	-11.7358
▁alınması	-11.7365
▁boğ	-11.7367
çeşme	-11.7368
▁tümü	-11.7369
lenen	-11.737
▁harp	-11.737
tarih	-11.7376
rım	-11.7378
▁mizah	-11.7387
boy	-11.7389
▁acıma	-11.7394
▁spd	-11.7395
▁nas	-11.7396
▁gil	-11.7396
oba	-11.74
abilecekler	-11.7401
▁chpde	-11.7402
▁selma	-11.7403
▁kucakla	-11.7404
stra	-11.7404
▁oluyoruz	-11.7405
▁Wen	-11.7407
▁seyya	-11.7407
tıp	-11.7409
▁durmuş	-11.741
raz	-11.7411
▁oranı	-11.7414
▁tekn	-11.7416
▁yapalım	-11.7418
▁sk	-11.7422
▁düşünür	-11.7425
yl	-11.7426
▁steph	-11.743
aga	-11.7431
mediler	-11.7432
▁mülk	-11.7432
▁konsol	-11.7438
▁yayımlandı	-11.744
▁bakanlık	-11.744
▁sakinleş	-11.7443
eng	-11.7446
telekomünikasyon	-11.7447
▁edremit	-11.7447
▁guardian	-11.7447
▁kıvanç	-11.7447
▁lavrov	-11.7447
▁podyum	-11.7447
▁sneijder	-11.7447
▁teşebbüs	-11.7447
▁Belediyespor	-11.7447
▁haseke	-11.7447
▁dtp	-11.7447
▁tufan	-11.7447
▁leonard	-11.7447
▁ferhat	-11.7447
▁amasya	-11.7447
▁sözcüsü	-11.7447
▁otogar	-11.7447
▁jackson	-11.7447
▁yürütüyor	-11.7447
▁gürsoy	-11.7447
▁kutluyorum	-11.7447
▁erciyesspor	-11.7448
all	-11.7448
▁eczane	-11.7448
▁cemiyet	-11.745
▁ender	-11.745
▁aşçı	-11.7452
▁pal	-11.7456
▁hür	-11.7456
emzi	-11.7459
▁sky	-11.7459
▁feda	-11.746
▁sivri	-11.7463
dadır	-11.7464
liyoruz	-11.7467
eret	-11.7468
▁şii	-11.7471
!”	-11.7475
▁yüzücü	-11.748
▁elbet	-11.7483
▁fox	-11.7488
lle	-11.7489
hassa	-11.749
▁buluşacak	-11.7492
▁sichuan	-11.7497
▁çiğne	-11.7498
▁izsu	-11.7501
▁gelince	-11.7501
▁büyüğ	-11.7503
beş	-11.7504
▁gelirken	-11.7504
▁tekke	-11.7505
lenmiştir	-11.7507
▁sağlar	-11.7508
emiyoruz	-11.7518
▁değindi	-11.7523
▁günah	-11.7524
ılmalıdır	-11.7527
▁ödülü	-11.753
▁zayıfla	-11.7533
tüik	-11.7534
▁getiri	-11.7535
▁ezgi	-11.7536
gerçekleştirilme	-11.7541
▁ödeyecek	-11.7544
▁pişir	-11.7551
▁reng	-11.7556
▁gelmektedir	-11.7559
▁özet	-11.756
▁işçi	-11.7561
▁katılmadı	-11.7562
▁sorgulan	-11.7566
▁yoğunlaştır	-11.7567
sor	-11.7571
▁ibare	-11.7571
▁(2	-11.7572
▁anavat	-11.7574
▁yapabil	-11.7576
sarı	-11.7578
▁mecbur	-11.7583
tmen	-11.7583
rus	-11.7585
▁izliyor	-11.7589
ful	-11.7589
mazsa	-11.7592
almanya	-11.7592
kullanılmaktadır	-11.7592
ırsınız	-11.7593
▁15.00	-11.7595
iri	-11.7596
▁alkışla	-11.7606
meyeceğiz	-11.7611
dayız	-11.7612
▁şahs	-11.7615
indeydi	-11.7623
▁analist	-11.7635
▁seda	-11.764
iyordum	-11.764
▁sorgulama	-11.7646
▁benim	-11.7647
▁yapıyorlar	-11.7648
▁halka	-11.7649
meyeceğim	-11.7649
▁gelmiyor	-11.7649
▁kazanacak	-11.7653
▁bulur	-11.7656
▁entegr	-11.7664
işare	-11.7664
▁gebze	-11.7664
▁köfte	-11.7664
▁muhatap	-11.7664
▁narkotik	-11.7664
▁rumsfeld	-11.7664
▁tahkim	-11.7664
▁Eskişehirspor	-11.7664
▁bjk	-11.7664
▁çolak	-11.7664
▁cezayir	-11.7664
▁sperm	-11.7664
▁rampa	-11.7664
▁ardahan	-11.7664
▁tahsin	-11.7664
▁kabiliyet	-11.7664
▁plaza	-11.7665
▁necip	-11.7665
▁naklen	-11.7665
▁makedonya	-11.7665
▁alınmıştı	-11.7665
▁birçoğu	-11.7665
▁merci	-11.7666
ılmıyor	-11.7666
▁boluspor	-11.7666
▁açıyor	-11.7667
▁colin	-11.7667
▁lobi	-11.7667
▁mısınız	-11.7668
▁diyecek	-11.7668
▁mode	-11.767
▁kararlaştırdı	-11.767
▁sanmıyorum	-11.7671
▁seyit	-11.7672
formula	-11.7672
▁partizan	-11.7673
▁canlandır	-11.7674
▁rehine	-11.7676
mad	-11.7677
▁erme	-11.7678
▁asır	-11.7679
▁kaset	-11.7679
ale	-11.7679
▁dicle	-11.768
▁kurtardı	-11.768
▁tartıştı	-11.7681
▁kurtarılama	-11.7683
▁akbaş	-11.7684
▁gelmez	-11.7685
▁bakalım	-11.7692
▁tabanlı	-11.7692
▁tabak	-11.7692
▁tap	-11.7693
!!!	-11.7693
alim	-11.7694
▁haller	-11.7696
▁kirlet	-11.7703
▁sahibi	-11.7703
▁goz	-11.7703
▁cikar	-11.7704
▁daima	-11.7707
▁faydalan	-11.7709
▁parkur	-11.771
▁üzerinde	-11.7712
▁Cumhurbaşkanı	-11.7714
▁limit	-11.7715
▁yönü	-11.7718
ürüm	-11.7719
▁kanaat	-11.7721
▁buyuk	-11.7722
masıyla	-11.7723
▁başl	-11.7724
▁yıkılma	-11.7725
iste	-11.7725
hra	-11.7727
▁yetiştirme	-11.773
▁uçar	-11.7733
▁çene	-11.7735
zur	-11.7737
▁kırdı	-11.7738
▁anlaştı	-11.7738
ges	-11.7748
▁çalıştık	-11.7749
▁kırılma	-11.775
▁yaya	-11.7751
▁yetin	-11.7752
dınız	-11.7756
▁bre	-11.7756
▁vermesi	-11.7759
▁aşıl	-11.776
▁akım	-11.7762
▁verici	-11.7764
iriz	-11.7767
▁yansıtıl	-11.777
▁petk	-11.777
▁kararlaştırıldı	-11.777
▁araçları	-11.7772
▁caddesi	-11.7775
▁ihlali	-11.7777
▁geçiriyor	-11.7777
koç	-11.7778
eee	-11.778
bah	-11.7786
ahi	-11.7791
-7	-11.7796
▁başlamış	-11.7797
▁geçin	-11.7797
▁yanık	-11.7801
acagi	-11.7807
▁bekar	-11.7809
▁tarihi	-11.7815
yıldız	-11.7815
▁çıktık	-11.7818
sahip	-11.7819
au	-11.7822
8)	-11.7826
ilçe	-11.7828
ordu	-11.7829
▁saman	-11.783
▁eroğ	-11.7835
▁pra	-11.7837
▁kiev	-11.7839
▁duran	-11.784
▁tutuş	-11.7842
▁izley	-11.7843
spo	-11.7844
-13	-11.7848
vey	-11.7848
▁havai	-11.7852
kum	-11.7854
fra	-11.7856
yang	-11.7858
▁karıştırıl	-11.7875
▁kardeşim	-11.7881
▁rume	-11.7881
▁kısıtla	-11.7883
▁demeç	-11.7883
▁çeşi	-11.7886
▁portföy	-11.7886
▁malezya	-11.7886
▁merhum	-11.7886
▁hortum	-11.7886
▁dataver	-11.7887
▁eziyet	-11.7887
▁gran	-11.7889
▁hemşeri	-11.789
▁tahsilat	-11.789
▁yanıtlarken	-11.789
▁amaçlıyor	-11.7891
▁sürülüyor	-11.7891
▁masaj	-11.7895
▁benziyor	-11.7896
▁ödüyor	-11.7896
▁hagi	-11.7898
▁hastalık	-11.7899
▁yaşattı	-11.7904
▁akgül	-11.7904
▁odun	-11.7905
gür	-11.7906
▁kabak	-11.791
kuş	-11.791
▁kabus	-11.7913
uncu	-11.7914
▁kova	-11.7918
▁şeriat	-11.7921
▁diliyoruz	-11.7922
mizi	-11.7923
▁baki	-11.7924
ırsa	-11.7925
way	-11.7932
▁zedele	-11.7935
▁finaller	-11.7936
layarak	-11.794
▁hızı	-11.7942
▁paylaşıl	-11.7946
▁karıştır	-11.7947
▁messi	-11.7952
▁devrilme	-11.7956
mlu	-11.7959
▁ileti	-11.796
▁müzikal	-11.7961
haf	-11.7965
▁içerik	-11.7975
▁geldiğini	-11.7975
▁kaldırıl	-11.7977
▁kişiler	-11.7977
yas	-11.7979
▁pin	-11.7983
▁cumhuriyeti	-11.7984
▁kaybeden	-11.7987
▁vol	-11.7987
▁yaklaştı	-11.7991
yağ	-11.7994
▁sürat	-11.7994
▁yapılmış	-11.7996
fed	-11.7998
dayken	-11.7998
acaksın	-11.7999
▁bmn	-11.8007
latarak	-11.8008
▁bağlanma	-11.8012
▁kast	-11.8013
ılsın	-11.8027
lenmişti	-11.8037
▁yürüyüş	-11.8043
▁yöneticiler	-11.8045
▁bence	-11.8048
▁mega	-11.8049
hükümet	-11.8052
bölge	-11.8052
doğru	-11.8053
▁gittik	-11.8055
başkan	-11.8055
▁savunuyor	-11.8057
▁arnavut	-11.806
genel	-11.8061
▁fel	-11.8063
▁balta	-11.8064
▁chpd	-11.8064
▁simon	-11.8065
miyoruz	-11.8066
▁eklendi	-11.8067
emedik	-11.8068
▁çıkarıl	-11.8068
ula	-11.8069
-25	-11.807
▁şeri	-11.807
▁yenilenme	-11.8071
BA	-11.8075
acı	-11.8077
▁kimi	-11.8078
ildiğini	-11.8078
▁soygun	-11.8082
afet	-11.8084
ürk	-11.8084
astro	-11.8085
▁''	-11.8085
fik	-11.8085
▁kus	-11.8087
▁yerleşti	-11.8089
▁askerler	-11.8093
▁salgı	-11.8094
ası	-11.8099
▁liu	-11.8103
çev	-11.8106
▁çapa	-11.8107
cm	-11.8108
▁taht	-11.811
▁varmış	-11.8111
▁94	-11.8113
nos	-11.8113
▁bayburt	-11.8113
▁başhekim	-11.8113
▁dalgıç	-11.8113
▁dezavantaj	-11.8113
▁hillary	-11.8113
▁midibüs	-11.8113
▁mürettebat	-11.8113
▁orospu	-11.8113
▁silivri	-11.8113
▁tasfiye	-11.8113
▁bambaşka	-11.8113
▁gökyüzü	-11.8113
▁hüzün	-11.8113
▁iftira	-11.8113
▁baklava	-11.8113
▁köln	-11.8113
▁pembe	-11.8114
▁boykot	-11.8114
▁ısbn	-11.8114
▁vilayet	-11.8114
▁hudut	-11.8114
▁özbekistan	-11.8114
▁viraj	-11.8114
▁(24)	-11.8114
▁meriç	-11.8114
▁dog	-11.8114
▁royal	-11.8114
paz	-11.8115
▁sergey	-11.8115
▁stant	-11.8116
kim	-11.8116
▁cska	-11.8116
▁ekstra	-11.8116
▁hardal	-11.8116
▁terfi	-11.8117
▁6-7	-11.8117
▁özbek	-11.8118
▁kraliyet	-11.8118
▁fiat	-11.8118
▁cengiz	-11.8118
▁kaldırım	-11.8129
▁akkaya	-11.813
▁isveçli	-11.813
▁fiili	-11.8131
▁reca	-11.8132
▁işgalci	-11.8132
▁hip	-11.8133
▁kongo	-11.8133
▁işçiler	-11.8138
▁erteledi	-11.8142
▁env	-11.8144
▁dursun	-11.8144
▁fit	-11.8145
inan	-11.8149
▁1.6	-11.8152
▁söyler	-11.8152
▁atıyor	-11.8154
▁ösym	-11.8159
▁ret	-11.8159
▁monte	-11.816
▁görevlileri	-11.8166
/1	-11.8167
▁hun	-11.8169
▁dna	-11.8171
▁sunulma	-11.8173
▁sıkı	-11.8177
saydı	-11.8178
▁kenti	-11.8179
ndra	-11.818
lenebilir	-11.8185
dedir	-11.8186
▁izban	-11.8186
▁takas	-11.8187
▁birol	-11.819
▁bulunuyordu	-11.8192
▁mac	-11.8193
mor	-11.8194
pak	-11.8195
▁annan	-11.8206
die	-11.8212
▁format	-11.8212
▁taşıt	-11.8212
▁solcu	-11.8213
▁bulunmuyor	-11.8214
cep	-11.8223
▁çakıroğ	-11.8223
▁98	-11.8224
▁altı	-11.8225
▁anons	-11.8228
▁86	-11.8231
8.5	-11.8236
▁onaylanma	-11.8239
deydi	-11.8242
▁öğrencileri	-11.8244
yurt	-11.8252
bit	-11.8254
▁olayı	-11.8255
▁vermiştir	-11.8257
tha	-11.8262
▁101	-11.8266
ulacak	-11.8273
▁büyüle	-11.8275
▁becer	-11.8275
▁limon	-11.8275
/...	-11.828
▁performansı	-11.8285
▁gibidir	-11.8286
ıyım	-11.8289
▁tümen	-11.8289
▁sakal	-11.8289
▁lideri	-11.829
▁ayet	-11.8293
hava	-11.8295
▁Türkiye	-11.8298
cılığı	-11.8299
evre	-11.83
▁derinleştir	-11.831
▁telaş	-11.8313
▁abart	-11.8315
▁kaynakları	-11.832
▁2-	-11.8324
▁başer	-11.8325
edd	-11.8332
▁yaman	-11.8333
▁kurtarılma	-11.8333
back	-11.8335
larina	-11.8342
▁belirlenecek	-11.8343
müyor	-11.8344
bıyık	-11.8344
▁anıtkabir	-11.8346
▁egzersiz	-11.8346
▁kokteyl	-11.8346
▁litvanya	-11.8346
▁netanyahu	-11.8346
▁partner	-11.8346
▁peşmerge	-11.8346
▁prosedür	-11.8346
▁psikolog	-11.8346
▁singapur	-11.8346
▁tereddüt	-11.8346
▁şantiye	-11.8346
▁fidye	-11.8346
▁parfüm	-11.8346
▁rezil	-11.8346
▁malmö	-11.8346
▁öbür	-11.8346
▁renault	-11.8346
▁meltem	-11.8346
▁boğuş	-11.8346
necmett	-11.8346
▁delikanlı	-11.8346
▁moore	-11.8346
▁mezhep	-11.8346
▁kaşığ	-11.8347
▁kabuk	-11.8347
▁angela	-11.8347
▁heves	-11.8347
▁niğde	-11.8347
▁soyadı	-11.8347
▁boston	-11.8348
▁kruva	-11.8348
▁1983	-11.8348
▁habur	-11.8349
▁temsilcisi	-11.8349
▁1985	-11.8349
▁burdur	-11.8349
▁oscar	-11.835
▁lokomotif	-11.835
ografi	-11.8351
▁dizayn	-11.8351
▁santos	-11.8351
▁durdurdu	-11.8351
put	-11.8351
▁senatör	-11.8351
▁oynanacak	-11.8352
▁sarıkaya	-11.8352
▁stone	-11.8353
▁fiil	-11.8353
▁düşürdü	-11.8353
▁gölet	-11.8354
▁katkıları	-11.8354
▁konfor	-11.8354
▁timur	-11.8358
▁kısır	-11.836
▁omuz	-11.8364
▁kalkış	-11.8367
▁gidiyoruz	-11.8368
▁dokunma	-11.8368
yaka	-11.8368
▁brit	-11.8369
▁301	-11.8371
tz	-11.8372
▁3-2	-11.8372
▁makinesi	-11.8372
▁ntv	-11.8375
▁verilir	-11.8375
▁sarılı	-11.8379
▁yolu	-11.838
▁küf	-11.838
▁220	-11.8381
elli	-11.8381
▁kabil	-11.8382
-14	-11.8385
▁saldır	-11.8387
▁bed	-11.8391
▁seçi	-11.8391
▁gözüküyor	-11.8391
▁çıkarıyor	-11.8391
▁ayı	-11.8392
▁tire	-11.8393
▁hop	-11.8396
▁yüzbaşı	-11.8397
lerim	-11.8399
▁yerleş	-11.8401
▁taslağı	-11.8407
▁ilahi	-11.8407
▁(4	-11.8408
▁isterk	-11.8408
▁(6	-11.8409
ovic	-11.8414
▁geldiler	-11.8417
yaş	-11.8418
▁hoşlan	-11.8419
▁küpe	-11.8421
▁küçül	-11.8422
▁engellenme	-11.8423
▁doğdu	-11.8426
▁balon	-11.8426
ping	-11.8426
tum	-11.8431
▁kabullen	-11.8431
ics	-11.8436
▁inkar	-11.8437
box	-11.8445
▁isteği	-11.8446
▁gösteriliyor	-11.8449
▁boks	-11.8451
ml	-11.8452
▁akü	-11.8452
▁müezzinoğ	-11.8456
▁temizlenme	-11.8456
▁öğrendi	-11.8459
▁biriydi	-11.8461
▁tutuyor	-11.8465
▁vin	-11.8467
▁terket	-11.8468
▁tele	-11.8475
gör	-11.8475
▁kac	-11.8477
▁uzmanları	-11.848
▁norm	-11.8482
▁kurtarıldı	-11.8489
▁aka	-11.8492
▁canlı	-11.8495
sana	-11.8498
400	-11.8503
tıklarını	-11.8505
kçe	-11.8506
▁küp	-11.8508
▁yendi	-11.8509
▁bük	-11.8509
cül	-11.8513
▁kaynat	-11.8516
tırıyor	-11.8516
▁atağ	-11.8516
içi	-11.8522
▁rose	-11.8523
▁asit	-11.8527
▁sporcu	-11.8535
▁yırt	-11.8535
apse	-11.8537
pazar	-11.8538
▁04	-11.8539
▁morali	-11.8541
sko	-11.8541
▁yemin	-11.8548
▁yetmez	-11.855
erdoğ	-11.855
▁170	-11.8552
aydın	-11.8568
MA	-11.8569
▁oh	-11.857
▁tarama	-11.8572
▁bakış	-11.8573
▁alfa	-11.8582
macun	-11.8582
▁hamilton	-11.8584
▁kondisyon	-11.8584
▁ortega	-11.8584
▁palandöken	-11.8584
▁pehlivan	-11.8584
▁tahammül	-11.8584
▁vahşet	-11.8584
▁şehzade	-11.8584
▁üniforma	-11.8584
nternation	-11.8584
▁bilanço	-11.8584
▁katrina	-11.8584
▁saadet	-11.8584
▁france	-11.8584
▁havuç	-11.8584
▁nispet	-11.8584
▁tatlıses	-11.8584
▁usulsüz	-11.8584
▁seramik	-11.8584
▁motif	-11.8584
▁seslendirdi	-11.8585
▁zarif	-11.8585
▁durduruldu	-11.8585
▁kuzen	-11.8585
▁nevşehir	-11.8585
▁kanalizasyon	-11.8585
▁çuval	-11.8585
▁berbat	-11.8585
kolojik	-11.8585
▁dilenci	-11.8585
▁raket	-11.8585
▁bişey	-11.8586
▁sünni	-11.8586
▁seyhan	-11.8587
▁bildirge	-11.8587
▁kırşehir	-11.8588
▁varsayıl	-11.8588
▁şentürk	-11.8589
▁kocaelispor	-11.859
▁bab	-11.859
▁duyuyoruz	-11.859
▁1950	-11.8591
▁medeni	-11.8591
▁yaralılar	-11.8592
▁konusunda	-11.8593
▁mut	-11.8593
▁değişikliği	-11.8593
▁ayrılırken	-11.8594
▁furk	-11.8595
▁arkeolojik	-11.8596
▁alınmıştır	-11.8596
▁yeral	-11.8596
▁neyse	-11.8598
▁afp	-11.8599
▁temizlik	-11.86
▁avlu	-11.86
▁öğüt	-11.86
▁belirtmişti	-11.86
well	-11.8601
▁taviz	-11.8604
▁album	-11.8604
▁basınç	-11.8605
▁çeşitli	-11.8611
▁aldığı	-11.8614
ılabilecek	-11.8617
▁yener	-11.8619
mamak	-11.8621
▁tabağ	-11.8622
▁kızı	-11.8623
izasyon	-11.8624
▁uyarlan	-11.8624
▁sorunu	-11.8625
▁cil	-11.8627
▁bekledi	-11.863
▁edeceğim	-11.8633
▁şeb	-11.8635
▁kolye	-11.8638
▁bunu	-11.8638
▁parçası	-11.8639
dos	-11.8641
▁sefa	-11.8646
ssi	-11.8651
▁kafes	-11.8658
azi	-11.8659
rant	-11.8659
▁tanınma	-11.8662
▁uzatıl	-11.8665
▁patri	-11.8666
▁bulacak	-11.8667
noter	-11.867
▁1.2	-11.8673
vı	-11.8674
▁oğuzh	-11.8677
▁vermek	-11.8677
▁soğu	-11.8681
ost	-11.8681
▁istiyorlar	-11.8685
▁verirk	-11.8685
cl	-11.8691
ilmiyor	-11.8694
▁cezaev	-11.8702
▁kapağı	-11.8704
▁naci	-11.8709
▁kararlaştırıl	-11.8712
▁halit	-11.8716
tiğini	-11.8725
konu	-11.8727
tekin	-11.8727
▁sindir	-11.8729
▁diana	-11.873
fur	-11.8731
▁kaf	-11.8734
ble	-11.8735
ırıl	-11.8741
aha	-11.8746
▁akça	-11.8769
tat	-11.8776
...”	-11.8776
kom	-11.8777
▁hatır	-11.8779
▁cip	-11.8783
kova	-11.8784
▁rep	-11.8786
budak	-11.8786
▁sed	-11.8789
▁açmıştı	-11.8791
zade	-11.8795
▁akı	-11.88
▁yapıp	-11.8802
▁sembolü	-11.8804
▁reddedil	-11.8809
▁sened	-11.8811
yacaktır	-11.8813
eve	-11.8816
meyi	-11.8817
▁karşın	-11.8823
abilirim	-11.8823
emek	-11.8824
madılar	-11.8826
▁heyecanlan	-11.8826
▁mevla	-11.8827
polis	-11.8827
▁buzdolabı	-11.8828
▁hüsamettin	-11.8828
▁jinping	-11.8828
▁keşfet	-11.8828
▁teçhizat	-11.8828
▁tüccar	-11.8828
▁boeing	-11.8828
▁büyükanıt	-11.8828
▁ereğli	-11.8828
▁florida	-11.8828
▁kokain	-11.8828
▁tahlil	-11.8828
aziosmanpaşa	-11.8828
▁aşiret	-11.8828
▁arbede	-11.8828
▁madonna	-11.8828
▁perişan	-11.8828
-40	-11.8828
▁kızgın	-11.8828
▁(25)	-11.8828
▁zehra	-11.8828
▁komplo	-11.8828
▁reşit	-11.8828
▁altınor	-11.8829
▁alfabe	-11.8829
▁gordon	-11.8829
▁çiğdem	-11.8829
▁disko	-11.8829
▁mursi	-11.8829
▁karakaş	-11.8829
▁oluşturur	-11.883
▁ivme	-11.883
▁harry	-11.883
▁salata	-11.8831
▁koray	-11.8831
▁green	-11.8831
▁1989	-11.8831
▁aliyev	-11.8833
matik	-11.8833
▁ruhani	-11.8835
▁baharat	-11.8835
▁yokuş	-11.8836
▁270	-11.8837
▁satılıyor	-11.8837
▁iştirak	-11.8838
▁ferdi	-11.8838
▁versin	-11.8839
▁kristal	-11.884
irsiniz	-11.8841
▁somali	-11.8841
▁içeriyor	-11.8842
▁reis	-11.8844
▁prova	-11.8847
▁atarken	-11.885
1.7	-11.8852
▁evrim	-11.8854
▁ps	-11.8859
▁tanıştı	-11.886
▁atı	-11.8861
▁dekor	-11.8862
▁çektirdi	-11.8863
▁edilebilir	-11.8864
▁uçtu	-11.8864
▁gerekiyordu	-11.8867
DE	-11.8867
▁vatandaş	-11.8872
vos	-11.8874
▁peru	-11.8875
▁geçildi	-11.8875
▁sürdürecek	-11.8876
▁çalıştay	-11.8877
▁indirdi	-11.8877
-24	-11.8878
▁giydi	-11.8878
▁gebe	-11.8884
▁halay	-11.8885
▁ahır	-11.8886
▁zanlılar	-11.8889
▁azim	-11.8892
sanat	-11.8895
▁komisyonu	-11.8896
▁takıl	-11.8897
tom	-11.8898
▁ref	-11.8904
▁yetiştir	-11.8908
▁buruk	-11.8916
▁olacağım	-11.8919
▁muka	-11.8922
rasim	-11.8926
▁aytek	-11.8926
▁pasifik	-11.893
SA	-11.8931
▁sagla	-11.8932
ebilirler	-11.8934
▁müdahalesi	-11.8935
▁yaktı	-11.8939
▁:)	-11.8941
▁tatar	-11.8942
▁nerede	-11.8943
▁feli	-11.8945
▁rolün	-11.8951
▁soylu	-11.8952
▁golün	-11.8956
▁soruyor	-11.8956
▁fc	-11.8957
soru	-11.8957
sina	-11.8965
cısı	-11.8966
samet	-11.8966
▁olamadı	-11.8966
gas	-11.8966
▁simit	-11.8969
ato	-11.897
▁jack	-11.897
▁edebilir	-11.8971
oyun	-11.8983
memeli	-11.8983
▁pm	-11.8985
▁kula	-11.8991
▁azaltılma	-11.8991
▁maçta	-11.9004
▁aramada	-11.9006
▁batu	-11.9007
▁ted	-11.9015
▁atanma	-11.902
▁yasası	-11.9024
ital	-11.9025
suri	-11.9027
▁raporu	-11.9028
yü	-11.9028
▁türkiyede	-11.903
▁artik	-11.9032
▁inceledi	-11.9034
▁etek	-11.9034
merkez	-11.9041
!!	-11.9042
▁dairesi	-11.9044
not	-11.9046
cılık	-11.9049
win	-11.9053
▁derle	-11.9054
▁twitter	-11.9055
▁650	-11.9058
ehdi	-11.9059
▁toplantısı	-11.9062
hiç	-11.9064
▁yansıdı	-11.907
▁çalışanları	-11.9071
hasta	-11.9077
▁abdurrahm	-11.9078
▁amsterdam	-11.9078
▁california	-11.9078
▁papandreu	-11.9078
▁şöhret	-11.9078
▁şarbon	-11.9078
▁büfe	-11.9078
▁donald	-11.9078
▁geyik	-11.9078
▁america	-11.9078
▁hilton	-11.9078
▁animasyon	-11.9078
▁sgk	-11.9078
▁idrar	-11.9078
▁nafaka	-11.9078
▁bariyer	-11.9078
▁pamukkale	-11.9078
▁gamze	-11.9078
▁datça	-11.9079
kreasyon	-11.9079
▁yahya	-11.9079
▁lord	-11.9079
▁11.00	-11.9079
▁olcay	-11.9079
▁aihm	-11.9079
▁ötv	-11.908
▁tanrıça	-11.908
▁1945	-11.9081
▁zihn	-11.9081
▁atıf	-11.9081
▁huzurevi	-11.9081
▁çıkarak	-11.9081
▁cruise	-11.9082
▁cephane	-11.9083
▁şişman	-11.9083
▁mümkündür	-11.9084
▁boyunca	-11.9084
▁harman	-11.9085
▁2018	-11.9085
▁konuşurken	-11.9086
▁milis	-11.9091
madi	-11.9091
▁alman	-11.9092
▁çayır	-11.9095
▁halife	-11.9095
▁işletil	-11.9096
▁zenginleştir	-11.9099
▁kavak	-11.9101
/83	-11.9101
zaman	-11.9102
hk	-11.9103
▁kazanırken	-11.9104
▁seçti	-11.9105
▁garni	-11.9107
musevi	-11.9107
▁doğruladı	-11.911
▁öngörüyor	-11.9117
landığı	-11.9121
▁acılı	-11.9123
ulmuştu	-11.9125
▁yatır	-11.9135
▁göreceğiz	-11.9145
▁cup	-11.9146
dong	-11.9159
▁buzlan	-11.916
▁ry	-11.9163
▁görülme	-11.9166
▁verilmesi	-11.9167
▁zil	-11.9174
dele	-11.918
şma	-11.9182
eğit	-11.9182
▁zer	-11.919
▁sporcular	-11.9194
▁önlen	-11.9199
▁hidro	-11.9202
muyorum	-11.9203
▁cani	-11.9204
istir	-11.9206
▁sözü	-11.9209
▁getirecek	-11.9221
▁serinle	-11.9224
▁kavşağı	-11.9224
▁terapi	-11.9234
mayacaktır	-11.9237
▁aym	-11.9237
▁sevgilisi	-11.9239
▁sinyali	-11.924
bitkisel	-11.924
▁gem	-11.9241
▁şevke	-11.9243
uluslarara	-11.9244
stre	-11.9246
▁bakü	-11.9248
▁dos	-11.9249
▁yaptığını	-11.925
▁umre	-11.9255
▁törende	-11.9256
▁izlenme	-11.9259
kanlı	-11.9263
▁kurtuldu	-11.9266
ındayım	-11.9268
cle	-11.927
kamu	-11.9278
▁gelip	-11.9281
▁kibar	-11.9286
bize	-11.9291
▁hiçbiri	-11.9292
red	-11.9293
lütf	-11.9302
kardeş	-11.9303
▁oyunu	-11.9304
kürt	-11.9306
hon	-11.9314
giz	-11.9316
ıştır	-11.9318
RA	-11.9319
▁550	-11.932
▁ideoloji	-11.9321
▁320	-11.9322
mayacağını	-11.9323
▁fal	-11.9323
▁rahatsızlan	-11.9326
▁mevzu	-11.9333
▁depresyon	-11.9334
▁familya	-11.9334
▁klavye	-11.9334
▁lucescu	-11.9334
▁sapanca	-11.9334
▁satranç	-11.9334
▁tekvando	-11.9334
▁yanukoviç	-11.9334
▁klinik	-11.9334
▁nilüfer	-11.9334
▁mazlum	-11.9334
▁nokia	-11.9334
▁nicolas	-11.9334
▁şarab	-11.9335
▁broşür	-11.9335
▁2-2	-11.9335
▁ilahiyat	-11.9335
▁suruç	-11.9335
▁yürürlük	-11.9335
▁pilav	-11.9335
▁akil	-11.9335
▁zübeyde	-11.9336
▁yeşilyurt	-11.9336
▁birebir	-11.9336
▁ayşegül	-11.9336
▁bedri	-11.9336
▁yazıcıoğlu	-11.9336
▁saint	-11.9336
▁karabükspor	-11.9336
▁hissediyorum	-11.9337
▁1969	-11.9337
urriyet	-11.9337
▁rahim	-11.9337
▁tarkan	-11.9338
▁havlu	-11.9338
▁nasip	-11.9338
▁hatırlatıldı	-11.9339
▁kumanda	-11.934
▁ılıcak	-11.934
▁utanç	-11.934
▁bilinmiyor	-11.9341
▁cihaner	-11.9341
▁direnç	-11.9342
▁dogru	-11.9344
▁yerinde	-11.9347
▁halter	-11.9348
▁şahsen	-11.9348
▁rob	-11.9351
▁suçladı	-11.9351
kaf	-11.9353
▁tas	-11.9354
▁kasap	-11.9356
▁adapt	-11.9356
▁yıkıldı	-11.9357
▁bombala	-11.9357
▁anlaşılma	-11.9364
yit	-11.9365
▁taşır	-11.9367
▁getiriliyor	-11.9367
▁coş	-11.9367
urdu	-11.9367
malısınız	-11.9367
bru	-11.9372
▁hafiflet	-11.9375
▁uzat	-11.9376
aday	-11.9379
▁işgali	-11.9379
haç	-11.938
mezler	-11.9381
▁tava	-11.9382
▁parla	-11.9389
▁şahsi	-11.9389
kıran	-11.9389
▁kırk	-11.9389
▁oyunları	-11.9396
▁tesisat	-11.9397
asker	-11.9399
▁napoli	-11.94
toloji	-11.94
▁ankaraspor	-11.9401
▁(8	-11.9404
geri	-11.9406
▁(5	-11.9412
▁çaldı	-11.9413
lasman	-11.9417
lığında	-11.942
amayız	-11.9423
▁eğlendi	-11.9423
raştırmacılar	-11.9433
▁konuşlandır	-11.9433
şir	-11.9435
▁dinleti	-11.9437
lock	-11.9438
▁yillar	-11.9456
üne	-11.9458
dük	-11.946
▁hazırlandı	-11.9462
▁(19)	-11.9462
landırıldı	-11.9463
▁güvenç	-11.9465
▁zamanda	-11.9469
▁7.5	-11.947
▁hey	-11.947
▁karl	-11.9471
▁yönelt	-11.9471
emezsiniz	-11.9471
▁cent	-11.9476
▁civarında	-11.9477
eviç	-11.9479
TA	-11.948
ous	-11.9484
▁birisi	-11.9486
jat	-11.9502
▁dikil	-11.9503
▁kaynaş	-11.9508
kit	-11.9514
▁soktu	-11.9515
▁sara	-11.9518
klerini	-11.9525
wo	-11.9526
reel	-11.9528
hid	-11.9531
▁wh	-11.9537
▁ezil	-11.9542
ders	-11.9543
maktan	-11.9543
pit	-11.9545
▁sahipleri	-11.9548
▁kanı	-11.955
▁aktarılma	-11.955
▁çıkarttı	-11.9551
▁açılacak	-11.9556
▁koloni	-11.9558
▁01	-11.956
lendirilme	-11.9562
▁Kara	-11.9571
▁Wei	-11.9571
▁hırsız	-11.9571
güven	-11.9573
▁bozdu	-11.9574
amayan	-11.9576
rusya	-11.9578
▁bulunma	-11.9578
▁tuncel	-11.958
siydi	-11.958
şey	-11.9588
his	-11.9591
yaban	-11.9592
▁alınır	-11.9592
▁giresun	-11.9596
▁por	-11.9597
▁eşref	-11.9597
Beşiktaş	-11.9598
fantastik	-11.9598
▁ahmedinejad	-11.9598
▁alüminyum	-11.9598
▁deklarasyon	-11.9598
▁fezleke	-11.9598
▁hidayet	-11.9598
▁nusaybin	-11.9598
▁premier	-11.9598
▁tsunami	-11.9598
▁yelpaze	-11.9598
▁şelale	-11.9598
▁halbuki	-11.9598
▁henry	-11.9598
▁mühimmat	-11.9598
▁francis	-11.9598
▁meşgul	-11.9598
▁sorusuna	-11.9598
▁kabuğ	-11.9598
▁bşb	-11.9598
▁(26)	-11.9598
▁haykır	-11.9598
isarcıklıoğlu	-11.9598
▁çimento	-11.9599
▁bahadır	-11.9599
▁pitt	-11.9599
▁rutin	-11.9599
▁1987	-11.9599
▁kapkaç	-11.9599
▁konteyner	-11.9599
▁kadri	-11.96
▁1979	-11.96
▁biç	-11.9601
▁fbı	-11.9601
▁muhit	-11.9601
▁hawk	-11.9601
▁kalabalık	-11.9601
▁tuğçe	-11.9602
▁mgk	-11.9602
▁kıraç	-11.9603
▁sarıyer	-11.9603
▁akkuş	-11.9604
▁efekt	-11.9604
▁yükseltti	-11.9605
▁maltepe	-11.9606
▁kısalt	-11.9608
▁palin	-11.9609
bik	-11.961
▁clintonın	-11.961
▁haşim	-11.961
▁pekkan	-11.9612
▁akbank	-11.9612
▁mercedes	-11.9614
▁belirtiyorlar	-11.9616
▁getirmişti	-11.9616
galeri	-11.9618
.19	-11.9619
(!)	-11.9622
▁kırım	-11.9626
ablo	-11.9626
▁sanatsal	-11.9629
▁yaşıyorum	-11.963
▁gözde	-11.9631
▁etmey	-11.9631
▁içerisinde	-11.9632
▁karga	-11.9634
▁verin	-11.9642
uç	-11.9645
▁negatif	-11.965
ilmeli	-11.9652
▁yapıldığını	-11.9656
▁(6)	-11.9656
▁songül	-11.9658
▁titre	-11.9658
▁ceket	-11.966
ğini	-11.9671
dayım	-11.9672
▁kabar	-11.9674
cell	-11.9675
▁süha	-11.9678
▁yatıyor	-11.9678
▁had	-11.9681
▁sarsıl	-11.9681
▁astronomi	-11.9683
▁pc	-11.9684
▁yaşarken	-11.9684
cheng	-11.9685
landığını	-11.9693
film	-11.9697
▁kalmıştır	-11.9698
cular	-11.97
otel	-11.9702
▁hayaller	-11.9703
▁orantı	-11.9704
yuz	-11.971
▁osb	-11.972
tireceğiz	-11.9722
▁ışıl	-11.9725
▁parke	-11.973
▁vakfı	-11.9734
gah	-11.9739
▁müezzin	-11.9742
▁düzenliyor	-11.9745
antep	-11.975
lüyor	-11.9754
acaktı	-11.9762
dok	-11.9767
▁07	-11.9772
lly	-11.9775
▁izdi	-11.9788
iskenderun	-11.9791
▁açıklaması	-11.9791
eriz	-11.9794
erin	-11.9796
ünde	-11.9797
sra	-11.9799
-9	-11.98
cd	-11.9801
ülmüş	-11.981
▁koruyor	-11.981
▁çökert	-11.9812
lattı	-11.9813
▁cumhur	-11.9815
▁asistan	-11.9816
▁bekliyordu	-11.9818
oid	-11.9822
mezken	-11.9822
▁(20	-11.9822
▁dondur	-11.9824
▁değişiyor	-11.9825
▁yansıt	-11.9826
masında	-11.9827
▁sızdır	-11.9827
▁one	-11.983
▁edildiği	-11.983
▁toplantıya	-11.9833
ılabiliyor	-11.9835
▁yapacağım	-11.9837
▁seren	-11.9838
double	-11.9849
Wal	-11.9851
belediye	-11.9855
▁tuzla	-11.9859
▁çıkmaz	-11.986
▁göksu	-11.9864
▁21.00	-11.9865
cam	-11.9867
aziantepspor	-11.9868
▁astronot	-11.9868
▁doküman	-11.9868
▁farkındalık	-11.9868
▁filipin	-11.9868
▁juventus	-11.9868
▁kepçe	-11.9868
▁konfüçy	-11.9868
▁muhafız	-11.9868
▁mütalaa	-11.9868
▁tahakkuk	-11.9868
▁arındırıl	-11.9868
▁ağırlaştırıl	-11.9868
▁jolie	-11.9868
▁nezaket	-11.9868
▁bürün	-11.9868
▁tadilat	-11.9868
▁justin	-11.9868
▁başbuğ	-11.9868
▁vasıtasıyla	-11.9868
▁joseph	-11.9868
▁tcdd	-11.9868
▁söndürüldü	-11.9868
▁vestel	-11.9869
▁prix	-11.9869
▁pilsen	-11.9869
▁kahvehane	-11.987
▁mevlüt	-11.987
▁sercan	-11.9871
▁kakao	-11.9871
▁roger	-11.9871
▁mezuniyet	-11.9871
ahçelievler	-11.9873
▁aslinda	-11.9874
▁kask	-11.9875
▁altıncı	-11.9875
▁sanırım	-11.9876
▁tutu	-11.9877
▁cazip	-11.9878
▁konaklama	-11.9882
▁ideolojik	-11.9882
▁3-5	-11.9882
▁kullanılabilir	-11.9884
▁feri	-11.9884
ust	-11.9885
▁bunalım	-11.9885
▁geçmişti	-11.9887
▁hamsi	-11.9887
▁döşen	-11.9891
▁dönerk	-11.9891
▁ritm	-11.9891
-300	-11.9892
▁yığın	-11.9892
gay	-11.9893
▁sarp	-11.9896
▁patladı	-11.9898
▁çebi	-11.9903
liktir	-11.9903
▁giderken	-11.9904
▁dönüştürülme	-11.9905
▁lakap	-11.9906
bakan	-11.9908
cahit	-11.9913
rah	-11.992
▁çalışılıyor	-11.9927
tip	-11.9929
hey	-11.9929
▁gösterileri	-11.9933
▁ertürk	-11.9934
▁talat	-11.9935
yabilirsiniz	-11.9937
amamıştı	-11.9938
200	-11.9938
▁roller	-11.9945
Ak	-11.9947
▁delta	-11.9948
namaz	-11.9948
▁oyuncuları	-11.995
▁giray	-11.9955
noel	-11.9955
▁bakım	-11.996
▁çakar	-11.9966
▁ertan	-11.9974
▁çimen	-11.9977
yapıl	-11.9981
▁iskan	-11.9986
teki	-11.9999
▁yoksa	-12
.''	-12.0002
▁kalmayacak	-12.0004
▁kud	-12.0004
▁kolon	-12.0005
sos	-12.0005
▁yapısı	-12.0006
2009	-12.0007
meyecektir	-12.0008
▁yazıcı	-12.001
mayalım	-12.001
▁biyo	-12.0013
▁kışla	-12.0015
▁özelliği	-12.0018
ahrett	-12.0024
▁uydur	-12.0024
▁affet	-12.0031
▁takibi	-12.0035
▁doğra	-12.0036
▁satıldı	-12.0039
▁1.8	-12.0043
ümü	-12.0043
▁dok	-12.0048
▁kullanılacak	-12.0054
stur	-12.0054
▁selamla	-12.0059
cor	-12.0062
▁birlikleri	-12.0065
▁125	-12.0067
seki	-12.0071
▁topuz	-12.0072
▁takdi	-12.0076
yecektir	-12.0077
▁rest	-12.0086
▁etkiledi	-12.0087
▁jiang	-12.0091
hah	-12.0096
▁yaşlan	-12.0098
▁oluşturuldu	-12.0102
▁nazar	-12.0102
klarını	-12.0102
▁galat	-12.0102
▁stra	-12.0105
yting	-12.0106
▁ego	-12.0107
oviç	-12.0111
▁huy	-12.0112
▁saplan	-12.0118
▁bulundular	-12.0118
ener	-12.012
▁106	-12.0121
3.2	-12.0123
▁görüntüley	-12.0123
▁hakan	-12.0129
esta	-12.013
▁arkeoloji	-12.0132
▁peşinde	-12.0133
▁ekin	-12.0135
▁yerleştiril	-12.0135
▁gelirk	-12.0136
orgeneral	-12.0136
http	-12.0137
küçük	-12.0137
▁mayo	-12.0139
▁elektr	-12.0142
rica	-12.0143
▁pür	-12.0144
▁banliyö	-12.0146
▁komedyen	-12.0146
▁müsaade	-12.0146
▁nişasta	-12.0146
▁padişah	-12.0146
▁paraşüt	-12.0146
▁porsche	-12.0146
▁rivayet	-12.0146
▁tapınak	-12.0146
▁vazife	-12.0146
▁zencefil	-12.0146
▁hendek	-12.0146
▁iphone	-12.0146
▁tetkik	-12.0146
▁vitrin	-12.0146
▁acenta	-12.0146
▁diyebiliriz	-12.0146
▁uranyum	-12.0146
▁vaziyet	-12.0146
▁çiçeğ	-12.0146
▁mühür	-12.0146
▁lyrics	-12.0146
▁meryem	-12.0146
▁alparsl	-12.0146
▁element	-12.0146
▁(35)	-12.0146
▁teselli	-12.0146
▁(23)	-12.0146
▁(22)	-12.0146
▁sedef	-12.0146
▁sarhoş	-12.0146
▁çevrildi	-12.0146
▁yarbay	-12.0146
▁altıntop	-12.0146
kke	-12.0146
▁goster	-12.0147
▁hayret	-12.0147
▁vites	-12.0147
▁lokal	-12.0147
▁kütle	-12.0147
▁hicbir	-12.0147
▁pelin	-12.0148
▁vinç	-12.0148
▁1988	-12.0148
▁garaj	-12.0149
▁şartname	-12.0149
▁ilkbahar	-12.0149
▁özgürlük	-12.0149
▁yapılandırma	-12.015
▁gribi	-12.015
▁harek	-12.0151
▁malatyaspor	-12.0151
▁mansur	-12.0151
▁haram	-12.0151
miyorlar	-12.0151
▁kovalama	-12.0151
▁duydum	-12.0153
▁syn	-12.0154
▁konuşuluyor	-12.0154
▁dalyan	-12.0155
▁dönüştür	-12.0157
▁batman	-12.0157
▁barışçı	-12.0161
▁santim	-12.0161
sür	-12.0164
▁uzlaşma	-12.0166
mazlar	-12.0168
▁inanıyor	-12.017
verdi	-12.017
▁uygulanacak	-12.0171
▁çekerken	-12.0172
▁molla	-12.0173
▁blue	-12.0177
▁denet	-12.0178
▁festivaller	-12.0179
mina	-12.0179
mayacağım	-12.018
nazi	-12.0184
▁hergün	-12.0186
▁söndürül	-12.0188
▁(15	-12.0188
maktayız	-12.019
▁yükseltil	-12.0193
skun	-12.0196
▁yasaklanma	-12.0201
nia	-12.0201
▁binbaşı	-12.0202
▁verilmiştir	-12.0202
▁artar	-12.0206
2.6	-12.0208
▁sakız	-12.0208
▁prag	-12.0214
▁isteyenler	-12.0215
▁engelleme	-12.0216
▁istemişti	-12.0216
ıldığında	-12.0224
geçi	-12.0224
▁destekleme	-12.0226
lendiriyor	-12.0226
▁edelim	-12.0227
▁teras	-12.0231
▁olacaktı	-12.0234
▁gelebilir	-12.0235
yeceğim	-12.0241
▁ayran	-12.0245
▁hp	-12.0245
kule	-12.0246
▁çoğ	-12.0247
▁sömürü	-12.0248
▁von	-12.0252
stop	-12.0253
gerek	-12.0254
▁karate	-12.0257
▁mhpn	-12.0259
▁töreni	-12.026
dom	-12.0261
▁anavatan	-12.0263
▁gibiydi	-12.0264
vor	-12.027
▁başında	-12.0272
zek	-12.0273
▁koma	-12.0275
▁solo	-12.0277
mızda	-12.0278
wal	-12.0279
giller	-12.028
nere	-12.0285
▁büyüdü	-12.0287
gat	-12.0288
▁etsin	-12.029
▁eric	-12.0296
yamadı	-12.0296
▁güner	-12.0297
▁seçil	-12.0297
▁hol	-12.0298
▁getirdiler	-12.0304
▁devret	-12.0305
▁öldürülmesi	-12.0308
▁yırtı	-12.0312
▁savunu	-12.0312
▁diyordu	-12.0314
rseniz	-12.0315
▁civarı	-12.0316
sonu	-12.0319
▁olmasıdır	-12.0319
suç	-12.0329
▁melo	-12.0333
başk	-12.0335
▁kaybettik	-12.0337
▁reg	-12.0339
stim	-12.0342
▁izlerk	-12.0355
▁düzeltil	-12.0361
babam	-12.0363
▁alanı	-12.0364
▁bakıyor	-12.0368
▁kurumu	-12.037
sport	-12.0371
▁yabani	-12.0371
menin	-12.0375
kurt	-12.0377
▁master	-12.0377
memektedir	-12.0378
▁(10	-12.0381
▁kapağ	-12.0382
likle	-12.0382
lenmesi	-12.0383
▁düşüncesi	-12.0394
▁fri	-12.0394
deniz	-12.0398
▁sunacak	-12.0398
iyla	-12.04
▁birbiri	-12.0404
▁yalanla	-12.0407
miyordum	-12.0409
çkp	-12.0425
▁getirdik	-12.0428
▁inegöl	-12.043
▁böbr	-12.0431
▁kıskan	-12.0431
▁şarj	-12.0431
▁aksesuar	-12.0431
▁bükreş	-12.0431
▁elizabeth	-12.0431
▁hükumet	-12.0431
▁koğuş	-12.0431
▁pearson	-12.0431
▁stockholm	-12.0431
▁vietnam	-12.0431
▁yüzölç	-12.0431
▁çerçioğ	-12.0431
chicago	-12.0431
▁teftiş	-12.0431
financia	-12.0431
▁mineral	-12.0431
▁first	-12.0431
▁çıldır	-12.0431
▁duyurmuştu	-12.0431
▁löse	-12.0431
▁kırgızistan	-12.0431
▁matrah	-12.0432
▁kontrat	-12.0432
▁idmanyur	-12.0432
▁tütüncü	-12.0432
▁(27)	-12.0432
huang	-12.0432
▁ihtar	-12.0432
▁yaşantı	-12.0432
▁şakir	-12.0432
▁depremzede	-12.0432
hüt	-12.0433
▁alpay	-12.0434
▁adrian	-12.0434
▁uçurum	-12.0434
siyah	-12.0435
▁yazışma	-12.0435
▁firar	-12.0435
▁nefis	-12.0436
▁parsel	-12.0436
▁1975	-12.0437
▁rice	-12.0437
▁yönünde	-12.0437
▁anlatırken	-12.0437
▁tutuluyor	-12.0438
▁konsantre	-12.0439
ağaç	-12.0439
▁pürüz	-12.044
▁başladılar	-12.0441
▁kilitlen	-12.0442
▁hastalığı	-12.0442
▁kana	-12.0444
▁edward	-12.0447
▁bulunduğu	-12.0448
▁türkistan	-12.0449
▁nedim	-12.0449
ılamaz	-12.0452
▁esma	-12.0452
▁vermeyeceğiz	-12.0453
▁yinele	-12.0458
/2	-12.046
▁arkadaşım	-12.0463
▁genişletil	-12.0465
ımızı	-12.0466
▁aybaba	-12.0466
akis	-12.0467
▁sahibiz	-12.0468
ustur	-12.0468
▁joe	-12.047
nmektedir	-12.0477
▁kendileri	-12.0478
▁herif	-12.048
▁sarıca	-12.0481
tasyon	-12.0481
▁gültek	-12.0481
laştırdı	-12.0483
▁uzatılma	-12.0485
emeyen	-12.0485
▁irem	-12.0485
▁stk	-12.0487
▁aksak	-12.0488
▁hayri	-12.0489
▁yenildi	-12.0489
ımda	-12.049
▁anormal	-12.0491
▁bilek	-12.0492
▁salim	-12.0492
▁kalırken	-12.0493
mesini	-12.0494
▁bilgin	-12.0499
ırdı	-12.05
▁basra	-12.0501
olunay	-12.0502
▁kalktı	-12.0507
▁toy	-12.0507
▁okuma	-12.0508
▁almak	-12.0508
▁yetindi	-12.0509
▁lady	-12.0511
tuk	-12.0512
▁eğitil	-12.0513
▁piş	-12.0523
▁flaş	-12.0526
▁sadr	-12.0529
▁gözlemle	-12.0529
▁batur	-12.0531
field	-12.0532
▁yaratıyor	-12.0532
▁kazanan	-12.0549
akıl	-12.0552
▁vermiyor	-12.0555
mayıp	-12.0556
▁edilebil	-12.0556
koca	-12.0556
herkes	-12.0556
▁juli	-12.056
▁yazılı	-12.0561
▁102	-12.0562
arikat	-12.0563
ıyorduk	-12.0565
▁kings	-12.0567
zy	-12.0567
▁giyin	-12.057
▁sembol	-12.0572
lez	-12.0575
imdir	-12.0575
oth	-12.0575
▁155	-12.0578
▁yarım	-12.058
▁geçid	-12.058
▁takımları	-12.0588
▁guy	-12.0588
▁üretiyor	-12.0602
turk	-12.062
ates	-12.0623
▁hareketleri	-12.0623
▁ibra	-12.0623
ynin	-12.0624
▁serin	-12.0632
mezse	-12.0633
cker	-12.0634
▁erit	-12.0638
uin	-12.0641
hali	-12.0643
▁alamadı	-12.0644
▁artması	-12.0644
▁erden	-12.0645
▁etkiliyor	-12.0648
▁onayladı	-12.0648
lhami	-12.0649
yabiliyor	-12.0653
▁yolcu	-12.0655
▁teom	-12.0657
▁maket	-12.0658
▁boşaltıl	-12.0658
mıyorlar	-12.0659
▁hapsi	-12.066
▁götürüyor	-12.0661
▁cro	-12.0667
7)	-12.0676
▁arkadas	-12.068
▁mensupları	-12.0687
▁zhou	-12.0694
▁alkan	-12.0694
▁araştırılma	-12.0694
▁söylendi	-12.0695
▁bırakmadı	-12.0697
adil	-12.0706
▁360	-12.0707
▁hisar	-12.0709
rome	-12.0709
▁akay	-12.0715
vez	-12.0716
▁dink	-12.0716
▁olabiliyor	-12.0719
▁şarkıları	-12.072
▁soruştur	-12.0721
▁çıkması	-12.0721
▁ayırdı	-12.0721
▁davut	-12.0722
▁ecza	-12.0723
bülbül	-12.0725
▁agresif	-12.0725
▁göbeğ	-12.0725
▁milimetr	-12.0725
▁nürnberg	-12.0725
▁sosyoloji	-12.0725
▁stuttgart	-12.0725
▁tercüman	-12.0725
▁yuşçenko	-12.0725
▁şemdinli	-12.0725
▁kortej	-12.0725
▁kukla	-12.0725
▁görülmektedir	-12.0726
▁akredit	-12.0726
enformasyon	-12.0726
▁ortodo	-12.0726
▁galibi	-12.0726
▁antakya	-12.0726
▁(43)	-12.0726
▁anonim	-12.0726
▁tuval	-12.0726
▁transit	-12.0726
▁sürdüreceğiz	-12.0726
▁imdat	-12.0727
▁altınordu	-12.0727
▁gündoğdu	-12.0728
▁itham	-12.0728
▁haldun	-12.0728
▁1973	-12.0728
▁keleş	-12.0728
▁kulvar	-12.0728
▁editör	-12.0729
▁olursunuz	-12.0729
örü	-12.0729
▁açıkhava	-12.0729
▁portre	-12.0729
▁kürşat	-12.0729
▁beklenen	-12.073
▁balina	-12.073
▁total	-12.073
▁yorgan	-12.073
▁mevcuttur	-12.0731
▁yağdır	-12.0732
rdik	-12.0732
▁zerre	-12.0733
▁raporunda	-12.0733
▁2023	-12.0733
beledi	-12.0733
israil	-12.0734
hedef	-12.0735
özgür	-12.0735
lestir	-12.0735
hiçbir	-12.0735
atatürk	-12.0736
▁gros	-12.0736
birlik	-12.0736
zede	-12.0737
▁sabih	-12.0738
▁105	-12.0738
▁googleın	-12.0739
▁anderlecht	-12.074
kurtar	-12.0742
▁bulunuyoruz	-12.0745
▁ekonomist	-12.0748
▁özellikleri	-12.0749
▁doyur	-12.075
▁fair	-12.0754
▁jenni	-12.0756
zih	-12.0756
arta	-12.0759
aslan	-12.0759
▁tecrübeli	-12.0762
ebilirim	-12.0763
▁(20)	-12.0764
▁gemisi	-12.0768
▁yığıl	-12.0769
▁verilmişti	-12.0771
:‘	-12.0773
▁Wall	-12.0774
▁(5)	-12.0781
▁başlanacak	-12.0781
▁abartı	-12.0782
▁takdirde	-12.0782
▁işlek	-12.0782
:30	-12.0783
▁amk	-12.0784
▁olduklarını	-12.0786
▁mevlana	-12.0787
üzü	-12.0787
▁diyoruz	-12.0788
▁adına	-12.079
▁spk	-12.0791
▁diyar	-12.0793
▁özelleştirilme	-12.0796
▁cafer	-12.0801
▁düşer	-12.0803
roz	-12.0806
▁arttırma	-12.0806
▁toparlan	-12.0807
▁yorgo	-12.0807
larara	-12.0809
▁tüzük	-12.0812
▁Will	-12.082
▁temelli	-12.0821
▁denetlen	-12.0822
▁lou	-12.0823
▁sesi	-12.0826
▁efendim	-12.0831
▁çıkacağız	-12.0831
▁verecektir	-12.0835
▁yut	-12.0837
▁çoğal	-12.0839
çalışma	-12.084
ulurken	-12.0841
▁olmasi	-12.0841
▁aşağıla	-12.0843
miştik	-12.0853
▁niçin	-12.0855
▁bddk	-12.0857
▁soner	-12.0858
▁karşılık	-12.0861
▁War	-12.0867
▁çalışmalar	-12.087
ecekti	-12.0878
sızlık	-12.0881
▁atar	-12.0884
▁imkanları	-12.0888
baz	-12.0889
▁çed	-12.0891
▁jar	-12.0893
▁uyandır	-12.0897
vatan	-12.0898
▁107	-12.0899
▁salt	-12.0908
stat	-12.0908
▁yakalan	-12.091
-17	-12.0911
ralarında	-12.0917
▁günlerde	-12.092
ardım	-12.0922
▁sektörü	-12.093
▁guc	-12.093
▁nick	-12.0931
▁bulamadı	-12.0935
▁savcı	-12.0938
gren	-12.094
▁dolan	-12.0945
▁özlü	-12.0946
▁sürücü	-12.0947
▁tüzüğ	-12.0948
▁işgalin	-12.0948
▁doktorlar	-12.0953
▁Wars	-12.0954
▁sonrası	-12.0955
pur	-12.0962
▁nasır	-12.0963
lor	-12.0964
▁üstlendi	-12.0964
larca	-12.0969
ava	-12.0971
muyoruz	-12.0973
liğinde	-12.0976
maktı	-12.0977
▁işgü	-12.0979
▁koza	-12.0988
▁süreci	-12.0998
▁iddiaları	-12.0999
mışım	-12.1
▁çalka	-12.1004
▁şüpheli	-12.1007
▁federasyonu	-12.1008
▁açar	-12.101
sret	-12.1012
▁halı	-12.1018
▁ilçesi	-12.1021
▁108	-12.1023
▁mono	-12.1025
ümgeneral	-12.1028
▁cömert	-12.1028
▁hentbol	-12.1028
▁husumet	-12.1028
▁kayınvalide	-12.1028
▁kefalet	-12.1028
▁kozmetik	-12.1028
▁mandalina	-12.1028
▁mücevher	-12.1028
▁nostalji	-12.1028
▁sabıka	-12.1028
▁slovenya	-12.1028
▁tarantino	-12.1028
▁viktor	-12.1028
▁ümraniye	-12.1028
▁üsteğmen	-12.1028
▁android	-12.1029
▁zulüm	-12.1029
▁gediz	-12.1029
▁onkoloji	-12.1029
▁lokma	-12.1029
▁eklenti	-12.1029
▁bikini	-12.1029
▁caretta	-12.1029
▁yalvar	-12.1029
▁cunku	-12.1029
▁cihad	-12.1029
▁makarna	-12.1029
▁kırkpınar	-12.1029
▁cihangir	-12.1029
layacağız	-12.1029
▁ateist	-12.1029
▁perihan	-12.1029
▁hokey	-12.1029
▁kabahat	-12.1029
▁çatlak	-12.1029
rıfat	-12.1029
▁uludere	-12.1029
▁ımdb	-12.1029
▁nobre	-12.1029
▁gidişat	-12.103
▁bildiriliyor	-12.1031
▁pepe	-12.1031
▁bağdaş	-12.1031
▁1972	-12.1032
▁1986	-12.1032
▁reyhanlı	-12.1032
▁mazot	-12.1032
▁ambar	-12.1033
▁kumsal	-12.1033
▁miami	-12.1034
▁petek	-12.1034
▁yapabilme	-12.1034
ildiği	-12.1034
▁staj	-12.1035
▁baysal	-12.1035
▁dalış	-12.1035
▁yardımcısı	-12.1035
lov	-12.1035
▁kob	-12.1036
▁hayalet	-12.1036
▁çöktü	-12.1038
▁kaçarken	-12.1039
gri	-12.104
▁nitelendiril	-12.104
▁kıymetli	-12.104
▁hissedar	-12.104
▁milano	-12.1041
▁meğer	-12.1042
▁refik	-12.1042
▁free	-12.1043
jing	-12.1044
yiğit	-12.1045
▁berkin	-12.1047
çünkü	-12.1047
▁bulunmuştur	-12.1047
sosyal	-12.1047
▁sincan	-12.1048
öğren	-12.1048
▁hadis	-12.1049
▁kavra	-12.1049
sevgi	-12.1049
▁ören	-12.105
▁güls	-12.1051
▁kürek	-12.1051
▁kullanımı	-12.1051
Baş	-12.1052
▁edildiğini	-12.1055
▁beklerken	-12.1057
▁sorumlu	-12.1062
▁edecekler	-12.1064
▁saklı	-12.1065
▁korudu	-12.1065
▁soyer	-12.1065
▁uzaklaştı	-12.1073
efe	-12.1073
▁söylerk	-12.1074
tüt	-12.1074
futbol	-12.1075
▁açıktır	-12.1078
▁saçma	-12.1079
▁nuh	-12.1081
abileceğini	-12.1081
▁üvey	-12.1081
▁ayrılır	-12.1084
lyon	-12.1086
görev	-12.1086
▁vahim	-12.1089
▁püskürt	-12.1092
▁sec	-12.1093
hum	-12.1095
▁sınırla	-12.1095
▁bilgilendirme	-12.1097
▁lot	-12.1098
▁hala	-12.1099
▁başlarken	-12.1099
▁uyarlama	-12.1103
▁misin	-12.1105
▁big	-12.1108
▁rod	-12.1108
▁tarihinde	-12.1112
▁zey	-12.1113
ılıyordu	-12.1119
▁cüce	-12.112
▁yapabiliriz	-12.112
▁çalıştım	-12.1125
inho	-12.1125
▁kararda	-12.1126
▁parker	-12.1128
▁colo	-12.1134
▁erdil	-12.1134
▁şaşırtı	-12.1137
So	-12.114
abat	-12.1143
▁leon	-12.1144
ersiniz	-12.1149
iha	-12.115
▁depp	-12.1152
▁çan	-12.1154
ebildi	-12.1157
olur	-12.1162
▁cezalandırıl	-12.1164
▁imtiyaz	-12.1165
2004	-12.1171
mali	-12.1175
▁indirildi	-12.1179
▁fert	-12.1192
▁meral	-12.1192
oks	-12.1201
▁emil	-12.1202
▁kota	-12.1203
▁çekmişti	-12.1209
▁alerji	-12.1209
▁sahi	-12.1228
▁kullanarak	-12.1231
▁çizildi	-12.1232
zip	-12.1234
▁üretti	-12.1236
▁yazıyor	-12.1237
▁alınmış	-12.124
▁tuzak	-12.1241
▁arttırılma	-12.1241
▁fuarı	-12.1245
▁bölün	-12.1253
batı	-12.1254
ülüyor	-12.1255
▁taslağ	-12.126
▁terminali	-12.1273
▁donan	-12.1284
irdi	-12.1286
▁patlak	-12.129
▁tanıttı	-12.1296
liyim	-12.1304
▁şarkıcı	-12.1304
▁oynayan	-12.1304
▁töre	-12.1308
▁chang	-12.1308
▁genişletilme	-12.131
▁ııı	-12.1311
aziz	-12.1312
▁ezan	-12.1313
beyazlı	-12.1313
▁umursa	-12.1322
şam	-12.1326
▁gre	-12.1327
cağı	-12.1335
▁reyhan	-12.1338
▁zeybek	-12.1339
üyükçekmece	-12.1341
▁0-0	-12.1341
▁alexander	-12.1341
▁bertaraf	-12.1341
▁brifing	-12.1341
▁kütük	-12.1341
▁migros	-12.1341
▁mülakat	-12.1341
▁sesleniyorum	-12.1341
▁tofaş	-12.1341
▁şarampol	-12.1341
▁charli	-12.1341
▁fotograf	-12.1341
▁maradona	-12.1341
wood	-12.1341
▁beykoz	-12.1341
▁düşündüm	-12.1341
▁cevher	-12.1341
▁street	-12.1341
▁eczacıbaşı	-12.1341
▁rastgele	-12.1341
▁aytaç	-12.1341
▁ceyhan	-12.1341
▁görüşülme	-12.1341
▁(29)	-12.1341
▁andrew	-12.1341
▁niyazi	-12.1341
▁hayrettin	-12.1342
▁düşünmüyorum	-12.1342
▁gürses	-12.1342
▁marina	-12.1342
▁kidman	-12.1342
▁pyd	-12.1343
▁hükümdar	-12.1343
▁karakuş	-12.1343
▁rast	-12.1344
▁öymen	-12.1344
▁kocadon	-12.1345
▁hotel	-12.1345
▁banvit	-12.1345
▁micro	-12.1345
▁otururken	-12.1345
▁hacim	-12.1346
▁çetinkaya	-12.1347
▁kışkırt	-12.1347
▁hitaben	-12.1347
▁uslu	-12.1349
▁sunuluyor	-12.135
▁döl	-12.1351
▁düşeni	-12.1351
▁soba	-12.1352
▁bach	-12.1355
▁porto	-12.1355
Dİ	-12.1356
▁kurulmuştur	-12.1357
▁ödüllendiril	-12.1359
▁caferi	-12.1362
▁şaşırttı	-12.1363
▁6-3	-12.1363
▁seyr	-12.1366
▁yönlendiril	-12.1367
köprü	-12.1368
öte	-12.1369
mehmet	-12.137
lamak	-12.137
gazete	-12.137
▁nicole	-12.1371
▁simav	-12.1371
▁kurulacak	-12.1372
▁salgın	-12.1373
▁yönlendir	-12.1374
▁bakıyorum	-12.1374
▁dilerim	-12.1374
▁çalışır	-12.1376
▁dikkatle	-12.1377
zak	-12.1381
▁göstermektedir	-12.1382
▁song	-12.1382
▁eşsiz	-12.1383
aşk	-12.1384
boz	-12.1384
▁alves	-12.1386
▁ozel	-12.139
▁törene	-12.1392
▁kahverengi	-12.1394
engel	-12.1395
▁yapıldığı	-12.1396
▁kıyaslan	-12.1397
▁kullanırken	-12.1401
-21	-12.1405
2014	-12.1405
▁ogün	-12.1406
▁paketi	-12.1406
andırıcı	-12.1406
▁kalça	-12.1406
▁sabun	-12.1411
▁bağırdı	-12.1413
▁sadi	-12.1418
▁taşlı	-12.142
▁kasted	-12.1422
▁başlamıştır	-12.1422
▁yine	-12.1426
bele	-12.1427
mmer	-12.1428
▁mola	-12.143
▁terked	-12.1433
kili	-12.144
los	-12.1443
▁yapılmıştı	-12.1444
veya	-12.1446
2012	-12.1449
▁fm	-12.1449
▁veriyorum	-12.1455
▁ırmak	-12.1458
▁azalt	-12.1462
▁kardem	-12.1468
amamış	-12.1468
▁devred	-12.147
▁loto	-12.1471
▁miydi	-12.1475
▁karne	-12.1475
evli	-12.1477
▁yaparlar	-12.1477
▁ölçül	-12.1479
▁kesiş	-12.1482
▁buldum	-12.1487
ıyordum	-12.149
mc	-12.1491
▁yaramaz	-12.1493
▁sattı	-12.1495
▁peker	-12.1495
▁kazanır	-12.1496
▁tartışma	-12.1499
annem	-12.1504
▁(12	-12.1504
eder	-12.1506
hap	-12.1507
▁takib	-12.1516
▁söylüyorlar	-12.1516
▁sorunları	-12.1517
iro	-12.152
mayacağı	-12.1522
▁kızım	-12.1524
▁etkilendi	-12.1526
3.3	-12.153
▁kopar	-12.1533
Mİ	-12.1534
▁kırıldı	-12.1534
muk	-12.1535
▁Wood	-12.1537
zami	-12.1539
▁yaralanmıştı	-12.1542
▁kesk	-12.1543
▁yapmay	-12.1549
▁kazanıyor	-12.155
ella	-12.1551
▁müdürü	-12.1557
▁çalındı	-12.1558
▁yup	-12.1559
▁andy	-12.1561
▁lisesi	-12.1563
nica	-12.1568
leşiyor	-12.1568
▁185	-12.1568
▁marc	-12.1568
sıkı	-12.1579
▁dedirt	-12.1582
▁bağlandı	-12.1584
▁yapabilir	-12.1588
▁gitmiş	-12.1588
▁news	-12.1589
▁döşe	-12.159
▁bildirmişti	-12.1591
▁arıcı	-12.1592
▁girerk	-12.1592
▁tav	-12.1593
▁kont	-12.1596
▁yönetecek	-12.1601
narak	-12.1602
▁hızlandırılma	-12.1603
lıktır	-12.1609
▁3,5	-12.161
öh	-12.1613
ulus	-12.1614
zig	-12.1615
▁avukatları	-12.1622
kem	-12.1622
fkan	-12.1622
▁175	-12.1624
▁240	-12.1625
▁oturan	-12.1625
▁bozuldu	-12.1625
kre	-12.1626
deyk	-12.1627
▁tbmmn	-12.163
▁atta	-12.1632
▁inanc	-12.1633
▁ödedi	-12.1633
▁ağırladı	-12.1647
2.7	-12.1649
engiz	-12.1651
▁paten	-12.1651
ward	-12.1656
▁şaşırdı	-12.1658
▁başlaması	-12.1658
▁tesadüf	-12.166
▁belki	-12.1662
▁gam	-12.1663
behçet	-12.1664
opotam	-12.1664
▁antibiyotik	-12.1664
▁eşgüdüm	-12.1664
▁hakikaten	-12.1664
▁harvard	-12.1664
▁koordine	-12.1664
▁küçümse	-12.1664
▁muhakkak	-12.1664
▁sağduyu	-12.1664
▁tramvay	-12.1664
▁yörük	-12.1664
▁şantaj	-12.1664
seksüel	-12.1664
▁arçelik	-12.1664
▁cazibe	-12.1664
▁centilmen	-12.1664
▁gökbakar	-12.1664
▁kronik	-12.1664
▁rıdv	-12.1664
▁acayip	-12.1664
▁avrasya	-12.1664
▁yegane	-12.1664
▁göbek	-12.1664
▁ciğer	-12.1664
▁aıds	-12.1664
▁enişte	-12.1664
▁carrey	-12.1664
▁limited	-12.1665
▁güncelleme	-12.1665
▁vezir	-12.1665
▁seslendi	-12.1665
▁refleks	-12.1666
▁düşünülüyor	-12.1666
▁eker	-12.1666
▁barbar	-12.1666
▁louis	-12.1666
▁karbon	-12.1667
▁yıprat	-12.1667
▁medical	-12.1667
▁popül	-12.1667
▁hall	-12.1667
▁1981	-12.1667
▁kanalıyla	-12.1667
▁korner	-12.1668
beyazıt	-12.1668
▁canaydın	-12.1668
▁öncesinde	-12.1668
▁yaralanan	-12.1668
▁bulunamadı	-12.1669
3.8	-12.1669
▁spot	-12.1669
▁bellek	-12.1669
▁açıklamaları	-12.1669
mandıra	-12.167
▁salça	-12.167
▁anlaşılıyor	-12.1671
▁oyuncusu	-12.1671
▁tırnak	-12.1671
▁doruk	-12.1671
▁kürtaj	-12.1671
görü	-12.1671
▁ımfnin	-12.1672
▁zalim	-12.1672
▁klib	-12.1675
▁Wil	-12.1675
▁inanan	-12.1675
▁5-10	-12.1677
▁göksel	-12.1677
▁dolap	-12.1677
▁tabanca	-12.1679
hm	-12.1679
▁bekleyen	-12.1681
Sİ	-12.1681
▁görmüş	-12.1682
▁idil	-12.1684
▁eminim	-12.1688
▁artarken	-12.1689
▁kase	-12.1689
▁fast	-12.1691
▁öze	-12.1691
▁soğutma	-12.1695
▁kutup	-12.1696
▁oynanma	-12.1696
▁sandal	-12.1697
▁kürk	-12.1699
▁getireceğiz	-12.17
▁biliyordu	-12.17
▁yaratır	-12.1703
proje	-12.1703
pkk	-12.1704
barış	-12.1704
belki	-12.1707
uçuk	-12.1707
▁dortmund	-12.1709
▁buzul	-12.1709
▁festivale	-12.1709
▁söylemiş	-12.171
▁kattı	-12.1711
▁etmiyorum	-12.1711
▁twitterdan	-12.1711
başbak	-12.1712
▁görmedim	-12.1713
bata	-12.1715
▁kazanmıştır	-12.1715
▁belirleyecek	-12.1719
▁tuğla	-12.172
eth	-12.172
▁ünvan	-12.1723
▁aroma	-12.1725
▁onem	-12.173
▁yineledi	-12.1731
▁yapılmaktadır	-12.1733
mezdi	-12.1735
▁brad	-12.1736
▁öğrendik	-12.1739
▁geçerk	-12.174
▁andre	-12.1741
▁gelsin	-12.1742
▁elit	-12.1757
amazlar	-12.1757
amık	-12.1758
iwan	-12.1759
guard	-12.1763
▁gereği	-12.1764
▁serap	-12.1765
tırılacak	-12.1766
▁oyak	-12.1769
▁erik	-12.1769
wan	-12.1772
TI	-12.1774
spi	-12.1776
▁arpa	-12.1778
▁davası	-12.1779
▁cemaati	-12.1787
▁kaval	-12.1787
▁ring	-12.1787
▁dönecek	-12.1788
▁giderek	-12.1788
▁Ankara	-12.1789
▁etkinlik	-12.1789
uzu	-12.1793
▁gösterdiler	-12.1793
gol	-12.1796
▁durur	-12.1798
▁yönetti	-12.1801
▁suçlanıyor	-12.1807
malıydı	-12.1812
▁dul	-12.1825
▁silva	-12.1825
▁haklı	-12.1831
▁seribaş	-12.1831
▁içerir	-12.1833
▁apps	-12.1834
porta	-12.1841
Bir	-12.1842
dost	-12.1843
ersin	-12.1844
▁eklenme	-12.1847
alm	-12.1847
2001	-12.1849
maktadırlar	-12.185
▁alıyorlar	-12.1851
ydü	-12.1859
▁semboller	-12.1866
gazı	-12.1866
▁280	-12.188
yabiliriz	-12.1892
▁ölmüştü	-12.1895
üyordu	-12.1899
▁burk	-12.19
▁alması	-12.1901
üzel	-12.1911
üj	-12.1911
olo	-12.1912
ulan	-12.1913
life	-12.1914
lha	-12.1917
▁hard	-12.1918
''	-12.192
▁tuş	-12.1922
▁1200	-12.1922
▁kutluyor	-12.1929
▁geçmesi	-12.193
▁zaaf	-12.193
▁milletvekilleri	-12.1935
▁pervi	-12.1946
asuman	-12.1955
▁şev	-12.1958
▁planı	-12.196
kırmızılılar	-12.1963
anların	-12.1967
▁chan	-12.197
jen	-12.197
dugu	-12.1974
ET	-12.1974
bali	-12.1978
▁açacak	-12.1979
▁haşla	-12.1981
▁azeri	-12.1982
▁olacaklar	-12.1984
▁önleme	-12.1985
▁forması	-12.1988
▁çırp	-12.1993
▁baca	-12.1995
unanistan	-12.1996
pazarı	-12.1997
Diyarbakır	-12.1997
▁Wimbledon	-12.1997
▁acıbadem	-12.1997
▁anthony	-12.1997
▁ekvador	-12.1997
▁fasulye	-12.1997
▁frekans	-12.1997
▁kombine	-12.1997
▁konfeksiyon	-12.1997
▁konsorsiyum	-12.1997
▁kubilay	-12.1997
▁molekül	-12.1997
▁patlıcan	-12.1997
▁talabani	-12.1997
▁vatikan	-12.1997
▁yurdakul	-12.1997
▁çağatay	-12.1997
▁kısıtlı	-12.1997
▁matbaa	-12.1997
▁sinemia	-12.1997
▁disney	-12.1997
▁mevzi	-12.1997
▁23.00	-12.1997
▁kreş	-12.1997
▁kırgın	-12.1997
▁mahalli	-12.1997
▁zeynel	-12.1997
▁spurs	-12.1997
▁çeçenistan	-12.1997
▁medrese	-12.1997
▁sarsıntı	-12.1997
▁gübre	-12.1997
▁resul	-12.1998
▁siverek	-12.1998
▁şemsiye	-12.1998
▁kenetlen	-12.1998
▁libero	-12.1998
▁vurguluyor	-12.1998
▁şahsiyet	-12.1998
▁fırça	-12.1998
▁mithat	-12.1998
▁göstergesidir	-12.1998
▁şems	-12.1998
▁yerleşke	-12.1998
▁enzim	-12.1998
▁çıkartıldı	-12.1998
▁bridge	-12.1999
▁ihrac	-12.1999
▁zammı	-12.1999
▁anlatıldı	-12.1999
▁music	-12.1999
▁arabulu	-12.1999
▁kaşık	-12.1999
▁afrin	-12.1999
▁(9	-12.1999
▁demirör	-12.1999
▁masaüstü	-12.1999
▁jest	-12.2
▁bond	-12.2
▁şeria	-12.2
▁cannes	-12.2001
▁gedik	-12.2001
▁1955	-12.2001
▁müziksever	-12.2001
▁gayrı	-12.2001
▁1976	-12.2001
▁ışıkkent	-12.2002
▁kanadalı	-12.2003
ojen	-12.2003
▁saygun	-12.2004
▁abant	-12.2004
▁hollande	-12.2005
▁mezra	-12.2005
▁hos	-12.2005
▁kayd	-12.2005
ğuta	-12.2006
▁örtül	-12.2006
▁verip	-12.2007
russia	-12.2007
mira	-12.2007
▁long	-12.2008
▁castro	-12.2009
zet	-12.2009
▁5-6	-12.201
▁ihsanoğ	-12.2011
▁sahra	-12.2011
▁murad	-12.2011
▁bilemiyorum	-12.2012
▁sağlayacağız	-12.2012
▁20.30	-12.2013
▁koyalım	-12.2013
zole	-12.2015
▁bros	-12.2016
▁beklerk	-12.2017
▁tarikat	-12.2018
▁ödenecek	-12.2022
▁bariz	-12.2024
▁önünde	-12.2025
▁juan	-12.2027
▁sancak	-12.2027
▁miller	-12.2028
▁iştah	-12.2031
▁sağlanıyor	-12.2032
▁öncesi	-12.2034
▁lamba	-12.2036
▁heat	-12.2039
▁üşü	-12.2043
▁açılması	-12.2047
inşallah	-12.2047
cumhuriyet	-12.2048
çiçek	-12.2049
▁yazık	-12.205
ledik	-12.2052
▁(7)	-12.2053
suriye	-12.2053
gizli	-12.2054
▁odağı	-12.2056
▁kitabı	-12.2057
▁muhsin	-12.2058
▁kazanmıştı	-12.2058
ebe	-12.2074
▁salak	-12.2081
▁dergisi	-12.2082
ımf	-12.2084
▁reçete	-12.2085
▁etmeyin	-12.2085
▁attılar	-12.2087
▁yeşim	-12.209
▁halat	-12.2091
▁tuzağ	-12.2093
▁bağlıdır	-12.2096
ayd	-12.2098
pil	-12.2099
▁ajansı	-12.2099
▁demokratikleş	-12.2099
▁yaşadım	-12.2101
kuru	-12.2101
▁(2)	-12.2104
▁maçında	-12.2105
▁degis	-12.2106
▁hakemler	-12.2109
▁çıkıyoruz	-12.2111
aşılma	-12.2115
linç	-12.2117
2.3	-12.2117
▁attım	-12.2119
▁görüşü	-12.2119
layın	-12.212
▁nazik	-12.2124
▁katılın	-12.2124
▁yetkilisi	-12.2124
zhou	-12.2129
▁mtv	-12.213
▁endeksi	-12.214
▁başak	-12.2141
▁yürürk	-12.2144
▁kurulması	-12.2145
▁uyarla	-12.2148
sunu	-12.2157
uma	-12.2165
▁kefe	-12.2167
▁gerçekleştirdik	-12.2168
▁burası	-12.2171
tatvan	-12.2177
▁hakları	-12.2178
▁manuel	-12.2179
lap	-12.2182
▁kovala	-12.2184
▁örgütleri	-12.2185
▁drama	-12.2188
ethem	-12.2197
▁dönüşüm	-12.2203
fır	-12.2221
▁olacağını	-12.2224
laştırıyor	-12.223
▁cemevi	-12.2232
arsınız	-12.2237
▁düşecek	-12.2238
liyorum	-12.2238
adana	-12.2245
tası	-12.2249
▁sergisi	-12.2251
▁jane	-12.226
▁Wer	-12.226
▁ural	-12.2262
▁116	-12.2263
mümin	-12.2272
▁6.5	-12.2273
▁yürütülme	-12.2275
▁konseri	-12.2275
▁log	-12.2275
▁vazgeçti	-12.2277
ceğiz	-12.2277
hale	-12.2282
▁çevrili	-12.2282
▁desti	-12.2285
▁öldüğü	-12.229
▁aranıyor	-12.2294
acaklarını	-12.2295
▁komitesi	-12.2303
6.4	-12.2304
irse	-12.2304
▁halled	-12.2319
sudur	-12.232
ehri	-12.232
▁dizel	-12.232
form	-12.2326
▁kısıtlama	-12.2328
nabilme	-12.233
▁örgü	-12.2333
▁teknolojisi	-12.2334
▁elektron	-12.2338
▁atmıştı	-12.2341
▁mahrum	-12.2341
AT	-12.2342
▁aktivist	-12.2342
▁akvaryum	-12.2342
▁başesgioğlu	-12.2342
▁delgado	-12.2342
▁fehmi	-12.2342
▁filozof	-12.2342
▁gaddar	-12.2342
▁gelibolu	-12.2342
▁kebap	-12.2342
▁kosgeb	-12.2342
▁lopez	-12.2342
▁müzayede	-12.2342
▁organizatör	-12.2342
▁selvitopu	-12.2342
▁tebligat	-12.2342
▁timsah	-12.2342
▁1944	-12.2342
▁capital	-12.2342
▁gevşe	-12.2342
▁karanfil	-12.2342
▁kelebek	-12.2342
▁linux	-12.2342
▁müsait	-12.2342
▁speed	-12.2342
▁tuncer	-12.2342
▁tüfeği	-12.2342
▁bebeğe	-12.2342
▁mehmed	-12.2342
▁opsiyon	-12.2342
▁ronaldinho	-12.2342
▁öldürülmüştü	-12.2342
▁erdinç	-12.2342
▁lincoln	-12.2342
▁rahip	-12.2342
▁diyadin	-12.2342
▁kargaşa	-12.2342
▁çorap	-12.2342
▁sömürge	-12.2342
▁tayfur	-12.2342
▁menzil	-12.2342
▁klip	-12.2342
▁teneke	-12.2342
▁(30)	-12.2342
▁(33)	-12.2342
▁filtre	-12.2342
▁(32)	-12.2342
▁mahrumiyet	-12.2342
▁üslub	-12.2342
▁hükmetti	-12.2342
▁barbaros	-12.2343
▁bagaj	-12.2343
ençlerbirliği	-12.2343
▁manyeti	-12.2343
▁yaşıt	-12.2343
▁fesat	-12.2343
sunda	-12.2343
▁kunter	-12.2343
▁yeşilçam	-12.2344
▁pırlanta	-12.2344
▁üzgün	-12.2344
▁vuruş	-12.2345
▁yüküm	-12.2346
▁gerçekleşecek	-12.2347
▁slam	-12.2347
▁sürdürüyoruz	-12.2348
▁görüşünde	-12.2348
▁7-8	-12.2348
▁hobi	-12.2348
▁sağlayacaktır	-12.235
▁dudak	-12.235
▁aktarıldı	-12.2351
▁elektriğ	-12.2351
castle	-12.2351
▁6-4	-12.2351
▁ruhsal	-12.2352
▁vatansever	-12.2356
▁tamamlanacak	-12.2357
▁kaynaklanıyor	-12.2357
▁nbade	-12.2358
▁diyelim	-12.2358
▁kenya	-12.2359
▁etkinliğ	-12.2359
▁ikmal	-12.2363
▁elena	-12.2365
▁fırlatıl	-12.2366
▁petrolü	-12.2366
▁mektupta	-12.2366
▁yüksekova	-12.2369
▁çelen	-12.237
:‘‘	-12.237
▁viya	-12.2372
▁güvenilir	-12.2372
ache	-12.2378
▁yazarken	-12.2379
▁direğ	-12.2387
aşa	-12.2387
▁niteledi	-12.2388
▁kırca	-12.2388
▁törenine	-12.239
▁sordum	-12.2399
rry	-12.2403
mustafa	-12.2405
başarı	-12.2405
▁ödemiş	-12.2406
▁yöneten	-12.2406
▁amiral	-12.2408
▁tedaş	-12.2409
aynı	-12.241
galatasaray	-12.2411
▁hikayesi	-12.2413
▁onar	-12.2415
kaza	-12.2415
▁şap	-12.2416
▁https	-12.2417
gara	-12.2419
vergi	-12.2421
▁takim	-12.2422
▁iyidir	-12.2425
▁said	-12.2426
▁ertaş	-12.2426
tter	-12.2435
▁gelişmeler	-12.2435
▁850	-12.2438
▁yöneltti	-12.2438
▁valiliği	-12.2442
öst	-12.2442
▁bayramı	-12.2443
▁vah	-12.2443
▁kilitle	-12.2444
▁sızma	-12.2446
▁talihsiz	-12.2452
▁sitesi	-12.2457
▁sinyal	-12.2458
▁haliç	-12.246
▁blu	-12.2461
amazsın	-12.2464
▁musa	-12.2465
▁sürücüler	-12.247
gus	-12.2471
▁toparla	-12.2475
▁seslendiril	-12.2477
saat	-12.2478
▁kak	-12.2479
▁hayr	-12.2484
vekil	-12.2485
abilmek	-12.2507
▁attık	-12.2509
▁çıkmıştır	-12.2518
▁your	-12.2519
▁serdi	-12.2519
rahm	-12.2522
▁bakar	-12.2536
▁adedi	-12.254
polen	-12.2541
misi	-12.2545
lenerek	-12.2549
▁yattı	-12.255
▁kimdir	-12.2553
yara	-12.2556
arap	-12.2557
mışken	-12.2559
▁state	-12.2559
ebiliyoruz	-12.2564
▁ederse	-12.2573
▁cogu	-12.2575
yır	-12.2581
güç	-12.2583
more	-12.2584
▁doktora	-12.2586
▁114	-12.2596
▁ayaz	-12.2599
bec	-12.2606
▁alacaklar	-12.2608
df	-12.2613
yaşa	-12.2614
iyan	-12.2618
▁havaalan	-12.2624
▁arık	-12.2626
ulmuştur	-12.2627
▁kaybeder	-12.263
▁147	-12.2648
▁sıfatı	-12.2652
▁şubesi	-12.2653
lıyım	-12.2659
▁kalmıyor	-12.2664
▁asil	-12.2664
onun	-12.2666
▁yasama	-12.2668
▁çeker	-12.268
mra	-12.2682
mesine	-12.2689
▁12.00	-12.2691
▁tetikle	-12.2692
arko	-12.2695
▁kontrolleri	-12.2698
▁nezaret	-12.2698
rablus	-12.2699
▁affleck	-12.2699
▁ebeveyn	-12.2699
▁enstrüman	-12.2699
▁kalaşnikof	-12.2699
▁klozet	-12.2699
▁muvazzaf	-12.2699
▁obezite	-12.2699
▁radyasyon	-12.2699
▁zavallı	-12.2699
▁akabinde	-12.2699
▁batarya	-12.2699
▁houston	-12.2699
▁nazilli	-12.2699
▁trajik	-12.2699
▁bieber	-12.2699
▁sadakat	-12.2699
onservatuvar	-12.2699
▁balayı	-12.2699
▁single	-12.2699
▁ypg	-12.2699
▁bartın	-12.2699
▁cameron	-12.2699
▁estonya	-12.2699
▁sıyrıl	-12.2699
▁akçakale	-12.2699
▁aktris	-12.2699
▁vardiya	-12.2699
▁(34)	-12.2699
▁buluşturdu	-12.2699
▁bünya	-12.2699
hard	-12.2699
▁jeoloji	-12.2699
▁chow	-12.27
▁ambargo	-12.27
▁zico	-12.27
▁tertip	-12.27
eminist	-12.27
▁mecburiyet	-12.27
▁joker	-12.27
▁değiştirildi	-12.27
▁osmangazi	-12.2701
▁hırvat	-12.2701
▁rick	-12.2702
book	-12.2702
▁mumcu	-12.2702
▁1978	-12.2702
▁şahane	-12.2702
rabia	-12.2702
▁asena	-12.2702
▁gomez	-12.2703
▁1971	-12.2703
▁rüştü	-12.2703
▁yazdırdı	-12.2704
▁server	-12.2704
▁kamerun	-12.2705
▁yayımladı	-12.2705
▁semra	-12.2705
▁çalgı	-12.2706
▁kurdele	-12.2707
▁sınai	-12.2707
▁aviv	-12.2707
▁yavaşla	-12.2708
▁imkansız	-12.2709
▁ezber	-12.2709
▁barınak	-12.271
▁peri	-12.271
lanarak	-12.2711
▁ayrica	-12.2711
▁litera	-12.2711
▁light	-12.2713
▁sinyaller	-12.2713
▁santraller	-12.2714
▁ferit	-12.2715
▁hasat	-12.2716
town	-12.2717
▁sonuncu	-12.2718
▁kısmet	-12.2718
▁hile	-12.2718
▁gaza	-12.2722
▁yorumladı	-12.2722
▁konakla	-12.2724
▁isviçreli	-12.2725
▁ultra	-12.2727
▁ergun	-12.2727
▁thor	-12.2729
▁başlattık	-12.273
▁psikiyatri	-12.2731
▁luis	-12.2733
▁urfa	-12.2735
▁aynur	-12.2735
oksi	-12.2736
rmik	-12.2736
cristiano	-12.2739
▁yiyecek	-12.2739
▁taha	-12.2741
▁bere	-12.2747
şimdi	-12.2747
▁mönü	-12.2747
▁yapılacaktır	-12.2748
▁söylerken	-12.2748
saha	-12.2753
▁sağlanması	-12.2754
▁karama	-12.2754
▁tacik	-12.2758
▁kazık	-12.2764
▁kazandırdı	-12.2765
.......	-12.2766
▁ettirdi	-12.2768
▁yetiştirilme	-12.2769
▁ediyorsunuz	-12.2772
▁şenel	-12.2775
şampiyon	-12.2777
▁aylin	-12.2778
▁isterken	-12.2779
▁that	-12.278
▁yönlendirme	-12.2781
yerel	-12.2783
jiang	-12.2786
▁sanki	-12.2787
rop	-12.2792
nasıl	-12.2793
▁özdağ	-12.2794
mekti	-12.2796
▁anımsatıl	-12.2796
fizik	-12.2799
▁belgesi	-12.2799
leşmesi	-12.28
▁çabala	-12.2801
▁çalışıyordu	-12.2803
▁metropol	-12.2803
kkk	-12.2804
▁erten	-12.2808
▁valiz	-12.2808
▁134	-12.2812
kele	-12.2813
▁manga	-12.2815
gerçekleştirecek	-12.2819
▁övün	-12.2819
▁ahali	-12.282
kala	-12.2822
ılacaktır	-12.2823
5.7	-12.2824
▁dolayl	-12.2829
▁izni	-12.2834
▁girmiş	-12.2838
▁tmsfn	-12.2838
eceksin	-12.2841
▁susam	-12.2843
▁savas	-12.2843
3.4	-12.2848
▁çıkabilir	-12.2848
▁anlatılıyor	-12.2849
▁çivi	-12.2852
rum	-12.2852
▁gerileme	-12.2858
▁istemiş	-12.2858
slav	-12.286
▁taşıyan	-12.2861
▁olabilirdi	-12.2862
mamız	-12.2865
▁derecesi	-12.2865
fos	-12.287
vari	-12.2871
▁halleri	-12.2875
ğım	-12.2878
▁mahir	-12.2879
▁tayla	-12.288
▁tanığ	-12.2881
▁katılması	-12.2884
▁avlan	-12.2884
▁öldürme	-12.2886
hun	-12.2892
▁bry	-12.2893
▁yükseltilme	-12.2894
2013	-12.2894
▁pişiril	-12.2901
tele	-12.2902
▁saatle	-12.2903
▁anıldı	-12.2903
▁sihir	-12.2907
tayım	-12.2916
▁sudan	-12.2917
▁haberal	-12.2919
▁sınırlama	-12.2922
▁konuşur	-12.2924
▁alınmadı	-12.2926
EK	-12.2928
İR	-12.2935
▁1,3	-12.2963
▁ispatla	-12.2965
▁aralık	-12.2973
mamaktadır	-12.2976
▁yapıyordu	-12.2978
chuan	-12.2982
▁anaf	-12.2986
amıyorlar	-12.2987
abileceği	-12.2987
▁oyları	-12.2994
▁kuruluşları	-12.2995
lıdere	-12.3001
eira	-12.3004
stro	-12.3005
▁harfler	-12.3006
flo	-12.3007
▁atış	-12.3016
eksiksiz	-12.3024
▁otomobi	-12.3029
bugüne	-12.3029
▁batır	-12.303
üldüğünü	-12.3035
sert	-12.3041
inmektedir	-12.3043
wn	-12.3045
berk	-12.3047
▁belirtilme	-12.3049
▁oluşturul	-12.3052
▁biyoloji	-12.3056
ııı	-12.3061
nabiliyor	-12.3062
▁artırıl	-12.3063
▁slovak	-12.3065
▁gönen	-12.3067
▁süpür	-12.3068
gov	-12.3069
tmmob	-12.3069
üçükçekmece	-12.3069
▁beylikdüzü	-12.3069
▁faşizm	-12.3069
▁felluce	-12.3069
▁fenomen	-12.3069
▁gencecik	-12.3069
▁kıvılcım	-12.3069
▁lüksemburg	-12.3069
▁moldova	-12.3069
▁müddet	-12.3069
▁narenciye	-12.3069
▁neslihan	-12.3069
▁orjinal	-12.3069
▁perspektif	-12.3069
▁sociedad	-12.3069
▁spekülasyon	-12.3069
▁university	-12.3069
▁valencia	-12.3069
▁zombi	-12.3069
▁üslup	-12.3069
▁hanımefendi	-12.3069
▁inisiyatif	-12.3069
▁kıvam	-12.3069
▁sofya	-12.3069
▁08.00	-12.3069
▁spiker	-12.3069
▁trump	-12.3069
motive	-12.3069
▁kübra	-12.3069
▁inovasyon	-12.3069
▁külliye	-12.3069
▁cehalet	-12.3069
▁akkaş	-12.3069
▁tiryaki	-12.3069
▁kağan	-12.3069
▁marvel	-12.3069
▁taylor	-12.3069
▁alıkoy	-12.3069
▁kervansaray	-12.307
▁altıpar	-12.307
▁egzo	-12.307
▁mercan	-12.307
▁senegal	-12.307
▁rauf	-12.307
▁sürdürürk	-12.307
▁gürcü	-12.307
▁vakıfbank	-12.3071
afineri	-12.3071
▁düdük	-12.3071
▁kıvrıkoğ	-12.3071
▁victoria	-12.3071
▁kınık	-12.3072
▁bilimadam	-12.3072
▁pazaryeri	-12.3073
▁1974	-12.3073
Türk	-12.3074
▁1923	-12.3074
▁uyurken	-12.3075
▁kaydırıl	-12.3075
▁pastane	-12.3075
▁bmW	-12.3076
▁1961	-12.3077
▁atlı	-12.3077
▁kaydediliyor	-12.3078
▁karatay	-12.3078
▁19.30	-12.3079
▁artvin	-12.3079
▁4-1	-12.3081
ırsak	-12.3082
▁2019	-12.3082
▁kalkıyor	-12.3082
aux	-12.3083
▁çarpışma	-12.3083
▁keman	-12.3084
▁çeken	-12.3084
▁bildirimi	-12.3084
▁safha	-12.3086
▁mekanik	-12.3086
▁tutsak	-12.3087
▁kabile	-12.3088
check	-12.3088
▁özhan	-12.3091
▁terry	-12.3091
yeri	-12.3091
▁karşısında	-12.3092
▁tipik	-12.3094
▁doldurdu	-12.3097
emre	-12.3097
▁mobe	-12.3099
▁sarnı	-12.3099
▁balcı	-12.31
▁samsung	-12.3101
▁gideceğiz	-12.3101
▁avla	-12.3102
▁gereklidir	-12.3103
▁biçer	-12.3104
▁xxx	-12.3107
▁aydemir	-12.3107
tso	-12.3107
▁beraberlik	-12.3108
▁hazırlıyor	-12.3108
▁(17)	-12.3109
▁dolandır	-12.311
▁alınan	-12.3115
▁arayan	-12.3122
meyeceğini	-12.3122
▁karasu	-12.3129
▁gülay	-12.313
▁vaat	-12.3131
▁türkçe	-12.3131
▁görülebilir	-12.3132
▁yoksun	-12.3133
▁dağıtım	-12.3135
▁alıyorum	-12.3145
▁1930	-12.3146
▁kalmaz	-12.3151
▁büyükbaş	-12.3152
▁benimsen	-12.3152
birliği	-12.3153
DI	-12.3153
▁oturuyor	-12.3154
▁yaptigi	-12.3156
▁yaparız	-12.3156
yürek	-12.3157
▁nesir	-12.3159
kültür	-12.316
demokrasi	-12.316
demokratik	-12.316
üniversite	-12.3162
▁(4)	-12.3163
▁genelev	-12.3164
kaynak	-12.3164
800	-12.3165
▁düzeltilme	-12.3165
ilmelidir	-12.3168
ekonomik	-12.3168
abilmektedir	-12.317
seven	-12.3171
silah	-12.3175
▁ensar	-12.3175
inat	-12.3176
▁verdiğini	-12.3176
▁bizim	-12.3177
▁nuray	-12.3177
▁pri	-12.3185
sıydı	-12.3185
▁verdiği	-12.3194
aset	-12.3195
▁pier	-12.3199
kamp	-12.3199
▁yakin	-12.3199
▁yazmış	-12.3202
▁görmüştü	-12.3202
iği	-12.3202
ılabilme	-12.3205
ımızda	-12.3211
▁2.0	-12.3211
▁ufk	-12.3225
eceklerdir	-12.3225
▁subaşı	-12.3228
asl	-12.3229
indeyiz	-12.3232
▁sıkıştı	-12.3236
shan	-12.3237
okrat	-12.3237
▁190	-12.3238
▁night	-12.3243
▁bilgiç	-12.3244
lanladı	-12.3247
▁düşünen	-12.3249
▁marie	-12.325
▁basını	-12.325
▁bou	-12.3251
▁kaçırdı	-12.3254
▁hijyen	-12.3261
önem	-12.3267
▁123	-12.3268
masınlar	-12.3268
▁okuyor	-12.3275
▁yapılmalı	-12.3276
▁redd	-12.3284
▁bahsetti	-12.3289
enko	-12.3294
▁(17	-12.3295
▁serik	-12.3295
▁bağışlan	-12.3302
▁julian	-12.3303
▁şili	-12.331
▁basma	-12.331
▁uzattı	-12.331
cağız	-12.3312
▁döneminde	-12.3318
sinden	-12.3319
mayacaklar	-12.332
▁havale	-12.3321
▁ipad	-12.333
basi	-12.3332
mıs	-12.3336
▁kra	-12.3337
▁tark	-12.3345
▁135	-12.335
mix	-12.3354
ürkmenistan	-12.3358
▁kullanacak	-12.3361
wei	-12.3362
uad	-12.3364
▁kadrosu	-12.3366
mamalıdır	-12.3366
kez	-12.3368
▁savasi	-12.3368
sül	-12.3371
kere	-12.3374
osman	-12.3374
▁bulunul	-12.3374
▁tehlikesi	-12.3379
▁rand	-12.3379
rmen	-12.3384
deyiz	-12.3394
▁dağıtılma	-12.3397
▁klas	-12.3403
amp	-12.3413
▁142	-12.3415
maktadir	-12.3417
▁üçer	-12.3422
▁söyleyen	-12.343
uka	-12.3433
▁sınırlandır	-12.3434
dava	-12.3439
▁çıta	-12.3446
▁belirtilmişti	-12.3448
▁apple	-12.345
▁imzalama	-12.3453
▁kırgız	-12.3454
Kahramanmaraş	-12.3454
hunharca	-12.3454
çhsdk	-12.3454
▁bürokrasi	-12.3454
▁entelektüel	-12.3454
▁enteresan	-12.3454
▁evsahibi	-12.3454
▁françoi	-12.3454
▁group	-12.3454
▁hububat	-12.3454
▁kennedy	-12.3454
▁meçhul	-12.3454
▁muhakeme	-12.3454
▁oramiral	-12.3454
▁orgazm	-12.3454
▁palmiye	-12.3454
▁prodüktör	-12.3454
▁promosyon	-12.3454
▁sosyete	-12.3454
▁susurluk	-12.3454
▁şampyon	-12.3454
▁beach	-12.3454
▁cevdet	-12.3454
▁elverişli	-12.3454
▁nikotin	-12.3454
Ancak	-12.3454
▁çapkın	-12.3454
▁irtica	-12.3454
▁infilak	-12.3454
▁college	-12.3454
▁sepet	-12.3454
▁koskoca	-12.3454
organizma	-12.3454
▁Warner	-12.3454
▁öpüş	-12.3454
▁reaksiyon	-12.3454
▁refakat	-12.3454
▁elebaşı	-12.3454
▁lozan	-12.3454
▁yanındayız	-12.3455
▁yanılgı	-12.3455
▁eğitmen	-12.3455
Saray	-12.3455
▁ihtiyat	-12.3455
mekteyiz	-12.3455
▁bavul	-12.3455
▁doçent	-12.3455
▁çomar	-12.3455
▁etkileşim	-12.3456
▁hilal	-12.3456
▁carter	-12.3456
▁pusula	-12.3456
▁beygir	-12.3457
▁akalın	-12.3457
▁elazığspor	-12.3458
▁latince	-12.3458
▁tesadüfen	-12.3458
▁1963	-12.3458
▁1949	-12.3459
play	-12.3459
ommy	-12.3459
▁1948	-12.346
ridge	-12.346
▁dallas	-12.346
▁1962	-12.3461
▁mangal	-12.3461
▁hissediyor	-12.3461
▁buradayız	-12.3461
▁sempatik	-12.3463
▁sıkışık	-12.3463
▁memnunum	-12.3463
▁faik	-12.3463
▁savcılık	-12.3464
▁şaşırdım	-12.3465
▁yaprağ	-12.3466
▁ağaoğlu	-12.3466
smart	-12.3467
▁patlatıl	-12.3467
▁kurutul	-12.3468
▁yayınlanacak	-12.3468
leştirilmesi	-12.3469
▁zahmet	-12.3469
▁sosyalizm	-12.3469
▁4,5	-12.3471
▁111	-12.3472
▁tepsi	-12.3472
▁arthur	-12.3472
▁siyasetçi	-12.3473
▁batak	-12.3476
▁ikaz	-12.3478
▁musun	-12.348
lugu	-12.3481
▁topluyor	-12.3481
▁yayınları	-12.3483
lerken	-12.3483
▁mülki	-12.3483
▁str	-12.3483
▁ulaşırken	-12.3484
▁artırıyor	-12.3484
▁asıldı	-12.3485
▁okuyan	-12.3485
minal	-12.3486
▁dondurul	-12.3488
bük	-12.3489
afiz	-12.349
▁imzası	-12.3491
▁artacak	-12.3491
▁ivedi	-12.3491
lug	-12.3492
suzluk	-12.35
thy	-12.3501
▁önseç	-12.3502
▁metaller	-12.3504
▁aştı	-12.3505
▁seyf	-12.3507
▁döşeme	-12.3509
lone	-12.351
güm	-12.351
▁gerekirdi	-12.3513
▁çarpıt	-12.3513
▁lazer	-12.3513
▁aittir	-12.3514
swee	-12.3515
▁taşınacak	-12.3515
▁imzalanma	-12.3515
çılar	-12.3515
▁olmasay	-12.3515
▁zordur	-12.3516
cami	-12.3516
▁ödülleri	-12.352
tırken	-12.3525
▁gönderdik	-12.3525
▁gözetle	-12.3525
▁şik	-12.3527
pert	-12.3531
▁sağlığı	-12.3532
▁hatta	-12.3539
▁baskısı	-12.3539
▁tutuklanmıştı	-12.354
▁geçerken	-12.3542
▁ilerliyor	-12.3542
▁ork	-12.3546
▁yaptıklarını	-12.3547
flas	-12.3549
▁gösterecek	-12.3552
▁kralı	-12.3553
fterdar	-12.3555
▁geleceği	-12.3555
▁türeli	-12.3556
değer	-12.3556
▁başlayan	-12.3557
▁uyuş	-12.3558
şifre	-12.3559
hukuk	-12.356
elektrik	-12.356
karşıyaka	-12.356
tabii	-12.356
▁gittiler	-12.356
hürriyet	-12.3561
aktif	-12.3561
ermeni	-12.3561
acti	-12.3562
tobb	-12.3563
stein	-12.3564
▁firması	-12.3565
mobil	-12.3565
TE	-12.3565
başbakan	-12.3566
▁hissettir	-12.3569
▁sıraladı	-12.357
rama	-12.357
▁derler	-12.357
▁durumdur	-12.3573
▁harfleri	-12.3573
▁albert	-12.3575
▁kuyruğu	-12.3576
▁ulaşabil	-12.3577
▁katip	-12.3585
▁matt	-12.3588
▁karşılaştırıl	-12.3593
▁mecburi	-12.3593
▁biten	-12.3594
▁kemalin	-12.3596
amül	-12.3596
▁sanılıyor	-12.3597
▁toparlanma	-12.3598
▁sulak	-12.36
▁göstermişti	-12.3602
▁bilic	-12.3605
▁guru	-12.3606
rof	-12.3607
ılış	-12.3612
▁duş	-12.3615
▁güvenlik	-12.3618
▁pey	-12.362
▁taşer	-12.362
▁salonu	-12.3622
▁şüphesi	-12.3622
abilirsin	-12.3622
▁tanınıyor	-12.3623
yebilirsiniz	-12.3624
siad	-12.3626
▁ishal	-12.3632
▁utah	-12.3636
▁verebilir	-12.3638
▁hayalleri	-12.3639
banka	-12.3641
lenirk	-12.3646
lerimizin	-12.3648
niversite	-12.3649
cola	-12.365
anka	-12.3653
spa	-12.3654
otop	-12.366
▁cs	-12.366
▁bırakıyor	-12.3662
▁tvn	-12.3663
liyiz	-12.3672
▁şüpheliler	-12.3681
abiliyorlar	-12.3684
acaklardır	-12.3689
4.2	-12.37
▁anlatacak	-12.3702
▁biçil	-12.3702
▁açabilir	-12.3705
▁anlaşması	-12.3706
▁ıntel	-12.371
posta	-12.3714
▁markası	-12.3716
▁edebilecek	-12.3716
▁bilemem	-12.372
idas	-12.3727
2002	-12.3735
awa	-12.3744
▁simgele	-12.3754
▁protokolün	-12.3758
ganda	-12.376
▁geliyordu	-12.3763
sürdürül	-12.3766
▁sorar	-12.3768
▁korkusu	-12.3769
▁davada	-12.377
▁yakalanmıştı	-12.3774
mıza	-12.3781
rsın	-12.3788
▁vaatler	-12.3797
▁karala	-12.3806
▁görmez	-12.3807
abilirdi	-12.3812
▁değerlendirildi	-12.382
▁görevliler	-12.3822
aplı	-12.3825
▁unuttu	-12.383
▁gıyab	-12.3831
▁teker	-12.3832
▁kondu	-12.3834
▁demiryol	-12.3834
ilebiliyor	-12.3838
ilemez	-12.3844
▁süratle	-12.3846
▁açıklanmıştı	-12.3847
▁Wallace	-12.3854
▁bahtiyar	-12.3854
▁bangladeş	-12.3854
▁benjamin	-12.3854
▁chaplin	-12.3854
▁dedektif	-12.3854
▁dicaprio	-12.3854
▁hammadde	-12.3854
▁iğrenç	-12.3854
▁jessica	-12.3854
▁kelepçe	-12.3854
▁laboratuar	-12.3854
▁leverkusen	-12.3854
▁murdoch	-12.3854
▁müessese	-12.3854
▁pavyon	-12.3854
▁schumacher	-12.3854
▁serüven	-12.3854
▁spielberg	-12.3854
▁süveyda	-12.3854
▁teşekkül	-12.3854
▁venezuela	-12.3854
▁vodafone	-12.3854
▁yakışıklı	-12.3854
▁örümcek	-12.3854
▁karabiber	-12.3854
▁nevruz	-12.3854
▁segment	-12.3854
▁07.00	-12.3854
▁White	-12.3854
▁barbie	-12.3854
▁lakabı	-12.3854
▁teknisyen	-12.3854
▁şaibe	-12.3854
▁toraman	-12.3854
▁antreman	-12.3854
▁börek	-12.3854
▁schalke	-12.3854
▁sevindirdi	-12.3854
▁manidar	-12.3854
▁cbs	-12.3854
▁jeffrey	-12.3854
▁tahıl	-12.3854
food	-12.3854
▁(37)	-12.3854
▁bölükbaşı	-12.3854
▁howard	-12.3854
▁beceriksiz	-12.3854
▁lawren	-12.3854
▁başörtüsü	-12.3854
▁sentez	-12.3854
▁kundak	-12.3854
▁raşit	-12.3854
▁plus	-12.3854
önizleme	-12.3854
witch	-12.3854
detroit	-12.3855
▁götürülme	-12.3855
▁domuz	-12.3855
angelina	-12.3855
▁patrick	-12.3855
▁şayet	-12.3855
▁lennon	-12.3855
▁bulunmamaktadır	-12.3855
▁belgrad	-12.3855
▁pırıl	-12.3855
▁özçelik	-12.3855
▁geçersiz	-12.3856
▁sembolik	-12.3856
▁mendil	-12.3856
▁horoz	-12.3857
▁bağırsak	-12.3857
▁vahşice	-12.3857
▁kontör	-12.3857
▁bahri	-12.3857
▁karanlığ	-12.3857
▁modena	-12.3858
▁1977	-12.3858
▁ataköy	-12.3858
▁slovakya	-12.3858
▁psv	-12.3859
▁tampon	-12.3859
▁melis	-12.3859
▁1984	-12.3859
▁sığır	-12.3859
▁çırpın	-12.3859
▁alındığını	-12.3859
tirirken	-12.3861
▁karayip	-12.3862
▁hezi	-12.3862
▁uğurlandı	-12.3863
▁bölümünde	-12.3863
▁yazıldı	-12.3863
▁gönderilecek	-12.3864
▁jeo	-12.3864
▁değerlendiriyor	-12.3865
▁ispanyolca	-12.3867
▁taşçı	-12.3867
▁bulduk	-12.3871
▁serisi	-12.3871
▁alexandr	-12.3872
▁kaleci	-12.3872
▁bitmedi	-12.3873
▁103	-12.3873
▁karaköy	-12.3875
▁187	-12.3876
nev	-12.3878
▁aykırıdır	-12.3879
▁göreceksiniz	-12.3881
▁albümü	-12.3881
▁etmiyoruz	-12.3883
berry	-12.3883
▁üçleme	-12.3883
▁muzik	-12.3884
▁sarah	-12.3884
▁komp	-12.3884
▁özak	-12.3885
ktör	-12.3886
▁pide	-12.3888
▁gününde	-12.3888
▁taktı	-12.3888
▁toplanacak	-12.389
▁güveniyorum	-12.3891
▁115	-12.3891
▁gidiyorum	-12.3893
▁gülcan	-12.3898
andro	-12.3899
selam	-12.3901
▁türkeş	-12.3902
▁ezeli	-12.3906
▁değişir	-12.3907
▁aktürk	-12.3908
▁periyo	-12.3908
▁başaran	-12.3912
▁göstermiştir	-12.3916
▁çağrıldı	-12.3917
▁doğrudur	-12.3918
▁arkadasi	-12.3921
▁kalyon	-12.3922
▁parasal	-12.3925
mond	-12.3927
cumhurbaş	-12.3929
zincirleme	-12.393
▁seher	-12.3937
▁yuvarlağ	-12.3937
▁terminal	-12.3942
madig	-12.3947
▁done	-12.3948
▁kaçar	-12.395
▁ersun	-12.395
▁yarıştı	-12.3953
Kİ	-12.3954
▁verirler	-12.3958
▁vatandaşı	-12.396
▁robin	-12.396
vali	-12.3962
rzak	-12.3965
anado	-12.3965
slat	-12.3971
kötü	-12.3976
▁üreten	-12.3979
▁gezen	-12.398
sabah	-12.3981
▁sw	-12.3982
▁otobüsü	-12.3984
abdnin	-12.3986
kulak	-12.3986
▁cemaatin	-12.3986
geliş	-12.3988
▁gelişti	-12.399
▁yumuşat	-12.3991
▁keser	-12.3991
▁aldığını	-12.3995
▁cemev	-12.3997
▁bebeği	-12.4001
▁delir	-12.4002
▁124	-12.4006
▁yazısı	-12.4006
▁best	-12.401
▁kullanır	-12.4012
▁aradım	-12.4021
▁vahi	-12.4023
alerjik	-12.4026
oku	-12.4027
▁ceren	-12.4029
▁center	-12.403
▁özdeşleş	-12.403
ske	-12.403
▁bilgilendiril	-12.403
3.7	-12.4034
böyle	-12.4035
▁görünce	-12.4035
▁yapılabilir	-12.4038
▁çıkardık	-12.4045
1959	-12.4046
▁destekliyor	-12.4049
▁karıştırın	-12.4052
▁yapabiliyor	-12.406
▁geliştirme	-12.4061
▁0.5	-12.4068
leyin	-12.4069
▁gorme	-12.4072
▁elver	-12.4073
▁özçe	-12.4089
nternet	-12.4091
▁engelledi	-12.4092
▁tuttur	-12.4093
▁çekir	-12.4094
▁kavuştur	-12.4096
▁kaynağı	-12.4097
8.3	-12.4104
AK	-12.4106
▁grubun	-12.4111
kop	-12.4113
▁yumuşa	-12.4117
▁geliştirdi	-12.4122
▁uzaklaştırıl	-12.4126
yelim	-12.4128
▁petrolün	-12.4135
▁yapılabil	-12.4137
▁veriyorlar	-12.4146
▁muaf	-12.4161
▁bakılıyor	-12.4165
doç	-12.4166
meyelim	-12.4168
▁yapacaklar	-12.4173
▁yükseltme	-12.4178
▁sapla	-12.418
▁üretilme	-12.4184
ttığı	-12.4187
▁kaçış	-12.4194
ileceği	-12.4197
▁geçtik	-12.42
▁öss	-12.4205
leşir	-12.4206
▁açıklıyor	-12.4207
epsi	-12.4213
▁şarkısı	-12.4215
▁istemez	-12.4221
▁tıklayın	-12.4222
▁anlatır	-12.4224
▁akıt	-12.4231
2003	-12.4231
▁kabulü	-12.4239
▁aşılama	-12.4241
raj	-12.4243
▁reddedildi	-12.4243
▁değirmen	-12.4247
opec	-12.4249
bbe	-12.425
yemez	-12.4251
▁memuru	-12.4251
Mu	-12.4254
▁22.00	-12.4255
▁pierr	-12.4255
▁konsantr	-12.426
▁cla	-12.4262
▁ilkay	-12.4264
wer	-12.4265
▁ilgilendi	-12.4267
dün	-12.4268
▁law	-12.4269
▁karis	-12.4269
▁korunması	-12.4269
▁çeliş	-12.4269
▁başörtü	-12.427
ağıt	-12.427
▁Kırmızı	-12.4271
hiladelphia	-12.4271
uanzhou	-12.4271
▁assange	-12.4271
▁ayçiçeği	-12.4271
▁cambridge	-12.4271
▁cimnastik	-12.4271
▁dumlupınar	-12.4271
▁enternasyonal	-12.4271
▁göteborg	-12.4271
▁hangzhou	-12.4271
▁marifet	-12.4271
▁midilli	-12.4271
▁misafirperver	-12.4271
▁mlkp	-12.4271
▁müdahil	-12.4271
▁reçine	-12.4271
▁taahhüd	-12.4271
▁toshiba	-12.4271
▁acente	-12.4271
▁federer	-12.4271
▁lastiği	-12.4271
▁manevra	-12.4271
▁söyleyeyim	-12.4271
▁tanzanya	-12.4271
▁temayül	-12.4271
▁topluluk	-12.4271
▁garcia	-12.4271
▁kıpır	-12.4271
▁snow	-12.4271
▁matrix	-12.4271
▁mozart	-12.4271
▁salkım	-12.4271
▁stefan	-12.4271
▁tetikçi	-12.4271
▁yedinci	-12.4271
▁studio	-12.4271
▁moğolistan	-12.4271
▁yüzünden	-12.4271
▁lazio	-12.4271
▁gerektirir	-12.4271
▁Karaosmanoğlu	-12.4271
▁fatsa	-12.4271
▁crowe	-12.4271
▁folk	-12.4271
▁bernard	-12.4271
▁russell	-12.4271
▁açısından	-12.4271
▁metraj	-12.4271
▁istila	-12.4271
▁karmaşa	-12.4271
▁rozet	-12.4271
▁cocug	-12.4271
▁makbuz	-12.4271
▁yanardağ	-12.4271
▁minnet	-12.4271
▁flash	-12.4271
▁sofuoğ	-12.4271
▁bld	-12.4271
▁kemeraltı	-12.4271
▁tulum	-12.4272
▁müşteki	-12.4272
▁avuç	-12.4272
▁pendik	-12.4272
▁macao	-12.4272
▁arıtma	-12.4272
▁ızgara	-12.4272
▁johnny	-12.4272
▁ataşehir	-12.4272
▁grammy	-12.4273
▁helva	-12.4273
▁hitit	-12.4273
▁pasif	-12.4273
▁kapsıyor	-12.4273
▁faks	-12.4273
▁amfi	-12.4274
▁uzantı	-12.4274
▁bozkır	-12.4274
▁suçlu	-12.4274
▁emsal	-12.4274
▁dağıtılacak	-12.4275
▁yonca	-12.4275
▁1943	-12.4275
▁olmert	-12.4276
▁1965	-12.4276
▁çavuşoğlu	-12.4277
▁zannet	-12.4278
▁türel	-12.4278
▁demirağ	-12.4278
▁sms	-12.4279
▁bağışık	-12.4279
▁kocatepe	-12.4279
▁beslenen	-12.4279
▁mavericks	-12.4279
▁örtüş	-12.428
▁dilekçesinde	-12.4282
▁bitiyor	-12.4282
▁powellın	-12.4283
tiner	-12.4284
▁ettiklerini	-12.4284
▁serum	-12.4286
▁veririm	-12.4287
▁tanju	-12.4288
▁takson	-12.4288
▁defne	-12.4288
▁degildir	-12.4288
▁sunuyorum	-12.429
▁gönderiliyor	-12.429
▁dinçer	-12.4293
▁başlayacağız	-12.4301
▁gerekirse	-12.4302
▁getirilecek	-12.4303
uvar	-12.4305
▁thk	-12.4305
▁480	-12.4306
▁okudum	-12.4307
▁çekiliyor	-12.4307
▁demirspor	-12.431
▁yobaz	-12.4312
lanabilir	-12.4313
srin	-12.4313
▁kurtulmuş	-12.4315
DA	-12.4315
▁(18)	-12.4315
▁yuvarlan	-12.4316
▁bölük	-12.4318
▁suret	-12.4319
▁tomas	-12.432
▁aksine	-12.432
▁çekiç	-12.4321
▁adale	-12.4322
▁kozak	-12.4323
▁koyduk	-12.4326
▁ergül	-12.4335
▁karton	-12.4336
armoni	-12.4337
▁fig	-12.4337
▁başrolün	-12.4338
▁serp	-12.4339
▁linn	-12.4339
memesi	-12.4343
▁tarhan	-12.4347
▁yetersiz	-12.4348
▁futbolcuları	-12.4349
ıyorlardı	-12.435
amıyordu	-12.4351
▁bestele	-12.4351
▁üzül	-12.4355
işkin	-12.4358
▁minim	-12.4358
▁pers	-12.4359
▁açıklanacak	-12.4361
▁edemez	-12.4364
▁boo	-12.4365
▁doldu	-12.4368
▁izledim	-12.437
ulusal	-12.4372
▁yazılan	-12.4377
▁yaparım	-12.4381
esih	-12.4383
▁harfi	-12.4384
▁rolleri	-12.4389
▁edilirk	-12.4392
▁koşar	-12.4399
▁güçlenme	-12.4402
▁generaller	-12.4402
▁olmayacaktır	-12.4406
▁bog	-12.4408
klasik	-12.4411
boğaz	-12.4412
gök	-12.4413
liyordu	-12.4413
bilgi	-12.4413
arsl	-12.4415
enerji	-12.4416
resmi	-12.4418
▁menü	-12.4422
▁chen	-12.4422
▁aslen	-12.4424
tibet	-12.4425
jet	-12.443
mişiz	-12.4435
sene	-12.4435
▁yelek	-12.4435
hır	-12.4436
▁onarıl	-12.4438
▁5.5	-12.4443
▁bern	-12.4445
6.7	-12.4448
kovan	-12.445
▁home	-12.4454
card	-12.4456
▁dizisi	-12.4463
▁hot	-12.4468
▁affedil	-12.4471
▁ölüyor	-12.4473
rap	-12.4474
uruz	-12.4475
nıyordu	-12.4475
▁köylüler	-12.4487
▁öneriyor	-12.4494
▁santra	-12.4499
▁yolcular	-12.4505
2.8	-12.4505
▁hill	-12.4509
▁değilmiş	-12.4512
şit	-12.4515
▁baris	-12.4518
▁köylü	-12.452
▁bulunmuş	-12.452
tamam	-12.4522
ctor	-12.4522
▁şükr	-12.4523
leyen	-12.4527
rock	-12.4527
dön	-12.4532
▁düzeltme	-12.4535
▁tskn	-12.4539
▁pus	-12.454
▁edilmedi	-12.4542
yacağını	-12.4543
▁aksat	-12.4554
yanak	-12.4558
▁dayanıyor	-12.4558
uyorsunuz	-12.4562
▁jor	-12.4568
sayd	-12.4569
▁çark	-12.4571
▁balat	-12.4575
gc	-12.4577
▁bolt	-12.4578
escu	-12.4581
▁beck	-12.4584
herke	-12.4588
▁sergilendi	-12.4589
▁yasaklı	-12.4593
▁uzağ	-12.4596
▁aksam	-12.4598
5-0	-12.4601
mızdır	-12.462
▁kutlandı	-12.4622
-23	-12.4628
▁onaylandı	-12.4632
dot	-12.4634
diğimiz	-12.4638
vril	-12.4639
▁motorin	-12.464
haydi	-12.4653
sıra	-12.4657
▁tamamlanması	-12.466
▁ayırt	-12.4662
▁destekledi	-12.4663
▁farked	-12.4663
▁coll	-12.4671
cıdır	-12.4679
▁tutuldu	-12.4687
madıklarını	-12.4691
üret	-12.4692
▁doğrusu	-12.4695
mezdim	-12.4695
▁kamer	-12.4696
▁yoğur	-12.4698
dullah	-12.4698
▁paylaşıyor	-12.4698
mekten	-12.4702
▁katkısı	-12.4703
ilebilecek	-12.4704
▁televizyonu	-12.4705
▁başpehlivan	-12.4705
▁beyefendi	-12.4705
▁cimbom	-12.4705
▁drogba	-12.4705
▁feldkamp	-12.4705
▁fildişi	-12.4705
▁hannover	-12.4705
▁hemsworth	-12.4705
▁inkılap	-12.4705
▁jiechi	-12.4705
▁kaliforniya	-12.4705
▁keçiören	-12.4705
▁kıvran	-12.4705
▁müşerref	-12.4705
▁piercing	-12.4705
▁risotto	-12.4705
▁rönesans	-12.4705
▁tertemiz	-12.4705
▁teveccüh	-12.4705
▁uruguay	-12.4705
▁votka	-12.4705
▁öküz	-12.4705
▁fazilet	-12.4705
▁karamsar	-12.4705
▁vasıf	-12.4705
▁vişne	-12.4705
▁harabe	-12.4705
▁jazz	-12.4705
▁müşterek	-12.4705
▁teşhir	-12.4705
▁karides	-12.4705
▁protez	-12.4705
▁çalıştırıcı	-12.4705
▁yürüttü	-12.4705
▁folklor	-12.4705
▁teğmen	-12.4705
▁guven	-12.4705
▁hüsran	-12.4705
▁kadifekale	-12.4705
▁azgın	-12.4705
▁zurna	-12.4705
▁ofsayt	-12.4705
▁papadopulos	-12.4705
▁makinist	-12.4706
▁zeytinburnu	-12.4706
▁maksadı	-12.4706
▁mahiyet	-12.4706
▁(42)	-12.4706
▁true	-12.4706
▁musiki	-12.4706
▁ercümen	-12.4706
▁nebze	-12.4706
▁sorumluluk	-12.4706
▁hatırlıyorum	-12.4706
▁zihin	-12.4706
dolmabahçe	-12.4706
▁dimitri	-12.4706
▁kahrol	-12.4706
▁platin	-12.4706
▁fisch	-12.4706
▁Wilson	-12.4706
▁münir	-12.4706
höyük	-12.4707
▁tower	-12.4707
▁ariel	-12.4707
▁ahlat	-12.4707
▁tırmanış	-12.4707
▁tayfa	-12.4708
▁uzaklaştırdı	-12.4708
▁kıskanç	-12.4708
▁battal	-12.4708
Eskişehir	-12.4708
▁serez	-12.4708
▁düzenleniyor	-12.4709
▁madsen	-12.4709
▁kekik	-12.4709
ulkadir	-12.4709
naylon	-12.4709
dikal	-12.4709
▁konağı	-12.4709
▁tereyağı	-12.471
▁cook	-12.4711
▁bilirim	-12.4711
▁bulunmadı	-12.4711
▁kıç	-12.4712
▁çıkarılacak	-12.4713
▁barut	-12.4715
▁görünür	-12.4716
▁15-20	-12.4717
▁kurnaz	-12.4718
▁armut	-12.4718
▁egemenlik	-12.4719
▁dümen	-12.4719
▁yemekhane	-12.4719
▁oynayacağız	-12.472
▁okundu	-12.472
▁kayık	-12.4721
▁görevlisi	-12.4724
▁seviyoruz	-12.4724
▁akdemir	-12.4725
▁tutumu	-12.4726
▁dör	-12.4726
shop	-12.4726
▁kazanılma	-12.4728
▁hurma	-12.4728
▁iptaline	-12.473
uba	-12.473
▁tabaka	-12.4731
▁oynatıl	-12.4731
▁yaşanırken	-12.4732
▁bahanesi	-12.4732
▁devasa	-12.4733
▁edindi	-12.4734
▁yapımcı	-12.4735
▁bayar	-12.4736
müsiad	-12.4738
▁guo	-12.474
▁okurken	-12.474
▁kaybetmiş	-12.474
▁tıraş	-12.4742
▁melodi	-12.4743
▁yöntemleri	-12.4745
hack	-12.4746
▁(21)	-12.4746
▁sauna	-12.4746
▁yağdırdı	-12.4747
▁olursak	-12.4748
jak	-12.475
ıhtı	-12.4753
leşecek	-12.4753
▁çıktığını	-12.4755
▁hayranları	-12.4755
▁119	-12.4756
▁bindiril	-12.4756
ravel	-12.4759
▁misal	-12.4763
▁sosyo	-12.4766
Tİ	-12.4766
▁ulvi	-12.4767
▁ulaşacak	-12.4768
▁fesh	-12.4769
normal	-12.477
▁zorlanma	-12.4772
▁rağ	-12.4776
▁haydar	-12.4777
▁yalancı	-12.4777
▁tayvan	-12.4778
enlerin	-12.4779
▁oğlum	-12.478
ebileceği	-12.4782
ansiyon	-12.4787
▁açıklarken	-12.4788
▁chpyi	-12.479
asib	-12.4791
▁şudur	-12.4795
▁çilek	-12.48
▁sürerk	-12.4801
▁ayril	-12.4807
yunca	-12.4807
▁seyretti	-12.4808
üzer	-12.4811
lalett	-12.4814
lici	-12.4816
▁kadinlar	-12.4817
hua	-12.4817
▁call	-12.4828
▁yokken	-12.4829
tüd	-12.4835
4.7	-12.4835
▁yazdım	-12.4836
▁miss	-12.4841
anov	-12.4841
▁137	-12.4842
▁kazıl	-12.4842
tığ	-12.4842
▁cevapladı	-12.4843
▁sadece	-12.4843
telif	-12.4851
▁kullanılabil	-12.4859
ahat	-12.486
▁kazaz	-12.486
twitter	-12.4862
örneğ	-12.4865
kılıç	-12.4865
tbmm	-12.4866
fotoğraf	-12.4866
meclis	-12.4866
mahkeme	-12.4866
adalet	-12.4868
kemal	-12.4884
tuna	-12.4887
▁oluyorlar	-12.4889
mesey	-12.4889
abad	-12.4893
demre	-12.4895
▁donat	-12.4897
▁izah	-12.4898
2007	-12.4899
▁nikola	-12.4908
▁açtık	-12.4916
önü	-12.4918
▁bulunması	-12.4942
▁koyar	-12.4944
ntv	-12.4947
▁(18	-12.4948
▁haberlerde	-12.4952
▁esirgeme	-12.4952
5.1	-12.4954
obra	-12.4965
▁gecti	-12.4966
0.7	-12.4968
tılı	-12.4975
▁işbir	-12.4977
uhal	-12.4978
▁mike	-12.498
ateş	-12.498
▁yayıldı	-12.4981
başka	-12.4982
abiliyorsunuz	-12.4983
mediklerini	-12.4984
▁ağac	-12.4989
▁sabahatti	-12.499
grad	-12.4991
italya	-12.4993
▁görüştük	-12.4996
▁vaadi	-12.5005
▁bazi	-12.5005
hakk	-12.5007
▁phil	-12.5016
▁etmeli	-12.5027
▁satıyor	-12.5028
tiriyoruz	-12.5028
▁kaçmadı	-12.5031
amazdı	-12.5033
▁koşusu	-12.5033
ezza	-12.5037
güneş	-12.5043
▁seviyor	-12.5049
▁edebi	-12.5053
▁harcanma	-12.5066
aktör	-12.5066
ecb	-12.5073
▁kaka	-12.5075
mesinin	-12.5079
hang	-12.5088
▁haş	-12.5094
▁daralt	-12.5094
▁karıştırdı	-12.5097
▁büyüyor	-12.5101
▁153	-12.5105
shu	-12.5111
▁önledi	-12.5111
▁etmesin	-12.5114
▁hasıla	-12.512
▁kurduk	-12.5121
ymuş	-12.5122
▁oluşacak	-12.5137
▁açılıyor	-12.5139
chie	-12.514
▁sağır	-12.5142
▁24.00	-12.5144
cf	-12.5151
eau	-12.5151
50.000	-12.5153
▁eserleri	-12.5155
▁yükseliyor	-12.5158
Trabzonspor	-12.516
artholomeos	-12.516
söğüt	-12.516
İzmir	-12.516
▁abhaz	-12.516
▁airbus	-12.516
▁alzheimer	-12.516
▁bilimkurgu	-12.516
▁bonzai	-12.516
▁columbi	-12.516
▁eldiven	-12.516
▁greenpeace	-12.516
▁kalifiye	-12.516
▁kamalak	-12.516
▁karizmatik	-12.516
▁kriminal	-12.516
▁köpük	-12.516
▁mozaik	-12.516
▁müdahele	-12.516
▁nargile	-12.516
▁nautilus	-12.516
▁oryantal	-12.516
▁petersburg	-12.516
▁sezaryen	-12.516
▁taarruz	-12.516
▁volkswagen	-12.516
▁çarşaf	-12.516
▁ındependent	-12.516
▁ejderha	-12.516
▁fahiş	-12.516
▁silisyum	-12.516
▁materyal	-12.516
▁dream	-12.516
▁muavin	-12.516
▁tokalaş	-12.516
▁rögar	-12.516
▁franco	-12.516
▁gömleğ	-12.516
▁gerede	-12.516
▁rastlantı	-12.516
▁dinamo	-12.516
▁yahoo	-12.516
▁jeneratör	-12.516
▁amblem	-12.516
▁omuri	-12.516
▁sondaj	-12.516
▁götürülürk	-12.516
▁saydam	-12.516
▁dağınık	-12.516
▁kubbe	-12.516
▁ındiana	-12.516
▁alındığında	-12.516
▁potter	-12.516
▁(48)	-12.516
▁(40)	-12.516
▁zhao	-12.516
▁(28)	-12.516
▁(31)	-12.5161
▁kupon	-12.5161
▁gökçeada	-12.5161
▁kelly	-12.5161
▁vokal	-12.5161
▁feryat	-12.5161
▁dekorasyon	-12.5161
▁çeyreğ	-12.5161
▁dramatik	-12.5161
▁kayısı	-12.5161
▁çorlu	-12.5161
▁musluk	-12.5161
▁henri	-12.5161
▁manyak	-12.5161
▁bulunmadığını	-12.5162
▁altuntaş	-12.5162
▁yorulmaz	-12.5162
▁hissettim	-12.5162
▁viski	-12.5163
▁molotofkokteyli	-12.5163
▁pişmanım	-12.5163
▁çom	-12.5163
▁forbes	-12.5163
▁tutanağ	-12.5164
▁jason	-12.5164
▁ekspres	-12.5164
▁eşdeğer	-12.5164
arçın	-12.5165
▁üzülmez	-12.5165
▁akyürek	-12.5165
▁berkay	-12.5165
▁zulme	-12.5165
▁1954	-12.5165
▁köyünde	-12.5165
▁gezgin	-12.5165
▁paça	-12.5165
▁20-25	-12.5166
koop	-12.5166
▁yüreğir	-12.5167
▁ipuç	-12.5167
▁kefeli	-12.5167
▁reviz	-12.5167
▁baykan	-12.5167
▁çığır	-12.5168
▁1968	-12.5168
▁ezik	-12.5168
▁öks	-12.5168
olum	-12.5169
amayınca	-12.5169
frame	-12.5169
▁açıkgöz	-12.5169
▁kaldırılması	-12.517
▁bezci	-12.517
▁tanıtma	-12.517
▁kalitesiz	-12.517
▁onbin	-12.5171
▁1915	-12.5171
▁soluk	-12.5172
kofi	-12.5172
▁zindan	-12.5175
fc	-12.5176
▁estet	-12.5176
▁repo	-12.5176
▁havayolları	-12.5176
▁dururken	-12.5177
▁şekerspor	-12.5177
savar	-12.5177
▁işleyen	-12.5178
zgi	-12.5179
▁sporsever	-12.5179
▁marj	-12.5182
▁sağlıklı	-12.5184
▁üçgen	-12.5185
▁edilmeli	-12.5189
▁öğretil	-12.519
▁bilinçlendir	-12.5191
erdim	-12.5192
tırırken	-12.5192
hadi	-12.5194
▁ustun	-12.5196
▁tour	-12.5198
▁beşik	-12.5199
▁marco	-12.52
▁çekerk	-12.5202
▁ytlyi	-12.5203
▁hatırl	-12.5204
▁tutuklama	-12.5204
▁incit	-12.5204
▁cansun	-12.5206
▁260	-12.5207
▁230	-12.5209
▁iskelet	-12.5209
▁gap	-12.5211
gate	-12.5212
▁dereli	-12.5212
▁bedir	-12.5218
▁toptan	-12.5221
xx	-12.5221
▁beter	-12.5222
▁koptu	-12.5224
▁dönmez	-12.5224
▁(21	-12.5225
sunun	-12.5228
▁reddedilme	-12.5228
▁geldiği	-12.5228
-/84	-12.523
▁azaltma	-12.5232
▁abid	-12.5235
▁açacağız	-12.5236
8.8	-12.5239
▁uygulanıyor	-12.524
▁zorba	-12.524
▁kilisesi	-12.5246
▁gidip	-12.5251
tırılıyor	-12.5251
masıydı	-12.5255
[...]
