<pad>	0
<unk>	0
<s>	0
</s>	0
<0x00>	0
<0x01>	0
<0x02>	0
<0x03>	0
<0x04>	0
<0x05>	0
<0x06>	0
<0x07>	0
<0x08>	0
<0x09>	0
<0x0A>	0
<0x0B>	0
<0x0C>	0
<0x0D>	0
<0x0E>	0
<0x0F>	0
<0x10>	0
<0x11>	0
<0x12>	0
<0x13>	0
<0x14>	0
<0x15>	0
<0x16>	0
<0x17>	0
<0x18>	0
<0x19>	0
<0x1A>	0
<0x1B>	0
<0x1C>	0
<0x1D>	0
<0x1E>	0
<0x1F>	0
<0x20>	0
<0x21>	0
<0x22>	0
<0x23>	0
<0x24>	0
<0x25>	0
<0x26>	0
<0x27>	0
<0x28>	0
<0x29>	0
<0x2A>	0
<0x2B>	0
<0x2C>	0
<0x2D>	0
<0x2E>	0
<0x2F>	0
<0x30>	0
<0x31>	0
<0x32>	0
<0x33>	0
<0x34>	0
<0x35>	0
<0x36>	0
<0x37>	0
<0x38>	0
<0x39>	0
<0x3A>	0
<0x3B>	0
<0x3C>	0
<0x3D>	0
<0x3E>	0
<0x3F>	0
<0x40>	0
<0x41>	0
<0x42>	0
<0x43>	0
<0x44>	0
<0x45>	0
<0x46>	0
<0x47>	0
<0x48>	0
<0x49>	0
<0x4A>	0
<0x4B>	0
<0x4C>	0
<0x4D>	0
<0x4E>	0
<0x4F>	0
<0x50>	0
<0x51>	0
<0x52>	0
<0x53>	0
<0x54>	0
<0x55>	0
<0x56>	0
<0x57>	0
<0x58>	0
<0x59>	0
<0x5A>	0
<0x5B>	0
<0x5C>	0
<0x5D>	0
<0x5E>	0
<0x5F>	0
<0x60>	0
<0x61>	0
<0x62>	0
<0x63>	0
<0x64>	0
<0x65>	0
<0x66>	0
<0x67>	0
<0x68>	0
<0x69>	0
<0x6A>	0
<0x6B>	0
<0x6C>	0
<0x6D>	0
<0x6E>	0
<0x6F>	0
<0x70>	0
<0x71>	0
<0x72>	0
<0x73>	0
<0x74>	0
<0x75>	0
<0x76>	0
<0x77>	0
<0x78>	0
<0x79>	0
<0x7A>	0
<0x7B>	0
<0x7C>	0
<0x7D>	0
<0x7E>	0
<0x7F>	0
<0x80>	0
<0x81>	0
<0x82>	0
<0x83>	0
<0x84>	0
<0x85>	0
<0x86>	0
<0x87>	0
<0x88>	0
<0x89>	0
<0x8A>	0
<0x8B>	0
<0x8C>	0
<0x8D>	0
<0x8E>	0
<0x8F>	0
<0x90>	0
<0x91>	0
<0x92>	0
<0x93>	0
<0x94>	0
<0x95>	0
<0x96>	0
<0x97>	0
<0x98>	0
<0x99>	0
<0x9A>	0
<0x9B>	0
<0x9C>	0
<0x9D>	0
<0x9E>	0
<0x9F>	0
<0xA0>	0
<0xA1>	0
<0xA2>	0
<0xA3>	0
<0xA4>	0
<0xA5>	0
<0xA6>	0
<0xA7>	0
<0xA8>	0
<0xA9>	0
<0xAA>	0
<0xAB>	0
<0xAC>	0
<0xAD>	0
<0xAE>	0
<0xAF>	0
<0xB0>	0
<0xB1>	0
<0xB2>	0
<0xB3>	0
<0xB4>	0
<0xB5>	0
<0xB6>	0
<0xB7>	0
<0xB8>	0
<0xB9>	0
<0xBA>	0
<0xBB>	0
<0xBC>	0
<0xBD>	0
<0xBE>	0
<0xBF>	0
<0xC0>	0
<0xC1>	0
<0xC2>	0
<0xC3>	0
<0xC4>	0
<0xC5>	0
<0xC6>	0
<0xC7>	0
<0xC8>	0
<0xC9>	0
<0xCA>	0
<0xCB>	0
<0xCC>	0
<0xCD>	0
<0xCE>	0
<0xCF>	0
<0xD0>	0
<0xD1>	0
<0xD2>	0
<0xD3>	0
<0xD4>	0
<0xD5>	0
<0xD6>	0
<0xD7>	0
<0xD8>	0
<0xD9>	0
<0xDA>	0
<0xDB>	0
<0xDC>	0
<0xDD>	0
<0xDE>	0
<0xDF>	0
<0xE0>	0
<0xE1>	0
<0xE2>	0
<0xE3>	0
<0xE4>	0
<0xE5>	0
<0xE6>	0
<0xE7>	0
<0xE8>	0
<0xE9>	0
<0xEA>	0
<0xEB>	0
<0xEC>	0
<0xED>	0
<0xEE>	0
<0xEF>	0
<0xF0>	0
<0xF1>	0
<0xF2>	0
<0xF3>	0
<0xF4>	0
<0xF5>	0
<0xF6>	0
<0xF7>	0
<0xF8>	0
<0xF9>	0
<0xFA>	0
<0xFB>	0
<0xFC>	0
<0xFD>	0
<0xFE>	0
<0xFF>	0
.	-3.42114
▁	-3.53392
,	-3.5468
▁ı	-3.87238
▁i	-3.99389
▁e	-4.39119
▁ve	-4.55877
▁da	-4.5692
▁de	-4.58545
▁lar	-4.69026
▁bir	-4.69035
▁in	-4.69789
▁a	-4.69949
▁si	-4.72692
▁an	-4.73845
▁sı	-4.76717
▁ları	-4.78653
▁ler	-4.81119
▁ol	-4.85349
▁nda	-4.85716
▁en	-4.87209
▁u	-4.89226
▁leri	-4.89549
▁n	-4.92155
▁ma	-4.92478
▁ın	-5.02588
▁m	-5.1363
▁bu	-5.18238
▁nin	-5.21775
▁ne	-5.22486
▁nde	-5.22503
▁il	-5.26148
▁nı	-5.26616
▁ni	-5.30473
▁ki	-5.32567
▁nın	-5.36738
▁na	-5.43967
▁iç	-5.52259
▁me	-5.56477
▁ü	-5.56708
▁li	-5.61291
▁yap	-5.67176
▁ya	-5.67692
▁ye	-5.73291
▁lı	-5.78306
▁ıl	-5.80427
▁lik	-5.87429
dığ	-5.92766
▁den	-5.93054
▁un	-5.96868
duğ	-5.99073
▁arak	-6.00614
▁lık	-6.02429
▁al	-6.04969
ndan	-6.05571
▁dan	-6.06804
n	-6.08306
▁diğ	-6.08341
▁yıl	-6.1016
▁le	-6.15026
▁ce	-6.18632
▁la	-6.20336
▁nu	-6.21141
▁yan	-6.23292
▁"	-6.25077
▁su	-6.3017
▁im	-6.30469
▁ön	-6.32228
▁mak	-6.32878
"	-6.33292
▁di	-6.335
▁yer	-6.34761
▁ed	-6.37115
▁t	-6.38807
▁ara	-6.39927
▁iş	-6.42615
▁gel	-6.43192
▁çok	-6.44166
▁nun	-6.45282
:	-6.45597
▁te	-6.46782
▁ta	-6.46995
▁(	-6.47145
▁ver	-6.47704
▁“	-6.47784
▁daha	-6.50129
▁nden	-6.50178
▁yla	-6.50208
▁ım	-6.50443
▁cı	-6.50452
)	-6.50704
lığ	-6.51145
▁sonra	-6.53226
-	-6.53859
▁et	-6.53997
▁gün	-6.54391
”	-6.56328
▁lu	-6.57537
yle	-6.58838
▁mek	-6.60106
▁türkiye	-6.616
▁başka	-6.61794
▁geç	-6.64174
▁tığ	-6.65947
▁bul	-6.66958
▁ci	-6.67582
▁o	-6.68345
▁üzer	-6.69283
liğ	-6.71495
▁çalış	-6.7209
▁yi	-6.72531
▁-	-6.74983
▁gör	-6.754
▁is	-6.75422
▁son	-6.78334
▁yeni	-6.80227
▁çık	-6.80253
▁cu	-6.83309
▁kendi	-6.83713
▁konu	-6.844
imiz	-6.84807
▁kadar	-6.85802
▁dedi	-6.87286
▁ca	-6.87584
000	-6.87635
▁gibi	-6.87693
▁um	-6.8953
i	-6.90103
▁el	-6.90249
008	-6.90284
tiğ	-6.90564
▁taraf	-6.91988
▁büyük	-6.924
▁ımız	-6.92931
▁yüz	-6.94331
▁ilk	-6.95617
▁yı	-6.97282
▁kişi	-6.97834
▁var	-6.99267
▁her	-7.00167
▁yol	-7.01627
▁bin	-7.01787
▁acak	-7.02728
▁karşı	-7.02897
▁ay	-7.03478
a	-7.0383
▁belediye	-7.03892
▁ar	-7.05084
▁ecek	-7.06242
▁iki	-7.07608
▁ülke	-7.07633
k	-7.07758
▁ir	-7.07794
▁biz	-7.08496
eceğ	-7.09061
▁yen	-7.09084
▁sa	-7.09275
▁ama	-7.10111
▁ev	-7.1154
▁tan	-7.13134
e	-7.13307
acağ	-7.13504
▁yaşa	-7.13668
▁söyledi	-7.14282
▁kal	-7.15209
▁ben	-7.15741
▁zaman	-7.15959
▁‘	-7.17632
▁bil	-7.18918
▁ifade	-7.21115
▁maç	-7.22099
▁dünya	-7.22698
▁siz	-7.23611
▁baş	-7.23847
▁iyi	-7.24602
▁kullan	-7.24603
▁türk	-7.24815
?	-7.25091
▁karar	-7.26526
▁dır	-7.26763
▁özel	-7.27244
▁süre	-7.27417
▁alt	-7.27527
▁er	-7.27902
▁ad	-7.28305
▁sıra	-7.28528
▁bölge	-7.29517
ı	-7.29608
▁gerek	-7.29881
▁genel	-7.29925
▁dı	-7.30129
▁takım	-7.30619
▁başkan	-7.3083
▁erek	-7.30835
▁lan	-7.31429
▁ilgili	-7.31622
▁izmir	-7.3239
▁tir	-7.32535
▁etti	-7.33824
▁bakan	-7.34228
▁olay	-7.35135
▁kadın	-7.35142
▁orta	-7.35396
▁insan	-7.35988
▁ancak	-7.36787
▁söz	-7.36796
▁parti	-7.36944
▁ten	-7.3706
▁önem	-7.3844
▁iste	-7.39623
▁3	-7.40242
▁mış	-7.40275
▁oyun	-7.40327
▁ilçe	-7.40581
▁ard	-7.41295
▁milyon	-7.41616
▁2	-7.42089
▁ün	-7.42466
▁devam	-7.42609
▁görev	-7.42877
▁kat	-7.43267
▁miş	-7.44007
dık	-7.45012
▁merkez	-7.46022
▁gir	-7.4661
▁yaş	-7.48421
▁dik	-7.48806
▁dir	-7.48929
▁açıkla	-7.49435
▁durum	-7.49815
▁se	-7.50408
▁sayı	-7.50568
▁düzenle	-7.50598
▁değil	-7.50784
▁kur	-7.51656
▁tarih	-7.52347
▁başla	-7.52979
▁devlet	-7.54063
▁müdür	-7.54219
▁yok	-7.54413
▁istanbul	-7.54874
▁k	-7.5511
▁r	-7.55343
▁film	-7.55364
▁iyor	-7.56415
▁yardım	-7.57292
▁polis	-7.57487
▁çocuk	-7.5752
▁ul	-7.58627
m	-7.58697
▁tüm	-7.5893
▁çek	-7.59645
▁ır	-7.59767
▁art	-7.60974
▁nü	-7.60975
▁belir	-7.60981
▁oldu	-7.61651
▁z	-7.61745
▁aç	-7.6181
;	-7.61898
▁luk	-7.61957
▁1	-7.62865
▁at	-7.63276
▁aynı	-7.63684
▁getir	-7.64127
▁yönetim	-7.65353
▁güven	-7.66175
▁sür	-7.66277
▁bak	-7.66758
▁eğitim	-7.67258
▁konuştu	-7.67693
lüğ	-7.68028
▁halk	-7.68567
▁futbol	-7.68733
▁şey	-7.68905
▁alan	-7.69708
▁diğer	-7.69916
▁‘‘	-7.70137
▁bugün	-7.71425
▁çi	-7.71694
▁bilgi	-7.71741
▁hayat	-7.73112
▁üye	-7.73688
▁çin	-7.73965
...	-7.74378
▁aday	-7.74694
▁kent	-7.75376
▁dış	-7.76317
▁5	-7.76409
▁4	-7.76476
▁tek	-7.7745
▁hafta	-7.77459
lar	-7.77622
▁nedeniyle	-7.7809
▁hakkı	-7.78277
▁10	-7.78508
▁ıp	-7.78831
▁genç	-7.79265
▁sız	-7.79917
s	-7.80274
▁daş	-7.80283
▁ilişki	-7.80546
in	-7.80617
▁lü	-7.80788
▁kurul	-7.81305
▁yakın	-7.81349
▁seçim	-7.81738
▁tır	-7.81803
▁dur	-7.82197
▁abil	-7.825
▁haber	-7.82586
▁proje	-7.82803
▁vatan	-7.82932
▁dön	-7.83015
▁hizmet	-7.83077
▁yaz	-7.83078
t	-7.8319
▁leş	-7.83316
▁ayrı	-7.835
▁hastane	-7.83763
▁üniversite	-7.84222
▁ül	-7.85061
▁spor	-7.85261
▁ceza	-7.85566
▁sağ	-7.85802
▁ıyor	-7.85852
▁böyle	-7.85937
▁fark	-7.86131
▁söyle	-7.86752
▁fazla	-7.87072
▁konuş	-7.87442
▁bazı	-7.87889
▁anla	-7.87974
ler	-7.88083
▁düğ	-7.8834
luğ	-7.88341
▁aile	-7.88411
▁dür	-7.88466
▁topla	-7.88523
▁ip	-7.88659
▁başarı	-7.8868
d	-7.8886
▁avrupa	-7.88981
▁ankara	-7.89269
▁hem	-7.8971
▁şekil	-7.89989
▁dil	-7.90108
▁toplantı	-7.90329
▁eş	-7.91014
▁başbakan	-7.91043
▁göster	-7.91473
▁tur	-7.91653
▁hava	-7.92489
▁öğrenci	-7.93209
▁gid	-7.93259
▁hak	-7.93624
▁eski	-7.9371
▁miz	-7.93825
da	-7.94059
▁oyna	-7.94194
▁gazete	-7.94254
▁saat	-7.94346
▁dün	-7.94467
▁sahip	-7.94616
▁kız	-7.95506
▁sor	-7.96407
▁sağla	-7.96488
▁para	-7.96702
▁sade	-7.96901
▁duk	-7.97087
▁lig	-7.97466
▁soru	-7.97559
▁şu	-7.98198
▁bura	-7.98694
▁kez	-7.99738
▁dönem	-8.00141
▁ak	-8.00272
b	-8.00618
▁düş	-8.00654
r	-8.00713
▁okul	-8.00989
▁göz	-8.01207
▁kim	-8.01654
▁sun	-8.01827
▁grup	-8.02178
▁du	-8.02278
▁savaş	-8.02885
▁deniz	-8.03209
de	-8.03577
▁kazan	-8.03954
▁ikinci	-8.04323
▁gerçekleş	-8.04656
▁cü	-8.04894
▁len	-8.05167
▁ziyaret	-8.05471
▁oluş	-8.05519
▁san	-8.05828
▁lük	-8.0617
▁milli	-8.06236
▁yüksek	-8.06608
▁geliş	-8.06758
▁verdi	-8.06962
▁mahkeme	-8.07152
▁göre	-8.07406
▁belirtti	-8.07428
▁iddia	-8.07765
▁mücadele	-8.08186
▁tık	-8.08493
▁on	-8.08502
▁değiş	-8.08551
▁ık	-8.0888
▁bas	-8.08914
▁arkadaş	-8.08958
▁sen	-8.09393
▁güzel	-8.10694
▁lira	-8.11246
▁üst	-8.11447
▁uzun	-8.11508
▁oy	-8.11575
▁destek	-8.11732
▁veya	-8.11805
nün	-8.11825
▁adam	-8.11917
▁şöyle	-8.11964
▁abd	-8.12729
▁açıklamada	-8.13187
▁ırak	-8.1337
▁öl	-8.13914
▁hali	-8.14698
▁can	-8.1473
▁yaklaşık	-8.1504
▁dikkat	-8.16963
▁zor	-8.17379
▁doğru	-8.17515
▁meydan	-8.17745
▁ulaş	-8.17776
▁tı	-8.17865
▁çı	-8.18758
▁sezon	-8.19396
laş	-8.1942
▁6	-8.19507
▁ti	-8.19783
▁suriye	-8.19876
▁ekip	-8.20049
▁sü	-8.20189
▁erdoğan	-8.20272
▁taşı	-8.20281
▁hükümet	-8.20304
▁üç	-8.2082
▁mi	-8.20872
▁gece	-8.20924
▁teknik	-8.21107
▁tür	-8.21256
▁geri	-8.21487
▁mehmet	-8.21516
▁hareket	-8.21551
▁gül	-8.2188
▁saldırı	-8.22059
ümüz	-8.2263
▁suç	-8.22733
▁geldi	-8.23113
▁ği	-8.23419
▁git	-8.23439
▁köy	-8.23451
▁milyar	-8.23705
▁açık	-8.24676
▁şimdi	-8.25023
▁şirket	-8.25083
▁hasta	-8.25146
▁kabul	-8.25354
▁mahalle	-8.25446
▁yazı	-8.25634
▁yara	-8.25694
!	-8.25786
▁banka	-8.25849
▁ali	-8.26505
▁baba	-8.26794
▁dakika	-8.26932
▁bırak	-8.27246
▁bütün	-8.27374
▁ora	-8.27785
▁ağır	-8.27867
▁hiç	-8.27871
▁sistem	-8.27892
te	-8.28035
▁isim	-8.28824
▁kısa	-8.28992
▁tut	-8.29062
▁dr	-8.2915
▁20	-8.29374
▁yu	-8.29583
▁edildi	-8.29746
▁meclis	-8.29796
▁top	-8.29906
▁aldı	-8.3019
si	-8.30316
▁iz	-8.30477
▁çevre	-8.30494
▁anne	-8.30594
▁program	-8.31013
▁kaynak	-8.31218
▁sanat	-8.31267
▁bekle	-8.31575
▁dava	-8.31607
ğ	-8.3172
l	-8.31811
▁az	-8.32223
▁cumhuriyet	-8.32238
▁ış	-8.32382
bu	-8.32534
▁araştır	-8.33067
▁suz	-8.33575
▁bölüm	-8.3382
ebil	-8.34083
▁silah	-8.34226
▁boy	-8.34233
▁bun	-8.34265
▁örgüt	-8.34678
ye	-8.34772
▁sonuc	-8.34793
▁araç	-8.34973
▁ur	-8.34991
ya	-8.3506
ın	-8.35391
▁değer	-8.35551
▁uluslararas	-8.35553
▁kaydetti	-8.35659
▁hazır	-8.3579
▁duy	-8.36143
/	-8.36712
▁yaptı	-8.36845
▁7	-8.37019
▁yetki	-8.37144
çok	-8.37224
▁15	-8.37268
▁chp	-8.37893
▁dol	-8.38
▁koru	-8.38047
o	-8.38048
▁herkes	-8.38523
▁sorun	-8.38527
yacağ	-8.38577
▁kaza	-8.39474
▁kaç	-8.39533
▁belirterek	-8.39841
▁terör	-8.40026
▁başladı	-8.40142
▁sonuç	-8.40199
▁büyükşehir	-8.4024
▁oda	-8.40282
yacak	-8.40972
▁üm	-8.41037
▁dolar	-8.41591
▁hedef	-8.423
▁8	-8.42342
▁rağmen	-8.42385
▁neden	-8.42564
▁saha	-8.42635
▁puan	-8.42653
▁yürü	-8.42878
▁görüş	-8.43061
▁pazar	-8.4356
▁operasyon	-8.43815
▁d	-8.43852
▁yarı	-8.448
▁ses	-8.44825
▁kültür	-8.44909
▁16	-8.44968
▁*	-8.44971
▁kapsam	-8.45083
▁ça	-8.45109
▁tören	-8.45439
▁bağlı	-8.45535
▁çıktı	-8.46238
▁çe	-8.46253
▁sat	-8.46351
▁hiçbir	-8.46471
iniz	-8.4659
▁erkek	-8.46657
▁yön	-8.46712
▁nasıl	-8.47744
▁temsil	-8.47923
▁sosyal	-8.48073
▁grub	-8.4816
▁yapı	-8.48425
▁olacak	-8.48428
▁öde	-8.48448
▁yönelik	-8.48696
▁izle	-8.49054
▁savun	-8.49281
▁belirtildi	-8.49565
▁lider	-8.49868
▁ürün	-8.50082
▁gerçek	-8.50167
▁engel	-8.50519
▁mustafa	-8.50582
▁vali	-8.50625
▁mız	-8.50651
▁30	-8.50707
▁gönder	-8.51087
▁hız	-8.51206
▁yayın	-8.51283
yerek	-8.52117
li	-8.52325
▁güç	-8.52527
▁12	-8.5261
▁milletvekili	-8.52622
▁askeri	-8.52629
▁ait	-8.52802
▁plan	-8.53315
▁fotoğraf	-8.53466
▁ik	-8.53557
▁bulundu	-8.539
▁ortak	-8.54052
."	-8.54166
▁olimpiyat	-8.54226
▁sınır	-8.54285
▁yat	-8.54464
▁satış	-8.54473
▁bina	-8.54481
▁yasa	-8.54517
▁kes	-8.54611
▁emniyet	-8.55296
▁seç	-8.5532
u	-8.55634
▁up	-8.55646
▁nokta	-8.56096
▁ınız	-8.563
▁oku	-8.56442
▁hazırla	-8.56637
▁küçük	-8.56718
▁tik	-8.57262
▁mutlu	-8.57294
▁düşün	-8.57442
▁uygulama	-8.57826
▁bit	-8.57836
▁hep	-8.58173
▁tam	-8.58485
▁tartış	-8.58532
aa	-8.58579
▁yoğun	-8.58591
dir	-8.58773
▁otomobil	-8.58799
▁mı	-8.58809
▁tedavi	-8.58906
y	-8.58986
nin	-8.58998
▁otur	-8.59036
▁kin	-8.59117
▁tanı	-8.60006
en	-8.60043
▁transfer	-8.60102
▁niz	-8.60381
leri	-8.60445
▁çeşit	-8.60606
▁karşılaş	-8.60685
▁beşiktaş	-8.6073
▁100	-8.60735
p	-8.60958
▁şunlar	-8.61193
▁cumhurbaşkanı	-8.6121
▁içeri	-8.61316
▁ünlü	-8.61558
▁muş	-8.61622
▁ödül	-8.61742
▁sık	-8.61926
▁telefon	-8.6198
▁çünkü	-8.61983
▁yıldız	-8.62207
▁asker	-8.62224
▁fiyat	-8.6246
▁ek	-8.62522
▁akşam	-8.62543
▁üş	-8.62579
▁say	-8.62711
▁madde	-8.62716
▁g	-8.62881
▁şampiyon	-8.63227
▁ahmet	-8.63568
▁belirle	-8.63822
an	-8.64324
▁site	-8.64361
▁sev	-8.64521
ma	-8.6468
▁incele	-8.64975
▁ediyor	-8.65
▁şubat	-8.65077
▁kapı	-8.65268
▁toplum	-8.6533
▁ölüm	-8.65771
▁yaban	-8.65873
▁koy	-8.65979
▁ticaret	-8.66003
▁firma	-8.66015
▁sabah	-8.66091
▁gözaltı	-8.66196
▁hale	-8.66605
▁9	-8.66845
▁siyasi	-8.66972
▁sektör	-8.67031
▁uz	-8.67362
),	-8.68578
▁bildirildi	-8.68897
▁ilgi	-8.68998
▁üretim	-8.69124
umuz	-8.6944
▁derece	-8.69607
▁kardeş	-8.69907
▁tepki	-8.70276
lı	-8.70617
▁ban	-8.70903
▁ordu	-8.70946
▁11	-8.70969
▁eylem	-8.71681
▁kar	-8.72074
▁direktör	-8.72844
▁eylül	-8.73748
▁zarar	-8.7395
▁mart	-8.74078
▁sanayi	-8.74087
▁sevgi	-8.74203
▁piyasa	-8.74426
di	-8.74618
ları	-8.74877
▁soruşturma	-8.75072
▁b	-8.75085
▁park	-8.75098
▁şube	-8.75211
▁bildirdi	-8.7524
▁hat	-8.75325
▁prof	-8.75745
▁görüşme	-8.75845
▁internet	-8.76158
▁almanya	-8.76331
▁nız	-8.76512
▁kuru	-8.76567
▁ekonomi	-8.76829
'	-8.76939
▁yüksel	-8.76963
▁sahne	-8.77456
▁dolayı	-8.77691
▁sahib	-8.77704
▁ba	-8.77841
▁açı	-8.78237
▁vergi	-8.78446
ş	-8.7863
▁salon	-8.78741
▁fenerbahçe	-8.78867
▁yani	-8.79208
▁anlam	-8.79268
▁kuzey	-8.79289
▁hemen	-8.79321
ne	-8.79327
▁ayrıl	-8.79341
▁china	-8.79392
▁etki	-8.79515
▁rapor	-8.79568
▁açıkladı	-8.79713
▁galatasaray	-8.7972
▁kan	-8.79754
▁şekl	-8.79989
▁çift	-8.80529
▁çözüm	-8.806
▁kadro	-8.80762
▁dışişleri	-8.808
▁beraber	-8.81037
▁oran	-8.81335
▁uygula	-8.81411
▁katıldı	-8.817
▁işbirliği	-8.81756
g	-8.81809
z	-8.82095
erek	-8.82125
▁asl	-8.82459
▁beijing	-8.82526
▁kupa	-8.82616
yeceğ	-8.82737
▁bi	-8.82955
▁müdahale	-8.83066
▁ateş	-8.83276
me	-8.83277
▁25	-8.8333
▁izin	-8.83434
▁50	-8.83538
▁inan	-8.83556
▁yaşam	-8.84005
▁imza	-8.84049
▁turizm	-8.8426
▁mayıs	-8.84311
.”	-8.84563
▁talep	-8.84697
▁kötü	-8.84734
▁öğren	-8.84876
▁kapa	-8.85285
▁sav	-8.85367
▁sarı	-8.85428
▁kuruluş	-8.857
▁uygun	-8.86086
▁barış	-8.86324
yecek	-8.86358
▁şarkı	-8.86766
er	-8.87416
▁şehir	-8.87558
▁kriz	-8.87574
▁f	-8.87585
dır	-8.87907
▁arka	-8.88042
▁yarış	-8.88192
▁rusya	-8.88313
▁yarat	-8.88326
▁metre	-8.884
▁görüntü	-8.88592
▁teşekkür	-8.88672
▁aydın	-8.88967
▁pek	-8.89107
▁faaliyet	-8.89187
▁ileri	-8.89545
▁kitap	-8.89689
▁sokak	-8.89956
▁temmuz	-8.9013
▁kredi	-8.90287
▁tespit	-8.90479
▁hal	-8.90601
▁ücret	-8.90702
▁doğ	-8.90721
▁liste	-8.90798
▁ekonomik	-8.90938
▁yarak	-8.9098
▁terörist	-8.91126
▁katkı	-8.91334
▁gündem	-8.91491
▁büyü	-8.91548
▁teklif	-8.91552
▁taraftar	-8.9183
▁saatler	-8.91913
▁şiddet	-8.9192
le	-8.91968
▁kara	-8.92018
▁sıkıntı	-8.92073
▁18	-8.92253
▁the	-8.92436
▁atatürk	-8.9245
▁gösteri	-8.9249
▁tesis	-8.93078
▁uçak	-8.93263
▁çocuğ	-8.93372
▁mu	-8.93402
▁derneğ	-8.93469
▁euro	-8.93504
▁ocak	-8.93701
▁tekrar	-8.93718
▁doğu	-8.93821
▁kale	-8.94242
▁bel	-8.94915
▁yönetici	-8.94924
▁ız	-8.95206
▁sin	-8.95389
▁kayded	-8.95397
oğlu	-8.95452
▁oğl	-8.95721
▁zaten	-8.95755
▁sivil	-8.96158
▁kuvvet	-8.96184
▁millet	-8.96357
▁vurgula	-8.96518
▁birinci	-8.96652
ün	-8.97091
▁14	-8.97153
▁mesaj	-8.98255
▁uyor	-8.98547
▁komutan	-8.98622
▁haziran	-8.98677
▁ici	-8.98737
▁ab	-8.98981
▁hukuk	-8.99017
▁istedi	-8.99145
▁birbir	-8.9918
▁politika	-8.99294
▁enerji	-8.99535
▁tamamla	-8.99602
▁israil	-8.99611
▁antalya	-8.99646
▁kamu	-8.99941
▁verildi	-8.99984
▁ince	-9.00011
▁müzik	-9.00074
▁kulüp	-9.00198
▁dört	-9.00635
▁alındı	-9.00673
▁dizi	-9.0091
▁serbest	-9.00948
▁ciddi	-9.0105
▁bilim	-9.0123
▁hayvan	-9.01315
▁s	-9.01442
▁gın	-9.01565
▁öğretmen	-9.01618
▁amaç	-9.0181
▁işlem	-9.01848
▁belli	-9.01923
▁özgür	-9.01967
▁şehit	-9.01988
▁otel	-9.02063
▁kolay	-9.0208
▁kanun	-9.02108
▁için	-9.02237
▁13	-9.02264
▁17	-9.02315
▁anadolu	-9.02695
▁kart	-9.0281
▁demir	-9.02949
dı	-9.0309
la	-9.03504
▁ingiltere	-9.03609
▁biraz	-9.04654
▁yıp	-9.04788
▁doğum	-9.04976
▁artış	-9.05132
ta	-9.05153
▁konser	-9.05175
▁komisyon	-9.05424
cı	-9.05431
▁ağustos	-9.05522
▁resm	-9.05571
▁temel	-9.05619
▁getirdi	-9.05693
▁belge	-9.05779
▁ise	-9.05844
▁gemi	-9.05883
▁jandarma	-9.06283
▁televizyon	-9.06345
▁ingiliz	-9.06759
▁kamp	-9.06853
▁sürü	-9.06977
▁iran	-9.07171
▁parça	-9.0734
▁bulunuyor	-9.07355
▁uzman	-9.0751
▁bayram	-9.07547
▁servis	-9.07617
▁başvuru	-9.07634
▁ihale	-9.07641
un	-9.07667
▁avukat	-9.077
▁öte	-9.07766
▁cadde	-9.07781
▁yemek	-9.07978
▁batı	-9.08015
▁kimse	-9.0802
▁henüz	-9.08031
dan	-9.08117
▁takip	-9.08155
▁adet	-9.08574
▁dahil	-9.08739
c	-9.08818
▁vur	-9.08889
▁teslim	-9.08889
▁siyaset	-9.09122
▁giy	-9.09281
▁güney	-9.09468
▁uzak	-9.10059
▁federasyon	-9.10069
▁kafa	-9.10131
▁işaret	-9.10228
▁mal	-9.10259
▁kulübü	-9.10348
▁herhangi	-9.10368
arak	-9.10498
▁ihracat	-9.10933
▁fransa	-9.10935
▁sıcak	-9.11248
▁kayıt	-9.11386
▁yapıldı	-9.11427
▁kol	-9.11579
▁kurtar	-9.11621
▁taş	-9.11641
▁aşk	-9.11904
▁dinle	-9.12044
▁fakülte	-9.12057
▁akp	-9.12323
▁yarın	-9.1248
▁40	-9.1249
▁beş	-9.12493
▁olur	-9.12696
▁hüseyin	-9.12712
▁düzey	-9.12724
▁anayasa	-9.12729
▁tehlike	-9.13116
▁ytl	-9.13192
▁uş	-9.13394
▁bey	-9.13439
▁güçlü	-9.13527
▁kontrol	-9.13685
▁ism	-9.13701
yi	-9.13766
▁eğ	-9.14105
▁seviye	-9.1425
▁24	-9.14274
▁itibaren	-9.14355
▁eser	-9.14374
▁nisan	-9.14594
▁yorum	-9.14647
▁yanlış	-9.15107
▁gol	-9.1532
▁yerel	-9.15344
▁abdnin	-9.15688
▁otobüs	-9.15814
▁açılış	-9.16058
▁ege	-9.16131
▁nere	-9.16232
▁toprak	-9.16279
▁tl	-9.16405
▁biri	-9.16575
▁yanıt	-9.16669
▁çekti	-9.16724
▁ulusal	-9.16984
▁üçüncü	-9.17374
▁karşıyaka	-9.17674
▁şart	-9.17811
▁ekib	-9.17911
▁sınıf	-9.18005
▁kilometre	-9.18078
▁baskı	-9.18234
▁patla	-9.18374
▁faiz	-9.18403
▁örnek	-9.1841
▁tarım	-9.18489
▁başkent	-9.18716
▁sağlık	-9.18809
▁tercih	-9.18834
▁marka	-9.19315
▁orman	-9.19368
▁trafik	-9.19513
▁kongre	-9.19528
▁iktidar	-9.19555
▁h	-9.197
▁öyle	-9.19825
h	-9.19891
▁olan	-9.20031
▁elektrik	-9.20071
▁sevk	-9.20429
▁medya	-9.2071
▁davet	-9.20746
▁teknoloji	-9.21276
▁imkan	-9.21629
▁arac	-9.21717
▁istiyoruz	-9.21736
▁dü	-9.22012
▁mümkün	-9.22265
▁desteğ	-9.22461
▁ders	-9.22513
▁çalışan	-9.22593
▁amerika	-9.23026
▁kır	-9.23218
na	-9.23272
▁yarışma	-9.23274
sı	-9.23494
▁daire	-9.23562
▁güc	-9.23813
▁birkaç	-9.23901
▁for	-9.24032
▁500	-9.24061
yse	-9.24288
▁ayak	-9.24471
▁doktor	-9.2449
▁çal	-9.24515
▁amerikan	-9.24557
C	-9.24653
▁saye	-9.24833
▁öğrenildi	-9.24844
▁abdullah	-9.24874
▁lise	-9.24939
▁gelir	-9.24944
▁kemal	-9.24977
▁hasan	-9.24997
▁şahin	-9.25082
▁çaba	-9.25221
▁ür	-9.25331
▁deprem	-9.25411
▁22	-9.25577
▁yeşil	-9.2575
▁tatil	-9.25932
▁güneş	-9.26071
den	-9.26082
▁bomba	-9.26103
▁fakat	-9.26356
▁ihtiyaç	-9.26497
▁yurt	-9.26508
▁yalnız	-9.26552
▁19	-9.26677
▁bilgisayar	-9.26691
▁inşaat	-9.26693
ü	-9.26724
▁doğal	-9.26748
▁dağ	-9.27134
▁fuar	-9.27254
▁katılım	-9.27279
0	-9.27291
sa	-9.27426
▁şüphe	-9.27497
▁sın	-9.27539
▁idare	-9.27967
▁sayfa	-9.28001
lu	-9.28291
▁üyor	-9.28689
▁uyarı	-9.28715
▁murat	-9.28979
▁kesim	-9.2909
▁numara	-9.29154
▁yaka	-9.29154
▁fatih	-9.2942
▁ibrahim	-9.29468
▁islam	-9.2957
▁kaydedildi	-9.2957
▁boz	-9.29629
▁galibiyet	-9.29676
nın	-9.29725
▁ederek	-9.29806
▁şans	-9.29848
ıcı	-9.30118
▁geniş	-9.30156
▁boş	-9.30199
▁kay	-9.30217
▁gerekiyor	-9.30868
▁personel	-9.31023
com	-9.31142
▁tamamen	-9.3129
▁istifa	-9.31349
▁saygı	-9.31499
▁beri	-9.31525
▁heyet	-9.31667
▁kaybet	-9.31724
▁yılmaz	-9.31835
▁kullandı	-9.31875
▁new	-9.32249
▁tiyatro	-9.32684
▁adalet	-9.32763
▁vurguladı	-9.32779
▁bağlantı	-9.32818
▁hepsi	-9.32835
▁veri	-9.32877
▁götür	-9.33026
’	-9.33179
▁acil	-9.33215
ö	-9.33228
▁önle	-9.33355
▁28	-9.33425
▁sefer	-9.33528
▁2.	-9.34039
▁defa	-9.34168
▁ihtiyac	-9.34174
▁ilerle	-9.34192
▁hapis	-9.34227
▁kanal	-9.34275
▁yatırım	-9.34385
▁dost	-9.34503
▁renk	-9.34575
▁hatırla	-9.34841
▁acı	-9.34897
▁sinema	-9.35115
▁sol	-9.35182
▁model	-9.35429
▁öz	-9.3561
▁basın	-9.35613
▁tıp	-9.35617
▁kampanya	-9.3566
tüğ	-9.35724
bkz	-9.35756
▁hesap	-9.36159
▁tayyip	-9.36292
▁vardır	-9.36461
sel	-9.36607
▁gezi	-9.36665
▁2013	-9.36731
al	-9.37003
▁gaz	-9.37005
▁kısm	-9.37054
▁all	-9.3709
▁yönet	-9.37148
▁eyalet	-9.37183
▁süper	-9.37245
f	-9.37391
▁meslek	-9.37595
▁kaldı	-9.37766
▁23	-9.37807
▁bursa	-9.37841
▁hangi	-9.38065
▁demokrasi	-9.38097
▁büyükelçi	-9.38172
▁gerekçesi	-9.38277
▁risk	-9.38353
▁olarak	-9.38361
▁recep	-9.38422
▁kalk	-9.38707
▁tu	-9.38776
▁hakem	-9.38846
▁21	-9.38878
▁miktar	-9.39204
▁borsa	-9.39272
▁muz	-9.39392
▁çerçeve	-9.39594
dha	-9.39703
▁protesto	-9.39848
▁beyaz	-9.40023
▁oluyor	-9.40114
▁esnaf	-9.403
▁bahçe	-9.40345
oğ	-9.40356
▁üre	-9.4039
▁lazım	-9.40453
▁kasım	-9.40519
▁geçti	-9.40542
▁dağıt	-9.406
▁paylaş	-9.40665
▁çay	-9.40727
ik	-9.40746
▁tip	-9.4075
▁şikayet	-9.41056
▁sert	-9.41225
▁hata	-9.41334
▁aziz	-9.41493
▁harca	-9.41542
▁alıyor	-9.41647
▁kapalı	-9.41719
▁sürek	-9.41873
▁cinayet	-9.4195
▁değerlen	-9.4197
▁masa	-9.41974
▁çağrı	-9.4212
▁emekli	-9.4221
▁gönül	-9.42276
▁zirve	-9.42494
▁sınav	-9.42724
▁şampiyona	-9.42735
▁cenaze	-9.43067
▁plaka	-9.43112
▁allah	-9.43242
▁tahmin	-9.43522
▁olsun	-9.43691
▁tane	-9.43775
▁dergi	-9.43782
▁karış	-9.43952
▁diyarbakır	-9.44232
▁taleb	-9.44633
▁rahat	-9.44727
▁düşük	-9.4474
▁turist	-9.44785
▁rakam	-9.44941
▁kanser	-9.44993
▁gizli	-9.45065
▁süreç	-9.45084
▁dal	-9.45219
▁not	-9.45374
yici	-9.45452
▁200	-9.4552
yış	-9.45533
▁kırmızı	-9.45535
▁performans	-9.45538
▁60	-9.4569
▁hisse	-9.45849
▁fransız	-9.45868
▁vardı	-9.45907
ç	-9.45977
▁dük	-9.46032
▁malı	-9.46147
▁anlaşma	-9.46151
▁gösterdi	-9.46284
▁yor	-9.46394
▁cami	-9.46431
▁normal	-9.46668
▁duygu	-9.46791
▁cevap	-9.46928
▁memur	-9.46928
▁çağ	-9.47099
du	-9.47127
▁yöntem	-9.47187
▁road	-9.47404
▁tuğ	-9.47493
▁eksik	-9.47495
▁karşıla	-9.47505
▁aslan	-9.47537
▁uğra	-9.47549
▁yük	-9.47831
▁fırsat	-9.47835
▁duruşma	-9.47854
▁kürt	-9.47877
▁yazar	-9.48091
spor	-9.48198
▁rol	-9.48536
▁paket	-9.48668
▁tamam	-9.48671
▁çöz	-9.48724
▁aş	-9.48752
▁hakim	-9.49062
▁mevcut	-9.49067
▁mısır	-9.49078
▁anlattı	-9.4909
▁araba	-9.49097
▁of	-9.49364
▁2012	-9.49374
▁yargı	-9.49444
▁kilo	-9.49477
▁görün	-9.49545
▁teşkilat	-9.49568
▁dolu	-9.4959
RI	-9.49774
▁akl	-9.49815
▁muhabir	-9.49864
▁işletme	-9.49922
▁konferans	-9.50169
▁olduğunu	-9.50221
▁uza	-9.5032
▁denetim	-9.50343
▁International	-9.50415
▁sakat	-9.50537
▁yakala	-9.50637
▁radio	-9.50648
▁kaymakam	-9.50688
▁rus	-9.50837
▁kamuoyu	-9.50872
▁ediyorum	-9.5094
▁tbmm	-9.51042
▁değildir	-9.51049
rights	-9.51119
▁shiji	-9.51125
▁tak	-9.51238
▁reserve	-9.51365
▁devre	-9.51383
ngshan	-9.51421
2	-9.51472
▁emin	-9.51533
▁malzeme	-9.51587
▁dolayısıyla	-9.51608
▁bütçe	-9.51687
A	-9.51833
▁biçim	-9.51963
el	-9.52234
▁bodrum	-9.52314
▁bedel	-9.52333
▁basketbol	-9.52362
▁kulüb	-9.52429
▁girişim	-9.52432
ca	-9.52452
▁buluş	-9.52497
▁c	-9.52525
▁şehr	-9.52583
▁geliyor	-9.52744
▁cuma	-9.52751
▁antrenman	-9.52823
▁ramazan	-9.52845
▁manisa	-9.52931
▁dışarı	-9.5311
▁metin	-9.53282
▁27	-9.533
▁kamera	-9.53345
▁azal	-9.53503
ınca	-9.53583
▁cezaevi	-9.5375
▁yıldırım	-9.53764
▁organizasyon	-9.53842
▁uçağ	-9.53885
▁destekle	-9.53929
▁erke	-9.53932
▁siyah	-9.54
▁ilaç	-9.54013
▁bayrak	-9.5409
▁temiz	-9.541
▁edin	-9.54103
▁mü	-9.54308
▁kavga	-9.5439
▁hayır	-9.54531
▁kitab	-9.54666
▁müş	-9.5471
▁koşul	-9.55204
▁olabilir	-9.55248
▁net	-9.55303
▁kesin	-9.55304
▁kap	-9.55448
▁ekipleri	-9.55513
ken	-9.55526
▁gıda	-9.5556
▁komite	-9.55613
▁aktar	-9.5574
▁öneri	-9.55984
▁pkk	-9.56038
▁bol	-9.56049
▁unut	-9.56131
▁kon	-9.56436
▁ışid	-9.56465
▁çoğu	-9.56556
▁tehdit	-9.56612
▁yağ	-9.5695
▁kurtul	-9.57029
▁din	-9.57109
▁bm	-9.57139
▁temas	-9.57229
▁halde	-9.5732
▁ışık	-9.57379
on	-9.57616
▁müşteri	-9.57658
▁tabi	-9.57673
▁cep	-9.57676
▁kaya	-9.57686
▁osman	-9.57728
▁zengin	-9.58027
▁kazandı	-9.58043
▁konak	-9.58257
▁onur	-9.58392
▁köprü	-9.58485
▁pay	-9.58528
▁darbe	-9.5865
▁fabrika	-9.58762
▁hediye	-9.58834
▁ton	-9.58934
▁ilan	-9.59003
ci	-9.59039
▁nüfus	-9.5906
▁bülent	-9.59115
▁yunanistan	-9.59177
▁kural	-9.59245
▁york	-9.59385
▁sal	-9.59641
1	-9.59742
▁tasarı	-9.59833
▁petrol	-9.5984
▁konsey	-9.59869
▁ismail	-9.59955
▁rahatsız	-9.59958
▁benze	-9.59977
iş	-9.59988
▁yetiş	-9.59997
▁26	-9.60004
▁yağış	-9.60053
▁süt	-9.60073
▁bekleniyor	-9.60112
▁merak	-9.60272
tir	-9.60277
▁tutuk	-9.60363
▁trilyon	-9.60383
▁mali	-9.60419
▁rakip	-9.60435
▁bağla	-9.60532
▁iptal	-9.60635
▁dönüş	-9.60658
▁trabzonspor	-9.60733
▁ömer	-9.60971
▁makam	-9.61074
▁dosya	-9.61337
▁sekreter	-9.61513
su	-9.61802
▁yaralandı	-9.61986
▁alışveriş	-9.61987
▁ortalama	-9.62065
▁seri	-9.62095
▁itiraz	-9.62501
ki	-9.62551
▁koca	-9.62564
▁tabii	-9.62603
▁deplasman	-9.6279
▁hürriyet	-9.62855
▁kaybed	-9.62928
▁sigara	-9.62935
▁korku	-9.6301
▁rekor	-9.63054
▁adliye	-9.63328
▁hoca	-9.63416
ar	-9.63464
▁edecek	-9.63686
▁bağımsız	-9.63941
▁sergi	-9.64015
▁bornova	-9.64016
▁70	-9.64142
▁kalite	-9.64146
▁ayrıca	-9.64202
▁seyir	-9.64205
▁umut	-9.64207
▁1.	-9.6436
▁bayan	-9.64583
▁ada	-9.64738
▁yip	-9.64751
▁çarp	-9.65188
▁sözleşme	-9.65286
▁2014	-9.6536
▁dans	-9.65473
▁bebek	-9.65489
▁belirlendi	-9.65503
▁istiyorum	-9.65774
▁londra	-9.65789
▁albüm	-9.6584
▁ediliyor	-9.66127
▁tv	-9.66198
▁üretici	-9.66241
▁girdi	-9.66374
▁saç	-9.66447
▁roman	-9.66457
▁inşa	-9.66664
▁başvur	-9.66665
▁sendika	-9.66694
se	-9.6671
▁adana	-9.66782
▁değerlendirme	-9.66797
▁mezar	-9.66805
▁borç	-9.66905
▁geçmiş	-9.67008
▁kıbrıs	-9.67034
▁liman	-9.67141
im	-9.67164
▁kış	-9.67292
yüş	-9.67334
▁uğur	-9.67512
▁filistin	-9.67513
▁ikili	-9.67624
▁turnuva	-9.67673
▁300	-9.67691
▁yeter	-9.67883
▁kurs	-9.68178
▁kurban	-9.68319
▁artık	-9.68355
▁yay	-9.68378
▁uyuşturucu	-9.68572
▁sürdü	-9.68756
▁adres	-9.68854
▁ameliyat	-9.68878
▁dair	-9.68954
▁italya	-9.68957
▁35	-9.68981
▁olası	-9.69209
▁çiçek	-9.69222
▁itfaiye	-9.69437
▁hesab	-9.69442
▁aşama	-9.697
▁gereğ	-9.69719
▁/	-9.69838
▁konuk	-9.69955
▁problem	-9.70021
▁uy	-9.70211
▁van	-9.70318
ti	-9.70351
▁gram	-9.70402
▁90	-9.70547
▁3.	-9.70548
▁yık	-9.70556
▁saray	-9.70635
▁ağaç	-9.71017
▁akıl	-9.71126
▁fayda	-9.71146
▁madalya	-9.71224
ni	-9.71242
▁yapıyor	-9.71546
iz	-9.71546
▁deri	-9.71571
▁yönetme	-9.7172
▁gez	-9.71727
▁aşağı	-9.7182
▁öğretim	-9.71893
ce	-9.71896
▁çıkar	-9.71996
▁konut	-9.72049
▁amac	-9.72151
▁av	-9.72271
▁motor	-9.72273
▁gitti	-9.72676
▁ucu	-9.72763
▁reklam	-9.72973
▁attı	-9.72993
▁ha	-9.73116
ine	-9.73173
▁yeterli	-9.73331
▁ayağ	-9.73341
▁yapılacak	-9.73879
▁bağ	-9.73912
▁paris	-9.74221
▁kral	-9.74232
▁sahil	-9.74432
▁2007	-9.74439
▁hikaye	-9.74514
▁sigorta	-9.74517
▁asya	-9.74547
▁test	-9.74629
lik	-9.74677
▁iletişim	-9.74788
▁dernek	-9.75009
▁takdir	-9.75039
▁gaziantep	-9.75055
▁80	-9.75174
▁slogan	-9.75189
▁nla	-9.75316
▁falan	-9.75342
▁heyecan	-9.75408
▁doğa	-9.75467
▁karakter	-9.755
▁kuş	-9.75684
▁belde	-9.75727
▁antrenör	-9.75766
▁ysa	-9.75777
▁planla	-9.75799
▁organ	-9.75839
▁kırsal	-9.75987
▁şen	-9.76052
▁dev	-9.76086
▁rum	-9.76097
ünce	-9.76171
at	-9.76203
▁endeks	-9.76206
▁milletvekil	-9.76376
▁mekan	-9.76437
▁semt	-9.76491
://	-9.76567
▁mühendis	-9.76789
▁düşünce	-9.76923
▁çiz	-9.76942
▁kira	-9.77353
▁pozisyon	-9.77499
▁resim	-9.77584
▁kenar	-9.77815
▁adli	-9.77826
▁abdde	-9.77831
▁finans	-9.77842
▁fikir	-9.78115
uz	-9.78116
▁duvar	-9.78149
▁diyor	-9.78223
▁nite	-9.7827
▁yet	-9.78458
▁maliyet	-9.78488
▁taban	-9.78658
▁ihbar	-9.78673
▁sürüyor	-9.78964
▁daya	-9.79123
▁devrim	-9.79337
▁binlerce	-9.79377
▁peş	-9.79453
▁veriyor	-9.79607
▁ambulans	-9.79618
▁açtı	-9.79622
▁yüzyıl	-9.79644
▁müslüman	-9.79727
▁uyar	-9.79983
▁buldu	-9.80038
um	-9.80065
▁yağmur	-9.80086
türkiye	-9.80328
▁gen	-9.80336
▁yargılan	-9.80353
▁selçuk	-9.80735
▁ist	-9.80836
▁muğla	-9.80863
▁ilginç	-9.80965
▁organize	-9.8099
sal	-9.81033
mi	-9.81139
▁önlem	-9.81141
miz	-9.81142
saray	-9.81142
▁yak	-9.81198
▁yansı	-9.81301
▁29	-9.81406
▁huzur	-9.81491
▁gerekir	-9.81507
▁2008	-9.81692
▁kahraman	-9.81717
▁istikrar	-9.81742
▁kelime	-9.81948
▁vekil	-9.82089
bir	-9.82171
▁arazi	-9.82375
▁aşırı	-9.82432
▁eşya	-9.82433
▁ediyoruz	-9.82649
▁hafif	-9.82671
ydi	-9.82722
E	-9.8277
▁gurur	-9.82857
▁sebep	-9.82931
▁ölü	-9.82946
dur	-9.82956
▁soy	-9.83045
▁ölçü	-9.83108
▁çetin	-9.83219
▁üz	-9.83275
▁uzay	-9.83462
▁emre	-9.8361
niz	-9.83799
▁31	-9.83827
▁stad	-9.83873
▁konya	-9.83991
bahçe	-9.84276
▁zan	-9.84323
▁ruh	-9.84332
▁45	-9.84395
▁mensup	-9.84403
ing	-9.84483
▁doğrultu	-9.84531
üp	-9.84556
yı	-9.84626
▁komşu	-9.84669
▁zafer	-9.84711
▁trabzon	-9.84964
▁tedbir	-9.84972
▁çatışma	-9.85083
▁cem	-9.85111
▁göl	-9.85151
oz	-9.85189
▁uyum	-9.85218
▁sok	-9.85219
▁afrika	-9.85357
▁üzerine	-9.85389
▁füze	-9.85401
▁asıl	-9.85668
▁ticari	-9.85674
▁cinsel	-9.85757
▁müze	-9.85959
▁video	-9.85962
▁mağaza	-9.86066
▁tahliye	-9.86281
▁demokratik	-9.8633
▁cihaz	-9.86376
▁kalp	-9.86418
▁modern	-9.86427
▁koç	-9.86587
▁bor	-9.86676
▁vakf	-9.86957
▁japonya	-9.87038
▁genelkurmay	-9.87044
▁makine	-9.87059
▁ümit	-9.87076
▁beklenti	-9.87161
▁tüket	-9.87181
▁tablo	-9.87301
▁endişe	-9.87372
▁2005	-9.87577
▁yurtdışı	-9.87674
▁mutlaka	-9.87706
▁kaçak	-9.87745
▁forma	-9.87757
▁civar	-9.87799
▁sar	-9.87801
▁çap	-9.87812
▁şoför	-9.88015
▁bilet	-9.88206
▁müzakere	-9.88271
▁kıyı	-9.884
▁yim	-9.88418
▁vazgeç	-9.88612
▁süleyman	-9.8862
▁muhalefet	-9.88691
▁öğle	-9.89026
▁soğuk	-9.89141
mış	-9.89192
▁düğün	-9.89295
▁ardından	-9.89372
▁eğlence	-9.89741
▁sermaye	-9.89776
▁sakin	-9.898
v	-9.89863
▁karadeniz	-9.90073
▁bünye	-9.90082
▁çoğun	-9.9009
▁yaklaş	-9.90151
▁maden	-9.90189
ip	-9.90194
▁pilot	-9.90219
▁şiir	-9.90386
▁tren	-9.90386
▁kaybetti	-9.90608
▁gider	-9.90659
▁ağrı	-9.90732
unuz	-9.90736
▁namaz	-9.90964
▁set	-9.9104
tır	-9.91044
▁trafiğ	-9.91136
▁akdeniz	-9.91155
▁şeker	-9.91176
▁maddi	-9.91218
inde	-9.9138
▁tanıtım	-9.91485
▁hır	-9.91631
▁2010	-9.91702
▁muhtar	-9.91839
▁tüketici	-9.91852
▁cumartesi	-9.91867
▁ispanya	-9.91943
▁strateji	-9.91982
▁yapacak	-9.92081
us	-9.92109
▁arap	-9.92415
▁to	-9.92614
▁tat	-9.92627
▁gun	-9.92758
▁10004	-9.9279
▁ekle	-9.92917
▁kaldırıldı	-9.92963
▁as	-9.93014
▁final	-9.93019
▁kılıç	-9.9323
www	-9.93268
▁men	-9.93295
▁uç	-9.93311
▁ilgilen	-9.93525
türk	-9.93571
▁yasal	-9.93689
▁koş	-9.93895
bil	-9.93985
▁denge	-9.94027
▁orhan	-9.94031
?"	-9.9408
▁davranış	-9.94127
▁vade	-9.94166
▁erzurum	-9.9423
▁dikkati	-9.94318
▁reform	-9.94333
▁tutar	-9.9436
▁edebiyat	-9.94382
▁holding	-9.94391
▁yaşandı	-9.94586
▁yürütül	-9.94604
▁aykırı	-9.94754
▁yaşlı	-9.94771
▁esas	-9.94774
3	-9.94782
ini	-9.94839
▁başar	-9.95108
▁istiyor	-9.95263
▁2015	-9.95494
▁eleştir	-9.95556
▁kapasite	-9.95598
▁kutla	-9.95686
▁http	-9.95729
▁etkile	-9.95874
▁hasar	-9.96271
▁2006	-9.96315
▁birim	-9.96328
▁kavuş	-9.9634
▁cam	-9.96363
▁eleştiri	-9.96491
▁kariyer	-9.96542
▁metrekare	-9.96632
▁hanım	-9.96636
▁tanık	-9.96778
▁diş	-9.96813
▁sezer	-9.9702
ir	-9.9712
5	-9.97159
▁2002	-9.97187
▁başlattı	-9.97212
▁terk	-9.97221
▁radyo	-9.97313
▁eskişehir	-9.97405
▁kayseri	-9.97437
▁400	-9.97605
▁konuşmada	-9.97776
▁ulaştı	-9.97794
ge	-9.97851
▁cesed	-9.9789
▁gin	-9.97905
▁tarz	-9.98154
▁boğaz	-9.98235
▁Washington	-9.98327
▁bush	-9.98394
▁tazminat	-9.98458
▁maaş	-9.98474
▁y	-9.98556
▁amerikalı	-9.98568
▁uefa	-9.98654
▁p	-9.98852
▁örneğ	-9.98926
▁baykal	-9.98938
▁afganistan	-9.98958
▁yararlan	-9.98985
▁istasyon	-9.99293
▁sohbet	-9.99344
▁ekledi	-9.99357
▁mersin	-9.99384
yarak	-9.99397
cumhurbaşkanlığı	-9.99415
▁anket	-9.99493
▁platform	-9.99513
▁2009	-9.99591
▁tecavüz	-9.99741
▁eşit	-9.99807
▁boyut	-9.99927
▁şam	-9.9999
▁kork	-10.0003
ak	-10.0004
▁karayolu	-10.0009
▁2000	-10.003
▁depo	-10.0066
ydı	-10.0066
▁üretil	-10.0071
▁bıçak	-10.0075
▁büro	-10.0076
lerin	-10.0085
▁imam	-10.0088
▁meyve	-10.0092
▁2004	-10.0094
▁altyapı	-10.0095
▁tekne	-10.0114
(	-10.0118
▁danışman	-10.0125
▁öztürk	-10.0127
▁senaryo	-10.0128
▁kültürel	-10.0139
▁müziğ	-10.0141
▁bursaspor	-10.0145
▁ortam	-10.0147
▁düştü	-10.017
▁yayınla	-10.0191
▁tanış	-10.0195
▁atla	-10.0204
▁açıklandı	-10.0208
▁döviz	-10.0211
▁he	-10.0214
▁tibet	-10.0233
▁engelle	-10.0235
▁tecrübe	-10.024
▁dua	-10.0241
▁pazartesi	-10.0245
▁perşembe	-10.0254
ka	-10.0256
▁yetkilileri	-10.0257
▁sevin	-10.0257
▁mesele	-10.0266
▁açıldı	-10.0284
▁osmanlı	-10.0293
▁adım	-10.03
▁meli	-10.0308
▁mektup	-10.0312
▁itibari	-10.0313
▁mhp	-10.0327
▁2003	-10.0337
yıcı	-10.0367
▁tribün	-10.0368
▁birlikte	-10.0373
▁gördü	-10.0384
▁hayran	-10.0385
▁dahi	-10.0386
tı	-10.0421
her	-10.0424
▁özdemir	-10.0446
▁arada	-10.0446
▁italyan	-10.0453
▁150	-10.0455
▁ajans	-10.047
▁başsavcı	-10.0487
▁tepe	-10.0501
▁sultan	-10.0501
▁toprağ	-10.0504
ve	-10.0507
▁2011	-10.0507
▁önemli	-10.0514
▁çatı	-10.0524
▁ekran	-10.0524
▁rejim	-10.0528
▁alternatif	-10.053
▁zorun	-10.0534
▁onay	-10.0552
▁güreş	-10.0567
▁yaparken	-10.0573
▁ayakkabı	-10.0588
▁yetkililer	-10.0594
▁dalga	-10.0597
▁sürpriz	-10.0604
▁değin	-10.0607
▁miras	-10.0618
▁kedi	-10.0621
▁düzenlendi	-10.0628
▁uc	-10.0634
S	-10.0642
▁festivali	-10.0648
▁evet	-10.0648
▁çizgi	-10.065
▁taksi	-10.0653
▁çanakkale	-10.0663
▁öldü	-10.0675
▁kod	-10.0684
▁roma	-10.0685
▁fon	-10.0687
▁demokrat	-10.0702
▁getirildi	-10.0705
▁bazen	-10.0709
▁geleneksel	-10.073
▁tenis	-10.0735
sin	-10.0735
▁bağış	-10.0736
▁baraj	-10.074
▁düşman	-10.0743
▁üstlen	-10.0743
▁standart	-10.0748
▁gazi	-10.0752
▁davran	-10.0762
▁maliye	-10.0776
▁çiftçi	-10.078
▁mahkum	-10.0782
▁bal	-10.0803
▁döndü	-10.0815
il	-10.0821
▁denildi	-10.0825
▁yukarı	-10.0826
▁yavaş	-10.0831
▁cephe	-10.0837
ıp	-10.084
▁çarşamba	-10.0865
▁olmaz	-10.0866
4	-10.0871
▁kategori	-10.0881
▁istihdam	-10.0906
▁engin	-10.0924
▁be	-10.0934
▁bar	-10.0934
▁yalan	-10.0944
▁düşünüyorum	-10.0948
▁saniye	-10.095
▁yusuf	-10.0953
▁tel	-10.0954
▁talimat	-10.0955
▁belçika	-10.0958
▁olmadı	-10.0978
▁niyet	-10.0983
man	-10.099
▁miting	-10.0991
ır	-10.0992
▁yumurta	-10.0992
▁yatak	-10.1007
to	-10.1008
▁ters	-10.101
▁yükseldi	-10.1011
▁dök	-10.1032
▁v	-10.1036
▁galeri	-10.1039
▁intihar	-10.1042
▁istek	-10.1048
▁düzen	-10.1055
▁yo	-10.1067
▁yunan	-10.1072
▁ilhan	-10.1074
▁teşvik	-10.1079
▁ayır	-10.1083
▁helikopter	-10.1117
miş	-10.1127
▁koşu	-10.1135
▁unsur	-10.1137
▁garanti	-10.1152
▁istihbarat	-10.116
▁aracılığıyla	-10.1164
▁havalimanı	-10.1166
▁gökhan	-10.1166
▁rekabet	-10.1169
▁mağdur	-10.117
yınca	-10.1174
▁profesyonel	-10.1176
▁tamamladı	-10.1188
▁pas	-10.119
yabil	-10.1193
▁verecek	-10.1196
▁çöp	-10.1214
▁köşe	-10.1221
▁ş	-10.1231
is	-10.1239
▁duyuru	-10.1245
yince	-10.1247
▁bunlar	-10.1249
▁john	-10.1262
▁parlamento	-10.1264
▁mezun	-10.1278
▁hayal	-10.1281
▁rektör	-10.1304
▁paşa	-10.1309
▁kıyafet	-10.1313
▁efsane	-10.134
▁samsun	-10.1347
▁34	-10.1362
▁mavi	-10.1377
▁adn	-10.1429
▁arzu	-10.1439
▁gerçekleşti	-10.1442
lık	-10.1442
▁üyeleri	-10.1443
▁muhammed	-10.1446
ben	-10.1448
▁zorla	-10.145
▁doku	-10.1456
▁alacak	-10.1457
▁belirtiliyor	-10.1476
▁aliağa	-10.1482
▁levent	-10.1483
▁yayımlan	-10.1508
▁cık	-10.1512
▁geçirdi	-10.1512
▁çinli	-10.1525
▁sinan	-10.1529
et	-10.153
▁saatte	-10.1536
acak	-10.1541
▁j	-10.1544
▁no	-10.1566
▁pakistan	-10.1573
▁düz	-10.1584
▁zorlu	-10.1586
▁köpek	-10.159
▁enflasyon	-10.1591
▁kilise	-10.1596
▁muhalif	-10.1618
▁inşallah	-10.1652
▁toplantısında	-10.166
▁amir	-10.1663
▁havaalanı	-10.1663
▁değişik	-10.1663
▁tasarım	-10.1665
▁vizyon	-10.1667
▁küresel	-10.1673
▁çalışıyor	-10.1684
▁yemeğ	-10.1685
▁etraf	-10.1692
▁çeşme	-10.1703
▁savundu	-10.1707
▁şanlıurfa	-10.1708
mıştır	-10.1711
▁ayrıldı	-10.1728
▁abdli	-10.1729
▁uçuş	-10.1733
▁çu	-10.174
▁32	-10.1741
▁belediyesi	-10.1745
▁göç	-10.1754
▁yoktur	-10.1755
▁detay	-10.1774
haber	-10.1795
▁hüküm	-10.1806
tepe	-10.184
tik	-10.1842
▁basit	-10.1845
▁ilköğretim	-10.1845
▁imparator	-10.1849
▁bilimsel	-10.1852
▁olacaktır	-10.1867
▁ihtimali	-10.1872
sinde	-10.1875
idir	-10.1877
▁kutu	-10.1889
▁tasarruf	-10.1892
▁edeceğiz	-10.1894
▁adeta	-10.192
▁kamyon	-10.1922
▁heykel	-10.1922
▁ekmek	-10.1934
▁kere	-10.1936
▁sürdürdü	-10.1938
▁özür	-10.1951
▁dolaş	-10.1958
▁aksi	-10.1962
▁yazdı	-10.1965
▁skor	-10.1967
▁laf	-10.1969
▁4.	-10.197
▁cok	-10.1971
▁arslan	-10.1974
ların	-10.1993
▁beğen	-10.1993
▁kitle	-10.1998
tan	-10.2018
▁ter	-10.2019
▁kore	-10.2025
▁tü	-10.2031
▁hollanda	-10.2031
▁kayıp	-10.2035
▁insani	-10.2036
bugünkü	-10.2036
▁rüzgar	-10.2039
▁zeki	-10.2086
▁36	-10.2086
▁kalbi	-10.2094
▁şok	-10.2096
▁yalçın	-10.2096
▁ingilizce	-10.2101
▁kaptan	-10.2104
▁karakol	-10.2108
▁memnuniyet	-10.2128
▁çevir	-10.2137
biz	-10.2139
▁öner	-10.2142
▁olmuştur	-10.2146
▁ayrıntı	-10.2146
▁önder	-10.2151
▁moda	-10.2162
▁enstitü	-10.2175
▁tutuklan	-10.2188
▁ağ	-10.2189
▁olması	-10.2194
▁kaynağ	-10.2203
▁etmişti	-10.2213
▁bebe	-10.222
ılıçdaroğ	-10.2225
▁körfez	-10.2229
▁nükleer	-10.223
▁ağz	-10.2232
▁icra	-10.2236
▁müsteşar	-10.2277
▁adı	-10.2279
▁işyeri	-10.2301
▁diye	-10.2304
▁sebeb	-10.2309
▁koalisyon	-10.232
▁memnun	-10.2322
▁kocaoğ	-10.2323
▁hazine	-10.2327
▁W	-10.2332
▁gösteriyor	-10.2348
▁bisiklet	-10.2351
▁çalışıyoruz	-10.2376
▁hücre	-10.2382
▁elektronik	-10.2383
son	-10.2393
▁çağır	-10.2395
▁niye	-10.2406
▁dere	-10.2408
▁mesafe	-10.2421
▁kasaba	-10.2429
▁dile	-10.2441
▁söylüyor	-10.2441
▁çıkıyor	-10.2445
ay	-10.2446
▁eder	-10.2457
▁tuz	-10.2458
yan	-10.247
▁çete	-10.2472
▁sahte	-10.2483
▁toplumsal	-10.2491
▁balıkesir	-10.2503
▁peki	-10.2523
▁ziraat	-10.2532
▁yasak	-10.2533
▁afet	-10.2536
▁dayanışma	-10.2538
▁ettiler	-10.2546
▁erdem	-10.2568
▁meşale	-10.2571
▁nefes	-10.258
▁kalkınma	-10.259
inin	-10.2616
▁halil	-10.2619
▁seans	-10.2635
▁ruhsat	-10.2636
▁33	-10.2645
▁km	-10.2657
▁yönetmen	-10.2659
▁siirt	-10.2675
▁bile	-10.2679
▁yapan	-10.2689
▁duyurdu	-10.2724
▁gümüş	-10.2725
▁memleket	-10.2729
▁250	-10.2737
▁tamamlanma	-10.2737
▁yım	-10.274
▁hamile	-10.2748
▁kalem	-10.2764
▁sergile	-10.2769
▁nöbet	-10.2775
▁bekliyoruz	-10.2776
ında	-10.2777
▁sivas	-10.2782
▁üzüntü	-10.2783
▁hu	-10.28
▁şaş	-10.2806
▁2001	-10.2811
▁yitir	-10.2819
▁hindistan	-10.2827
▁şener	-10.2833
▁idari	-10.2834
▁olduğu	-10.285
▁cümle	-10.2852
▁gerçeğ	-10.2862
mak	-10.2877
▁kişisel	-10.2883
nda	-10.2899
nca	-10.2928
▁kocaeli	-10.293
▁avustralya	-10.2933
▁gelecek	-10.2934
ması	-10.2935
▁gök	-10.2943
▁iddiası	-10.2945
▁ilke	-10.2947
▁re	-10.2948
nun	-10.295
▁serdar	-10.2952
▁döv	-10.2957
▁sunuz	-10.2963
▁klasik	-10.2966
▁cik	-10.2967
st	-10.2971
▁arasında	-10.2978
▁çıkardı	-10.2978
▁edirne	-10.2979
ab	-10.298
▁çalıştı	-10.2982
▁demirtaş	-10.2984
▁sandalye	-10.2986
▁katliam	-10.2989
▁şebeke	-10.2998
▁duman	-10.3003
▁gönderildi	-10.301
▁esad	-10.3011
▁vücud	-10.303
▁ofis	-10.3031
▁dilekçe	-10.3035
▁gergin	-10.3041
▁salih	-10.3043
▁isteyen	-10.3045
▁gümrük	-10.3055
▁ermeni	-10.3072
▁karşıt	-10.3081
▁avusturya	-10.3091
▁benzeri	-10.31
▁avantaj	-10.3104
▁göm	-10.3114
▁rakib	-10.3119
▁sokağ	-10.3132
as	-10.3138
▁olağanüstü	-10.3142
▁ısrar	-10.3143
ra	-10.3161
▁tuvalet	-10.3183
▁mez	-10.3185
▁moskova	-10.3201
▁48	-10.3208
▁sırt	-10.3215
▁geçirildi	-10.3219
.(	-10.323
▁doç	-10.3233
▁öncü	-10.3242
▁havuz	-10.3252
▁egemen	-10.3253
▁çelik	-10.3256
▁abi	-10.3256
▁erkan	-10.326
▁ederken	-10.3264
▁tezkere	-10.3264
▁adresi	-10.3265
▁bırakıldı	-10.329
▁arz	-10.3291
▁eden	-10.3296
*	-10.3299
▁minibüs	-10.3302
▁özkan	-10.3303
▁sponsor	-10.3305
▁vurgu	-10.3321
▁çatış	-10.333
▁kop	-10.3335
iyor	-10.3351
ek	-10.3352
▁durumda	-10.3353
▁kaybol	-10.3356
▁göçmen	-10.3357
▁sürdürüyor	-10.3357
▁radikal	-10.3365
▁lim	-10.337
lari	-10.3388
▁kaçakçı	-10.34
▁cuk	-10.3421
▁yavuz	-10.3422
8	-10.3434
▁siniz	-10.3443
▁kas	-10.3443
▁rakibi	-10.345
▁karabağ	-10.3465
egedesons	-10.3467
▁götürüldü	-10.3467
▁prim	-10.3469
mektedir	-10.3469
▁pankart	-10.3469
▁hoş	-10.3506
▁doğan	-10.3518
▁suriyeli	-10.352
▁hisset	-10.3526
▁yargıtay	-10.3526
▁yapış	-10.3529
▁kırık	-10.353
▁hedefle	-10.3532
sın	-10.3533
▁kimyasal	-10.3537
▁duyarlı	-10.3548
▁isyan	-10.3552
R	-10.3559
▁and	-10.3572
▁özgü	-10.3572
▁mimar	-10.3574
ol	-10.3578
▁yaklaşım	-10.3588
▁laik	-10.3594
▁beden	-10.3596
▁milliyet	-10.3598
İ	-10.3605
lay	-10.3626
▁1.5	-10.3627
yız	-10.3629
▁55	-10.3631
▁yapılıyor	-10.3632
▁han	-10.3633
▁foto	-10.3638
▁restoran	-10.3653
nde	-10.3653
▁olanak	-10.3655
▁ettik	-10.3657
ed	-10.3659
▁aktif	-10.3675
▁japon	-10.3684
▁bahar	-10.3702
▁toz	-10.3706
▁gelen	-10.371
▁buz	-10.372
ba	-10.373
▁aktardı	-10.3733
▁ukrayna	-10.3735
▁kavram	-10.3746
▁george	-10.3747
▁oğuz	-10.3751
▁polat	-10.3752
▁tekstil	-10.3754
ev	-10.3784
ten	-10.3805
▁hakaret	-10.3807
▁michael	-10.3823
▁metro	-10.3832
▁derken	-10.3835
▁mahmut	-10.3835
▁kök	-10.3835
▁tanrı	-10.3836
bey	-10.3839
yla	-10.3857
▁inanıyorum	-10.3861
▁kaliteli	-10.3874
yeni	-10.3903
▁alev	-10.3903
▁galip	-10.3918
▁saldırgan	-10.3919
▁plaj	-10.392
▁potansiyel	-10.392
larda	-10.3925
▁ayhan	-10.3926
▁madrid	-10.3927
▁yetenek	-10.3932
▁altay	-10.3936
aj	-10.3946
ri	-10.3949
▁golü	-10.3957
▁dar	-10.3958
▁camia	-10.3959
türki	-10.3959
ön	-10.3966
▁tavsiye	-10.397
çeyrek	-10.3979
▁işadam	-10.3985
▁mesela	-10.3987
▁ispanyol	-10.3989
▁kapsa	-10.4014
▁bat	-10.4025
▁yaptık	-10.4027
iye	-10.4031
▁köken	-10.4034
▁arınç	-10.4034
▁dokuz	-10.4038
▁lisans	-10.4039
▁bağdat	-10.404
▁ortadoğu	-10.4042
hane	-10.4046
▁gerekçe	-10.4066
▁suy	-10.4075
▁katil	-10.4077
▁otopsi	-10.4084
▁harekat	-10.4091
▁fidan	-10.4093
▁litre	-10.4096
es	-10.41
▁75	-10.4101
lerini	-10.4101
▁nihat	-10.4107
▁özgecan	-10.4114
▁dağıl	-10.4119
▁edit	-10.4129
▁kıl	-10.4138
▁istatistik	-10.4151
lan	-10.4156
▁zira	-10.4162
▁önce	-10.4175
▁öngör	-10.4185
▁disiplin	-10.4187
▁penaltı	-10.4189
▁tutuklandı	-10.4201
▁geçerli	-10.4212
▁erdal	-10.4221
▁gazze	-10.4222
▁uğraş	-10.4228
▁alkol	-10.4237
▁robert	-10.4247
▁böl	-10.4256
▁iade	-10.4263
▁ham	-10.4265
▁müsabaka	-10.4274
▁ağabey	-10.4274
▁eleman	-10.4275
▁ertuğrul	-10.4276
▁misafir	-10.428
▁fatura	-10.4282
▁indirim	-10.4283
▁kopyala	-10.4292
▁koltuğ	-10.4297
▁aşık	-10.4301
larında	-10.4302
▁şah	-10.4304
▁direniş	-10.4319
maktadır	-10.4323
▁ila	-10.4324
▁harita	-10.4329
▁hikmet	-10.4332
▁mağlup	-10.4336
▁ulus	-10.4343
▁dükkan	-10.4349
han	-10.4352
▁sığın	-10.4354
▁vs	-10.4365
▁erdi	-10.4368
▁kasa	-10.4379
6	-10.4381
ana	-10.4386
▁hekim	-10.4387
▁akraba	-10.4393
▁çekiyor	-10.4394
▁nesil	-10.4394
▁kalaba	-10.4398
▁acaba	-10.4412
▁ağa	-10.4421
▁sıkış	-10.4427
▁olmuş	-10.4429
▁torun	-10.4432
▁kutlama	-10.4436
▁kurt	-10.4446
▁yenilgi	-10.4451
▁verilecek	-10.4452
▁kadir	-10.4461
▁evren	-10.4471
▁durak	-10.4472
▁açığ	-10.4482
▁menajer	-10.4484
▁yakalandı	-10.4494
▁sinir	-10.4503
▁usta	-10.4504
▁600	-10.4507
▁görüldü	-10.4511
lere	-10.4512
lerinin	-10.4519
▁analiz	-10.452
▁derin	-10.4531
▁halep	-10.4532
▁nur	-10.4538
▁ölen	-10.454
▁önerge	-10.4548
▁real	-10.4554
▁yitirdi	-10.4554
▁rıza	-10.456
▁zam	-10.4573
▁felaket	-10.4577
▁taliban	-10.4579
▁faruk	-10.4579
▁mardin	-10.4579
ikna	-10.4582
▁psikolojik	-10.4588
▁emir	-10.4592
lerde	-10.4593
▁rüya	-10.4593
▁koku	-10.4594
▁hayati	-10.4599
▁bildiri	-10.4604
▁kesinti	-10.4636
▁atan	-10.4637
▁şair	-10.4638
▁yasağ	-10.4642
▁sakarya	-10.4642
sen	-10.4652
larının	-10.4662
▁cevab	-10.4662
▁ok	-10.4665
▁başlayacak	-10.4665
ını	-10.4672
▁resmi	-10.4673
▁uyu	-10.4679
▁maz	-10.4684
▁alkış	-10.4684
▁çankaya	-10.4696
▁yöre	-10.4701
▁diyalog	-10.4703
▁kontrolün	-10.4717
▁göztepe	-10.4724
▁65	-10.4727
▁değerlendiril	-10.4736
▁fikr	-10.4738
▁bitki	-10.474
▁orgeneral	-10.4761
▁hacmi	-10.4761
ünüz	-10.4768
▁çanta	-10.4771
▁seks	-10.4777
▁erol	-10.4785
▁sel	-10.4798
▁voleybol	-10.4804
▁korunma	-10.4818
iyet	-10.4822
▁kütüphane	-10.4824
▁menderes	-10.4826
▁bekliyor	-10.4829
▁çarşı	-10.4832
▁37	-10.4832
▁belirsiz	-10.4835
▁izn	-10.4839
▁morg	-10.4846
▁düzenli	-10.487
miştir	-10.4872
▁röportaj	-10.4882
▁olmuştu	-10.4883
▁şimşek	-10.4885
ör	-10.4887
▁elbette	-10.4891
▁minik	-10.4892
▁uyku	-10.4893
▁apartman	-10.4894
▁gayret	-10.4906
mis	-10.4923
▁ka	-10.4923
▁koydu	-10.4926
T	-10.4933
▁başlandı	-10.4947
▁kritik	-10.4949
▁özcan	-10.495
▁resmen	-10.4957
▁efendi	-10.4957
▁ithalat	-10.4958
▁deneyim	-10.4958
▁keyif	-10.4961
▁saddam	-10.4961
▁42	-10.4968
▁yapacağız	-10.4968
▁motosiklet	-10.4973
lara	-10.4978
▁uyan	-10.4986
▁işadamı	-10.4991
▁120	-10.4993
▁izledi	-10.5006
▁şarap	-10.5011
▁mülteci	-10.5013
▁bulgaristan	-10.5013
▁yönetimi	-10.5013
▁gündüz	-10.5018
▁vize	-10.5022
▁tad	-10.5025
▁dedim	-10.5025
imha	-10.5038
▁kanat	-10.5053
▁dikkatli	-10.5057
mek	-10.5058
▁bağır	-10.5063
▁imzala	-10.5068
▁temizle	-10.5075
▁turan	-10.5076
▁beyan	-10.5086
▁has	-10.5086
▁torba	-10.5094
ue	-10.5095
▁coşku	-10.5098
▁ağla	-10.5098
▁akpnin	-10.51
▁nato	-10.5106
▁yaygın	-10.511
▁işgal	-10.5141
▁başlatıldı	-10.5144
▁david	-10.5145
▁vücut	-10.5145
▁yoktu	-10.5151
▁takımı	-10.5152
▁amatör	-10.5153
▁kanıt	-10.5156
ko	-10.5158
▁özen	-10.5158
▁yapıyoruz	-10.5158
paşa	-10.5164
▁dsp	-10.5171
▁anıt	-10.5171
▁çam	-10.5174
▁play	-10.5181
▁sorgu	-10.5189
▁ihraç	-10.5214
▁times	-10.5216
▁güvence	-10.5218
▁elbise	-10.5219
▁brezilya	-10.5221
asyon	-10.5229
▁birşey	-10.5237
it	-10.5239
ama	-10.5239
▁kararı	-10.5242
bel	-10.5255
ım	-10.5257
off	-10.5262
▁üzere	-10.5264
▁aleyh	-10.5273
▁şırnak	-10.5276
▁dördün	-10.5277
▁iftar	-10.5278
▁forum	-10.5279
▁isveç	-10.5281
os	-10.5285
▁isviçre	-10.5286
▁düzenledi	-10.5288
yebil	-10.5292
▁ayşe	-10.5294
▁bakanlığı	-10.5295
maruz	-10.5308
▁kaybı	-10.5313
▁sus	-10.5322
▁chpn	-10.5331
▁düzel	-10.5332
▁popüler	-10.5341
▁arena	-10.5342
▁oktay	-10.5343
▁itiraf	-10.5347
▁oldum	-10.5386
▁kulak	-10.5389
the	-10.5389
▁sevinç	-10.5398
ço	-10.5398
▁alışkan	-10.5398
▁şef	-10.5405
dr	-10.5406
▁mevsim	-10.5408
▁edilecek	-10.5409
sında	-10.5411
▁aksu	-10.5411
▁ufak	-10.5412
▁fırat	-10.5418
▁giyim	-10.5419
▁yahudi	-10.542
▁pınar	-10.5421
▁bulut	-10.5422
▁suçlama	-10.5427
▁kızıl	-10.5431
▁fizik	-10.5441
▁etkisi	-10.5462
▁tahsis	-10.5471
▁arjantin	-10.5473
▁patron	-10.5476
▁moral	-10.5492
▁belirledi	-10.5496
▁tavır	-10.5501
▁imar	-10.5504
▁beyazlı	-10.5515
▁söylediler	-10.5519
▁ke	-10.5533
▁twitt	-10.5535
yiz	-10.5541
▁sürüldü	-10.5542
▁güneydoğu	-10.5545
▁bıraktı	-10.5545
▁isabet	-10.5545
▁eğilim	-10.555
▁fatma	-10.5552
▁panel	-10.5555
▁irade	-10.5562
▁çizdi	-10.5576
can	-10.5576
▁haberde	-10.5578
▁öldürülme	-10.5579
▁efes	-10.5582
▁rastla	-10.5587
▁ihlal	-10.5597
▁nehr	-10.5604
▁aldık	-10.5607
▁layık	-10.5609
▁toto	-10.5613
▁kızılay	-10.5614
▁malatya	-10.5615
▁derbi	-10.5618
▁yanıtla	-10.5618
▁parmak	-10.5618
▁ünal	-10.5619
▁istemi	-10.5619
bi	-10.562
larını	-10.564
▁kurulu	-10.5655
▁futbolcu	-10.5656
izmir	-10.5663
▁adlandırıl	-10.5664
▁jüri	-10.5678
▁bekir	-10.5686
▁olurken	-10.5687
▁arafat	-10.5688
▁sil	-10.5699
▁dilek	-10.5699
▁mobil	-10.57
▁kutsal	-10.5704
▁nev	-10.5705
K	-10.5709
▁bölgesel	-10.5712
▁l	-10.5713
▁çare	-10.5721
?”	-10.5724
▁burak	-10.5728
▁38	-10.5745
▁kablo	-10.5748
▁gayet	-10.575
ıdır	-10.5754
▁kağıt	-10.5759
▁ortaokul	-10.5774
▁arttı	-10.5779
▁market	-10.5781
köy	-10.5786
▁yedek	-10.5811
siz	-10.5812
▁yaşadı	-10.5812
▁özlem	-10.5812
re	-10.5815
▁muayene	-10.5817
kur	-10.5818
▁putin	-10.5819
▁stadyum	-10.582
▁abla	-10.5821
▁maske	-10.5821
▁yoksul	-10.5828
iç	-10.5829
rken	-10.5832
▁urla	-10.5834
eysel	-10.5835
▁form	-10.5862
ıyor	-10.5876
▁bağımlı	-10.588
▁yarar	-10.5882
▁grev	-10.5886
lendi	-10.5887
▁ercan	-10.5893
▁vakıf	-10.5894
▁ladin	-10.5902
▁facebook	-10.5902
▁hükm	-10.5907
▁aracı	-10.5914
▁takvim	-10.5924
erken	-10.5936
ke	-10.5939
▁gönderdi	-10.5943
▁gözyaş	-10.5949
▁oynadı	-10.5949
dünya	-10.5949
▁tem	-10.5952
▁çiğli	-10.5961
▁birara	-10.5962
▁mesut	-10.5962
▁şeref	-10.5976
▁metal	-10.598
▁1-0	-10.5997
ver	-10.5999
▁mektub	-10.6006
▁konum	-10.6011
▁beğeni	-10.6014
▁diz	-10.6014
dür	-10.6018
▁çekildi	-10.6027
▁çevik	-10.6027
▁katrilyon	-10.6027
▁hatırlattı	-10.6031
▁diliyorum	-10.6032
▁turgut	-10.6034
▁don	-10.6041
▁1998	-10.6041
▁özer	-10.6043
▁muhteşem	-10.6043
▁mersi	-10.6047
▁rock	-10.6055
▁yakış	-10.6055
7	-10.6056
▁çakır	-10.6059
▁fen	-10.6069
tr	-10.607
▁kontrolü	-10.6079
kırmızı	-10.6091
▁gidiyor	-10.6093
j	-10.6093
▁oyuncu	-10.6103
▁çadır	-10.6111
▁kahve	-10.6114
▁kum	-10.6116
▁toplantıda	-10.6122
▁şiş	-10.6125
▁sap	-10.6128
▁üste	-10.6131
▁seçildi	-10.6132
▁opera	-10.6144
▁marmara	-10.6148
▁sta	-10.615
▁aktör	-10.6151
▁taciz	-10.6154
▁çü	-10.6155
▁yargıla	-10.6163
▁süz	-10.6169
▁kaygı	-10.617
▁olağan	-10.617
▁tük	-10.617
▁kısım	-10.6171
▁bulunmaktadır	-10.6171
▁Kılıçdaroğlu	-10.6174
▁katılımı	-10.6174
▁sivasspor	-10.6177
▁ata	-10.6184
ücü	-10.6191
▁zeytin	-10.6194
▁mevki	-10.62
▁stat	-10.62
eğ	-10.6218
▁netice	-10.6221
M	-10.6225
▁hatay	-10.6226
yucu	-10.6229
▁koordinatör	-10.623
▁star	-10.6233
▁2016	-10.625
▁ilkokul	-10.6251
▁sakla	-10.6252
▁yuva	-10.6257
başı	-10.6277
▁protokol	-10.6277
▁taşıyor	-10.6286
▁gerçekleştirdi	-10.6288
▁tarif	-10.6295
▁alet	-10.6304
▁ekipler	-10.6305
▁günü	-10.6308
▁antik	-10.6309
▁devir	-10.6312
▁golcü	-10.6315
▁virüs	-10.6316
▁kule	-10.6317
▁anı	-10.6318
▁avro	-10.632
▁rolü	-10.6325
▁perde	-10.6326
▁olmalı	-10.6337
▁salı	-10.6338
▁52	-10.6346
▁başardı	-10.6355
▁maalesef	-10.6355
▁idam	-10.6358
▁cennet	-10.6361
▁şaşkın	-10.6366
▁işlev	-10.6377
▁ceng	-10.6378
▁volkan	-10.639
▁pekdaş	-10.639
▁yurd	-10.639
▁eren	-10.6391
▁ağız	-10.6396
▁tabur	-10.6396
▁lacivert	-10.6399
▁alırken	-10.6404
▁delil	-10.6422
▁cemil	-10.6423
▁celal	-10.6431
ur	-10.6434
▁1000	-10.6465
▁toplam	-10.6466
▁verir	-10.6471
▁ederk	-10.6482
▁diploma	-10.6488
▁birey	-10.6489
040	-10.6497
▁tokat	-10.6499
▁thy	-10.6501
▁beste	-10.6511
▁uzlaş	-10.6513
sidir	-10.6523
▁desteği	-10.6534
▁nikah	-10.6535
▁çıkacak	-10.6538
▁refah	-10.6538
▁seyahat	-10.6539
▁ışığ	-10.6544
lerinde	-10.6546
▁harika	-10.6551
▁vaka	-10.6554
tek	-10.6557
▁kartal	-10.6562
▁kader	-10.6571
▁nuri	-10.6587
▁112	-10.6588
▁seminer	-10.6602
▁ithal	-10.6605
▁yavru	-10.661
▁ittifak	-10.6612
▁vitamin	-10.6613
▁idman	-10.6617
▁zayıf	-10.6618
beyaz	-10.6625
▁koltuk	-10.6629
▁hatt	-10.6641
▁bayrağı	-10.6662
▁vicdan	-10.6669
▁ailesi	-10.6674
lerdir	-10.6679
▁sipariş	-10.6689
▁kapsamında	-10.6692
▁bizzat	-10.6696
▁yiz	-10.6704
▁başkanvekil	-10.6717
▁mükemmel	-10.6718
▁yas	-10.6728
▁genişle	-10.6729
ılmıştır	-10.6734
▁degil	-10.6746
ının	-10.6751
):	-10.6762
▁mekanizma	-10.6766
▁kaide	-10.6766
9	-10.6767
▁parlak	-10.6768
▁başlangıç	-10.6769
▁ecevit	-10.6774
▁ytlye	-10.6777
▁grubu	-10.6778
▁saf	-10.6778
▁değilim	-10.6781
▁pamuk	-10.6788
▁51	-10.6801
▁coşkun	-10.6806
▁abdye	-10.6806
▁5.	-10.6809
▁militan	-10.6809
gi	-10.6817
▁zincir	-10.6817
▁almıştı	-10.6842
▁ömür	-10.6842
▁doğalgaz	-10.6847
▁Web	-10.6849
▁boru	-10.685
or	-10.6859
bura	-10.6863
▁yunus	-10.6867
▁yücel	-10.6881
▁baro	-10.6882
▁deney	-10.6883
▁camii	-10.6884
▁statü	-10.6889
▁tara	-10.689
▁hukuki	-10.6898
▁kir	-10.6906
▁ceset	-10.6908
▁sami	-10.6909
▁ribaunt	-10.692
▁hayvancılık	-10.692
va	-10.6922
▁davutoğ	-10.6923
▁forvet	-10.6926
▁tırman	-10.6926
▁mesai	-10.6926
▁ettim	-10.6927
▁belirli	-10.6927
D	-10.6933
▁finale	-10.6937
bo	-10.6938
▁vadi	-10.6948
▁700	-10.6949
▁edilir	-10.6951
yıp	-10.6955
▁belirlenme	-10.6956
▁çarptı	-10.6956
▁tünel	-10.6956
▁A	-10.696
▁gerile	-10.697
▁yandan	-10.697
▁bay	-10.6973
maz	-10.6979
do	-10.6986
▁göğüs	-10.6998
▁pencere	-10.6998
▁akpınar	-10.7
▁zeka	-10.7004
▁nefret	-10.7004
▁hazırlanıyor	-10.7005
▁karşılan	-10.7005
▁sarıgül	-10.7011
▁zeynep	-10.7011
▁ıraklı	-10.7017
▁sekiz	-10.7022
▁ırk	-10.7023
▁obama	-10.7023
▁içinde	-10.7026
▁diren	-10.7035
der	-10.7036
▁orkestra	-10.7039
▁kare	-10.7045
gerçekleştirildi	-10.7045
▁hele	-10.7054
▁zevk	-10.7066
▁clinton	-10.7067
▁teşhis	-10.7067
▁benzin	-10.7069
▁gecik	-10.708
▁800	-10.7083
▁şişe	-10.7085
▁inönü	-10.7091
▁pahalı	-10.7093
▁1999	-10.7097
▁marş	-10.7098
▁olmadığını	-10.7101
po	-10.7108
▁yürek	-10.7108
▁mit	-10.7113
▁meğ	-10.7118
ecek	-10.7125
▁sağladı	-10.7128
▁bini	-10.7149
▁subay	-10.7152
▁imzalan	-10.7157
▁ilet	-10.7164
▁beslenme	-10.7169
▁ekibi	-10.7176
▁divan	-10.7179
▁inanç	-10.7181
▁efe	-10.7183
▁kulübe	-10.7183
▁baz	-10.7196
▁müdürlüğü	-10.7201
▁geçiyor	-10.7208
▁salla	-10.7221
▁akademi	-10.7225
▁tank	-10.7226
ova	-10.7236
▁arabistan	-10.7236
▁işkence	-10.7236
▁adil	-10.7238
▁zonguldak	-10.724
▁yü	-10.7242
▁tarla	-10.7242
▁polonya	-10.7242
▁atölye	-10.7244
▁siyasal	-10.7249
▁foça	-10.725
logram	-10.7253
▁bdp	-10.7254
▁romanya	-10.7254
▁karanlık	-10.7258
▁sordu	-10.7259
▁köpeğ	-10.7263
▁yiğit	-10.7269
▁geleni	-10.7276
▁somut	-10.7282
▁olacağız	-10.7292
▁asist	-10.7292
▁değildi	-10.7293
▁başkanı	-10.7296
▁festival	-10.7299
▁yarattı	-10.7302
▁44	-10.7305
▁post	-10.7311
▁trt	-10.7314
▁lübnan	-10.7317
▁rize	-10.7321
ch	-10.7321
▁katılacak	-10.7323
▁saati	-10.7327
▁senet	-10.7331
▁evlat	-10.7336
▁sema	-10.7348
fer	-10.7355
mıştı	-10.7363
▁güçlendir	-10.7376
▁kendisi	-10.7377
▁uygulanma	-10.7377
▁gasp	-10.7379
▁taksit	-10.7388
▁vakit	-10.7398
▁hakkari	-10.7398
▁suçla	-10.7405
▁berlin	-10.7407
▁masraf	-10.7407
▁albay	-10.7413
▁acar	-10.7427
ince	-10.7432
▁pis	-10.7435
▁buca	-10.7435
▁dayalı	-10.7439
I	-10.7441
▁sene	-10.7444
▁yanıtladı	-10.746
x	-10.7466
▁karı	-10.7469
▁tebrik	-10.7476
▁geçen	-10.7477
▁iskele	-10.748
▁kriter	-10.7481
▁azerbaycan	-10.7484
dim	-10.7485
▁ahlak	-10.7486
▁alkollü	-10.7486
▁marmaris	-10.7489
▁hülya	-10.7489
up	-10.7496
▁rüşvet	-10.7514
▁vurdu	-10.7518
▁lüks	-10.7521
▁ımf	-10.7538
▁çığ	-10.7543
▁K	-10.7544
▁2-1	-10.7555
▁skandal	-10.7562
▁koordinasyon	-10.7563
▁yalova	-10.7563
▁ürdün	-10.7563
▁bordo	-10.7563
▁boşal	-10.7567
▁alsancak	-10.7569
▁esna	-10.7572
▁49	-10.7576
▁kursiyer	-10.7578
▁kenan	-10.7578
ık	-10.759
▁2.5	-10.7592
▁villa	-10.7592
▁uzaklaş	-10.7592
▁ze	-10.7599
▁boya	-10.76
▁tüp	-10.7608
▁öykü	-10.7609
sini	-10.761
▁ziya	-10.7613
▁katılan	-10.7614
▁46	-10.7616
▁geçit	-10.7619
▁verdik	-10.7633
▁istendi	-10.7634
ına	-10.7636
▁yardımı	-10.7642
▁iklim	-10.7646
▁endüstri	-10.7648
▁kaçtı	-10.7649
▁ederim	-10.765
▁balkan	-10.7651
▁hollywood	-10.7652
▁asansör	-10.7655
▁kazakistan	-10.7655
▁köşk	-10.7656
deki	-10.7659
.*	-10.7659
▁fırtına	-10.766
▁bok	-10.7681
▁alın	-10.7682
taş	-10.7687
▁üstün	-10.7689
▁güler	-10.7689
ıl	-10.7689
▁olduk	-10.7697
▁paralel	-10.7698
çi	-10.7711
şu	-10.7718
▁mayın	-10.7721
▁entry	-10.773
▁kuşku	-10.7733
▁karayol	-10.7736
▁naz	-10.7738
▁izmirli	-10.7738
▁1997	-10.7742
▁uygur	-10.7742
ul	-10.7743
▁yaşıyor	-10.7744
▁arı	-10.7748
▁kemer	-10.7749
▁herşey	-10.775
▁hdp	-10.7759
▁algı	-10.7765
▁çukur	-10.7786
dk	-10.78
▁cemal	-10.7801
▁alır	-10.7805
be	-10.7806
▁bilinc	-10.7814
▁gerilim	-10.7816
▁hücum	-10.7816
▁açıklamasında	-10.7818
▁damga	-10.7818
▁esrar	-10.7822
▁düşüş	-10.7823
▁kömür	-10.7825
▁öcalan	-10.7825
B	-10.7827
▁uşak	-10.7831
▁abnin	-10.7833
▁co	-10.7838
▁türban	-10.7839
▁ipek	-10.7842
▁profesör	-10.7846
▁kurşun	-10.785
▁birik	-10.7855
so	-10.7858
▁ala	-10.7861
sız	-10.7867
▁eri	-10.7886
yıl	-10.7892
▁olup	-10.7896
▁general	-10.7899
▁küfür	-10.79
▁imalat	-10.79
▁erzincan	-10.79
▁zabıta	-10.7901
▁rehber	-10.7901
▁iddianame	-10.7902
▁dürüst	-10.7907
▁belgesel	-10.7909
▁yakıt	-10.791
▁rahmet	-10.791
▁tarafından	-10.791
▁gölge	-10.7925
▁şov	-10.7928
▁gökçek	-10.7929
lerine	-10.793
▁sıfır	-10.7936
lama	-10.7946
▁türkü	-10.795
▁satı	-10.7953
ha	-10.7956
▁şut	-10.7975
▁blok	-10.7994
▁çıplak	-10.7995
▁gözlem	-10.7995
▁james	-10.7996
▁herhalde	-10.7996
▁şenol	-10.7997
▁saatlik	-10.7998
▁otomatik	-10.7998
▁dijital	-10.8005
say	-10.8015
▁kırmızılı	-10.8027
▁kusur	-10.8028
▁alaka	-10.8034
▁damar	-10.8045
▁diplomat	-10.8047
▁dyp	-10.8056
▁uzmanlar	-10.8058
ze	-10.8074
▁ceb	-10.8079
▁astsubay	-10.808
▁prens	-10.8082
▁merkezi	-10.8099
▁abone	-10.8116
▁görsel	-10.8119
▁yangın	-10.8121
len	-10.8123
kent	-10.8127
▁39	-10.8127
▁alanya	-10.8127
▁sağlıyor	-10.813
▁sez	-10.8133
▁raporda	-10.8148
▁anahtar	-10.815
ilk	-10.8162
▁başlıyor	-10.8168
lig	-10.8168
▁akciğer	-10.8173
sine	-10.8175
▁çıkarıldı	-10.8194
▁yaprak	-10.8199
▁gazetesi	-10.8202
▁dediler	-10.8212
▁oylama	-10.8229
▁muammer	-10.825
▁kuşadası	-10.825
▁otoyol	-10.825
▁yararlı	-10.8251
rf	-10.8251
▁barcelona	-10.8251
▁turkcell	-10.8254
▁sınız	-10.8254
▁haluk	-10.8255
▁federal	-10.8256
▁donanım	-10.8257
▁kanad	-10.8257
▁fener	-10.8263
▁bulunan	-10.8278
▁özerk	-10.828
▁terim	-10.8283
▁41	-10.8303
▁koleksiyon	-10.8304
▁ö	-10.8321
▁masum	-10.8323
▁hayali	-10.8336
▁görüyor	-10.834
▁uyruk	-10.8342
▁manzara	-10.8343
▁tescil	-10.8343
▁asayiş	-10.8343
▁kemik	-10.8345
▁değerlendirdi	-10.8349
ara	-10.8354
▁giderk	-10.836
▁lezzet	-10.836
▁günay	-10.8365
dere	-10.8371
▁kazı	-10.8371
▁sundu	-10.8373
▁or	-10.8374
▁kadıköy	-10.8384
▁hong	-10.8391
baş	-10.8395
▁seçenek	-10.8401
▁bilinç	-10.8409
▁görüştü	-10.8416
▁kaçın	-10.8423
▁halinde	-10.8425
▁gar	-10.8429
▁merdiven	-10.8429
▁telekom	-10.8429
▁fikret	-10.843
▁avşar	-10.8431
▁islami	-10.8437
▁sabit	-10.8441
▁kapatılma	-10.8443
▁antalyaspor	-10.8443
▁ge	-10.8445
▁tavr	-10.8457
▁cins	-10.8458
▁oluştu	-10.8458
▁hissed	-10.8459
▁microsoft	-10.846
▁ona	-10.8463
ist	-10.8474
▁deli	-10.8478
▁kong	-10.8481
▁düzgün	-10.8484
▁direk	-10.85
▁saatleri	-10.8502
istanbul	-10.8505
▁taşkın	-10.8507
▁aşı	-10.8507
▁karşılaştı	-10.8515
▁hassasiyet	-10.852
▁ikram	-10.852
▁2-0	-10.852
▁sedat	-10.8522
▁yakalanma	-10.8524
▁facia	-10.8526
▁bozuk	-10.8527
▁biber	-10.8528
▁manevi	-10.8531
am	-10.8535
▁ortağı	-10.8547
▁cesaret	-10.8552
▁öfke	-10.8563
▁soma	-10.8565
▁bank	-10.8573
▁işyer	-10.8593
▁disk	-10.8599
▁ray	-10.8603
▁okur	-10.8607
▁atlet	-10.8611
▁böbrek	-10.8612
▁kademe	-10.8613
▁sırasında	-10.8614
▁brezilyalı	-10.8614
▁yetkili	-10.8615
▁babacan	-10.8615
▁coğrafya	-10.8616
▁ssk	-10.8616
özel	-10.8617
▁alex	-10.8617
▁ük	-10.8623
▁çök	-10.8629
▁dek	-10.864
▁abye	-10.8641
tur	-10.8647
▁makale	-10.8654
alım	-10.866
▁akın	-10.8667
▁unvan	-10.8672
▁arkadaşları	-10.8689
▁güzergah	-10.87
▁burn	-10.8701
▁düşünüyoruz	-10.8705
▁formül	-10.8707
▁sey	-10.8708
▁sportif	-10.8715
net	-10.8716
▁sofra	-10.8718
▁daim	-10.8719
▁tanım	-10.872
▁bergama	-10.872
▁kın	-10.8725
▁etap	-10.8729
▁yaşanan	-10.8744
▁x	-10.8744
▁yakaladı	-10.8758
▁bulun	-10.8762
▁bulunur	-10.8781
▁11.	-10.8782
bugün	-10.8783
▁konusu	-10.8785
▁zihniyet	-10.8797
▁gişe	-10.8798
▁husus	-10.8798
▁belirtirken	-10.8798
▁ergin	-10.8799
▁davutoğlu	-10.8799
▁mutfak	-10.8805
▁gaziemir	-10.8805
▁garip	-10.8806
▁birliği	-10.8808
▁cd	-10.8809
▁gördüm	-10.881
▁emlak	-10.8814
▁vural	-10.882
▁mikro	-10.882
▁ağırla	-10.8821
▁işveren	-10.8825
abilirsiniz	-10.8826
▁defans	-10.8837
▁simge	-10.8842
▁kars	-10.885
▁suat	-10.8855
ça	-10.8861
▁düzenlenme	-10.8865
▁bot	-10.8872
yo	-10.8877
▁so	-10.8887
▁dib	-10.8887
ilirken	-10.8887
daha	-10.8891
▁bonservis	-10.8892
▁lütfen	-10.8893
▁filan	-10.8894
▁kuşak	-10.8894
▁bayındır	-10.8896
▁ah	-10.8897
sıyla	-10.8898
▁çalışırken	-10.8901
▁komünist	-10.8902
▁boşan	-10.8911
▁gösterge	-10.8912
▁kullanılır	-10.8912
▁es	-10.8912
▁devr	-10.8918
▁atina	-10.8921
▁56	-10.8921
▁leh	-10.8925
▁çekerek	-10.8933
landı	-10.8933
▁google	-10.8936
▁hani	-10.8942
▁filmi	-10.8944
▁sur	-10.8952
▁nedir	-10.8956
▁yaptım	-10.8962
▁0	-10.8967
lardır	-10.8967
▁olmayan	-10.8968
muş	-10.8973
▁seyred	-10.8974
▁necdet	-10.8989
▁sebebiyle	-10.899
▁şerit	-10.899
▁müttefik	-10.8992
▁ersoy	-10.8992
▁meksika	-10.8995
▁manken	-10.8998
▁kayb	-10.9003
▁istiklal	-10.9005
▁yaparak	-10.9006
▁43	-10.901
▁heyeti	-10.9013
▁açıklanma	-10.902
20	-10.9021
▁ağar	-10.9024
▁imkb	-10.9027
▁sergilen	-10.9029
▁95	-10.903
▁beyn	-10.9033
▁veren	-10.9034
▁his	-10.9048
▁öğrenciler	-10.9052
▁bulvar	-10.9056
▁kuruldu	-10.9057
▁veda	-10.9068
ley	-10.9068
▁gökçe	-10.9069
▁bekl	-10.9069
▁hadi	-10.9071
▁plaket	-10.9072
▁finansman	-10.9081
▁tahsil	-10.9083
▁takviye	-10.9084
▁servet	-10.9084
▁atletizm	-10.9084
▁tayfun	-10.9084
▁türkmen	-10.9086
▁mobilya	-10.9087
▁plastik	-10.9091
▁zarf	-10.9091
▁biridir	-10.9092
▁power	-10.9093
▁mantık	-10.9093
▁zem	-10.9094
▁etnik	-10.9094
▁matematik	-10.9095
▁infaz	-10.9101
▁sertifika	-10.9104
▁etmektedir	-10.9113
▁bacağ	-10.9134
▁tahri	-10.9136
ünkü	-10.9164
▁çiğ	-10.9164
▁jet	-10.9171
▁golle	-10.9177
laştırma	-10.9178
▁propaganda	-10.9181
▁yanısıra	-10.9181
▁ressam	-10.9181
▁aksoy	-10.9183
▁oğul	-10.9184
▁delege	-10.9185
▁meme	-10.9187
baba	-10.9188
▁yıka	-10.9195
▁psikoloji	-10.9195
▁stres	-10.9197
▁hacı	-10.9201
▁tanımla	-10.9201
▁erkeğ	-10.9205
▁yaşanıyor	-10.921
▁finalde	-10.9216
kü	-10.9223
▁tema	-10.9224
▁selam	-10.9225
▁mert	-10.9225
▁anımsa	-10.9246
gel	-10.9256
▁laboratuvar	-10.9262
▁los	-10.9275
▁benzer	-10.9276
▁atmosfer	-10.9279
▁otopark	-10.9279
▁bitlis	-10.9279
▁macera	-10.9281
▁sabır	-10.9287
▁1980	-10.9288
sun	-10.929
▁gürültü	-10.9292
▁ç	-10.9293
▁yaratı	-10.9296
▁diledi	-10.9297
▁etmek	-10.93
▁62	-10.9302
▁sistemi	-10.9308
▁politik	-10.9313
▁selim	-10.9315
▁yapar	-10.9328
tar	-10.9332
▁belirttiler	-10.9344
udi	-10.9354
▁tutuklu	-10.9373
▁us	-10.9373
▁burcu	-10.9378
▁mevzuat	-10.9381
▁kooperatif	-10.9382
▁serkan	-10.9383
▁geliştirilme	-10.939
zat	-10.939
▁saban	-10.939
▁gören	-10.9391
▁defter	-10.9394
insan	-10.9395
lanıyor	-10.9401
dik	-10.9407
▁web	-10.9409
gül	-10.9416
▁ünite	-10.9418
▁akpli	-10.9423
▁gür	-10.9428
▁denk	-10.9429
▁etmiştir	-10.9429
▁yönel	-10.9439
▁boğul	-10.9439
▁mum	-10.9443
▁pkkn	-10.9449
▁görülüyor	-10.945
▁demektir	-10.9456
▁küme	-10.9458
▁mahkemesi	-10.9463
pe	-10.9473
▁arif	-10.9474
▁bakı	-10.9475
▁teşkil	-10.9477
▁mesleğ	-10.9478
▁mermi	-10.9478
▁ilave	-10.9479
▁Wang	-10.9479
▁ihmal	-10.9479
▁kayserispor	-10.948
▁aykut	-10.948
▁aktaş	-10.9482
▁kocaoğlu	-10.9483
geç	-10.9485
sas	-10.9486
▁necati	-10.9487
▁önemlidir	-10.9488
▁ptt	-10.9494
▁kolej	-10.9495
▁hap	-10.9498
▁diyanet	-10.95
ecektir	-10.9516
pa	-10.952
▁samimi	-10.9521
▁ayrım	-10.9529
▁belirti	-10.9531
▁arıza	-10.9538
▁branş	-10.9539
lidir	-10.9543
▁karn	-10.955
▁koyu	-10.9565
▁itibarıyla	-10.9579
▁yelken	-10.9579
▁şükür	-10.9582
▁tempo	-10.9582
▁olamaz	-10.9582
▁münih	-10.9583
▁kktc	-10.9584
▁ulan	-10.9585
▁temenni	-10.9586
▁eğlen	-10.9586
▁merkel	-10.9587
şer	-10.9589
▁ödenme	-10.9593
devlet	-10.9594
▁fıfa	-10.9599
▁vefat	-10.9601
▁yüce	-10.9605
mil	-10.9605
▁yargılanma	-10.9607
▁kaz	-10.9623
iyorum	-10.9624
▁meşru	-10.9625
▁kamil	-10.9629
▁projesi	-10.9638
▁63	-10.9659
▁kına	-10.9661
▁öngörü	-10.9665
▁aldım	-10.9667
▁denir	-10.967
▁paul	-10.9673
▁etmiş	-10.9675
▁bankası	-10.9678
▁selahattin	-10.9681
▁denizlispor	-10.9681
▁müftü	-10.9683
▁pa	-10.9683
▁turistik	-10.9686
▁aygün	-10.9686
▁kütahya	-10.9688
▁kıta	-10.9689
▁meslektaş	-10.9692
▁1994	-10.9694
▁tuncay	-10.9695
larına	-10.9698
▁keyf	-10.9701
▁sabri	-10.9705
▁akademisyen	-10.9707
go	-10.9709
▁bale	-10.971
▁çözülme	-10.9712
▁kaydet	-10.9713
▁nişan	-10.9723
AR	-10.975
▁sonsuz	-10.978
▁portekiz	-10.9784
▁tekerlek	-10.9784
▁tatbikat	-10.9784
▁kuzu	-10.9787
▁tavuk	-10.9789
▁hafıza	-10.9791
▁kosova	-10.9792
▁çalışkan	-10.9796
▁danıştay	-10.9804
▁yükle	-10.9806
▁asgari	-10.981
maktır	-10.9816
▁dert	-10.9825
▁satır	-10.9825
▁gelenek	-10.9829
▁olmak	-10.9834
▁örneğin	-10.9836
▁kayak	-10.9837
▁yasin	-10.9839
kar	-10.9841
▁kirala	-10.9853
▁beceri	-10.9854
ser	-10.9854
▁pist	-10.9854
▁değerlendirilme	-10.9869
▁ot	-10.9872
▁göt	-10.9884
▁çorum	-10.9888
▁zırh	-10.9888
▁hassas	-10.9889
▁tahvil	-10.9889
kan	-10.9889
▁çıkarken	-10.9893
▁kurtuluş	-10.9896
▁muhtemel	-10.9897
▁edilmiştir	-10.9899
▁çabuk	-10.9899
abilir	-10.9902
▁gidecek	-10.9908
yol	-10.9917
▁sunu	-10.9918
▁bill	-10.9928
W	-10.993
-1	-10.993
▁sözleri	-10.9943
▁gönl	-10.9946
▁getiriyor	-10.9947
▁ediyorlar	-10.9986
▁fethiye	-10.9993
▁vermişti	-10.9996
▁ergün	-10.9998
▁1996	-10.9998
▁egedesonsöz	-11.0001
▁sebze	-11.0001
▁atalay	-11.0004
▁ceylan	-11.0006
▁tolga	-11.0006
▁çak	-11.0007
▁zehir	-11.0018
sinin	-11.0021
▁keçi	-11.0026
▁stand	-11.0027
land	-11.0033
▁alarm	-11.0043
▁makina	-11.005
▁tuk	-11.0055
▁350	-11.0068
▁dayak	-11.007
▁şeyh	-11.0073
▁panik	-11.0075
▁tutukla	-11.0078
▁85	-11.0078
lanma	-11.0081
▁gönderilme	-11.0084
▁oto	-11.0094
▁jintao	-11.01
▁süresince	-11.01
▁espri	-11.01
▁seferihisar	-11.0101
▁kamyonet	-11.0102
▁duygusal	-11.0103
▁mevduat	-11.0105
▁şahıs	-11.0105
▁tıbbi	-11.0106
yrd	-11.0109
▁diyen	-11.0118
▁1-1	-11.0118
▁taktik	-11.012
▁kuyu	-11.0122
▁iniş	-11.0123
ali	-11.0125
az	-11.013
▁işte	-11.0131
▁onayla	-11.0135
▁bayrağ	-11.0138
▁eşi	-11.0144
▁durağ	-11.0146
abd	-11.0159
▁adem	-11.0174
▁grand	-11.0181
▁korkut	-11.0183
▁afiş	-11.0196
ıyla	-11.0199
▁narlıdere	-11.0207
▁ertesi	-11.0207
▁bilmiyorum	-11.021
▁kurumsal	-11.0212
▁kuyruk	-11.0212
▁asıllı	-11.0212
▁vermedi	-11.0214
▁biliyorum	-11.0216
▁emanet	-11.0217
▁atilla	-11.0219
▁yürüdü	-11.022
▁altın	-11.0223
▁buluştu	-11.0226
▁fiziksel	-11.0226
▁gençler	-11.0228
krem	-11.0241
▁bürokrat	-11.0246
▁araştırma	-11.0246
▁mutfağ	-11.0248
▁alış	-11.0255
▁paylaştı	-11.0262
▁almıştır	-11.0268
▁oluşturdu	-11.027
ancak	-11.0277
▁elçi	-11.0281
▁demişti	-11.0284
▁derviş	-11.0287
▁koyun	-11.0288
liği	-11.0297
▁bulunmuştu	-11.0307
▁bacak	-11.0315
▁uyardı	-11.0316
▁norveç	-11.0316
▁damat	-11.0317
▁götürdü	-11.0317
▁veysel	-11.0318
▁tunceli	-11.0321
▁yozgat	-11.0325
ham	-11.0325
▁hayırsever	-11.0326
▁gelin	-11.0334
▁peygamber	-11.0336
▁47	-11.0336
▁ismet	-11.0337
▁müthiş	-11.0337
▁1991	-11.0338
▁hemşire	-11.0341
▁soğan	-11.0342
▁ocağ	-11.0343
▁erbil	-11.0346
▁versiyon	-11.0348
vat	-11.0349
▁kürdistan	-11.037
▁hesapla	-11.0376
▁kalacak	-11.0389
▁tansiyon	-11.0393
ton	-11.0397
▁kapak	-11.041
▁kalıyor	-11.0415
san	-11.0416
▁açıklamıştı	-11.0422
ot	-11.0424
▁burhan	-11.0426
▁suretiyle	-11.0426
▁derhal	-11.0426
▁hitap	-11.0426
▁kampüs	-11.0427
▁danimarka	-11.0428
▁akdağ	-11.0428
▁kdv	-11.0431
▁kararname	-11.0433
▁bek	-11.0436
▁felsefe	-11.044
tür	-11.0442
▁tabela	-11.0447
▁kasımpaşa	-11.045
▁finalin	-11.045
▁1990	-11.0456
▁değiliz	-11.0463
büyük	-11.0469
nı	-11.047
▁milan	-11.0471
▁istedim	-11.0474
▁pompa	-11.0477
▁yaygınlaş	-11.0482
▁etmedi	-11.0486
co	-11.0501
▁fena	-11.0515
▁burs	-11.052
▁geriledi	-11.0527
acağız	-11.0528
▁melih	-11.0529
▁yapılır	-11.053
▁lokanta	-11.0537
▁muhtelif	-11.0537
▁otomotiv	-11.0537
▁beşinci	-11.0537
▁hariç	-11.0537
▁özetle	-11.0537
▁şahit	-11.0537
▁kafile	-11.0538
▁osc	-11.0539
▁oluşturuyor	-11.0539
▁istemiyorum	-11.054
▁tapu	-11.0544
madı	-11.0544
▁ehliyet	-11.0545
▁balçova	-11.0545
▁çınar	-11.0546
▁edip	-11.0592
no	-11.0597
▁müzisyen	-11.0599
▁dk	-11.06
▁tamamlandı	-11.0603
▁hamle	-11.0608
▁oyuncak	-11.061
▁kontrolde	-11.0611
▁geldik	-11.0614
▁başkanlığı	-11.0634
izm	-11.0636
▁elif	-11.064
▁belirtiyor	-11.064
!"	-11.0643
▁komedi	-11.0647
▁ısınma	-11.0648
▁sağanak	-11.0649
▁korkunç	-11.0649
▁musunuz	-11.0652
▁verdim	-11.0659
▁profil	-11.0659
cak	-11.0659
▁taze	-11.0661
▁goller	-11.0661
▁liverpool	-11.0661
▁medeniyet	-11.0661
▁rövanş	-11.0665
▁komik	-11.0667
▁akhisar	-11.0669
▁tahta	-11.0672
▁demirel	-11.0685
avrupa	-11.0698
▁kasırga	-11.07
ks	-11.0707
▁ülkü	-11.0709
-15	-11.0714
▁seçin	-11.0714
▁sırada	-11.0715
▁yatağ	-11.072
▁taşıdı	-11.0725
▁komuta	-11.0738
▁ilçesinde	-11.0751
allah	-11.0753
▁nakli	-11.0761
▁alarak	-11.0762
▁hektar	-11.0763
▁sözkonu	-11.0764
▁diyerek	-11.0765
sının	-11.0766
▁hatıra	-11.0768
▁elazığ	-11.0771
▁talip	-11.0773
▁burun	-11.0779
▁bozdağ	-11.0779
▁iskender	-11.078
üs	-11.0786
▁mükellef	-11.0799
▁yök	-11.0799
ah	-11.0802
▁emri	-11.0803
▁varsa	-11.0807
▁görünüyor	-11.0808
▁bahsed	-11.0817
▁kab	-11.0837
▁kazanç	-11.084
▁beton	-11.0842
▁ülker	-11.0855
▁rahatla	-11.0861
sak	-11.0861
▁---	-11.0876
▁poz	-11.0878
▁başsağlığı	-11.0878
▁tencere	-11.0879
▁boyn	-11.0879
▁randevu	-11.088
▁atila	-11.0884
▁pişman	-11.0886
▁karşılandı	-11.0888
▁giysi	-11.0893
▁kulağ	-11.0894
▁ergen	-11.0895
▁rakı	-11.0897
▁tavan	-11.0898
▁edilirken	-11.09
ey	-11.0903
▁fe	-11.0918
tu	-11.0925
▁şaka	-11.0925
min	-11.0932
!..	-11.0939
mişti	-11.0945
▁atıldı	-11.0948
▁başvurdu	-11.0963
▁değ	-11.0964
▁sadık	-11.0965
▁bitti	-11.0966
▁gelmişti	-11.0971
▁sıvı	-11.0979
▁81	-11.0979
▁ford	-11.0984
-2	-11.0984
▁eksi	-11.0984
▁ötürü	-11.0994
▁çamaşır	-11.0995
▁manchester	-11.0996
▁gezegen	-11.0996
▁müracaat	-11.0996
▁yaşıyoruz	-11.0999
▁fevzi	-11.1003
▁şükrü	-11.1003
▁manisaspor	-11.1003
▁abdül	-11.1007
▁fuhuş	-11.1013
▁oldug	-11.1017
▁city	-11.1019
▁dağıldı	-11.1021
▁reddetti	-11.1029
▁hatip	-11.1031
▁adamları	-11.1037
▁kiraz	-11.1039
▁umud	-11.1042
▁üs	-11.1045
bank	-11.105
▁başlar	-11.1051
-100	-11.1057
▁insanlar	-11.1072
▁binali	-11.1072
▁reddet	-11.1072
▁tamir	-11.1074
ap	-11.1085
▁7.	-11.1086
▁telaf	-11.109
▁pet	-11.1096
▁sürecek	-11.1098
▁tehdid	-11.1104
▁kafe	-11.1105
▁istikamet	-11.1112
▁vatandaşlar	-11.1112
▁aynen	-11.1112
▁kahvaltı	-11.1113
▁bingöl	-11.1114
▁misiniz	-11.1115
▁kalan	-11.1116
dığını	-11.1116
▁tabut	-11.1121
▁traktör	-11.1121
▁besle	-11.1122
▁ufuk	-11.1123
▁bo	-11.1123
▁amca	-11.113
▁61	-11.1132
▁1993	-11.1133
▁gizle	-11.1134
▁ışın	-11.1137
▁mark	-11.114
▁çakı	-11.1143
▁ken	-11.1144
▁olmayacak	-11.1146
▁direkt	-11.1147
▁faktör	-11.1148
▁cihan	-11.1151
▁bakanı	-11.1151
▁toki	-11.1161
nur	-11.1163
▁57	-11.1169
ina	-11.1169
▁M	-11.1172
▁çağrıl	-11.1174
▁giriyor	-11.1177
ıntı	-11.118
lerle	-11.1183
za	-11.1183
yer	-11.1183
▁incir	-11.1184
▁eroğlu	-11.1186
▁nakit	-11.1204
▁bahset	-11.121
▁toplandı	-11.1215
▁bela	-11.1216
▁söylemişti	-11.1217
▁hati	-11.1218
▁58	-11.1218
▁hain	-11.1222
▁peynir	-11.1231
▁tüfek	-11.1231
▁ateşkes	-11.1231
▁barındır	-11.1233
▁sopa	-11.1234
▁soyun	-11.1235
▁meteoroloji	-11.1236
▁zeytinyağı	-11.1237
▁asbaşkan	-11.1237
▁denetleme	-11.1238
injiang	-11.1239
▁kör	-11.1239
mez	-11.1242
▁blair	-11.1243
▁gördük	-11.1245
▁6.	-11.1247
▁akademik	-11.1249
▁yeteneğ	-11.125
▁mimari	-11.125
▁hizbullah	-11.1251
▁logo	-11.126
‘	-11.1261
▁21.	-11.1277
▁boşanma	-11.1278
▁tekrarla	-11.1282
▁özal	-11.1285
▁72	-11.1286
▁durdurulma	-11.1287
▁S	-11.1292
▁hatırlat	-11.1292
▁sırrı	-11.1301
▁st	-11.1304
▁pasaport	-11.1308
▁va	-11.1311
▁idi	-11.1312
ov	-11.1322
ış	-11.1325
▁şan	-11.1326
▁isa	-11.1342
▁kabin	-11.1345
▁numune	-11.1351
▁veteriner	-11.1351
▁irlanda	-11.1351
▁pirinç	-11.1353
▁do	-11.1357
▁muhtemelen	-11.1359
▁düşüyor	-11.136
▁çoban	-11.1361
▁vereceğiz	-11.1361
▁izmit	-11.1361
▁fırt	-11.1367
▁ajan	-11.137
▁veriliyor	-11.1371
▁çince	-11.1372
▁üss	-11.1375
▁robot	-11.1377
lardan	-11.138
şim	-11.1381
▁çorba	-11.1387
▁şekilde	-11.1388
▁kazada	-11.1391
▁tff	-11.1393
▁gereken	-11.1394
▁anlaşıldı	-11.1395
▁düşünüyor	-11.1398
▁ra	-11.1422
▁konuldu	-11.1436
▁karşıladı	-11.1438
▁hükümeti	-11.1451
▁ihsan	-11.1452
▁komut	-11.1462
▁feth	-11.1467
▁öldürüldü	-11.1473
▁armağan	-11.1473
▁bombardıman	-11.1473
▁tugay	-11.1473
▁geleneğ	-11.1474
▁direksiyon	-11.1474
▁tohum	-11.1475
▁sütun	-11.1479
cu	-11.1479
▁olanağ	-11.1482
▁anap	-11.1483
▁kıymet	-11.1484
▁bahçeli	-11.1485
ndı	-11.1487
▁bolu	-11.1493
▁mucize	-11.1494
men	-11.1501
▁şeytan	-11.1502
▁gelmiştir	-11.1509
▁vb	-11.1512
▁eyüp	-11.1519
▁keşke	-11.1521
▁hakkında	-11.1523
▁melek	-11.1532
▁kulis	-11.1538
▁cm	-11.1542
▁kilit	-11.1543
ebilir	-11.1544
..."	-11.1564
▁kor	-11.1564
▁2-3	-11.1571
▁utan	-11.1573
fir	-11.1579
▁anti	-11.158
▁sera	-11.1586
▁demet	-11.1589
▁oldugu	-11.1589
▁kazım	-11.159
▁tez	-11.159
▁stüdyo	-11.1597
▁bakırköy	-11.1597
▁çağlayan	-11.1597
▁sünnet	-11.1597
▁inanıyoruz	-11.1598
▁Williams	-11.1598
▁yarımada	-11.1598
▁kapanış	-11.1599
▁cinsiyet	-11.1599
▁konsolos	-11.1602
▁okyanus	-11.1602
▁biliyoruz	-11.1603
▁ibadet	-11.1609
▁emr	-11.1611
met	-11.1615
▁sosyalist	-11.162
▁danış	-11.162
▁roket	-11.163
▁karaman	-11.1635
▁alay	-11.1639
▁durumunda	-11.1645
▁pop	-11.1647
ie	-11.1652
▁müjde	-11.1656
çe	-11.1659
hem	-11.1662
chp	-11.1676
▁planlanıyor	-11.168
▁atak	-11.1686
▁verdiler	-11.1687
▁ceo	-11.169
▁esen	-11.1691
evet	-11.1693
▁danışma	-11.1697
▁çöl	-11.1698
▁ece	-11.1704
lıdır	-11.1709
sına	-11.1715
▁olurdu	-11.1719
▁koro	-11.172
▁edilmişti	-11.172
▁8.	-11.172
▁söyleşi	-11.172
▁taziye	-11.1722
▁teminat	-11.1722
▁eşcinsel	-11.1722
▁hanedan	-11.1723
▁metreküp	-11.1724
▁erbakan	-11.1724
şehir	-11.1724
▁dram	-11.1725
▁mahsur	-11.1726
▁anlatıyor	-11.1727
▁gürcistan	-11.1727
▁köklü	-11.1728
▁hamit	-11.173
▁biyolojik	-11.173
▁askı	-11.1736
ro	-11.1744
evi	-11.1747
▁yum	-11.1756
.30	-11.1757
▁53	-11.176
suz	-11.1761
▁oral	-11.1762
▁sait	-11.1763
▁kura	-11.1769
▁sunuyor	-11.1778
▁çirkin	-11.1779
▁yürür	-11.178
▁taksim	-11.1781
▁2,5	-11.1785
▁alınacak	-11.1786
▁kimya	-11.1791
irken	-11.1793
larıyla	-11.1797
▁it	-11.1798
▁sorgula	-11.1802
▁tunç	-11.1808
▁bez	-11.1811
▁tobb	-11.1815
▁yayımla	-11.1825
organik	-11.1825
▁güçleri	-11.1827
▁jean	-11.1833
▁har	-11.1835
üç	-11.1837
leme	-11.1841
▁kağıd	-11.1841
▁yapıt	-11.1844
ıpkı	-11.1846
▁hakimiyet	-11.1848
▁boğaziçi	-11.1848
▁gözetim	-11.1849
▁çiller	-11.185
▁uysal	-11.1851
▁kontroller	-11.1854
▁cilt	-11.1854
▁oruç	-11.1854
▁ciro	-11.1855
▁sırasıyla	-11.1858
org	-11.1863
he	-11.1864
▁sırbistan	-11.1866
▁fren	-11.1867
▁alevi	-11.1869
▁referandum	-11.1869
▁tarık	-11.1881
▁isteğ	-11.1891
▁ulu	-11.1909
▁derneği	-11.1913
▁edilmesi	-11.1924
▁seçilme	-11.1927
▁biliniyor	-11.1936
▁artıyor	-11.1941
▁diyorlar	-11.1947
▁elma	-11.1952
▁yanlı	-11.1953
ırken	-11.1956
▁ger	-11.1963
▁aksa	-11.1964
▁katar	-11.197
▁tanıtıl	-11.1975
▁B	-11.1975
▁afyonkarahisar	-11.1976
diğini	-11.1976
▁zhang	-11.1977
▁şerif	-11.1977
▁iğne	-11.1977
▁oluşuyor	-11.1977
▁yüreğ	-11.1978
▁kocaman	-11.1978
▁2020	-11.198
malıdır	-11.1982
▁del	-11.1982
▁ekşi	-11.1986
üstü	-11.1994
▁semih	-11.1994
▁ato	-11.2003
▁af	-11.2009
▁vesile	-11.201
▁bronz	-11.2022
▁kılın	-11.2023
▁sayısı	-11.2025
▁fragman	-11.203
pos	-11.203
zi	-11.205
▁1995	-11.2051
pınar	-11.2052
ullah	-11.2053
▁kıyasla	-11.2056
▁110	-11.2063
udur	-11.2074
▁fırla	-11.2078
▁dışında	-11.2091
▁rezerv	-11.2097
sını	-11.2106
▁brüksel	-11.2106
▁pozitif	-11.2106
▁santimetre	-11.2107
▁razı	-11.2108
▁restorasyon	-11.2109
press	-11.211
▁carlos	-11.2114
▁çamur	-11.2114
▁1500	-11.2114
▁ermenistan	-11.2115
▁coğrafi	-11.2116
▁düzenlenecek	-11.2119
▁konyaspor	-11.2119
▁karaciğer	-11.212
▁soykırım	-11.2121
▁gitar	-11.2125
▁76	-11.2127
▁red	-11.2131
12	-11.2136
▁bölü	-11.2141
▁görgü	-11.2153
▁hsyk	-11.2153
▁demirci	-11.2157
mektir	-11.2158
▁havayol	-11.2159
bun	-11.216
▁tck	-11.2167
mayın	-11.217
▁ku	-11.2183
▁müteahhit	-11.219
▁beraat	-11.2193
▁yayınladı	-11.2202
▁çağırdı	-11.2208
yu	-11.2209
▁hane	-11.2211
▁sürükle	-11.2216
malı	-11.2225
▁kapandı	-11.2232
▁54	-11.2235
▁geçecek	-11.2237
▁buğday	-11.2238
▁zorundayız	-11.2239
▁bileşen	-11.224
▁fuat	-11.224
▁Wu	-11.2244
▁akaryakıt	-11.2244
▁tutanak	-11.2244
bay	-11.2247
▁doping	-11.2248
▁radar	-11.2248
sağ	-11.225
▁gizem	-11.2252
▁derd	-11.2257
▁davul	-11.2257
▁verirken	-11.2258
▁sanatçı	-11.2261
sam	-11.2261
▁ertele	-11.2265
▁file	-11.2281
daş	-11.2282
ırak	-11.2306
▁130	-11.231
mer	-11.2311
▁suud	-11.2319
▁kutladı	-11.2327
fi	-11.2344
▁yapay	-11.2348
▁kalkan	-11.2355
▁kaplan	-11.2357
▁taner	-11.2364
▁sonucu	-11.2365
“	-11.2369
▁tekirdağ	-11.2371
▁keşif	-11.2371
▁müvekkil	-11.2372
▁tarsus	-11.2372
genetik	-11.2375
▁erişim	-11.2376
▁piyano	-11.2377
▁irfan	-11.2378
▁atama	-11.238
▁hasret	-11.2382
▁yeğen	-11.2386
▁ankaragü	-11.2388
▁nakil	-11.2391
nu	-11.2392
▁gü	-11.2395
konsolos	-11.24
▁teori	-11.2405
lığı	-11.2415
▁söyledim	-11.2416
▁boyle	-11.2417
▁bbc	-11.2417
▁cenazesi	-11.2419
▁dene	-11.2422
sim	-11.2427
▁dekan	-11.2442
vi	-11.2446
▁başladık	-11.245
▁deneme	-11.2454
▁topladı	-11.2455
▁yenilen	-11.2457
şar	-11.2464
▁festivalin	-11.2464
vrak	-11.2465
▁1-2	-11.2465
larla	-11.2469
mesi	-11.2481
artık	-11.2487
ankara	-11.249
▁9.	-11.2491
▁kalın	-11.2497
ly	-11.2502
bak	-11.2504
eski	-11.2504
▁konvoy	-11.2506
▁kırklareli	-11.2506
▁çılgın	-11.2506
▁rehabilitasyon	-11.2506
▁tezahürat	-11.2506
▁maraton	-11.2506
▁tablet	-11.2507
▁nitekim	-11.2508
▁kürsü	-11.2508
▁ahşap	-11.2509
▁mağlubiyet	-11.2509
▁67	-11.2509
▁ederiz	-11.2511
▁aktivite	-11.2512
▁kontenjan	-11.2513
▁fahri	-11.2513
▁fail	-11.2515
▁global	-11.2516
▁tartan	-11.2517
▁hint	-11.2517
▁harç	-11.2517
▁yayla	-11.2521
▁günkü	-11.2524
▁müfettiş	-11.2525
leniyor	-11.2538
▁çavuş	-11.2539
▁sunulacak	-11.2544
▁neşe	-11.2555
▁martin	-11.2555
▁kurmay	-11.2556
▁tart	-11.2556
▁tüketim	-11.2563
ant	-11.2567
▁kalmadı	-11.2575
▁yaşayan	-11.2578
▁istedik	-11.2584
▁şık	-11.2585
▁çarpı	-11.2588
kapı	-11.259
▁asfalt	-11.2597
▁vladim	-11.2602
▁adıyaman	-11.2608
▁oluşturulma	-11.2618
▁kanıtla	-11.2618
50	-11.2619
▁sağlayacak	-11.2621
▁taşeron	-11.2628
-16	-11.2628
hayır	-11.2629
▁ile	-11.2631
▁almış	-11.2636
▁macaristan	-11.2643
▁afgan	-11.2643
▁tüzmen	-11.2644
▁ikamet	-11.2644
▁bulunduğunu	-11.2644
▁övgü	-11.2644
▁görüyoruz	-11.2644
▁prenses	-11.2645
▁önlenme	-11.2645
▁domates	-11.265
▁74	-11.2652
▁teyze	-11.2652
▁tanker	-11.2653
▁paylaşım	-11.2654
▁kutan	-11.2654
▁özelleştirme	-11.2655
▁hac	-11.2657
▁ebru	-11.2664
▁kaldırdı	-11.267
▁alacağız	-11.2673
▁1,5	-11.2674
park	-11.2686
▁yakup	-11.2686
▁eleştirdi	-11.2688
▁istem	-11.2695
▁rengi	-11.2703
▁metn	-11.2703
▁yılında	-11.2703
▁gazeteci	-11.2706
▁tony	-11.271
▁mil	-11.2712
▁dinamik	-11.2713
▁güncel	-11.2714
nız	-11.2726
▁yaptılar	-11.2727
▁kullanıldı	-11.2737
▁budur	-11.2743
▁sure	-11.2747
▁3.5	-11.2749
▁alem	-11.2753
▁140	-11.276
▁vakti	-11.2761
▁imzaladı	-11.2767
ad	-11.2771
▁çalışmaları	-11.2771
▁aydınlat	-11.2772
▁istismar	-11.2775
ger	-11.2782
▁piriştina	-11.2782
▁portakal	-11.2782
▁muamele	-11.2782
▁konfederasyon	-11.2782
▁standard	-11.2788
▁smith	-11.2789
▁suikast	-11.2789
▁19.00	-11.2791
▁tweet	-11.2791
▁küba	-11.2792
▁hıristiyan	-11.2793
▁dehşet	-11.2793
▁start	-11.2794
▁3-0	-11.2796
▁fişek	-11.2797
▁sahiptir	-11.2803
▁vedat	-11.2804
▁78	-11.2804
▁pekin	-11.2811
▁karma	-11.2818
▁böcek	-11.2825
▁ergenekon	-11.2827
▁ömr	-11.2842
▁jones	-11.2853
▁yöneticileri	-11.2858
▁onaylan	-11.2862
soy	-11.2863
ül	-11.2873
▁ebu	-11.2884
yip	-11.2886
▁arsa	-11.2886
▁angeles	-11.2887
ülke	-11.2893
▁yöntemi	-11.2895
▁sağlam	-11.2897
▁stok	-11.2901
▁diyet	-11.2905
▁fay	-11.2908
▁etmesi	-11.2916
▁piyade	-11.2923
▁deyrezzor	-11.2923
▁kıdem	-11.2923
▁mermer	-11.2923
▁serhat	-11.2923
▁hilmi	-11.2923
▁mıdır	-11.2923
▁bardak	-11.2923
▁titiz	-11.2923
▁karaca	-11.2923
▁yüksekokul	-11.2925
▁hristiyan	-11.2925
▁otorite	-11.2926
▁hamdi	-11.2931
▁özay	-11.2932
▁maria	-11.2932
▁şura	-11.2933
şükran	-11.2934
▁bahane	-11.2935
▁abdden	-11.2935
▁musul	-11.2938
▁you	-11.2942
▁hoşgörü	-11.2946
▁oldular	-11.2947
▁sümer	-11.2949
▁orijinal	-11.2954
▁sürekli	-11.2958
▁bölümü	-11.2958
▁giderilme	-11.2965
▁köle	-11.297
▁defile	-11.2972
▁temsilcileri	-11.2974
▁çevr	-11.2978
▁br	-11.2983
▁cezalandırılma	-11.2995
▁sır	-11.3002
▁demiş	-11.3002
▁united	-11.3003
▁filo	-11.3004
▁bıçakla	-11.301
▁hur	-11.3016
▁beyin	-11.3018
▁yapmış	-11.302
▁fakir	-11.3022
▁bur	-11.3023
bat	-11.3024
▁imaj	-11.3028
▁pil	-11.303
▁suyu	-11.3033
▁hırs	-11.304
var	-11.304
▁nazi	-11.3049
yet	-11.305
▁odaklan	-11.3052
lo	-11.3053
▁kavşağ	-11.3059
▁abbas	-11.3061
terör	-11.3063
mıyor	-11.3065
▁çıkan	-11.3065
▁abdülkadir	-11.3066
▁fındık	-11.3066
▁Word	-11.3066
▁balkon	-11.3066
▁1992	-11.3067
▁dedikodu	-11.3073
▁muhabbet	-11.3077
▁pentagon	-11.3077
▁17.00	-11.3077
▁fosil	-11.3078
▁diyorum	-11.3079
▁erhan	-11.3083
▁nehir	-11.3083
▁tutuklanma	-11.3086
▁64	-11.3096
düğünü	-11.3098
▁yapmıştı	-11.3098
▁hızlı	-11.3104
▁sergen	-11.3106
▁ettiğini	-11.3108
▁borçlan	-11.3112
▁13.	-11.3116
▁tuğba	-11.3119
lak	-11.3123
▁ulusoy	-11.3128
diği	-11.3134
▁tasarla	-11.3137
▁desteklenme	-11.3142
makta	-11.3143
▁750	-11.3149
mo	-11.315
imi	-11.3159
▁demek	-11.3166
▁topal	-11.3167
▁mor	-11.3172
▁itibar	-11.3176
▁73	-11.3176
yar	-11.3189
▁--	-11.3191
▁köse	-11.3199
bana	-11.3199
▁seyret	-11.32
▁yaralanma	-11.3202
▁sunuldu	-11.3202
▁motivasyon	-11.3211
▁tedirgin	-11.3211
▁hırvatistan	-11.3211
▁kaos	-11.3212
▁gürkan	-11.3212
▁çikolata	-11.3213
▁istemiyoruz	-11.3213
▁tüf	-11.3214
▁hollandalı	-11.3216
▁poster	-11.3216
▁odak	-11.3217
▁yumruk	-11.3217
▁kuyum	-11.3218
▁sevda	-11.3221
▁mutluyum	-11.3223
-20	-11.3225
▁tbmmye	-11.3225
▁rizespor	-11.3228
▁talih	-11.3231
▁sarf	-11.3233
▁mevkii	-11.3233
▁algıla	-11.3241
▁hamza	-11.3245
öz	-11.3245
▁doğuş	-11.3256
bö	-11.3257
▁caz	-11.326
▁ulke	-11.3276
▁seven	-11.3282
▁leyla	-11.3287
▁olsa	-11.3291
▁tüsiad	-11.3292
▁bosna	-11.3293
▁batılı	-11.3295
▁lütf	-11.3298
▁arşiv	-11.3302
▁aldılar	-11.3307
▁cesedi	-11.3308
attin	-11.3313
▁oba	-11.332
▁karşılanma	-11.3325
em	-11.333
▁ideal	-11.3332
ney	-11.3335
▁hızlandır	-11.3339
niversitesi	-11.3341
miyor	-11.3342
üst	-11.3348
▁geldim	-11.3352
▁ölçek	-11.3357
▁duyuyorum	-11.3358
▁nobel	-11.3359
▁bayraktar	-11.336
▁zekeriya	-11.336
▁albayrak	-11.3362
▁beko	-11.3362
▁daum	-11.3364
▁patates	-11.3365
▁Windows	-11.3365
▁mafya	-11.3365
▁karargah	-11.3365
▁girecek	-11.3366
▁77	-11.3368
let	-11.3368
▁kurultay	-11.3369
▁cerrahi	-11.337
▁kemalpaşa	-11.3372
▁besin	-11.3379
▁kene	-11.338
▁beyoğlu	-11.3381
▁akdoğan	-11.3395
▁bıçağ	-11.34
▁dönemde	-11.3404
▁misyon	-11.3428
ia	-11.343
ür	-11.3434
▁sp	-11.3435
çı	-11.3439
▁dönüştü	-11.344
kend	-11.3446
şin	-11.3461
▁başlangıc	-11.3466
▁bilal	-11.3469
lü	-11.347
▁sanal	-11.3473
▁eriş	-11.3475
▁avm	-11.3475
▁ser	-11.3485
▁powell	-11.3488
▁dede	-11.3494
▁gele	-11.3498
▁kesilme	-11.3505
▁gürbüz	-11.3507
▁nezdinde	-11.3507
▁emrah	-11.3507
▁muhafazakar	-11.3508
▁müebbet	-11.3508
▁giren	-11.3508
▁periyot	-11.3508
▁göğs	-11.351
▁kerim	-11.3511
▁eliyle	-11.3512
▁söylem	-11.3513
▁uludağ	-11.3514
▁3-4	-11.3515
▁yayınevi	-11.3515
▁dindar	-11.3516
▁milletvekilliği	-11.3517
alt	-11.3519
▁sındır	-11.3521
▁saldırdı	-11.3521
▁çukurova	-11.3523
▁mensubu	-11.3524
▁koridor	-11.353
▁plak	-11.3532
tak	-11.3532
▁veli	-11.3532
▁bucaspor	-11.3534
▁kerem	-11.3535
ymiş	-11.3556
▁alınıyor	-11.3559
▁finali	-11.3572
▁raf	-11.3577
ygar	-11.3577
▁uğru	-11.3583
▁çim	-11.3585
▁şifre	-11.3587
▁altun	-11.3591
▁scott	-11.3591
▁rota	-11.3593
abil	-11.3593
▁futbolcular	-11.3597
fa	-11.3605
▁altında	-11.3615
▁sakatlan	-11.3615
▁bostan	-11.3619
▁filiz	-11.3627
▁tc	-11.3628
mı	-11.3629
▁dolandırıcı	-11.363
top	-11.3634
ahmet	-11.3636
▁değişti	-11.3636
▁takibe	-11.3638
eş	-11.3639
▁karşılaşacak	-11.3646
▁yorgun	-11.3655
▁çalımbay	-11.3659
▁izlenim	-11.3659
▁yasemin	-11.3659
▁balbay	-11.3659
▁turgay	-11.3659
▁azınlık	-11.3659
▁nijerya	-11.3661
▁ner	-11.3663
▁şeffaf	-11.3666
▁kırıkkale	-11.3666
▁hasılat	-11.3666
▁basamak	-11.3668
▁gurbet	-11.367
▁ronaldo	-11.3673
▁sözcü	-11.3673
▁bakkal	-11.3674
▁kadınlar	-11.3675
▁1960	-11.3675
▁çalışacağız	-11.3675
▁gözyaşı	-11.3676
▁ihanet	-11.3677
▁faşist	-11.3684
lanacak	-11.3685
▁yasakla	-11.3687
▁klima	-11.3687
▁anlaşmazlık	-11.369
madan	-11.3695
▁ova	-11.3699
genç	-11.3712
▁kesti	-11.3715
▁rica	-11.3734
▁olmalıdır	-11.3735
▁ayna	-11.3745
▁go	-11.3753
gan	-11.3761
▁avcı	-11.3761
▁olun	-11.3763
▁stadı	-11.3763
meli	-11.3768
▁görevlendiril	-11.377
▁nice	-11.3771
▁sirke	-11.378
▁berk	-11.3785
▁duruyor	-11.3793
▁mail	-11.3795
10	-11.3798
▁hattı	-11.3799
▁cerrah	-11.3802
▁yayılma	-11.3804
▁ferrari	-11.3813
▁kahramanmaraş	-11.3813
▁tişört	-11.3813
▁hormon	-11.3813
▁gereksinim	-11.3813
▁havayo	-11.3813
▁sulh	-11.3813
▁tebliğ	-11.3813
▁şengül	-11.3813
▁çerçevesinde	-11.3815
▁kuşat	-11.3816
▁unakıtan	-11.3817
▁konulma	-11.3818
▁taahhüt	-11.382
▁thomas	-11.382
▁bedava	-11.382
▁irtibat	-11.382
▁aradı	-11.3822
▁biliyor	-11.3823
▁indi	-11.3824
▁bakteri	-11.3825
▁çelebi	-11.3829
▁kobani	-11.3829
▁harun	-11.383
▁bilir	-11.3839
les	-11.3839
▁şirin	-11.3841
▁rtük	-11.3844
▁yönetil	-11.385
ard	-11.3854
▁latin	-11.3858
ençlerbir	-11.3859
▁aksiyon	-11.3872
▁bulunuldu	-11.3876
ray	-11.3878
▁59	-11.3879
▁tezgah	-11.388
ıyoruz	-11.3885
▁izleyen	-11.3895
▁usulü	-11.3897
▁festivalde	-11.3898
zon	-11.3906
▁frank	-11.3913
kaya	-11.3919
▁tüy	-11.3924
▁ikiz	-11.393
▁yüzey	-11.3931
▁dağıtıldı	-11.3956
▁redded	-11.3957
▁gelmedi	-11.3965
▁operatör	-11.3968
▁mağara	-11.3968
▁fil	-11.3968
▁kompleks	-11.3968
▁yükümlü	-11.3968
▁vapur	-11.3969
▁protein	-11.3969
▁felç	-11.3969
affer	-11.3969
▁hapse	-11.397
▁görüyorum	-11.397
▁portal	-11.397
▁kumaş	-11.397
▁cenevre	-11.3971
▁travma	-11.3971
▁çapraz	-11.3972
▁düğme	-11.3975
▁galiba	-11.3976
▁patent	-11.398
▁dubai	-11.3981
▁çelişki	-11.3981
▁enkaz	-11.3983
ğı	-11.3986
▁tüt	-11.3989
▁vermiş	-11.3993
▁çalışıyorlar	-11.3994
▁ney	-11.3994
▁pasta	-11.3996
▁yürürlü	-11.3997
▁fed	-11.4001
▁darp	-11.4002
▁66	-11.4002
hak	-11.4003
▁tarife	-11.4006
▁dikili	-11.4009
▁maçı	-11.4016
▁sos	-11.4016
daki	-11.4016
▁yapmak	-11.4023
▁ispat	-11.4025
▁bayi	-11.405
▁kurdu	-11.406
yüz	-11.4065
▁değiştirilme	-11.4067
tim	-11.4067
▁71	-11.4085
▁bulgu	-11.409
▁2017	-11.4104
▁ortada	-11.4106
▁yama	-11.4113
▁hic	-11.4118
ji	-11.4122
▁kapla	-11.4123
▁club	-11.4127
▁nihayet	-11.4127
▁gövde	-11.4128
▁diego	-11.4128
▁sonunda	-11.4128
▁ozan	-11.4128
▁tatmin	-11.4129
▁sabancı	-11.4129
▁evvel	-11.413
▁konuşmasında	-11.413
▁karataş	-11.413
▁ceviz	-11.413
▁haberdar	-11.4131
▁öcal	-11.4133
▁tarımsal	-11.4133
▁chavez	-11.4135
▁edilmektedir	-11.4136
rezervasyon	-11.4139
unun	-11.4142
▁kok	-11.4142
▁edilen	-11.4146
▁tübitak	-11.4149
▁yang	-11.4151
tirilecek	-11.4152
▁orduspor	-11.4156
▁böylece	-11.4156
▁once	-11.4157
telefon	-11.4158
▁ilham	-11.4169
▁caner	-11.4172
▁fas	-11.4173
▁durdu	-11.4181
▁paha	-11.4183
▁84	-11.4184
ber	-11.4187
aş	-11.4187
▁ayıp	-11.419
ıyorum	-11.4202
▁sh	-11.4209
▁oturdu	-11.4212
lerinden	-11.4222
gen	-11.4224
▁ekmeğ	-11.4231
▁öp	-11.4232
▁gösterildi	-11.4234
▁kalkın	-11.4237
▁hamas	-11.4238
▁katılıyor	-11.4251
▁yayınlandı	-11.4253
dığı	-11.4255
▁çarpış	-11.4256
▁oynuyor	-11.4258
▁esin	-11.4265
ter	-11.4271
40	-11.4274
▁dayı	-11.4274
altı	-11.4284
▁tüpraş	-11.4289
▁lojman	-11.4289
▁rahmi	-11.429
▁ciddiyet	-11.429
▁hazırız	-11.4291
▁yıldön	-11.4292
▁kargo	-11.4292
▁ziyade	-11.4295
▁karikatür	-11.4296
▁diktatör	-11.4296
▁aptal	-11.4296
▁keskin	-11.4297
▁izzet	-11.4298
▁burada	-11.43
▁afyon	-11.4301
▁sonbahar	-11.4303
▁geçer	-11.4303
▁veriyoruz	-11.4307
luk	-11.4308
▁tümör	-11.4309
▁banyo	-11.431
▁örtü	-11.4312
▁bilkent	-11.4315
▁iflas	-11.4321
Türkiye	-11.4322
▁kurak	-11.4324
▁ertelen	-11.4324
▁buçuk	-11.4325
▁hazırladı	-11.4327
▁ap	-11.4332
▁per	-11.4336
▁dera	-11.4344
▁kül	-11.4352
▁port	-11.4355
▁68	-11.4357
don	-11.4358
▁papa	-11.4358
▁buluyor	-11.4361
▁hedefliyor	-11.4363
▁kapattı	-11.4394
ayni	-11.4397
▁imzalandı	-11.4399
▁bitirdi	-11.4401
sıdır	-11.4411
▁taşınma	-11.4414
▁yapmıştır	-11.4415
▁çile	-11.4417
▁yedi	-11.4424
▁çeyr	-11.4429
▁ettiği	-11.4432
▁bulunacak	-11.4436
▁16.00	-11.4449
▁oyuncular	-11.4449
▁rüşt	-11.4452
▁karabük	-11.4452
▁endonezya	-11.4453
▁paniğ	-11.4453
▁mitoloji	-11.4454
ani	-11.4454
▁sanatkar	-11.4457
▁romantik	-11.4463
▁alper	-11.4463
▁cnn	-11.4466
▁bulgar	-11.4466
▁çekin	-11.4467
▁kravat	-11.447
▁black	-11.447
▁cesur	-11.4475
▁yandaş	-11.4476
▁gelmiş	-11.4481
amaz	-11.4482
▁gözü	-11.4484
name	-11.4485
ilerek	-11.4485
▁unesco	-11.4486
▁söndürme	-11.4488
İstanbul	-11.4489
▁yaşar	-11.4494
ligi	-11.4495
w	-11.4497
lenme	-11.4499
▁öteki	-11.4499
▁istediler	-11.45
▁ahmed	-11.4502
▁gerçi	-11.4503
▁vererek	-11.4504
▁ucuz	-11.4514
▁genc	-11.4522
▁türkiyenin	-11.4526
▁87	-11.4539
om	-11.4544
▁vefa	-11.4546
▁jo	-11.4564
▁tüken	-11.4568
▁ayva	-11.4571
▁şifa	-11.4577
▁bana	-11.4585
▁D	-11.4589
▁çocukları	-11.4593
▁ho	-11.4596
▁güngör	-11.4603
▁chris	-11.461
▁demiryo	-11.4613
▁richard	-11.4615
hai	-11.4615
▁Sarı	-11.4615
▁ribaund	-11.4619
▁silopi	-11.4619
▁kucağ	-11.462
▁pratik	-11.462
▁kurtarılama	-11.462
▁mantar	-11.462
▁gürsel	-11.4621
▁tahir	-11.4625
▁kullanılıyor	-11.4626
▁prensip	-11.4626
▁solak	-11.4626
▁durumu	-11.4626
▁haciz	-11.463
▁enfeksiyon	-11.4634
eri	-11.4635
▁nasil	-11.4637
▁üzüm	-11.4638
▁pe	-11.4641
▁üssü	-11.4642
▁tekin	-11.4642
▁odtü	-11.4642
▁sis	-11.4642
▁yurtiçi	-11.4643
▁karadağ	-11.4645
▁abdi	-11.4646
sat	-11.4658
▁iletiş	-11.4664
▁hüsn	-11.4665
▁kot	-11.4668
▁görüşmede	-11.4668
▁santral	-11.467
▁tarihsel	-11.4677
ian	-11.4683
ez	-11.4686
▁900	-11.4688
▁bağlam	-11.4699
▁türkoğlu	-11.4707
▁bileşi	-11.471
▁by	-11.4711
▁halim	-11.4718
▁kaynaklar	-11.4729
▁çekiş	-11.4751
▁kutlu	-11.4752
▁süs	-11.4759
mavi	-11.4761
▁bağışla	-11.4764
▁hazırlanma	-11.4764
▁korsan	-11.4771
▁ister	-11.4776
▁gecekondu	-11.4789
▁06	-11.4789
▁ambalaj	-11.4789
▁britanya	-11.4789
maksimum	-11.4789
▁okyay	-11.4789
uk	-11.4789
▁belirtilirken	-11.4789
▁sönmez	-11.479
▁sarkozy	-11.479
▁yeryüzü	-11.479
▁kuzeydoğu	-11.479
▁senato	-11.479
▁kumar	-11.4791
▁kaçağı	-11.4791
▁bedensel	-11.4792
▁kerkük	-11.4792
▁akif	-11.4792
▁sabot	-11.4793
▁20.00	-11.4796
▁ibaret	-11.4797
▁kun	-11.4798
▁kapatıldı	-11.4799
▁surat	-11.4799
▁karışık	-11.48
▁tasarlan	-11.4801
▁hamur	-11.4806
▁18.00	-11.4807
▁ihti	-11.4812
▁World	-11.4812
lanmıştır	-11.4813
▁akpye	-11.4814
▁yumuşak	-11.4816
▁gözük	-11.4818
▁sayısal	-11.4818
▁kese	-11.4819
▁sıçra	-11.482
van	-11.4821
▁gittim	-11.4821
▁dondurma	-11.4825
▁youtube	-11.4825
▁çarpıştı	-11.4827
▁96	-11.4831
ymış	-11.4835
▁18.	-11.4835
leştirildi	-11.4836
▁sanatsever	-11.4843
▁kanama	-11.4851
ho	-11.4854
▁devral	-11.4857
▁ayar	-11.4866
▁yuan	-11.4873
▁bilen	-11.4875
▁anlamı	-11.4878
▁yazıda	-11.488
▁91	-11.4881
▁planlıyor	-11.4885
▁öğret	-11.4888
yaz	-11.4893
▁dikkatini	-11.4895
▁perakende	-11.4905
▁tutku	-11.4906
▁çıkmıştı	-11.491
▁icraat	-11.4913
kı	-11.4924
by	-11.494
▁pul	-11.4943
▁gayrimenkul	-11.4946
Bu	-11.4948
▁çubuk	-11.496
▁muhtaç	-11.4961
▁oksijen	-11.4961
▁ikramiye	-11.4962
▁kuzeybatı	-11.4962
▁tokyo	-11.4963
▁79	-11.4963
▁annesi	-11.4963
▁korkmaz	-11.4963
▁yüzük	-11.4963
▁söylenti	-11.4965
▁duru	-11.4965
▁tork	-11.4965
▁birbirleri	-11.4967
▁aydınlık	-11.4968
▁benimse	-11.4968
▁cüzdan	-11.4969
▁chirac	-11.4969
▁terörizm	-11.497
▁michel	-11.4975
▁günaydın	-11.4978
gün	-11.4984
▁ulusu	-11.4987
yani	-11.4987
▁Diyarbakırspor	-11.499
▁şike	-11.4991
▁olmadığı	-11.4994
▁gömlek	-11.4998
▁hamam	-11.4999
▁parmağ	-11.5
▁tayland	-11.5001
▁ismi	-11.5002
▁far	-11.5004
ry	-11.5005
▁fare	-11.5006
▁dolay	-11.5013
iyoruz	-11.5013
yargı	-11.5022
takım	-11.5022
yor	-11.5026
▁chpye	-11.5029
▁başlığı	-11.5029
unu	-11.5031
▁iletti	-11.5035
▁14.	-11.5037
▁tayin	-11.5037
▁arkadaşı	-11.5037
▁dvd	-11.5037
mus	-11.5043
▁mevkiin	-11.5046
▁uzer	-11.5046
▁olabil	-11.505
yen	-11.5054
▁söyleniyor	-11.5064
▁saptan	-11.5064
kad	-11.5065
▁isteniyor	-11.5066
▁kilis	-11.5066
▁dinç	-11.5068
▁sinirlen	-11.507
▁ısın	-11.5075
▁sloganı	-11.5076
digi	-11.5076
▁oynayacak	-11.5081
▁kort	-11.5086
▁der	-11.5087
▁şerid	-11.5101
▁telefonu	-11.5103
▁tuttu	-11.5108
▁söyl	-11.5116
ımız	-11.5116
sade	-11.512
ss	-11.5124
▁kesildi	-11.5128
▁toplanma	-11.5133
▁mahallesi	-11.5136
▁öngörülüyor	-11.5136
▁objektif	-11.5137
▁ısparta	-11.5137
▁özkök	-11.5137
▁zihinsel	-11.5137
▁ıslah	-11.5137
▁unutmayın	-11.5138
▁nakliye	-11.514
▁bakır	-11.5142
▁koçak	-11.5143
▁taktir	-11.5143
▁14.00	-11.5144
▁grip	-11.5145
▁magazin	-11.5146
▁tunus	-11.5146
▁barzani	-11.5146
▁usame	-11.5146
▁dündar	-11.5148
▁finlandiya	-11.515
▁casus	-11.5151
▁taslak	-11.5151
▁intikam	-11.5151
▁faul	-11.5152
elim	-11.5153
nem	-11.5153
▁yapılırken	-11.5155
▁şafak	-11.5156
▁yeraltı	-11.5156
▁gerekmektedir	-11.5159
ılıyor	-11.516
ga	-11.5162
▁bereket	-11.5166
▁işit	-11.5166
▁kullanıyor	-11.5167
▁ünsal	-11.5171
▁kul	-11.5172
▁eşek	-11.5174
▁fedakar	-11.5175
bet	-11.5183
una	-11.5186
▁king	-11.5193
ği	-11.5196
▁bono	-11.5196
▁kesi	-11.5197
ran	-11.5197
▁olmuyor	-11.5197
▁fır	-11.52
dem	-11.5201
▁olursa	-11.5202
▁atay	-11.5213
▁alıyoruz	-11.5216
▁liberal	-11.5219
▁faz	-11.522
gu	-11.5242
seç	-11.5246
acaktır	-11.5248
ız	-11.5249
▁yaptığı	-11.525
unca	-11.5251
lacivertli	-11.5253
▁midir	-11.5255
ize	-11.527
▁alçak	-11.5279
kara	-11.528
lerden	-11.5287
ex	-11.5295
▁450	-11.53
▁figür	-11.5301
▁1970	-11.5303
▁bölgesi	-11.5303
▁ac	-11.5308
▁feribot	-11.5313
▁kavşak	-11.5315
▁iktisadi	-11.5315
▁şapka	-11.5316
▁görkem	-11.5316
▁alınırken	-11.5316
▁karagöz	-11.5316
▁hedefliyoruz	-11.5317
▁bekliyorum	-11.5317
abiliyor	-11.5318
▁mahmud	-11.5318
▁senfoni	-11.5318
▁tahra	-11.5319
▁türker	-11.5319
▁amacıyla	-11.5319
▁kirli	-11.532
▁demirören	-11.5324
▁estetik	-11.5324
▁gerektiğini	-11.5327
▁üsküdar	-11.5329
▁monica	-11.5329
mu	-11.533
▁gerilla	-11.533
▁gala	-11.5331
▁edilerek	-11.5334
▁online	-11.5335
▁çıkmış	-11.5338
▁tlye	-11.5341
▁cihat	-11.5342
▁nusra	-11.5342
▁kobi	-11.5343
▁değiştirdi	-11.5357
▁ro	-11.5357
▁kaldım	-11.5366
▁genelge	-11.5367
▁üyesi	-11.5369
▁önerdi	-11.5372
▁cafe	-11.5382
▁uğradı	-11.5387
▁fonksiyon	-11.5389
▁hayl	-11.5391
▁ch	-11.5394
▁mana	-11.5396
▁oluşur	-11.5401
▁normalde	-11.5404
▁kaydettiler	-11.5406
ebilme	-11.541
▁atıl	-11.5412
cat	-11.5422
▁şüphelen	-11.5423
cağ	-11.5436
▁yenile	-11.5437
▁madem	-11.5437
▁par	-11.5442
▁asli	-11.5444
▁inter	-11.5446
▁82	-11.5449
mistir	-11.546
▁ödene	-11.5462
▁hissi	-11.5467
▁kayboldu	-11.5467
▁varil	-11.5467
▁sever	-11.5468
dar	-11.547
gazi	-11.5472
▁sakın	-11.5481
▁seçeneğ	-11.5486
▁olanı	-11.5486
▁bülten	-11.5487
▁destan	-11.5489
dal	-11.5491
sever	-11.5494
▁iptali	-11.5495
▁kandil	-11.5496
▁180	-11.5496
▁mutabakat	-11.5497
▁tevfik	-11.5497
▁eroin	-11.5497
▁hibe	-11.5498
▁referans	-11.55
▁berlusconi	-11.55
▁programı	-11.5501
▁çelenk	-11.5501
▁eksen	-11.5503
▁topbaş	-11.5503
▁tavşan	-11.5506
▁sağlandı	-11.5509
▁cezire	-11.5511
▁denktaş	-11.5512
▁met	-11.5512
▁başlamıştı	-11.5513
▁kafkas	-11.5515
▁helal	-11.5515
▁bizans	-11.5515
▁meşhur	-11.5517
▁sinop	-11.5517
▁link	-11.5519
teknolojik	-11.5519
▁tabiat	-11.5519
▁zehirlen	-11.552
▁güzelbahçe	-11.5522
▁kısmen	-11.5522
siniz	-11.5523
▁evrensel	-11.5525
▁donanma	-11.553
sakınca	-11.5535
▁cenk	-11.5538
▁çocuklar	-11.5544
▁partisi	-11.555
▁pazarlama	-11.556
▁şirketi	-11.5561
▁mantığ	-11.5564
▁varken	-11.5567
▁öğreti	-11.5567
▁bant	-11.557
▁aut	-11.5572
▁uydu	-11.5572
enerbahçe	-11.5573
▁güçlen	-11.5578
▁alp	-11.558
▁odası	-11.559
af	-11.5592
▁ekim	-11.5606
▁erman	-11.5616
▁chelsea	-11.5618
▁ekipman	-11.5623
kadın	-11.5627
iyorlar	-11.5638
▁turne	-11.5639
▁tekme	-11.5641
▁tıklay	-11.5643
▁kati	-11.5651
sü	-11.5653
▁barın	-11.5655
▁dunya	-11.5662
lardı	-11.5663
▁taşındı	-11.567
▁takdi	-11.567
▁muhafaza	-11.5674
▁trakya	-11.5676
▁kraliçe	-11.568
▁kg	-11.5681
uharrem	-11.5682
▁rütbe	-11.5682
▁mutsuz	-11.5682
▁daily	-11.5683
▁tersane	-11.5683
▁kişinin	-11.5683
▁tuhaf	-11.5683
▁puro	-11.5683
▁süreyya	-11.5683
▁ığdır	-11.5683
▁mağduriyet	-11.5684
▁yuvarlak	-11.5684
▁johnson	-11.5684
▁söylüyorum	-11.5684
▁jia	-11.5685
▁sonucunda	-11.5685
▁bilirkişi	-11.5686
▁bandırma	-11.5686
▁kostüm	-11.5686
▁osmaniye	-11.5686
gü	-11.5687
▁çeçen	-11.5688
▁mutlak	-11.5688
▁sağlanacak	-11.5689
▁frankfurt	-11.5691
▁kullanan	-11.5693
▁idris	-11.5697
rı	-11.5698
▁leke	-11.5699
▁dokunulmaz	-11.5702
▁dershane	-11.5705
▁mo	-11.5706
▁denetle	-11.5708
▁aldat	-11.5709
▁saka	-11.571
▁derya	-11.5713
▁müşavir	-11.5713
rack	-11.5713
▁ersan	-11.5715
▁sürerken	-11.5715
▁canavar	-11.5719
▁örgütü	-11.5722
▁cild	-11.5723
▁arıyor	-11.5724
sek	-11.5728
▁denizli	-11.573
▁balık	-11.5741
▁xx	-11.5742
▁saz	-11.5742
▁başrol	-11.5743
▁rant	-11.5744
▁yanaş	-11.5753
▁anayasal	-11.5753
▁ölümü	-11.5755
▁fa	-11.5757
savaş	-11.576
yaklaşık	-11.5769
▁giriş	-11.5771
▁incelenme	-11.5773
▁gu	-11.5782
▁twitterda	-11.5786
▁ster	-11.5788
▁periyod	-11.5793
▁protokolü	-11.5795
▁kıy	-11.5798
ban	-11.5798
▁sek	-11.5805
▁inek	-11.5806
gı	-11.5811
larak	-11.5814
▁gücü	-11.5824
tam	-11.5826
kale	-11.5827
tü	-11.5827
▁türkan	-11.5828
▁bakın	-11.5847
▁öldürdü	-11.5853
▁çevirdi	-11.5853
▁olsaydı	-11.586
▁ordusu	-11.586
▁rehin	-11.5863
▁hamburg	-11.587
▁makul	-11.587
▁bastı	-11.587
▁abluka	-11.5871
▁komando	-11.5871
▁çankırı	-11.5871
▁tuğgeneral	-11.5871
▁vagon	-11.5871
▁devriye	-11.5872
▁seferber	-11.5872
id	-11.5873
▁solist	-11.5873
▁demeçte	-11.5873
▁basket	-11.5874
▁piyanist	-11.5874
▁seviyorum	-11.5875
▁avni	-11.5875
▁isterim	-11.5877
▁öğrendim	-11.5878
▁piyango	-11.588
▁yüzme	-11.5884
▁bayern	-11.5884
▁erecek	-11.5889
▁çekirdek	-11.5891
▁asılsız	-11.5893
ff	-11.5894
▁atlas	-11.5895
▁malum	-11.5896
▁oluruz	-11.5896
uruldu	-11.5897
▁montaj	-11.5897
▁guzel	-11.5898
▁ısı	-11.5902
▁ulaşım	-11.5905
▁namus	-11.5909
▁edecektir	-11.5909
▁esir	-11.5909
▁duyar	-11.5911
if	-11.5921
ic	-11.5927
▁koyuyor	-11.5928
maç	-11.5933
▁kazak	-11.5937
▁ürünleri	-11.5939
bazı	-11.5941
▁erdoğanın	-11.5942
▁kut	-11.5955
▁ertelenme	-11.5959
dedi	-11.5983
▁gülümse	-11.5989
▁takı	-11.5991
eni	-11.5994
▁hapishane	-11.5998
madım	-11.5998
▁çıkmadı	-11.6
▁krem	-11.6002
medi	-11.6005
açık	-11.6012
▁fırın	-11.6016
▁kurgu	-11.6021
▁favori	-11.6023
▁kaş	-11.6024
▁usul	-11.6027
▁gayri	-11.6034
▁ber	-11.6035
▁azaldı	-11.6036
▁yorul	-11.6037
▁T	-11.6038
▁özle	-11.6043
▁etiket	-11.6052
▁daniel	-11.6061
▁kuaför	-11.6063
▁judo	-11.6063
▁stoper	-11.6064
rettin	-11.6064
▁efsanevi	-11.6064
▁güneybatı	-11.6064
▁dgm	-11.6064
prestij	-11.6065
▁saptandı	-11.6065
▁golünü	-11.6065
▁nedenle	-11.6065
▁esnek	-11.6065
▁yenimahalle	-11.6067
▁***	-11.6068
▁aslında	-11.6069
▁selçuklu	-11.6069
▁kastamonu	-11.6072
▁viyana	-11.6073
demir	-11.6073
▁şehid	-11.6074
▁oynarken	-11.6074
▁charles	-11.6074
▁elvan	-11.6075
▁havza	-11.6075
▁merve	-11.6078
skişehirspo	-11.608
▁sovyet	-11.6084
▁karaburun	-11.6084
▁sırp	-11.6084
▁boğa	-11.6088
▁grafik	-11.6088
▁adanaspor	-11.6089
▁toyota	-11.609
▁cehennem	-11.609
▁yıkım	-11.6092
▁bektaş	-11.6099
▁acele	-11.6099
▁tahrik	-11.6102
aile	-11.6103
▁pekiştir	-11.6108
▁tamer	-11.6115
söz	-11.6126
▁girmesi	-11.6126
▁polisi	-11.6127
▁çifti	-11.6134
hayat	-11.6138
eceğiz	-11.6139
▁kanuni	-11.6147
▁yapılmıştır	-11.6153
halk	-11.6155
▁döktü	-11.6155
▁gay	-11.616
beşiktaş	-11.6165
▁talebi	-11.6166
fenerbahçe	-11.6166
▁ödev	-11.6167
▁anabil	-11.6169
ck	-11.618
▁Wi	-11.6181
▁mö	-11.6181
▁okudu	-11.6185
▁3-1	-11.6189
▁başladım	-11.6197
▁carl	-11.6206
▁çeviri	-11.6207
▁suçlaması	-11.6212
malıyız	-11.6212
▁adamı	-11.6218
▁mavili	-11.6221
▁god	-11.6224
▁pro	-11.6225
▁104	-11.6229
▁bos	-11.6236
▁sonuçlandı	-11.6244
▁konsept	-11.6248
▁vardir	-11.6255
din	-11.6257
▁hatırlatıl	-11.6258
▁lojistik	-11.6259
▁karmaşık	-11.6259
▁alaçatı	-11.6259
▁başantrenör	-11.6259
▁homs	-11.6259
▁kontrollü	-11.6261
▁gölbaşı	-11.6261
▁yoğurt	-11.6261
▁mülkiyet	-11.6261
▁gaziantepspo	-11.6263
▁şölen	-11.6263
▁çıray	-11.6263
▁denizaltı	-11.6263
▁bilinir	-11.6265
▁kılavuz	-11.6266
▁hadise	-11.6268
▁tsi	-11.6268
▁golf	-11.6269
larin	-11.6271
▁tabir	-11.6271
▁samsunspor	-11.6272
▁double	-11.6273
▁çember	-11.6274
▁bozkurt	-11.6275
▁olmasın	-11.6279
▁lastik	-11.628
▁kasıt	-11.628
-30	-11.6289
▁çalışması	-11.6292
▁gideril	-11.6295
▁yamaç	-11.6297
▁sapta	-11.6298
▁çakmak	-11.6302
▁poşet	-11.6303
ıyordu	-11.6303
latif	-11.6304
oy	-11.6308
akp	-11.6312
▁polisler	-11.6312
▁lama	-11.632
▁hz	-11.6321
▁olsay	-11.6328
▁sün	-11.6329
▁sığ	-11.633
nis	-11.6333
▁yapmadı	-11.6336
▁lif	-11.6345
▁1-	-11.6346
▁atandı	-11.6348
▁ederler	-11.6349
▁kek	-11.6353
yken	-11.6353
▁yetiştiril	-11.6354
▁gole	-11.6355
▁fi	-11.6359
▁kurum	-11.6359
öğretim	-11.6359
▁antlaşma	-11.636
dıklarını	-11.6361
kendi	-11.6368
▁devredil	-11.6369
▁başkanları	-11.6375
▁kuşağ	-11.6381
▁mis	-11.6381
▁kalır	-11.6382
▁balo	-11.6384
lenirken	-11.6388
▁halkı	-11.639
▁özver	-11.6391
▁almaktadır	-11.6395
doğu	-11.6404
▁karıştı	-11.6405
▁bilge	-11.6411
dağ	-11.6419
▁elmas	-11.6424
▁talimatı	-11.6429
iang	-11.6432
▁fp	-11.6436
lerara	-11.6438
▁dedik	-11.6443
▁porno	-11.6454
▁antonio	-11.6455
▁reuters	-11.6457
▁sendrom	-11.6458
▁99	-11.6459
▁jiabao	-11.6459
▁hacettepe	-11.6459
▁şaban	-11.6459
▁kolombiya	-11.646
▁mutluyuz	-11.646
▁yetiştirici	-11.646
▁muhammet	-11.646
▁görülür	-11.6461
▁planlıyoruz	-11.6461
▁tütün	-11.6462
▁katolik	-11.6463
maya	-11.6465
▁garson	-11.6466
unda	-11.6469
▁ceyhun	-11.6469
▁gümüşhane	-11.647
▁kavuştu	-11.6471
▁vahşi	-11.6474
▁kudüs	-11.6475
▁atletico	-11.6476
▁cizre	-11.6477
▁çalışıyorum	-11.6477
▁havai	-11.6478
nce	-11.6478
▁pkkya	-11.6479
para	-11.6479
▁erciyes	-11.648
▁hatun	-11.648
▁ko	-11.6488
▁golleri	-11.6488
▁akçay	-11.6493
▁am	-11.6496
▁dilim	-11.65
leriyle	-11.65
▁4.5	-11.6502
leş	-11.6505
▁akyüz	-11.6508
▁esra	-11.6509
▁konuşuyor	-11.6513
▁yunanlı	-11.6513
▁kuran	-11.6514
▁jose	-11.6516
eli	-11.6518
▁cahil	-11.6518
▁şer	-11.6519
▁rumen	-11.6527
▁fıkra	-11.6528
▁yoğunlaş	-11.6529
yin	-11.6531
▁nimet	-11.654
.’’	-11.6546
▁intikal	-11.6552
tay	-11.6554
dü	-11.6575
▁nadir	-11.6579
▁çarptırıldı	-11.6579
▁devrildi	-11.658
▁fu	-11.658
▁kaldık	-11.6581
▁sergiledi	-11.6582
abildi	-11.6583
▁yorumla	-11.6592
▁10.00	-11.6598
▁çarptırıl	-11.6602
▁jac	-11.6602
▁rolünü	-11.6609
▁gündoğ	-11.661
ora	-11.6612
▁97	-11.6617
▁yakınları	-11.6619
▁edilmiş	-11.6625
▁kucak	-11.6627
sey	-11.6633
sınız	-11.6647
▁hayda	-11.6648
▁trend	-11.6649
▁güçlendirilme	-11.6658
▁senarist	-11.6659
▁heyelan	-11.6663
▁muhasebe	-11.6663
▁kahkaha	-11.6663
▁levha	-11.6664
▁parlamenter	-11.6664
▁termal	-11.6664
▁manavgat	-11.6664
▁pota	-11.6665
▁yurtsever	-11.6665
▁metrobüs	-11.6665
▁badem	-11.6665
▁köksal	-11.6665
▁sayesinde	-11.6666
▁ertelendi	-11.6666
▁sarkozynin	-11.6666
▁aydoğan	-11.6666
▁sekil	-11.6667
▁anımsattı	-11.6668
▁1982	-11.6669
▁gerçekçi	-11.6669
zure	-11.6671
▁restor	-11.6671
fuz	-11.6672
▁karpuz	-11.6673
▁selanik	-11.6673
▁gerets	-11.6673
▁botaş	-11.6674
▁zemin	-11.6674
▁yıldır	-11.6674
▁baran	-11.6675
▁giden	-11.6675
▁tekno	-11.6676
▁4-5	-11.6677
▁imra	-11.6677
ege	-11.6678
inda	-11.6679
ysa	-11.6683
▁liu	-11.6683
▁manşet	-11.6685
▁kanada	-11.6686
▁kabine	-11.6692
▁girer	-11.6697
▁emel	-11.6697
▁ayında	-11.6699
atılım	-11.67
▁damla	-11.6705
▁doz	-11.6709
▁merhaba	-11.671
▁tosun	-11.6711
▁harf	-11.6712
▁yapıyorum	-11.6713
ledi	-11.6716
▁kerry	-11.6719
▁aysal	-11.6721
▁türü	-11.6721
▁olayda	-11.6727
▁yana	-11.6731
▁başroller	-11.6736
▁mc	-11.6737
▁hami	-11.6743
▁sürüklen	-11.6744
iliyor	-11.6747
larıdır	-11.6747
▁bora	-11.675
▁skorer	-11.6755
ebilirsiniz	-11.676
▁sakinleri	-11.6773
▁kalmış	-11.6775
▁yankı	-11.6776
▁69	-11.6777
▁dayanıklı	-11.6779
▁dj	-11.6781
35	-11.6784
ok	-11.6787
güzel	-11.6791
ndığını	-11.6795
anne	-11.6797
hat	-11.6798
▁bardağ	-11.6804
▁alıp	-11.6805
▁sempozyum	-11.6807
▁kün	-11.6811
alatasaray	-11.6811
▁gizlen	-11.6813
▁kalori	-11.6823
60	-11.6836
ıyorlar	-11.6837
liler	-11.6848
▁93	-11.6852
▁kordon	-11.6863
100	-11.6863
▁nesne	-11.6871
▁tedarik	-11.6872
▁yepyeni	-11.6872
▁baygın	-11.6872
▁resepsiyon	-11.6872
▁epey	-11.6872
▁orleans	-11.6872
▁menemen	-11.6872
▁menkul	-11.6872
▁adapazarı	-11.6872
▁akbulut	-11.6872
▁ipekçi	-11.6872
▁yaşındayken	-11.6873
▁christoph	-11.6873
▁bulunurken	-11.6873
▁spoi	-11.6874
▁düşünün	-11.6874
▁onarım	-11.6874
▁milas	-11.6875
▁cüneyt	-11.6876
▁tarafindan	-11.6876
▁altındağ	-11.6877
▁env	-11.6877
▁yahu	-11.6878
▁tmsf	-11.6879
▁zürih	-11.6882
▁lodos	-11.6882
▁William	-11.6883
▁kuveyt	-11.6888
▁iyimser	-11.6888
▁fetih	-11.6888
▁olanlar	-11.6888
▁yirmi	-11.6893
▁mübarek	-11.6894
▁aksaray	-11.6895
▁maymun	-11.6895
▁arapça	-11.6895
▁oluyoruz	-11.6897
▁hande	-11.6901
erkek	-11.6904
layarak	-11.6905
eceğini	-11.691
▁abdyi	-11.691
▁balyoz	-11.6913
▁nakledil	-11.6918
▁dp	-11.6919
▁show	-11.692
▁tümü	-11.6925
▁evlad	-11.6929
▁posta	-11.6929
▁hedefleniyor	-11.693
30	-11.693
▁yılbaşı	-11.6939
▁komiser	-11.6939
yap	-11.6942
▁savunuyor	-11.6946
▁katıl	-11.6949
▁yapalım	-11.695
▁pantolon	-11.6952
▁iranlı	-11.6964
▁chpde	-11.6969
▁88	-11.6969
▁katılmadı	-11.6973
syon	-11.6977
▁ag	-11.6983
▁nitelendir	-11.6989
▁pikni	-11.6998
▁dönüştürül	-11.7
▁160	-11.7008
acağım	-11.7016
parti	-11.7018
▁istemiyor	-11.7021
▁savrul	-11.7025
ziyer	-11.7028
▁sevgili	-11.7031
▁kaydı	-11.7033
▁yanıl	-11.7034
▁bozulma	-11.7039
▁spd	-11.7041
sunuz	-11.7043
▁etmiyor	-11.7048
▁yayımlandı	-11.7049
▁fer	-11.7052
▁gore	-11.7053
▁ihtimalle	-11.7057
▁pes	-11.7058
▁parçala	-11.7058
▁cıa	-11.7059
▁taklit	-11.7067
▁oranı	-11.7068
bm	-11.7072
▁yaraladı	-11.7077
▁gökalp	-11.708
▁tarihi	-11.7083
▁yaşında	-11.7083
▁Belediyespor	-11.7085
▁haseke	-11.7085
▁lavrov	-11.7085
▁teşebbüs	-11.7085
▁podyum	-11.7085
▁guardian	-11.7085
▁ferhat	-11.7085
▁otogar	-11.7085
▁tufan	-11.7085
▁kıvanç	-11.7085
▁gürsoy	-11.7085
▁kutluyorum	-11.7085
▁sözcüsü	-11.7085
▁erciyesspor	-11.7085
▁harici	-11.7086
▁cemiyet	-11.7088
▁dönüyor	-11.709
orta	-11.709
▁akıntı	-11.7091
telekomünikasyon	-11.7092
▁özgüven	-11.7093
▁edremit	-11.7094
▁önemse	-11.7095
▁eczane	-11.7096
▁varol	-11.7101
▁sneijder	-11.7101
▁dtp	-11.7101
▁öğe	-11.7101
▁makyaj	-11.7102
▁şii	-11.7102
▁sars	-11.7103
▁izsu	-11.7105
▁cemaat	-11.7107
▁kaybetmişti	-11.7107
▁edilemez	-11.7111
▁shanghai	-11.7112
▁yüzücü	-11.7114
▁mülk	-11.7114
▁babası	-11.7115
▁buluşacak	-11.7115
▁leonard	-11.7116
▁aileleri	-11.7117
kullanılmaktadır	-11.7119
▁selvi	-11.7121
▁83	-11.7122
▁selma	-11.7122
▁gelirken	-11.7122
ılmaktadır	-11.7125
▁fox	-11.7126
▁sichuan	-11.7128
▁gelince	-11.7129
▁değindi	-11.7131
▁durmuş	-11.7132
emzi	-11.7142
▁gelmektedir	-11.7148
▁besi	-11.7149
▁elbet	-11.7156
ıydı	-11.7158
▁sıfat	-11.7159
lım	-11.7164
▁sağlar	-11.7164
▁takla	-11.7166
lendirme	-11.7166
▁haller	-11.7168
▁yapıyorlar	-11.7173
bas	-11.7175
▁ediyordu	-11.7175
▁yapılmadı	-11.7177
▁taraftarlar	-11.7179
▁kopya	-11.7183
▁başlatılma	-11.7183
ski	-11.7186
ilmiştir	-11.7194
▁19.	-11.7195
▁ödülü	-11.7196
▁gösterir	-11.7197
bek	-11.72
av	-11.7201
kız	-11.7204
gerçekleştirilme	-11.7208
▁kaba	-11.7224
▁birol	-11.7227
emez	-11.7229
almanya	-11.723
mız	-11.7241
▁gercek	-11.7241
▁seyya	-11.7243
▁çıkarıyor	-11.7246
▁olgu	-11.7254
muştur	-11.7254
▁bari	-11.7258
▁berber	-11.7259
▁yargıç	-11.726
arka	-11.7261
▁çıktık	-11.7265
▁kiev	-11.7272
▁gan	-11.7273
▁sağlamak	-11.7278
▁13.00	-11.7279
▁sorgulama	-11.7287
▁samimiyet	-11.7291
▁ibare	-11.7294
▁takıldı	-11.7297
▁zorundadır	-11.7299
▁alınmıştı	-11.7299
▁istisna	-11.7301
▁entegr	-11.7302
▁köfte	-11.7302
▁tahkim	-11.7302
▁çolak	-11.7302
masıdır	-11.7302
▁rumsfeld	-11.7302
▁tahsin	-11.7302
▁ardahan	-11.7302
▁kabiliyet	-11.7302
▁narkotik	-11.7302
▁makedonya	-11.7302
işare	-11.7303
▁bjk	-11.7303
▁plaza	-11.7303
▁boluspor	-11.7303
▁naklen	-11.7303
▁terbiye	-11.7304
▁idl	-11.7304
▁sanmıyorum	-11.7304
▁partizan	-11.7305
▁harp	-11.7305
▁muhatap	-11.7306
▁nb	-11.7306
ms	-11.7306
▁yanında	-11.7306
▁akgün	-11.7306
▁necip	-11.7307
▁mısınız	-11.7308
▁92	-11.7309
▁dicle	-11.731
▁merci	-11.731
▁rehine	-11.7311
▁sperm	-11.7312
▁gebze	-11.7312
▁cezayir	-11.7312
formula	-11.7312
▁bakalım	-11.7313
▁ölç	-11.7314
!”	-11.7314
▁verilmedi	-11.7314
▁birçoğu	-11.7317
▁kev	-11.7326
▁anavat	-11.7327
▁limit	-11.7329
▁kaset	-11.7329
▁kalmıştı	-11.7332
▁günah	-11.7336
cek	-11.7344
▁ayarla	-11.7348
yel	-11.7351
▁türbe	-11.7353
▁tabak	-11.7357
diklerini	-11.7358
▁Eskişehirspor	-11.7359
▁cari	-11.736
abi	-11.7362
mışlardır	-11.7363
ford	-11.7366
▁donatıl	-11.7368
▁asır	-11.7372
▁eroğ	-11.7373
▁yanık	-11.7375
▁daima	-11.7376
▁saman	-11.7384
▁nas	-11.7386
aç	-11.7386
▁safi	-11.7387
▁seyit	-11.7388
▁cumhuriyeti	-11.7392
▁feda	-11.7393
▁fiil	-11.7394
▁çocuğu	-11.7395
▁kararlaştırıldı	-11.7398
▁akü	-11.7399
▁terzi	-11.7401
▁çalı	-11.7404
▁tabanlı	-11.7407
▁kazanacak	-11.741
▁sansür	-11.741
▁boğ	-11.7416
▁çalışma	-11.7424
▁çalıştık	-11.7425
▁caddesi	-11.7425
▁seda	-11.7427
▁kutlan	-11.7432
ıldığını	-11.744
▁1.3	-11.7441
▁daral	-11.7447
▁colin	-11.7449
▁başl	-11.7451
▁getiri	-11.7451
sahip	-11.7457
▁bağladı	-11.7458
ilçe	-11.7458
▁hızı	-11.7459
▁zen	-11.7461
▁etmez	-11.7465
meyin	-11.7465
olay	-11.747
▁lobi	-11.7472
▁akbaş	-11.748
▁nes	-11.7481
manın	-11.7482
24	-11.7488
mada	-11.749
▁bekar	-11.7497
▁kimi	-11.7498
▁vi	-11.75
▁hemşehri	-11.75
▁değerlendir	-11.7502
çin	-11.7503
mişlerdir	-11.751
liydi	-11.7511
▁buhar	-11.7513
▁(1	-11.7513
▁inkar	-11.7514
▁kardeşim	-11.7515
▁içerik	-11.7516
eret	-11.7518
▁ender	-11.7519
▁demeç	-11.7522
▁portföy	-11.7524
▁merhum	-11.7524
▁eziyet	-11.7525
▁amaçlıyor	-11.7525
▁aşçı	-11.7525
▁yanıtlarken	-11.7526
▁hagi	-11.7526
ort	-11.7527
▁tahsilat	-11.7529
▁sürülüyor	-11.7529
▁akgül	-11.7532
▁iktisat	-11.7534
▁malezya	-11.7535
▁norm	-11.7536
▁steve	-11.7536
▁kabak	-11.7537
▁harbi	-11.7537
▁odun	-11.7537
▁hemşeri	-11.7538
▁diliyoruz	-11.7539
▁yapılmış	-11.7541
dürülüyor	-11.7545
noter	-11.7546
▁yaman	-11.7547
▁tutun	-11.755
abiliriz	-11.755
▁anlaştı	-11.7555
▁kabus	-11.7556
ja	-11.7558
▁kenti	-11.7559
▁super	-11.7561
▁şeriat	-11.7561
-4	-11.7569
▁Cumhurbaşkanı	-11.7579
▁ihtimal	-11.7579
▁doy	-11.7581
sinda	-11.7581
▁kişiler	-11.7582
mal	-11.7583
yk	-11.7584
▁messi	-11.7584
▁bence	-11.7585
▁geldiğini	-11.7587
▁2-	-11.7589
öğret	-11.7591
▁zanlı	-11.7591
melidir	-11.7592
▁ret	-11.7603
▁devril	-11.7604
▁yaşattı	-11.7608
13	-11.7608
▁yapılan	-11.7609
▁gerçekleştiril	-11.7615
▁yıldönüm	-11.762
▁chpd	-11.7622
▁ysk	-11.7624
ilebilir	-11.7626
las	-11.7632
▁değiştir	-11.7635
▁gittik	-11.7638
▁analist	-11.764
▁uçağı	-11.7641
▁bmn	-11.7654
▁taşıt	-11.7664
büt	-11.7664
▁1.4	-11.7666
▁''	-11.7668
▁arsenal	-11.7673
▁gerçekleştir	-11.7674
▁naci	-11.7675
▁gelmesi	-11.7676
▁kayna	-11.7682
▁açıyor	-11.7688
gerçek	-11.769
genel	-11.7691
latarak	-11.7697
leridir	-11.7703
star	-11.7703
▁mode	-11.7708
▁alınması	-11.7709
▁kurtardı	-11.7711
▁pir	-11.7712
▁dağıttı	-11.7714
▁amasya	-11.7715
▁kaynakları	-11.7715
▁yöneltil	-11.7717
▁arnavut	-11.7725
▁yendi	-11.7731
▁şeri	-11.7735
▁taht	-11.7735
▁15.00	-11.7736
-5	-11.7738
yağı	-11.7741
▁kahir	-11.7743
vit	-11.7744
▁çalışacak	-11.7745
▁konsol	-11.7745
▁yürütüyor	-11.7746
▁olayı	-11.7751
▁midibüs	-11.7751
▁tasfiye	-11.7751
▁vilayet	-11.7751
▁özbekistan	-11.7752
▁ısbn	-11.7752
▁dalgıç	-11.7752
▁viraj	-11.7752
▁ferah	-11.7752
▁soygun	-11.7752
▁üzerinde	-11.7752
▁orospu	-11.7752
▁davetiye	-11.7752
▁başhekim	-11.7752
▁pembe	-11.7752
▁terfi	-11.7752
▁fiat	-11.7752
▁hardal	-11.7752
▁20.	-11.7753
▁kaldırım	-11.7754
▁boykot	-11.7754
cılar	-11.7754
▁bayburt	-11.7755
▁akkaya	-11.7757
▁eklendi	-11.7757
▁yöneticiler	-11.7758
▁isveçli	-11.7758
▁bakanlık	-11.7759
▁uçar	-11.7759
▁stant	-11.7761
▁dezavantaj	-11.7762
▁hillary	-11.7762
▁silivri	-11.7762
▁fiili	-11.7762
▁erteledi	-11.7762
▁ekstra	-11.7762
▁(24)	-11.7762
▁kraliyet	-11.7764
▁zorunda	-11.7767
▁baklava	-11.7769
▁iftira	-11.7769
▁gökyüzü	-11.7769
▁meriç	-11.7769
▁cska	-11.777
▁kate	-11.7772
▁başer	-11.7773
▁anons	-11.7774
2)	-11.7776
▁royal	-11.7777
▁bulunmuyor	-11.7779
▁performansı	-11.778
ER	-11.7782
▁köln	-11.7783
▁6-7	-11.7783
▁onaylanma	-11.7785
▁erme	-11.7787
▁dursun	-11.7788
▁ib	-11.7789
▁işgalci	-11.779
▁beşir	-11.7792
▁çene	-11.7795
▁varmış	-11.7796
▁ösym	-11.7799
▁format	-11.7799
▁bulunuyordu	-11.78
leşme	-11.781
tor	-11.7812
▁89	-11.7812
▁dna	-11.7816
▁vermiştir	-11.7817
▁tümen	-11.7817
ses	-11.7818
▁kongo	-11.7819
dışı	-11.7832
▁kova	-11.7833
▁bilmiyor	-11.7834
▁reca	-11.7836
laşma	-11.7839
ner	-11.7839
ala	-11.7851
▁izban	-11.7851
▁gibidir	-11.7851
▁özge	-11.7853
▁ayet	-11.7855
▁lideri	-11.7859
bul	-11.7861
▁gelmiyor	-11.7864
▁öd	-11.7866
▁telaş	-11.7868
ışık	-11.7871
▁pano	-11.7873
▁yel	-11.7876
▁love	-11.7879
ret	-11.7882
▁yaşadık	-11.7889
beni	-11.7897
▁geldiler	-11.7897
/...	-11.7898
moon	-11.7905
▁taslağı	-11.7914
yeşil	-11.7921
▁gelmez	-11.7922
▁çakıroğ	-11.7923
gaz	-11.7924
▁kaçınılmaz	-11.7928
▁beslen	-11.793
▁yener	-11.7935
▁katkıları	-11.7936
▁Türkiye	-11.7937
▁makinesi	-11.794
abilme	-11.794
art	-11.7942
meden	-11.7942
▁dip	-11.7952
▁araçları	-11.7953
▁ga	-11.7957
▁sakinleş	-11.7959
▁libya	-11.7959
▁akı	-11.7967
▁ört	-11.7968
▁çapa	-11.797
▁müs	-11.7972
▁brown	-11.7976
▁artırdı	-11.7979
▁muharebe	-11.7981
▁anıtkabir	-11.7984
▁egzersiz	-11.7984
▁renault	-11.7984
▁litvanya	-11.7984
▁meltem	-11.7984
▁şantiye	-11.7984
▁malmö	-11.7984
▁tereddüt	-11.7984
▁boston	-11.7984
▁fidye	-11.7984
▁habur	-11.7985
▁niğde	-11.7985
▁1985	-11.7985
▁netanyahu	-11.7985
▁burdur	-11.7985
▁lokomotif	-11.7986
▁sarıkaya	-11.7986
▁1983	-11.7986
necmett	-11.7986
▁senatör	-11.7986
▁oynanacak	-11.7987
▁kabil	-11.7987
▁konfor	-11.7987
▁bı	-11.7987
▁angela	-11.7987
▁kokteyl	-11.7988
▁temsilcisi	-11.7988
▁psikolog	-11.7988
▁gidiyoruz	-11.7991
▁yetiştirme	-11.7992
▁dizayn	-11.7992
▁gölet	-11.7992
▁singapur	-11.7995
▁partner	-11.7995
▁3-2	-11.7997
▁timur	-11.7998
▁öğrendi	-11.7998
▁isterk	-11.8
▁301	-11.8001
▁rezil	-11.8001
▁öbür	-11.8002
▁vekalet	-11.8002
▁mezhep	-11.8002
▁tire	-11.8004
▁gözüküyor	-11.8005
▁oscar	-11.8005
tilerek	-11.8005
▁sıkı	-11.8008
▁peşmerge	-11.8009
ebiliyor	-11.801
▁yüzbaşı	-11.8015
▁ksk	-11.802
▁tay	-11.8023
▁buyuk	-11.8025
▁soyadı	-11.8026
▁uzmanları	-11.8033
▁görevlileri	-11.8039
▁parkur	-11.8043
▁kısıtla	-11.8044
▁kaşığ	-11.8045
▁kurtarılma	-11.8046
apse	-11.8052
▁santos	-11.8052
▁santrali	-11.8052
▁brit	-11.8053
▁pat	-11.8058
▁sahibi	-11.8059
sk	-11.806
▁tim	-11.806
gin	-11.8065
▁müz	-11.8065
▁işçiler	-11.807
▁golde	-11.8078
yum	-11.8082
▁durdurdu	-11.8085
▁süsle	-11.8087
▁biriydi	-11.8089
▁yolu	-11.8093
▁hit	-11.8101
ikin	-11.8113
▁aka	-11.8119
▁jackson	-11.8124
▁sürdürecek	-11.8125
▁yenilenme	-11.8125
▁indirilme	-11.8132
▁annan	-11.8138
▁ez	-11.8146
-25	-11.8146
▁hüzün	-11.8147
▁ödeyecek	-11.8149
yük	-11.8161
▁canlı	-11.8162
▁seçi	-11.8166
▁mecbur	-11.8166
▁türkiyede	-11.8168
lılar	-11.8171
▁parçası	-11.8172
▁küp	-11.8172
▁satılma	-11.8173
adam	-11.8176
▁kür	-11.8183
▁koz	-11.8184
▁atağ	-11.8186
▁çeşitli	-11.8188
▁220	-11.8197
▁öğrencileri	-11.8199
nden	-11.8203
▁stil	-11.8204
▁tarama	-11.821
ues	-11.8215
▁kararlaştırdı	-11.8215
▁seviş	-11.8216
▁özbek	-11.8219
▁neyse	-11.822
hal	-11.822
▁palandöken	-11.8222
▁vahşet	-11.8222
▁üniforma	-11.8222
▁hamilton	-11.8222
▁şehzade	-11.8222
▁motif	-11.8222
▁tatlıses	-11.8222
▁usulsüz	-11.8222
▁havuç	-11.8222
▁seramik	-11.8222
▁berbat	-11.8222
▁durduruldu	-11.8222
▁raket	-11.8222
▁nevşehir	-11.8223
▁katrina	-11.8223
▁kanalizasyon	-11.8223
▁duyuyoruz	-11.8223
▁seyhan	-11.8223
gir	-11.8223
▁kırşehir	-11.8224
▁nispet	-11.8225
▁medeni	-11.8225
▁kocaelispor	-11.8226
▁şentürk	-11.8226
▁ayrılırken	-11.8226
▁konusunda	-11.8227
▁alınmıştır	-11.8228
▁temizlik	-11.8228
▁arkeolojik	-11.8229
▁gösteriliyor	-11.823
25	-11.8231
▁basınç	-11.8231
▁yapıp	-11.8232
▁kondisyon	-11.8233
▁yetmez	-11.8233
▁yönü	-11.8233
▁saadet	-11.8234
▁1950	-11.8234
▁edeceğim	-11.8236
şi	-11.824
▁ilahi	-11.8242
▁taviz	-11.8243
▁benziyor	-11.8244
th	-11.8245
▁ortega	-11.8248
▁temizlen	-11.8248
▁seslendirdi	-11.8249
▁şeb	-11.8249
▁başlamış	-11.8251
mayan	-11.8252
amerika	-11.8254
iran	-11.8255
▁kolye	-11.8258
▁verirk	-11.8261
▁kafes	-11.8266
▁gor	-11.8267
▁tabağ	-11.827
▁acıma	-11.8278
▁asit	-11.8278
▁yerleşti	-11.8279
▁afp	-11.8282
▁sarılı	-11.8282
polis	-11.8285
▁yaya	-11.8291
▁prosedür	-11.8292
▁aldığı	-11.8297
▁takas	-11.8299
mesidir	-11.83
▁halit	-11.8302
▁kı	-11.8303
▁sorunu	-11.8304
bal	-11.8305
▁etek	-11.8308
▁anlayışı	-11.8309
▁olacağım	-11.8311
▁diana	-11.8311
?..	-11.8312
▁yuz	-11.8315
meliyiz	-11.8317
▁karşın	-11.8318
▁kurtarıldı	-11.8321
▁açmıştı	-11.8321
▁yaralılar	-11.8321
samet	-11.8324
▁kad	-11.8335
▁lanet	-11.8343
▁maçta	-11.8351
▁peru	-11.8352
ağ	-11.8359
ane	-11.8359
▁komisyonu	-11.8366
▁farklı	-11.8367
▁myk	-11.8371
▁güçlendirme	-11.8372
tma	-11.8372
▁seba	-11.838
▁iletil	-11.838
larımız	-11.8381
▁kandır	-11.8384
▁tıkan	-11.8394
▁devrilme	-11.8395
▁sembolü	-11.84
▁eti	-11.84
cük	-11.8402
▁bölünme	-11.8411
▁balta	-11.8417
tmen	-11.8419
hava	-11.8423
▁dos	-11.8426
tes	-11.8428
▁fc	-11.8431
▁bunu	-11.8432
▁atıyor	-11.8434
▁bağlanma	-11.8434
mediğini	-11.8436
eceği	-11.8441
▁tartıştı	-11.8443
▁defnedil	-11.8451
▁170	-11.8456
▁(19	-11.8457
▁kapağı	-11.8459
▁kruva	-11.8463
▁bambaşka	-11.8464
▁mevla	-11.8465
▁delikanlı	-11.8466
▁geçildi	-11.8466
▁parfüm	-11.8466
▁aşiret	-11.8466
▁hüsamettin	-11.8466
▁jinping	-11.8466
▁teçhizat	-11.8466
▁arbede	-11.8466
▁ereğli	-11.8466
▁kokain	-11.8466
▁buzdolabı	-11.8466
▁büyükanıt	-11.8466
▁mursi	-11.8466
▁ivme	-11.8466
▁gordon	-11.8466
▁sergey	-11.8466
▁zehra	-11.8467
▁karakaş	-11.8467
▁florida	-11.8467
▁rume	-11.8467
▁oluşturur	-11.8468
▁ferdi	-11.8468
▁baharat	-11.8469
▁yokuş	-11.847
▁atarken	-11.847
▁satılıyor	-11.8471
▁kaybeden	-11.8472
▁cup	-11.8475
yok	-11.8475
▁(25)	-11.8476
▁tüccar	-11.8477
▁kırdı	-11.8478
▁gerekiyordu	-11.8481
may	-11.8483
▁uçtu	-11.8483
▁altınor	-11.8485
▁madonna	-11.8485
▁boeing	-11.8485
▁komplo	-11.8485
▁çiğdem	-11.8485
▁cezaev	-11.8485
▁edilebilir	-11.8486
▁yapılması	-11.8486
▁azim	-11.8488
▁buruk	-11.849
▁dairesi	-11.849
▁harry	-11.8493
-24	-11.8494
▁cengiz	-11.8496
▁ahır	-11.8496
lıyor	-11.8499
...”	-11.8499
dım	-11.85
▁müdahalesi	-11.85
▁koray	-11.8501
amıyor	-11.8504
▁somali	-11.851
▁reis	-11.8518
▁keşfed	-11.8524
▁aytek	-11.8531
del	-11.8534
▁yasası	-11.8536
90	-11.8536
▁band	-11.8538
▁inceleme	-11.854
▁tansu	-11.8541
-3	-11.8543
▁halay	-11.8546
mamıştır	-11.8547
▁kısır	-11.855
▁650	-11.8553
▁oyunu	-11.8556
suri	-11.8556
ett	-11.8558
▁ego	-11.8558
▁pasifik	-11.8568
▁artik	-11.8571
▁versin	-11.8575
▁golün	-11.8582
▁sök	-11.8584
▁isteği	-11.859
▁doğdu	-11.8591
▁koştu	-11.8593
nik	-11.8596
▁şahs	-11.8604
▁zanlılar	-11.8613
▁toplantısı	-11.8615
▁evlendi	-11.8615
amadı	-11.8616
▁aramada	-11.8618
nternation	-11.8622
▁mont	-11.8625
▁pu	-11.8628
▁flor	-11.8631
▁duran	-11.8641
▁hay	-11.8643
tör	-11.8644
oğul	-11.8647
▁çıkarak	-11.8648
ılır	-11.8654
▁ren	-11.8658
tarak	-11.8659
▁yoğunlaştır	-11.8666
▁sened	-11.8674
ket	-11.8678
▁küre	-11.8681
naz	-11.8683
▁müezzinoğ	-11.8685
▁hiçbiri	-11.8685
▁steph	-11.8687
sha	-11.8689
▁val	-11.869
▁verin	-11.8696
▁mayo	-11.8698
▁yansıdı	-11.8698
▁bulacak	-11.8698
▁tanınma	-11.8701
çık	-11.8702
▁kavak	-11.8702
▁gsm	-11.8704
▁rampa	-11.8714
-40	-11.8716
▁şöhret	-11.8716
▁papandreu	-11.8716
▁animasyon	-11.8716
▁nafaka	-11.8716
▁idrar	-11.8716
▁hilton	-11.8716
▁datça	-11.8716
▁bariyer	-11.8716
▁büfe	-11.8716
▁pamukkale	-11.8716
▁11.00	-11.8717
▁konuşurken	-11.8717
▁belirlenecek	-11.8718
▁ezgi	-11.8719
▁huzurevi	-11.8719
▁mümkündür	-11.872
▁milis	-11.872
▁boyunca	-11.872
▁amsterdam	-11.872
▁california	-11.872
▁çektirdi	-11.8723
▁kazanırken	-11.8724
▁98	-11.8726
▁garni	-11.8727
▁şarbon	-11.8728
▁1945	-11.8728
▁bilanço	-11.8729
▁zarif	-11.8729
▁kadarı	-11.873
▁2018	-11.873
▁cephane	-11.8731
▁limon	-11.8732
▁yahya	-11.8732
musevi	-11.8732
▁göreceğiz	-11.8732
▁getirir	-11.8735
▁gamze	-11.8735
▁1989	-11.8736
▁kızı	-11.8737
▁acılı	-11.8737
▁aşıl	-11.8738
▁halife	-11.8738
▁olcay	-11.874
▁ds	-11.8741
ağa	-11.8742
▁ötv	-11.8743
▁tutuyor	-11.8747
▁geyik	-11.8747
▁müezzin	-11.8748
▁320	-11.8751
▁atıf	-11.8751
▁sökül	-11.8752
▁gebe	-11.8753
▁550	-11.8754
hiç	-11.8763
▁aihm	-11.8766
▁buzlan	-11.8767
▁istiyorlar	-11.8769
üm	-11.8772
▁umre	-11.8775
▁kala	-11.8775
▁oyunları	-11.8777
▁ihlali	-11.878
▁3-	-11.878
▁bakü	-11.8784
mail	-11.8785
▁askerler	-11.8789
▁küpe	-11.8793
▁sorgulan	-11.8794
acağını	-11.88
▁bayıl	-11.88
nuz	-11.8801
▁belirtmişti	-11.8803
▁sky	-11.8806
▁rap	-11.8809
▁döner	-11.881
▁izlenme	-11.8812
’’	-11.8815
▁törende	-11.8816
▁yıkılma	-11.8818
▁doğruladı	-11.8823
reel	-11.8824
▁avlu	-11.8825
kreasyon	-11.8826
▁yerinde	-11.8826
bitkisel	-11.8832
▁gelip	-11.8834
lasman	-11.884
acaklar	-11.8844
▁çuval	-11.8845
▁ntv	-11.8845
▁gelişme	-11.8847
▁sevgilisi	-11.8848
▁şi	-11.885
▁mario	-11.8851
ish	-11.8861
▁zamanda	-11.8865
rk	-11.8871
▁pehlivan	-11.8878
▁mod	-11.8883
▁almadı	-11.8889
▁akil	-11.8891
mayı	-11.8892
▁sünni	-11.8899
▁1.2	-11.8899
▁adi	-11.8899
▁kavur	-11.8906
göz	-11.8911
-18	-11.8911
▁solcu	-11.8914
sina	-11.8916
▁öv	-11.8924
▁raporu	-11.8928
▁tok	-11.8928
▁kuzen	-11.8933
masına	-11.8933
uluslarara	-11.8933
70	-11.8934
▁alabil	-11.8937
▁ted	-11.8941
▁vermesi	-11.8942
▁yil	-11.8943
kürt	-11.8946
▁hatırlatıldı	-11.8948
▁şevke	-11.8951
▁sed	-11.8952
lütf	-11.8953
▁rolün	-11.8958
ang	-11.8962
▁dilenci	-11.8963
▁mürettebat	-11.8966
▁masaj	-11.8968
mur	-11.897
▁tekvando	-11.8972
▁yanukoviç	-11.8972
▁broşür	-11.8972
▁ilahiyat	-11.8973
▁mazlum	-11.8973
▁sapanca	-11.8973
▁suruç	-11.8973
▁pilav	-11.8973
▁nicolas	-11.8973
▁satranç	-11.8973
▁birebir	-11.8973
▁zübeyde	-11.8973
▁ayşegül	-11.8973
▁hissediyorum	-11.8973
▁karabükspor	-11.8974
▁tarkan	-11.8974
▁familya	-11.8974
▁yazıcıoğlu	-11.8974
▁cihaner	-11.8976
▁ılıcak	-11.8976
▁rahim	-11.8976
▁mevzu	-11.8976
▁inceledi	-11.8976
▁direnç	-11.8976
▁perişan	-11.8977
▁saint	-11.8977
▁depresyon	-11.8977
▁klavye	-11.8977
▁1969	-11.8979
sanat	-11.898
▁bedri	-11.898
▁nokia	-11.8981
▁mizah	-11.8982
▁lucescu	-11.8984
▁yeşilyurt	-11.8985
▁mars	-11.8986
▁yürürlük	-11.8992
▁nilüfer	-11.8992
ünü	-11.8993
▁kibar	-11.8993
▁şahsi	-11.8994
▁utanç	-11.8994
▁kumanda	-11.8994
▁bişey	-11.8994
▁geçiriyor	-11.8995
▁tekke	-11.8995
▁klinik	-11.9
▁nasip	-11.9001
▁kasap	-11.9002
▁kirlet	-11.9002
rant	-11.9004
▁(19)	-11.9007
▁balon	-11.9008
▁akım	-11.9009
ut	-11.901
▁soylu	-11.9011
▁lo	-11.9013
io	-11.9015
▁halter	-11.9019
▁bilinmiyor	-11.9021
▁sabr	-11.9024
▁büyüğ	-11.9024
▁monte	-11.9024
çay	-11.9029
▁ankaraspor	-11.9035
▁gömül	-11.9038
▁sivri	-11.9042
▁tuna	-11.9044
▁abdurrahm	-11.9044
istik	-11.9047
▁zil	-11.9051
▁vermek	-11.9054
cül	-11.9058
ilir	-11.9067
▁süha	-11.9067
erk	-11.9072
▁zayıfla	-11.9074
mar	-11.9077
▁sahipleri	-11.9083
▁soktu	-11.9085
▁baska	-11.9085
tetik	-11.9093
leştirme	-11.9101
▁E	-11.9104
▁getiriliyor	-11.9104
▁game	-11.9105
okul	-11.9108
▁dokunma	-11.9109
iyat	-11.9113
!!	-11.9114
▁reha	-11.9114
▁edebil	-11.9116
▁atanma	-11.9119
▁üretme	-11.9119
▁suçladı	-11.9121
ciler	-11.9125
▁verici	-11.9132
▁ileti	-11.9132
mb	-11.9133
▁eğit	-11.9138
oloji	-11.9138
▁aktarılma	-11.9139
21	-11.9151
nıyor	-11.9155
▁ru	-11.9155
▁koloni	-11.9156
15	-11.916
▁benim	-11.9165
▁engellenme	-11.9165
▁napoli	-11.9168
▁parke	-11.9171
abilecek	-11.9172
▁açılacak	-11.9176
▁doğrula	-11.9177
ent	-11.9184
▁dinledi	-11.9184
▁aym	-11.9184
▁tekn	-11.9192
jat	-11.9192
.4	-11.9192
▁çat	-11.9195
▁down	-11.9195
▁1.6	-11.9197
▁yıkıldı	-11.92
▁anımsat	-11.9203
bölge	-11.9211
rusya	-11.9213
yıldız	-11.9213
▁baki	-11.9216
cahit	-11.9221
▁hudut	-11.9225
▁tuncel	-11.9225
▁düşürdü	-11.9226
▁omuz	-11.9231
▁ruhani	-11.9231
▁yatıyor	-11.9232
ku	-11.9233
▁hür	-11.9234
▁kabuk	-11.9234
▁giresun	-11.9235
▁america	-11.9235
▁ahmedinejad	-11.9236
▁alüminyum	-11.9236
▁deklarasyon	-11.9236
▁mühimmat	-11.9236
▁nusaybin	-11.9236
▁sorusuna	-11.9236
▁francis	-11.9236
▁kabuğ	-11.9236
▁hidayet	-11.9236
▁rutin	-11.9236
isarcıklıoğlu	-11.9236
▁bahadır	-11.9236
▁konteyner	-11.9236
▁çimento	-11.9237
▁muhit	-11.9237
▁kadri	-11.9237
üdür	-11.9238
▁kalabalık	-11.9238
▁içeriyor	-11.9238
fu	-11.9238
▁çatal	-11.9238
▁uğurla	-11.9239
▁sarıyer	-11.9239
içi	-11.924
▁akkuş	-11.924
▁fezleke	-11.924
▁premier	-11.924
▁yelpaze	-11.924
▁akbank	-11.9243
▁kırım	-11.9244
▁çalıştay	-11.9245
tis	-11.9246
▁belirtiyorlar	-11.9246
▁clintonın	-11.9247
▁yaşıyorum	-11.9247
▁kıraç	-11.9247
▁eşref	-11.9247
▁tesisat	-11.9248
▁meşgul	-11.9248
▁halbuki	-11.9248
▁(26)	-11.9252
▁eh	-11.9254
▁bildirge	-11.9255
▁pekkan	-11.9255
▁1987	-11.9257
▁maltepe	-11.9257
▁ceket	-11.9258
dum	-11.9261
▁(6)	-11.9263
▁henry	-11.9264
▁tsunami	-11.9264
▁sarp	-11.9265
▁tuğçe	-11.9266
▁songül	-11.9266
▁mercedes	-11.9268
▁yetin	-11.9268
▁sanatsal	-11.9269
kor	-11.9269
▁getirecek	-11.9272
▁vakfı	-11.9273
▁yaşarken	-11.9273
▁alfa	-11.9274
▁mgk	-11.9277
▁yapıldığını	-11.9279
▁kalmıştır	-11.9286
▁negatif	-11.9288
▁vurgulan	-11.9289
uyor	-11.9291
▁kavşağı	-11.9291
▁temizlenme	-11.9291
▁reddedil	-11.9296
ite	-11.9299
ram	-11.9305
iydi	-11.9307
fantastik	-11.9311
▁hayaller	-11.9314
▁gezdi	-11.9318
▁ısıt	-11.9318
▁asistan	-11.932
▁öngörüyor	-11.9325
▁bozdu	-11.9325
iskenderun	-11.9326
▁astronomi	-11.9327
hükümet	-11.933
▁çakar	-11.9331
▁pala	-11.9331
▁karga	-11.9331
▁yeral	-11.9332
▁17.	-11.9335
ll	-11.9344
yönet	-11.9345
gele	-11.9346
11	-11.9356
mıştım	-11.9357
▁tsk	-11.9357
▁oyuncuları	-11.9361
▁2-2	-11.9365
▁toplantıya	-11.9369
▁uzlaşma	-11.9375
▁değişiyor	-11.9383
▁gri	-11.9385
▁dikil	-11.9389
mam	-11.9389
mışlardı	-11.9391
arikat	-11.9394
aziosmanpaşa	-11.9398
▁tuzla	-11.9401
ambu	-11.9417
▁hamsi	-11.9425
liyor	-11.9428
▁edildiği	-11.9431
▁pm	-11.9436
▁karsi	-11.9438
▁titre	-11.9438
▁zihn	-11.944
tkı	-11.9442
sev	-11.9447
▁uzatıl	-11.9449
kol	-11.9453
61	-11.9454
▁açıklaması	-11.946
▁morali	-11.9464
▁hastalık	-11.9464
▁büyüle	-11.9466
▁haz	-11.9475
double	-11.9487
16	-11.9487
▁şahsen	-11.9495
▁1979	-11.9497
▁21.00	-11.9497
▁tarafı	-11.9499
▁cip	-11.9499
ralarında	-11.9502
yat	-11.9502
▁kızgın	-11.9504
▁moore	-11.9505
aziantepspor	-11.9505
▁donald	-11.9505
▁tahammül	-11.9506
▁astronot	-11.9506
▁doküman	-11.9506
▁jolie	-11.9506
▁muhafız	-11.9506
▁tahakkuk	-11.9506
▁joseph	-11.9506
▁kepçe	-11.9506
▁juventus	-11.9506
▁söndürüldü	-11.9506
▁başbuğ	-11.9506
▁vasıtasıyla	-11.9506
▁farkındalık	-11.9506
▁tadilat	-11.9506
hep	-11.9506
▁pilsen	-11.9506
▁kahvehane	-11.9507
▁hey	-11.9507
▁mezuniyet	-11.9508
ac	-11.9508
▁aslinda	-11.9508
▁konaklama	-11.9509
▁konfüçy	-11.9511
▁kullanılabilir	-11.9511
▁cazip	-11.9511
▁mütalaa	-11.9511
▁mevlüt	-11.9512
▁talat	-11.9513
▁bunalım	-11.9514
▁çebi	-11.9514
▁çıkarttı	-11.9514
▁altıncı	-11.9518
▁zenginleştir	-11.9518
▁nezaket	-11.9519
▁gösterileri	-11.9519
▁vestel	-11.9519
▁sercan	-11.9519
▁patladı	-11.952
▁sanırım	-11.9521
masın	-11.9522
▁lakap	-11.9522
mekte	-11.9523
▁7.5	-11.9523
zor	-11.9524
▁katledil	-11.9524
▁kakao	-11.9527
▁tcdd	-11.9527
▁çalışılıyor	-11.9528
▁giderken	-11.9531
▁azı	-11.9532
.''	-11.9536
▁yaptığını	-11.9536
▁iskan	-11.9537
▁sam	-11.9537
▁nitele	-11.9538
▁roller	-11.9541
▁festivaller	-11.9548
larini	-11.9549
▁ideolojik	-11.9552
▁ağırlaştırıl	-11.9553
▁ertürk	-11.9559
▁hortum	-11.9564
sizlik	-11.9564
lhami	-11.9565
▁yar	-11.9579
▁gec	-11.9583
▁işgali	-11.9584
▁yoksa	-11.9587
▁çimen	-11.9589
▁kırılma	-11.9592
▁giray	-11.9593
▁mus	-11.9594
▁petk	-11.9596
▁dönüştürülme	-11.9596
▁jiang	-11.9601
▁töreni	-11.9604
▁edebilir	-11.9605
▁hafiflet	-11.9606
diler	-11.9621
▁olamadı	-11.9625
▁yazıcı	-11.9629
hisar	-11.9629
▁yapısı	-11.9633
mıyorum	-11.9634
sol	-11.9635
▁bulundular	-11.9635
memiş	-11.9637
▁kask	-11.9641
rak	-11.9643
▁gelirk	-11.9646
ito	-11.9649
ladı	-11.965
▁geçmişti	-11.9652
▁patri	-11.9657
hut	-11.9664
42	-11.9667
▁oluşturuldu	-11.9669
▁ihtila	-11.9671
▁tatar	-11.9671
▁çaldı	-11.9674
dun	-11.9675
▁kırk	-11.9686
▁sporcular	-11.9692
▁kendileri	-11.9692
rik	-11.9696
izasyon	-11.9696
▁nedim	-11.9697
▁gl	-11.9702
pi	-11.9704
je	-11.9705
▁getirmişti	-11.9705
▁prova	-11.971
▁takımları	-11.9711
ef	-11.9711
meyen	-11.9712
▁po	-11.9722
rut	-11.9723
meyecek	-11.9724
▁çalışanları	-11.9733
bar	-11.9736
▁disko	-11.9737
▁melo	-11.9738
par	-11.9739
▁hakan	-11.9744
▁dolayl	-11.9748
▁çıkmaz	-11.9748
yun	-11.9753
▁sinyali	-11.9763
ene	-11.9764
ahrett	-11.9766
▁270	-11.9767
beyazlılar	-11.9767
▁satıldı	-11.977
▁tahlil	-11.9772
▁feri	-11.9773
▁ertan	-11.9774
yim	-11.9774
küçük	-11.9775
doğru	-11.9775
ordu	-11.9776
▁verilmesi	-11.9776
belediye	-11.9777
▁arkeoloji	-11.9779
gil	-11.978
▁sön	-11.978
▁heyecanlan	-11.9781
▁dönerk	-11.9783
▁dogru	-11.9783
▁banliyö	-11.9784
▁nişasta	-11.9784
▁vazife	-11.9784
▁hendek	-11.9784
▁müsaade	-11.9784
▁tetkik	-11.9784
▁uranyum	-11.9784
▁rivayet	-11.9784
▁(35)	-11.9784
▁teselli	-11.9784
▁diyebiliriz	-11.9784
▁etkiledi	-11.9784
▁pelin	-11.9784
▁yarbay	-11.9784
▁meryem	-11.9784
▁lyrics	-11.9784
▁altıntop	-11.9784
▁vites	-11.9784
▁çevrildi	-11.9784
▁uyarlan	-11.9784
▁vinç	-11.9784
▁vitrin	-11.9785
▁hicbir	-11.9785
▁yapılandırma	-11.9785
▁yaptırdı	-11.9785
▁sedef	-11.9785
▁kovalama	-11.9785
▁element	-11.9785
▁ideoloji	-11.9785
▁şartname	-11.9785
▁ilkbahar	-11.9786
▁denli	-11.9786
▁koruyor	-11.9786
▁oğuzh	-11.9787
▁malatyaspor	-11.9787
▁duydum	-11.9788
▁harek	-11.9788
▁padişah	-11.9788
▁porsche	-11.9788
▁zencefil	-11.9788
▁kullanılacak	-11.9789
▁santim	-11.9789
▁mansur	-11.979
▁sesi	-11.9793
lanırken	-11.9794
▁(22)	-11.9795
▁başvurul	-11.9796
▁sarsıl	-11.9797
▁hayret	-11.9797
başkan	-11.9799
▁hergün	-11.9799
▁(23)	-11.98
▁molla	-11.9801
▁dalyan	-11.9804
▁gribi	-11.9804
▁syn	-11.9804
▁tapınak	-11.9805
▁sarhoş	-11.9805
▁yasaklan	-11.9805
▁çekerken	-11.9805
tel	-11.9806
▁indirdi	-11.9806
▁verilmiştir	-11.9806
▁yabani	-11.9807
▁değişikliği	-11.9808
▁teras	-11.9809
▁yerde	-11.9809
ft	-11.981
▁lord	-11.9811
▁edelim	-11.9811
orgeneral	-11.9814
sem	-11.9816
▁rest	-11.9817
▁binbaşı	-11.9819
▁özgürlük	-11.9824
▁özet	-11.9824
sit	-11.9828
,5	-11.9829
▁sit	-11.9831
süz	-11.9831
kon	-11.9836
▁birbiri	-11.984
▁koma	-11.984
▁yapabil	-11.9841
▁kalmayacak	-11.9846
ng	-11.9846
▁prag	-11.9847
▁94	-11.9849
▁turk	-11.985
▁kucakla	-11.9851
yaş	-11.9853
▁artar	-11.9857
▁takibi	-11.9858
▁hp	-11.9859
▁getirdiler	-11.9859
▁ekin	-11.9866
▁açıklama	-11.9866
-10	-11.987
▁sürat	-11.9878
res	-11.9878
▁yemin	-11.9879
▁altı	-11.9879
landığını	-11.9882
▁atı	-11.9884
28	-11.9886
▁mhpn	-11.9889
▁olmasıdır	-11.9894
▁geçi	-11.9896
▁alanı	-11.9896
▁olacaktı	-11.9897
hur	-11.9899
▁civarı	-11.9903
lıydı	-11.9903
▁bulur	-11.9907
▁öldürülmesi	-11.9912
mıyoruz	-11.9917
▁125	-11.9917
▁getirdik	-11.9923
▁kaybettik	-11.9925
▁varsayıl	-11.9934
▁çıkması	-11.9938
▁pi	-11.9941
▁başladılar	-11.9943
ucu	-11.9944
▁haberi	-11.9954
▁kapağ	-11.9954
▁pişir	-11.9958
▁sonrası	-11.9959
▁vin	-11.9966
ilme	-11.9967
▁155	-11.9976
▁salgı	-11.998
▁içer	-11.9982
▁maket	-11.9983
astro	-11.9987
▁bakıyor	-11.9988
▁ref	-11.9993
yak	-11.9995
▁hoşlan	-11.9995
▁konuşuluyor	-11.9998
▁yaratıyor	-12.0007
▁gültek	-12.0008
▁işçi	-12.0008
▁artması	-12.0017
▁evrim	-12.0019
▁içerisinde	-12.0025
▁konuşlandır	-12.003
▁çiğne	-12.0031
▁yırt	-12.0036
▁pc	-12.0038
▁zat	-12.0048
▁gem	-12.0051
dig	-12.0056
▁kast	-12.0057
▁bilek	-12.0061
ral	-12.0061
galeri	-12.0063
çeşme	-12.0067
▁inegöl	-12.0069
▁elizabeth	-12.0069
▁hükumet	-12.0069
▁koğuş	-12.0069
▁teftiş	-12.0069
▁çerçioğ	-12.0069
▁kırgızistan	-12.0069
▁matrah	-12.0069
▁ihtar	-12.0069
▁tütüncü	-12.0069
▁pearson	-12.007
financia	-12.007
▁uçurum	-12.007
▁alpay	-12.007
▁depremzede	-12.007
▁anlatırken	-12.0071
▁adrian	-12.0072
▁edward	-12.0073
mamış	-12.0074
▁duyurmuştu	-12.0074
▁rice	-12.0074
▁nefis	-12.0075
▁konsantre	-12.0075
▁kıskan	-12.0077
▁önlen	-12.0078
▁vermeyeceğiz	-12.0079
▁(27)	-12.0082
▁esma	-12.0083
noel	-12.0084
▁garaj	-12.0084
DES	-12.0084
▁3-5	-12.0086
▁aksak	-12.0087
▁irem	-12.0087
▁istiyordu	-12.0088
▁türkistan	-12.0088
▁basra	-12.0088
▁kalırken	-12.0088
▁bükreş	-12.0091
▁aybaba	-12.0096
▁salim	-12.0098
▁kana	-12.0099
▁şarj	-12.01
tıp	-12.01
vet	-12.0101
80	-12.0103
▁halı	-12.0104
▁verilir	-12.0105
▁hayri	-12.0105
▁anormal	-12.0106
▁yetindi	-12.0107
▁fiş	-12.0108
▁bık	-12.0108
▁herif	-12.011
▁hisar	-12.011
islam	-12.0113
▁becer	-12.0114
▁first	-12.0115
bize	-12.0116
▁yapacağım	-12.0118
▁sahibiz	-12.0118
▁green	-12.0119
ers	-12.012
▁cumhur	-12.0122
▁kontrat	-12.0123
▁güvenç	-12.0129
ebiliriz	-12.0131
▁karl	-12.0132
▁dink	-12.0132
▁flaş	-12.0135
▁kanaat	-12.0138
:00	-12.0138
▁soner	-12.014
▁serin	-12.0147
▁zhou	-12.0155
▁kings	-12.0157
▁yaşantı	-12.0158
ilip	-12.0161
şah	-12.0163
mut	-12.0164
herkes	-12.0167
▁yinele	-12.0169
▁paylaşıl	-12.0174
emedi	-12.0175
▁almak	-12.0179
mizi	-12.018
larken	-12.0181
▁düşüncesi	-12.0189
inden	-12.0189
▁sony	-12.0191
▁birisi	-12.0202
ere	-12.0204
▁soz	-12.0208
▁bırakmadı	-12.0213
▁tas	-12.0219
▁sunacak	-12.0221
▁şelale	-12.0222
lük	-12.0226
▁mensupları	-12.0226
▁destekleme	-12.0228
▁bilgin	-12.0233
▁geçin	-12.0235
▁uygulanacak	-12.0237
▁yarım	-12.0237
▁heves	-12.0241
mlu	-12.0248
cm	-12.0249
▁tele	-12.0249
▁hareketleri	-12.0252
▁105	-12.0253
▁akar	-12.0258
▁reng	-12.0261
▁deve	-12.0262
▁yağma	-12.0269
▁hun	-12.0278
▁solo	-12.0286
▁etkiliyor	-12.0294
1)	-12.0296
▁106	-12.0301
nmaktadır	-12.0301
ebilecek	-12.031
▁olabiliyor	-12.0311
▁yaklaştı	-12.0312
▁şarkıları	-12.0315
▁360	-12.0319
▁23.	-12.0326
▁dataver	-12.0327
bur	-12.0335
▁kurumu	-12.0337
▁haşim	-12.0354
sanız	-12.0356
ada	-12.0358
▁soruştur	-12.0359
tv	-12.0361
95	-12.0362
▁ecza	-12.0362
▁verilmişti	-12.0363
▁stuttgart	-12.0363
▁tercüman	-12.0363
▁yuşçenko	-12.0363
▁agresif	-12.0363
▁kukla	-12.0363
▁antakya	-12.0364
▁(43)	-12.0364
▁sürdüreceğiz	-12.0364
▁şemdinli	-12.0364
▁kortej	-12.0364
▁anonim	-12.0364
▁furk	-12.0364
▁görülmektedir	-12.0364
▁yazışma	-12.0364
▁portre	-12.0364
▁galibi	-12.0364
▁keleş	-12.0364
▁göbeğ	-12.0364
▁1973	-12.0364
▁paraşüt	-12.0365
▁altınordu	-12.0365
▁editör	-12.0365
▁haldun	-12.0365
▁sunulma	-12.0365
▁balina	-12.0365
▁gündoğdu	-12.0365
▁2023	-12.0365
▁kulvar	-12.0365
▁kürşat	-12.0366
▁izlerk	-12.0366
▁mevcuttur	-12.0366
▁efekt	-12.0366
▁raporunda	-12.0366
▁total	-12.0367
▁açıkhava	-12.0367
▁davut	-12.0367
▁gemisi	-12.0367
emeyecek	-12.0367
▁yorgan	-12.0368
▁zerre	-12.0368
▁imdat	-12.037
beledi	-12.037
▁googleın	-12.0371
▁olursunuz	-12.0372
▁milimetr	-12.0372
israil	-12.0372
▁işlek	-12.0372
atatürk	-12.0372
hiçbir	-12.0373
▁bulunuyoruz	-12.0375
▁ortodo	-12.0377
▁transit	-12.0378
▁efendim	-12.0378
▁tecrübeli	-12.0378
▁anderlecht	-12.0379
▁vatandaş	-12.0379
▁yükseltti	-12.0379
ehdi	-12.038
▁diyoruz	-12.0382
▁nürnberg	-12.0382
▁(20)	-12.0383
▁gözde	-12.0388
▁ekonomist	-12.0389
zih	-12.039
▁(5)	-12.039
▁Wen	-12.0391
ren	-12.0393
▁çıkacağız	-12.0393
▁itham	-12.0394
▁adına	-12.0394
▁takdirde	-12.0396
▁işgalin	-12.0397
▁kula	-12.0398
▁engelleme	-12.0398
▁mac	-12.0399
▁güner	-12.04
ou	-12.0403
:‘	-12.0403
▁temelli	-12.0403
▁beklenen	-12.0405
▁cani	-12.0405
▁yığın	-12.0407
▁onayladı	-12.041
yting	-12.0411
▁çoğ	-12.0413
▁verecektir	-12.0415
▁amk	-12.0417
▁olduklarını	-12.0418
▁depp	-12.0422
▁karşılık	-12.0423
▁stone	-12.0424
▁mevlana	-12.0424
▁uzan	-12.0428
▁kapat	-12.043
19	-12.043
▁fair	-12.043
▁değişiklik	-12.0432
▁azaltılma	-12.0432
▁niçin	-12.0432
▁poyraz	-12.0433
yn	-12.0436
▁ayrılır	-12.044
▁çed	-12.0441
▁karıştırıl	-12.0443
88	-12.0445
▁tüzük	-12.0451
▁boğuş	-12.0454
▁üstlendi	-12.0456
bin	-12.046
▁anna	-12.0461
▁etsin	-12.0464
▁izdi	-12.0473
▁yorgo	-12.048
▁topuz	-12.0484
-11	-12.0486
▁anıl	-12.0487
▁kararda	-12.0492
▁illa	-12.0496
▁kışla	-12.0502
rim	-12.0502
▁izliyor	-12.0503
▁imkanları	-12.0506
rek	-12.051
▁yönünde	-12.051
▁özelleştirilme	-12.0512
▁bekledi	-12.0516
▁havlu	-12.0517
larinda	-12.0523
tip	-12.0531
▁iddiaları	-12.0537
ahçelievler	-12.054
▁inanıyor	-12.0542
▁federasyonu	-12.0543
▁one	-12.0547
▁ezil	-12.0573
masında	-12.0575
▁iken	-12.0577
▁ker	-12.0579
has	-12.058
ıyorsunuz	-12.0581
▁nitelendiril	-12.0585
cd	-12.0589
▁iştirak	-12.0593
kamu	-12.0595
.9	-12.0595
▁ilçesi	-12.0598
ildi	-12.06
▁özellikleri	-12.0604
▁boks	-12.0613
▁söyler	-12.0621
duk	-12.0632
my	-12.0633
▁yaktı	-12.0633
▁yapabilme	-12.0634
▁seren	-12.0634
▁ınter	-12.0637
▁haram	-12.0637
▁atik	-12.0639
▁başlanacak	-12.064
▁ayran	-12.0641
▁kararlaştırıl	-12.0642
film	-12.0644
▁yaşlan	-12.0649
▁özelliği	-12.0653
tin	-12.0654
▁komedyen	-12.0654
▁çiçeğ	-12.0654
▁rahatsızlan	-12.0658
ardı	-12.0658
▁pür	-12.066
▁bşb	-12.0664
▁kütle	-12.0664
▁milano	-12.0664
▁acenta	-12.0665
▁master	-12.0666
kule	-12.0666
▁zedele	-12.0666
▁cömert	-12.0667
▁hentbol	-12.0667
▁kozmetik	-12.0667
▁nostalji	-12.0667
▁tarantino	-12.0667
▁viktor	-12.0667
▁zulüm	-12.0667
▁mandalina	-12.0667
▁hokey	-12.0667
▁ümraniye	-12.0667
▁ateist	-12.0667
▁kayınvalide	-12.0667
▁gediz	-12.0667
▁kefalet	-12.0667
▁cunku	-12.0667
▁cihangir	-12.0667
▁slovenya	-12.0667
▁1986	-12.0667
▁onkoloji	-12.0667
▁bildiriliyor	-12.0667
▁caretta	-12.0667
▁lokma	-12.0667
▁1975	-12.0667
▁miami	-12.0668
rıfat	-12.0668
▁reyhanlı	-12.0668
▁çatlak	-12.0668
▁staj	-12.0669
▁kaçarken	-12.0669
▁pepe	-12.0669
▁baysal	-12.0669
▁kumsal	-12.0669
▁android	-12.067
▁ımdb	-12.0671
▁üsteğmen	-12.0671
▁kıymetli	-12.0672
▁refik	-12.0672
▁husumet	-12.0672
▁mücevher	-12.0672
▁perihan	-12.0672
atör	-12.0672
▁ambar	-12.0673
▁mazot	-12.0673
▁berkin	-12.0675
▁eric	-12.0676
yaban	-12.0677
▁uludere	-12.0678
▁bulunmuştur	-12.0678
▁söylerk	-12.0678
▁hissedar	-12.0678
▁kürek	-12.0679
▁soyer	-12.068
▁aliyev	-12.0681
▁cihad	-12.0681
▁beklerken	-12.0681
▁nobre	-12.0681
▁kırkpınar	-12.0681
fe	-12.0682
▁söylendi	-12.0682
▁edildiğini	-12.0683
▁bulunduğu	-12.0683
sevgi	-12.0685
▁alkan	-12.0685
▁yardımcısı	-12.0687
çünkü	-12.0688
▁erdil	-12.0689
▁dalış	-12.069
▁makarna	-12.069
▁açıktır	-12.069
▁misin	-12.0694
▁boşaltıl	-12.0695
▁doktorlar	-12.0695
yon	-12.0699
▁sadi	-12.0699
▁başlarken	-12.0701
▁hadis	-12.0703
▁ri	-12.0703
▁çalıştım	-12.0704
▁üvey	-12.0706
▁akay	-12.0706
ts	-12.0707
▁1988	-12.0709
▁zanned	-12.0709
iri	-12.0711
▁hayalet	-12.0712
▁tarihinde	-12.0714
▁yapabiliriz	-12.0715
▁sincan	-12.0717
▁simit	-12.0718
lenmiştir	-12.0721
▁lady	-12.0723
▁tura	-12.0727
▁dinleti	-12.0731
▁barışçı	-12.0734
▁halka	-12.0736
41	-12.0736
liktir	-12.0737
ablo	-12.074
▁reşit	-12.0743
▁Wei	-12.0745
▁sadr	-12.0745
▁alınmış	-12.0746
eceğim	-12.0747
▁aj	-12.0753
▁sgk	-12.0753
ker	-12.0754
▁çekmişti	-12.0756
▁meral	-12.0758
ola	-12.0759
çü	-12.0759
▁gibiydi	-12.0759
oyun	-12.0762
▁za	-12.077
kamış	-12.0777
ib	-12.0785
▁ezan	-12.0786
▁108	-12.0788
miştim	-12.0792
ua	-12.0792
sch	-12.0792
üzel	-12.0793
▁sk	-12.0798
tüt	-12.0801
48	-12.0801
hu	-12.0802
▁imtiyaz	-12.0803
▁batman	-12.0804
▁kullanarak	-12.0809
▁görüntüley	-12.0818
veya	-12.082
▁patlak	-12.0821
▁andy	-12.0826
dağı	-12.0828
▁düzenliyor	-12.0831
▁sınırla	-12.0835
▁taşır	-12.0839
▁fuarı	-12.0842
▁günde	-12.0842
▁çizildi	-12.0846
dedir	-12.0847
wa	-12.0851
▁nerede	-12.0868
tt	-12.0868
▁hi	-12.0875
▁finaller	-12.0876
▁kurtuldu	-12.0878
▁tutuş	-12.0881
yit	-12.0882
madığını	-12.0883
▁indirildi	-12.0884
▁240	-12.0885
▁ayı	-12.0889
▁huy	-12.0893
▁törene	-12.0894
▁kesk	-12.0896
zam	-12.0908
det	-12.0909
ürüm	-12.091
miyorum	-12.091
masını	-12.0911
▁filipin	-12.0911
gr	-12.0917
aga	-12.0917
▁yansıtıl	-12.0922
ılamadı	-12.0934
ihai	-12.0935
▁piş	-12.0942
▁sefa	-12.0945
▁kurulacak	-12.0953
▁giydi	-12.0954
▁sektörü	-12.0955
▁tuzak	-12.0956
▁göksu	-12.0957
kolojik	-12.0959
▁hazırlandı	-12.096
▁news	-12.0961
99	-12.0966
▁gidişat	-12.0971
emedim	-12.0971
▁yükseltil	-12.0971
yurt	-12.0974
adil	-12.0975
batı	-12.0976
▁şakir	-12.0976
▁alfabe	-12.0977
tığını	-12.0978
▁zeybek	-12.0978
▁reyhan	-12.0979
▁kütük	-12.0979
▁migros	-12.0979
▁mülakat	-12.0979
▁street	-12.0979
▁şarampol	-12.0979
▁0-0	-12.0979
▁beykoz	-12.0979
▁bertaraf	-12.0979
▁alexander	-12.0979
▁niyazi	-12.0979
▁sesleniyorum	-12.0979
▁hayrettin	-12.0979
▁düşünmüyorum	-12.0979
▁gürses	-12.0979
▁kidman	-12.0979
▁hükümdar	-12.098
▁düşündüm	-12.098
▁uzatılma	-12.098
▁otururken	-12.098
▁maradona	-12.098
▁kocadon	-12.098
▁karakuş	-12.098
▁hacim	-12.0981
▁görüşülme	-12.0981
▁öymen	-12.0981
▁soba	-12.0981
▁çetinkaya	-12.0982
▁zar	-12.0982
▁jenni	-12.0982
▁bilgilendirme	-12.0982
▁yapıldığı	-12.0982
ayım	-12.0984
▁porto	-12.0984
▁vermiyor	-12.0984
▁brifing	-12.0984
▁aytaç	-12.0984
▁hitaben	-12.0985
▁çayır	-12.0986
▁kurulmuştur	-12.0987
▁sakız	-12.0989
▁caferi	-12.0989
▁bakıyorum	-12.0989
▁alves	-12.0989
▁uslu	-12.099
▁pürüz	-12.099
▁töre	-12.099
▁düşeni	-12.0992
▁vietnam	-12.0992
▁dilerim	-12.0992
▁107	-12.0992
▁eczacıbaşı	-12.0994
▁rastgele	-12.0994
▁yapılmıştı	-12.0997
▁salata	-12.0997
▁kullanırken	-12.0997
▁edecekler	-12.0998
▁hotel	-12.0999
▁sarıca	-12.0999
▁ayırdı	-12.1
▁salgın	-12.1
▁gelebilir	-12.1002
kat	-12.1003
▁tofaş	-12.1003
▁nicole	-12.1003
▁ogün	-12.1004
▁www	-12.1004
▁parker	-12.1005
▁dikkatle	-12.1007
masının	-12.1007
beyazlı	-12.1009
▁geçir	-12.101
▁eşsiz	-12.1011
çalışma	-12.1012
▁alerji	-12.1013
▁ceyhan	-12.1013
▁taşlı	-12.1015
lenecek	-12.1016
futbol	-12.1018
▁müdürü	-12.1022
aday	-12.1023
▁pyd	-12.1023
▁başlamıştır	-12.1026
▁charli	-12.1027
18	-12.103
▁marina	-12.1033
▁veriyorum	-12.1034
▁86	-12.1034
▁karate	-12.104
▁mola	-12.1041
▁günlerde	-12.1048
▁buldum	-12.105
▁bildir	-12.1053
▁ırmak	-12.1056
ilecek	-12.1058
rit	-12.1059
▁delta	-12.1062
lıyorum	-12.1063
▁karne	-12.1064
▁yup	-12.1066
tireceğiz	-12.1067
▁taslağ	-12.1076
▁4-	-12.1076
klarını	-12.1079
▁sorunları	-12.1079
çam	-12.1079
17	-12.1081
▁kızım	-12.1083
▁göstermektedir	-12.1087
maları	-12.1088
▁delik	-12.1088
▁fin	-12.1091
▁3,5	-12.1093
ika	-12.1094
▁tutuluyor	-12.1097
▁sunuluyor	-12.1099
sinler	-12.11
▁:)	-12.1102
aşılma	-12.1102
andırıcı	-12.1105
▁arma	-12.1105
zaman	-12.1105
▁alması	-12.1106
▁eker	-12.1107
▁dok	-12.1107
▁aras	-12.1108
▁söylüyorlar	-12.1109
-19	-12.1112
▁orantı	-12.1115
▁şüpheli	-12.1117
▁idil	-12.112
▁güls	-12.112
▁eklenti	-12.1126
acaksınız	-12.1127
▁geçid	-12.1132
▁kullanımı	-12.1135
▁cevher	-12.1138
▁görür	-12.1139
▁kase	-12.1139
▁suni	-12.1144
▁alkışla	-12.1149
▁kalça	-12.115
mayız	-12.115
▁tanrıça	-12.1152
▁dondur	-12.1155
▁bab	-12.1157
irk	-12.1162
▁yaralanmıştı	-12.1164
.’	-12.1166
▁185	-12.1171
lendir	-12.1171
lon	-12.1175
of	-12.1176
▁pr	-12.1178
▁kazanan	-12.1183
▁uzaklaştı	-12.1186
▁cemaati	-12.1187
▁yönelt	-12.1189
▁kazanıyor	-12.119
▁başlaması	-12.1191
duğunu	-12.1192
▁yazıyor	-12.1193
ümgeneral	-12.1211
▁dolan	-12.1212
▁soğu	-12.1217
▁arıcı	-12.1219
▁seçti	-12.1223
▁cr	-12.1224
ele	-12.1225
▁6-3	-12.1227
▁avukatları	-12.1228
masıyla	-12.1236
▁bağlandı	-12.1238
▁seribaş	-12.1239
memiştir	-12.124
▁düzeltil	-12.1246
▁hareketi	-12.1247
▁tbmmn	-12.1266
layan	-12.1266
yapıl	-12.1267
▁101	-12.1276
▁kırıldı	-12.1277
maktan	-12.1282
▁şa	-12.1282
▁belki	-12.1284
▁soruyor	-12.1285
▁paten	-12.1287
▁she	-12.1289
▁simav	-12.1291
▁stk	-12.1293
▁nabi	-12.1298
▁tuval	-12.1299
▁istemişti	-12.1301
▁pitt	-12.1301
▁centilmen	-12.1302
▁eşgüdüm	-12.1302
▁koordine	-12.1302
▁muhakkak	-12.1302
▁sağduyu	-12.1302
▁yörük	-12.1302
▁antibiyotik	-12.1302
▁acayip	-12.1302
behçet	-12.1302
▁cazibe	-12.1302
▁aıds	-12.1302
▁barbar	-12.1302
▁yegane	-12.1302
▁carrey	-12.1302
▁hakikaten	-12.1302
▁limited	-12.1302
▁düşünülüyor	-12.1302
▁gökbakar	-12.1302
▁yaralanan	-12.1303
▁tanıttı	-12.1303
▁korner	-12.1303
▁öncesinde	-12.1304
▁ciğer	-12.1304
▁oyuncusu	-12.1304
▁kanalıyla	-12.1304
▁tırnak	-12.1305
▁yönetecek	-12.1305
▁kürtaj	-12.1306
larina	-12.1306
▁artarken	-12.1306
▁canaydın	-12.1307
▁5-10	-12.1307
▁tramvay	-12.1307
▁1972	-12.1307
▁diri	-12.1308
▁anlaşılıyor	-12.1309
▁ımfnin	-12.1309
▁arçelik	-12.131
▁getireceğiz	-12.131
▁eminim	-12.131
▁bekleyen	-12.1311
▁kardem	-12.1311
▁soğutma	-12.1313
▁tesadüf	-12.1315
▁görmedim	-12.1316
lıyoruz	-12.1316
▁dönecek	-12.1317
▁mega	-12.1317
▁etmiyorum	-12.1318
▁medical	-12.1318
▁bellek	-12.132
▁cil	-12.1322
▁dolap	-12.1323
▁cop	-12.1326
ıldığında	-12.1326
▁harvard	-12.1327
▁göbek	-12.1327
▁saklı	-12.1328
▁kazanmıştır	-12.1328
amık	-12.1329
▁buzul	-12.133
tat	-12.1331
-8	-12.1331
▁göksel	-12.1332
▁arpa	-12.1333
▁geçerk	-12.1333
▁festivale	-12.1335
▁brad	-12.1335
▁pervi	-12.1335
kardeş	-12.1336
▁avrasya	-12.1337
rlar	-12.1338
belki	-12.1339
▁ören	-12.134
▁vezir	-12.1341
▁serap	-12.1342
hedef	-12.1342
▁alınır	-12.1345
▁twitterdan	-12.1346
▁lisesi	-12.1346
▁dortmund	-12.1347
▁yineledi	-12.1349
▁zalim	-12.135
üj	-12.135
▁dig	-12.1353
▁belirleyecek	-12.1353
▁yapılmaktadır	-12.1354
▁oynanma	-12.1354
▁kabullen	-12.1354
▁bombala	-12.1356
▁tuğla	-12.1356
▁ülkeleri	-12.1356
▁yaratır	-12.1357
▁girerk	-12.1358
▁paketi	-12.1359
▁gösterdiler	-12.1361
tl	-12.1361
▁okuma	-12.1363
eyim	-12.1365
▁kalktı	-12.1368
mızda	-12.1371
geri	-12.1374
▁şişman	-12.1374
deniz	-12.1375
▁kitabı	-12.1378
hay	-12.1378
diğ	-12.1379
▁pak	-12.138
▁spot	-12.138
▁güncelleme	-12.1381
▁yillar	-12.1385
▁terket	-12.1385
▁planı	-12.139
▁kota	-12.1393
▁geçmesi	-12.1401
▁giderek	-12.1406
▁alıyorlar	-12.1409
▁evli	-12.1412
▁Wars	-12.1414
▁içerir	-12.1415
▁bddk	-12.1415
▁terapi	-12.1416
▁hala	-12.1416
▁gelsin	-12.1425
47	-12.1427
▁280	-12.143
▁nick	-12.1433
▁ısır	-12.1434
▁genişletil	-12.1434
▁justin	-12.1438
▁ıso	-12.1438
▁desen	-12.1441
▁toparlan	-12.1443
▁eğitimi	-12.1444
emiyor	-12.1445
▁(3	-12.145
mayacak	-12.1453
▁arkadaşım	-12.1464
▁oyn	-12.1466
▁tatlı	-12.1466
▁söylemiş	-12.1467
ation	-12.1469
▁galat	-12.1473
00	-12.1475
▁ağırladı	-12.1476
klerini	-12.148
▁verip	-12.1481
til	-12.1482
▁song	-12.1482
▁olacaklar	-12.1483
▁ödenecek	-12.1486
uş	-12.1491
▁kov	-12.1496
llo	-12.15
▁oluştur	-12.1505
▁öğrendik	-12.151
▁milletvekilleri	-12.1511
▁apps	-12.1512
37	-12.1514
▁jon	-12.1516
ml	-12.1522
▁pen	-12.1524
▁hatır	-12.1527
▁sıva	-12.1535
▁hidro	-12.1536
▁ydu	-12.1538
lin	-12.1539
asuman	-12.1539
nacak	-12.1544
▁kazanır	-12.1545
▁çıkartıldı	-12.1546
▁twitter	-12.155
▁kapkaç	-12.1553
▁forması	-12.156
▁hakları	-12.1563
▁mama	-12.1568
▁çöktü	-12.1569
Ma	-12.157
▁tuş	-12.158
▁dergisi	-12.1586
▁parla	-12.1586
başbak	-12.1587
hi	-12.1591
▁gerçekleştirdik	-12.1591
rt	-12.1596
▁peker	-12.1598
▁katılın	-12.1601
▁joe	-12.1604
▁bozuldu	-12.1606
nar	-12.161
▁örgütleri	-12.1612
ılırken	-12.1618
▁löse	-12.1619
▁anka	-12.1621
▁davası	-12.1621
▁parsel	-12.1621
ılacak	-12.1621
ethem	-12.1623
yl	-12.1626
per	-12.1626
▁ajansı	-12.1627
rasim	-12.1628
▁1200	-12.163
▁aksesuar	-12.1633
▁sakal	-12.1634
▁demirör	-12.1634
▁w	-12.1635
▁Wimbledon	-12.1635
▁konsorsiyum	-12.1635
▁kubilay	-12.1635
▁matbaa	-12.1635
▁molekül	-12.1635
▁yurdakul	-12.1635
▁sinemia	-12.1635
▁spurs	-12.1635
▁konfeksiyon	-12.1635
▁yerleşke	-12.1635
▁çeçenistan	-12.1635
▁23.00	-12.1635
▁libero	-12.1635
▁siverek	-12.1635
▁vurguluyor	-12.1635
▁çağatay	-12.1635
▁kombine	-12.1635
▁mithat	-12.1635
▁haykır	-12.1635
ğuta	-12.1635
▁şahsiyet	-12.1636
▁enzim	-12.1636
EDE	-12.1636
▁mahalli	-12.1636
▁göstergesidir	-12.1636
▁gayrı	-12.1637
▁cannes	-12.1637
▁masaüstü	-12.1637
▁müziksever	-12.1637
▁kısıtlı	-12.1637
▁anlatıldı	-12.1637
▁ışıkkent	-12.1638
▁kanadalı	-12.1638
▁çalındı	-12.1638
▁zammı	-12.1638
mesini	-12.1639
▁5-6	-12.1639
▁goz	-12.1639
▁şeria	-12.164
▁acıbadem	-12.164
russia	-12.164
▁sağlayacağız	-12.164
▁bilemiyorum	-12.164
▁patlıcan	-12.1641
▁talabani	-12.1641
▁vatikan	-12.1641
▁anthony	-12.1641
▁frekans	-12.1641
▁beklerk	-12.1641
▁koyalım	-12.1641
▁mezra	-12.1642
▁hard	-12.1643
▁20.30	-12.1643
▁burası	-12.1644
▁kırgın	-12.1644
▁ekvador	-12.1646
▁kazanmıştı	-12.1646
ting	-12.1647
▁gil	-12.1649
▁öncesi	-12.1649
▁sancak	-12.1649
▁fasulye	-12.1651
▁zeynel	-12.1651
▁ihrac	-12.1651
▁sağlanıyor	-12.1653
▁cafer	-12.1654
▁azeri	-12.1655
▁bariz	-12.1656
▁tarikat	-12.1657
▁başında	-12.1657
▁1976	-12.1659
▁saygun	-12.1662
▁çıkıyoruz	-12.1663
▁sahra	-12.1664
▁guy	-12.1665
▁hastalığı	-12.1666
▁(7)	-12.1668
tatvan	-12.1668
▁kreş	-12.1671
▁muhsin	-12.1671
▁yaşadım	-12.1672
▁şemsiye	-12.1672
▁vahim	-12.1673
▁halat	-12.1676
medim	-12.1677
▁müzikal	-12.1679
▁yürürk	-12.168
▁jest	-12.1682
▁özlü	-12.1682
▁maçında	-12.1684
proje	-12.1685
inşallah	-12.1685
cumhuriyet	-12.1685
mehmet	-12.1686
▁bros	-12.1686
gizli	-12.1687
▁yürütülme	-12.1688
suriye	-12.1689
▁endeksi	-12.1691
ımf	-12.1692
▁hakemler	-12.1692
▁açıklamaları	-12.1693
▁konseri	-12.1693
▁ihsanoğ	-12.1694
▁(2)	-12.1694
▁abant	-12.1694
▁bağlıdır	-12.1694
▁öğüt	-12.1695
▁attım	-12.1697
▁başak	-12.1701
▁attılar	-12.1702
▁yönetti	-12.1702
▁bridge	-12.1703
mümin	-12.1706
75	-12.1707
kal	-12.1708
▁je	-12.1709
▁num	-12.1711
▁116	-12.1711
▁çalışır	-12.1712
arım	-12.1712
▁Wer	-12.1712
▁ilişkin	-12.1713
engel	-12.1714
▁yenildi	-12.1715
▁kesiş	-12.1718
ayrı	-12.172
ulus	-12.1724
▁fbı	-12.1725
▁reçete	-12.1725
▁pal	-12.1726
saydı	-12.1726
▁yeşim	-12.1727
▁nedeni	-12.1728
▁kurulması	-12.1728
dılar	-12.1729
iwan	-12.1731
▁nazik	-12.1734
▁mtv	-12.1737
larara	-12.1739
nter	-12.174
avi	-12.1742
▁şaşırdı	-12.1743
▁nazar	-12.1746
madığı	-12.1747
▁cikar	-12.1748
▁şarkıcı	-12.1749
▁olacağını	-12.175
▁mah	-12.1751
▁savunu	-12.1753
çu	-12.1753
▁yetkilisi	-12.1754
nere	-12.1755
yy	-12.1755
▁1955	-12.1766
▁yaramaz	-12.1766
▁manuel	-12.1767
beş	-12.1768
fire	-12.1768
▁gitmiş	-12.1769
14	-12.1775
▁nuh	-12.178
▁muhabiri	-12.1781
▁anımsatıl	-12.1781
▁sızma	-12.1789
▁medrese	-12.1791
▁savcı	-12.1795
ron	-12.1799
▁prix	-12.1805
tina	-12.1806
BA	-12.1809
menin	-12.181
▁bach	-12.1814
▁sergisi	-12.1825
ıyorsun	-12.183
▁cemevi	-12.1833
▁kronik	-12.1834
MA	-12.1834
▁süresi	-12.1838
▁04	-12.1841
ueen	-12.1841
ilmektedir	-12.1843
set	-12.1848
▁komitesi	-12.1852
▁olmus	-12.1852
▁araştırılma	-12.1853
gar	-12.1854
▁off	-12.1855
▁yağdır	-12.1857
▁850	-12.1861
▁sport	-12.1864
▁açacak	-12.1867
▁yaparlar	-12.1867
▁bağırdı	-12.1868
zade	-12.1868
TA	-12.1869
▁teknolojisi	-12.1872
▁pre	-12.1876
▁dönüşüm	-12.1882
▁takib	-12.1884
landırılma	-12.1884
ade	-12.1888
▁istanbulda	-12.1891
▁onu	-12.1892
▁miydi	-12.1893
33	-12.1893
▁sana	-12.1896
▁iyidir	-12.1897
▁odağı	-12.1899
▁kolon	-12.1901
▁atmıştı	-12.1922
▁enişte	-12.1924
▁mir	-12.1926
▁masal	-12.1931
▁aranıyor	-12.1934
▁deg	-12.1935
▁afrin	-12.1935
▁gerçekleşecek	-12.1935
▁inat	-12.1941
▁öldüğü	-12.1944
▁alamadı	-12.1946
ırlar	-12.1946
suç	-12.1951
kut	-12.1951
iki	-12.1955
▁keşfet	-12.1956
con	-12.1957
ılma	-12.1959
▁bayramı	-12.1963
▁açar	-12.1965
ata	-12.197
▁bilin	-12.1973
zede	-12.1974
rım	-12.1976
▁bildirmişti	-12.1976
▁mahrum	-12.1979
üyükçekmece	-12.198
opotam	-12.198
▁başesgioğlu	-12.198
▁delgado	-12.198
▁filozof	-12.198
▁gelibolu	-12.198
▁kebap	-12.198
▁müzayede	-12.198
▁aktivist	-12.198
▁capital	-12.198
▁karanfil	-12.198
▁lopez	-12.198
▁tuncer	-12.198
▁tayfur	-12.198
▁timsah	-12.198
▁klip	-12.198
▁kargaşa	-12.198
▁filtre	-12.198
▁fehmi	-12.198
▁erdinç	-12.198
▁(32)	-12.198
▁menzil	-12.198
▁bebeğe	-12.198
▁kunter	-12.198
ençlerbirliği	-12.198
▁bagaj	-12.198
▁selvitopu	-12.198
▁şaşırttı	-12.198
▁hobi	-12.198
▁fesat	-12.1981
▁yeşilçam	-12.1981
▁yüküm	-12.1981
▁pırlanta	-12.1981
▁aktarıldı	-12.1981
▁(33)	-12.1982
▁diyadin	-12.1983
▁dudak	-12.1983
▁oturan	-12.1983
▁speed	-12.1983
▁tüfeği	-12.1983
▁sürdürüyoruz	-12.1983
▁yasaklanma	-12.1983
▁diyelim	-12.1984
▁6-4	-12.1984
▁sağlayacaktır	-12.1984
▁abart	-12.1985
for	-12.1985
▁ruhsal	-12.1986
▁akvaryum	-12.1986
▁gaddar	-12.1986
▁mehmed	-12.1986
▁tebligat	-12.1986
▁tabanca	-12.1987
▁vatansever	-12.1987
▁nbade	-12.1987
▁kenya	-12.1988
▁kaynaklanıyor	-12.1988
:‘‘	-12.199
▁mektupta	-12.199
▁örgü	-12.1993
▁slam	-12.1993
▁yüksekova	-12.1994
▁adapt	-12.1994
▁yazarken	-12.1994
tası	-12.1995
▁kırca	-12.1995
▁rahip	-12.1996
▁ronaldinho	-12.1996
▁müsait	-12.1996
seniz	-12.1999
gah	-12.2
▁1944	-12.2001
▁güvenilir	-12.2002
▁etmeyin	-12.2006
lanır	-12.2006
▁linux	-12.2007
▁sordum	-12.2007
▁törenine	-12.2007
▁manyeti	-12.2007
▁hikayesi	-12.2009
▁ertaş	-12.2009
layacağız	-12.2012
▁basma	-12.2013
iyordu	-12.2013
▁(30)	-12.2015
▁kosgeb	-12.2017
▁teneke	-12.2017
▁niteledi	-12.202
polen	-12.2022
▁tedaş	-12.2022
▁kelebek	-12.2029
boy	-12.2032
merkez	-12.2032
▁haliç	-12.2032
port	-12.2033
▁barbaros	-12.2036
▁sömürü	-12.2038
▁your	-12.204
▁attık	-12.204
▁1.1	-12.2042
özgür	-12.2042
▁yığıl	-12.2043
barış	-12.2043
vergi	-12.2044
ıldı	-12.2045
aynı	-12.2047
▁6.5	-12.2047
kuş	-12.2054
▁hükmetti	-12.2062
▁üretiyor	-12.2068
galatasaray	-12.207
ahattin	-12.2071
▁anıldı	-12.2072
▁çıkmıştır	-12.2073
▁ayin	-12.2074
yalım	-12.2075
▁alo	-12.2076
▁elena	-12.2077
▁isteyenler	-12.208
▁Ankara	-12.2082
▁bikini	-12.2083
▁sitesi	-12.2084
▁shi	-12.2086
▁sürücü	-12.2096
saat	-12.2097
lis	-12.2099
▁mut	-12.2108
▁kimdir	-12.211
lanladı	-12.2112
▁ödüyor	-12.212
▁petrolü	-12.2123
ste	-12.2125
▁https	-12.2132
soru	-12.2133
▁kabahat	-12.2141
ğını	-12.2143
▁toparla	-12.2145
▁pres	-12.2148
▁loto	-12.2149
▁ödemiş	-12.215
lacivertliler	-12.2151
▁saate	-12.2152
▁doktora	-12.2155
▁adedi	-12.2156
lenir	-12.2157
ildiğini	-12.2159
▁8.5	-12.2163
eh	-12.2163
sd	-12.2168
afiyet	-12.2169
meyecektir	-12.2172
vatan	-12.2177
▁yapabilir	-12.218
▁diyar	-12.218
▁tamamlanacak	-12.2181
▁afad	-12.2191
06	-12.2191
▁durur	-12.2195
▁anaf	-12.2199
▁onem	-12.2209
layın	-12.2216
meye	-12.2217
▁serdi	-12.2217
lt	-12.2218
▁kıs	-12.2225
▁muh	-12.2225
▁sark	-12.2226
▁şubesi	-12.2227
▁dow	-12.2236
▁karama	-12.2236
▁ör	-12.2236
▁üretimi	-12.2236
bata	-12.2239
▁kontrolleri	-12.224
▁önünde	-12.2243
▁ııı	-12.2243
day	-12.2247
ny	-12.2247
▁hiz	-12.2252
ans	-12.2258
mon	-12.226
kış	-12.2266
zur	-12.2271
▁etmey	-12.2272
▁1981	-12.2274
▁sözü	-12.2274
▁guc	-12.2275
ct	-12.2279
▁luis	-12.2279
▁tüzüğ	-12.2282
ud	-12.2282
▁esat	-12.2287
▁alma	-12.2294
▁havaalan	-12.2295
▁dun	-12.2301
siyle	-12.2302
▁salak	-12.2302
▁coş	-12.2306
▁seslendi	-12.2309
kes	-12.2312
▁başlattık	-12.2313
▁12.00	-12.2313
▁sinyal	-12.2315
76	-12.2321
yü	-12.2323
▁işler	-12.2325
▁bon	-12.2326
▁opsiyon	-12.233
▁sarsıntı	-12.2336
▁nezaret	-12.2337
▁gübre	-12.2337
▁estonya	-12.2337
▁muvazzaf	-12.2337
▁kalaşnikof	-12.2337
▁radyasyon	-12.2337
▁değiştirildi	-12.2337
▁houston	-12.2337
▁akçakale	-12.2337
▁bieber	-12.2337
▁zavallı	-12.2337
▁bulunamadı	-12.2337
▁balayı	-12.2337
▁bartın	-12.2338
▁gomez	-12.2338
▁petek	-12.2338
▁chow	-12.2338
▁asena	-12.2338
▁aktris	-12.2338
▁vardiya	-12.2338
▁zico	-12.2338
▁önleme	-12.2338
▁osmangazi	-12.2338
▁karbon	-12.2338
▁hırvat	-12.2339
▁çalgı	-12.2339
▁affleck	-12.2339
aşk	-12.2339
▁kurdele	-12.2339
▁sınai	-12.234
▁semra	-12.234
▁yayımladı	-12.234
▁sandal	-12.2341
▁ergun	-12.2341
▁nazilli	-12.2341
▁meğer	-12.2342
▁şahane	-12.2342
▁kaşık	-12.2343
▁akabinde	-12.2343
▁ebeveyn	-12.2343
▁obezite	-12.2343
▁klozet	-12.2343
▁enstrüman	-12.2343
▁(34)	-12.2344
▁music	-12.2344
▁Will	-12.2344
▁yazdırdı	-12.2345
▁aviv	-12.2345
▁hile	-12.2345
gerçekleştirecek	-12.2345
▁yetiştirilme	-12.2346
▁kalkıyor	-12.2347
▁arttırılma	-12.2348
▁aylin	-12.2348
▁tacik	-12.2348
▁isviçreli	-12.2348
▁barınak	-12.235
▁sinyaller	-12.235
▁ediyorsunuz	-12.2353
▁yürüyüş	-12.2353
▁cameron	-12.2354
▁bünya	-12.2354
▁yapılacaktır	-12.2355
▁kavra	-12.2357
▁söylerken	-12.2362
▁dizel	-12.2363
▁aynur	-12.2365
▁çalışmalar	-12.2365
ling	-12.2365
▁sporcu	-12.2366
▁ayrica	-12.2366
▁that	-12.2367
▁rüştü	-12.2367
▁anlatılıyor	-12.2367
▁ypg	-12.2367
▁şantaj	-12.2368
mezse	-12.2368
▁yine	-12.237
.5	-12.237
▁ferit	-12.2371
▁kısmet	-12.2372
▁kazık	-12.2373
▁biten	-12.2373
▁kalkış	-12.2374
▁cüce	-12.2374
▁7-8	-12.2376
▁joker	-12.2376
▁isterken	-12.2378
▁feli	-12.2379
▁doruk	-12.2379
▁akpde	-12.238
▁mönü	-12.2381
▁ahali	-12.2382
▁konakla	-12.2382
▁erten	-12.2383
▁mumcu	-12.2385
▁özdağ	-12.2385
▁sahi	-12.2386
▁hasat	-12.2386
eğit	-12.239
▁psikiyatri	-12.239
ona	-12.2392
▁derecesi	-12.2392
▁valiz	-12.2394
▁çıkış	-12.2394
▁cezai	-12.2397
▁mahir	-12.2397
▁kısıtlama	-12.2399
▁tmsfn	-12.24
▁tap	-12.2402
▁etkinlik	-12.2402
▁halleri	-12.2405
▁şenel	-12.2409
▁sihir	-12.241
▁pişiril	-12.2412
mustafa	-12.2413
tekin	-12.2414
▁dul	-12.2415
▁urfa	-12.2416
▁tav	-12.2417
yerel	-12.2418
▁taşıyan	-12.2421
rat	-12.2421
yın	-12.2423
▁belgesi	-12.2424
▁aralık	-12.2424
▁saatle	-12.2424
32	-12.2427
▁rick	-12.2429
nasıl	-12.2431
▁oyları	-12.2431
▁batur	-12.2431
saha	-12.2437
bağ	-12.2441
▁sudan	-12.2441
▁cığ	-12.2441
▁diyordu	-12.2443
▁olayları	-12.2446
tem	-12.2447
giz	-12.2451
▁büyüdü	-12.2452
▁yazık	-12.2452
▁kisi	-12.2452
▁sanki	-12.2455
▁(8	-12.2458
▁gözlemle	-12.246
güven	-12.2462
▁sira	-12.2464
anti	-12.2465
rabia	-12.2468
▁yorumladı	-12.2468
▁22.	-12.2471
eksiksiz	-12.2472
▁avlan	-12.2473
▁tanıştı	-12.2473
▁ju	-12.2484
▁salt	-12.2484
gn	-12.2485
ster	-12.2488
▁abdul	-12.2491
▁atlı	-12.2494
we	-12.2495
riz	-12.2495
▁yavaşla	-12.2495
▁175	-12.2496
▁dark	-12.2498
▁korudu	-12.2498
cem	-12.25
▁alıyorum	-12.2502
▁çeken	-12.2502
▁açılması	-12.2503
▁ambargo	-12.2503
sonu	-12.2506
KA	-12.2506
▁atar	-12.2507
cal	-12.2508
▁sınırlama	-12.2513
▁kom	-12.2513
ec	-12.2514
sh	-12.2516
▁kattı	-12.2518
▁147	-12.2518
lanarak	-12.2527
hasta	-12.2527
▁oh	-12.2535
▁sanayii	-12.2536
başk	-12.2538
▁kuruluşları	-12.2548
▁susam	-12.256
iyo	-12.2563
▁yapsın	-12.2563
▁kristal	-12.2564
siydi	-12.2565
▁selamla	-12.2571
▁pan	-12.2574
▁katılması	-12.2575
▁uyarla	-12.2575
enformasyon	-12.2579
▁tanığ	-12.258
zar	-12.2588
▁dekor	-12.2589
▁07	-12.259
nü	-12.2592
▁sha	-12.2592
▁alınmadı	-12.2595
amıyorum	-12.2596
▁olabilme	-12.2596
▁kac	-12.26
kos	-12.26
rmik	-12.2603
▁İstanbul	-12.2609
▁yakin	-12.2613
▁sıfatı	-12.2614
▁134	-12.2617
rs	-12.2622
sik	-12.2634
bugüne	-12.2636
▁çevrili	-12.2639
▁yırtı	-12.264
▁ezber	-12.2641
▁harfler	-12.2642
▁suçlanıyor	-12.2646
!!!	-12.2647
lıktır	-12.2652
mayacaktır	-12.2653
▁arabulu	-12.2655
▁4-1	-12.2658
▁eseri	-12.2662
▁kel	-12.2673
og	-12.2676
27	-12.2682
lamak	-12.2683
abilirler	-12.2686
▁123	-12.2688
▁stockholm	-12.2693
▁gr	-12.2697
▁bull	-12.2699
▁biyoloji	-12.2699
▁etkilendi	-12.2703
▁andrew	-12.2703
akıl	-12.2703
▁süreci	-12.2704
▁vaziyet	-12.2705
▁slovak	-12.2705
▁rıdv	-12.2705
▁alparsl	-12.2705
▁narenciye	-12.2707
▁hanımefendi	-12.2707
▁lüksemburg	-12.2707
▁marvel	-12.2707
▁kağan	-12.2707
▁neslihan	-12.2707
▁taylor	-12.2707
▁gencecik	-12.2707
▁kübra	-12.2707
▁üslup	-12.2707
▁orjinal	-12.2707
▁felluce	-12.2707
▁fenomen	-12.2707
▁rauf	-12.2707
▁sürdürürk	-12.2707
▁müddet	-12.2708
motive	-12.2708
▁kervansaray	-12.2708
▁egzo	-12.2708
▁düdük	-12.2708
▁talihsiz	-12.2708
▁akkaş	-12.2708
▁sofya	-12.2708
▁kınık	-12.2708
▁perspektif	-12.2708
▁university	-12.2709
▁uyurken	-12.2709
▁civarında	-12.2709
▁spiker	-12.271
▁spekülasyon	-12.271
▁karatay	-12.271
▁19.30	-12.2711
▁pastane	-12.2711
▁otomobi	-12.2711
▁çarpışma	-12.2711
▁doldurdu	-12.2712
ty	-12.2712
▁sabıka	-12.2712
▁victoria	-12.2712
▁keman	-12.2712
▁özhan	-12.2713
▁bildirimi	-12.2713
ırım	-12.2713
▁valencia	-12.2714
▁gideceğiz	-12.2714
▁tutsak	-12.2716
▁gereği	-12.2716
▁terry	-12.2716
▁balcı	-12.2718
▁mekanik	-12.2718
▁serinle	-12.2719
▁sömürge	-12.2719
▁samsung	-12.272
▁Wall	-12.272
▁görmüş	-12.272
▁kabile	-12.2721
▁arındırıl	-12.2722
▁vu	-12.2722
▁giyin	-12.2722
nazi	-12.2724
▁aydemir	-12.2725
▁beylikdüzü	-12.2725
▁tiryaki	-12.2725
▁inovasyon	-12.2725
▁karasu	-12.2727
Mİ	-12.2727
▁külliye	-12.2728
▁artvin	-12.2728
▁114	-12.2728
▁yoksun	-12.2729
▁gülay	-12.2729
▁(17)	-12.2731
▁yaparız	-12.2732
lem	-12.2734
▁görülebilir	-12.2735
▁gereklidir	-12.2735
akut	-12.2735
▁cehalet	-12.2736
sret	-12.2737
▁vakıfbank	-12.2737
-6	-12.2739
▁2019	-12.274
▁mercan	-12.2741
▁1923	-12.2742
arken	-12.2744
▁biçer	-12.2745
▁basını	-12.2746
▁(4)	-12.2747
▁sociedad	-12.2748
▁faşizm	-12.2748
▁büyükbaş	-12.2749
▁oyak	-12.275
uluyor	-12.2752
▁genelev	-12.2753
▁bilimadam	-12.2755
▁verdiğini	-12.2756
▁nuray	-12.2759
▁julian	-12.2759
ekonomik	-12.276
▁filmleri	-12.2761
şa	-12.2762
▁kefe	-12.2762
▁kazandırdı	-12.2764
fo	-12.2767
▁stra	-12.2767
▁tipik	-12.2768
▁kahverengi	-12.2769
▁sürücüler	-12.2769
▁inanan	-12.277
▁görüşünde	-12.2771
▁lamba	-12.2772
▁beraberlik	-12.2773
▁şili	-12.2775
▁allen	-12.2777
Beşiktaş	-12.2779
▁sine	-12.278
gov	-12.2782
▁102	-12.2783
▁bilgiç	-12.2783
görev	-12.2784
▁dolandır	-12.2785
▁batu	-12.2785
▁state	-12.2788
▁spk	-12.279
▁ishal	-12.279
▁yaptigi	-12.2793
eee	-12.2795
demokratik	-12.2797
demokrasi	-12.2797
▁iphone	-12.2797
üniversite	-12.2798
pazar	-12.2799
sosyal	-12.2802
▁bond	-12.2802
▁biç	-12.2802
▁düzeltilme	-12.2803
▁alınan	-12.2803
▁subaşı	-12.2804
▁kaydediliyor	-12.2807
▁kalmıyor	-12.2808
▁siper	-12.2809
▁havale	-12.2813
▁istemiş	-12.2814
ılabiliyor	-12.2816
49	-12.282
▁01	-12.2824
▁marie	-12.2826
▁sattı	-12.2828
rus	-12.2829
▁bakış	-12.283
hr	-12.2835
afineri	-12.2835
▁serik	-12.284
▁çıkabilir	-12.2843
▁pazaryeri	-12.2846
▁xxx	-12.2848
çağ	-12.2849
che	-12.285
▁döneminde	-12.2853
▁2)	-12.2855
eminist	-12.2855
▁fırlatıl	-12.286
▁müdürleri	-12.2862
▁arayan	-12.2862
▁umur	-12.2864
etti	-12.2872
▁deniyor	-12.2874
onu	-12.2875
▁bırakıyor	-12.2886
▁hd	-12.2888
▁beni	-12.2889
▁firması	-12.289
▁dağıtılma	-12.2892
▁big	-12.2893
▁kadrosu	-12.2898
▁hijyen	-12.2899
▁altıpar	-12.2899
▁ras	-12.2901
01	-12.2906
▁blue	-12.2907
dayken	-12.2908
▁uzattı	-12.2913
▁denet	-12.2916
annem	-12.2917
mayıp	-12.2917
▁döşe	-12.2918
▁yayınları	-12.2918
mayacağız	-12.2922
zen	-12.2926
▁terminali	-12.2927
▁onar	-12.2929
▁uyarlama	-12.293
▁başlayan	-12.2931
anı	-12.2933
sert	-12.2934
▁yapıyordu	-12.2936
▁pierr	-12.2937
▁iştah	-12.2943
▁hor	-12.2947
edd	-12.2949
▁üçer	-12.2949
▁çıta	-12.2956
▁vaat	-12.2959
▁tehlikesi	-12.2962
arta	-12.2964
▁135	-12.2965
▁op	-12.2969
maması	-12.2973
bakan	-12.2978
▁fel	-12.2979
▁düşünen	-12.298
▁ödülleri	-12.2987
yorum	-12.2991
ttı	-12.2992
yal	-12.2992
▁1971	-12.2994
cg	-12.2997
▁jack	-12.2998
▁tüik	-12.3002
▁kralı	-12.3003
sar	-12.3004
▁back	-12.3007
▁düşecek	-12.3008
▁aroma	-12.3011
atif	-12.3022
▁olmasi	-12.3028
▁imzası	-12.3029
emek	-12.3042
▁imzalama	-12.305
▁bize	-12.3051
gor	-12.3052
▁tıklayın	-12.3054
▁küs	-12.3055
▁arttırma	-12.3056
▁dedirt	-12.3057
narak	-12.3058
ity	-12.306
hit	-12.3061
▁sıraladı	-12.3062
▁ozel	-12.3063
hey	-12.3063
▁olabilirdi	-12.3063
▁kus	-12.3074
▁kayd	-12.3077
▁1974	-12.308
▁mahrumiyet	-12.308
▁sıyrıl	-12.308
▁üzgün	-12.3083
▁miller	-12.3084
▁dağıtım	-12.3084
▁kıvılcım	-12.3085
▁1930	-12.3086
▁belirtilmişti	-12.3088
▁türkçe	-12.3088
▁apple	-12.309
▁gönderdik	-12.3091
▁yapılmalı	-12.3091
▁ölmüştü	-12.3091
▁batarya	-12.3091
▁zaaf	-12.3092
▁yüzölç	-12.3092
hunharca	-12.3092
▁cevdet	-12.3092
▁hububat	-12.3092
▁kennedy	-12.3092
▁muhakeme	-12.3092
▁nikotin	-12.3092
▁promosyon	-12.3092
▁susurluk	-12.3092
▁şampyon	-12.3092
Ancak	-12.3092
▁entelektüel	-12.3092
▁evsahibi	-12.3092
▁infilak	-12.3092
▁orgazm	-12.3092
onservatuvar	-12.3092
▁koskoca	-12.3092
▁palmiye	-12.3092
▁enteresan	-12.3092
▁carter	-12.3092
▁reaksiyon	-12.3092
▁refakat	-12.3092
▁françoi	-12.3092
▁çapkın	-12.3092
▁oramiral	-12.3092
▁yanılgı	-12.3092
▁çomar	-12.3092
▁eğlendi	-12.3092
▁bavul	-12.3092
▁doçent	-12.3092
▁1978	-12.3093
▁1949	-12.3093
▁etkileşim	-12.3093
▁beygir	-12.3094
▁faik	-12.3094
▁elebaşı	-12.3094
▁tesadüfen	-12.3094
▁elazığspor	-12.3095
▁castro	-12.3095
▁pusula	-12.3095
▁yanındayız	-12.3095
▁yalanla	-12.3096
▁sepet	-12.3096
▁bürokrasi	-12.3096
▁buradayız	-12.3096
▁memnunum	-12.3097
▁sıkışık	-12.3097
▁birlikleri	-12.3097
▁sempatik	-12.3097
▁şaşırdım	-12.3098
smart	-12.3098
▁adayları	-12.3098
▁musun	-12.3099
▁Warner	-12.3099
▁arthur	-12.31
▁ağaoğlu	-12.31
▁ritm	-12.3101
▁ulaşırken	-12.3101
▁elverişli	-12.3102
▁savcılık	-12.3104
▁dondurul	-12.3105
▁zahmet	-12.3105
▁tepsi	-12.3106
▁yöneltti	-12.3107
▁asıldı	-12.3107
göl	-12.3108
▁ihtiyat	-12.3108
▁mülki	-12.3108
▁kürk	-12.3109
▁aşağıla	-12.311
▁lazer	-12.311
▁prodüktör	-12.311
▁lozan	-12.311
▁okuyan	-12.3111
ru	-12.3111
▁1963	-12.3111
▁1948	-12.3111
▁dallas	-12.3112
▁latince	-12.3112
▁mangal	-12.3112
▁döşeme	-12.3113
▁baskısı	-12.3115
▁sosyete	-12.3115
fik	-12.3116
▁eğitmen	-12.3116
▁gerekirdi	-12.3117
▁yaşıt	-12.3117
thy	-12.3119
▁sosyalizm	-12.3121
▁provokasyon	-12.3122
▁irtica	-12.3123
▁aittir	-12.3124
▁nabu	-12.3124
▁gülb	-12.3126
▁zordur	-12.3127
laştır	-12.3128
alm	-12.3131
▁önseç	-12.3132
▁group	-12.3134
▁artacak	-12.3135
kanlı	-12.3136
▁1)	-12.3137
▁çıktım	-12.3138
▁sulak	-12.314
▁gittiler	-12.3144
▁sabih	-12.3144
▁tutuklanmıştı	-12.3144
▁hilal	-12.3144
▁kuyruğu	-12.3146
▁utah	-12.3147
▁şaşırtı	-12.3147
larından	-12.315
▁fert	-12.3151
▁güvenlik	-12.3154
▁yaptıklarını	-12.3155
▁imzalanma	-12.3156
▁pizza	-12.3158
▁pfdk	-12.3158
▁gerileme	-12.3159
▁durumdur	-12.3159
▁türeli	-12.3162
▁long	-12.3163
▁katip	-12.3164
başarı	-12.3165
tha	-12.3165
tion	-12.3167
▁değerlendiriyor	-12.3169
▁geçerken	-12.3169
▁kpss	-12.317
▁şüphesi	-12.3171
pkk	-12.3171
▁nd	-12.3171
▁uçur	-12.3172
▁söyleyen	-12.3172
▁ikaz	-12.3178
▁(29)	-12.318
▁toparlanma	-12.318
▁mel	-12.318
box	-12.3182
▁hatırlatılm	-12.3184
▁izni	-12.3185
▁şeyler	-12.3185
▁taşer	-12.3187
▁kemalin	-12.3188
ym	-12.3188
▁kullanacak	-12.3191
▁işgü	-12.3192
cü	-12.3192
▁chicago	-12.3194
şifre	-12.3195
▁harfleri	-12.3196
gazete	-12.3196
tobb	-12.3196
aktif	-12.3197
▁olmasay	-12.3197
karşıyaka	-12.3197
sıkı	-12.3198
▁avla	-12.3198
tabii	-12.32
▁ey	-12.32
▁göstermişti	-12.3201
değer	-12.3201
malısınız	-12.3204
sor	-12.3205
başbakan	-12.3207
▁mecburi	-12.3208
ommy	-12.3209
▁taha	-12.3211
▁duş	-12.3211
▁asil	-12.3212
26	-12.3212
▁arama	-12.3226
▁vaatler	-12.3229
▁sanılıyor	-12.3229
▁enes	-12.323
banka	-12.3231
▁tanınıyor	-12.3232
ile	-12.3233
▁tvn	-12.3234
inmektedir	-12.3236
tas	-12.3239
▁ry	-12.3239
▁hayalleri	-12.3243
▁gi	-12.3244
▁koza	-12.3245
78	-12.3245
cık	-12.3247
▁protokolün	-12.3248
▁olmalıyız	-12.3252
▁kıran	-12.3252
▁org	-12.3253
▁eğer	-12.3254
▁halis	-12.326
▁ox	-12.3267
▁os	-12.3267
▁yazarı	-12.3267
▁albert	-12.3269
▁bekliyordu	-12.3275
fkan	-12.3276
▁kıyaslan	-12.3279
uyla	-12.3281
▁açabilir	-12.3281
▁anlaşması	-12.3282
posta	-12.3283
doğ	-12.3286
▁refleks	-12.3289
▁davada	-12.3291
▁çinin	-12.3294
pit	-12.3299
mazken	-12.3299
burg	-12.33
▁yayınlanacak	-12.3303
minal	-12.3305
madılar	-12.3307
▁vahi	-12.3308
▁eğitil	-12.331
linç	-12.3311
▁yapmaktadır	-12.3318
▁yöneten	-12.3318
kim	-12.3323
▁korkusu	-12.3323
landığı	-12.3329
mit	-12.3332
alp	-12.3336
▁yakalanmıştı	-12.3336
▁şüpheliler	-12.3337
▁markası	-12.3341
▁ödüllendiril	-12.3343
▁kaf	-12.3346
mişler	-12.3352
bor	-12.3353
▁koli	-12.3354
▁aileler	-12.3355
▁ayma	-12.3355
oku	-12.3356
▁talan	-12.3358
▁düşer	-12.3359
▁karşısında	-12.3359
field	-12.3361
▁oluyordu	-12.3364
git	-12.3369
sün	-12.337
22	-12.3372
▁birlik	-12.3376
▁anlaşılma	-12.3376
▁aski	-12.3379
▁albümü	-12.3385
lerdi	-12.3393
nak	-12.3393
amadım	-12.3395
▁erik	-12.34
-300	-12.3401
▁baca	-12.3403
▁cemaatin	-12.3405
gör	-12.3409
sarı	-12.3412
▁arkadaşlar	-12.3412
▁saplan	-12.3418
▁bulunduk	-12.342
gm	-12.3421
babam	-12.3422
▁karala	-12.3423
▁elit	-12.3426
malarda	-12.3427
▁serisi	-12.3435
ingli	-12.3438
▁açıklanmıştı	-12.3442
▁çan	-12.3443
▁değerlendirildi	-12.3444
yang	-12.3448
▁kaynat	-12.345
▁yazıldı	-12.3453
▁salonu	-12.3454
▁otobüsü	-12.3454
▁tertip	-12.3457
▁araçlar	-12.3459
▁yönlendirme	-12.346
▁yasama	-12.3463
işi	-12.3473
liyoruz	-12.3474
▁süratle	-12.3475
masi	-12.3476
▁değişir	-12.3476
▁gıyab	-12.3482
▁buluşturdu	-12.3482
misi	-12.3485
▁tetik	-12.3486
▁elektr	-12.3488
▁terked	-12.3488
▁gönen	-12.3491
▁böbr	-12.3491
▁bölgede	-12.3492
▁bahtiyar	-12.3492
▁benjamin	-12.3492
▁laboratuar	-12.3492
▁schumacher	-12.3492
▁süveyda	-12.3492
▁teşekkül	-12.3492
▁jeffrey	-12.3492
▁serüven	-12.3492
▁tahıl	-12.3492
▁chaplin	-12.3492
▁börek	-12.3492
▁teknisyen	-12.3492
▁şaibe	-12.3492
detroit	-12.3492
▁toraman	-12.3492
▁manidar	-12.3492
▁howard	-12.3492
▁bilemem	-12.3492
▁domuz	-12.3492
▁(37)	-12.3492
önizleme	-12.3492
▁başörtüsü	-12.3492
▁karabiber	-12.3492
▁mobe	-12.3492
▁bölükbaşı	-12.3492
▁bitmedi	-12.3492
▁şayet	-12.3492
beyazıt	-12.3492
▁yakışıklı	-12.3492
▁bahri	-12.3492
▁bulunmamaktadır	-12.3492
▁plus	-12.3492
▁hammadde	-12.3492
▁geçersiz	-12.3493
▁horoz	-12.3493
▁özçelik	-12.3493
▁belgrad	-12.3493
▁psv	-12.3493
▁lennon	-12.3493
▁safha	-12.3493
▁tampon	-12.3493
▁sığır	-12.3493
▁cbs	-12.3493
▁vahşice	-12.3493
▁bağırsak	-12.3493
▁kontör	-12.3493
▁ataköy	-12.3493
▁müessese	-12.3494
▁1977	-12.3494
▁banvit	-12.3494
▁alındığını	-12.3494
▁slovakya	-12.3494
▁gönderilecek	-12.3495
▁girmiş	-12.3496
▁karayip	-12.3496
▁dicaprio	-12.3496
▁ürünler	-12.3496
▁pide	-12.3497
▁ispanyolca	-12.3497
▁uğurlandı	-12.3498
▁yazısı	-12.3498
▁jeo	-12.3498
▁bölümünde	-12.3499
▁barbie	-12.3499
▁jessica	-12.3499
▁pavyon	-12.3499
▁spielberg	-12.3499
▁Wallace	-12.3499
▁schalke	-12.3499
▁göreceksiniz	-12.3499
▁karanlığ	-12.35
▁karaköy	-12.35
angelina	-12.35
▁sarah	-12.3501
▁sembolik	-12.3502
▁lakabı	-12.3503
▁etmiyoruz	-12.3506
porta	-12.3507
▁aykırıdır	-12.3508
▁gülcan	-12.3508
▁resul	-12.3509
▁gidiyorum	-12.351
▁bangladeş	-12.3511
▁örümcek	-12.3511
▁patrick	-12.3511
▁vodafone	-12.3511
▁sentez	-12.3511
▁güveniyorum	-12.3511
▁1984	-12.3512
▁türkeş	-12.3513
▁çağrıldı	-12.3515
▁kaste	-12.3516
▁toplanacak	-12.3518
▁göstermiştir	-12.352
▁mendil	-12.3521
sta	-12.3521
▁leverkusen	-12.3523
▁segment	-12.3523
▁nevruz	-12.3523
zincirleme	-12.3524
▁üreten	-12.3525
:30	-12.3525
▁modena	-12.3525
▁anlatır	-12.3525
▁fotograf	-12.3526
▁ersun	-12.3526
meleri	-12.3526
▁doğrudur	-12.3527
jo	-12.3528
▁hezi	-12.3528
▁karıştırın	-12.3529
fterdar	-12.3529
▁aktürk	-12.3531
▁çıkardık	-12.3531
▁davis	-12.3533
▁ceren	-12.3533
1959	-12.3534
▁aradım	-12.3535
:"	-12.3535
▁disney	-12.3536
emre	-12.3536
▁parasal	-12.3537
▁sevindirdi	-12.354
▁yuvarlağ	-12.3541
kaf	-12.3543
anado	-12.3546
▁bülbül	-12.3548
▁seher	-12.3549
tiner	-12.3552
dis	-12.3553
▁demiryol	-12.3556
▁soyle	-12.3557
▁trans	-12.3557
▁ezeli	-12.3558
▁yapılabilir	-12.3558
▁götürülme	-12.3566
▁takim	-12.3569
▁evre	-12.3574
▁aldığını	-12.3579
▁War	-12.3579
cumhurbaş	-12.3579
▁geçtik	-12.358
▁macar	-12.3581
vos	-12.3582
▁taktı	-12.3584
▁olmaktadır	-12.3589
mey	-12.3594
▁orada	-12.36
▁verirler	-12.3602
▁evi	-12.3604
▁muzik	-12.3605
▁üretilme	-12.3605
http	-12.361
▁ilkay	-12.361
▁(10	-12.3615
silah	-12.3615
sabah	-12.3615
▁blog	-12.3617
dost	-12.3618
müş	-12.3618
▁hapsi	-12.3619
şimdi	-12.3619
▁hos	-12.3621
abdnin	-12.3621
ılmış	-12.3624
▁hayatı	-12.3625
ebilirler	-12.3625
▁etme	-12.3627
▁sak	-12.3628
yarı	-12.363
▁parkı	-12.3631
▁görevliler	-12.3633
▁özçe	-12.3638
▁fast	-12.364
▁142	-12.3642
▁üşü	-12.3642
▁adaylar	-12.3643
▁yılan	-12.3644
▁püskürt	-12.3645
▁krizi	-12.3648
▁İ	-12.365
▁gelişti	-12.3651
▁yarıştı	-12.3652
ius	-12.3654
doç	-12.3654
▁tutu	-12.3656
spo	-12.3658
▁değiller	-12.3658
aziz	-12.3658
▁ederse	-12.3662
and	-12.3662
▁görünce	-12.3663
▁muaf	-12.3667
pen	-12.3668
sav	-12.3669
▁but	-12.367
▁ateşi	-12.367
kas	-12.367
▁yapması	-12.367
54	-12.3671
▁cemev	-12.3672
▁oynayan	-12.3673
kaç	-12.3683
▁taşınacak	-12.3687
▁103	-12.3687
▁suret	-12.3688
▁alacaklar	-12.3689
daydı	-12.369
mediler	-12.3693
▁mevzi	-12.3695
▁biçil	-12.3698
birlik	-12.3699
▁had	-12.37
▁kartı	-12.3703
▁organizatör	-12.3703
istan	-12.3714
▁best	-12.3718
▁engelledi	-12.3721
▁ring	-12.3722
▁üslub	-12.3724
▁gezen	-12.3725
▁meb	-12.3726
▁sonraki	-12.3731
▁gönderi	-12.3734
▁kondu	-12.3738
▁yazmış	-12.3743
▁artırıyor	-12.3747
▁memuru	-12.375
teki	-12.3752
▁inisiyatif	-12.3752
▁imal	-12.3753
medik	-12.3756
tra	-12.3761
▁akalın	-12.3762
alan	-12.3766
▁bulamadı	-12.3768
▁neo	-12.3771
▁ilerliyor	-12.3774
▁bakılıyor	-12.3774
▁sürer	-12.3781
arap	-12.3781
▁haç	-12.3783
çev	-12.3788
▁kaçış	-12.3788
▁alanda	-12.379
▁yumuşa	-12.3791
▁destekliyor	-12.3793
▁işletil	-12.3797
▁bere	-12.3798
▁1961	-12.3799
oba	-12.3803
▁4,5	-12.3805
▁ural	-12.3805
olog	-12.3806
artarak	-12.3809
▁kaçırdı	-12.381
▁bulduk	-12.3812
▁geliyordu	-12.3815
▁sistemleri	-12.3817
▁bitiyor	-12.3817
93	-12.3817
▁lens	-12.3818
▁filmde	-12.3823
▁şarkısı	-12.3824
▁West	-12.3834
ydu	-12.3835
▁cs	-12.3835
zo	-12.3838
▁aşılama	-12.3841
▁övün	-12.3842
köprü	-12.3847
▁liderleri	-12.3848
▁hayr	-12.3862
▁dayanıyor	-12.3867
▁güçlenme	-12.3871
▁yaşayacak	-12.3871
▁veriyorlar	-12.3873
öte	-12.3875
leştir	-12.3876
▁fm	-12.3879
▁reddedildi	-12.388
▁ziyarette	-12.3884
▁değirmen	-12.3887
▁22.00	-12.389
giller	-12.3892
lendirilme	-12.3893
▁konseyi	-12.3894
▁tetikle	-12.3899
▁(2	-12.39
▁124	-12.39
▁konsantr	-12.39
▁nasır	-12.3901
▁chang	-12.3902
▁kalmaz	-12.3902
▁roger	-12.3902
alerjik	-12.3903
▁şarab	-12.3903
▁koyduk	-12.3903
ima	-12.3903
olunay	-12.3906
▁takson	-12.3907
▁çeliş	-12.3908
▁pendik	-12.3908
▁gürcü	-12.3908
▁kıvam	-12.3908
▁bmW	-12.3908
▁Kırmızı	-12.3909
hiladelphia	-12.3909
uanzhou	-12.3909
▁ayçiçeği	-12.3909
▁dumlupınar	-12.3909
▁enternasyonal	-12.3909
▁manevra	-12.3909
▁midilli	-12.3909
▁reçine	-12.3909
▁taahhüd	-12.3909
▁tanzanya	-12.3909
▁toshiba	-12.3909
▁federer	-12.3909
▁temayül	-12.3909
▁acente	-12.3909
▁moğolistan	-12.3909
▁misafirperver	-12.3909
▁rozet	-12.3909
▁Karaosmanoğlu	-12.3909
▁cambridge	-12.3909
▁pasif	-12.3909
▁salkım	-12.3909
▁hangzhou	-12.3909
▁tetikçi	-12.3909
▁garcia	-12.3909
▁makbuz	-12.3909
vak	-12.3909
▁fatsa	-12.3909
▁avuç	-12.3909
▁johnny	-12.3909
▁söyleyeyim	-12.3909
▁müşteki	-12.3909
▁kapsıyor	-12.3909
▁1965	-12.3909
▁grammy	-12.3909
▁ataşehir	-12.3909
▁crowe	-12.3909
▁olmert	-12.391
▁dağıtılacak	-12.391
▁ızgara	-12.391
▁yüzünden	-12.391
▁arıtma	-12.391
▁yanardağ	-12.391
▁macao	-12.391
▁1943	-12.391
▁emsal	-12.391
▁salça	-12.3911
▁demirağ	-12.3911
▁moldova	-12.3911
▁bld	-12.3911
▁sms	-12.3911
▁kemeraltı	-12.3912
▁direğ	-12.3912
▁ispatla	-12.3912
▁beslenen	-12.3912
▁lastiği	-12.3912
▁yonca	-12.3912
▁lazio	-12.3913
▁serum	-12.3913
▁çavuşoğlu	-12.3913
▁gerektirir	-12.3913
▁bağışık	-12.3914
▁kocatepe	-12.3915
▁hitit	-12.3915
▁tanju	-12.3915
▁istila	-12.3915
▁göteborg	-12.3916
▁müdahil	-12.3916
▁russell	-12.3916
▁dilekçesinde	-12.3916
▁defne	-12.3917
▁dinçer	-12.3917
▁yedinci	-12.3918
▁veririm	-12.3919
▁degildir	-12.392
▁powellın	-12.392
▁başlayacağız	-12.3921
▁gerekirse	-12.3921
▁tanıyor	-12.3921
▁okudum	-12.3923
▁makro	-12.3923
▁verdiği	-12.3923
▁çekiliyor	-12.3924
▁açısından	-12.3926
▁rose	-12.3927
azmi	-12.3927
▁matrix	-12.3928
▁cimnastik	-12.3929
▁bozkır	-12.3929
▁sunuyorum	-12.3931
▁(18)	-12.3932
▁tomas	-12.3935
▁türel	-12.3935
▁simon	-12.3936
▁ettiklerini	-12.3936
▁bölük	-12.3936
▁karton	-12.3938
▁adale	-12.3938
▁aksine	-12.394
▁çekiç	-12.394
▁başörtü	-12.3941
▁mlkp	-12.3941
srin	-12.3941
▁balat	-12.3942
yda	-12.3942
▁çark	-12.3942
▁dizisi	-12.3944
▁yelek	-12.3944
▁vazgeçti	-12.395
eira	-12.3952
▁öss	-12.3952
▁yaparım	-12.3953
▁mozart	-12.3954
▁izledim	-12.3955
▁parası	-12.3957
▁rolleri	-12.3958
▁çürü	-12.3959
▁done	-12.3959
dd	-12.396
▁edilirk	-12.396
dy	-12.3961
▁linn	-12.3962
mem	-12.3963
31	-12.3964
▁demirspor	-12.3971
▁yobaz	-12.3977
▁aslen	-12.3979
▁uzantı	-12.3979
▁tava	-12.398
▁korunması	-12.3981
▁bob	-12.3982
dak	-12.3982
opec	-12.3983
mışlar	-12.3988
ulusal	-12.3988
▁peri	-12.399
▁bizim	-12.3991
▁derinleştir	-12.3993
▁metraj	-12.3996
▁tark	-12.3998
▁480	-12.3999
▁2.0	-12.4001
▁olmayacaktır	-12.4002
▁more	-12.4003
▁yolcular	-12.4009
▁şap	-12.401
▁aştı	-12.4012
▁taç	-12.4012
▁press	-12.4014
▁karşılaşma	-12.4016
▁amacımız	-12.4016
▁çeker	-12.4019
sman	-12.4019
ix	-12.4019
▁ergül	-12.4023
▁çıkart	-12.4025
▁götürüyor	-12.4026
▁çelen	-12.4027
▁yuvarlan	-12.4028
▁açıklıyor	-12.403
▁savas	-12.4034
tal	-12.4035
hir	-12.4036
▁ödedi	-12.4038
enler	-12.4038
şampiyon	-12.4039
ermeni	-12.4039
▁ıntel	-12.4041
▁verebilir	-12.4043
▁budak	-12.4044
resmi	-12.4049
▁melis	-12.405
tibet	-12.4052
amazlar	-12.4053
ena	-12.4053
erim	-12.4055
kurt	-12.4061
dp	-12.4062
▁yandı	-12.4063
▁baris	-12.4063
85	-12.4065
bon	-12.4069
▁call	-12.4072
▁tıka	-12.4072
▁yıprat	-12.4075
▁ark	-12.4075
klasik	-12.4091
val	-12.4092
▁ölüyor	-12.4092
kul	-12.4093
▁center	-12.4095
▁(!)	-12.41
fran	-12.4102
▁metaller	-12.4108
▁insanoğlu	-12.4111
▁koşar	-12.4113
▁katı	-12.4113
▁tskn	-12.4114
▁hassa	-12.4116
▁ayaz	-12.4119
dava	-12.4122
▁fırça	-12.4126
▁sib	-12.4126
▁kazıl	-12.4131
hattin	-12.4132
hı	-12.4134
rio	-12.4135
▁savaşma	-12.4136
▁görmez	-12.4136
die	-12.4142
sain	-12.4143
▁bulunması	-12.4145
▁gösterecek	-12.4145
diğinde	-12.4146
▁5.5	-12.4148
lalett	-12.4149
▁satıyor	-12.415
▁değilmiş	-12.4161
ilmis	-12.4162
▁france	-12.417
sudur	-12.4171
▁kazandık	-12.4176
▁andre	-12.4186
▁sergilendi	-12.4187
▁almıyor	-12.4193
▁che	-12.4196
▁ast	-12.4197
nat	-12.4198
sis	-12.4199
23	-12.4202
▁döşen	-12.4206
▁geliştir	-12.4207
▁yöntemleri	-12.4208
asib	-12.4214
sıra	-12.4214
▁televizyonu	-12.4215
▁yapabiliyor	-12.422
▁izah	-12.4221
sınlar	-12.4222
▁bilic	-12.4224
▁yüzde	-12.4226
landırıldı	-12.4228
▁izl	-12.423
▁iti	-12.4231
▁fan	-12.4232
yunca	-12.4232
▁abde	-12.4233
▁katkısı	-12.4235
▁kutlandı	-12.4236
▁atta	-12.4236
▁kardeşi	-12.4247
▁yansıtma	-12.4247
lıdere	-12.4247
▁peşinde	-12.4251
▁kak	-12.4253
▁doğrusu	-12.4254
chuan	-12.4254
▁gününde	-12.4255
▁arası	-12.4256
▁arkadas	-12.4257
▁listesi	-12.4258
▁serp	-12.4261
▁vah	-12.4262
▁donan	-12.4263
▁küçül	-12.4266
▁motorin	-12.4267
▁tamamlanması	-12.427
▁bakar	-12.4273
▁yakalan	-12.4274
▁çkp	-12.4275
▁abartı	-12.4276
▁gaza	-12.4277
tigi	-12.4278
▁hızlandırılma	-12.4283
▁ayırt	-12.4286
▁onaylandı	-12.4288
▁bele	-12.4292
▁fire	-12.4292
▁önal	-12.4293
▁oluyorlar	-12.4295
▁doyur	-12.4299
cep	-12.4301
hn	-12.4301
eb	-12.4302
▁doldu	-12.4302
▁kopar	-12.4302
▁bolt	-12.4304
▁Kara	-12.4306
yacaktır	-12.4308
▁okulu	-12.4311
▁(4	-12.4312
▁açıklanacak	-12.4314
car	-12.4319
▁ıver	-12.4321
▁merkezleri	-12.4321
▁jane	-12.4325
▁yönlendiril	-12.4327
▁santraller	-12.4329
▁yazılan	-12.4331
▁affet	-12.4334
eg	-12.4335
▁elektron	-12.4337
▁ulaşacak	-12.4339
▁lincoln	-12.4341
vo	-12.4341
Saray	-12.4343
▁başpehlivan	-12.4343
▁feldkamp	-12.4343
▁fildişi	-12.4343
▁hemsworth	-12.4343
▁karamsar	-12.4343
▁keçiören	-12.4343
▁müşerref	-12.4343
▁risotto	-12.4343
▁votka	-12.4343
▁beyefendi	-12.4343
▁hannover	-12.4343
▁jiechi	-12.4343
▁teşhir	-12.4343
▁fazilet	-12.4343
▁folklor	-12.4343
▁hüsran	-12.4343
▁ercümen	-12.4343
▁vasıf	-12.4343
▁musiki	-12.4343
▁nebze	-12.4343
▁tertemiz	-12.4343
▁true	-12.4343
▁harabe	-12.4343
▁(42)	-12.4343
▁düzeltme	-12.4344
▁maksadı	-12.4344
dolmabahçe	-12.4344
▁hatırlıyorum	-12.4344
▁rönesans	-12.4344
▁battal	-12.4344
▁zeytinburnu	-12.4344
▁müşterek	-12.4344
▁karides	-12.4344
▁mahiyet	-12.4344
▁zihin	-12.4344
▁çalıştırıcı	-12.4344
▁kamer	-12.4344
▁hazırlıyor	-12.4344
▁uzaklaştırdı	-12.4344
▁tırmanış	-12.4344
▁azgın	-12.4344
▁çıkarılacak	-12.4344
▁vişne	-12.4345
naylon	-12.4345
▁düzenleniyor	-12.4345
▁protez	-12.4345
▁kıç	-12.4345
▁madsen	-12.4345
▁uruguay	-12.4345
▁kekik	-12.4345
▁oynayacağız	-12.4346
▁tereyağı	-12.4346
▁barut	-12.4347
▁serez	-12.4347
müsiad	-12.4347
▁dümen	-12.4348
▁münir	-12.4348
▁bilirim	-12.4348
▁egemenlik	-12.4348
▁seviyoruz	-12.4348
▁derler	-12.4349
▁beceriksiz	-12.435
▁dog	-12.435
▁15-20	-12.435
▁yaşanırken	-12.4351
▁akdemir	-12.4351
▁batak	-12.4352
▁yemekhane	-12.4352
▁makinist	-12.4353
▁kurnaz	-12.4353
▁kayık	-12.4354
▁bayar	-12.4354
▁yalancı	-12.4356
▁bahanesi	-12.4356
▁görüşü	-12.4357
▁iptaline	-12.4357
▁pey	-12.4358
▁yükseltilme	-12.4359
▁meçhul	-12.436
▁yağdırdı	-12.436
▁okurken	-12.436
▁yaprağ	-12.436
▁melodi	-12.4361
▁hayranları	-12.4361
▁çıktığını	-12.4362
▁sağlanması	-12.4362
▁sağlığı	-12.4363
▁sauna	-12.4363
▁rağ	-12.4364
▁drogba	-12.4364
▁kaliforniya	-12.4364
▁jazz	-12.4364
▁kadifekale	-12.4364
▁teğmen	-12.4367
▁tabaka	-12.4368
▁konağı	-12.4368
▁oynatıl	-12.4369
▁olursak	-12.4369
▁senegal	-12.437
▁karıştırdı	-12.437
▁öküz	-12.437
▁sürerk	-12.4371
▁oturuyor	-12.4373
▁hastanesi	-12.4374
▁oğlum	-12.4374
▁ariel	-12.4375
▁(21)	-12.4376
▁papadopulos	-12.4378
▁Kahramanmaraş	-12.4378
▁bağışlan	-12.4378
▁başaran	-12.4378
▁siyasetçi	-12.4378
▁ezel	-12.4379
ulkadir	-12.4379
telif	-12.438
▁keser	-12.438
ılabilir	-12.4381
▁inkılap	-12.4382
amazsınız	-12.4383
▁açıklarken	-12.4385
ris	-12.4385
▁genişletilme	-12.4386
▁sara	-12.4386
▁kazaz	-12.4387
deyk	-12.4388
▁journal	-12.4391
▁öden	-12.4391
▁şudur	-12.4392
all	-12.4394
▁itü	-12.4395
zami	-12.4396
kap	-12.4396
▁vergisi	-12.4396
09	-12.4397
▁devasa	-12.4399
▁yazdım	-12.4399
▁zurna	-12.4405
▁chpyi	-12.4407
▁misal	-12.4409
▁azmi	-12.4409
▁mineral	-12.4412
▁yapma	-12.4413
▁demokratikleş	-12.4418
▁tor	-12.4419
leştirilecek	-12.442
▁gönderiliyor	-12.4422
▁açtık	-12.4423
▁guo	-12.4426
98	-12.4426
▁cevapladı	-12.443
▁sadece	-12.4431
▁musa	-12.4434
▁We	-12.4435
▁burgaz	-12.4435
▁harcanma	-12.4439
▁yokken	-12.4441
ruh	-12.4442
demre	-12.4442
öğren	-12.4443
▁rifa	-12.4446
51	-12.4446
tirirken	-12.4446
cha	-12.4447
▁187	-12.4449
▁görevlisi	-12.4455
nd	-12.4456
▁dışı	-12.446
▁115	-12.4461
▁konuştuk	-12.4462
engiz	-12.4466
▁kovala	-12.4466
meyeceğiz	-12.4477
dai	-12.448
muyor	-12.448
▁chen	-12.4482
tarih	-12.4484
▁olmamıştır	-12.4488
sana	-12.4489
▁artun	-12.4489
bb	-12.4492
hukuk	-12.4493
05	-12.4494
twitter	-12.4496
ano	-12.4497
▁çilek	-12.4497
▁tıraş	-12.45
hürriyet	-12.4503
kötü	-12.4503
meclis	-12.4504
fotoğraf	-12.4504
tbmm	-12.4504
birliği	-12.4507
▁haberlerde	-12.4508
-23	-12.4509
▁yedik	-12.451
▁gelişmeler	-12.4515
mahkeme	-12.4516
▁ulvi	-12.4516
dil	-12.4518
lenerek	-12.4518
▁teker	-12.452
▁bırakın	-12.4521
mamak	-12.4521
▁bog	-12.4522
▁girişimi	-12.4523
ıyordum	-12.4528
▁verebil	-12.453
▁yapacaklar	-12.4531
▁elver	-12.4538
▁size	-12.4538
▁mudur	-12.4541
uf	-12.4542
acaklarını	-12.4542
akdi	-12.4545
böyle	-12.4546
▁mide	-12.4549
▁haşla	-12.4554
▁cha	-12.4555
▁yattı	-12.456
▁rid	-12.4567
▁yut	-12.4568
zan	-12.4571
▁dize	-12.4574
▁cadı	-12.4575
▁teması	-12.4578
▁alanları	-12.458
▁söyledik	-12.458
▁derim	-12.4582
▁geliştirdi	-12.4587
başka	-12.4587
29	-12.4594
▁görüştük	-12.4602
▁meydanı	-12.4609
▁lale	-12.4609
deyim	-12.461
▁santra	-12.4611
osman	-12.4613
▁thor	-12.4614
▁çamlı	-12.4614
▁nüz	-12.4615
▁koşusu	-12.4625
34	-12.4627
▁0.5	-12.4629
miyordu	-12.463
au	-12.4633
▁atarak	-12.4634
ruk	-12.4635
▁eserleri	-12.4638
▁kaçmadı	-12.4638
seni	-12.4639
alın	-12.464
dullah	-12.464
bah	-12.4647
▁sabahatti	-12.4651
irsiniz	-12.4654
▁bindi	-12.4655
-17	-12.4663
▁meze	-12.4664
▁imkansız	-12.4665
matik	-12.4666
▁yiyecek	-12.4668
''	-12.4674
▁uzaklaştırıl	-12.4677
herke	-12.4677
▁biçimi	-12.4679
▁yükseliyor	-12.468
▁iğrenç	-12.4682
sp	-12.4682
▁işbir	-12.4683
▁tartışma	-12.4694
▁elleri	-12.4694
▁kurtulmuş	-12.4697
▁macun	-12.4698
sene	-12.47
anın	-12.47
tuğ	-12.4701
▁(6	-12.4705
kit	-12.4705
▁kaynaş	-12.4705
94	-12.4721
lığında	-12.4721
▁gidin	-12.473
▁kaka	-12.4731
mediği	-12.4732
▁geleceği	-12.4736
▁kari	-12.4739
▁teom	-12.4743
▁açılıyor	-12.4743
mix	-12.4743
▁buldan	-12.4743
▁1962	-12.4749
▁yasaklı	-12.4753
▁öze	-12.4756
▁260	-12.4756
▁oluşacak	-12.4758
imdir	-12.4758
▁lisa	-12.476
mir	-12.4762
ska	-12.4763
▁230	-12.4772
▁zombi	-12.4772
▁89.	-12.4772
▁bakım	-12.4772
larca	-12.4776
▁çabala	-12.4776
▁vay	-12.4776
▁hasıla	-12.4779
▁yayıldı	-12.4781
▁24.00	-12.4781
▁kullanın	-12.4785
▁süpür	-12.4786
▁firar	-12.4787
▁sosyoloji	-12.4789
▁elektriğ	-12.479
▁popül	-12.4792
rseniz	-12.4792
▁dayan	-12.4793
▁öldürülmüştü	-12.4794
▁beach	-12.4795
▁venezuela	-12.4796
▁petrolün	-12.4796
cilik	-12.4796
▁karmaşa	-12.4797
▁07.00	-12.4798
▁alba	-12.4798
üçükçekmece	-12.4798
▁okundu	-12.4798
▁airbus	-12.4798
▁alzheimer	-12.4798
▁greenpeace	-12.4798
▁kalifiye	-12.4798
▁müdahele	-12.4798
▁nargile	-12.4798
▁nautilus	-12.4798
▁petersburg	-12.4798
▁silisyum	-12.4798
▁taarruz	-12.4798
▁gömleğ	-12.4798
▁jeneratör	-12.4798
▁trajik	-12.4798
▁volkswagen	-12.4798
▁kriminal	-12.4798
▁rögar	-12.4798
▁yahoo	-12.4798
▁rastlantı	-12.4798
▁potter	-12.4798
▁kamalak	-12.4798
▁sondaj	-12.4798
▁kupon	-12.4798
▁ejderha	-12.4798
▁amblem	-12.4798
▁karizmatik	-12.4798
▁(48)	-12.4798
▁dağınık	-12.4798
▁bilimkurgu	-12.4798
▁(40)	-12.4798
▁musluk	-12.4798
▁ming	-12.4798
▁gökçeada	-12.4798
▁abhaz	-12.4798
▁viski	-12.4798
▁pırıl	-12.4798
▁dekorasyon	-12.4798
▁bulunmadığını	-12.4798
▁sarnı	-12.4798
▁çorlu	-12.4798
▁alındığında	-12.4799
▁pişmanım	-12.4799
▁feryat	-12.4799
▁forbes	-12.4799
▁edilmeli	-12.4799
▁saydam	-12.4799
▁yorulmaz	-12.4799
▁berkay	-12.48
▁molotofkokteyli	-12.48
▁1954	-12.48
▁1968	-12.48
▁gerede	-12.48
▁hissettim	-12.48
▁akyürek	-12.48
arçın	-12.48
▁üzülmez	-12.48
▁yüreğir	-12.48
▁dramatik	-12.48
▁bezci	-12.4801
▁repo	-12.4801
▁muavin	-12.4801
▁altuntaş	-12.4801
chi	-12.4802
▁ipuç	-12.4802
▁eşdeğer	-12.4802
▁köyünde	-12.4802
▁açıkgöz	-12.4803
▁20-25	-12.4803
▁onbin	-12.4803
▁kalitesiz	-12.4803
▁havayolları	-12.4804
▁ındependent	-12.4804
savar	-12.4804
▁işleyen	-12.4804
▁edilmedi	-12.4805
▁estet	-12.4805
▁paça	-12.4806
▁mozaik	-12.4806
▁dinamo	-12.4806
▁sezaryen	-12.4806
▁ındiana	-12.4806
▁üçgen	-12.4806
▁columbi	-12.4806
▁sporsever	-12.4808
tre	-12.4808
▁şekerspor	-12.4808
▁manyak	-12.4809
▁yapmıyor	-12.481
▁oryantal	-12.4811
▁zindan	-12.4812
▁henri	-12.4812
▁çığır	-12.4813
▁beter	-12.4813
▁dönmez	-12.4813
iro	-12.4814
▁çekerk	-12.4814
▁ılım	-12.4815
▁(28)	-12.4817
▁açacağız	-12.4819
▁bedir	-12.4819
▁franco	-12.482
▁kayısı	-12.4821
▁zorba	-12.4822
▁toptan	-12.4822
▁fakültesi	-12.4823
▁kefeli	-12.4823
artholomeos	-12.4823
▁(31)	-12.4824
▁cansun	-12.4827
▁fadi	-12.4828
▁zulme	-12.4829
▁koptu	-12.483
▁ytlyi	-12.4831
▁çeyreğ	-12.4833
▁bonzai	-12.4834
▁mecidiyeköy	-12.4834
▁jason	-12.4834
amayınca	-12.4837
▁etmeli	-12.4837
-28	-12.4837
▁örneği	-12.4839
▁dururken	-12.484
mıyorlar	-12.4841
▁marco	-12.4842
▁izmirde	-12.4842
▁mike	-12.4842
▁armut	-12.4843
▁bae	-12.4843
▁uyuş	-12.4844
yüp	-12.4845
▁canlandırıyor	-12.4845
▁gerici	-12.4847
▁gidip	-12.4848
▁maksat	-12.4849
miyoruz	-12.4849
▁cezalandırıl	-12.485
▁gap	-12.4854
▁simgele	-12.4855
▁iskelet	-12.4855
▁baykan	-12.4856
şeh	-12.4857
▁devret	-12.486
▁düşen	-12.4861
▁kck	-12.4863
▁kendisine	-12.4864
▁denek	-12.4865
kemalett	-12.4866
▁getirip	-12.4867
tlyi	-12.4867
▁night	-12.4867
▁olabilecek	-12.4868
▁ilyas	-12.4872
▁gam	-12.4873
▁şems	-12.4874
▁menü	-12.4874
▁tutuklama	-12.4874
▁delir	-12.4875
pil	-12.4875
▁uygulanıyor	-12.4876
▁zoru	-12.4877
▁turkiye	-12.488
▁gözetle	-12.488
deyiz	-12.4884
▁arık	-12.4885
▁ezik	-12.4886
-29	-12.4888
▁götürülürk	-12.4888
400	-12.489
▁ji	-12.4895
▁anladım	-12.4896
▁dereli	-12.4896
▁ettirdi	-12.4897
▁hitler	-12.4901
▁kabulü	-12.4906
▁car	-12.4906
▁getirilecek	-12.4907
▁büyüyor	-12.4907
▁savasi	-12.4908
▁geçmiştir	-12.4913
▁farkli	-12.4914
▁cook	-12.4915
▁teşekkürler	-12.4918
▁çalışıyordu	-12.4918
▁cels	-12.4921
maktı	-12.4924
▁harman	-12.4928
▁kınay	-12.493
▁gösterdik	-12.4931
kofi	-12.4932
▁osb	-12.4935
bilgi	-12.4939
liyiz	-12.494
▁kıvrıkoğ	-12.4943
elektrik	-12.4944
▁server	-12.4946
▁950	-12.4947
ion	-12.4948
▁kaybeder	-12.4948
▁bırakılmıştı	-12.4956
▁oturacak	-12.4956
▁fide	-12.4958
2012	-12.4958
▁öneriyor	-12.4958
uygunsuz	-12.4966
dor	-12.4967
adalet	-12.4968
▁"3	-12.4968
deydi	-12.4971
acaksın	-12.4972
▁bilgiler	-12.4973
▁144	-12.4973
hangi	-12.4975
tüik	-12.4976
youtube	-12.4976
▁mono	-12.4976
malett	-12.4976
▁sonuncu	-12.4977
paralel	-12.4979
bornova	-12.498
siyasi	-12.498
ganda	-12.4981
mhp	-12.4981
çift	-12.4982
asker	-12.4983
▁etmesin	-12.4986
▁hacmin	-12.4994
▁tapınağı	-12.4994
▁kaynağı	-12.4997
laf	-12.4997
öl	-12.5003
▁mecburiyet	-12.5004
▁veriler	-12.5006
▁periyo	-12.5009
▁düzenleyecek	-12.501
ntv	-12.5015
sos	-12.502
▁uzağ	-12.5023
03	-12.5023
▁gerekli	-12.5024
sra	-12.5025
ıs	-12.5025
▁edeceğini	-12.5027
mesin	-12.5027
▁over	-12.5028
▁olmasını	-12.5028
stanbulspor	-12.5029
▁sınırlandır	-12.503
mışım	-12.5031
▁reviz	-12.5033
hum	-12.5033
▁yılı	-12.5039
▁amacı	-12.5039
200	-12.5039
▁antreman	-12.5042
▁muka	-12.5047
2009	-12.5048
gerek	-12.5049
▁aydınlatma	-12.5055
▁uygulaması	-12.506
ila	-12.5061
mezken	-12.5064
▁maça	-12.5065
afiz	-12.5066
▁çar	-12.5067
▁açan	-12.5067
▁aker	-12.5067
▁kaleci	-12.5069
sc	-12.5072
▁çivi	-12.5072
▁hazırladık	-12.5074
cdi	-12.5075
gol	-12.5079
▁rey	-12.5079
fon	-12.508
▁yüzden	-12.508
▁58.	-12.5083
▁insanlarin	-12.5086
▁oluşturduk	-12.5087
▁eklenme	-12.5089
▁ekspres	-12.5092
▁hedefi	-12.5095
▁küçümse	-12.5097
▁patlatıl	-12.5097
▁isteyecek	-12.5098
▁sıkıştı	-12.5099
▁3.2	-12.5102
▁kilitle	-12.5112
▁istemez	-12.5113
cer	-12.5118
tirilmiştir	-12.512
▁sürdür	-12.5121
azi	-12.5122
▁çalka	-12.5124
▁juan	-12.5125
▁askerleri	-12.5126
▁başrolün	-12.5126
▁bernard	-12.5127
iyorsunuz	-12.5128
6.4	-12.5134
▁yapın	-12.5136
▁tuzağ	-12.514
ment	-12.514
uç	-12.5141
▁bük	-12.5142
▁bölgesinde	-12.5149
▁kupası	-12.515
▁semboller	-12.5153
▁işçileri	-12.5155
▁milliler	-12.5157
diz	-12.5161
▁etab	-12.5162
▁priz	-12.5163
▁açılır	-12.5165
▁viya	-12.5165
▁leon	-12.5166
xi	-12.5167
hil	-12.5169
▁oyle	-12.517
uyg	-12.517
zer	-12.5172
▁119	-12.5181
▁college	-12.5186
▁aver	-12.5186
tri	-12.5188
lüğü	-12.5188
rse	-12.5189
▁devleti	-12.5192
kaza	-12.5195
bit	-12.5196
▁haberal	-12.5196
önü	-12.5197
▁yaşanmıştı	-12.5201
▁töreninde	-12.5201
▁altan	-12.5203
▁insanları	-12.5205
▁mini	-12.5208
▁hasa	-12.5209
aset	-12.521
tti	-12.5213
▁yurtiç	-12.5214
maktadir	-12.5219
▁adayı	-12.5223
▁kaybetmiş	-12.5226
▁ja	-12.5227
cisi	-12.5231
07	-12.5232
▁(9	-12.5234
▁projeleri	-12.5234
▁bed	-12.5235
▁ibra	-12.5236
▁hizmetleri	-12.524
▁bucak	-12.5243
vir	-12.5243
▁derle	-12.5247
leşiyor	-12.5251
▁doğra	-12.5252
▁hafız	-12.526
yas	-12.5261
Türk	-12.5261
tık	-12.5262
▁klib	-12.5264
▁murad	-12.5264
▁çorap	-12.5264
▁2.6	-12.5265
▁ivedi	-12.5265
▁yükseltme	-12.5267
▁yatırıldı	-12.5267
▁anlatacak	-12.5268
▁sergileme	-12.5269
▁vermektedir	-12.5269
▁340	-12.527
▁trump	-12.5272
▁cimbom	-12.5273
▁Müdürlüğü	-12.5274
lvegözü	-12.5274
prodüksiyon	-12.5274
▁03.00	-12.5274
▁eindhoven	-12.5274
▁kafeterya	-12.5274
▁müjdat	-12.5274
▁oklahoma	-12.5274
▁panasonic	-12.5274
▁parantez	-12.5274
▁savunuldu	-12.5274
▁tespih	-12.5274
▁thompson	-12.5274
▁trajedi	-12.5274
▁virginia	-12.5274
▁çavdar	-12.5274
▁etiyopya	-12.5274
▁güvercin	-12.5274
▁travesti	-12.5274
▁parampar	-12.5274
▁mehter	-12.5274
▁paranoya	-12.5274
▁pancar	-12.5274
▁tavuğ	-12.5274
▁hutbe	-12.5274
▁marifet	-12.5274
▁battaniye	-12.5274
▁varoş	-12.5274
▁klaus	-12.5274
▁shakespeare	-12.5274
▁beckham	-12.5274
▁ralli	-12.5274
▁menşe	-12.5274
▁souza	-12.5274
▁mercek	-12.5274
▁stopaj	-12.5274
▁akıbet	-12.5274
▁çubuğ	-12.5274
▁kilometrekare	-12.5274
▁ulaşıldı	-12.5274
▁altınok	-12.5274
▁entegrasyon	-12.5275
▁liyakat	-12.5275
▁özdil	-12.5275
▁drolma	-12.5275
▁yalçındağ	-12.5275
▁fincan	-12.5275
▁prusya	-12.5275
▁1964	-12.5275
▁tezcan	-12.5275
▁zeybekci	-12.5275
▁sörf	-12.5275
▁mütevazı	-12.5275
▁raşit	-12.5275
▁tiflis	-12.5275
▁vuruldu	-12.5275
▁lewinsky	-12.5275
▁yuvarlandı	-12.5276
▁destekledi	-12.5276
▁vasat	-12.5276
▁sow	-12.5276
▁tembel	-12.5276
▁selamet	-12.5276
▁kaygan	-12.5277
▁turkey	-12.5277
▁sevilla	-12.5277
▁destekleyen	-12.5277
▁etkinlikte	-12.5278
▁özmen	-12.5278
▁smaç	-12.5278
▁fethiyespor	-12.5278
▁hanife	-12.5278
▁düzenek	-12.5278
▁alındığı	-12.5278
▁hurma	-12.5279
▁durumdayız	-12.5279
▁21.30	-12.5279
gg	-12.528
▁anneanne	-12.528
▁bakarken	-12.5281
▁hollande	-12.5281
▁ipucu	-12.5281
▁hakkinda	-12.5281
▁joel	-12.5281
▁soruyorum	-12.5281
▁hece	-12.5282
▁patlama	-12.5282
▁üçleme	-12.5282
▁bombalama	-12.5282
konu	-12.5282
▁çerkezköy	-12.5282
▁üzgünüm	-12.5283
▁uluç	-12.5283
▁valeri	-12.5283
▁edilmelidir	-12.5283
▁bilmiyoruz	-12.5283
▁saruhan	-12.5283
▁18.30	-12.5284
▁emperyalist	-12.5284
▁vurgularken	-12.5284
▁boyner	-12.5285
▁eraslan	-12.5286
▁ölçer	-12.5286
▁erit	-12.5286
▁karahan	-12.5286
▁zeren	-12.5287
▁çırpın	-12.5287
▁düzenleme	-12.5287
▁edersiniz	-12.5288
▁bandıra	-12.5288
▁söndürül	-12.5289
▁şama	-12.5289
▁yskn	-12.5289
▁hintli	-12.529
▁ultra	-12.529
▁farkındalığ	-12.529
▁saldırma	-12.5291
▁elele	-12.5292
▁izlendi	-12.5292
▁halilzad	-12.5297
▁farsça	-12.5297
▁çekirge	-12.5297
masınlar	-12.5298
değerlendirirken	-12.5298
eme	-12.5299
▁agora	-12.53
▁optik	-12.5301
▁gösterirken	-12.5301
▁edat	-12.5302
leştirilmesi	-12.5305
ale	-12.5305
▁gaga	-12.5306
▁kaldırılması	-12.5306
▁tanıkları	-12.5307
▁taka	-12.5307
▁gerekecek	-12.5308
üncü	-12.5309
▁erkin	-12.5309
▁kavuşacak	-12.5309
tig	-12.5312
▁drama	-12.5312
▁yattara	-12.5312
▁mkyk	-12.5312
▁pdf	-12.5312
▁istediğini	-12.5313
▁lg	-12.5314
▁olmayabilir	-12.5314
▁öztek	-12.5317
▁shang	-12.5318
▁mühür	-12.5319
anlar	-12.5321
▁mudan	-12.5322
▁okan	-12.5325
▁uçakları	-12.5327
▁özden	-12.5328
▁four	-12.5328
▁selami	-12.5328
inan	-12.533
▁artı	-12.5331
▁metropol	-12.5337
▁ılgaz	-12.5339
gökova	-12.534
▁lokal	-12.534
cle	-12.5343
▁tıkla	-12.5343
meyi	-12.5346
▁(5	-12.5346
▁yöneldi	-12.5347
gara	-12.5347
▁katır	-12.5347
▁bazıları	-12.5347
▁reddedilme	-12.5348
▁önledi	-12.5349
▁anavatan	-12.5349
▁(20	-12.5351
▁ayten	-12.5352
▁album	-12.5352
▁turka	-12.5362
▁berna	-12.5362
▁gelecektir	-12.5363
▁saracoğ	-12.5363
▁saptanma	-12.5363
▁dünyası	-12.5364
▁kırmızılılar	-12.5365
▁sinek	-12.5367
▁onarıl	-12.5368
▁tayvan	-12.5368
▁döngü	-12.5369
▁cristiano	-12.5373
gas	-12.5373
▁kutluyor	-12.5374
diye	-12.5375
500	-12.5377
nırken	-12.5378
▁kaldırılırke	-12.5379
▁çilingir	-12.538
aha	-12.538
▁sağlıklı	-12.5383
▁azaltma	-12.5384
▁yöneticisi	-12.5387
▁çarptır	-12.5388
▁değeri	-12.5391
▁kahveci	-12.5391
▁savaşı	-12.5391
nos	-12.5392
▁111	-12.5393
▁sağladık	-12.5396
thyn	-12.5397
▁yapmayın	-12.54
▁girdim	-12.54
▁toy	-12.54
ürkmenistan	-12.5401
▁kaydırıl	-12.5402
umut	-12.5402
▁mahur	-12.5402
▁said	-12.5403
▁çokluğu	-12.5405
▁redd	-12.5407
mikrofo	-12.5407
▁esp	-12.5409
▁fr	-12.5409
▁kullanmıştı	-12.5415
▁luc	-12.5423
mayalım	-12.5423
▁mescid	-12.5428
▁köylü	-12.5428
▁alman	-12.5433
haf	-12.5438
▁143	-12.5439
▁çektim	-12.5441
▁geçtiğini	-12.5443
▁kullanır	-12.5447
▁generaller	-12.5449
▁hatırlatma	-12.5455
uad	-12.5459
▁erden	-12.5462
ath	-12.5463
▁sızdır	-12.5463
pazarı	-12.5464
▁fiyatı	-12.5465
▁evde	-12.5466
ong	-12.5469
zole	-12.5471
▁R	-12.5471
alim	-12.5473
mazlar	-12.5474
▁sayılıyor	-12.5474
▁engelliyor	-12.5474
macun	-12.5475
cy	-12.5476
▁koyar	-12.5479
.45	-12.5482
aktör	-12.5482
ışid	-12.5483
hassa	-12.5489
71	-12.549
miştik	-12.549
olimpiyat	-12.5491
▁hatta	-12.5493
▁yazılı	-12.5494
paz	-12.5499
▁kilisesi	-12.5499
eng	-12.5501
▁öldür	-12.5502
▁araştırmacılar	-12.5502
▁valiliği	-12.5503
▁jor	-12.5508
▁pers	-12.5515
▁chi	-12.5516
▁kadı	-12.5518
▁şeydir	-12.5519
▁sergiliyor	-12.5523
▁akredit	-12.5524
emiyorum	-12.5527
önem	-12.553
▁sağol	-12.5532
gazı	-12.5532
▁aci	-12.5534
▁dedektif	-12.5537
lanması	-12.5544
▁menfaatleri	-12.5545
▁donatı	-12.5546
▁taşla	-12.5546
▁yalın	-12.5548
▁saldırıda	-12.5548
kum	-12.5548
vez	-12.5549
düz	-12.5549
▁komşuları	-12.555
▁gelişi	-12.5552
▁klas	-12.5558
▁yetersiz	-12.556
▁tatı	-12.5562
▁6-1	-12.5563
▁Wilson	-12.5564
▁alıkoy	-12.5565
-21	-12.5566
▁komp	-12.5566
▁tanıtılma	-12.5567
▁çalışmaktadır	-12.5569
sson	-12.5576
▁müziği	-12.5581
▁olma	-12.5584
afad	-12.5584
mezler	-12.5584
steau	-12.5586
▁pus	-12.5588
nternet	-12.5591
▁enva	-12.5592
card	-12.5593
lla	-12.5593
lendirilecek	-12.5595
saf	-12.5595
▁özak	-12.5597
baz	-12.56
▁telef	-12.5601
▁113	-12.5602
▁ulaşıyor	-12.5602
▁alıyordu	-12.5603
ıyım	-12.5604
▁artırılması	-12.5606
▁atacak	-12.5608
▁alabilme	-12.5609
SA	-12.561
▁köpeği	-12.5611
▁taşçı	-12.5613
▁00	-12.5616
▁dikkatsiz	-12.5623
▁kanseri	-12.5627
▁polisin	-12.5631
▁ifadesi	-12.5637
300	-12.5639
▁vesilesi	-12.5641
▁körükle	-12.5642
yazı	-12.5642
acı	-12.5649
▁sabun	-12.5651
pp	-12.5654
eth	-12.5654
63	-12.5663
maktayız	-12.5671
▁samu	-12.5673
▁zer	-12.5673
tele	-12.5674
▁6-2	-12.5678
▁tulum	-12.568
▁141	-12.568
▁yasaklandı	-12.568
▁menfaat	-12.5682
66	-12.5683
DE	-12.5685
▁kırgız	-12.5686
sinden	-12.5686
▁özdeşleş	-12.5689
irdi	-12.5692
▁4-2	-12.5693
▁panda	-12.5693
▁kınadı	-12.5697
tz	-12.5701
üne	-12.5704
▁umudu	-12.5706
indeydi	-12.5706
memeli	-12.5707
▁çıkmıyor	-12.5712
▁operasyonu	-12.5716
▁sorduk	-12.5718
▁mantığı	-12.5719
▁olurlar	-12.572
▁isimler	-12.572
olur	-12.572
dugu	-12.5727
▁reddediyor	-12.5728
▁haklı	-12.5735
dadır	-12.5735
▁kaçar	-12.5735
▁başarısı	-12.5735
▁köpekba	-12.5736
▁garant	-12.5741
-52	-12.5741
▁birgül	-12.5744
▁paylaşıyor	-12.5744
hon	-12.5746
▁halindeyk	-12.5746
▁cogu	-12.5748
▁geldiği	-12.5751
▁koymuştu	-12.5752
▁kartlar	-12.576
▁uzmanı	-12.5761
▁tutuldu	-12.5762
▁inanc	-12.5763
gır	-12.5764
▁cos	-12.5765
▁ilişkileri	-12.5765
▁(15	-12.5765
armoni	-12.5766
▁sinyalleri	-12.5767
▁edebi	-12.5768
▁kuvvetleri	-12.577
▁okuyor	-12.577
har	-12.5772
▁yalvar	-12.5772
▁teveccüh	-12.5773
▁piercing	-12.5773
▁moderniz	-12.5773
▁vasıta	-12.5774
▁argüman	-12.5774
▁arkeolog	-12.5774
▁başdanışman	-12.5774
▁kalsiyum	-12.5774
▁karabacak	-12.5774
▁kıyamet	-12.5774
▁misilleme	-12.5774
▁nöroloji	-12.5774
▁rijkaard	-12.5774
▁sebastian	-12.5774
▁tebessüm	-12.5774
▁fıstık	-12.5774
▁lindh	-12.5774
▁premium	-12.5774
▁thrones	-12.5774
▁zarrab	-12.5774
▁brahimi	-12.5774
▁(45)	-12.5774
▁Mahkemesi	-12.5774
▁kompozisyon	-12.5774
▁06.00	-12.5774
▁utku	-12.5774
▁hostes	-12.5774
▁ahlat	-12.5774
▁hyundai	-12.5774
▁ragmen	-12.5774
▁bilinmeyen	-12.5774
▁minare	-12.5774
▁söyleyebilirim	-12.5774
▁seyrantepe	-12.5774
▁kadeh	-12.5774
▁üstünlüğü	-12.5774
▁jimnastik	-12.5774
▁müteaki	-12.5774
▁nakliyat	-12.5774
▁kısık	-12.5774
▁düşünmüyoruz	-12.5774
▁atlantik	-12.5774
▁doğrultusunda	-12.5774
▁prostat	-12.5774
▁bmgk	-12.5775
▁lazim	-12.5775
▁otoban	-12.5775
▁nota	-12.5775
▁eşrefpaşa	-12.5775
▁ritim	-12.5775
▁java	-12.5775
▁cheney	-12.5775
▁idrak	-12.5775
▁ölmüş	-12.5775
▁nabz	-12.5775
▁lehçe	-12.5775
▁gitarist	-12.5775
▁kınıyoruz	-12.5775
▁ıslık	-12.5775
▁1958	-12.5775
▁hindi	-12.5775
▁düşünülür	-12.5775
▁north	-12.5775
▁çağırıyoruz	-12.5775
▁üzdü	-12.5775
▁gökmen	-12.5776
▁kiremit	-12.5776
▁giresunspor	-12.5776
▁uyulma	-12.5776
▁hatırlamıyorum	-12.5776
▁sahtekar	-12.5776
▁brooks	-12.5776
▁bucks	-12.5776
▁golsüz	-12.5776
maoist	-12.5776
▁1942	-12.5776
▁köprülü	-12.5776
▁(36)	-12.5777
sprey	-12.5777
▁çehre	-12.5777
▁ışıl	-12.5777
▁yatarken	-12.5777
▁forex	-12.5777
▁revizyon	-12.5778
▁beklenirken	-12.5778
▁toplanan	-12.5778
▁190	-12.5778
▁karakoç	-12.5778
▁sığınak	-12.5778
▁esirgeme	-12.5778
▁ıslak	-12.5778
▁sülün	-12.5778
▁again	-12.5779
▁yapılmayacak	-12.5779
▁çetinka	-12.5779
▁komutanlığı	-12.5779
koop	-12.5779
▁türüdür	-12.578
▁yorumlandı	-12.578
▁şenay	-12.578
▁finalist	-12.578
▁parçasıdır	-12.5781
▁mavericks	-12.5781
▁seçkin	-12.5781
▁özbey	-12.5782
ebso	-12.5782
▁değişmedi	-12.5782
urovision	-12.5782
▁köpük	-12.5783
▁kanarya	-12.5783
▁klişe	-12.5783
▁funda	-12.5783
▁linyitspor	-12.5783
▁konsolid	-12.5783
▁bayrampaşa	-12.5783
▁süheyl	-12.5783
▁kitlesel	-12.5784
▁katılırken	-12.5784
caydırıcı	-12.5784
▁solana	-12.5784
▁göstereceğiz	-12.5784
▁çırak	-12.5784
▁küçükbaş	-12.5785
▁güzide	-12.5785
ımda	-12.5786
▁ünvan	-12.5786
▁urumçi	-12.5787
▁dikiş	-12.5787
▁gündoğan	-12.5788
▁153	-12.5789
▁çekir	-12.579
▁futbolcuları	-12.579
▁patrik	-12.5791
▁geçerlidir	-12.5791
▁yazıyorum	-12.5792
▁diyorsunuz	-12.5792
mp	-12.5793
▁1938	-12.5793
▁satılacak	-12.5793
▁anlamadım	-12.5794
▁halkbank	-12.5795
stim	-12.5796
▁kullanılabil	-12.5798
▁White	-12.5798
▁ıhlamur	-12.5798
▁lewis	-12.5798
▁akustik	-12.5799
rodos	-12.5799
▁içindeyiz	-12.5799
▁zelanda	-12.58
▁acemi	-12.5801
sakson	-12.5801
▁manga	-12.5802
▁ork	-12.5802
▁goster	-12.5806
▁boğdu	-12.5807
▁kullanacağız	-12.5807
▁yenigün	-12.5808
▁haydar	-12.5808
▁dönmesi	-12.5809
▁muazza	-12.581
▁etmelidir	-12.581
▁ergene	-12.5811
▁anlaştık	-12.5811
▁dorse	-12.5813
▁barına	-12.5813
▁sonuçları	-12.5813
▁sound	-12.5814
▁kelam	-12.5814
▁bbp	-12.5814
roz	-12.5814
uyuşturu	-12.5816
▁mahsu	-12.5818
▁sağlayan	-12.5819
▁magic	-12.582
▁saatlerinde	-12.5821
▁duble	-12.5821
ebiliyorlar	-12.5821
▁sicil	-12.5822
▁tuzakla	-12.5823
▁kos	-12.5823
▁bindiril	-12.5824
57	-12.5826
▁polisiye	-12.5828
▁yazısında	-12.5828
mediklerini	-12.583
▁teorik	-12.5831
▁ziy	-12.5832
▁kros	-12.5835
▁kazma	-12.5835
▁çökert	-12.5836
▁hırsızlık	-12.5836
▁ölçüt	-12.5837
ds	-12.5838
▁hüda	-12.5839
▁başladığını	-12.5841
▁değişken	-12.5841
▁egiad	-12.5843
.‘‘	-12.5843
▁topuk	-12.5843
▁tekbir	-12.5843
▁ekme	-12.5844
abat	-12.5845
▁fanatik	-12.5846
yasıya	-12.585
asıl	-12.5851
▁louis	-12.5852
▁nizip	-12.5854
▁26.	-12.5854
▁national	-12.5855
▁çit	-12.5856
gon	-12.586
▁gsmh	-12.5861
▁umursa	-12.5865
▁başrolde	-12.5866
nsif	-12.5871
▁sosyo	-12.5873
-50	-12.5874
▁yolunda	-12.5875
▁137	-12.5877
▁hardy	-12.5878
▁turh	-12.5881
▁meclisi	-12.5882
▁yapacaktır	-12.5884
▁frik	-12.5887
▁1.7	-12.5889
▁yapmalı	-12.5893
not	-12.5893
▁hah	-12.5894
▁kaydedilme	-12.5895
▁işkur	-12.5897
ecekler	-12.5898
iy	-12.5899
▁üretti	-12.5899
masıydı	-12.59
▁çabası	-12.59
▁narin	-12.5904
tırma	-12.5908
800	-12.591
▁bag	-12.5913
ılmıştı	-12.5915
▁atom	-12.5915
▁1952	-12.5915
▁kaldılar	-12.5916
▁hol	-12.5916
▁konferansı	-12.5917
8)	-12.5919
▁117	-12.5919
hadi	-12.592
ust	-12.5921
▁numarası	-12.5928
▁1956	-12.5928
▁taşra	-12.593
▁başarılı	-12.5933
aman	-12.5933
▁köylüler	-12.5933
▁edenler	-12.5934
▁1,3	-12.5937
▁gülün	-12.5937
▁"1	-12.594
slat	-12.5943
▁tavla	-12.5944
▁ülkeler	-12.5948
▁diken	-12.5951
▁4/	-12.5956
▁durun	-12.5958
ros	-12.5958
▁halihazır	-12.5961
cea	-12.5965
▁akan	-12.5966
▁yapabilirsiniz	-12.5967
▁duyduk	-12.5968
▁murdoch	-12.5971
yay	-12.5973
tıldı	-12.5982
▁guard	-12.5982
▁eylemi	-12.5983
ılıyordu	-12.5983
▁serpil	-12.5984
▁ornek	-12.5993
▁live	-12.5994
teknik	-12.5996
raz	-12.5999
▁2.4	-12.6
▁mıydı	-12.6001
▁08	-12.6003
tüsiad	-12.6004
bosna	-12.6004
kıbrıs	-12.6006
henüz	-12.6006
manisa	-12.6006
kulak	-12.6006
▁gelişmiş	-12.6007
fatih	-12.6008
biraz	-12.6009
▁aga	-12.601
ital	-12.601
ihale	-12.6012
olo	-12.602
▁out	-12.6021
▁söke	-12.6025
izade	-12.6025
güç	-12.6026
▁tefe	-12.6026
▁orkestrası	-12.6027
▁sapla	-12.6029
▁free	-12.603
ortak	-12.603
emezsiniz	-12.6032
jet	-12.6033
▁con	-12.6033
▁lah	-12.6034
▁fig	-12.6035
laik	-12.6037
dün	-12.6039
▁şik	-12.6039
güneş	-12.604
▁ron	-12.6042
▁etabı	-12.6043
ilan	-12.6044
▁sean	-12.6045
▁baktı	-12.6048
▁bkz	-12.6049
ula	-12.605
▁hil	-12.605
▁yolda	-12.6053
▁alkışlan	-12.6055
yım	-12.6056
aşa	-12.6057
müştür	-12.6058
▁kubbe	-12.6064
bes	-12.6065
ju	-12.6065
▁anlat	-12.6066
▁tasarımı	-12.6066
▁stev	-12.6068
▁batık	-12.607
pass	-12.6074
ılması	-12.6075
▁177	-12.6077
▁artışı	-12.6077
▁atılıyor	-12.608
▁gösterilir	-12.6082
ui	-12.6082
zy	-12.6084
cok	-12.6086
▁buluşuyor	-12.6087
▁keza	-12.6091
▁yansıtıyor	-12.6091
▁ankarada	-12.6093
likleri	-12.6093
▁rag	-12.6098
▁1.8	-12.6102
▁hastalan	-12.6102
▁sırr	-12.6108
cılık	-12.6108
▁biter	-12.6114
çek	-12.6115
96	-12.6117
esi	-12.6118
▁açılmıştı	-12.6121
hl	-12.6121
▁bild	-12.6121
▁naim	-12.6122
▁karşılıyor	-12.6128
tch	-12.6133
▁takti	-12.6133
arız	-12.6134
▁kurduk	-12.6134
▁şeridi	-12.6137
vari	-12.6138
▁provok	-12.614
▁bası	-12.6142
tım	-12.6144
▁menfaatler	-12.6145
▁tran	-12.6146
▁giderdi	-12.6147
▁pin	-12.6148
erdoğan	-12.6148
▁gösterilecek	-12.6149
▁tartışılıyor	-12.615
▁kud	-12.615
▁ex	-12.6151
▁düğüm	-12.6153
▁tavrı	-12.6155
▁desti	-12.6156
▁ikmal	-12.616
▁merkezinde	-12.6167
▁akli	-12.6172
▁olmaktır	-12.6176
play	-12.6176
▁tanesi	-12.6178
▁içki	-12.6179
▁özendir	-12.6181
rome	-12.6183
lenebilir	-12.6183
▁sofuoğ	-12.6183
▁yapmay	-12.6188
▁hırsız	-12.6189
▁tavırları	-12.6191
tıklarını	-12.6193
▁dusun	-12.6195
▁terminal	-12.6196
▁keyfi	-12.6197
▁kendimi	-12.6201
gul	-12.6201
mışken	-12.6204
aplı	-12.6205
▁sch	-12.6209
abilirdi	-12.6209
68	-12.6209
▁maddesi	-12.6212
mes	-12.6217
▁dahası	-12.6218
▁üzereyk	-12.6221
▁tang	-12.6225
▁uzat	-12.6227
▁tanıdı	-12.6234
▁afiyet	-12.6234
lanmıştı	-12.6236
▁saatin	-12.6238
▁kam	-12.6241
kkk	-12.6243
▁bürün	-12.6245
kova	-12.6247
fed	-12.6248
▁kalyon	-12.6249
▁(21	-12.625
▁dream	-12.625
▁145	-12.625
▁hans	-12.6252
▁beyazlılar	-12.6255
▁hesaplandı	-12.6259
▁enerjisi	-12.626
▁yoğur	-12.6263
▁arda	-12.6264
▁yetmedi	-12.6267
▁görüşüldü	-12.627
▁gb	-12.6274
ous	-12.628
yana	-12.6282
rablus	-12.6282
▁avukatı	-12.6282
▁tazele	-12.6284
▁incelendi	-12.6284
▁kaldır	-12.6284
▁nsu	-12.6285
ırsınız	-12.6287
▁phil	-12.6288
mekke	-12.6289
▁tıbb	-12.6289
▁kitapta	-12.6291
▁gerçekleşmişti	-12.6292
büyükşeh	-12.6295
▁kaval	-12.6295
-13	-12.6296
aslan	-12.6296
hh	-12.6297
▁guven	-12.6298
▁eldiven	-12.6298
▁etmedik	-12.6298
▁sürmüştü	-12.6299
▁tasvi	-12.63
ecronomicon	-12.63
▁cindoruk	-12.63
▁dinamizm	-12.63
▁eşofman	-12.63
▁heykeltıraş	-12.63
▁melbourne	-12.63
▁minyatür	-12.63
▁netflix	-12.63
▁restaurant	-12.63
▁röntgen	-12.63
▁tehcir	-12.63
▁şanzıman	-12.63
▁şerbet	-12.63
▁sarımsak	-12.63
▁taklidi	-12.63
▁turnike	-12.63
▁bitişik	-12.63
▁kılıf	-12.63
▁bonsai	-12.63
▁douglas	-12.63
▁kepez	-12.63
▁esenboğa	-12.63
▁sachs	-12.63
▁kermes	-12.63
▁dedektör	-12.63
▁guinnes	-12.63
▁önemsiyoruz	-12.63
▁geçireceğiz	-12.6301
▁doyasıya	-12.6301
▁lorant	-12.6301
▁anamur	-12.6301
▁straw	-12.6301
▁2012-2013	-12.6301
▁flash	-12.6301
▁kaşif	-12.6301
▁kepen	-12.6301
▁gezinti	-12.6301
▁bahçeşeh	-12.6301
▁özdilek	-12.6301
▁pansiyon	-12.6301
▁chong	-12.6301
▁malesef	-12.6301
▁zhao	-12.6301
▁havut	-12.6301
▁açıklayacak	-12.6301
▁Belediyesi	-12.6301
▁mevkidaş	-12.6301
▁fitch	-12.6301
▁anapara	-12.6302
▁yugoslavya	-12.6302
▁avea	-12.6302
▁görünür	-12.6302
ample	-12.6302
rom	-12.6302
▁iskoçya	-12.6302
▁telecom	-12.6302
▁güray	-12.6303
▁sergilenecek	-12.6303
▁ırmağ	-12.6303
2004-2005	-12.6303
[...]
