<pad>	0
<unk>	0
<s>	0
</s>	0
<0x00>	0
<0x01>	0
<0x02>	0
<0x03>	0
<0x04>	0
<0x05>	0
<0x06>	0
<0x07>	0
<0x08>	0
<0x09>	0
<0x0A>	0
<0x0B>	0
<0x0C>	0
<0x0D>	0
<0x0E>	0
<0x0F>	0
<0x10>	0
<0x11>	0
<0x12>	0
<0x13>	0
<0x14>	0
<0x15>	0
<0x16>	0
<0x17>	0
<0x18>	0
<0x19>	0
<0x1A>	0
<0x1B>	0
<0x1C>	0
<0x1D>	0
<0x1E>	0
<0x1F>	0
<0x20>	0
<0x21>	0
<0x22>	0
<0x23>	0
<0x24>	0
<0x25>	0
<0x26>	0
<0x27>	0
<0x28>	0
<0x29>	0
<0x2A>	0
<0x2B>	0
<0x2C>	0
<0x2D>	0
<0x2E>	0
<0x2F>	0
<0x30>	0
<0x31>	0
<0x32>	0
<0x33>	0
<0x34>	0
<0x35>	0
<0x36>	0
<0x37>	0
<0x38>	0
<0x39>	0
<0x3A>	0
<0x3B>	0
<0x3C>	0
<0x3D>	0
<0x3E>	0
<0x3F>	0
<0x40>	0
<0x41>	0
<0x42>	0
<0x43>	0
<0x44>	0
<0x45>	0
<0x46>	0
<0x47>	0
<0x48>	0
<0x49>	0
<0x4A>	0
<0x4B>	0
<0x4C>	0
<0x4D>	0
<0x4E>	0
<0x4F>	0
<0x50>	0
<0x51>	0
<0x52>	0
<0x53>	0
<0x54>	0
<0x55>	0
<0x56>	0
<0x57>	0
<0x58>	0
<0x59>	0
<0x5A>	0
<0x5B>	0
<0x5C>	0
<0x5D>	0
<0x5E>	0
<0x5F>	0
<0x60>	0
<0x61>	0
<0x62>	0
<0x63>	0
<0x64>	0
<0x65>	0
<0x66>	0
<0x67>	0
<0x68>	0
<0x69>	0
<0x6A>	0
<0x6B>	0
<0x6C>	0
<0x6D>	0
<0x6E>	0
<0x6F>	0
<0x70>	0
<0x71>	0
<0x72>	0
<0x73>	0
<0x74>	0
<0x75>	0
<0x76>	0
<0x77>	0
<0x78>	0
<0x79>	0
<0x7A>	0
<0x7B>	0
<0x7C>	0
<0x7D>	0
<0x7E>	0
<0x7F>	0
<0x80>	0
<0x81>	0
<0x82>	0
<0x83>	0
<0x84>	0
<0x85>	0
<0x86>	0
<0x87>	0
<0x88>	0
<0x89>	0
<0x8A>	0
<0x8B>	0
<0x8C>	0
<0x8D>	0
<0x8E>	0
<0x8F>	0
<0x90>	0
<0x91>	0
<0x92>	0
<0x93>	0
<0x94>	0
<0x95>	0
<0x96>	0
<0x97>	0
<0x98>	0
<0x99>	0
<0x9A>	0
<0x9B>	0
<0x9C>	0
<0x9D>	0
<0x9E>	0
<0x9F>	0
<0xA0>	0
<0xA1>	0
<0xA2>	0
<0xA3>	0
<0xA4>	0
<0xA5>	0
<0xA6>	0
<0xA7>	0
<0xA8>	0
<0xA9>	0
<0xAA>	0
<0xAB>	0
<0xAC>	0
<0xAD>	0
<0xAE>	0
<0xAF>	0
<0xB0>	0
<0xB1>	0
<0xB2>	0
<0xB3>	0
<0xB4>	0
<0xB5>	0
<0xB6>	0
<0xB7>	0
<0xB8>	0
<0xB9>	0
<0xBA>	0
<0xBB>	0
<0xBC>	0
<0xBD>	0
<0xBE>	0
<0xBF>	0
<0xC0>	0
<0xC1>	0
<0xC2>	0
<0xC3>	0
<0xC4>	0
<0xC5>	0
<0xC6>	0
<0xC7>	0
<0xC8>	0
<0xC9>	0
<0xCA>	0
<0xCB>	0
<0xCC>	0
<0xCD>	0
<0xCE>	0
<0xCF>	0
<0xD0>	0
<0xD1>	0
<0xD2>	0
<0xD3>	0
<0xD4>	0
<0xD5>	0
<0xD6>	0
<0xD7>	0
<0xD8>	0
<0xD9>	0
<0xDA>	0
<0xDB>	0
<0xDC>	0
<0xDD>	0
<0xDE>	0
<0xDF>	0
<0xE0>	0
<0xE1>	0
<0xE2>	0
<0xE3>	0
<0xE4>	0
<0xE5>	0
<0xE6>	0
<0xE7>	0
<0xE8>	0
<0xE9>	0
<0xEA>	0
<0xEB>	0
<0xEC>	0
<0xED>	0
<0xEE>	0
<0xEF>	0
<0xF0>	0
<0xF1>	0
<0xF2>	0
<0xF3>	0
<0xF4>	0
<0xF5>	0
<0xF6>	0
<0xF7>	0
<0xF8>	0
<0xF9>	0
<0xFA>	0
<0xFB>	0
<0xFC>	0
<0xFD>	0
<0xFE>	0
<0xFF>	0
.	-3.42831
▁	-3.52865
,	-3.556
▁ı	-3.88145
▁i	-4.00273
▁e	-4.39901
▁ve	-4.56847
▁da	-4.57817
▁de	-4.59101
▁bir	-4.69902
▁lar	-4.7009
▁a	-4.70107
▁in	-4.70679
▁si	-4.7353
▁an	-4.74568
▁sı	-4.77732
▁ları	-4.79733
▁ler	-4.82186
▁ol	-4.85941
▁nda	-4.87994
▁en	-4.88051
▁u	-4.90102
▁leri	-4.90648
▁ma	-4.93053
▁n	-4.93085
▁ın	-5.0344
▁m	-5.14084
▁bu	-5.1899
▁nin	-5.22771
▁ne	-5.23277
▁nde	-5.23566
▁il	-5.27093
▁nı	-5.27682
▁ni	-5.31316
▁ki	-5.33226
▁nın	-5.37749
▁na	-5.44628
▁iç	-5.5306
▁me	-5.56896
▁ü	-5.57568
▁li	-5.62219
▁yap	-5.66853
▁ya	-5.68305
▁ye	-5.74033
▁lı	-5.79465
▁ıl	-5.8148
▁lik	-5.88509
dığ	-5.9354
▁den	-5.93649
▁un	-5.97699
duğ	-5.99914
▁arak	-6.01658
ndan	-6.02268
▁lık	-6.03495
▁al	-6.03958
▁dan	-6.07561
▁diğ	-6.09366
▁yıl	-6.11065
n	-6.13457
▁le	-6.15731
▁ce	-6.19259
▁la	-6.20963
▁nu	-6.22112
▁yan	-6.23902
▁"	-6.2544
▁su	-6.30301
▁im	-6.31473
▁ön	-6.33019
▁di	-6.33595
▁mak	-6.33907
"	-6.34143
▁yer	-6.35219
▁ed	-6.3763
▁t	-6.38745
▁ara	-6.40183
▁iş	-6.42798
▁gel	-6.43204
▁çok	-6.45179
:	-6.45449
▁nun	-6.46301
▁te	-6.46773
▁ta	-6.47204
▁ver	-6.47312
▁(	-6.48023
▁“	-6.48354
)	-6.4997
▁nden	-6.51146
▁daha	-6.51167
▁yla	-6.51243
▁cı	-6.5144
▁ım	-6.5158
lığ	-6.51636
-	-6.52624
▁sonra	-6.54105
▁et	-6.54349
▁gün	-6.54893
”	-6.573
▁lu	-6.58603
yle	-6.59375
▁mek	-6.61092
▁türkiye	-6.62404
▁başka	-6.62635
▁geç	-6.64057
▁bul	-6.66949
▁tığ	-6.66981
▁ci	-6.67999
▁o	-6.68076
▁üzer	-6.70231
liğ	-6.71863
i	-6.72027
▁çalış	-6.72087
▁yi	-6.73295
▁gör	-6.75607
▁-	-6.76135
▁is	-6.76373
▁son	-6.79208
▁çık	-6.79491
▁yeni	-6.80515
▁cu	-6.83864
▁kendi	-6.84109
▁konu	-6.84574
imiz	-6.84603
▁kadar	-6.86537
▁ca	-6.86932
000	-6.8777
▁dedi	-6.8823
▁gibi	-6.88597
▁um	-6.90355
▁el	-6.91039
tiğ	-6.91209
008	-6.91384
▁taraf	-6.92209
▁büyük	-6.9296
k	-6.93798
a	-6.93907
▁ımız	-6.93989
▁yüz	-6.94732
▁ilk	-6.96754
▁yı	-6.98075
▁kişi	-6.98521
▁var	-6.98899
▁her	-7.00526
▁bin	-7.02206
▁yol	-7.02264
e	-7.03033
▁karşı	-7.03365
▁ay	-7.0371
▁acak	-7.03839
▁belediye	-7.04594
▁ar	-7.04655
▁ecek	-7.07326
▁ülke	-7.08124
▁iki	-7.08576
▁ir	-7.08861
▁sa	-7.08886
▁biz	-7.0924
▁yen	-7.09345
eceğ	-7.1
▁ama	-7.11094
▁ev	-7.11523
▁tan	-7.13012
ı	-7.13072
▁yaşa	-7.13111
▁kal	-7.13146
acağ	-7.13652
▁söyledi	-7.15264
▁ben	-7.16008
▁zaman	-7.16277
▁bil	-7.17744
▁‘	-7.1838
▁ifade	-7.21976
▁kullan	-7.22279
▁maç	-7.22899
▁dünya	-7.23167
▁baş	-7.23473
?	-7.24153
▁siz	-7.24514
▁türk	-7.24715
▁iyi	-7.2491
▁karar	-7.26251
▁er	-7.26325
▁dır	-7.2778
▁özel	-7.28082
▁alt	-7.28175
▁süre	-7.28391
▁ad	-7.28412
▁sıra	-7.2928
▁bölge	-7.30383
▁gerek	-7.30741
▁genel	-7.30748
▁dı	-7.31062
▁başkan	-7.31289
▁takım	-7.3129
▁lan	-7.31856
▁erek	-7.31866
▁ilgili	-7.32517
▁izmir	-7.33273
▁tir	-7.33579
▁etti	-7.34482
▁bakan	-7.35179
▁kadın	-7.35737
▁olay	-7.35843
▁orta	-7.35875
▁insan	-7.36143
▁söz	-7.37283
▁parti	-7.37346
▁ancak	-7.37822
▁ten	-7.37873
▁3	-7.38257
▁iste	-7.38814
m	-7.39025
▁önem	-7.39378
▁oyun	-7.40915
▁ilçe	-7.41086
▁mış	-7.41522
▁2	-7.41528
▁ard	-7.4224
▁milyon	-7.42643
dık	-7.42743
▁kat	-7.42985
▁ün	-7.43015
▁görev	-7.43562
▁devam	-7.43581
▁gir	-7.4444
▁miş	-7.45213
▁merkez	-7.46852
▁yaş	-7.49236
▁se	-7.49433
▁dik	-7.49588
▁açıkla	-7.49776
▁dir	-7.49962
▁durum	-7.50768
lar	-7.50972
▁düzenle	-7.50992
▁kur	-7.51287
▁sayı	-7.51487
▁değil	-7.51759
▁başla	-7.52691
▁tarih	-7.53227
▁k	-7.53853
▁devlet	-7.54337
▁r	-7.54677
▁yok	-7.5493
▁müdür	-7.55283
▁istanbul	-7.55831
▁film	-7.56112
s	-7.56246
ler	-7.56822
▁iyor	-7.5754
▁yardım	-7.57998
▁çocuk	-7.582
t	-7.58394
▁polis	-7.58453
▁çek	-7.58486
▁tüm	-7.59659
▁ul	-7.59914
▁belir	-7.60079
▁z	-7.60254
▁at	-7.60406
▁ır	-7.60706
▁art	-7.6093
▁aç	-7.61528
▁getir	-7.61765
▁oldu	-7.62547
▁1	-7.62771
;	-7.62821
▁nü	-7.62918
▁luk	-7.6307
▁bak	-7.63858
▁aynı	-7.64324
▁yönetim	-7.66053
lüğ	-7.66299
in	-7.66312
▁sür	-7.66516
▁güven	-7.6703
d	-7.68133
▁eğitim	-7.68266
▁konuştu	-7.68372
▁halk	-7.68991
▁şey	-7.69143
▁futbol	-7.6946
▁alan	-7.70612
▁diğer	-7.70964
▁bilgi	-7.71143
▁‘‘	-7.71182
▁bugün	-7.7238
▁çi	-7.72712
▁4	-7.73387
▁hayat	-7.73427
...	-7.73701
▁üye	-7.74379
▁5	-7.74514
▁çin	-7.74952
▁aday	-7.75715
▁kent	-7.76182
▁dış	-7.76268
▁tek	-7.78009
▁10	-7.78164
▁hafta	-7.7835
▁hakkı	-7.78995
▁nedeniyle	-7.7912
da	-7.79359
▁genç	-7.79698
▁ıp	-7.79887
▁dur	-7.80503
▁yaz	-7.80594
▁sız	-7.8098
▁ilişki	-7.81312
▁kurul	-7.8132
▁daş	-7.81437
▁lü	-7.81803
▁seçim	-7.81965
▁yakın	-7.82263
▁dön	-7.82274
▁haber	-7.82563
▁tır	-7.82827
▁proje	-7.83173
▁hizmet	-7.83487
▁abil	-7.83589
▁vatan	-7.83878
b	-7.84086
▁ayrı	-7.8435
▁hastane	-7.84391
▁leş	-7.84436
▁üniversite	-7.84962
▁söyle	-7.85459
▁konuş	-7.85734
▁ceza	-7.85946
▁spor	-7.86073
▁sağ	-7.86113
▁ül	-7.86186
▁anla	-7.86393
▁böyle	-7.86477
▁fark	-7.86492
▁ıyor	-7.87064
de	-7.87736
▁başarı	-7.88064
▁fazla	-7.88093
luğ	-7.88322
r	-7.88328
▁topla	-7.88615
▁bazı	-7.88737
▁göster	-7.89205
▁aile	-7.89287
▁dür	-7.89336
▁düğ	-7.89357
▁ip	-7.89601
▁avrupa	-7.89867
▁ankara	-7.90311
▁şekil	-7.90334
▁hem	-7.90374
▁eş	-7.90621
▁dil	-7.90884
▁tur	-7.90982
▁toplantı	-7.9103
▁dün	-7.91376
▁oyna	-7.91551
▁gid	-7.91876
▁başbakan	-7.92097
▁hava	-7.92591
▁hak	-7.93537
▁eski	-7.93801
▁öğrenci	-7.94103
▁gazete	-7.94371
▁sahip	-7.94497
▁miz	-7.94654
▁kız	-7.94709
▁saat	-7.95093
▁sor	-7.95489
▁sağla	-7.95552
▁ak	-7.95777
▁para	-7.96564
si	-7.96941
▁sade	-7.97951
▁duk	-7.9796
▁soru	-7.98271
▁lig	-7.98438
▁şu	-7.98664
▁bura	-7.9922
▁göz	-8.00102
▁sun	-8.00196
▁düş	-8.00524
▁dönem	-8.00553
▁kez	-8.00762
▁san	-8.01162
▁okul	-8.01381
▁du	-8.01522
▁savaş	-8.01874
▁kim	-8.0203
▁grup	-8.02927
▁kazan	-8.03689
l	-8.0371
▁cü	-8.03745
▁deniz	-8.03865
▁oluş	-8.05305
▁ikinci	-8.05325
▁gerçekleş	-8.05351
▁bas	-8.05995
▁len	-8.06089
▁ziyaret	-8.06142
▁geliş	-8.07219
▁milli	-8.07232
▁lük	-8.07248
▁mahkeme	-8.07408
▁yüksek	-8.07634
▁sen	-8.07737
▁göre	-8.07946
▁verdi	-8.07984
▁mücadele	-8.08209
▁on	-8.08397
▁belirtti	-8.08444
▁iddia	-8.08761
▁arkadaş	-8.0882
▁değiş	-8.08928
▁tık	-8.09367
▁adam	-8.10177
nün	-8.10441
▁güzel	-8.10618
▁ık	-8.10803
▁uzun	-8.11209
▁lira	-8.11882
▁destek	-8.11951
▁üst	-8.12269
▁oy	-8.12377
▁şöyle	-8.127
▁veya	-8.12977
▁can	-8.13043
▁abd	-8.13428
leri	-8.1354
▁öl	-8.13911
o	-8.13984
laş	-8.14022
te	-8.14189
▁açıklamada	-8.14218
▁ırak	-8.14364
▁hali	-8.14982
▁6	-8.16007
▁yaklaşık	-8.16071
▁ulaş	-8.16396
▁zor	-8.17373
▁doğru	-8.17761
▁dikkat	-8.17924
li	-8.18582
▁taşı	-8.18629
▁meydan	-8.18761
▁tı	-8.18815
▁mi	-8.18921
▁çı	-8.19064
u	-8.19436
▁gül	-8.19644
▁sü	-8.19778
ya	-8.19796
▁sezon	-8.20227
▁hükümet	-8.20431
▁ti	-8.20507
▁suriye	-8.20538
▁erdoğan	-8.20748
ma	-8.2075
▁ekip	-8.21017
▁gece	-8.21222
▁tür	-8.21282
ın	-8.21487
▁üç	-8.2157
▁geri	-8.21737
▁hareket	-8.21772
▁teknik	-8.2181
▁git	-8.22074
▁mehmet	-8.22547
▁suç	-8.22886
▁bırak	-8.22985
▁saldırı	-8.2308
ye	-8.23355
ümüz	-8.2336
▁geldi	-8.23839
▁köy	-8.24282
▁ği	-8.24466
▁hasta	-8.24604
▁milyar	-8.24731
▁açık	-8.25045
▁mahalle	-8.25677
▁yazı	-8.2586
▁şimdi	-8.25904
y	-8.25993
▁şirket	-8.26028
▁yara	-8.26133
▁20	-8.26211
!	-8.26387
▁baba	-8.26397
▁kabul	-8.2642
▁banka	-8.26452
▁tut	-8.2666
▁sistem	-8.26671
▁bütün	-8.27201
ebil	-8.27433
▁dakika	-8.27676
▁ali	-8.27721
▁ora	-8.28051
▁ağır	-8.28116
▁bekle	-8.28268
ları	-8.28579
▁yu	-8.28671
▁hiç	-8.28903
bu	-8.29055
▁top	-8.29178
▁isim	-8.29256
▁iz	-8.29479
▁kısa	-8.29595
▁çevre	-8.29684
▁dr	-8.29706
▁edildi	-8.29954
▁meclis	-8.30804
▁aldı	-8.30939
▁anne	-8.31401
▁kaynak	-8.31534
▁sanat	-8.31598
▁program	-8.31616
▁dava	-8.32213
/	-8.32489
▁duy	-8.32513
▁7	-8.32551
▁az	-8.32652
▁araştır	-8.33033
▁cumhuriyet	-8.33033
▁boy	-8.33248
▁silah	-8.33835
▁ış	-8.33839
▁bölüm	-8.34245
▁bun	-8.34538
▁suz	-8.34652
▁örgüt	-8.34705
▁araç	-8.35194
▁15	-8.35274
▁değer	-8.35301
▁sonuc	-8.35826
▁ur	-8.35945
▁koru	-8.36024
▁hazır	-8.36237
▁uluslararas	-8.36587
▁kaydetti	-8.36675
▁8	-8.36858
▁yaptı	-8.37705
▁sorun	-8.3789
çok	-8.37909
▁100	-8.38088
▁yetki	-8.38119
an	-8.38545
▁dol	-8.3875
▁chp	-8.38794
ğ	-8.38829
yacağ	-8.3885
▁herkes	-8.39093
p	-8.39391
▁kaç	-8.39714
yacak	-8.39849
▁kaza	-8.40522
▁sonuç	-8.40618
▁oda	-8.40765
▁belirterek	-8.40871
▁terör	-8.40956
▁başladı	-8.4107
▁hedef	-8.41249
▁büyükşehir	-8.41271
▁dolar	-8.41759
▁yürü	-8.41782
▁üm	-8.41933
dir	-8.42073
▁pazar	-8.42444
▁neden	-8.42691
▁saha	-8.42723
▁görüş	-8.42798
lı	-8.42973
en	-8.43019
▁rağmen	-8.43416
▁puan	-8.4366
▁operasyon	-8.43742
▁sat	-8.43777
g	-8.43968
▁16	-8.44014
▁yarı	-8.44064
iniz	-8.4491
▁ses	-8.4494
▁ça	-8.45312
▁tören	-8.45369
▁kültür	-8.4559
▁öde	-8.45809
▁*	-8.45835
▁bağlı	-8.45858
di	-8.45904
▁kapsam	-8.46112
▁çe	-8.46124
▁yapı	-8.46262
▁yön	-8.46929
▁hiçbir	-8.47268
▁çıktı	-8.47342
▁izle	-8.47385
▁erkek	-8.47428
▁temsil	-8.47954
▁nasıl	-8.48115
▁gönder	-8.48209
▁grub	-8.48925
▁sosyal	-8.49106
me	-8.49207
▁olacak	-8.49352
▁savun	-8.49468
▁lider	-8.49501
▁yönelik	-8.49724
▁30	-8.50109
▁12	-8.5041
▁yayın	-8.50514
▁vali	-8.5053
▁belirtildi	-8.50595
▁engel	-8.50683
er	-8.50772
▁hız	-8.50952
la	-8.51003
▁ürün	-8.51057
▁kes	-8.51199
▁mız	-8.51453
▁mustafa	-8.51624
▁güç	-8.5204
▁gerçek	-8.52241
▁d	-8.52484
▁plan	-8.52563
▁seç	-8.52718
yerek	-8.53065
▁askeri	-8.53181
▁fotoğraf	-8.53485
ş	-8.53582
▁milletvekili	-8.53706
▁ait	-8.53886
▁satış	-8.5405
▁düşün	-8.54088
▁bulundu	-8.54196
▁yasa	-8.54213
▁bina	-8.54297
▁yat	-8.5431
▁sınır	-8.54417
▁hazırla	-8.54553
▁oku	-8.54554
▁ik	-8.54816
."	-8.55062
▁ortak	-8.5518
▁olimpiyat	-8.55255
▁nokta	-8.55792
▁küçük	-8.56188
▁up	-8.56261
▁emniyet	-8.56327
le	-8.56331
▁tanı	-8.56537
▁bit	-8.56731
▁otur	-8.56924
nin	-8.57094
▁ınız	-8.57403
▁mutlu	-8.57598
▁uygulama	-8.57754
▁hep	-8.58233
▁tik	-8.58285
▁tartış	-8.58502
▁9	-8.58675
aa	-8.58764
▁otomobil	-8.58821
▁yoğun	-8.58932
▁kin	-8.59149
▁tam	-8.59396
▁karşılaş	-8.59587
▁mı	-8.59796
▁tedavi	-8.59926
▁çeşit	-8.60376
▁say	-8.61102
▁transfer	-8.6111
z	-8.61456
▁sev	-8.61469
▁niz	-8.61476
▁beşiktaş	-8.61543
▁yıldız	-8.61606
▁ödül	-8.61771
▁ek	-8.61942
▁içeri	-8.62206
▁şunlar	-8.62221
▁cumhurbaşkanı	-8.62242
▁belirle	-8.62344
▁g	-8.62357
▁fiyat	-8.62392
▁koy	-8.62538
▁ünlü	-8.62599
▁asker	-8.62668
▁kapı	-8.6271
▁telefon	-8.62776
▁akşam	-8.62857
▁muş	-8.62867
▁madde	-8.62972
▁sık	-8.62976
▁çünkü	-8.63014
▁üş	-8.63786
ne	-8.63897
▁incele	-8.64148
▁ahmet	-8.64611
▁şampiyon	-8.64632
▁ediyor	-8.65127
▁toplum	-8.65211
▁site	-8.65505
▁şubat	-8.66103
▁ticaret	-8.66114
▁firma	-8.66444
▁yaban	-8.66585
▁ölüm	-8.66685
),	-8.66877
▁gözaltı	-8.66918
▁sabah	-8.67028
▁hale	-8.6766
▁uz	-8.67759
▁siyasi	-8.68004
▁sektör	-8.68022
umuz	-8.69234
▁bildirildi	-8.69623
▁ilgi	-8.69957
▁üretim	-8.70131
▁kardeş	-8.70479
▁ban	-8.70594
▁derece	-8.70627
▁11	-8.70682
▁kar	-8.70776
▁tepki	-8.71293
▁eylem	-8.71683
▁ordu	-8.71732
dır	-8.72388
▁görüşme	-8.73482
▁sanayi	-8.73547
▁direktör	-8.73872
▁ba	-8.7398
▁zarar	-8.74558
▁eylül	-8.74779
▁piyasa	-8.74797
▁hat	-8.74945
▁mart	-8.75005
▁sevgi	-8.7521
▁park	-8.75288
▁yüksel	-8.75426
ta	-8.75499
▁bildirdi	-8.75973
▁soruşturma	-8.76103
▁sahne	-8.7623
▁şube	-8.7626
▁prof	-8.76665
▁internet	-8.76855
▁kuru	-8.77097
▁almanya	-8.77364
▁inan	-8.77551
▁nız	-8.77717
▁sahib	-8.77824
▁ekonomi	-8.77839
▁uygula	-8.77911
'	-8.7797
▁etki	-8.7813
▁anlam	-8.78483
sı	-8.78485
▁vergi	-8.78631
▁açı	-8.78651
▁dolayı	-8.78737
▁salon	-8.79098
▁b	-8.79215
▁ayrıl	-8.79573
▁kuzey	-8.79781
▁kan	-8.79896
▁fenerbahçe	-8.799
▁rapor	-8.79956
cı	-8.79963
un	-8.80214
▁hemen	-8.8036
▁yani	-8.80376
▁china	-8.80422
▁galatasaray	-8.80519
▁açıkladı	-8.80757
▁şekl	-8.80981
▁çift	-8.81008
▁çözüm	-8.81149
▁beraber	-8.81243
▁kadro	-8.81308
▁oran	-8.81378
▁sarı	-8.81552
▁öğren	-8.81637
c	-8.81701
▁asl	-8.81715
▁dışişleri	-8.81831
▁bi	-8.8188
erek	-8.81958
▁50	-8.82093
▁katıldı	-8.82407
▁f	-8.8269
▁işbirliği	-8.82787
yeceğ	-8.8302
▁kupa	-8.83037
▁25	-8.8342
▁beijing	-8.83557
▁kötü	-8.83959
▁müdahale	-8.84083
▁yaşam	-8.84124
▁turizm	-8.84279
▁ateş	-8.84288
▁kara	-8.84337
▁izin	-8.84488
▁imza	-8.84646
yecek	-8.84736
▁18	-8.84752
▁talep	-8.84999
.”	-8.85186
▁mayıs	-8.85341
▁kapa	-8.85522
▁sav	-8.85899
▁kuruluş	-8.85955
h	-8.86458
oğlu	-8.86594
▁barış	-8.86777
▁şarkı	-8.86858
▁uygun	-8.86995
▁arka	-8.87202
▁yarat	-8.8724
▁şehir	-8.87598
▁yarış	-8.88083
▁kriz	-8.88261
sa	-8.89148
▁doğ	-8.89224
▁pek	-8.89257
▁görüntü	-8.89303
▁rusya	-8.89347
▁metre	-8.8936
▁aydın	-8.8958
▁teşekkür	-8.89689
▁büyü	-8.89836
▁kredi	-8.89958
▁sokak	-8.89969
▁faaliyet	-8.90202
▁kitap	-8.90205
▁mu	-8.90349
▁liste	-8.90387
▁hal	-8.90557
▁ücret	-8.90669
▁temmuz	-8.91161
▁gündem	-8.91185
▁tespit	-8.91509
ün	-8.91572
▁ekonomik	-8.91983
▁uçak	-8.92066
▁yarak	-8.92107
▁terörist	-8.92125
▁ileri	-8.9216
▁katkı	-8.92341
▁taraftar	-8.92464
▁teklif	-8.92567
▁sıkıntı	-8.927
▁gösteri	-8.92763
▁doğu	-8.9278
▁şiddet	-8.92923
▁vurgula	-8.92974
▁saatler	-8.93028
▁tesis	-8.93252
▁çocuğ	-8.93273
▁14	-8.93274
▁euro	-8.93396
▁the	-8.93429
▁atatürk	-8.93482
▁kale	-8.93818
▁tekrar	-8.93906
▁ocak	-8.93916
▁sin	-8.94033
dı	-8.94052
▁bel	-8.942
▁derneğ	-8.94446
▁millet	-8.94975
▁yönetici	-8.95357
▁kayded	-8.9561
▁ab	-8.96033
▁kuvvet	-8.96087
▁ız	-8.96309
▁oğl	-8.96713
▁birinci	-8.9673
▁zaten	-8.96787
▁sivil	-8.97205
yi	-8.97264
▁komutan	-8.97471
▁mesaj	-8.97675
▁politika	-8.9817
▁ince	-8.98639
▁dizi	-8.98854
▁tamamla	-8.991
▁hukuk	-8.99327
▁amaç	-8.99411
▁birbir	-8.99702
▁haziran	-8.99708
▁uyor	-8.99733
▁13	-8.99749
▁ici	-8.99797
▁17	-9.00083
▁istedi	-9.00138
▁kamu	-9.00183
▁demir	-9.00241
▁enerji	-9.00551
▁dört	-9.00574
▁kulüp	-9.0064
▁israil	-9.00643
▁antalya	-9.00667
▁bilim	-9.00706
▁işlem	-9.00906
▁verildi	-9.01016
▁müzik	-9.01088
▁hayvan	-9.01194
▁otel	-9.0146
▁öğretmen	-9.01468
▁ciddi	-9.01503
▁alındı	-9.01708
▁serbest	-9.01979
den	-9.01995
▁kanun	-9.0211
na	-9.02111
ü	-9.02379
▁kolay	-9.02586
▁gın	-9.0261
▁özgür	-9.02697
▁için	-9.02912
▁s	-9.02946
▁belli	-9.02959
▁şehit	-9.03019
▁kart	-9.03326
▁anadolu	-9.03712
▁gemi	-9.04256
▁ingiltere	-9.0464
▁konser	-9.05133
▁belge	-9.0518
▁doğum	-9.05191
▁yıp	-9.05379
dan	-9.05388
▁artış	-9.05541
▁giy	-9.05569
▁biraz	-9.05742
▁kurtar	-9.05796
▁vur	-9.05856
f	-9.06093
▁komisyon	-9.06398
▁ağustos	-9.06552
▁resm	-9.06561
▁temel	-9.06689
▁getirdi	-9.06739
▁batı	-9.06871
▁ingiliz	-9.0688
▁taş	-9.07095
▁parça	-9.07259
▁kamp	-9.0727
▁jandarma	-9.07313
▁televizyon	-9.07348
▁ise	-9.07507
▁servis	-9.07653
▁başvuru	-9.07789
▁iran	-9.07827
▁kafa	-9.07942
▁ihale	-9.07977
▁kimse	-9.08163
▁sürü	-9.08198
▁bayram	-9.08241
al	-9.08263
▁yemek	-9.08289
▁bulunuyor	-9.08342
▁uzman	-9.08483
▁avukat	-9.08533
▁siyaset	-9.08744
▁öte	-9.08813
▁cadde	-9.08898
▁henüz	-9.09063
▁dahil	-9.09169
▁takip	-9.09239
▁mal	-9.09298
▁kulübü	-9.09305
▁kol	-9.09544
▁adet	-9.0963
▁dinle	-9.09976
▁uzak	-9.09984
▁teslim	-9.10057
▁işaret	-9.10068
▁ihracat	-9.1009
▁aşk	-9.10379
▁güney	-9.10493
arak	-9.10496
▁kayıt	-9.10682
▁bey	-9.11017
▁fransa	-9.1105
▁federasyon	-9.11076
▁40	-9.11114
▁herhangi	-9.11399
▁düzey	-9.11492
▁sıcak	-9.11804
oğ	-9.1187
▁h	-9.12328
▁yapıldı	-9.12466
lu	-9.12559
▁akp	-9.12636
▁güçlü	-9.12694
▁ytl	-9.12754
▁olur	-9.12926
▁kontrol	-9.12998
▁24	-9.13023
▁fakülte	-9.13049
▁eğ	-9.13474
▁yarın	-9.13483
▁seviye	-9.13588
▁beş	-9.13672
▁hüseyin	-9.13742
▁anayasa	-9.13752
▁ism	-9.1391
▁tehlike	-9.14127
▁uş	-9.14407
ç	-9.14663
▁ege	-9.14824
ca	-9.14933
▁itibaren	-9.15386
▁gol	-9.15405
▁eser	-9.15443
▁açılış	-9.15578
▁nisan	-9.15686
▁toprak	-9.15766
▁yorum	-9.15845
▁yanlış	-9.16137
▁tl	-9.16148
▁yerel	-9.16347
▁sınıf	-9.16488
▁çekti	-9.16719
▁abdnin	-9.1672
▁otobüs	-9.16785
▁ekib	-9.17337
▁biri	-9.17367
▁nere	-9.17467
ö	-9.17497
▁faiz	-9.17534
▁yanıt	-9.17815
▁şart	-9.17939
▁ulusal	-9.18068
▁örnek	-9.18244
▁dü	-9.18334
▁patla	-9.18338
▁üçüncü	-9.18403
▁marka	-9.18407
▁başkent	-9.18423
▁karşıyaka	-9.18707
▁tercih	-9.18781
▁kilometre	-9.19109
▁öyle	-9.19124
▁iktidar	-9.19184
▁baskı	-9.19227
▁sağlık	-9.19251
▁kır	-9.1928
▁orman	-9.19375
▁tarım	-9.19561
▁olan	-9.20022
▁kongre	-9.20499
▁trafik	-9.20545
▁ders	-9.20708
▁çal	-9.20984
▁davet	-9.21097
▁elektrik	-9.21125
▁sevk	-9.21507
▁medya	-9.21734
▁imkan	-9.21768
2	-9.21822
▁teknoloji	-9.21926
▁arac	-9.21959
▁amerika	-9.22058
▁çalışan	-9.22089
▁for	-9.22382
▁22	-9.22633
C	-9.22664
▁istiyoruz	-9.22766
ik	-9.22789
▁yarışma	-9.22852
▁gelir	-9.23039
▁kemal	-9.23104
▁mümkün	-9.23295
▁boz	-9.23313
▁desteğ	-9.23405
▁daire	-9.23441
▁yeşil	-9.23511
▁güc	-9.2363
ci	-9.23671
▁birkaç	-9.23734
yse	-9.23753
▁19	-9.23778
▁500	-9.23781
se	-9.24089
▁kay	-9.24121
▁ayak	-9.24186
▁doktor	-9.2438
▁saye	-9.24658
▁şahin	-9.24836
▁çaba	-9.24875
▁yurt	-9.24954
▁bomba	-9.25333
▁lise	-9.25493
▁amerikan	-9.25568
▁öğrenildi	-9.25884
▁abdullah	-9.25905
▁öz	-9.25985
▁hasan	-9.25997
▁tatil	-9.26077
sel	-9.26249
▁ür	-9.26255
▁deprem	-9.26442
▁inşaat	-9.26447
▁yalnız	-9.26462
▁güneş	-9.26534
▁dağ	-9.2667
▁sın	-9.26676
▁ihtiyaç	-9.26801
▁katılım	-9.2697
el	-9.27247
▁fakat	-9.27388
▁bilgisayar	-9.27721
▁doğal	-9.27788
▁sayfa	-9.28095
▁fuar	-9.28138
▁şüphe	-9.28194
▁numara	-9.28459
su	-9.2846
▁idare	-9.28574
▁yaka	-9.28732
com	-9.288
▁kesim	-9.29113
▁islam	-9.2923
▁geniş	-9.29467
▁kaybet	-9.29595
▁üyor	-9.2978
du	-9.29928
▁uyarı	-9.30006
▁murat	-9.3001
mış	-9.30015
▁saygı	-9.30318
▁şans	-9.30404
▁fatih	-9.30452
▁ibrahim	-9.30485
▁kaydedildi	-9.30595
▁galibiyet	-9.3068
▁new	-9.30731
▁ederek	-9.30817
ti	-9.31009
▁boş	-9.31033
▁götür	-9.31193
▁beri	-9.31404
▁2.	-9.31423
nın	-9.31476
▁yatırım	-9.31546
▁28	-9.31553
▁personel	-9.31684
ar	-9.31713
▁hatırla	-9.31817
▁bağlantı	-9.3191
▁gerekiyor	-9.31965
’	-9.32274
▁tamamen	-9.32303
▁istifa	-9.32367
1	-9.32409
▁heyet	-9.32457
▁ilerle	-9.32504
▁acı	-9.32532
▁kullandı	-9.32848
bkz	-9.32874
▁önle	-9.32895
▁yılmaz	-9.32913
▁sinema	-9.33181
▁adalet	-9.33204
lik	-9.33287
▁acil	-9.33431
im	-9.33503
spor	-9.3357
▁tiyatro	-9.33712
▁veri	-9.33814
▁vurguladı	-9.3384
▁hepsi	-9.33854
ıcı	-9.34219
▁kanal	-9.34303
▁sol	-9.34432
▁sefer	-9.34523
▁dost	-9.34779
tir	-9.34788
▁hapis	-9.34865
▁paylaş	-9.35012
▁gaz	-9.35152
▁ihtiyac	-9.35177
▁renk	-9.35194
▁basın	-9.35435
▁defa	-9.35454
▁hesap	-9.35567
▁yönet	-9.35982
▁model	-9.36409
v	-9.36513
▁tıp	-9.36542
▁21	-9.36631
▁kampanya	-9.36678
tüğ	-9.36688
▁hangi	-9.37023
▁tu	-9.37151
▁kaldı	-9.3716
▁tayyip	-9.37306
▁gezi	-9.37347
▁kalk	-9.37479
▁23	-9.37487
▁vardır	-9.37523
▁süper	-9.3772
▁2013	-9.37763
▁büyükelçi	-9.3796
▁kısm	-9.38051
▁risk	-9.38138
▁eyalet	-9.38164
ce	-9.38261
▁all	-9.38385
▁meslek	-9.38625
▁bursa	-9.38856
▁harca	-9.39078
▁demokrasi	-9.39129
▁dağıt	-9.39347
▁gerekçesi	-9.39375
▁olarak	-9.39391
▁recep	-9.39454
▁bahçe	-9.39785
▁çerçeve	-9.39803
▁hakem	-9.39851
▁protesto	-9.40036
▁oluyor	-9.40069
▁miktar	-9.40161
▁cinayet	-9.40236
▁tip	-9.4027
▁borsa	-9.40302
▁beyaz	-9.40401
dha	-9.40422
▁esnaf	-9.40438
▁muz	-9.40496
▁üre	-9.40606
▁lazım	-9.40639
ir	-9.40765
▁aş	-9.40883
▁çay	-9.4095
▁hata	-9.41048
iş	-9.41246
▁sert	-9.41265
▁cenaze	-9.41428
▁kasım	-9.41564
▁masa	-9.41574
▁geçti	-9.41658
▁emekli	-9.41729
▁karış	-9.41862
▁sınav	-9.42003
▁şikayet	-9.42065
▁tak	-9.42396
▁aziz	-9.42489
▁alıyor	-9.42646
▁kapalı	-9.42757
▁taleb	-9.42961
▁sürek	-9.43044
▁değerlen	-9.43051
▁çağrı	-9.43128
A	-9.4316
on	-9.4321
▁not	-9.43431
▁tahmin	-9.43464
▁zirve	-9.43468
▁gönül	-9.43475
yici	-9.43613
▁şampiyona	-9.43791
▁dergi	-9.43908
▁dal	-9.43917
▁plaka	-9.44142
▁çöz	-9.44142
▁allah	-9.44333
il	-9.44468
▁tane	-9.44512
▁düşük	-9.44597
▁60	-9.44676
▁olsun	-9.44796
yış	-9.44821
▁rakam	-9.44822
▁duygu	-9.44839
▁hisse	-9.4488
▁dük	-9.44986
▁rahat	-9.45021
ken	-9.45248
▁diyarbakır	-9.45263
▁uğra	-9.45622
▁vardı	-9.45678
▁turist	-9.45782
▁eksik	-9.45886
▁kanser	-9.45984
▁yor	-9.46036
▁hakim	-9.4605
▁gizli	-9.46098
▁süreç	-9.46102
▁yöntem	-9.46268
▁cami	-9.46407
▁çağ	-9.46443
▁karşıla	-9.46458
▁performans	-9.46503
▁200	-9.46557
▁kırmızı	-9.46577
▁gösterdi	-9.46649
▁fransız	-9.46841
▁normal	-9.46986
▁yük	-9.46988
▁anlaşma	-9.47156
▁rol	-9.4735
▁memur	-9.47569
mi	-9.47821
▁yazar	-9.47915
▁cevap	-9.47947
▁tamam	-9.48157
▁kap	-9.48221
▁road	-9.48249
ine	-9.4834
▁malı	-9.48341
▁kürt	-9.48379
ki	-9.48476
▁görün	-9.48477
▁paket	-9.48487
▁tuğ	-9.48588
▁aslan	-9.48588
▁teşkilat	-9.48698
▁c	-9.48819
▁duruşma	-9.48865
▁fırsat	-9.48865
▁uza	-9.49049
▁sal	-9.49184
▁mü	-9.49202
▁akl	-9.4932
▁mevcut	-9.49399
▁sakat	-9.49494
▁işletme	-9.49551
▁buluş	-9.49604
▁kilo	-9.49693
▁denetim	-9.49808
▁yakala	-9.49841
▁anlattı	-9.49961
▁mısır	-9.50109
▁2012	-9.50235
▁araba	-9.50266
▁unut	-9.50395
▁olduğunu	-9.50452
▁dolu	-9.50538
▁destekle	-9.50565
RI	-9.50642
▁kamuoyu	-9.50729
▁muhabir	-9.50729
▁yargı	-9.50764
▁malzeme	-9.5098
▁of	-9.51001
▁girişim	-9.51017
▁konferans	-9.51147
ka	-9.51199
▁radio	-9.51204
▁International	-9.51441
▁biçim	-9.51535
▁emin	-9.51668
▁27	-9.51675
▁kaymakam	-9.51719
iz	-9.51749
▁rus	-9.51786
▁ediyorum	-9.51986
▁bütçe	-9.5199
▁tbmm	-9.52098
▁değildir	-9.52103
rights	-9.52148
▁bodrum	-9.52156
▁shiji	-9.52156
at	-9.52186
ngshan	-9.52219
▁geliyor	-9.52251
▁devre	-9.5227
▁yağ	-9.52291
▁kulüb	-9.52367
▁reserve	-9.52395
▁aktar	-9.52492
040	-9.5251
▁dolayısıyla	-9.52638
ınca	-9.52683
▁azal	-9.52781
▁bağla	-9.52959
▁şehr	-9.52982
▁kurtul	-9.52999
▁dışarı	-9.53116
▁basketbol	-9.53179
▁ilaç	-9.53188
▁cuma	-9.53233
▁edin	-9.53276
ni	-9.53354
▁organizasyon	-9.53358
▁bedel	-9.5336
▁temiz	-9.53396
▁kesin	-9.53579
▁erke	-9.5369
▁1.	-9.53772
▁antrenman	-9.53854
▁ramazan	-9.53876
▁kamera	-9.53913
▁manisa	-9.53963
▁metin	-9.54347
▁kavga	-9.54425
um	-9.54497
▁kaya	-9.54551
▁din	-9.54636
▁cezaevi	-9.54767
▁yıldırım	-9.54791
sin	-9.54838
▁uçağ	-9.54862
▁öneri	-9.55107
▁bayrak	-9.55121
▁siyah	-9.55187
▁koşul	-9.55324
▁kitab	-9.55344
▁osman	-9.55561
▁hayır	-9.55573
▁tehdit	-9.55607
▁onur	-9.55737
▁müş	-9.55744
▁olabilir	-9.55751
▁bol	-9.5578
miş	-9.55841
▁benze	-9.55892
▁kon	-9.55902
▁ekipleri	-9.56455
▁gıda	-9.56552
▁komite	-9.56608
▁ton	-9.56608
▁ışık	-9.56702
▁net	-9.56884
▁çoğu	-9.56993
▁pkk	-9.57136
▁bm	-9.57203
▁çıkar	-9.57286
▁zengin	-9.5735
▁müşteri	-9.57377
▁ışid	-9.57506
▁yetiş	-9.57526
▁tabi	-9.57536
▁temas	-9.57744
dur	-9.57825
▁halde	-9.57825
▁dosya	-9.58107
▁tasarı	-9.5814
▁yağış	-9.58205
▁köprü	-9.58243
▁koca	-9.58266
▁york	-9.5834
▁kural	-9.58508
▁konak	-9.58525
▁26	-9.58617
tır	-9.58844
▁darbe	-9.58911
▁cep	-9.58929
▁pay	-9.59124
▁petrol	-9.59154
▁kazandı	-9.59251
▁merak	-9.59465
▁ilan	-9.59486
▁makam	-9.59512
▁rahatsız	-9.59564
▁fabrika	-9.59733
▁hediye	-9.59852
▁nüfus	-9.60081
▁bülent	-9.60145
▁yunanistan	-9.60209
▁dönüş	-9.60404
▁rakip	-9.60462
▁tutuk	-9.60761
▁konsey	-9.60838
▁ömer	-9.60954
▁ismail	-9.60978
▁süt	-9.61043
▁kaybed	-9.61117
▁bekleniyor	-9.61142
▁çarp	-9.61302
▁trilyon	-9.61412
▁iptal	-9.61599
▁trabzonspor	-9.61765
▁üretici	-9.61938
▁sekreter	-9.62075
▁mali	-9.62257
▁ada	-9.62732
▁yaralandı	-9.62765
▁borç	-9.62863
▁alışveriş	-9.63018
▁ortalama	-9.63102
▁seri	-9.63117
▁70	-9.63325
▁itiraz	-9.63532
▁korku	-9.63587
▁sergi	-9.63592
▁tabii	-9.63658
uz	-9.63694
▁deplasman	-9.6382
▁hürriyet	-9.63858
▁2014	-9.63881
▁bağımsız	-9.63895
▁sigara	-9.6398
▁edecek	-9.64028
▁rekor	-9.64072
▁yay	-9.64094
▁seyir	-9.64186
▁umut	-9.64216
▁adliye	-9.64361
▁bağ	-9.64369
▁hoca	-9.64464
▁başvur	-9.64653
▁roman	-9.64852
▁35	-9.65043
▁bornova	-9.65048
▁kalite	-9.65114
▁ayrıca	-9.65253
▁yip	-9.65259
▁bebek	-9.65387
▁londra	-9.65486
▁yık	-9.65518
▁saç	-9.65581
▁bayan	-9.65586
▁albüm	-9.65744
man	-9.65752
▁adana	-9.6592
▁sendika	-9.66036
▁çiçek	-9.66087
▁belirlendi	-9.66113
▁geçmiş	-9.66176
▁ediliyor	-9.66192
▁dans	-9.66249
▁sözleşme	-9.6631
ge	-9.66443
▁mezar	-9.6665
▁turnuva	-9.66781
▁konuk	-9.66797
▁istiyorum	-9.66807
▁kurs	-9.66829
▁fayda	-9.66982
▁uğur	-9.67132
▁liman	-9.67225
▁girdi	-9.67511
sal	-9.67534
▁inşa	-9.67545
yüş	-9.6759
us	-9.67671
▁tv	-9.67746
▁değerlendirme	-9.67847
mak	-9.67906
▁kıbrıs	-9.68067
▁3.	-9.68128
▁gez	-9.68365
▁kış	-9.6841
▁problem	-9.68433
▁filistin	-9.68542
lerin	-9.68565
▁300	-9.68602
▁ikili	-9.68754
▁italya	-9.68883
▁yeter	-9.68977
▁yönetme	-9.68989
▁akıl	-9.69034
▁adres	-9.69053
▁olası	-9.69108
▁şen	-9.69128
▁ağaç	-9.69148
▁90	-9.69215
▁kurban	-9.69331
▁artık	-9.69407
tı	-9.69409
ing	-9.69454
▁van	-9.69454
▁uyuşturucu	-9.69602
▁motor	-9.69624
▁aşama	-9.69625
acak	-9.69787
▁yak	-9.6988
▁ameliyat	-9.69909
▁sürdü	-9.69915
▁av	-9.70003
ini	-9.70069
▁gram	-9.70333
▁hesab	-9.70444
▁itfaiye	-9.7046
▁dair	-9.70544
▁saray	-9.70593
▁/	-9.70647
ip	-9.7069
▁madalya	-9.70761
▁gereğ	-9.70775
▁uy	-9.71019
▁amac	-9.7103
▁test	-9.71301
is	-9.71544
3	-9.71576
▁konut	-9.71656
oz	-9.71731
▁aşağı	-9.72081
▁antrenör	-9.72196
▁deri	-9.7225
▁ucu	-9.72417
▁ha	-9.72437
▁hikaye	-9.72484
▁yapıyor	-9.72501
ak	-9.72724
▁kral	-9.72824
▁öğretim	-9.72931
▁attı	-9.73201
▁heyecan	-9.73545
▁kuş	-9.73566
▁sigorta	-9.73716
▁gitti	-9.7374
▁sahil	-9.73761
▁planla	-9.738
bir	-9.7385
▁29	-9.73982
▁reklam	-9.74004
▁yapılacak	-9.74021
▁doğa	-9.74149
▁mühendis	-9.74329
▁yeterli	-9.74354
▁ayağ	-9.74358
▁karakter	-9.74711
▁80	-9.74736
to	-9.74763
▁dernek	-9.74816
▁çiz	-9.75069
▁gen	-9.75081
▁semt	-9.75163
▁paris	-9.75262
ır	-9.75331
▁2007	-9.7553
▁asya	-9.75585
▁kenar	-9.75778
▁iletişim	-9.75794
▁organ	-9.75856
4	-9.75959
▁mekan	-9.75986
▁gaziantep	-9.76062
▁takdir	-9.76071
inde	-9.76076
▁kırsal	-9.76109
▁slogan	-9.76166
▁31	-9.76253
ydi	-9.76353
▁falan	-9.76375
▁düşünce	-9.76408
▁dev	-9.76412
▁kira	-9.76681
▁belde	-9.76756
▁diyor	-9.7679
▁rum	-9.76834
▁ysa	-9.76881
▁yet	-9.76901
▁pozisyon	-9.7698
▁sar	-9.77053
▁milletvekil	-9.77099
▁maliyet	-9.77163
▁endeks	-9.77198
▁nla	-9.77229
▁yansı	-9.77386
▁ihbar	-9.77595
://	-9.77597
▁fikir	-9.77665
▁peş	-9.77975
▁nite	-9.7817
▁resim	-9.78553
ve	-9.78759
▁abdde	-9.78795
▁muğla	-9.78835
▁devrim	-9.78869
▁finans	-9.7887
▁müslüman	-9.78906
▁adli	-9.78958
▁uyar	-9.78972
▁yargılan	-9.79038
▁duvar	-9.79157
▁taban	-9.79256
ünce	-9.79295
▁vazgeç	-9.79316
▁ambulans	-9.79381
▁yüzyıl	-9.79532
ması	-9.79543
▁sok	-9.798
▁eşya	-9.79961
yı	-9.79967
▁sürüyor	-9.79998
▁buldu	-9.80085
E	-9.80149
▁veriyor	-9.80154
▁ölçü	-9.80259
▁açtı	-9.80287
▁binlerce	-9.80408
▁önlem	-9.80429
▁tüket	-9.80432
▁daya	-9.80492
saray	-9.80503
▁emre	-9.8066
lık	-9.80779
▁kahraman	-9.80793
▁huzur	-9.80843
▁2008	-9.80908
▁yağmur	-9.81117
▁soy	-9.81265
türkiye	-9.81327
▁cihaz	-9.81331
▁ist	-9.81374
▁kelime	-9.81708
▁selçuk	-9.81765
ların	-9.81879
▁gun	-9.81958
▁gider	-9.81959
▁çetin	-9.8198
▁ilginç	-9.81986
▁organize	-9.82006
▁as	-9.82183
lan	-9.82349
▁kalp	-9.8246
▁gerekir	-9.82593
▁bor	-9.8271
▁istikrar	-9.82769
▁gurur	-9.82788
▁sebep	-9.82976
▁füze	-9.82976
▁uzay	-9.83034
▁ruh	-9.83263
bahçe	-9.83268
▁vekil	-9.83334
▁arazi	-9.8344
▁aşırı	-9.83464
▁p	-9.83497
▁ediyoruz	-9.83698
▁hafif	-9.83712
▁çatışma	-9.83813
▁koç	-9.83931
▁mağaza	-9.84018
▁45	-9.84192
▁ölü	-9.84281
▁üz	-9.84286
▁stad	-9.84288
▁asıl	-9.84456
▁komşu	-9.84471
tan	-9.84474
▁2005	-9.84754
▁zan	-9.84798
▁konya	-9.85058
▁cinsel	-9.85066
▁video	-9.85354
▁mensup	-9.85367
▁beklenti	-9.85403
niz	-9.85464
▁doğrultu	-9.85547
▁bilet	-9.85561
▁yaklaş	-9.8557
▁zafer	-9.85693
▁çap	-9.85749
▁kıyı	-9.85924
▁trabzon	-9.85993
▁tedbir	-9.86003
▁to	-9.86061
▁uyum	-9.86126
▁göl	-9.86324
▁afrika	-9.86389
▁üzerine	-9.86464
▁müzakere	-9.86665
▁men	-9.86668
▁şoför	-9.86687
▁ticari	-9.86705
▁cem	-9.86928
▁müze	-9.8697
▁süleyman	-9.87013
▁şeker	-9.87049
▁etkile	-9.87082
▁ümit	-9.87099
▁tahliye	-9.87295
▁demokratik	-9.8737
▁forma	-9.87429
▁civar	-9.87515
ydı	-9.8755
▁modern	-9.87646
miz	-9.87712
▁muhalefet	-9.87765
S	-9.87782
▁endişe	-9.879
▁vakf	-9.87981
▁japonya	-9.88071
▁genelkurmay	-9.88075
▁tablo	-9.88075
▁makine	-9.88089
▁şiir	-9.88383
▁yurtdışı	-9.88665
üp	-9.8869
▁mutlaka	-9.88738
▁kaçak	-9.88784
▁yim	-9.88852
▁tat	-9.89034
ra	-9.8933
▁eğlence	-9.89359
(	-9.89365
▁kılıç	-9.8968
▁ilgilen	-9.8968
▁sermaye	-9.89759
▁ağrı	-9.90017
▁öğle	-9.90049
▁başar	-9.90139
▁soğuk	-9.90171
▁düğün	-9.90342
re	-9.90401
▁ardından	-9.90403
▁tanıtım	-9.90409
▁pilot	-9.90518
▁sakin	-9.90632
▁kaybetti	-9.9072
türk	-9.90873
▁çoğun	-9.91006
▁bünye	-9.91094
▁karadeniz	-9.91104
▁kork	-9.91152
▁uç	-9.91157
▁kutla	-9.9118
▁namaz	-9.9125
et	-9.91377
▁tren	-9.91429
▁he	-9.91513
▁maden	-9.91658
ıp	-9.91679
▁koş	-9.91875
▁denge	-9.91974
▁hır	-9.91981
▁trafiğ	-9.92166
▁akdeniz	-9.9217
▁arap	-9.92206
▁maddi	-9.9225
▁set	-9.92408
▁tutar	-9.92447
▁yaşlı	-9.92469
ba	-9.92523
▁yapacak	-9.92797
her	-9.92818
▁muhtar	-9.92836
▁yararlan	-9.92861
▁kaldırıldı	-9.92876
▁cumartesi	-9.92882
▁tüketici	-9.92882
▁ispanya	-9.92974
▁strateji	-9.92989
ay	-9.93054
▁yürütül	-9.93216
▁holding	-9.93279
▁ekle	-9.93314
▁2010	-9.93435
▁edebiyat	-9.936
▁vade	-9.93654
▁reform	-9.9377
▁bal	-9.93775
▁final	-9.93789
iyor	-9.9411
▁cam	-9.94182
unuz	-9.94236
www	-9.94264
tik	-9.94332
ıyor	-9.94376
▁yasal	-9.94593
▁eleştir	-9.94725
▁davran	-9.94764
▁kavuş	-9.94871
▁tarz	-9.94909
ek	-9.9506
▁orhan	-9.95061
▁davranış	-9.95082
?"	-9.95141
▁2006	-9.95179
▁erzurum	-9.95185
son	-9.95319
mek	-9.95339
▁bush	-9.95479
▁yaşandı	-9.95494
▁istiyor	-9.95498
yarak	-9.95503
▁esas	-9.95526
▁dikkati	-9.95626
▁aykırı	-9.95781
▁be	-9.95815
▁birim	-9.95949
▁boyut	-9.96179
▁diş	-9.96273
▁2015	-9.96276
yan	-9.96563
▁kapasite	-9.96606
▁engelle	-9.96749
▁http	-9.96754
▁eşit	-9.96882
yabil	-9.96987
▁cesed	-9.9703
▁hasar	-9.97302
as	-9.97303
sinde	-9.9745
▁kariyer	-9.97533
▁eleştiri	-9.97534
▁metrekare	-9.97662
▁tazminat	-9.97662
▁sezer	-9.97668
▁hanım	-9.97668
▁ulaştı	-9.97715
▁tanık	-9.97756
▁yayınla	-9.97792
▁başlattı	-9.9784
▁üretil	-9.97851
▁radyo	-9.97864
▁düştü	-9.98072
▁2009	-9.98117
▁2002	-9.98226
▁depo	-9.98261
▁tekne	-9.98272
▁400	-9.98292
▁terk	-9.98349
▁eskişehir	-9.98405
▁kayseri	-9.98468
▁sevin	-9.98501
sın	-9.98537
▁tanış	-9.98615
ed	-9.98619
▁gin	-9.98645
▁imam	-9.98674
▁istasyon	-9.98691
▁bıçak	-9.98755
ol	-9.98768
▁konuşmada	-9.98808
st	-9.98814
▁atla	-9.98941
▁maaş	-9.99158
▁boğaz	-9.99216
▁Washington	-9.9936
▁amerikalı	-9.99611
▁uefa	-9.99686
▁ayır	-9.9971
▁baykal	-9.99952
▁örneğ	-9.99981
▁afganistan	-9.99989
▁tecavüz	-10
▁altyapı	-10.0004
ri	-10.0013
can	-10.0016
▁danışman	-10.0032
▁tecrübe	-10.0033
▁sohbet	-10.0037
▁ekledi	-10.0044
▁mersin	-10.0045
cumhurbaşkanlığı	-10.0046
▁platform	-10.0049
▁anket	-10.0056
▁şam	-10.0062
▁mesele	-10.0075
▁karayolu	-10.0112
▁yetkilileri	-10.0119
ında	-10.0124
▁sultan	-10.015
ab	-10.0152
▁büro	-10.0173
lari	-10.0181
▁2000	-10.0185
▁kedi	-10.0191
▁meyve	-10.0195
▁senaryo	-10.0196
▁2004	-10.0198
▁öztürk	-10.023
▁ekran	-10.023
▁müziğ	-10.0235
▁kültürel	-10.0243
▁fon	-10.0248
▁bursaspor	-10.0249
idir	-10.0255
▁tepe	-10.0269
▁niyet	-10.0277
ev	-10.0281
▁ortam	-10.0283
ke	-10.0297
▁rejim	-10.0309
▁toprağ	-10.031
▁açıklandı	-10.0312
▁döviz	-10.0314
▁tibet	-10.0336
▁pazartesi	-10.0348
▁çizgi	-10.0349
▁meli	-10.0351
▁dua	-10.0353
▁açıldı	-10.0353
▁perşembe	-10.0357
▁birlikte	-10.0366
▁mhp	-10.0368
▁2003	-10.0368
ul	-10.0375
▁hayran	-10.0386
▁güreş	-10.0388
▁osmanlı	-10.0397
▁mektup	-10.0407
▁itibari	-10.0417
▁adım	-10.0423
▁başsavcı	-10.0428
▁özdemir	-10.0428
▁sürpriz	-10.0432
do	-10.0432
▁y	-10.0438
ur	-10.0442
▁miras	-10.0458
▁tribün	-10.0471
▁ayakkabı	-10.0473
▁gördü	-10.0491
▁dahi	-10.0493
▁j	-10.0502
▁çatı	-10.051
▁standart	-10.0513
▁kod	-10.0514
▁dalga	-10.0514
▁34	-10.0518
▁150	-10.0526
ten	-10.0528
ben	-10.0544
mıştır	-10.0553
▁italyan	-10.0555
▁2011	-10.0557
▁ajans	-10.0567
▁doku	-10.058
mıştı	-10.0586
▁arada	-10.059
▁taksi	-10.0593
▁öldü	-10.0611
▁bağış	-10.0617
▁değin	-10.0622
va	-10.0628
▁yo	-10.0629
▁önemli	-10.0629
▁alternatif	-10.0633
▁demokrat	-10.0636
▁geleneksel	-10.0641
▁yetkililer	-10.0643
▁tenis	-10.0646
▁dök	-10.065
os	-10.0652
▁tel	-10.0653
▁düşman	-10.0655
▁ş	-10.0662
▁bar	-10.0664
▁üstlen	-10.067
▁yaparken	-10.0681
yıcı	-10.0688
ko	-10.0695
▁zorun	-10.072
▁onay	-10.0722
▁unsur	-10.0732
▁düzenlendi	-10.0733
▁uc	-10.074
▁festivali	-10.0756
▁helikopter	-10.0758
▁evet	-10.0759
▁çanakkale	-10.0766
▁olmaz	-10.0767
mis	-10.0774
▁roma	-10.0782
▁v	-10.08
▁getirildi	-10.0804
▁döndü	-10.0807
▁yavaş	-10.0807
▁bazen	-10.0813
▁düzen	-10.0836
▁baraj	-10.0836
▁istek	-10.0841
inin	-10.0847
▁gazi	-10.0853
▁maliye	-10.0862
▁yunan	-10.0879
▁mahkum	-10.0883
▁çiftçi	-10.0883
5	-10.0893
▁pas	-10.0911
▁köşe	-10.0925
▁denildi	-10.0929
▁yukarı	-10.0929
▁belçika	-10.0935
▁cephe	-10.0937
▁yalan	-10.0951
▁çarşamba	-10.0965
▁koşu	-10.097
▁istihbarat	-10.0971
▁galeri	-10.0973
8	-10.0976
▁john	-10.0977
▁kategori	-10.0983
▁W	-10.0995
▁no	-10.0998
▁ters	-10.0999
▁mezun	-10.1006
▁istihdam	-10.1009
▁duyuru	-10.101
▁olmadı	-10.1028
▁engin	-10.1033
bi	-10.1044
▁beğen	-10.1048
▁düşünüyorum	-10.1051
▁talimat	-10.1051
▁saniye	-10.1054
▁yusuf	-10.1056
▁ağ	-10.1062
es	-10.108
▁miting	-10.1094
▁yumurta	-10.1095
▁mağdur	-10.1102
▁yatak	-10.1108
▁yükseldi	-10.1115
▁re	-10.1124
tepe	-10.1139
yince	-10.1148
▁intihar	-10.1149
▁teşvik	-10.1182
▁ilhan	-10.1188
▁kıyafet	-10.1192
▁dolaş	-10.1197
it	-10.12
bil	-10.1201
han	-10.121
▁verecek	-10.1213
▁alacak	-10.1221
▁tü	-10.1224
yınca	-10.1227
▁çağır	-10.1229
▁garanti	-10.1251
▁aracılığıyla	-10.1267
▁rektör	-10.1267
▁havalimanı	-10.1267
▁gökhan	-10.1267
▁rekabet	-10.1272
▁çöp	-10.1276
▁profesyonel	-10.128
▁zorla	-10.1285
▁hayal	-10.1289
▁tamamladı	-10.1295
▁ter	-10.13
▁paşa	-10.1311
▁efsane	-10.1313
▁bunlar	-10.1356
▁parlamento	-10.1367
▁33	-10.1388
▁arzu	-10.1389
▁yayımlan	-10.139
▁köpek	-10.1405
▁tasarım	-10.1416
▁samsun	-10.1452
larda	-10.1462
▁gerçekleşti	-10.1482
▁üyeleri	-10.1495
▁adn	-10.1496
▁mavi	-10.1498
▁yemeğ	-10.1518
▁düz	-10.1534
▁yazdı	-10.1542
▁muhammed	-10.155
bey	-10.1553
mektedir	-10.1565
▁belirtiliyor	-10.1579
▁cık	-10.1582
▁zorlu	-10.1584
▁aliağa	-10.1585
▁levent	-10.1586
▁uçuş	-10.1587
▁vizyon	-10.159
▁32	-10.1593
▁hu	-10.1594
▁amir	-10.1602
▁kilise	-10.1616
▁çinli	-10.1631
▁sinan	-10.1633
▁geçirdi	-10.164
haber	-10.1645
kü	-10.1656
ver	-10.1656
ch	-10.1669
▁pakistan	-10.1676
▁enflasyon	-10.1685
▁göç	-10.1697
▁4.	-10.1711
▁muhalif	-10.1712
ım	-10.1731
biz	-10.1737
▁36	-10.1744
▁inşallah	-10.1754
▁küresel	-10.1759
▁toplantısında	-10.1764
▁değişik	-10.1764
▁imparator	-10.1767
▁havaalanı	-10.1768
▁basit	-10.1768
▁cok	-10.1771
▁çalışıyor	-10.1779
▁saatte	-10.1779
▁savundu	-10.178
▁etraf	-10.1781
6	-10.1784
lere	-10.1789
maz	-10.179
▁çevir	-10.1792
▁detay	-10.1798
iye	-10.1804
ını	-10.1805
▁çeşme	-10.1807
▁şanlıurfa	-10.1811
▁kutu	-10.1826
▁ayrıldı	-10.1826
▁abdli	-10.1834
j	-10.1841
▁çu	-10.1853
▁yoktur	-10.1859
▁özür	-10.1867
▁belediyesi	-10.1874
7	-10.1894
ha	-10.1896
▁hüküm	-10.1898
▁kamyon	-10.19
ecek	-10.1943
gi	-10.1947
▁ilköğretim	-10.1948
▁öner	-10.1951
▁bilimsel	-10.1955
▁ihtimali	-10.1977
▁olacaktır	-10.1986
T	-10.1992
▁tasarruf	-10.1993
▁kayıp	-10.1995
▁karakol	-10.1996
▁kaptan	-10.1997
▁edeceğiz	-10.2
▁kere	-10.2009
len	-10.2016
▁heykel	-10.2017
▁adeta	-10.2022
▁ekmek	-10.203
▁yasak	-10.2032
▁tutuklan	-10.2037
▁sürdürdü	-10.2042
lerini	-10.2042
▁kitle	-10.2046
▁bisiklet	-10.2048
▁skor	-10.2069
▁arslan	-10.207
siz	-10.2071
▁aksi	-10.2076
▁laf	-10.2081
▁diye	-10.2088
▁hücre	-10.209
▁şok	-10.2101
▁kore	-10.2104
der	-10.2105
lama	-10.2115
▁çete	-10.2119
▁hollanda	-10.2134
▁kasaba	-10.2137
▁rüzgar	-10.2142
▁moda	-10.2167
▁insani	-10.2175
▁zeki	-10.2184
▁döv	-10.219
▁yalçın	-10.2205
▁ingilizce	-10.2205
nde	-10.2207
▁kalbi	-10.221
▁koalisyon	-10.2231
▁memnuniyet	-10.2231
bugünkü	-10.2232
▁ayrıntı	-10.2253
▁önder	-10.2259
▁olmuştur	-10.2259
▁enstitü	-10.2278
▁kop	-10.2293
▁sebeb	-10.2294
▁adı	-10.2295
R	-10.2303
▁kaynağ	-10.2304
▁etmişti	-10.2317
▁bebe	-10.2321
ılıçdaroğ	-10.2328
▁körfez	-10.2329
▁ağz	-10.2333
▁nükleer	-10.2333
x	-10.2335
ama	-10.2344
▁olması	-10.2346
▁icra	-10.2348
▁dile	-10.2357
▁gök	-10.237
▁müsteşar	-10.238
miştir	-10.2389
0	-10.2397
▁işyeri	-10.24
▁memnun	-10.2425
▁balıkesir	-10.2426
▁hazine	-10.2426
▁kocaoğ	-10.2427
▁eder	-10.2432
▁yitir	-10.2437
ana	-10.2441
▁gösteriyor	-10.2449
▁cik	-10.2473
▁kalem	-10.2474
▁çalışıyoruz	-10.2481
▁elektronik	-10.2486
▁bile	-10.2507
▁peki	-10.2511
▁kas	-10.2512
ıl	-10.2514
▁sergile	-10.2517
nda	-10.2521
▁mesafe	-10.2524
İ	-10.2527
▁memleket	-10.2533
▁söylüyor	-10.2537
▁niye	-10.2541
▁çıkıyor	-10.2541
▁tuz	-10.2547
maktadır	-10.2562
be	-10.2578
▁sahte	-10.2586
▁toplumsal	-10.2595
▁afet	-10.2609
▁dere	-10.2615
▁gümüş	-10.2624
asyon	-10.2631
▁ziraat	-10.2635
▁dayanışma	-10.2639
dim	-10.2643
▁ilke	-10.2647
lerde	-10.2653
▁han	-10.2668
▁erdem	-10.2671
▁ettiler	-10.2671
▁meşale	-10.2673
▁ısrar	-10.268
▁nefes	-10.2681
aj	-10.2685
▁kalkınma	-10.2693
▁ruhsat	-10.2701
▁km	-10.2703
▁sokağ	-10.2733
▁halil	-10.2736
▁seans	-10.2741
sen	-10.2752
lay	-10.2756
▁yönetmen	-10.2757
▁siirt	-10.2776
▁ofis	-10.278
▁gergin	-10.28
▁yapan	-10.2802
▁hisset	-10.2817
▁şaş	-10.2821
▁duyurdu	-10.2827
▁avantaj	-10.2829
▁katliam	-10.2834
▁tamamlanma	-10.2837
▁hamile	-10.2851
▁kişisel	-10.2853
▁250	-10.2855
▁nöbet	-10.2878
▁şebeke	-10.2878
yo	-10.2879
▁bekliyoruz	-10.2879
ör	-10.288
▁üzüntü	-10.2886
▁sivas	-10.2887
▁yım	-10.2904
bo	-10.2915
▁hindistan	-10.293
▁vücud	-10.293
▁kaybol	-10.2932
▁şener	-10.2933
▁idari	-10.2937
▁olduğu	-10.2938
▁cümle	-10.2951
▁2001	-10.2953
pa	-10.2955
▁gerçeğ	-10.2958
▁ermeni	-10.2967
▁isteyen	-10.2986
▁çelik	-10.2987
or	-10.299
▁vurgu	-10.2995
▁gümrük	-10.2999
larında	-10.3013
▁çalıştı	-10.3014
▁çıkardı	-10.3022
yız	-10.3031
▁kocaeli	-10.3033
▁avustralya	-10.3036
▁gelecek	-10.3039
ön	-10.3041
▁serdar	-10.3051
▁48	-10.3055
▁iddiası	-10.3055
▁arasında	-10.3066
▁klasik	-10.3069
▁edirne	-10.3082
yla	-10.3087
▁demirtaş	-10.3087
▁sandalye	-10.3089
sında	-10.3098
▁sunuz	-10.3102
▁duman	-10.3111
▁göm	-10.3113
▁esad	-10.3114
▁gönderildi	-10.3117
▁karşıt	-10.312
▁dilekçe	-10.3137
▁göçmen	-10.3144
▁hoş	-10.3148
▁salih	-10.3148
mesi	-10.3148
ran	-10.3166
▁bat	-10.3168
▁bırakıldı	-10.3179
▁avusturya	-10.3193
▁tuvalet	-10.3199
▁benzeri	-10.3204
iyet	-10.3212
▁rakib	-10.3217
▁çatış	-10.3219
▁kıl	-10.3225
▁öncü	-10.3229
nun	-10.3229
▁doğan	-10.3239
▁arz	-10.3244
▁olağanüstü	-10.3245
▁durumda	-10.3253
▁55	-10.3258
ze	-10.3262
▁isyan	-10.3271
▁mimar	-10.3287
▁hedefle	-10.3294
▁beden	-10.33
▁restoran	-10.3302
▁adresi	-10.3303
▁moskova	-10.3304
▁egemen	-10.3304
dik	-10.3311
dr	-10.3314
▁geçirildi	-10.3326
▁sırt	-10.333
▁mez	-10.3332
▁doç	-10.3337
▁ham	-10.3342
yebil	-10.3348
▁havuz	-10.3355
▁erkan	-10.3358
▁tezkere	-10.3367
▁ederken	-10.3369
*	-10.3377
▁dar	-10.3391
.(	-10.3403
▁minibüs	-10.3405
▁sponsor	-10.3405
egedesons	-10.3406
▁özkan	-10.3407
▁yapış	-10.341
▁mahmut	-10.3413
▁yaklaşım	-10.3418
lara	-10.3427
▁bahar	-10.3435
hane	-10.3439
▁abi	-10.345
▁sürdürüyor	-10.346
▁radikal	-10.3468
▁1.5	-10.3475
lendi	-10.3479
▁duyarlı	-10.3482
▁eden	-10.3491
▁kaçakçı	-10.3503
ıdır	-10.3508
çi	-10.3512
▁yavuz	-10.3526
▁rakibi	-10.3559
▁karabağ	-10.3564
▁cuk	-10.3568
▁götürüldü	-10.357
▁prim	-10.3572
▁pankart	-10.3572
▁siniz	-10.3573
▁lim	-10.3602
▁yargıtay	-10.3625
▁suriyeli	-10.3625
köy	-10.3633
▁kırık	-10.3639
▁kimyasal	-10.364
▁lisans	-10.3643
▁gelen	-10.3647
▁özgü	-10.3664
▁laik	-10.3665
▁75	-10.368
kur	-10.3681
▁plaj	-10.369
▁kök	-10.3697
▁milliyet	-10.3701
▁ettik	-10.3712
▁uğraş	-10.3717
▁yapılıyor	-10.3729
▁tavsiye	-10.3733
▁japon	-10.3746
lerinin	-10.3747
▁olanak	-10.3752
▁foto	-10.3766
▁önce	-10.3772
▁öngör	-10.3774
▁aktif	-10.3779
▁kavram	-10.3784
▁eleman	-10.3786
sız	-10.3788
▁tanrı	-10.3792
▁ukrayna	-10.3797
▁toz	-10.382
udi	-10.3823
▁aktardı	-10.3836
▁usta	-10.3845
▁oğuz	-10.3847
▁yetenek	-10.3849
▁george	-10.385
▁tekstil	-10.3857
bel	-10.3859
▁polat	-10.386
▁böl	-10.3861
▁alev	-10.3873
▁buz	-10.3884
▁hakaret	-10.3905
▁dokuz	-10.3908
▁edit	-10.3908
▁michael	-10.3926
co	-10.3932
▁metro	-10.3944
yeni	-10.3949
▁derken	-10.3951
▁saldırgan	-10.3955
off	-10.396
▁robert	-10.3963
▁inanıyorum	-10.3964
▁köken	-10.3967
▁indirim	-10.3972
▁golü	-10.3974
▁nur	-10.3977
▁kaliteli	-10.3978
▁zam	-10.398
muş	-10.3983
▁altay	-10.4005
▁bağır	-10.4012
▁potansiyel	-10.4021
▁galip	-10.4021
▁torun	-10.4022
▁madrid	-10.403
türki	-10.4031
▁ayhan	-10.4032
▁camia	-10.4053
▁disiplin	-10.4053
▁uyu	-10.4071
▁işadam	-10.4075
▁harita	-10.4078
▁direniş	-10.408
çeyrek	-10.4084
▁mesela	-10.409
▁ispanyol	-10.4092
▁dağıl	-10.4095
▁kapsa	-10.4098
▁and	-10.41
▁has	-10.4104
▁bildiri	-10.4107
▁37	-10.411
▁koltuğ	-10.4137
▁arınç	-10.4137
▁misafir	-10.4141
▁bağdat	-10.4143
▁şah	-10.4144
▁ortadoğu	-10.4145
▁hekim	-10.4146
▁yaptık	-10.4151
▁gerekçe	-10.4151
rken	-10.4168
▁otopsi	-10.4185
▁suy	-10.4186
larının	-10.4188
▁harekat	-10.4191
▁katil	-10.4192
▁müsabaka	-10.4195
▁fidan	-10.4195
▁açığ	-10.4199
▁fatura	-10.4199
▁litre	-10.4204
▁nihat	-10.4217
▁özgecan	-10.4217
▁atan	-10.4224
▁kasa	-10.4236
dür	-10.4243
▁sığın	-10.4248
paşa	-10.4253
▁istatistik	-10.4254
▁ke	-10.4255
▁hikmet	-10.4257
▁başlayacak	-10.4267
▁zira	-10.4272
▁ölen	-10.4273
po	-10.4285
▁penaltı	-10.4292
▁tutuklandı	-10.43
▁derin	-10.4313
▁geçerli	-10.4315
▁akraba	-10.4316
▁erdal	-10.4316
▁sıkış	-10.4317
▁kurt	-10.4319
▁alkol	-10.4322
▁gazze	-10.4325
9	-10.4334
▁65	-10.4344
▁durak	-10.4345
▁olmuş	-10.4349
K	-10.4362
▁iade	-10.4366
▁ağabey	-10.4373
▁koku	-10.4377
▁ertuğrul	-10.4379
▁çekiyor	-10.438
▁analiz	-10.438
ro	-10.4385
▁rüya	-10.4386
▁halep	-10.4392
am	-10.4396
ue	-10.4409
▁emir	-10.441
▁aşık	-10.4412
▁kopyala	-10.4422
▁ulus	-10.4424
san	-10.4438
▁mağlup	-10.4439
▁dükkan	-10.445
▁vs	-10.4473
▁ağla	-10.4487
sun	-10.4493
yiz	-10.4496
▁felaket	-10.4497
▁kalaba	-10.4499
▁önerge	-10.4501
▁nesil	-10.4502
tur	-10.451
▁resmi	-10.4515
▁acaba	-10.4516
▁değerlendiril	-10.4519
tu	-10.453
ebilir	-10.4532
▁kutlama	-10.4541
▁alkış	-10.4546
▁voleybol	-10.4553
▁yenilgi	-10.4554
▁kadir	-10.4556
▁verilecek	-10.4557
▁temizle	-10.4568
▁evren	-10.4568
▁ağa	-10.4571
▁imzala	-10.4572
▁menajer	-10.4582
▁real	-10.4591
▁erdi	-10.4592
taş	-10.46
▁sinir	-10.4602
madı	-10.4609
▁görüldü	-10.4614
ünüz	-10.4618
▁600	-10.4623
▁yakalandı	-10.4625
▁ok	-10.463
▁coşku	-10.4644
▁rıza	-10.4649
so	-10.4651
▁yitirdi	-10.4667
▁yasağ	-10.4673
▁taliban	-10.4682
▁mardin	-10.4682
▁faruk	-10.4682
▁psikolojik	-10.4692
nca	-10.4693
▁hayati	-10.4703
lerinde	-10.4719
▁gayret	-10.4725
ikna	-10.4735
▁şair	-10.4738
▁sevinç	-10.4739
▁kesinti	-10.474
▁belirsiz	-10.4744
▁sakarya	-10.4745
▁seks	-10.4747
▁çarşı	-10.4749
▁morg	-10.4758
▁42	-10.4758
▁cevab	-10.4758
▁çam	-10.4765
▁bekliyor	-10.4765
larını	-10.4778
▁motosiklet	-10.4787
lerdir	-10.4796
▁çankaya	-10.4799
▁yöre	-10.4799
▁şarap	-10.48
▁şef	-10.4801
▁diyalog	-10.4806
▁koydu	-10.4816
▁göztepe	-10.4828
▁bitki	-10.4837
▁izn	-10.4837
▁kızıl	-10.4849
▁hacmi	-10.4849
eğ	-10.4857
D	-10.4863
▁orgeneral	-10.4864
sidir	-10.4866
▁elbise	-10.4867
▁maz	-10.4867
▁fikr	-10.4868
▁çanta	-10.4874
▁kanıt	-10.4877
▁sus	-10.4887
▁erol	-10.4904
▁korunma	-10.4914
▁kütüphane	-10.4926
▁menderes	-10.493
▁play	-10.497
▁düzenli	-10.4971
alım	-10.4972
▁bakanlığı	-10.4982
▁röportaj	-10.4983
▁şimşek	-10.4988
▁elbette	-10.4989
▁alışkan	-10.499
▁minik	-10.4991
▁olmuştu	-10.4994
▁uyku	-10.4995
tr	-10.4997
▁apartman	-10.4997
malı	-10.5009
▁dsp	-10.5014
▁ila	-10.5026
▁efendi	-10.5028
başı	-10.5035
▁kontrolün	-10.5041
ser	-10.5043
▁özen	-10.5046
the	-10.5047
▁başlandı	-10.505
▁kritik	-10.5052
▁özcan	-10.5053
▁ithalat	-10.5059
▁resmen	-10.5061
▁yönetimi	-10.5063
▁keyif	-10.5063
▁deneyim	-10.5063
▁saddam	-10.5064
▁yapacağız	-10.5077
▁takımı	-10.5087
▁işadamı	-10.5097
▁120	-10.5106
▁tad	-10.5107
▁forum	-10.5108
▁izledi	-10.5114
▁mülteci	-10.5116
▁aleyh	-10.5116
▁bulgaristan	-10.5116
▁işgal	-10.5116
▁panel	-10.5118
▁gündüz	-10.5118
▁dikkatli	-10.5121
▁kanat	-10.5125
▁1-0	-10.5125
▁vize	-10.5125
tek	-10.5127
▁rastla	-10.5127
ara	-10.5131
▁sorgu	-10.5134
erken	-10.5138
kan	-10.5138
▁sil	-10.514
▁başlatıldı	-10.5157
▁sel	-10.516
▁yaygın	-10.5162
▁uyan	-10.5163
ga	-10.517
iç	-10.5173
▁eğilim	-10.518
▁turan	-10.5187
M	-10.5191
min	-10.5192
▁beyan	-10.5193
▁torba	-10.5197
▁akpnin	-10.5203
ının	-10.5205
ık	-10.5218
▁dedim	-10.5223
▁pa	-10.5243
▁david	-10.5245
▁vücut	-10.5245
▁moral	-10.5246
▁amatör	-10.5257
▁yoktu	-10.526
▁nato	-10.5262
▁düzel	-10.5264
▁anıt	-10.5267
▁yapıyoruz	-10.5269
▁sakla	-10.5275
▁fizik	-10.5279
ist	-10.5286
▁sap	-10.5288
▁ihraç	-10.5318
▁times	-10.532
▁birşey	-10.5322
▁brezilya	-10.5323
▁güvence	-10.5325
▁kararı	-10.5335
20	-10.534
▁ihlal	-10.5352
maruz	-10.5366
ına	-10.5367
▁tahsis	-10.5376
▁iftar	-10.5377
▁patron	-10.5377
▁şırnak	-10.538
▁dördün	-10.538
▁isveç	-10.5383
▁ze	-10.5386
▁isviçre	-10.5389
tar	-10.5392
▁düzenledi	-10.5393
▁ayşe	-10.54
▁chpn	-10.5404
▁üzere	-10.5407
▁aldık	-10.541
▁star	-10.5414
▁kaybı	-10.5422
▁kulak	-10.5424
▁çizdi	-10.5432
▁nehr	-10.5434
▁arena	-10.5441
▁oktay	-10.5443
▁popüler	-10.5444
mo	-10.5447
▁itiraf	-10.545
▁grev	-10.5453
▁ata	-10.5466
fer	-10.5473
▁futbolcu	-10.5476
imha	-10.5498
▁mevsim	-10.5508
▁takvim	-10.5509
▁özlem	-10.551
▁edilecek	-10.5514
abilir	-10.5515
▁aksu	-10.5517
▁ufak	-10.5517
▁parmak	-10.552
▁fırat	-10.5521
▁market	-10.5521
▁giyim	-10.5522
▁yahudi	-10.5523
▁oldum	-10.5526
▁yakış	-10.5528
▁suçlama	-10.5529
▁bulut	-10.5529
▁pınar	-10.5533
▁beyazlı	-10.5534
▁dilek	-10.5535
▁etkisi	-10.5536
▁zeytin	-10.5543
▁mobil	-10.5546
▁don	-10.5553
▁çare	-10.5557
▁abla	-10.5558
ot	-10.5565
lü	-10.5565
▁bay	-10.5566
▁bıraktı	-10.5568
ço	-10.5568
ber	-10.5571
▁ka	-10.5573
▁arjantin	-10.5576
▁bağımlı	-10.5576
▁maske	-10.5585
▁tavır	-10.5586
▁konum	-10.5594
▁co	-10.5599
go	-10.5604
▁kutsal	-10.5604
▁A	-10.5616
▁twitt	-10.5629
▁istemi	-10.5633
▁stadyum	-10.5637
▁sürüldü	-10.5644
▁güneydoğu	-10.5644
▁isabet	-10.5648
ley	-10.5652
▁fatma	-10.5656
▁ladin	-10.5664
▁irade	-10.5665
▁söylediler	-10.5667
▁yanıtla	-10.5671
lerine	-10.5672
▁belirledi	-10.5675
▁öldürülme	-10.5677
▁imar	-10.5678
▁haberde	-10.5691
▁efes	-10.5697
ılmıştır	-10.5697
▁kurulu	-10.5703
▁layık	-10.5712
▁kızılay	-10.5714
▁yedek	-10.5716
▁ünal	-10.5718
▁malatya	-10.5718
ücü	-10.5719
▁toto	-10.5719
▁sta	-10.5719
▁derbi	-10.572
▁yurd	-10.5731
▁adlandırıl	-10.5752
izmir	-10.5763
▁genişle	-10.5767
▁jüri	-10.5781
▁bekir	-10.5784
▁mektub	-10.5787
▁arafat	-10.5792
▁burak	-10.5794
▁olurken	-10.5798
▁kum	-10.5805
▁bölgesel	-10.5817
▁nev	-10.5823
▁tem	-10.5824
▁ortaokul	-10.5826
?”	-10.5831
▁şiş	-10.5841
▁yürür	-10.5843
up	-10.5845
▁gayet	-10.585
▁kablo	-10.5851
▁hükm	-10.586
▁kağıt	-10.5862
▁süz	-10.5866
zi	-10.5867
▁fen	-10.5867
no	-10.5902
▁arttı	-10.5905
▁yaşadı	-10.5915
▁netice	-10.5919
▁vakıf	-10.5919
▁muayene	-10.5919
▁vicdan	-10.5919
▁çevik	-10.5919
▁putin	-10.5923
▁yoksul	-10.5931
▁özer	-10.5933
▁form	-10.5933
▁urla	-10.5935
eysel	-10.5948
▁51	-10.5951
▁metal	-10.5952
say	-10.5955
▁olmalı	-10.5957
▁beğeni	-10.5964
▁seçildi	-10.5968
▁38	-10.597
▁gidiyor	-10.5982
▁kaygı	-10.5989
▁kahve	-10.5998
▁oyuncu	-10.5999
kar	-10.6001
▁ercan	-10.6002
▁K	-10.6002
▁facebook	-10.6005
▁işlev	-10.6011
B	-10.6013
▁kartal	-10.6016
baş	-10.6023
▁oynadı	-10.6027
▁gönderdi	-10.6033
▁yarar	-10.6042
▁başardı	-10.6043
dünya	-10.6049
▁diz	-10.605
▁gözyaş	-10.605
▁zincir	-10.6052
▁çiğli	-10.6061
▁mesut	-10.6065
▁aracı	-10.6074
▁şeref	-10.6089
▁birara	-10.6092
▁katrilyon	-10.613
▁çekildi	-10.6132
▁diploma	-10.6135
▁hatırlattı	-10.6135
▁diliyorum	-10.6136
▁turgut	-10.6137
kent	-10.6138
landı	-10.6143
▁1998	-10.6144
▁muhteşem	-10.6146
▁mersi	-10.6152
▁tük	-10.6156
▁çakır	-10.6158
▁yargıla	-10.6164
▁rock	-10.6167
▁kontrolü	-10.6169
▁protokol	-10.6178
▁52	-10.6189
kırmızı	-10.6192
W	-10.6193
▁taşıyor	-10.6193
▁verir	-10.6194
▁çadır	-10.6216
▁hatay	-10.623
▁toplantıda	-10.6249
▁opera	-10.6249
▁taciz	-10.6254
▁ceng	-10.6255
▁marmara	-10.6256
▁kir	-10.6256
▁üste	-10.6259
▁boya	-10.626
▁aktör	-10.626
sini	-10.6267
▁saf	-10.6268
▁stat	-10.6271
▁olağan	-10.6273
▁şaşkın	-10.6274
▁seminer	-10.6274
▁kısım	-10.6274
▁bulunmaktadır	-10.6274
▁sivasspor	-10.6275
▁Kılıçdaroğlu	-10.6277
▁nikah	-10.6278
▁koordinatör	-10.6279
▁mevki	-10.6282
ecektir	-10.6283
▁yas	-10.6283
▁yuva	-10.6295
▁katılımı	-10.6296
▁çü	-10.63
▁tokat	-10.6302
▁seyahat	-10.6337
▁birey	-10.6338
▁devir	-10.6343
▁yavru	-10.6345
▁2016	-10.6348
▁ilkokul	-10.6349
yucu	-10.6356
▁vaka	-10.6357
▁rolü	-10.636
▁toplam	-10.6366
gel	-10.6367
ova	-10.6367
▁kader	-10.6369
az	-10.6386
▁tarif	-10.639
▁antik	-10.639
pe	-10.6395
▁49	-10.6402
lo	-10.6406
▁golcü	-10.6419
▁virüs	-10.6419
▁avro	-10.642
▁perde	-10.6422
▁gerçekleştirdi	-10.6424
▁kule	-10.6428
▁çıkacak	-10.6429
▁alın	-10.643
▁alet	-10.643
▁so	-10.6442
▁cennet	-10.645
▁salı	-10.6457
▁maalesef	-10.6458
▁günü	-10.6459
▁idam	-10.6475
ham	-10.6483
▁volkan	-10.6493
▁pekdaş	-10.6494
▁ekipler	-10.6496
▁1000	-10.6496
▁ilet	-10.6498
bura	-10.6499
▁lacivert	-10.65
▁ağız	-10.6503
▁koltuk	-10.6503
▁tabur	-10.6506
▁alırken	-10.6512
▁uzlaş	-10.6513
▁delil	-10.6521
▁eren	-10.6528
▁cemil	-10.6529
▁celal	-10.6532
▁gerile	-10.6538
▁kare	-10.6541
dk	-10.6542
▁anı	-10.6555
men	-10.6555
I	-10.6557
ton	-10.6563
▁belirlenme	-10.6564
▁benzin	-10.657
▁hele	-10.6579
▁ederk	-10.6589
▁5.	-10.6593
van	-10.6598
mer	-10.6602
▁nuri	-10.6608
lığı	-10.6622
▁refah	-10.6641
▁statü	-10.6643
▁ışığ	-10.6647
▁güçlendir	-10.6649
▁harika	-10.6654
▁pis	-10.6658
▁desteği	-10.6672
▁boru	-10.6672
▁subay	-10.6682
▁beste	-10.6693
▁ithal	-10.6709
▁vitamin	-10.671
liği	-10.671
):	-10.6713
▁ittifak	-10.6714
▁zevk	-10.6716
▁idman	-10.6717
▁marş	-10.6717
▁l	-10.6717
beyaz	-10.6725
▁112	-10.6731
▁pamuk	-10.6739
▁diren	-10.6739
▁baro	-10.674
▁hatt	-10.6742
▁ıraklı	-10.675
▁thy	-10.6751
▁mit	-10.676
▁zayıf	-10.6773
▁bayrağı	-10.6783
▁ailesi	-10.6789
▁clinton	-10.6789
▁tünel	-10.6791
▁degil	-10.6791
▁sipariş	-10.6792
▁kapsamında	-10.6796
yıp	-10.6797
▁yiz	-10.6798
▁bizzat	-10.6799
▁arı	-10.6814
▁başkanvekil	-10.6817
ck	-10.6822
▁mükemmel	-10.6825
▁acar	-10.6827
▁uzaklaş	-10.6828
ah	-10.6836
▁deney	-10.6847
sine	-10.6851
miyor	-10.6851
▁militan	-10.6852
▁ahlak	-10.6853
abil	-10.6865
▁zeka	-10.6868
▁mekanizma	-10.6869
▁tarla	-10.6869
▁kaide	-10.6869
▁parlak	-10.6871
▁başlangıç	-10.6872
net	-10.6874
▁grubu	-10.6875
▁ecevit	-10.6877
lig	-10.6878
▁ytlye	-10.6881
▁yunus	-10.6882
▁tara	-10.6885
leme	-10.6889
▁değilim	-10.689
▁ekibi	-10.6892
▁abdye	-10.6903
▁karşılan	-10.6906
▁coşkun	-10.6907
▁ala	-10.691
he	-10.6923
▁ırk	-10.6928
fa	-10.6928
ali	-10.6936
▁edilir	-10.6945
▁ömür	-10.6945
▁doğalgaz	-10.6949
▁Web	-10.6952
mez	-10.6957
▁baz	-10.6959
▁almıştı	-10.6966
▁beslenme	-10.6977
▁yücel	-10.6984
▁yü	-10.6996
▁ceset	-10.7
mişti	-10.7004
▁salla	-10.7006
▁46	-10.7012
▁hukuki	-10.7012
▁geçen	-10.7015
▁ribaunt	-10.7023
▁hayvancılık	-10.7023
▁forvet	-10.7023
▁camii	-10.7024
▁davutoğ	-10.7026
▁trt	-10.7028
▁tırman	-10.7032
▁yarattı	-10.7038
▁finale	-10.7042
▁çarptı	-10.7044
▁bdp	-10.7045
▁belirli	-10.7048
▁vadi	-10.7049
ça	-10.7049
▁700	-10.7058
▁yiğit	-10.7062
▁ettim	-10.7064
iyorum	-10.7075
▁mesai	-10.7082
▁festival	-10.7087
▁imzalan	-10.7096
▁göğüs	-10.7101
▁pencere	-10.7101
▁somut	-10.7101
▁tebrik	-10.7101
▁akpınar	-10.7103
▁nefret	-10.7107
▁hazırlanıyor	-10.7108
▁uygulanma	-10.7109
▁sarıgül	-10.7113
▁zeynep	-10.7114
▁sema	-10.7121
▁sekiz	-10.7125
▁obama	-10.7129
▁sami	-10.7131
lanma	-10.7137
▁orkestra	-10.7142
▁boşal	-10.7157
▁içinde	-10.7157
gerçekleştirildi	-10.716
▁teşhis	-10.7167
▁vurdu	-10.7169
▁meğ	-10.7176
rf	-10.7181
▁müdürlüğü	-10.7185
▁berlin	-10.7188
▁şişe	-10.7191
▁inönü	-10.7196
▁pahalı	-10.7197
logram	-10.7199
▁gecik	-10.7204
▁olmadığını	-10.7209
▁800	-10.7211
▁yürek	-10.7211
▁1999	-10.7234
▁gasp	-10.7239
▁sağladı	-10.7245
▁sordu	-10.7247
▁azerbaycan	-10.7259
▁geçiyor	-10.7259
▁donanım	-10.7259
▁skandal	-10.7267
▁çığ	-10.7269
▁ö	-10.7278
ey	-10.7278
▁bini	-10.7278
▁divan	-10.7278
▁inanç	-10.7287
▁üstün	-10.7287
▁hissed	-10.7288
cu	-10.7289
▁kulübe	-10.7289
▁başkanı	-10.7291
▁suçla	-10.7295
▁ah	-10.7301
▁naz	-10.7307
▁kaçtı	-10.7324
▁akademi	-10.7326
▁44	-10.7329
deki	-10.733
▁katılacak	-10.7333
▁tank	-10.7338
▁arabistan	-10.7339
▁işkence	-10.7339
▁polonya	-10.7339
▁zonguldak	-10.7339
▁atölye	-10.734
▁şov	-10.7341
▁alkollü	-10.7346
bay	-10.7348
▁siyasal	-10.7348
▁köpeğ	-10.7349
▁öykü	-10.735
▁karanlık	-10.735
▁foça	-10.7353
▁romanya	-10.7358
şu	-10.7361
▁birik	-10.7365
▁yandan	-10.7366
▁adil	-10.737
▁efe	-10.7371
yıl	-10.7377
▁post	-10.7385
▁geleni	-10.7387
▁asist	-10.7388
▁algı	-10.7406
▁olacağız	-10.7409
gül	-10.7417
▁lübnan	-10.742
▁mikro	-10.7429
▁fırtına	-10.7431
▁kemer	-10.7431
▁rize	-10.7434
▁değildi	-10.7437
▁senet	-10.7438
ter	-10.7441
▁evlat	-10.7441
▁taksit	-10.7451
dere	-10.7457
tür	-10.7461
ndı	-10.7468
▁kendisi	-10.7471
▁karı	-10.7479
▁11.	-10.7481
▁saati	-10.7482
▁43	-10.7492
▁39	-10.7496
▁vakit	-10.7501
▁hakkari	-10.7501
▁uygur	-10.7501
▁masraf	-10.7508
▁albay	-10.7526
▁sene	-10.7533
diği	-10.7534
▁dayalı	-10.7543
▁tüp	-10.7546
ül	-10.755
▁güler	-10.7552
▁yanıtladı	-10.7562
mil	-10.7565
geç	-10.7579
▁iskele	-10.758
▁rehber	-10.7583
▁kriter	-10.7583
▁entry	-10.7584
▁türban	-10.7585
medi	-10.7588
▁general	-10.759
▁hülya	-10.7592
▁marmaris	-10.7592
▁profesör	-10.7597
ış	-10.7601
▁kurşun	-10.7607
▁rüşvet	-10.7617
▁buca	-10.7617
▁bulun	-10.7626
land	-10.7631
▁lüks	-10.7634
▁yaşıyor	-10.7646
izm	-10.7646
▁ımf	-10.7649
▁2-1	-10.7657
gan	-10.7658
▁ürdün	-10.7666
▁koordinasyon	-10.7666
▁kursiyer	-10.7666
▁yalova	-10.7666
▁bordo	-10.7667
▁çukur	-10.7668
.*	-10.7668
▁kenan	-10.7668
▁alsancak	-10.7672
abilirsiniz	-10.7673
▁esna	-10.7675
maktır	-10.7681
▁yaprak	-10.7682
▁kusur	-10.7685
▁çıplak	-10.7687
▁geçit	-10.7693
▁ziya	-10.77
▁katılan	-10.7701
▁olduk	-10.7703
▁villa	-10.7703
▁bok	-10.7721
▁aşı	-10.7721
▁başlıyor	-10.7727
ince	-10.7728
▁cemal	-10.7732
▁istendi	-10.7737
▁iklim	-10.775
sını	-10.775
▁endüstri	-10.7751
ina	-10.7754
▁balkan	-10.7754
▁hollywood	-10.7756
▁ederim	-10.7756
▁alır	-10.7756
▁asansör	-10.7758
▁kazakistan	-10.7758
▁köşk	-10.7758
çe	-10.7764
▁verdik	-10.7771
meli	-10.7771
▁2.5	-10.7774
▁cins	-10.7781
▁yardımı	-10.7787
▁eri	-10.7789
▁mayın	-10.779
▁bot	-10.7795
▁alaka	-10.7796
▁kaçın	-10.7798
▁sey	-10.78
▁paralel	-10.7801
▁türkü	-10.7818
za	-10.7821
▁karayol	-10.7832
▁küfür	-10.7833
▁kuşku	-10.7834
▁james	-10.7842
▁blok	-10.7842
▁ssk	-10.7847
▁1997	-10.785
▁dijital	-10.7852
▁herşey	-10.7854
▁izmirli	-10.7855
▁hdp	-10.7862
▁tanım	-10.7893
▁sağlıyor	-10.7894
▁bilinc	-10.7902
▁dyp	-10.7912
▁sıfır	-10.7915
▁damga	-10.7916
▁41	-10.7917
▁gür	-10.7917
▁hücum	-10.7918
▁gerilim	-10.7919
▁0	-10.792
▁açıklamasında	-10.7921
▁öcalan	-10.7922
▁esrar	-10.7926
▁kömür	-10.7928
▁düşüş	-10.7929
▁abnin	-10.793
▁uşak	-10.7933
▁dürüst	-10.7934
vi	-10.7941
ss	-10.7942
▁terim	-10.7946
▁kına	-10.7949
▁öfke	-10.7953
▁ipek	-10.7962
▁gözlem	-10.7967
▁sez	-10.7975
▁satı	-10.798
vat	-10.7996
▁imalat	-10.8003
▁erzincan	-10.8003
▁kadıköy	-10.8003
▁abone	-10.8004
▁zabıta	-10.8004
▁iddianame	-10.8005
▁rahmet	-10.8007
▁belgesel	-10.8009
▁tarafından	-10.8012
▁yakıt	-10.8013
▁diplomat	-10.8014
▁gölge	-10.8014
▁yaşanan	-10.8014
▁olup	-10.8015
ger	-10.8019
▁or	-10.8023
▁gökçek	-10.8035
▁görsel	-10.8058
▁oylama	-10.8061
▁koleksiyon	-10.809
▁seçenek	-10.809
▁anahtar	-10.809
▁herhalde	-10.81
▁şenol	-10.81
▁otomatik	-10.8102
▁şut	-10.8106
▁saatlik	-10.8106
ilk	-10.811
▁kırmızılı	-10.812
AR	-10.8123
▁özerk	-10.8124
▁okur	-10.8125
▁görüyor	-10.8136
▁çök	-10.8147
▁olmayan	-10.8158
▁uzmanlar	-10.8161
met	-10.8166
▁prens	-10.818
▁astsubay	-10.8183
▁damar	-10.8188
▁sur	-10.8192
.30	-10.8192
▁direk	-10.82
▁ceb	-10.8213
▁yangın	-10.8228
▁alanya	-10.8238
▁gar	-10.824
▁akın	-10.8249
▁fener	-10.8254
▁raporda	-10.8258
▁merkezi	-10.8264
gu	-10.8265
▁bank	-10.8265
▁atlet	-10.8269
zat	-10.8273
▁akciğer	-10.8276
▁çıkarıldı	-10.8281
▁simge	-10.8283
▁tavr	-10.8292
▁gazetesi	-10.8323
▁ray	-10.8323
istanbul	-10.8325
▁ona	-10.8338
▁hong	-10.8343
ov	-10.8344
▁bulunan	-10.8349
▁barcelona	-10.8353
▁muammer	-10.8353
▁turkcell	-10.8353
▁kuşadası	-10.8353
▁otoyol	-10.8353
▁yararlı	-10.8354
▁haluk	-10.8354
▁biber	-10.8355
▁kanad	-10.836
▁federal	-10.836
▁sundu	-10.8361
ilirken	-10.8386
▁yakaladı	-10.8389
▁sınız	-10.839
▁kong	-10.8393
ap	-10.8396
▁kemik	-10.84
▁dediler	-10.8405
-1	-10.841
▁masum	-10.8423
dığını	-10.8427
12	-10.8435
▁hayali	-10.844
▁disk	-10.8441
▁güzergah	-10.8442
▁manzara	-10.8442
▁tescil	-10.8442
▁asayiş	-10.8442
▁sofra	-10.8444
▁uyruk	-10.8447
▁boşan	-10.845
acağız	-10.8452
▁kazı	-10.8458
▁lezzet	-10.8462
yu	-10.8464
▁giderk	-10.8469
▁selam	-10.8471
▁56	-10.8475
▁günay	-10.8478
▁ge	-10.848
▁değerlendirdi	-10.8484
▁burn	-10.8489
▁makale	-10.8489
▁web	-10.8492
sinin	-10.8513
lardır	-10.8514
▁merdiven	-10.8532
▁telekom	-10.8532
▁fikret	-10.8533
▁sabit	-10.8533
▁avşar	-10.8534
▁halinde	-10.8536
insan	-10.854
▁kapatılma	-10.8544
▁islami	-10.8545
lak	-10.8545
▁görüştü	-10.8547
▁antalyaspor	-10.8547
▁taşkın	-10.855
▁bilinç	-10.8554
lanıyor	-10.8556
▁cd	-10.8561
▁microsoft	-10.8564
▁oluştu	-10.8571
▁düzgün	-10.8573
▁leh	-10.858
▁ortağı	-10.8581
▁karşılaştı	-10.8582
▁1-1	-10.8586
▁kın	-10.8606
▁hacı	-10.8614
▁seyred	-10.8619
kaya	-10.8621
▁işveren	-10.8623
▁zihniyet	-10.8623
▁manevi	-10.8623
▁2-0	-10.8623
▁hassasiyet	-10.8623
dım	-10.8624
▁ikram	-10.8624
▁sedat	-10.8626
▁facia	-10.8628
▁yakalanma	-10.8629
▁sırasında	-10.8635
▁bozuk	-10.8637
▁saatleri	-10.864
▁belirti	-10.8653
lidir	-10.8667
▁cesaret	-10.8671
mıyor	-10.868
▁dib	-10.8681
▁kars	-10.8684
▁işyer	-10.8689
▁S	-10.8699
▁soma	-10.8701
▁alış	-10.8705
ad	-10.8714
▁hani	-10.8714
▁sertifika	-10.8715
▁coğrafya	-10.8715
▁yetkili	-10.8715
▁böbrek	-10.8715
▁delege	-10.8715
özel	-10.8716
▁kademe	-10.8716
▁brezilyalı	-10.8718
▁gösterge	-10.872
▁babacan	-10.8721
▁istiklal	-10.8722
▁85	-10.8723
▁95	-10.8728
▁alex	-10.8728
daha	-10.873
▁deli	-10.8733
▁abye	-10.8734
em	-10.8749
▁har	-10.8753
▁anımsa	-10.8758
▁unvan	-10.8779
▁hap	-10.878
diğini	-10.8795
▁fe	-10.8796
▁arkadaşları	-10.8797
▁bahsed	-10.8799
▁macera	-10.8808
▁düşünüyoruz	-10.8808
▁plaket	-10.8809
▁finansman	-10.8809
▁formül	-10.881
▁ergin	-10.8812
▁şerit	-10.8813
▁matematik	-10.8814
▁sportif	-10.8818
▁bergama	-10.8823
▁beyn	-10.8823
w	-10.8824
▁hadi	-10.8829
acağım	-10.8833
▁garip	-10.8839
▁etap	-10.8842
▁yönel	-10.8846
let	-10.8849
▁devr	-10.8849
▁konusu	-10.8875
50	-10.8878
bugün	-10.8881
▁psikoloji	-10.8891
▁bulunur	-10.8892
▁türkmen	-10.8894
▁mantık	-10.8898
▁gaziemir	-10.8901
▁tayfun	-10.8901
▁husus	-10.8901
▁gişe	-10.8901
▁belirtirken	-10.8902
▁davutoğlu	-10.8903
ırken	-10.8907
▁mutfak	-10.8908
▁emlak	-10.891
▁gördüm	-10.8915
yol	-10.8919
fi	-10.8921
▁erkeğ	-10.8923
▁vural	-10.8924
▁defans	-10.8931
▁ayrım	-10.8936
▁57	-10.8955
▁birliği	-10.8963
▁daim	-10.8968
▁düzenlenme	-10.8968
▁veren	-10.8972
▁suat	-10.8974
▁ağırla	-10.8981
▁ük	-10.8982
▁yapar	-10.8987
laştırma	-10.8988
▁kullanılır	-10.8992
▁benzer	-10.8993
▁bayındır	-10.8995
▁bonservis	-10.8995
ıyla	-10.8996
▁lütfen	-10.8997
▁kuşak	-10.8997
▁filan	-10.8997
▁his	-10.9002
▁komünist	-10.9005
▁çalışırken	-10.9008
▁ho	-10.901
▁öğrenciler	-10.9028
▁google	-10.9034
▁atina	-10.9035
▁çekerek	-10.9036
▁kaz	-10.9045
▁sergilen	-10.9047
amaz	-10.9048
▁kayb	-10.9054
▁yıka	-10.907
▁defter	-10.9074
▁ihmal	-10.9076
▁açıklanma	-10.9082
▁bekl	-10.9084
▁yaptım	-10.9084
sıyla	-10.9087
▁müttefik	-10.909
▁necdet	-10.909
▁manken	-10.9091
▁sebebiyle	-10.9093
▁x	-10.9093
▁ersoy	-10.9097
▁meksika	-10.9098
▁mevzuat	-10.9101
▁do	-10.9101
▁gürültü	-10.9104
▁yaparak	-10.9111
-2	-10.9112
▁tanımla	-10.9124
▁veda	-10.9127
▁imkb	-10.913
▁mert	-10.9131
▁ağar	-10.9131
▁sistemi	-10.9139
baba	-10.9141
larına	-10.9143
▁bulvar	-10.9152
▁kuruldu	-10.9158
▁gökçe	-10.9159
▁mahkemesi	-10.9164
▁nedir	-10.9164
cak	-10.9174
▁62	-10.9178
▁diledi	-10.9183
▁tahsil	-10.9186
ılır	-10.9187
▁plastik	-10.9187
▁servet	-10.9187
▁takviye	-10.9187
▁power	-10.9187
▁atletizm	-10.9187
▁zarf	-10.9187
▁mobilya	-10.9191
▁şükür	-10.9191
▁etnik	-10.9194
▁ünite	-10.9198
▁heyeti	-10.9199
▁infaz	-10.9201
▁filmi	-10.9203
▁bakı	-10.9203
▁etmektedir	-10.9212
▁eğlen	-10.9215
▁kktc	-10.9217
▁63	-10.9222
din	-10.9223
▁zem	-10.9228
▁biridir	-10.9231
▁tahri	-10.9234
▁bacağ	-10.9239
▁akpli	-10.9248
▁çiğ	-10.9254
mayın	-10.9266
▁golle	-10.9277
▁çözülme	-10.9281
▁propaganda	-10.9284
▁yanısıra	-10.9284
▁ressam	-10.9284
▁oğul	-10.9284
▁meslektaş	-10.9285
▁aksoy	-10.9287
▁jet	-10.9288
▁müftü	-10.929
▁kocaoğlu	-10.9291
▁paul	-10.9297
▁stres	-10.9303
▁sunu	-10.9305
▁1980	-10.9307
▁ç	-10.9312
▁yaşanıyor	-10.9313
yer	-10.9315
▁tutuklu	-10.9315
▁finalde	-10.9322
sak	-10.9333
▁dek	-10.9337
▁meşru	-10.9337
▁tema	-10.9346
mı	-10.9348
▁laboratuvar	-10.9353
▁bek	-10.9356
▁bahset	-10.9365
ğı	-10.9369
▁oto	-10.9375
▁boğul	-10.938
▁atmosfer	-10.9382
▁branş	-10.9382
▁otopark	-10.9382
▁bitlis	-10.9383
▁mum	-10.9386
▁sabır	-10.939
▁yaratı	-10.9391
▁selim	-10.9394
▁değ	-10.9399
▁projesi	-10.9411
▁los	-10.9418
▁politik	-10.9425
▁nişan	-10.9427
▁etmek	-10.9433
▁es	-10.9436
abd	-10.9457
▁gören	-10.9464
şer	-10.947
▁belirttiler	-10.9472
sas	-10.9473
▁geliştirilme	-10.948
▁serkan	-10.9481
▁burcu	-10.9481
▁kooperatif	-10.9485
▁saban	-10.9487
▁etmiş	-10.9496
▁arıza	-10.9496
▁yükle	-10.9507
▁öngörü	-10.9509
▁koyu	-10.9515
▁pkkn	-10.9525
▁etmiştir	-10.9535
▁küme	-10.9536
dığı	-10.9538
▁karn	-10.9549
▁meme	-10.9555
40	-10.9559
▁görülüyor	-10.9559
ia	-10.9563
‘	-10.9564
▁demektir	-10.9565
▁beceri	-10.9565
▁durağ	-10.957
▁arif	-10.9573
▁teşkil	-10.958
▁gelenek	-10.9581
▁mesleğ	-10.9581
▁pompa	-10.9581
▁ilave	-10.9581
▁mermi	-10.9582
▁Wang	-10.9582
▁kayserispor	-10.9583
▁olamaz	-10.9584
▁aykut	-10.9584
imi	-10.9585
▁aktaş	-10.9587
luk	-10.9588
▁necati	-10.9589
▁kolej	-10.9589
devlet	-10.9589
▁önemlidir	-10.9593
▁samimi	-10.9595
▁1994	-10.9597
gen	-10.9597
▁ptt	-10.9598
ıyoruz	-10.9599
▁ra	-10.9601
▁diyanet	-10.9604
▁kayak	-10.9626
malıdır	-10.9638
▁makina	-10.964
dü	-10.9648
▁dert	-10.9657
▁bill	-10.9664
om	-10.9672
▁tempo	-10.9681
▁merkel	-10.9682
▁itibarıyla	-10.9682
▁ceylan	-10.9682
▁yelken	-10.9682
▁araştırma	-10.9684
▁münih	-10.9686
▁altın	-10.9688
▁temenni	-10.969
▁korkut	-10.97
▁çalışkan	-10.9702
▁fıfa	-10.9702
▁ödenme	-10.9706
▁onayla	-10.9709
▁vefat	-10.9709
▁gönderilme	-10.9711
▁yüce	-10.9711
ilir	-10.9713
leş	-10.9717
sının	-10.9725
çı	-10.973
▁kamil	-10.9733
▁yargılanma	-10.974
▁47	-10.9741
▁olmak	-10.9742
▁denk	-10.9743
▁pist	-10.9756
dem	-10.9756
▁aygün	-10.9767
▁kirala	-10.9773
▁akademisyen	-10.9776
▁ot	-10.9778
▁selahattin	-10.9784
ly	-10.9784
▁denizlispor	-10.9784
▁turistik	-10.979
▁kütahya	-10.9792
▁kıta	-10.9793
▁çabuk	-10.9795
▁aldım	-10.9797
▁tuncay	-10.9798
▁keyf	-10.98
acaktır	-10.9801
lardan	-10.9804
▁bürokrat	-10.9804
-15	-10.9805
▁sabri	-10.9805
▁kaydet	-10.9809
▁bankası	-10.9811
fir	-10.9823
▁pet	-10.9831
▁denir	-10.9838
▁çak	-10.9839
▁bale	-10.984
ür	-10.9844
hai	-10.9847
▁ulan	-10.9852
suz	-10.9854
▁yaygınlaş	-10.9881
▁sözleri	-10.9882
yip	-10.9883
▁sonsuz	-10.9886
▁tatbikat	-10.9887
▁tekerlek	-10.9887
▁portekiz	-10.9887
▁kosova	-10.9887
▁kuzu	-10.9888
▁tavuk	-10.9889
▁afiş	-10.9889
▁hafıza	-10.989
▁yürüdü	-10.9897
▁danıştay	-10.9907
▁asgari	-10.9914
sey	-10.9918
▁soyun	-10.9918
▁örneğin	-10.9932
▁zehir	-10.9936
ic	-10.9944
▁satır	-10.9944
▁oluşturdu	-10.9948
soy	-10.9959
elim	-10.9967
evi	-10.9977
▁gençler	-10.9978
ıyorum	-10.9983
▁bulunmuştu	-10.9988
▁vermedi	-10.999
▁çorum	-10.9991
▁zırh	-10.9991
▁kurtuluş	-10.9992
▁yasin	-10.9992
▁tahvil	-10.9992
▁hassas	-10.9993
▁değerlendirilme	-10.9994
▁göt	-10.9994
▁çıkarken	-11.0001
eş	-11.0002
▁edilmiştir	-11.0005
▁taze	-11.0006
▁muhtemel	-11.0006
nu	-11.001
bank	-11.0013
udur	-11.0026
▁kör	-11.0036
▁panik	-11.0039
▁elçi	-11.0041
▁gidecek	-11.0042
▁us	-11.0043
allah	-11.0043
lıdır	-11.0045
▁gönl	-11.005
▁gelin	-11.0054
▁getiriyor	-11.0067
▁hesapla	-11.0072
▁gu	-11.0091
▁kapak	-11.0094
▁fethiye	-11.0096
▁egedesonsöz	-11.0096
▁müzisyen	-11.0096
▁1996	-11.0097
▁tolga	-11.0102
▁ergün	-11.0102
▁sebze	-11.0104
▁atalay	-11.0109
▁go	-11.0113
▁7.	-11.013
▁keçi	-11.0131
▁stand	-11.0133
▁şeyh	-11.014
▁ediyorlar	-11.014
üs	-11.015
les	-11.0163
▁vermişti	-11.0168
▁işte	-11.0172
malıyız	-11.0175
▁tuk	-11.0183
▁dayak	-11.0184
▁besle	-11.0194
▁tutukla	-11.0194
▁iskender	-11.0199
▁hamle	-11.0201
▁jintao	-11.0203
▁kuyruk	-11.0203
▁mevduat	-11.0203
▁seferihisar	-11.0203
▁tabela	-11.0203
▁süresince	-11.0203
▁şahıs	-11.0203
▁1991	-11.0203
▁espri	-11.0204
▁kamyonet	-11.0204
▁duygusal	-11.0206
▁tıbbi	-11.0208
▁bacak	-11.0213
yrd	-11.0214
▁bayrağ	-11.0216
▁diyen	-11.0216
▁taktik	-11.022
▁peygamber	-11.0221
ry	-11.0223
▁ocağ	-11.0225
mayan	-11.0238
irken	-11.0247
▁paylaştı	-11.0248
▁kuyu	-11.0251
!..	-11.0257
mu	-11.0262
▁burs	-11.0262
aş	-11.0274
ks	-11.028
▁grand	-11.029
▁kalıyor	-11.0291
▁ger	-11.0295
▁alarm	-11.0296
▁br	-11.0298
▁ku	-11.0299
▁350	-11.0305
▁eşi	-11.0305
▁adem	-11.0309
▁iniş	-11.0309
▁kurumsal	-11.0309
▁görünüyor	-11.0309
▁narlıdere	-11.031
▁ertesi	-11.031
▁beton	-11.0311
▁kasımpaşa	-11.0312
▁demişti	-11.0314
▁bilmiyorum	-11.0314
▁asıllı	-11.0317
▁derviş	-11.0318
▁ehliyet	-11.0318
▁emanet	-11.0319
tin	-11.032
▁biliyorum	-11.0322
▁atilla	-11.0323
▁buluştu	-11.0324
▁fiziksel	-11.033
krem	-11.0341
büyük	-11.0343
▁mutfağ	-11.0344
▁koyun	-11.0345
▁melih	-11.0352
ımız	-11.037
digi	-11.0372
una	-11.0376
▁bo	-11.0377
nız	-11.0378
▁almıştır	-11.038
dar	-11.0383
ancak	-11.0388
don	-11.0408
ll	-11.0409
▁uyardı	-11.0409
▁kor	-11.0412
▁mark	-11.0415
▁norveç	-11.0419
▁çirkin	-11.0419
▁komedi	-11.0419
▁götürdü	-11.042
▁damat	-11.042
▁veysel	-11.0422
▁tunceli	-11.0424
▁tansiyon	-11.0424
▁hayırsever	-11.0427
▁yozgat	-11.0427
▁barındır	-11.0431
öz	-11.0432
▁hemşire	-11.0436
▁müthiş	-11.0437
▁ismet	-11.0437
▁oyuncak	-11.0438
▁tahta	-11.0439
▁soğan	-11.0439
▁erbil	-11.0442
ıntı	-11.0444
▁versiyon	-11.0452
avrupa	-11.0455
▁kürdistan	-11.0474
▁abdül	-11.0481
▁kalacak	-11.0484
▁rahatla	-11.0491
▁başlar	-11.0496
▁etmedi	-11.0496
mus	-11.0499
▁gü	-11.0515
▁danimarka	-11.0529
▁mükellef	-11.0529
▁suretiyle	-11.0529
▁derhal	-11.0529
▁hitap	-11.0529
▁burhan	-11.0529
▁1990	-11.053
▁kampüs	-11.053
▁kararname	-11.053
▁akdağ	-11.0532
▁kdv	-11.0533
▁hatıra	-11.0534
▁açıklamıştı	-11.054
▁felsefe	-11.054
▁değiliz	-11.0554
▁kab	-11.0558
▁ergen	-11.0566
pos	-11.0568
yar	-11.0574
daş	-11.0574
▁milan	-11.0582
makta	-11.0583
ie	-11.0585
▁istedim	-11.0591
▁tamamlandı	-11.0592
▁kazanç	-11.0596
▁72	-11.0596
▁finalin	-11.061
▁özetle	-11.0615
bak	-11.0619
eceğiz	-11.0627
▁utan	-11.0629
▁fena	-11.0631
▁geriledi	-11.0634
▁kafile	-11.0635
!"	-11.064
▁lokanta	-11.064
▁otomotiv	-11.064
▁muhtelif	-11.064
▁balçova	-11.064
▁beşinci	-11.064
▁hariç	-11.064
▁şahit	-11.0641
▁tapu	-11.0642
▁oluşturuyor	-11.0643
▁istemiyorum	-11.0644
▁osc	-11.0646
▁yapılır	-11.0646
▁hain	-11.0647
ıyorlar	-11.065
▁çınar	-11.0651
sim	-11.0659
▁61	-11.0661
▁M	-11.0662
emez	-11.0662
▁va	-11.0663
lenme	-11.0666
şar	-11.0672
id	-11.0673
nı	-11.0674
▁emri	-11.0679
▁reddet	-11.0681
chp	-11.0691
▁fa	-11.0695
tü	-11.0706
▁belirtiyor	-11.0707
▁edip	-11.0707
rı	-11.0734
▁geldik	-11.0736
ant	-11.0737
▁elif	-11.0745
gı	-11.0749
▁korkunç	-11.0752
▁sağanak	-11.0752
▁komik	-11.0753
▁musunuz	-11.0754
▁ro	-11.076
▁profil	-11.0761
▁telaf	-11.0764
▁liverpool	-11.0764
▁medeniyet	-11.0764
▁başkanlığı	-11.0765
▁rövanş	-11.0768
▁ısınma	-11.0768
yet	-11.0769
“	-11.077
▁dk	-11.0771
▁varsa	-11.0772
▁akhisar	-11.0773
▁demirel	-11.078
▁ülkü	-11.0783
▁pe	-11.0789
▁goller	-11.0789
▁81	-11.0791
▁reddetti	-11.0794
▁9.	-11.0795
▁verdim	-11.0799
▁kasırga	-11.0799
▁tff	-11.0808
▁seçin	-11.0827
th	-11.083
▁yatağ	-11.0831
leniyor	-11.0832
kara	-11.0834
▁taşıdı	-11.0839
▁komuta	-11.0841
▁anlatıyor	-11.0843
▁ajan	-11.0845
sına	-11.0859
▁sırada	-11.0864
▁B	-11.0864
▁nakli	-11.0865
▁hektar	-11.0866
▁kahvaltı	-11.0866
▁sözkonu	-11.0868
▁diyerek	-11.0868
▁eksi	-11.0869
▁burun	-11.087
▁alarak	-11.0872
▁elazığ	-11.0874
▁talip	-11.0879
▁şan	-11.0881
▁bozdağ	-11.0882
▁ilçesinde	-11.0897
▁başvurdu	-11.0898
▁67	-11.0898
▁insanlar	-11.09
▁yök	-11.0902
top	-11.0915
▁par	-11.0915
▁hati	-11.0924
▁üs	-11.0926
▁şaka	-11.0931
▁hatırlat	-11.0958
▁ülker	-11.0964
ji	-11.0967
▁incir	-11.0978
▁---	-11.0979
▁başsağlığı	-11.0981
▁randevu	-11.0981
▁poz	-11.0981
▁tencere	-11.0982
▁rakı	-11.0986
▁atila	-11.0988
▁kulağ	-11.0989
▁pişman	-11.099
▁edilirken	-11.1005
▁giysi	-11.1006
▁karşılandı	-11.1008
▁faktör	-11.1016
▁tavan	-11.1016
▁gereken	-11.1033
▁per	-11.1034
▁keşke	-11.1036
lerle	-11.1042
▁boyn	-11.1044
▁deneme	-11.1045
▁olun	-11.1052
▁atıldı	-11.1053
▁düşünüyor	-11.1059
▁umud	-11.1064
▁ken	-11.1073
▁bitti	-11.1073
▁sadık	-11.1081
▁direkt	-11.1092
▁oldug	-11.1093
iyoruz	-11.1097
▁gezegen	-11.1097
▁manchester	-11.1097
▁ötürü	-11.1097
▁müracaat	-11.1097
▁çamaşır	-11.1098
▁sıvı	-11.1098
▁manisaspor	-11.1101
ff	-11.1103
▁yaşıyoruz	-11.1105
▁fevzi	-11.1106
▁şükrü	-11.1106
▁hatip	-11.1106
sam	-11.1109
▁gelmişti	-11.111
▁66	-11.111
▁fuhuş	-11.1117
▁dağıldı	-11.1119
▁ford	-11.1123
▁atak	-11.1126
ney	-11.1128
▁city	-11.1137
▁tamir	-11.1141
ez	-11.1147
▁kiraz	-11.1153
▁gizle	-11.1162
▁giriyor	-11.1164
▁kalan	-11.1165
▁binali	-11.1178
sağ	-11.1185
-100	-11.1188
▁düşüyor	-11.1188
şehir	-11.1189
▁ihsan	-11.1195
▁çakı	-11.1196
▁adamları	-11.1198
▁tehdid	-11.1201
▁kafe	-11.1201
şim	-11.1208
fe	-11.1215
▁vakti	-11.1215
▁istikamet	-11.1215
▁traktör	-11.1215
▁vatandaşlar	-11.1215
▁müjde	-11.1215
▁D	-11.1215
▁ufuk	-11.1215
▁aynen	-11.1215
▁58	-11.1215
▁amca	-11.1217
▁bingöl	-11.1218
▁isteğ	-11.1219
▁misiniz	-11.1219
▁sürecek	-11.1219
▁21.	-11.1222
▁tabut	-11.1226
▁soykırım	-11.1227
vrak	-11.1232
▁nakit	-11.1234
▁çağrıl	-11.1236
▁1993	-11.1236
▁seçilme	-11.1238
▁ışın	-11.1245
▁6.	-11.1257
▁cihan	-11.1264
mayacak	-11.1268
▁toki	-11.1274
▁bez	-11.1277
▁gördük	-11.128
▁eroğlu	-11.1284
▁olmayacak	-11.1288
▁tez	-11.1294
▁konuldu	-11.1299
sever	-11.1305
▁toplandı	-11.1309
▁söylemişti	-11.132
▁yapıt	-11.1323
▁bakanı	-11.1325
▁kulis	-11.1325
▁emr	-11.1326
▁peynir	-11.1334
▁asbaşkan	-11.1334
▁tüfek	-11.1334
▁danış	-11.1334
▁ateşkes	-11.1335
▁hakimiyet	-11.1336
▁sopa	-11.1339
▁meteoroloji	-11.1339
▁zeytinyağı	-11.134
▁bela	-11.1341
▁tekrarla	-11.1341
injiang	-11.1341
▁yeteneğ	-11.1345
▁veriliyor	-11.1345
▁denetleme	-11.1345
alt	-11.1345
▁blair	-11.1347
▁akademik	-11.1348
▁pop	-11.1349
▁anti	-11.1351
nur	-11.1353
▁hizbullah	-11.1354
▁mimari	-11.1358
▁yayımla	-11.1358
▁sosyalist	-11.1358
unda	-11.1361
▁logo	-11.1365
▁anlaşıldı	-11.1372
ski	-11.1382
▁pat	-11.1385
▁boşanma	-11.1386
▁özal	-11.1391
▁durdurulma	-11.1397
▁pasaport	-11.1398
kon	-11.14
▁karşıladı	-11.1402
rk	-11.1409
▁sırrı	-11.1413
▁jean	-11.1413
▁edilmesi	-11.1415
30	-11.1418
▁olurdu	-11.1425
▁kabin	-11.1448
ülke	-11.1453
▁fragman	-11.1454
▁veteriner	-11.1454
▁numune	-11.1454
▁irlanda	-11.1454
▁pirinç	-11.1454
▁robot	-11.1454
▁izmit	-11.1455
▁muhtemelen	-11.1457
▁fırt	-11.1458
▁çöl	-11.1458
▁çoban	-11.1459
▁odaklan	-11.1461
may	-11.1465
larıyla	-11.147
▁vereceğiz	-11.1471
▁bolu	-11.1472
▁çince	-11.1484
mektir	-11.1485
▁it	-11.1487
▁çorba	-11.1491
▁üss	-11.1506
▁kazada	-11.1507
▁şekilde	-11.1509
25	-11.151
▁kura	-11.1525
▁kontrolde	-11.1525
▁hükümeti	-11.1537
▁esen	-11.1542
bet	-11.1542
▁kilit	-11.1553
▁jo	-11.1554
hem	-11.156
▁54	-11.156
▁komut	-11.1562
▁53	-11.157
▁yüreğ	-11.1575
▁asfalt	-11.1576
▁armağan	-11.1576
▁bombardıman	-11.1576
▁öldürüldü	-11.1576
▁tohum	-11.1576
▁tugay	-11.1576
▁geleneğ	-11.1577
▁direksiyon	-11.1577
▁sütun	-11.1583
▁hakkında	-11.1585
▁kıymet	-11.1587
▁çağırdı	-11.1587
▁oldugu	-11.1589
▁olanağ	-11.1591
▁mucize	-11.1597
▁cm	-11.1598
bun	-11.1608
▁anap	-11.1609
▁şeytan	-11.1611
▁konsolos	-11.1613
▁bur	-11.1614
▁st	-11.1615
▁gelmiştir	-11.1622
▁eyüp	-11.1622
▁vb	-11.1625
sü	-11.1627
▁yum	-11.1627
▁bahçeli	-11.1631
▁mil	-11.1637
üstü	-11.1643
▁melek	-11.1646
▁ulu	-11.1647
▁del	-11.1651
▁isa	-11.1655
▁kazım	-11.1657
-20	-11.1658
▁tunç	-11.1661
meyin	-11.1663
▁2-3	-11.1663
larla	-11.1668
▁sera	-11.1671
ho	-11.1673
▁durumunda	-11.1676
▁fırla	-11.168
▁alevi	-11.1685
bur	-11.1694
▁beraat	-11.1699
mar	-11.1699
▁stüdyo	-11.17
▁cinsiyet	-11.17
▁sünnet	-11.17
▁bakırköy	-11.17
▁çağlayan	-11.17
▁yarımada	-11.1701
▁Williams	-11.1702
▁inanıyoruz	-11.1702
▁kapanış	-11.1703
▁okyanus	-11.1705
▁biliyoruz	-11.1709
bat	-11.171
▁kılın	-11.1713
▁ibadet	-11.1713
..."	-11.1722
▁demet	-11.1722
▁paylaşım	-11.1723
▁roket	-11.1725
▁ciro	-11.1727
var	-11.1729
▁feth	-11.1741
▁kalın	-11.1759
ilme	-11.1761
▁hsyk	-11.1762
per	-11.1764
pınar	-11.1774
▁Wu	-11.1775
▁ertele	-11.1776
▁planlanıyor	-11.1778
lerden	-11.1779
▁alay	-11.1788
▁koro	-11.1789
▁derd	-11.1805
evet	-11.1806
eski	-11.1809
▁dede	-11.181
▁danışma	-11.1813
üç	-11.1814
▁söyleşi	-11.1824
▁metreküp	-11.1825
▁taziye	-11.1825
▁gürcistan	-11.1825
▁teminat	-11.1825
▁bronz	-11.1825
▁verdiler	-11.1825
▁eşcinsel	-11.1825
▁köklü	-11.1825
▁edilmişti	-11.1825
▁hanedan	-11.1826
▁mahsur	-11.1827
▁erbakan	-11.1827
▁biyolojik	-11.1828
▁sorgula	-11.1831
▁güçleri	-11.1833
▁dram	-11.1833
▁karaman	-11.1835
▁hamit	-11.1835
▁8.	-11.1837
▁askı	-11.1839
kal	-11.184
▁kanıtla	-11.1848
tay	-11.1848
nce	-11.185
ok	-11.1853
bar	-11.1861
▁havayol	-11.1863
▁yükümlü	-11.1868
▁ceo	-11.187
▁fren	-11.1872
▁sait	-11.1883
▁2,5	-11.1884
▁taksim	-11.1884
▁kimya	-11.189
▁oral	-11.1904
▁kalkan	-11.1908
tim	-11.1911
ray	-11.1912
.9	-11.1915
av	-11.1917
▁sunuyor	-11.1918
▁tobb	-11.1919
ırak	-11.1922
▁çalışmaları	-11.1924
▁sürükle	-11.1926
10	-11.1933
▁tanıtıl	-11.194
▁kağıd	-11.1943
▁alınacak	-11.1943
organik	-11.1948
abiliyor	-11.1948
▁boğaziçi	-11.1952
▁oruç	-11.1952
▁gözetim	-11.1952
▁çiller	-11.1954
▁uysal	-11.1955
madan	-11.1956
▁ap	-11.1956
▁sırasıyla	-11.196
▁müfettiş	-11.1961
▁cilt	-11.1961
▁sırbistan	-11.1969
▁referandum	-11.1973
▁kontroller	-11.1976
org	-11.198
▁biliniyor	-11.198
park	-11.1984
▁tarık	-11.1984
▁76	-11.2
▁mo	-11.2003
▁atama	-11.2005
tak	-11.2006
▁sp	-11.2008
▁yapay	-11.2019
▁far	-11.2023
▁file	-11.2025
▁dene	-11.2026
konsolos	-11.2027
▁artıyor	-11.2042
demir	-11.2044
ıpkı	-11.2046
gü	-11.2053
▁aksa	-11.2055
▁ece	-11.2056
▁derneği	-11.2061
ja	-11.2061
▁elma	-11.2068
▁katar	-11.2073
▁diyorlar	-11.2074
▁powell	-11.2077
ian	-11.2077
▁kıyasla	-11.2077
▁idi	-11.2077
▁afyonkarahisar	-11.2079
▁iğne	-11.208
▁şerif	-11.208
▁zhang	-11.208
▁oluşuyor	-11.2081
▁kocaman	-11.2083
▁2020	-11.2085
▁ekşi	-11.2091
▁semih	-11.2097
yen	-11.2107
ban	-11.2108
▁vesile	-11.2111
gün	-11.2113
lıyor	-11.2116
▁1995	-11.2119
▁gor	-11.2124
▁yanlı	-11.2137
▁dışında	-11.2139
▁64	-11.2141
▁şık	-11.2148
daki	-11.2155
art	-11.2172
▁önlenme	-11.2179
ankara	-11.2181
▁sure	-11.2182
▁sayısı	-11.2183
dağ	-11.2184
▁ser	-11.2185
▁110	-11.2187
▁red	-11.219
▁rezerv	-11.2198
press	-11.22
▁brüksel	-11.2209
▁dinamik	-11.2209
▁pozitif	-11.2209
▁santimetre	-11.2209
▁restorasyon	-11.221
▁razı	-11.2211
▁çamur	-11.2212
▁konyaspor	-11.2213
▁1500	-11.2213
ut	-11.2213
▁yenilen	-11.2214
ebilme	-11.2217
▁orijinal	-11.2218
▁ermenistan	-11.2218
▁carlos	-11.2219
▁coğrafi	-11.2219
▁algıla	-11.2222
▁karaciğer	-11.2223
▁düzenlenecek	-11.2227
▁gitar	-11.2228
90	-11.2229
▁alem	-11.2231
yüz	-11.2234
▁neşe	-11.2236
▁ato	-11.2237
nuz	-11.224
▁imaj	-11.2257
▁bölü	-11.2258
maya	-11.2258
▁metn	-11.2261
▁demirci	-11.2261
▁müteahhit	-11.2263
▁teori	-11.2263
61	-11.2263
▁hac	-11.2266
▁görgü	-11.227
ullah	-11.2273
▁140	-11.2288
ladı	-11.2289
▁tck	-11.229
unu	-11.2296
▁martin	-11.23
▁yayınladı	-11.2301
▁68	-11.2323
▁stok	-11.2326
▁kapandı	-11.2332
▁geçecek	-11.234
▁buğday	-11.2341
▁fosil	-11.2341
▁doping	-11.2341
▁kürsü	-11.2341
▁vladim	-11.2341
▁kurmay	-11.2341
▁radar	-11.2341
▁zorundayız	-11.2342
▁fakir	-11.2342
▁harç	-11.2342
▁bileşen	-11.2343
▁fuat	-11.2344
▁akaryakıt	-11.2347
▁tutanak	-11.2347
60	-11.2351
oy	-11.2355
▁gizem	-11.2355
▁yöneticileri	-11.2361
▁sanatçı	-11.2361
▁davul	-11.2364
▁verirken	-11.2365
ou	-11.2377
▁af	-11.2384
▁çevr	-11.2394
ram	-11.24
▁hane	-11.2406
masın	-11.241
▁tart	-11.2432
▁kaplan	-11.2435
▁giderilme	-11.2439
▁kutladı	-11.2447
lanmıştır	-11.2457
▁sonucu	-11.2465
▁eriş	-11.2471
▁keşif	-11.2474
▁tekirdağ	-11.2474
▁müvekkil	-11.2475
▁hasret	-11.2475
▁tarsus	-11.2476
▁irfan	-11.2476
genetik	-11.2477
▁nazi	-11.2478
▁piyano	-11.248
▁erişim	-11.2481
▁fas	-11.2482
▁vi	-11.2484
▁global	-11.2489
▁şura	-11.2489
▁yeğen	-11.2489
▁defile	-11.2491
▁ankaragü	-11.2492
▁filo	-11.2494
-16	-11.2494
▁nakil	-11.25
hat	-11.2501
▁taner	-11.2502
▁temsilcileri	-11.2505
▁odak	-11.2513
▁start	-11.2519
▁bbc	-11.2525
▁1,5	-11.2527
▁1-2	-11.2529
▁boyle	-11.2534
▁73	-11.2539
▁geçir	-11.2546
af	-11.2559
▁festivalin	-11.2562
▁cenazesi	-11.2566
▁istedik	-11.2572
▁dekan	-11.2574
tel	-11.2581
▁başladık	-11.2583
artık	-11.2586
▁söyledim	-11.259
tirilecek	-11.2598
iyorlar	-11.2603
▁başlangıc	-11.2609
▁ahşap	-11.2609
▁konvoy	-11.2609
▁kırklareli	-11.2609
▁mağlubiyet	-11.2609
▁çılgın	-11.2609
▁tablet	-11.2609
▁rehabilitasyon	-11.2609
▁maraton	-11.2609
▁tezahürat	-11.261
▁nitekim	-11.261
▁fail	-11.261
▁aktivite	-11.2616
▁fahri	-11.2616
▁kontenjan	-11.2616
▁suikast	-11.2616
▁ederiz	-11.2618
▁yayla	-11.262
▁bıçağ	-11.262
▁tartan	-11.2622
▁hint	-11.2622
leşme	-11.2623
▁19.00	-11.2629
▁karaca	-11.263
sat	-11.2631
▁hur	-11.2632
lin	-11.2632
altı	-11.2633
▁durdu	-11.2635
▁taşeron	-11.2638
siniz	-11.2639
▁sunulacak	-11.264
▁78	-11.2641
▁çavuş	-11.2642
sıdır	-11.2648
▁74	-11.2649
▁topal	-11.2651
▁günkü	-11.2652
▁mor	-11.2656
▁tüketim	-11.2657
▁demiş	-11.2658
ılıyor	-11.266
▁topladı	-11.266
▁sağlayacak	-11.2664
▁yaşayan	-11.2677
▁kalmadı	-11.2682
kapı	-11.2691
▁seyret	-11.2694
unun	-11.2701
▁borçlan	-11.2705
▁adıyaman	-11.2705
gar	-11.2707
▁14.	-11.2708
▁kaldırdı	-11.2718
attin	-11.2723
▁sağlam	-11.2723
▁oluşturulma	-11.2725
▁duru	-11.2726
▁fay	-11.2728
hayır	-11.2729
▁övgü	-11.2744
terör	-11.2744
▁domates	-11.2746
▁tüzmen	-11.2746
▁teyze	-11.2746
▁macaristan	-11.2746
▁afgan	-11.2747
▁ikamet	-11.2747
▁bulunduğunu	-11.2747
▁görüyoruz	-11.2747
bana	-11.2748
▁prenses	-11.2748
▁sevda	-11.2749
tra	-11.2751
▁özelleştirme	-11.2752
▁tc	-11.2759
▁kullanıldı	-11.2759
ation	-11.276
▁tanker	-11.2761
▁güncel	-11.2762
▁çarpı	-11.2763
▁kutan	-11.2763
▁tasarla	-11.2769
▁hoşgörü	-11.277
▁ebru	-11.2772
▁tüy	-11.2774
▁imzaladı	-11.2778
▁istem	-11.2779
▁yakup	-11.2779
▁alacağız	-11.2783
▁arsa	-11.2788
▁suyu	-11.2788
▁eleştirdi	-11.2798
▁yöntemi	-11.2799
▁genc	-11.2805
▁3.5	-11.2811
▁ideal	-11.2812
▁almış	-11.2817
▁rengi	-11.2822
▁tony	-11.2823
▁pil	-11.2825
▁yılında	-11.2826
▁gazeteci	-11.2831
ru	-11.2837
▁cesedi	-11.2841
16	-11.2843
▁seven	-11.2847
▁dolandırıcı	-11.2848
▁karma	-11.2849
▁13.	-11.285
▁hızlandır	-11.285
mon	-11.2851
▁kesti	-11.2854
▁yaptılar	-11.2856
▁onaylan	-11.2859
bek	-11.2861
▁jones	-11.2865
▁aydınlat	-11.2877
▁istismar	-11.2877
şin	-11.2878
▁köse	-11.2881
▁kapat	-11.2885
düğünü	-11.2885
▁koridor	-11.2885
▁muamele	-11.2885
▁piriştina	-11.2885
▁smith	-11.2885
▁tweet	-11.2885
▁portakal	-11.2885
▁köle	-11.2885
▁konfederasyon	-11.2885
ani	-11.2886
▁küba	-11.2887
▁altun	-11.2888
▁ömr	-11.2889
▁aldat	-11.2889
▁standard	-11.2892
▁dehşet	-11.2896
▁hıristiyan	-11.2896
▁fişek	-11.29
▁3-0	-11.2903
▁lütf	-11.2905
▁böcek	-11.291
▁sahiptir	-11.2911
▁sır	-11.2912
uyor	-11.2913
▁rota	-11.2914
▁pekin	-11.2917
▁vedat	-11.2918
▁budur	-11.2919
▁maria	-11.292
▁ergenekon	-11.293
▁sümer	-11.2931
▁united	-11.2936
zon	-11.294
▁you	-11.2947
▁hapse	-11.2956
kı	-11.2962
üm	-11.2965
▁bıçakla	-11.2972
lardı	-11.2973
▁pi	-11.2974
▁fu	-11.2975
▁kül	-11.2979
▁yorgun	-11.2981
bö	-11.2983
▁angeles	-11.2984
▁çıkan	-11.2989
▁filiz	-11.3
ligi	-11.3005
uk	-11.301
▁130	-11.3014
▁otorite	-11.3022
▁diyet	-11.3025
▁bahane	-11.3025
▁pro	-11.3026
▁deyrezzor	-11.3026
▁piyade	-11.3026
▁hristiyan	-11.3026
▁mermer	-11.3026
▁cezalandırılma	-11.3026
▁kıdem	-11.3026
▁serhat	-11.3026
▁hilmi	-11.3026
▁bardak	-11.3027
▁titiz	-11.3027
▁bölümü	-11.3027
▁yüksekokul	-11.3028
▁abdden	-11.3033
▁ebu	-11.3033
▁hamdi	-11.3035
▁tüf	-11.3039
▁özay	-11.3039
erk	-11.3041
▁musul	-11.3042
▁sürekli	-11.3045
şükran	-11.3045
▁etmesi	-11.305
▁girecek	-11.3058
.4	-11.3061
▁mıdır	-11.3063
▁tüken	-11.3063
▁kut	-11.3071
unca	-11.3072
▁kun	-11.3072
▁öp	-11.3087
▁futbolcular	-11.3091
▁frank	-11.3093
meden	-11.3097
▁rica	-11.3103
▁doğuş	-11.3103
▁oldular	-11.3103
▁berk	-11.3106
ılacak	-11.3115
▁beyin	-11.3127
▁fi	-11.313
▁misyon	-11.3132
ahmet	-11.3134
▁ber	-11.3139
▁hırs	-11.3142
maları	-11.3144
▁ikiz	-11.3153
▁itibar	-11.3155
ret	-11.316
▁77	-11.316
▁kavşağ	-11.316
▁gözü	-11.3161
▁abbas	-11.3163
by	-11.3168
▁abdülkadir	-11.3169
▁fındık	-11.3169
▁tezgah	-11.3169
▁Word	-11.3169
▁17.00	-11.3169
▁balkon	-11.317
▁1992	-11.317
▁daum	-11.3174
▁izleyen	-11.3176
▁arşiv	-11.3176
▁dedikodu	-11.3176
▁muhabbet	-11.318
▁pentagon	-11.318
▁tutuklanma	-11.3185
genç	-11.3186
▁diyorum	-11.3188
▁karşılaşacak	-11.3189
ku	-11.3191
▁erhan	-11.3193
▁çekin	-11.3195
▁nehir	-11.3195
▁şifre	-11.3196
▁sergen	-11.3199
▁ettiğini	-11.3199
para	-11.3216
▁tuğba	-11.3222
▁ulusoy	-11.3222
▁hızlı	-11.3227
▁yapmış	-11.3237
▁yumruk	-11.3238
io	-11.3244
▁scott	-11.3251
▁yapmıştı	-11.3258
▁talih	-11.3268
abiliriz	-11.327
▁ertelen	-11.3274
▁750	-11.3274
▁gele	-11.3278
▁kok	-11.328
eri	-11.3292
▁demek	-11.33
▁sunuldu	-11.3305
▁değişti	-11.3308
ang	-11.3309
▁yaralanma	-11.331
▁--	-11.3313
▁gurbet	-11.3314
▁motivasyon	-11.3314
▁tedirgin	-11.3314
▁çikolata	-11.3314
▁hırvatistan	-11.3314
▁gürkan	-11.3314
▁kaos	-11.3315
▁istemiyoruz	-11.3317
▁sarf	-11.3317
▁ekmeğ	-11.3318
▁poster	-11.332
▁hollandalı	-11.3321
▁şeffaf	-11.3321
▁mutluyum	-11.3327
▁tbmmye	-11.333
▁rizespor	-11.3331
▁kuşat	-11.3335
cılar	-11.3343
▁mevkii	-11.3348
▁hamza	-11.3356
▁batılı	-11.3357
cat	-11.3359
▁desteklenme	-11.3359
▁tarife	-11.3373
▁leyla	-11.3374
▁ulke	-11.338
▁gözük	-11.3382
yaz	-11.3386
abildi	-11.3389
▁tüsiad	-11.3397
▁ihti	-11.3397
▁fed	-11.3397
▁bosna	-11.3398
▁gelmiş	-11.3399
11	-11.34
larin	-11.3403
ts	-11.3406
▁karşılanma	-11.3411
▁kuyum	-11.3413
▁ile	-11.3424
üst	-11.343
▁olsa	-11.3437
ledi	-11.344
▁aldılar	-11.3443
▁yönetil	-11.3449
ız	-11.3451
sunuz	-11.3452
▁yasakla	-11.3452
▁oba	-11.3452
▁caz	-11.3453
niversitesi	-11.3459
▁ölçek	-11.346
▁bayi	-11.346
▁kene	-11.3461
▁zekeriya	-11.3461
▁patates	-11.3461
▁Windows	-11.3461
▁mafya	-11.3461
▁duyuyorum	-11.3462
▁nobel	-11.3462
▁bayraktar	-11.3463
▁kemalpaşa	-11.3463
▁karargah	-11.3464
▁albayrak	-11.3466
▁kurultay	-11.3466
▁beko	-11.3467
▁ozan	-11.3472
dal	-11.3472
▁cerrahi	-11.3473
▁beyoğlu	-11.3474
res	-11.3481
▁besin	-11.3481
ard	-11.3483
▁avcı	-11.3486
tal	-11.3486
yin	-11.3494
▁gelmedi	-11.3494
▁akdoğan	-11.3496
▁geldim	-11.35
kad	-11.3502
▁söylem	-11.3504
▁redded	-11.3504
nis	-11.3508
▁dönemde	-11.3523
▁avm	-11.3525
eceğim	-11.3527
acağını	-11.3529
▁dönüştü	-11.3529
▁bilal	-11.3536
▁duruyor	-11.3536
▁kapattı	-11.3537
▁sakatlan	-11.3539
▁bulunuldu	-11.3541
05	-11.3549
▁pasta	-11.355
muştur	-11.3552
▁nice	-11.3554
inda	-11.3557
ygar	-11.3564
kend	-11.3566
75	-11.3566
▁çim	-11.358
▁sanal	-11.3586
ex	-11.3586
▁ova	-11.3587
▁göğs	-11.361
▁gürbüz	-11.361
▁müebbet	-11.361
▁nezdinde	-11.361
▁uludağ	-11.361
▁emrah	-11.3611
▁muhafazakar	-11.3611
▁dindar	-11.3611
▁tebliğ	-11.3611
▁periyot	-11.3612
▁ceviz	-11.3614
▁kerim	-11.3615
▁3-4	-11.3616
▁eliyle	-11.3616
▁kesilme	-11.3617
▁milletvekilliği	-11.362
▁yayınevi	-11.3621
▁şirin	-11.3622
▁sındır	-11.3626
▁çukurova	-11.3627
▁oturdu	-11.3628
▁mensubu	-11.3628
▁kerem	-11.363
▁by	-11.3634
▁plak	-11.3634
▁bucaspor	-11.3637
▁giren	-11.3639
▁ahmed	-11.3641
dum	-11.365
yor	-11.366
▁saldırdı	-11.3668
▁faul	-11.3676
▁uğru	-11.3678
▁finali	-11.3685
19	-11.3686
▁bostan	-11.3686
meyen	-11.3686
ymiş	-11.3689
yum	-11.369
▁biliyor	-11.3691
▁alınıyor	-11.3691
leştir	-11.3692
▁sirke	-11.3694
mur	-11.3695
13	-11.3696
tes	-11.3697
mız	-11.3711
▁sos	-11.3711
▁altında	-11.3729
▁yapmak	-11.3732
▁kapla	-11.3735
▁takibe	-11.3743
▁çalımbay	-11.3762
▁anlaşmazlık	-11.3762
▁izlenim	-11.3762
▁yasemin	-11.3762
▁nijerya	-11.3762
▁kırıkkale	-11.3762
▁azınlık	-11.3762
▁balbay	-11.3763
▁turgay	-11.3763
▁1960	-11.3764
▁2017	-11.3764
▁basamak	-11.3764
▁71	-11.3766
▁bakkal	-11.3768
▁hasılat	-11.3771
mayı	-11.3774
▁ronaldo	-11.3779
▁gözyaşı	-11.3779
▁öteki	-11.3779
yap	-11.3779
▁ihanet	-11.378
▁çalışacağız	-11.3782
▁sh	-11.3784
▁havayo	-11.3786
Bu	-11.3787
▁faşist	-11.3787
lerinden	-11.3789
▁klima	-11.379
▁paha	-11.3791
affer	-11.3793
24	-11.3793
▁gerçi	-11.3794
▁sözcü	-11.3796
▁görevlendiril	-11.38
ençlerbir	-11.3801
▁hic	-11.3809
▁59	-11.3813
▁fil	-11.3814
▁olmalıdır	-11.3836
17	-11.3837
▁gerçekleştir	-11.3844
▁kadınlar	-11.3847
▁ispat	-11.385
▁konulma	-11.3852
dig	-11.3858
hi	-11.3858
▁ayna	-11.3862
ıyordu	-11.3875
▁06	-11.3879
ği	-11.3881
▁saptan	-11.3894
▁bulgu	-11.3897
▁cerrah	-11.3903
ren	-11.3905
▁stadı	-11.391
▁kot	-11.3911
▁kahramanmaraş	-11.3916
▁tişört	-11.3916
▁ferrari	-11.3916
▁thomas	-11.3916
▁gereksinim	-11.3916
▁hormon	-11.3916
▁bedava	-11.3916
▁sulh	-11.3916
▁cnn	-11.3916
leştirildi	-11.3917
▁şengül	-11.3917
▁bakteri	-11.3918
▁çerçevesinde	-11.3919
▁unakıtan	-11.392
▁87	-11.392
▁taahhüt	-11.3923
▁irtibat	-11.3923
▁keskin	-11.3925
▁kurgu	-11.3926
▁ner	-11.3927
eli	-11.3927
▁harun	-11.393
▁çelebi	-11.3932
▁kobani	-11.3932
▁yayılma	-11.3934
▁aradı	-11.3939
▁pul	-11.3939
abilme	-11.394
name	-11.3942
▁rtük	-11.3947
▁hattı	-11.3959
▁ettiği	-11.3971
▁aksiyon	-11.3975
▁latin	-11.3994
▁usulü	-11.3999
▁bilir	-11.4004
▁festivalde	-11.4008
amıyor	-11.4009
▁raf	-11.4013
▁bitirdi	-11.4014
▁kalkın	-11.4016
pi	-11.4022
▁benimse	-11.4032
▁yüzey	-11.4034
▁hazırladı	-11.4041
ebilirsiniz	-11.4041
tma	-11.4043
▁çile	-11.4047
ron	-11.4051
▁dağıtıldı	-11.4052
iliyor	-11.4056
▁örtü	-11.4063
▁kompleks	-11.4069
▁mağara	-11.407
▁operatör	-11.407
▁tüt	-11.4071
▁galiba	-11.4072
▁travma	-11.4072
▁cenevre	-11.4072
▁vapur	-11.4072
▁çapraz	-11.4072
▁felç	-11.4072
▁protein	-11.4072
▁görüyorum	-11.4073
▁kumaş	-11.4073
▁portal	-11.4074
▁oynuyor	-11.4074
▁sanatsever	-11.4075
▁parmağ	-11.4084
▁çelişki	-11.4084
▁dubai	-11.4085
▁patent	-11.4085
▁84	-11.4087
▁enkaz	-11.4091
▁santral	-11.4095
ılma	-11.41
▁yandaş	-11.41
ebiliyor	-11.4103
▁dikili	-11.4107
▁(19	-11.4108
▁çalışıyorlar	-11.4109
▁burada	-11.4112
▁darp	-11.4117
▁düğme	-11.4127
▁hedefliyor	-11.4149
▁yanaş	-11.4151
▁değiştirilme	-11.4155
kale	-11.4166
▁port	-11.4172
seç	-11.4177
lendir	-11.4184
▁sığ	-11.4185
hak	-11.4187
-19	-11.4187
tor	-11.42
▁ilham	-11.4202
▁mail	-11.4205
▁devral	-11.4218
▁kurdu	-11.4219
▁fır	-11.4221
▁öcal	-11.4223
▁club	-11.4229
▁sonunda	-11.4229
▁nihayet	-11.423
▁gövde	-11.4231
▁chavez	-11.4231
▁diego	-11.4231
▁prensip	-11.4232
▁tatmin	-11.4232
leştirme	-11.4233
▁konuşmasında	-11.4233
▁sabancı	-11.4233
▁evvel	-11.4234
▁karataş	-11.4234
▁dolay	-11.4235
▁tarımsal	-11.4236
▁tasarlan	-11.4237
▁haberdar	-11.4237
▁edilmektedir	-11.424
▁82	-11.424
▁şifa	-11.4244
▁orduspor	-11.4244
rezervasyon	-11.4245
▁maçı	-11.4247
▁ortada	-11.4252
▁tübitak	-11.4253
hayat	-11.4255
▁vermiş	-11.4257
telefon	-11.4258
nem	-11.4258
▁edilen	-11.4258
▁böylece	-11.426
ilerek	-11.4262
▁usul	-11.4267
▁ch	-11.4268
▁once	-11.4274
acaklar	-11.4277
▁hamas	-11.428
▁tuttu	-11.4281
▁katıl	-11.429
▁papa	-11.429
▁caner	-11.4297
ünü	-11.4301
▁ayıp	-11.4305
▁tekin	-11.4307
ebilecek	-11.4308
tt	-11.4313
yon	-11.4316
ıyorsunuz	-11.4323
sk	-11.4327
▁indi	-11.4334
▁91	-11.4338
48	-11.4338
▁bulunacak	-11.4341
▁çocukları	-11.4344
▁gösterildi	-11.4348
ağa	-11.4349
▁yang	-11.4357
▁yedi	-11.4359
▁çarpış	-11.4362
▁yayınlandı	-11.4365
ner	-11.4366
▁ayar	-11.4368
▁katılıyor	-11.4372
▁dayı	-11.4372
▁hay	-11.4383
▁giriş	-11.4385
▁veli	-11.4385
▁öldürdü	-11.4387
lanacak	-11.4389
▁diktatör	-11.4392
▁tüpraş	-11.4392
▁lojman	-11.4392
▁intikam	-11.4392
▁aptal	-11.4392
▁rahmi	-11.4393
▁izzet	-11.4393
▁ciddiyet	-11.4394
▁icraat	-11.4394
▁sonbahar	-11.4394
▁hazırız	-11.4395
▁kargo	-11.4396
▁yıldön	-11.4397
▁öğret	-11.4398
▁ziyade	-11.4399
▁karikatür	-11.4399
▁tümör	-11.4408
ker	-11.4409
▁afyon	-11.4409
▁bilkent	-11.441
▁şüphelen	-11.441
mal	-11.4411
▁sever	-11.4417
▁veriyoruz	-11.4417
sade	-11.4418
▁ucuz	-11.442
mam	-11.4421
Türkiye	-11.4421
▁buçuk	-11.4425
▁banyo	-11.4425
▁geçer	-11.4426
▁iflas	-11.4426
▁kurak	-11.4436
bal	-11.4437
▁olmadığı	-11.4444
▁mc	-11.4452
gin	-11.446
rt	-11.4462
▁iletti	-11.4464
▁chris	-11.4467
▁ney	-11.4472
sch	-11.4483
▁yaşar	-11.4488
▁imzalandı	-11.449
▁richard	-11.4491
▁yama	-11.4492
▁ısın	-11.4494
▁oyuncular	-11.4495
▁20.00	-11.4498
▁ayva	-11.4504
▁buluyor	-11.4506
laşma	-11.4509
▁taşınma	-11.4522
▁çeyr	-11.4522
▁yapmıştır	-11.4537
▁bana	-11.4542
yim	-11.4543
sev	-11.4543
göz	-11.4553
▁rüşt	-11.4555
▁karabük	-11.4555
▁endonezya	-11.4556
▁süs	-11.4556
▁fedakar	-11.4556
▁paniğ	-11.4556
▁mitoloji	-11.4557
yk	-11.4558
▁romantik	-11.4559
eni	-11.4559
▁kaş	-11.4561
▁sanatkar	-11.4562
▁16.00	-11.4564
▁bono	-11.4564
▁bulgar	-11.4571
▁black	-11.4573
▁kravat	-11.4574
35	-11.4575
▁World	-11.4579
▁söndürme	-11.4584
▁alper	-11.4587
İstanbul	-11.4588
99	-11.4588
▁cesur	-11.4589
▁unesco	-11.4589
▁genelge	-11.4594
yargı	-11.4594
tık	-11.4595
▁bos	-11.4596
▁ga	-11.46
21	-11.4604
▁96	-11.4609
▁vererek	-11.4609
▁kaldır	-11.4616
▁18.	-11.4618
▁istediler	-11.4622
has	-11.4625
▁türkiyenin	-11.4633
▁kort	-11.4633
ayni	-11.4646
▁bileşi	-11.4654
76	-11.466
▁youtube	-11.4664
ize	-11.4664
medim	-11.4666
gazi	-11.4672
sek	-11.4675
▁anlamı	-11.468
▁bilen	-11.4696
▁işit	-11.4706
▁güngör	-11.4711
▁der	-11.4711
▁po	-11.4711
▁Sarı	-11.4718
▁dera	-11.4721
▁çubuk	-11.4721
▁ribaund	-11.4722
▁silopi	-11.4723
▁hüsn	-11.4723
▁pratik	-11.4723
▁kucağ	-11.4723
▁mantar	-11.4723
▁enfeksiyon	-11.4723
▁üzüm	-11.4724
▁gürsel	-11.4724
▁haciz	-11.4725
2)	-11.4729
▁grip	-11.473
▁uğradı	-11.4731
▁tahir	-11.4731
▁kullanılıyor	-11.4732
▁solak	-11.4734
del	-11.4734
▁demiryo	-11.4738
▁karadağ	-11.4741
▁nasil	-11.4743
▁900	-11.4745
▁odtü	-11.4746
las	-11.4746
▁alp	-11.4748
▁yurtiçi	-11.4749
mekte	-11.4751
▁1970	-11.4752
▁üssü	-11.4753
irk	-11.4761
▁vefa	-11.4762
lük	-11.4764
▁gücü	-11.4766
▁tarihsel	-11.4772
▁durumu	-11.478
▁görüşmede	-11.4782
▁iletiş	-11.4784
▁bağışla	-11.4786
100	-11.4788
▁ko	-11.4795
▁ister	-11.4801
mistir	-11.4801
▁1.3	-11.4807
▁bağlam	-11.4809
▁arkadaşı	-11.4812
.5	-11.4814
▁abdi	-11.4816
▁türkoğlu	-11.482
▁değiştirdi	-11.4826
▁değiştir	-11.4834
70	-11.4838
arken	-11.4843
▁oynayacak	-11.485
masıdır	-11.4852
▁korsan	-11.4853
▁met	-11.4856
▁kutlu	-11.4857
▁atay	-11.4857
üz	-11.486
▁ismi	-11.4862
▁halim	-11.4868
▁kul	-11.4868
abilecek	-11.487
▁kaynaklar	-11.487
▁esin	-11.4875
▁önerdi	-11.4878
mavi	-11.4879
▁ibaret	-11.4883
▁hazırlanma	-11.4884
▁tutku	-11.4885
▁bülten	-11.4888
▁sarkozy	-11.489
▁olmuyor	-11.4891
▁ambalaj	-11.4892
▁britanya	-11.4892
▁gecekondu	-11.4892
▁kerkük	-11.4892
▁yeryüzü	-11.4892
▁seçeneğ	-11.4892
▁okyay	-11.4892
maksimum	-11.4892
▁sönmez	-11.4892
▁belirtilirken	-11.4892
▁figür	-11.4893
▁kuzeydoğu	-11.4893
▁senato	-11.4894
▁hamur	-11.4894
▁kumar	-11.4895
▁bedensel	-11.4895
▁kaçağı	-11.4895
▁akif	-11.4895
▁karışık	-11.4896
▁sabot	-11.4897
▁kapatıldı	-11.49
▁alçak	-11.4902
▁birbirleri	-11.4902
▁isteniyor	-11.4903
▁kobi	-11.4907
▁surat	-11.4907
sizlik	-11.4908
iyordu	-11.4911
ilmiştir	-11.4915
ymış	-11.4918
▁yumuşak	-11.4919
▁balık	-11.492
▁sıçra	-11.492
▁akpye	-11.4921
▁sayısal	-11.4926
▁başlığı	-11.4926
▁18.00	-11.4928
▁çarpıştı	-11.4929
meyecek	-11.493
▁gittim	-11.4932
sanız	-11.4932
▁dondurma	-11.4934
emedi	-11.494
savaş	-11.4945
▁liberal	-11.4946
▁kese	-11.4947
▁ac	-11.4949
▁giden	-11.495
▁mana	-11.496
▁uydu	-11.4962
▁rant	-11.4962
▁olabil	-11.4965
▁planlıyor	-11.4968
▁yuan	-11.4972
15	-11.4972
▁dikkatini	-11.4973
▁kanama	-11.4973
leriyle	-11.4976
▁69	-11.4978
▁bant	-11.498
▁yenile	-11.498
▁çekiş	-11.4982
▁inek	-11.4988
▁yazıda	-11.4998
▁83	-11.5003
▁annesi	-11.5018
▁perakende	-11.5021
▁sek	-11.5028
-3	-11.503
▁gayrimenkul	-11.504
ib	-11.5043
-5	-11.5044
▁çıkmıştı	-11.5051
▁yaptığı	-11.5053
▁konuşuyor	-11.5064
▁chirac	-11.5064
▁muhtaç	-11.5064
▁oksijen	-11.5064
▁söylenti	-11.5065
▁ikramiye	-11.5065
▁kuzeybatı	-11.5065
▁tokyo	-11.5066
▁korkmaz	-11.5066
▁yüzük	-11.5067
▁söyleniyor	-11.5068
▁günaydın	-11.5069
▁tork	-11.5069
▁terörizm	-11.5069
▁öngörülüyor	-11.507
▁cüzdan	-11.5072
▁toplanma	-11.5073
▁aydınlık	-11.5074
ste	-11.5075
▁zehirlen	-11.5075
▁michel	-11.5078
28	-11.5081
▁hamburg	-11.5083
▁dokunulmaz	-11.5083
▁link	-11.5084
▁atıl	-11.5087
▁jac	-11.5088
▁gömlek	-11.509
▁kaba	-11.509
▁fare	-11.5092
▁Diyarbakırspor	-11.5094
▁yorul	-11.5094
▁şike	-11.5095
▁ster	-11.51
sh	-11.5104
▁tayland	-11.5106
▁hamam	-11.5106
▁dunya	-11.5113
▁sinirlen	-11.5119
takım	-11.5122
▁chpye	-11.5125
cal	-11.5125
▁ulusu	-11.5126
▁anlat	-11.513
▁tayin	-11.5133
kadın	-11.5141
▁dvd	-11.5142
wa	-11.5146
-18	-11.515
oloji	-11.5156
▁söyl	-11.5161
▁dinç	-11.5163
▁kesildi	-11.5165
liler	-11.5165
larak	-11.5171
▁kilis	-11.5172
▁uzer	-11.5175
▁mevkiin	-11.5178
lacivertli	-11.5184
▁saz	-11.5185
tv	-11.5187
▁olursa	-11.5202
aç	-11.5202
▁şerid	-11.5204
▁sloganı	-11.5206
▁180	-11.5211
▁fonksiyon	-11.5212
madım	-11.5218
mem	-11.5221
ac	-11.5227
zar	-11.523
▁casus	-11.5239
▁objektif	-11.524
▁ısparta	-11.524
▁finlandiya	-11.524
▁taslak	-11.524
▁özkök	-11.524
▁tunus	-11.524
▁zihinsel	-11.524
▁magazin	-11.5241
▁ıslah	-11.5241
▁unutmayın	-11.5242
▁inter	-11.5243
▁fırın	-11.5243
▁koçak	-11.5243
▁hatırlatıl	-11.5243
▁nakliye	-11.5244
▁destan	-11.5246
▁bakır	-11.5246
▁cahil	-11.5246
▁dündar	-11.5246
▁barzani	-11.5248
▁denetle	-11.5248
mıştım	-11.5248
▁taktir	-11.5248
▁usame	-11.5249
lanır	-11.5251
▁tok	-11.5253
▁mahallesi	-11.5254
▁14.00	-11.5256
kor	-11.5258
▁eşek	-11.5258
▁şafak	-11.5259
▁yeraltı	-11.5263
medik	-11.5266
dıklarını	-11.5266
▁gerekmektedir	-11.5266
▁telefonu	-11.5267
▁bereket	-11.527
▁yapılırken	-11.5272
▁gülümse	-11.5272
▁özle	-11.5275
▁ünsal	-11.5279
▁kesi	-11.528
▁kı	-11.5281
my	-11.5283
melidir	-11.5286
▁king	-11.5286
▁kullanıyor	-11.5287
▁takı	-11.5287
maç	-11.5289
larken	-11.5303
memiş	-11.5318
kendi	-11.5325
▁boğa	-11.5326
sem	-11.5343
▁kıy	-11.5346
lanırken	-11.5347
▁örgütü	-11.5349
meliyiz	-11.5351
▁faz	-11.5354
▁alıyoruz	-11.5355
yken	-11.5361
doğu	-11.5362
yani	-11.5365
ona	-11.5367
syon	-11.5368
▁450	-11.5376
▁gay	-11.538
söz	-11.5384
▁olsaydı	-11.5391
▁gideril	-11.5392
ysa	-11.5395
lılar	-11.5395
▁öğreti	-11.5397
▁19.	-11.5399
emiyor	-11.5401
42	-11.5402
ala	-11.5402
▁gala	-11.5408
▁Wi	-11.5408
▁midir	-11.5409
▁buhar	-11.5411
ef	-11.5414
▁feribot	-11.5416
halk	-11.5418
▁mahmud	-11.5418
▁görkem	-11.5418
▁iktisadi	-11.5418
▁konsept	-11.5418
▁kavşak	-11.5418
▁senfoni	-11.5418
▁monica	-11.5418
▁şapka	-11.5419
▁estetik	-11.5419
▁alınırken	-11.5419
▁amacıyla	-11.542
▁karagöz	-11.542
▁gerilla	-11.542
▁hedefliyoruz	-11.542
▁bekliyorum	-11.5421
▁demirören	-11.5423
▁taşındı	-11.5424
▁tahra	-11.5425
▁kirli	-11.5425
▁kandır	-11.543
sınız	-11.5431
▁cihat	-11.5431
▁gerektiğini	-11.5432
▁üsküdar	-11.5432
▁madem	-11.5436
▁edilerek	-11.5438
▁online	-11.5439
mışlar	-11.5446
▁oluşur	-11.5447
▁tlye	-11.5448
▁nusra	-11.5448
▁türker	-11.5468
▁val	-11.5474
▁bölgesi	-11.5481
iang	-11.5482
▁ayarla	-11.5483
▁kaldım	-11.5489
vit	-11.549
▁güçlen	-11.5498
ort	-11.5498
▁cafe	-11.551
▁aut	-11.551
▁79	-11.5511
ada	-11.5523
▁ölç	-11.5523
hal	-11.5536
cek	-11.5537
▁çocuklar	-11.5541
ane	-11.5541
▁üyesi	-11.5543
▁kaydettiler	-11.5544
▁10.00	-11.5546
▁çıkmış	-11.555
▁tıklay	-11.5551
mışlardır	-11.5556
▁sağlandı	-11.5564
▁pekiştir	-11.5565
▁devredil	-11.5566
▁sakın	-11.5573
▁partisi	-11.5574
▁normalde	-11.5575
▁am	-11.5577
▁hissi	-11.5583
▁kayboldu	-11.5589
▁bora	-11.5592
▁kandil	-11.5598
▁berlusconi	-11.56
▁mutabakat	-11.56
▁referans	-11.56
▁tevfik	-11.56
▁tavşan	-11.56
▁havza	-11.56
▁antlaşma	-11.56
▁eroin	-11.56
▁hibe	-11.5601
▁intikal	-11.5601
▁T	-11.5602
▁helal	-11.5602
▁çelenk	-11.5604
fon	-11.5605
▁eksen	-11.5607
▁bizans	-11.5608
▁topbaş	-11.5608
▁cezire	-11.5614
▁tabiat	-11.5615
larıdır	-11.5615
▁denktaş	-11.5615
op	-11.5616
▁varil	-11.5616
▁güzelbahçe	-11.5617
▁kafkas	-11.5618
▁meşhur	-11.562
▁kısmen	-11.562
▁barın	-11.5621
▁sinop	-11.5622
▁guzel	-11.5625
▁evrensel	-11.5628
▁malum	-11.5631
layan	-11.5639
▁donanma	-11.564
▁chelsea	-11.5641
▁cenk	-11.5641
▁iptali	-11.5645
rak	-11.5651
amadı	-11.5651
eceği	-11.5653
bm	-11.5654
sakınca	-11.5654
▁olanı	-11.5656
akp	-11.5659
enerbahçe	-11.5663
▁mantığ	-11.5665
açık	-11.5667
95	-11.5668
▁pazarlama	-11.5668
ciler	-11.5669
ildi	-11.5671
if	-11.5673
▁odası	-11.5674
▁namus	-11.5675
▁pu	-11.5678
▁varken	-11.5679
til	-11.5686
▁başlamıştı	-11.5688
mamış	-11.569
▁koyuyor	-11.5696
▁ölümü	-11.57
▁programı	-11.5711
gaz	-11.5712
▁kullanan	-11.5713
▁tekme	-11.5733
▁ekipman	-11.5737
ris	-11.5738
▁şirketi	-11.5738
anne	-11.5741
▁turne	-11.5741
▁ekim	-11.5741
bas	-11.5742
-4	-11.5747
▁lo	-11.5747
lendirme	-11.5751
dedi	-11.5754
aile	-11.5758
▁çarptırıl	-11.576
▁elmas	-11.5768
▁duyar	-11.5772
▁etiket	-11.5772
▁muhafaza	-11.5775
▁mutlak	-11.5776
▁erman	-11.5778
▁trakya	-11.5778
▁kraliçe	-11.5782
uharrem	-11.5785
▁frankfurt	-11.5785
▁poşet	-11.5785
▁rütbe	-11.5785
▁bilirkişi	-11.5785
▁süreyya	-11.5785
▁antonio	-11.5785
▁mutsuz	-11.5785
▁idris	-11.5785
▁kordon	-11.5786
▁bandırma	-11.5786
▁puro	-11.5786
▁tersane	-11.5786
▁tuhaf	-11.5786
▁daily	-11.5786
▁ığdır	-11.5786
▁kalır	-11.5786
▁mağduriyet	-11.5787
▁yuvarlak	-11.5787
▁johnson	-11.5787
33	-11.5788
▁söylüyorum	-11.5788
▁jia	-11.5788
▁kostüm	-11.5788
▁kişinin	-11.5789
▁osmaniye	-11.5789
▁sonucunda	-11.579
▁çeçen	-11.5791
▁ersan	-11.5791
▁sağlanacak	-11.5791
▁kg	-11.5792
▁başrol	-11.5794
▁yıldır	-11.5804
-30	-11.5808
▁dershane	-11.5809
▁cild	-11.5811
tam	-11.5813
▁müşavir	-11.5816
▁derya	-11.582
larımız	-11.5822
▁canavar	-11.5823
▁sürerken	-11.5823
uruldu	-11.5828
▁leke	-11.5836
bazı	-11.5849
▁kayna	-11.585
▁denizli	-11.585
yın	-11.5859
▁arıyor	-11.586
26	-11.5862
▁saka	-11.5865
▁anayasal	-11.5866
yaklaşık	-11.5869
▁xx	-11.5872
▁incelenme	-11.5876
34	-11.588
▁balo	-11.5889
▁olsay	-11.5891
parti	-11.5895
▁sis	-11.5896
nden	-11.5897
▁protokolü	-11.5902
▁twitterda	-11.5905
,5	-11.5908
ıydı	-11.5912
▁yetiştiril	-11.592
cağ	-11.5922
▁makul	-11.5927
şi	-11.5928
diler	-11.593
ene	-11.5933
▁bilge	-11.5937
▁bakın	-11.594
▁ordusu	-11.5947
ft	-11.5959
▁olgu	-11.5962
nik	-11.5963
71	-11.5963
▁rehin	-11.5965
▁ödene	-11.597
▁türkan	-11.5972
▁fıkra	-11.5974
▁abluka	-11.5974
▁komando	-11.5974
▁piyanist	-11.5974
▁senarist	-11.5974
▁çankırı	-11.5974
▁tuğgeneral	-11.5974
▁vagon	-11.5974
▁devriye	-11.5975
▁demeçte	-11.5977
▁seferber	-11.5977
▁solist	-11.5977
▁basket	-11.5977
▁seviyorum	-11.5979
▁özgüven	-11.5979
▁avni	-11.5979
▁yanıl	-11.598
▁isterim	-11.5982
▁garson	-11.5982
▁piyango	-11.5983
▁öğrendim	-11.5985
▁bayern	-11.5986
▁çıkmadı	-11.5987
▁çevirdi	-11.5987
▁çıkart	-11.599
▁çekirdek	-11.5994
teknolojik	-11.6
▁asılsız	-11.6
▁92	-11.6
▁montaj	-11.6001
ms	-11.6003
▁bastı	-11.6003
▁erecek	-11.6003
▁sapta	-11.6004
▁atlas	-11.6006
rit	-11.6007
duk	-11.6009
mail	-11.6012
▁oluruz	-11.6015
▁ulaşım	-11.6019
dy	-11.6021
▁esir	-11.6023
▁edecektir	-11.6026
▁damla	-11.6027
▁dp	-11.6028
37	-11.6028
▁asli	-11.6042
▁çeviri	-11.6044
▁kati	-11.6045
▁yorumla	-11.6046
▁kazak	-11.6047
▁mö	-11.6052
rim	-11.6052
eceğini	-11.6055
▁erdoğanın	-11.6056
ses	-11.6057
▁sürüklen	-11.606
▁bayıl	-11.6072
ora	-11.6073
▁(1	-11.6076
▁yüzme	-11.6081
▁hapishane	-11.6081
▁sonuçlandı	-11.6084
▁ag	-11.6088
gon	-11.6097
▁krem	-11.6098
ege	-11.6099
▁ertelenme	-11.61
▁favori	-11.6109
▁daniel	-11.6128
cer	-11.6129
▁kek	-11.613
▁azaldı	-11.6139
▁ürünleri	-11.6139
▁gayri	-11.614
gil	-11.6149
ilebilir	-11.6151
▁kün	-11.6155
▁97	-11.6157
dışı	-11.6163
▁periyod	-11.6166
▁kuaför	-11.6166
▁şehid	-11.6166
▁merve	-11.6167
▁judo	-11.6167
▁kastamonu	-11.6167
▁viyana	-11.6167
▁güneybatı	-11.6167
▁stoper	-11.6167
▁efsanevi	-11.6167
▁dgm	-11.6168
▁saptandı	-11.6168
prestij	-11.6168
riz	-11.6169
▁golünü	-11.6169
▁esnek	-11.6169
▁yenimahalle	-11.617
▁selçuklu	-11.6173
▁aslında	-11.6174
▁edilmiş	-11.6175
▁88	-11.6177
▁oynarken	-11.6179
▁nedenle	-11.6181
▁charles	-11.6182
▁grafik	-11.6183
je	-11.6184
▁erciyes	-11.6186
▁sovyet	-11.6187
▁karaburun	-11.6187
▁acele	-11.6189
▁elvan	-11.6193
▁cehennem	-11.6193
▁toyota	-11.6193
▁adanaspor	-11.6194
84	-11.6194
▁yıkım	-11.6195
▁sırp	-11.6196
▁kaldık	-11.6197
yn	-11.6199
skişehirspo	-11.62
▁99	-11.6203
abi	-11.6203
ağ	-11.6204
▁bektaş	-11.6204
▁tahrik	-11.6207
▁sayesinde	-11.6213
diklerini	-11.6215
eret	-11.6227
▁talebi	-11.6231
tarak	-11.6234
arka	-11.6239
▁***	-11.624
amadım	-11.6247
▁tamer	-11.625
mışlardı	-11.625
ucu	-11.625
hu	-11.625
rettin	-11.626
öğret	-11.6261
▁nadir	-11.6263
▁tsi	-11.6264
▁1-	-11.6264
beşiktaş	-11.6265
güzel	-11.6266
fenerbahçe	-11.6266
erkek	-11.6266
▁şer	-11.6269
▁yapılmıştır	-11.6269
ish	-11.6274
▁kanuni	-11.6278
manın	-11.6278
▁içer	-11.6289
▁dilim	-11.6289
yük	-11.6292
▁girmesi	-11.6293
ğını	-11.6293
▁kucak	-11.6299
▁ödev	-11.6304
▁mavili	-11.6307
18	-11.6313
▁okudu	-11.6315
▁döktü	-11.6316
’’	-11.6316
▁3-1	-11.6316
▁gan	-11.6318
▁çifti	-11.6318
06	-11.6327
▁ederler	-11.6328
▁olanlar	-11.633
▁suçlaması	-11.6333
fu	-11.6335
▁başladım	-11.6337
▁93	-11.6339
▁carl	-11.6343
▁tabir	-11.6348
emeyecek	-11.6349
rack	-11.6353
alatasaray	-11.6358
▁kılavuz	-11.6359
bin	-11.636
▁halkı	-11.6361
▁başantrenör	-11.6362
▁lojistik	-11.6362
▁karmaşık	-11.6362
▁alaçatı	-11.6363
▁homs	-11.6363
27	-11.6364
▁gölbaşı	-11.6364
▁yoğurt	-11.6364
▁mülkiyet	-11.6364
▁kurum	-11.6365
▁gaziantepspo	-11.6366
▁kontrollü	-11.6366
▁şölen	-11.6366
▁samsunspor	-11.6366
▁özver	-11.6367
▁denizaltı	-11.6367
▁çıray	-11.6367
▁bilinir	-11.6369
fo	-11.6371
▁polisi	-11.6372
▁hadise	-11.6372
▁god	-11.6372
▁104	-11.6375
mir	-11.6376
▁golf	-11.6377
▁çember	-11.6378
▁bozkurt	-11.6378
▁nesne	-11.6379
▁double	-11.6379
ılmaktadır	-11.638
▁kasıt	-11.6384
▁lif	-11.6387
▁adamı	-11.6388
▁dj	-11.6391
▁anabil	-11.6391
mişlerdir	-11.6394
tığını	-11.6395
▁değerlendir	-11.6396
▁vardir	-11.6398
▁başlatılma	-11.6399
latif	-11.6402
atılım	-11.6402
▁lastik	-11.6402
▁yamaç	-11.6402
▁yapılmadı	-11.6404
▁çakmak	-11.6404
▁yanında	-11.6419
ılırken	-11.6432
çü	-11.6434
lenir	-11.6438
▁olmasın	-11.6444
▁atandı	-11.6444
▁kalmış	-11.6454
öğretim	-11.646
▁kopya	-11.6465
▁hz	-11.6465
▁ri	-11.6465
▁iranlı	-11.6468
▁kuşağ	-11.6474
kız	-11.6474
▁gole	-11.6475
ndığını	-11.6482
▁nakledil	-11.6486
▁yapmadı	-11.6486
▁nitelendir	-11.6487
ılması	-11.6488
▁nimet	-11.6492
80	-11.6498
▁almaktadır	-11.6506
▁gündoğ	-11.6513
▁dönüştürül	-11.6514
▁fp	-11.6514
▁zen	-11.6514
-11	-11.6516
▁yoğunlaş	-11.652
▁hayl	-11.6521
▁karıştı	-11.6521
lenirken	-11.6526
▁öd	-11.6526
▁yapılan	-11.6528
▁başkanları	-11.6554
lerara	-11.6554
▁sansür	-11.6555
tilerek	-11.6556
▁talimatı	-11.6559
▁reuters	-11.656
▁porno	-11.656
▁sendrom	-11.656
▁dayanıklı	-11.6561
ıyorsun	-11.6562
▁atletico	-11.6562
▁hacettepe	-11.6562
▁jiabao	-11.6562
▁katolik	-11.6562
▁makyaj	-11.6562
▁şaban	-11.6563
▁kolombiya	-11.6563
▁öğe	-11.6563
▁samimiyet	-11.6563
▁yetiştirici	-11.6563
par	-11.6563
▁mutluyuz	-11.6563
▁muhammet	-11.6564
▁gümüşhane	-11.6564
▁planlıyoruz	-11.6565
▁tütün	-11.6565
▁görülür	-11.6567
▁akyüz	-11.6568
▁çalışması	-11.6571
▁ceyhun	-11.6572
▁safi	-11.6575
▁edilemez	-11.6576
▁vahşi	-11.6577
tig	-11.6578
▁cizre	-11.6578
▁kudüs	-11.6578
▁parçala	-11.6582
ford	-11.6585
▁pkkya	-11.6585
▁çalışıyorum	-11.6589
▁flor	-11.6589
▁hatun	-11.659
▁polisler	-11.6592
▁kavuştu	-11.6592
▁önemse	-11.6593
.’’	-11.6596
▁akçay	-11.6601
▁4.5	-11.6611
▁golleri	-11.6614
▁jose	-11.662
▁yunanlı	-11.6621
liydi	-11.6622
▁ısı	-11.6623
▁esra	-11.6629
▁sün	-11.663
ng	-11.663
▁baran	-11.6632
moon	-11.6632
▁rumen	-11.6633
▁pan	-11.6637
▁koştu	-11.6639
▁show	-11.6642
▁pes	-11.6642
sha	-11.6643
▁doz	-11.6644
▁gore	-11.6645
car	-11.6646
▁kuran	-11.6653
▁yana	-11.6663
▁sempozyum	-11.6666
tis	-11.6667
▁havai	-11.6668
▁çarptırıldı	-11.6668
rc	-11.667
▁harf	-11.6678
leridir	-11.6678
▁pir	-11.6683
ling	-11.6684
66	-11.6684
▁ez	-11.6685
cü	-11.6693
▁devrildi	-11.6706
▁sars	-11.671
che	-11.6712
bul	-11.6712
▁rolünü	-11.6712
▁cemaat	-11.6734
▁müs	-11.6737
▁sergiledi	-11.6739
▁sevgili	-11.6743
meye	-11.6745
▁hayda	-11.6753
iyorsun	-11.6753
▁yakınları	-11.676
▁tekno	-11.6763
▁terbiye	-11.6766
▁heyelan	-11.6767
▁kahkaha	-11.6767
▁karpuz	-11.6767
▁muhasebe	-11.6767
▁parlamenter	-11.6767
▁selanik	-11.6767
▁levha	-11.6767
▁manavgat	-11.6767
▁gerets	-11.6767
▁kaçınılmaz	-11.6767
▁termal	-11.6767
▁bağladı	-11.6767
▁botaş	-11.6768
▁harbi	-11.6768
▁1982	-11.6768
▁yurtsever	-11.6768
▁metrobüs	-11.6768
▁pota	-11.6769
▁sarkozynin	-11.6769
▁köksal	-11.6769
▁ertelendi	-11.677
▁badem	-11.677
▁aydoğan	-11.677
▁güçlendirilme	-11.6771
▁sekil	-11.6771
▁kurtarılama	-11.6771
▁davetiye	-11.6771
▁4-5	-11.6772
▁anımsattı	-11.6772
▁gerçekçi	-11.6774
zure	-11.6775
▁bardağ	-11.6775
▁trend	-11.6775
▁yargıç	-11.6776
▁ksk	-11.6777
▁takıldı	-11.6777
▁zemin	-11.6778
▁restor	-11.6779
.45	-11.678
▁türbe	-11.6783
▁manşet	-11.6789
▁çalışma	-11.6789
▁kanada	-11.6792
▁mis	-11.6796
▁kabine	-11.6799
▁con	-11.68
fuz	-11.6805
ER	-11.6807
▁160	-11.6807
▁etmiyor	-11.6812
▁merhaba	-11.6814
▁ayında	-11.6814
kol	-11.6819
▁dönüyor	-11.6821
▁yahu	-11.6822
▁tosun	-11.6823
ent	-11.6828
▁pen	-11.6828
▁kerry	-11.6831
▁aysal	-11.6833
▁love	-11.6834
▁gizlen	-11.6835
▁başroller	-11.6839
▁dağıttı	-11.684
▁türü	-11.6841
▁tsk	-11.6842
▁yapıyorum	-11.6843
▁artırdı	-11.6843
▁girer	-11.6846
▁aileleri	-11.6847
▁edebil	-11.6847
▁kalmıştı	-11.6854
▁skorer	-11.6856
mesidir	-11.6861
müş	-11.6861
▁emel	-11.6864
▁hami	-11.6864
▁kalori	-11.6864
hattin	-11.6867
▁olayda	-11.6874
▁dedik	-11.6875
yel	-11.6883
▁imra	-11.6886
▁sakinleri	-11.6887
ika	-11.6889
ırlar	-11.6891
▁yankı	-11.6893
▁ender	-11.6898
pp	-11.6898
yak	-11.6909
▁evlad	-11.6911
ılmıştı	-11.6912
▁seyya	-11.6915
miştim	-11.6919
rs	-11.6919
lanması	-11.692
▁harp	-11.6924
olay	-11.6933
▁gec	-11.6934
▁alıp	-11.6945
▁babası	-11.6948
▁kaydı	-11.6959
lerimiz	-11.6966
▁yel	-11.6968
▁düşünün	-11.6969
▁William	-11.6969
▁yuz	-11.697
▁cüneyt	-11.6975
▁orleans	-11.6975
▁resepsiyon	-11.6975
▁istisna	-11.6975
▁tedarik	-11.6975
▁yepyeni	-11.6975
▁baygın	-11.6975
▁iyimser	-11.6975
▁lodos	-11.6975
▁gercek	-11.6975
▁epey	-11.6975
▁pikni	-11.6975
▁menemen	-11.6975
▁adapazarı	-11.6975
▁akbulut	-11.6975
▁menkul	-11.6975
▁ipekçi	-11.6976
▁hemşehri	-11.6976
▁christoph	-11.6976
▁yaşındayken	-11.6976
▁spoi	-11.6977
▁bulunurken	-11.6977
▁altındağ	-11.6978
▁tarafindan	-11.6978
mada	-11.6979
▁onarım	-11.6979
▁daral	-11.6979
▁milas	-11.698
dor	-11.698
▁arsenal	-11.698
ite	-11.698
▁yirmi	-11.6981
▁devril	-11.6983
▁varol	-11.6984
▁zürih	-11.6985
▁tmsf	-11.6989
▁fetih	-11.6991
▁kuveyt	-11.6991
▁hande	-11.6995
▁maymun	-11.6997
▁mübarek	-11.6997
▁seviş	-11.6998
▁arapça	-11.6999
▁aksaray	-11.6999
mişler	-11.7006
81	-11.701
mü	-11.7013
of	-11.7016
▁balyoz	-11.7017
▁oluyoruz	-11.7019
▁abdyi	-11.702
sinda	-11.7022
▁hedefleniyor	-11.7035
▁pantolon	-11.7038
inden	-11.704
▁katılmadı	-11.7043
▁komiser	-11.7043
▁sıfat	-11.7044
▁tümü	-11.7046
▁bozulma	-11.7046
naz	-11.7049
▁yılbaşı	-11.7052
▁selma	-11.7053
▁donatıl	-11.7055
star	-11.7058
mey	-11.7059
lenecek	-11.7059
rma	-11.706
▁öv	-11.7061
▁cari	-11.7061
1)	-11.7064
▁posta	-11.7068
▁çalı	-11.7068
▁gerçekleştiril	-11.7068
▁takla	-11.7069
▁nes	-11.7073
▁sam	-11.7081
gun	-11.7081
▁chpde	-11.7089
▁bildir	-11.709
▁yapalım	-11.7091
▁istemiyor	-11.7093
adam	-11.7094
82	-11.7096
gerçekleştirilme	-11.7097
09	-11.7102
▁boğ	-11.7102
çık	-11.7103
▁savrul	-11.711
süz	-11.7111
lıkları	-11.7112
jo	-11.7113
▁tutun	-11.7123
miyorum	-11.7125
▁savunuyor	-11.7125
gir	-11.7128
▁89	-11.7128
ziyer	-11.7128
▁etmez	-11.7131
▁çocuğu	-11.7131
laştır	-11.7132
▁mode	-11.7135
▁taraftarlar	-11.7136
Ma	-11.7138
▁seda	-11.714
▁ihtimalle	-11.7145
▁durmuş	-11.715
▁iletil	-11.7157
▁spd	-11.7157
▁stil	-11.716
▁yaraladı	-11.7168
ilecek	-11.717
▁taklit	-11.717
▁liu	-11.717
ans	-11.7171
▁oranı	-11.7177
lon	-11.7178
▁yayımlandı	-11.7178
▁bari	-11.7179
muyor	-11.718
▁konsol	-11.7183
▁gökalp	-11.7183
okul	-11.7185
telekomünikasyon	-11.7188
▁Belediyespor	-11.7188
▁edremit	-11.7188
▁haseke	-11.7188
▁kıvanç	-11.7188
▁podyum	-11.7188
▁sneijder	-11.7188
▁teşebbüs	-11.7188
▁lavrov	-11.7188
▁guardian	-11.7188
▁ferhat	-11.7188
▁sözcüsü	-11.7188
▁yürütüyor	-11.7188
▁otogar	-11.7188
▁jackson	-11.7188
▁tufan	-11.7188
▁gürsoy	-11.7188
▁kutluyorum	-11.7188
▁dtp	-11.7188
▁erciyesspor	-11.7189
▁harici	-11.7189
▁eczane	-11.7189
▁cemiyet	-11.719
▁env	-11.719
emzi	-11.719
▁şii	-11.7191
▁kırdı	-11.7193
▁akıntı	-11.7195
▁iktisat	-11.7198
▁shanghai	-11.7205
▁steve	-11.7208
▁mülk	-11.7212
▁leonard	-11.7215
▁kaybetmişti	-11.7217
▁izsu	-11.7217
▁yüzücü	-11.7218
ket	-11.7223
ion	-11.7223
▁fox	-11.7224
▁selvi	-11.7224
▁buluşacak	-11.7227
▁ödülü	-11.7227
▁gelirken	-11.7232
▁gelince	-11.7232
orta	-11.7238
▁sichuan	-11.7239
lat	-11.724
▁sağlar	-11.7247
▁değindi	-11.7248
çay	-11.7248
kullanılmaktadır	-11.7251
▁cıa	-11.7258
sinler	-11.7262
▁lama	-11.7264
▁gelmektedir	-11.7265
lt	-11.7271
yorum	-11.7271
▁döner	-11.7272
ardı	-11.7273
▁aşçı	-11.7274
▁kür	-11.7274
32	-11.7275
▁yar	-11.7281
▁besi	-11.7282
▁elbet	-11.7285
▁kutlan	-11.7286
ster	-11.7289
ral	-11.7294
▁yapıyorlar	-11.7296
▁ödeyecek	-11.7298
▁pişir	-11.73
sis	-11.7301
▁bı	-11.7306
▁fer	-11.7306
▁inceleme	-11.7307
arım	-11.7308
▁bakanlık	-11.7309
▁gösterir	-11.7312
▁tarihi	-11.7314
▁temizlen	-11.7315
▁gri	-11.7317
▁süsle	-11.7329
gerçek	-11.733
almanya	-11.733
yeşil	-11.7332
▁yaşında	-11.7334
iydi	-11.7339
▁ediyordu	-11.7342
lek	-11.7344
64	-11.7345
▁yöneltil	-11.7349
▁berber	-11.7353
▁pano	-11.7361
▁kurtardı	-11.7362
▁haller	-11.7386
▁açıyor	-11.7386
▁ihtila	-11.7391
çin	-11.7392
▁sorgulama	-11.7392
▁13.00	-11.7393
▁sağlamak	-11.7393
▁tabanlı	-11.7397
▁doy	-11.7399
▁verilmedi	-11.74
▁ibare	-11.74
▁zorundadır	-11.7401
▁alınmıştı	-11.7403
▁entegr	-11.7405
▁gebze	-11.7405
▁köfte	-11.7405
▁tahkim	-11.7405
▁rumsfeld	-11.7405
▁muhatap	-11.7405
▁sperm	-11.7405
▁çolak	-11.7405
▁rampa	-11.7405
▁tahsin	-11.7405
▁naklen	-11.7405
▁ardahan	-11.7405
▁kabiliyet	-11.7405
▁bjk	-11.7405
▁makedonya	-11.7406
▁narkotik	-11.7406
▁lobi	-11.7406
işare	-11.7406
▁merci	-11.7406
▁plaza	-11.7407
ıldığını	-11.7407
▁boluspor	-11.7407
▁mısınız	-11.7407
▁colin	-11.7408
▁sanmıyorum	-11.7408
▁idl	-11.7409
▁kararlaştırdı	-11.7409
▁partizan	-11.7411
ikin	-11.7411
▁akgün	-11.7411
hep	-11.7413
▁necip	-11.7413
▁kaset	-11.7414
▁dicle	-11.7414
▁çıktık	-11.7415
▁cezayir	-11.7415
▁rehine	-11.7415
!”	-11.7416
▁akbaş	-11.7416
formula	-11.742
▁15.00	-11.7421
▁bakalım	-11.7422
▁kova	-11.7422
ett	-11.7424
▁birçoğu	-11.7426
▁anavat	-11.7426
▁parkur	-11.7427
▁limit	-11.7434
▁super	-11.7436
▁yönü	-11.7436
mb	-11.7437
spo	-11.7439
▁kev	-11.744
▁günah	-11.7442
▁yetiştirme	-11.7445
03	-11.7446
▁araçları	-11.7453
▁Cumhurbaşkanı	-11.7456
▁kiev	-11.7456
▁çene	-11.7458
▁yetin	-11.7462
▁tabak	-11.7462
▁Eskişehirspor	-11.7462
▁buyuk	-11.7463
ışık	-11.7466
▁ihlali	-11.7469
▁getiri	-11.747
▁kirlet	-11.7476
ılamadı	-11.7477
▁anlaştı	-11.7477
▁feda	-11.7478
▁asır	-11.7479
▁seyit	-11.7492
▁tıkan	-11.7492
▁daima	-11.7493
sar	-11.7493
▁ret	-11.7493
▁birol	-11.7498
mediğini	-11.7499
01	-11.7503
üdür	-11.7503
▁eroğ	-11.7503
22	-11.7507
▁kararlaştırıldı	-11.7507
▁ru	-11.7509
▁terzi	-11.7509
mıyoruz	-11.751
▁E	-11.751
▁Wa	-11.7511
▁saman	-11.7513
▁ren	-11.7514
ues	-11.7517
▁yanık	-11.7518
zel	-11.7532
▁kazanacak	-11.7534
▁başl	-11.754
▁tim	-11.7543
▁kişiler	-11.7545
▁caddesi	-11.7546
▁kate	-11.7549
larini	-11.7552
▁cumhuriyeti	-11.7556
▁fiil	-11.7557
sahip	-11.7557
for	-11.7558
▁zanlı	-11.7558
ilçe	-11.7559
▁çalıştık	-11.7561
▁yaptır	-11.7566
91	-11.7567
lıydı	-11.7569
ılmış	-11.7571
▁analist	-11.7573
▁sakinleş	-11.7573
zo	-11.7575
iyo	-11.7577
yönet	-11.758
duğunu	-11.7582
masi	-11.7589
▁anlayışı	-11.7596
▁bekar	-11.7597
▁ört	-11.7599
büt	-11.7599
▁1.4	-11.7599
▁hızı	-11.76
▁devrilme	-11.7608
sit	-11.761
▁cikar	-11.7618
lam	-11.7619
▁demeç	-11.7625
45	-11.7626
▁portföy	-11.7627
▁merhum	-11.7627
▁eziyet	-11.7628
▁amaçlıyor	-11.7629
▁tahsilat	-11.7629
▁kardeşim	-11.7629
▁kad	-11.7629
▁yanıtlarken	-11.763
▁içerik	-11.763
▁hagi	-11.7631
▁hemşeri	-11.7631
▁sökül	-11.7632
▁17.	-11.7633
▁akgül	-11.7637
kul	-11.7637
▁malezya	-11.7638
▁sürülüyor	-11.7639
▁yaklaştı	-11.764
▁odun	-11.764
▁kabak	-11.7641
▁kısıtla	-11.7644
▁kimi	-11.7644
▁erme	-11.7647
▁diliyoruz	-11.7647
mp	-11.7647
dürülüyor	-11.7649
▁kabus	-11.7653
31	-11.7658
▁çıkarıyor	-11.7659
▁ihtimal	-11.7659
▁yapılmış	-11.7661
▁şeriat	-11.7663
▁aşıl	-11.7673
▁gelmiyor	-11.7674
▁yoğunlaştır	-11.7678
▁band	-11.769
▁1.6	-11.7695
▁geldiğini	-11.7696
▁inkar	-11.7698
avi	-11.7701
▁takdi	-11.7702
▁keşfed	-11.7702
23	-11.7703
▁messi	-11.7705
▁kaybeden	-11.7711
hur	-11.7711
▁benziyor	-11.7711
▁bence	-11.7714
con	-11.7714
mesin	-11.7714
▁yaşattı	-11.7717
▁şi	-11.7719
▁yıldönüm	-11.7719
▁gittik	-11.772
▁she	-11.7723
▁sahibi	-11.7725
liyor	-11.7726
▁aka	-11.7727
▁bmn	-11.7729
54	-11.7733
ordu	-11.7737
dılar	-11.7737
bağ	-11.774
lis	-11.7741
atör	-11.7742
▁gelmesi	-11.7742
kat	-11.7743
▁ysk	-11.7745
▁chpd	-11.775
63	-11.7751
:00	-11.7758
▁yöneticiler	-11.7759
▁evlen	-11.776
▁bilmiyor	-11.7762
▁yaman	-11.7767
iyat	-11.7768
-25	-11.778
▁uçağı	-11.778
▁za	-11.7784
genel	-11.7792
▁2-	-11.7793
hükümet	-11.7793
layarak	-11.7794
▁eklendi	-11.7797
▁varmış	-11.78
▁amasya	-11.7806
wi	-11.7809
▁satılma	-11.7812
▁taşıt	-11.7813
▁çalışacak	-11.7813
▁23.	-11.7816
▁kenti	-11.7817
▁kala	-11.7817
ito	-11.782
▁arnavut	-11.7822
▁küre	-11.7823
▁''	-11.7828
▁akü	-11.7829
▁taht	-11.783
▁salgı	-11.7836
beni	-11.7839
▁şeri	-11.784
▁bölünme	-11.7841
▁üzerinde	-11.7842
88	-11.7844
▁kahir	-11.7846
▁yil	-11.7853
▁bambaşka	-11.7854
▁bayburt	-11.7854
▁dalgıç	-11.7854
▁hüzün	-11.7854
▁midibüs	-11.7854
▁mürettebat	-11.7854
▁orospu	-11.7854
▁tasfiye	-11.7854
▁gökyüzü	-11.7855
▁hillary	-11.7855
▁vilayet	-11.7855
▁boykot	-11.7855
▁özbekistan	-11.7855
▁pembe	-11.7855
▁silivri	-11.7855
▁ısbn	-11.7855
▁viraj	-11.7855
▁meriç	-11.7855
▁ferah	-11.7855
▁soygun	-11.7855
▁cska	-11.7855
▁başhekim	-11.7855
▁ekstra	-11.7856
▁sergey	-11.7856
▁hardal	-11.7856
▁terfi	-11.7856
eme	-11.7856
▁fiat	-11.7856
▁6-7	-11.7857
▁kraliyet	-11.7857
▁kaldırım	-11.7857
▁cengiz	-11.7858
▁uçar	-11.786
▁olayı	-11.7861
▁stant	-11.7863
▁yenilenme	-11.7863
▁akkaya	-11.7864
▁isveçli	-11.7864
▁dezavantaj	-11.7865
▁(24)	-11.7866
▁fiili	-11.7867
noter	-11.787
▁erteledi	-11.7872
▁iftira	-11.7872
▁baklava	-11.7872
▁zorunda	-11.7874
▁bağlanma	-11.7877
▁işgalci	-11.7879
▁royal	-11.7881
▁öğrencileri	-11.7882
▁alınması	-11.7883
▁köln	-11.7886
▁dna	-11.7889
ırım	-11.7892
▁reca	-11.7897
▁ösym	-11.7901
▁beşir	-11.7903
▁bulunmuyor	-11.7903
▁dursun	-11.7903
▁mont	-11.7907
og	-11.7907
ment	-11.7908
▁solcu	-11.7913
▁anons	-11.7914
mayacağız	-11.7915
▁bulunuyordu	-11.792
▁format	-11.7923
iran	-11.7925
▁tay	-11.7926
mut	-11.793
▁çat	-11.7933
▁yolu	-11.7934
ong	-11.7935
▁başer	-11.7935
▁vermiştir	-11.7938
▁özge	-11.7939
▁alabil	-11.794
83	-11.7941
▁tümen	-11.7943
▁performansı	-11.795
▁kaynakları	-11.7954
▁izban	-11.7955
▁kongo	-11.7956
▁başlamış	-11.796
▁nb	-11.7962
▁koz	-11.7967
▁86	-11.7967
▁gelmez	-11.797
sta	-11.7972
▁naci	-11.7973
tem	-11.7975
▁görevlileri	-11.7976
29	-11.7981
▁yeral	-11.7983
tör	-11.7991
▁yendi	-11.7992
▁gibidir	-11.7993
▁beslen	-11.7993
41	-11.7995
▁onaylanma	-11.7999
▁lanet	-11.8007
▁norm	-11.8007
/...	-11.8007
öl	-11.8009
▁telaş	-11.8011
▁çakıroğ	-11.8012
▁takas	-11.8014
tmen	-11.8014
eyim	-11.8016
▁yaşadık	-11.8018
79	-11.802
▁ja	-11.8024
▁tekn	-11.8028
ud	-11.8032
▁ayet	-11.8039
▁Türkiye	-11.8045
▁mod	-11.8045
▁mac	-11.805
▁libya	-11.8051
▁katledil	-11.8051
▁katkıları	-11.8051
▁lideri	-11.8051
▁geldiler	-11.8058
▁reha	-11.8059
47	-11.8062
rut	-11.8068
▁makinesi	-11.807
val	-11.807
rlar	-11.8076
▁brown	-11.8078
▁muharebe	-11.8083
anı	-11.8084
▁anıtkabir	-11.8087
▁egzersiz	-11.8087
▁fidye	-11.8087
▁kokteyl	-11.8087
▁netanyahu	-11.8087
▁parfüm	-11.8087
▁psikolog	-11.8087
▁tereddüt	-11.8087
▁malmö	-11.8087
▁renault	-11.8087
▁rezil	-11.8087
▁litvanya	-11.8087
▁şantiye	-11.8087
▁meltem	-11.8087
necmett	-11.8087
▁delikanlı	-11.8087
▁mezhep	-11.8087
▁boston	-11.8088
▁niğde	-11.8088
▁1985	-11.8088
▁1983	-11.8088
▁habur	-11.8088
▁burdur	-11.8089
▁temsilcisi	-11.8089
▁düşürdü	-11.8089
▁lokomotif	-11.8089
▁işçiler	-11.809
▁oynanacak	-11.809
▁senatör	-11.809
▁gölet	-11.8091
▁sarıkaya	-11.8091
▁konfor	-11.8091
▁301	-11.8091
lerdi	-11.8091
▁oscar	-11.8092
▁angela	-11.8092
▁timur	-11.8092
▁durdurdu	-11.8092
▁kısır	-11.8092
▁dizayn	-11.8094
▁omuz	-11.8095
▁gidiyoruz	-11.8097
▁vekalet	-11.8097
▁taslağı	-11.8098
▁partner	-11.8098
▁singapur	-11.8098
▁kabil	-11.8098
▁karşın	-11.81
▁3-2	-11.8104
▁öbür	-11.8105
yağı	-11.8107
box	-11.811
▁brit	-11.8111
▁sıkı	-11.8111
▁nas	-11.8112
▁öğrendi	-11.8112
▁isterk	-11.8112
▁peşmerge	-11.8112
▁isteği	-11.8113
▁farklı	-11.8115
ct	-11.8116
▁yüzbaşı	-11.8123
▁gözüküyor	-11.8125
▁çapa	-11.8125
▁yerleşti	-11.8125
▁müz	-11.8131
▁indirilme	-11.814
▁limon	-11.8141
▁dokunma	-11.8142
▁belirlenecek	-11.8144
sur	-11.8144
ty	-11.8145
▁soyadı	-11.8146
▁santos	-11.8149
▁ileti	-11.8151
▁santrali	-11.8163
▁doğdu	-11.8166
▁uzmanları	-11.8169
▁şahs	-11.817
▁kaşığ	-11.8171
▁dip	-11.8173
▁gösteriliyor	-11.8173
▁küpe	-11.8175
▁seçi	-11.8177
▁duran	-11.8181
-8	-11.8184
▁acıma	-11.8187
▁tire	-11.8189
kes	-11.8193
▁94	-11.8196
▁asit	-11.8196
mıyorum	-11.8198
▁annan	-11.8202
rek	-11.8204
▁yener	-11.8206
▁atağ	-11.8212
vet	-11.8212
▁down	-11.8212
▁biriydi	-11.8213
▁yemin	-11.8219
mayız	-11.8221
apse	-11.8221
latarak	-11.8228
şa	-11.823
mamıştır	-11.8231
▁kurtarıldı	-11.8234
vo	-11.8243
▁sky	-11.8244
▁akı	-11.8248
▁kurtarılma	-11.8249
▁küp	-11.8253
▁sembolü	-11.826
kamış	-11.8265
▁mecbur	-11.8268
cha	-11.8272
hava	-11.8274
başkan	-11.8276
▁mus	-11.8276
▁yetmez	-11.8284
▁hit	-11.8288
▁gömül	-11.829
▁soz	-11.8291
▁canlı	-11.8298
▁pala	-11.8299
yım	-11.8301
ebiliriz	-11.8302
sm	-11.8303
▁parçası	-11.8303
bb	-11.8307
yun	-11.8308
74	-11.8309
▁çeşitli	-11.8311
▁tarama	-11.8312
yok	-11.8313
▁ker	-11.8317
▁sök	-11.8319
▁kızı	-11.8321
▁özbek	-11.8321
▁vermek	-11.8322
▁kabuk	-11.8325
▁palandöken	-11.8325
▁vahşet	-11.8325
▁üniforma	-11.8325
▁hamilton	-11.8325
▁havuç	-11.8325
▁nispet	-11.8325
▁şehzade	-11.8325
▁pehlivan	-11.8325
▁tatlıses	-11.8325
▁motif	-11.8325
▁seramik	-11.8325
▁usulsüz	-11.8325
▁kuzen	-11.8325
▁raket	-11.8325
▁berbat	-11.8325
▁durduruldu	-11.8326
▁çuval	-11.8326
▁nevşehir	-11.8326
▁bişey	-11.8326
▁bildirge	-11.8326
▁kanalizasyon	-11.8326
▁katrina	-11.8326
▁seyhan	-11.8327
▁duyuyoruz	-11.8327
▁kapağı	-11.8327
▁saadet	-11.8327
▁bilanço	-11.8327
▁kırşehir	-11.8327
▁neyse	-11.8329
▁kocaelispor	-11.8329
▁şentürk	-11.8329
▁ayrılırken	-11.833
▁aldığı	-11.833
▁medeni	-11.833
▁yaralılar	-11.833
▁taviz	-11.8331
▁alınmıştır	-11.8331
▁dilenci	-11.8332
▁konusunda	-11.8332
sc	-11.8333
▁arkeolojik	-11.8334
▁220	-11.8334
▁temizlik	-11.8334
▁doğrula	-11.8335
▁defnedil	-11.8336
▁kondisyon	-11.8336
▁zarif	-11.8337
▁basınç	-11.8338
▁sürdürecek	-11.8338
▁avlu	-11.8339
▁1950	-11.8339
▁şeb	-11.8342
▁tabağ	-11.8342
set	-11.8344
▁ortega	-11.8351
▁sünni	-11.8352
▁afp	-11.8353
▁edeceğim	-11.8353
▁ilahi	-11.8358
atif	-11.8363
▁kolye	-11.8367
▁engellenme	-11.8369
▁hoşlan	-11.8369
▁poyraz	-11.837
▁tanınma	-11.8372
▁sarılı	-11.8376
▁verirk	-11.8381
▁seslendirdi	-11.8383
-10	-11.8384
▁prosedür	-11.8384
▁kafes	-11.8386
▁yapıp	-11.8389
ers	-11.8397
amerika	-11.8407
ola	-11.8411
▁etek	-11.8412
?..	-11.8413
▁diana	-11.8415
▁sabr	-11.8415
▁istiyorlar	-11.8419
▁türkiyede	-11.8422
yurt	-11.8426
▁ref	-11.8431
rat	-11.8435
polis	-11.8437
lıyoruz	-11.8437
▁170	-11.8438
▁atı	-11.8441
▁uzatıl	-11.8444
diğ	-11.8453
▁atıyor	-11.8454
▁halit	-11.8455
day	-11.8455
mamıştı	-11.8456
▁açmıştı	-11.8456
▁yıkılma	-11.8456
▁yasaklan	-11.8458
iri	-11.8459
nternation	-11.8463
▁sorunu	-11.8476
▁bulacak	-11.8483
▁müezzin	-11.8492
▁peru	-11.8492
oğul	-11.8498
▁myk	-11.8504
nt	-11.8508
chi	-11.8509
▁bulur	-11.851
▁mayo	-11.8515
yıldız	-11.8518
nıyor	-11.852
▁rume	-11.8522
▁olacağım	-11.853
har	-11.8538
▁versin	-11.8542
lım	-11.8546
▁haz	-11.8554
masının	-11.8558
▁yapılması	-11.8558
▁üretme	-11.856
▁komisyonu	-11.8561
▁kruva	-11.8563
yl	-11.8568
▁mevla	-11.8568
▁oluşturur	-11.8569
▁aşiret	-11.8569
▁hüsamettin	-11.8569
▁teçhizat	-11.8569
▁büyükanıt	-11.8569
▁ereğli	-11.8569
▁florida	-11.8569
▁jinping	-11.8569
▁kokain	-11.8569
▁arbede	-11.8569
▁buzdolabı	-11.8569
aziosmanpaşa	-11.8569
▁perişan	-11.8569
▁zehra	-11.8569
▁mursi	-11.8569
▁gordon	-11.8569
▁ivme	-11.857
▁çiğdem	-11.857
▁karakaş	-11.857
▁tahlil	-11.857
▁ferdi	-11.8572
zen	-11.8573
▁baharat	-11.8573
▁ruhani	-11.8573
▁yokuş	-11.8574
▁satılıyor	-11.8576
▁somali	-11.8577
▁geçildi	-11.8577
cm	-11.8577
▁zanlılar	-11.8578
▁atarken	-11.8578
▁(25)	-11.858
▁madonna	-11.858
▁tüccar	-11.8581
sanat	-11.8582
▁fc	-11.8582
▁rolün	-11.8586
▁güçlendirme	-11.8587
▁altınor	-11.8588
▁boeing	-11.8588
▁komplo	-11.8588
▁prova	-11.8589
kut	-11.859
▁maçta	-11.859
tre	-11.859
▁gerekiyordu	-11.8591
▁edilebilir	-11.8593
▁cezaev	-11.8593
▁uçtu	-11.8596
▁harry	-11.8596
▁çalıştay	-11.8596
▁tartıştı	-11.8597
▁bunu	-11.8598
▁azim	-11.8601
hisar	-11.8603
▁sivri	-11.8603
masına	-11.8603
...”	-11.8604
▁koray	-11.8605
▁ahır	-11.8605
-24	-11.8606
nar	-11.8611
▁inceledi	-11.8613
94	-11.8614
madığını	-11.8614
bor	-11.8622
▁cup	-11.8622
▁buruk	-11.8623
▁reis	-11.8624
ec	-11.8624
▁yaya	-11.8625
▁pm	-11.8627
▁müdahalesi	-11.8629
bert	-11.8631
sd	-11.864
▁halay	-11.864
ayım	-11.8643
▁akım	-11.8645
▁çaldı	-11.8649
ılabilir	-11.865
▁zil	-11.8653
▁yaktı	-11.8653
▁aytek	-11.8656
ındadır	-11.8658
98	-11.8662
▁raporu	-11.8666
▁pasifik	-11.8672
▁anımsat	-11.8674
▁tansu	-11.8674
▁golün	-11.8675
▁aym	-11.8689
▁seba	-11.8692
ius	-11.8695
▁gezdi	-11.8697
▁geçiriyor	-11.8698
▁dairesi	-11.87
▁artik	-11.8701
▁yasası	-11.8702
▁dos	-11.8703
BA	-11.8712
▁3-	-11.8713
sina	-11.8713
sol	-11.8713
▁cop	-11.8722
▁benim	-11.8723
▁soylu	-11.8728
▁zanned	-11.8735
▁650	-11.8736
-40	-11.8737
suri	-11.8738
▁aramada	-11.8742
▁askerler	-11.8744
▁rap	-11.8749
zam	-11.8754
tetik	-11.8754
▁balta	-11.8754
▁çıkarak	-11.8755
ena	-11.8765
▁toplantısı	-11.8766
cül	-11.8772
▁morali	-11.8773
samet	-11.8773
▁öngörüyor	-11.8776
▁sened	-11.8782
hiç	-11.8785
ilmis	-11.8789
masını	-11.879
▁steph	-11.879
hit	-11.8791
zade	-11.8791
zor	-11.8792
▁sorgulan	-11.8795
▁evlendi	-11.8795
ston	-11.8795
▁gsm	-11.8802
▁ntv	-11.8804
▁yansıdı	-11.8805
▁ego	-11.8805
landır	-11.8806
▁oyunu	-11.8807
▁deve	-11.8813
▁california	-11.8819
▁donald	-11.8819
▁şöhret	-11.8819
▁papandreu	-11.8819
▁şarbon	-11.8819
▁animasyon	-11.8819
▁ib	-11.8819
▁nafaka	-11.8819
▁idrar	-11.8819
▁hilton	-11.8819
▁datça	-11.8819
▁yahya	-11.8819
▁bariyer	-11.8819
▁büfe	-11.8819
▁pamukkale	-11.8819
▁lord	-11.882
▁ötv	-11.882
▁11.00	-11.882
▁1945	-11.882
▁hür	-11.8821
▁1989	-11.8821
xi	-11.8821
▁zihn	-11.8821
▁konuşurken	-11.8822
▁cephane	-11.8822
▁2018	-11.8823
▁huzurevi	-11.8823
▁mümkündür	-11.8823
▁amsterdam	-11.8823
▁boyunca	-11.8824
▁milis	-11.8825
▁halife	-11.8826
46	-11.8826
▁kast	-11.8826
▁çektirdi	-11.8827
▁getirecek	-11.8828
▁hi	-11.8828
89	-11.883
▁america	-11.883
▁kazanırken	-11.8831
▁garni	-11.8831
ere	-11.8834
▁ezgi	-11.8836
musevi	-11.8838
▁gamze	-11.8839
▁sön	-11.884
▁kavak	-11.8842
▁buzlan	-11.8846
▁göreceğiz	-11.8847
▁acılı	-11.8848
▁geyik	-11.8851
yaş	-11.8855
▁atıf	-11.8855
ilip	-11.8856
amazsınız	-11.8856
▁olcay	-11.8856
▁içeriyor	-11.8858
▁hiçbiri	-11.8859
▁getirir	-11.8863
yang	-11.8865
▁gebe	-11.8866
yana	-11.8867
▁aihm	-11.887
acaksınız	-11.8876
▁uzan	-11.8877
▁gelişme	-11.8879
▁indirdi	-11.8881
▁verin	-11.8896
▁umre	-11.8897
▁muh	-11.8898
▁vin	-11.8899
tkı	-11.8899
▁1.2	-11.89
hr	-11.89
▁yerinde	-11.8902
şah	-11.8912
▁bakü	-11.8913
▁doğruladı	-11.8915
kreasyon	-11.8918
▁tutuyor	-11.8924
dis	-11.8936
▁kibar	-11.8938
▁törende	-11.8939
▁karsi	-11.894
bitkisel	-11.8946
▁kavur	-11.8947
▁yaptığını	-11.8955
tti	-11.8958
▁ds	-11.896
▁sevgilisi	-11.8963
▁sinyali	-11.8963
▁gelip	-11.8964
▁hun	-11.897
▁kanaat	-11.8971
▁oyunları	-11.8972
▁kurtuldu	-11.8973
▁320	-11.8974
det	-11.8976
yat	-11.8981
▁titre	-11.8983
reel	-11.8983
▁550	-11.8987
▁yapabil	-11.8989
▁zayıfla	-11.899
▁işgali	-11.8993
gr	-11.8999
00	-11.8999
▁akil	-11.8999
▁etme	-11.9
▁98	-11.9001
▁mario	-11.9002
▁belirtmişti	-11.9004
ürüm	-11.9014
hay	-11.9016
▁izlenme	-11.9017
14	-11.9018
▁söyler	-11.9019
uluslarara	-11.9021
izasyon	-11.9028
▁kadarı	-11.9032
memiştir	-11.9032
▁almadı	-11.9036
▁zamanda	-11.9037
lütf	-11.9039
doğru	-11.9041
kürt	-11.9043
we	-11.9051
istik	-11.9052
▁şevke	-11.9054
rant	-11.9056
▁hey	-11.9057
▁mars	-11.9058
ds	-11.9058
▁ideoloji	-11.9066
tina	-11.9068
▁bakış	-11.9068
▁kızgın	-11.907
▁masaj	-11.9072
▁mevzu	-11.9075
▁mizah	-11.9075
▁depresyon	-11.9075
▁sapanca	-11.9075
▁tekvando	-11.9075
▁yanukoviç	-11.9075
▁nicolas	-11.9075
▁lucescu	-11.9076
▁broşür	-11.9076
▁ilahiyat	-11.9076
▁mazlum	-11.9076
▁suruç	-11.9076
▁klavye	-11.9076
▁pilav	-11.9076
▁yürürlük	-11.9076
▁satranç	-11.9076
▁birebir	-11.9076
▁zübeyde	-11.9076
▁ayşegül	-11.9076
▁hissediyorum	-11.9077
▁yeşilyurt	-11.9077
▁familya	-11.9077
▁karabükspor	-11.9077
▁nasip	-11.9077
▁tarkan	-11.9077
▁dogru	-11.9078
▁yazıcıoğlu	-11.9078
▁hatırlatıldı	-11.9078
▁rahim	-11.9078
▁ılıcak	-11.9079
▁cihaner	-11.908
▁saint	-11.9081
▁sed	-11.9081
rik	-11.9082
3)	-11.9082
▁direnç	-11.9082
▁sahipleri	-11.9083
▁bedri	-11.9084
çu	-11.9084
▁nokia	-11.9084
▁şahsen	-11.9086
geri	-11.9087
▁kasap	-11.9087
▁1969	-11.9087
▁kumanda	-11.9087
gele	-11.9089
▁yıkıldı	-11.9089
▁kırılma	-11.9092
▁getiriliyor	-11.9094
▁nilüfer	-11.9096
▁dinleti	-11.9096
▁utanç	-11.9098
eee	-11.9101
▁klinik	-11.9103
▁şahsi	-11.9104
sor	-11.9109
▁monte	-11.9111
▁balon	-11.9111
▁tekke	-11.9114
▁becer	-11.9115
beyazlılar	-11.9116
▁büyüğ	-11.9121
▁fo	-11.9123
▁vermesi	-11.9124
▁ankaraspor	-11.9125
▁sarsıl	-11.9125
▁halter	-11.9125
▁baska	-11.9126
▁(19)	-11.9129
ablo	-11.9131
▁fiş	-11.9135
daydı	-11.9137
ruk	-11.9138
jat	-11.9138
▁sha	-11.9142
▁bilinmiyor	-11.9145
▁güvenç	-11.9153
▁abdurrahm	-11.9157
▁müezzinoğ	-11.9157
▁101	-11.9161
▁verici	-11.9165
eb	-11.9173
larinda	-11.9174
▁tuna	-11.9177
ğu	-11.918
▁tesisat	-11.9181
!!	-11.9185
ui	-11.9199
ele	-11.9202
larina	-11.9203
▁game	-11.9204
▁suçladı	-11.9205
pen	-11.9214
▁pre	-11.9216
ata	-11.9222
▁eğit	-11.9222
-6	-11.9224
▁soktu	-11.9225
ağı	-11.9225
boy	-11.9232
era	-11.9233
▁hafiflet	-11.9234
▁koloni	-11.9243
▁reddedil	-11.9245
maması	-11.9246
▁alfa	-11.9248
lasman	-11.9251
▁heyecanlan	-11.9252
▁uyarlan	-11.9256
▁kucakla	-11.9257
▁başvurul	-11.9258
bon	-11.9264
▁gözde	-11.927
07	-11.9276
▁cip	-11.9278
nırken	-11.9281
▁süha	-11.9283
▁cr	-11.9284
zan	-11.9284
eh	-11.9291
meleri	-11.9293
▁dinledi	-11.9294
▁atanma	-11.9294
ambu	-11.9295
▁açılacak	-11.93
▁açıklama	-11.9303
içi	-11.9309
bölge	-11.931
rusya	-11.9313
kış	-11.9315
yaban	-11.9318
▁bozdu	-11.9322
▁2-2	-11.9323
tırdı	-11.9324
▁hudut	-11.9325
▁tuncel	-11.9326
▁aktarılma	-11.9328
kos	-11.933
▁napoli	-11.9331
güven	-11.9336
▁ısıt	-11.9338
▁giresun	-11.9338
▁eşref	-11.9338
Beşiktaş	-11.9339
▁francis	-11.9339
▁ahmedinejad	-11.9339
▁alüminyum	-11.9339
▁deklarasyon	-11.9339
▁fezleke	-11.9339
▁halbuki	-11.9339
▁mühimmat	-11.9339
▁nusaybin	-11.9339
▁premier	-11.9339
▁yelpaze	-11.9339
▁şelale	-11.9339
▁kabuğ	-11.9339
▁sorusuna	-11.9339
▁hidayet	-11.9339
▁rutin	-11.9339
isarcıklıoğlu	-11.9339
▁bahadır	-11.9339
▁konteyner	-11.934
▁1979	-11.934
▁kadri	-11.934
▁1987	-11.934
▁çimento	-11.934
▁muhit	-11.9341
▁kalabalık	-11.9342
▁kalkış	-11.9342
▁sarıyer	-11.9343
▁akkuş	-11.9344
▁pekkan	-11.9345
▁çatal	-11.9347
▁haşim	-11.9347
▁akbank	-11.9348
▁clintonın	-11.9348
▁kıraç	-11.9349
▁meşgul	-11.9351
▁kırım	-11.9352
▁belirtiyorlar	-11.9352
▁(26)	-11.9354
cem	-11.9354
▁yaşıyorum	-11.9355
▁mercedes	-11.9355
dun	-11.9356
▁karga	-11.9356
ydu	-11.9357
▁yükseltti	-11.9358
▁yönelt	-11.9359
▁sanatsal	-11.9362
mizi	-11.9363
▁maltepe	-11.9365
▁ceket	-11.9366
▁tsunami	-11.9367
▁henry	-11.9367
▁ted	-11.9369
film	-11.9369
▁tuğçe	-11.937
▁(6)	-11.9374
▁songül	-11.9376
way	-11.9378
▁mgk	-11.9382
▁yapıldığını	-11.9383
▁kula	-11.9385
▁yaşarken	-11.9386
▁olamadı	-11.9386
astro	-11.9388
▁kavşağı	-11.9391
▁hor	-11.9391
▁negatif	-11.9392
▁kalmıştır	-11.9398
▁temizlenme	-11.9401
▁baki	-11.9404
▁yatıyor	-11.9405
▁vakfı	-11.9418
cd	-11.9423
fantastik	-11.9424
▁astronomi	-11.9426
madığı	-11.9435
▁hayaller	-11.9436
▁şa	-11.9439
▁7.5	-11.9442
yas	-11.9446
▁ör	-11.9448
▁sarp	-11.9448
▁asistan	-11.9449
dd	-11.945
cahit	-11.9453
▁parke	-11.9457
▁:)	-11.9457
▁eh	-11.9459
larından	-11.946
iskenderun	-11.9466
▁varsayıl	-11.9471
▁(3	-11.9472
▁melo	-11.9479
▁hastalık	-11.9486
amıyorum	-11.9488
49	-11.9492
▁toplantıya	-11.9496
▁taşır	-11.9498
▁oh	-11.9503
▁çıkmaz	-11.9504
85	-11.9506
▁yaptırdı	-11.9508
▁07	-11.951
landırma	-11.9513
çağ	-11.9522
▁tuzla	-11.9523
▁Win	-11.9528
▁pc	-11.9529
gör	-11.953
▁heves	-11.9537
▁sk	-11.9537
▁değişiyor	-11.9538
ıldı	-11.954
▁dikil	-11.9543
▁oyuncuları	-11.9545
▁boğuş	-11.9545
▁içerisinde	-11.9549
▁çakar	-11.9549
▁hamsi	-11.9552
lıyorum	-11.9552
▁vo	-11.9553
▁edildiği	-11.9558
ua	-11.9562
▁giydi	-11.9562
▁sürdür	-11.9564
▁açıklaması	-11.9567
cik	-11.957
▁büyüle	-11.9573
65	-11.9575
nü	-11.9576
emedim	-11.9579
▁disko	-11.9583
▁eti	-11.9584
▁yerde	-11.9586
double	-11.9586
belediye	-11.9591
57	-11.9595
▁öldür	-11.9596
▁hidro	-11.9602
▁sporcular	-11.9604
▁21.00	-11.9606
ade	-11.9607
▁moore	-11.9607
aziantepspor	-11.9609
▁tahammül	-11.9609
▁konfüçy	-11.9609
▁astronot	-11.9609
▁doküman	-11.9609
▁filipin	-11.9609
▁kepçe	-11.9609
▁muhafız	-11.9609
▁tadilat	-11.9609
▁tahakkuk	-11.9609
▁jolie	-11.9609
▁juventus	-11.9609
▁ağırlaştırıl	-11.9609
▁joseph	-11.9609
▁başbuğ	-11.9609
▁vasıtasıyla	-11.9609
▁söndürüldü	-11.9609
▁farkındalık	-11.9609
▁vestel	-11.9609
▁mütalaa	-11.961
▁pilsen	-11.961
▁sercan	-11.961
▁kahvehane	-11.961
▁mevlüt	-11.961
▁mezuniyet	-11.9611
▁tele	-11.9612
▁aslinda	-11.9612
▁altıncı	-11.9613
▁sanırım	-11.9613
▁cazip	-11.9615
▁konaklama	-11.9615
▁kullanılabilir	-11.9618
▁golde	-11.9619
▁bunalım	-11.962
▁ödüyor	-11.9621
▁nezaket	-11.9622
▁çebi	-11.9623
▁uğurla	-11.9623
▁patladı	-11.9623
gh	-11.9625
▁kakao	-11.9629
azi	-11.963
▁tcdd	-11.963
▁lakap	-11.9631
▁talat	-11.9631
yalım	-11.9633
ung	-11.9634
▁nitele	-11.9634
▁giderken	-11.9638
▁çalışılıyor	-11.9638
▁çıkarttı	-11.9639
▁dönüştürülme	-11.964
▁inanıyor	-11.9641
gır	-11.9644
▁hortum	-11.9645
▁gösterileri	-11.9647
▁oluştur	-11.9648
▁paylaşıl	-11.9649
▁yoksa	-11.9652
tl	-11.9655
▁ideolojik	-11.9657
▁iskan	-11.966
▁roller	-11.9661
▁cumhur	-11.9662
maktan	-11.9662
▁ertürk	-11.9665
▁uzlaşma	-11.9668
onu	-11.967
▁yırt	-11.9673
▁edebilir	-11.9676
sos	-11.9678
▁yığın	-11.9679
▁tatar	-11.9682
amadık	-11.9682
kit	-11.9682
kim	-11.9687
kay	-11.9688
▁azı	-11.9691
▁yapısı	-11.9701
▁jiang	-11.9706
fran	-11.9708
ahçelievler	-11.9709
▁giray	-11.971
arikat	-11.9713
▁çimen	-11.9718
▁kışla	-11.9719
▁geliştir	-11.9721
dağı	-11.9725
▁takibi	-11.9726
▁yazıcı	-11.9728
▁270	-11.9729
▁koruyor	-11.9732
yacağız	-11.9736
▁goz	-11.974
.''	-11.9746
▁petk	-11.9747
zur	-11.9753
▁zenginleştir	-11.9756
▁dayan	-11.9761
tat	-11.9763
▁bab	-11.9763
▁vatandaş	-11.9764
▁engelleme	-11.9767
▁feri	-11.9768
oyun	-11.9772
▁önlen	-11.9774
▁bulundular	-11.978
▁kullanılacak	-11.9781
▁gelirk	-11.9786
▁birisi	-11.979
02	-11.9794
▁satıldı	-11.9795
dedir	-11.9798
▁tutuş	-11.9801
▁geçmişti	-11.9801
▁huy	-11.9804
yacaktır	-11.9807
olog	-11.9809
▁ertan	-11.9809
▁töreni	-11.9811
▁özet	-11.9813
rah	-11.9817
92	-11.9818
▁kırk	-11.9821
hut	-11.9823
▁oluşturuldu	-11.9826
▁etkiledi	-11.9826
▁topuz	-11.9829
▁tarafı	-11.9834
▁bilgin	-11.9841
▁verilmesi	-11.9842
36	-11.9842
ile	-11.9844
▁çalışanları	-11.9847
▁getirmişti	-11.9848
uş	-11.9853
lhami	-11.9856
▁eric	-11.986
gn	-11.9862
▁106	-11.9864
▁turk	-11.9864
▁dönerk	-11.9873
teri	-11.9874
▁rest	-11.9874
küçük	-11.9875
▁hakan	-11.9876
▁arkeoloji	-11.9881
▁artar	-11.9881
▁değişikliği	-11.9884
▁festivaller	-11.9885
mayacaktır	-11.9885
▁reşit	-11.9887
▁banliyö	-11.9887
▁komedyen	-11.9887
▁müsaade	-11.9887
▁nişasta	-11.9887
▁padişah	-11.9887
▁porsche	-11.9887
▁vazife	-11.9887
▁zencefil	-11.9887
▁hendek	-11.9887
▁tetkik	-11.9887
▁uranyum	-11.9887
▁çiçeğ	-11.9887
▁rivayet	-11.9887
▁meryem	-11.9887
▁element	-11.9887
▁vitrin	-11.9887
▁(35)	-11.9887
▁acenta	-11.9887
▁teselli	-11.9887
▁diyebiliriz	-11.9887
▁lyrics	-11.9887
▁yarbay	-11.9887
▁pelin	-11.9887
▁altıntop	-11.9887
▁hayret	-11.9887
▁vites	-11.9887
▁çevrildi	-11.9887
▁kütle	-11.9888
▁hicbir	-11.9888
▁vinç	-11.9888
▁adi	-11.9888
▁sedef	-11.9888
▁şartname	-11.9889
▁kovalama	-11.9889
▁yapılandırma	-11.9889
▁konuşuluyor	-11.9889
▁malatyaspor	-11.989
▁ilkbahar	-11.989
▁oğuzh	-11.9891
▁mansur	-11.9892
fra	-11.9892
▁garaj	-11.9892
▁zedele	-11.9894
▁santim	-11.9894
▁duydum	-11.9894
▁harek	-11.9896
▁(22)	-11.9898
landığını	-11.99
cin	-11.9901
▁(23)	-11.9901
▁batman	-11.9902
tip	-11.9903
kule	-11.9904
▁molla	-11.9904
▁destekleme	-11.9905
rus	-11.9906
▁dalyan	-11.9907
▁hergün	-11.9907
▁tapınak	-11.9909
▁sarhoş	-11.9909
▁gribi	-11.9911
▁çekerken	-11.9911
▁syn	-11.9915
▁sakız	-11.9916
▁verilmiştir	-11.9916
▁verilir	-11.9917
ahrett	-11.9919
▁birbiri	-11.9923
llo	-11.9925
tıp	-11.9926
▁binbaşı	-11.9927
▁kendileri	-11.9927
▁özgürlük	-11.9928
erim	-11.9928
▁hp	-11.9929
▁kask	-11.9929
▁teras	-11.9929
orgeneral	-11.9931
▁nedim	-11.9932
▁ayran	-11.9933
▁edelim	-11.9934
▁ekin	-11.9935
ueen	-11.994
▁izliyor	-11.9943
▁yabani	-11.9945
▁kalmayacak	-11.9945
▁mir	-11.9946
▁prag	-11.9952
ale	-11.9957
▁simit	-11.9959
▁karate	-11.9962
▁sürat	-11.9964
▁mhpn	-11.997
▁kac	-11.9972
▁rose	-11.9973
▁koma	-11.9974
Ka	-11.9975
▁tap	-11.9977
▁alanı	-11.9978
mlu	-11.9981
▁kaybettik	-11.9982
▁125	-11.9983
kti	-11.9984
▁getirdiler	-11.9992
başk	-11.9996
▁altı	-11.9998
ous	-12.0003
nere	-12.0006
▁tatlı	-12.0012
▁geçin	-12.0013
ity	-12.0027
▁olmasıdır	-12.0027
yy	-12.0028
▁civarı	-12.003
▁öldürülmesi	-12.0035
▁esma	-12.0036
maktayız	-12.004
▁gal	-12.0041
▁olacaktı	-12.0047
ıldığında	-12.0052
▁getirdik	-12.0059
▁kalktı	-12.0061
▁sesi	-12.0062
▁bık	-12.0062
▁takımları	-12.0063
▁işçi	-12.0065
▁görür	-12.0068
▁izdi	-12.0084
yapıl	-12.0085
▁bekledi	-12.0085
▁coş	-12.0085
nacak	-12.0086
burg	-12.0096
▁başladılar	-12.0098
siyle	-12.0099
çek	-12.0105
▁tas	-12.0112
▁kah	-12.0114
▁istemişti	-12.0122
lüğü	-12.0123
▁evrim	-12.0125
▁kom	-12.0127
EDE	-12.0129
▁maket	-12.0131
▁rahatsızlan	-12.0132
▁kararlaştırıl	-12.0135
▁w	-12.0142
sana	-12.0144
saydı	-12.0145
▁konuşlandır	-12.0148
▁halı	-12.015
▁bakıyor	-12.0159
lenmiştir	-12.016
▁isteyenler	-12.0161
çeşme	-12.0166
▁inegöl	-12.0172
▁elizabeth	-12.0172
▁hükumet	-12.0172
▁koğuş	-12.0172
▁pearson	-12.0172
▁teftiş	-12.0172
▁çerçioğ	-12.0172
▁kırgızistan	-12.0172
▁matrah	-12.0172
▁ihtar	-12.0173
▁tütüncü	-12.0173
▁yaşantı	-12.0173
galeri	-12.0173
financia	-12.0173
▁depremzede	-12.0173
▁uçurum	-12.0173
▁alpay	-12.0173
▁nefis	-12.0174
▁şakir	-12.0174
▁tutuluyor	-12.0175
▁parsel	-12.0175
▁gem	-12.0175
▁anlatırken	-12.0175
▁adrian	-12.0176
▁rice	-12.0177
iyorsunuz	-12.0178
▁duyurmuştu	-12.0178
▁konsantre	-12.0179
▁yapma	-12.0179
▁kıskan	-12.0179
▁türkistan	-12.0179
▁edward	-12.018
▁bulunduğu	-12.018
▁gültek	-12.0182
▁pürüz	-12.0183
▁3-5	-12.0183
▁yaratıyor	-12.0184
▁vermeyeceğiz	-12.0184
çev	-12.0184
cisi	-12.0185
▁(27)	-12.0185
▁vietnam	-12.0186
▁herif	-12.0188
▁bilek	-12.0191
▁zat	-12.0193
▁sahibiz	-12.0194
▁bükreş	-12.0195
▁çiğne	-12.0196
▁aksak	-12.0196
▁düzeltil	-12.0197
▁gelebilir	-12.0197
97	-12.0199
▁kalırken	-12.0199
▁sefa	-12.0199
▁stk	-12.0199
▁aybaba	-12.0199
▁yaşlan	-12.02
▁sarıca	-12.02
▁irem	-12.0201
▁basra	-12.0202
▁şarj	-12.0204
▁solo	-12.0205
▁hatır	-12.0207
▁anormal	-12.0207
▁sonrası	-12.0209
▁first	-12.0209
▁haberi	-12.0211
▁green	-12.0214
▁salim	-12.0215
islam	-12.0216
▁istiyordu	-12.0216
au	-12.0218
ralarında	-12.0221
▁kontrat	-12.0222
▁hayri	-12.0225
▁karıştırıl	-12.0228
bize	-12.0229
▁kapağ	-12.0233
▁yetindi	-12.0234
masıyla	-12.0234
78	-12.0235
noel	-12.0239
▁yinele	-12.0241
▁ezil	-12.0241
eng	-12.0241
port	-12.0245
▁hisar	-12.0245
▁flaş	-12.0246
96	-12.0249
MA	-12.025
▁artması	-12.025
tri	-12.0252
tım	-12.0253
▁düşüncesi	-12.0253
▁kana	-12.0255
▁akay	-12.0255
▁lady	-12.0257
▁denli	-12.026
▁hastalığı	-12.0268
▁geçi	-12.0268
zaman	-12.0269
meyi	-12.0269
▁uzatılma	-12.0269
▁arkadaşım	-12.028
ırız	-12.0281
▁karl	-12.0281
▁alkan	-12.0282
▁yapacağım	-12.0284
ıs	-12.0289
▁dink	-12.029
herkes	-12.0292
▁zhou	-12.0293
▁ınter	-12.0294
▁kings	-12.0296
▁uygulanacak	-12.0296
▁sadr	-12.0301
▁çıkması	-12.0303
▁bırakmadı	-12.0313
▁serin	-12.0313
▁aj	-12.0318
▁giyin	-12.0321
▁master	-12.0321
▁reng	-12.0322
▁kisi	-12.0325
▁haykır	-12.0329
yarı	-12.0331
77	-12.0331
▁almak	-12.0333
nmaktadır	-12.0333
mediği	-12.0335
▁barışçı	-12.0351
▁soner	-12.0355
çam	-12.0358
▁sunacak	-12.0362
▁boks	-12.0365
nel	-12.0366
-7	-12.0373
▁uzat	-12.0375
▁geçid	-12.0376
sik	-12.038
▁mut	-12.0383
▁mensupları	-12.0387
▁gibiydi	-12.0387
69	-12.0389
▁155	-12.0393
▁yarım	-12.0396
▁yağma	-12.0398
▁sak	-12.04
▁etkiliyor	-12.0403
▁onayladı	-12.0405
ecekler	-12.0407
▁abdul	-12.0411
▁kurumu	-12.0412
▁şarkıları	-12.0419
:30	-12.0421
▁olabiliyor	-12.0421
▁dataver	-12.0426
▁pres	-12.0433
git	-12.0436
hir	-12.0439
ny	-12.0443
▁hareketleri	-12.0451
▁gemisi	-12.0452
gg	-12.0453
.’	-12.0453
▁söylendi	-12.0457
▁paraşüt	-12.046
▁soruştur	-12.0462
▁davut	-12.0464
▁furk	-12.0465
▁ecza	-12.0465
▁çoğ	-12.0466
▁tuval	-12.0466
▁agresif	-12.0467
▁göbeğ	-12.0467
▁nürnberg	-12.0467
▁stuttgart	-12.0467
▁tercüman	-12.0467
▁yuşçenko	-12.0467
▁kukla	-12.0467
▁şemdinli	-12.0467
▁antakya	-12.0467
enformasyon	-12.0467
▁kortej	-12.0467
▁(43)	-12.0467
▁anonim	-12.0467
▁sürdüreceğiz	-12.0467
▁görülmektedir	-12.0467
▁total	-12.0467
▁galibi	-12.0467
▁portre	-12.0468
▁1973	-12.0468
▁itham	-12.0468
▁keleş	-12.0468
▁altınordu	-12.0468
▁gündoğdu	-12.0468
▁haldun	-12.0468
▁yazışma	-12.0468
▁editör	-12.0468
▁kulvar	-12.0468
▁kürşat	-12.0469
▁olursunuz	-12.0469
▁balina	-12.0469
▁yorgan	-12.047
▁izlerk	-12.047
▁sunulma	-12.047
▁açıkhava	-12.047
▁2023	-12.047
▁mevcuttur	-12.047
▁raporunda	-12.0471
zih	-12.0471
▁verilmişti	-12.0472
ilmektedir	-12.0472
israil	-12.0472
▁zerre	-12.0472
▁efekt	-12.0472
atatürk	-12.0472
hiçbir	-12.0472
▁milimetr	-12.0473
▁anderlecht	-12.0473
▁googleın	-12.0475
beledi	-12.0476
▁imdat	-12.0476
▁ekonomist	-12.0479
▁bulunuyoruz	-12.048
▁ortodo	-12.0481
▁transit	-12.0481
acaksın	-12.0483
▁00	-12.0483
seniz	-12.0483
gal	-12.0485
▁soyle	-12.0485
▁dondur	-12.0485
▁360	-12.0487
▁değişiklik	-12.0488
▁tecrübeli	-12.0488
▁Wen	-12.0488
ehdi	-12.0489
▁(20)	-12.049
▁işlek	-12.049
▁diyoruz	-12.0492
▁yağdır	-12.0494
▁(5)	-12.0494
▁pür	-12.0499
▁hala	-12.0501
▁azaltılma	-12.0502
alı	-12.0503
▁bilin	-12.0503
▁çıkacağız	-12.0504
▁takdirde	-12.0505
▁beklenen	-12.0506
▁adına	-12.0507
:‘	-12.0514
istan	-12.0514
▁sony	-12.0521
▁temelli	-12.0522
▁olduklarını	-12.0523
▁müzikal	-12.0524
▁dun	-12.0525
▁stone	-12.0527
▁mevlana	-12.0528
▁gil	-12.0528
▁shi	-12.0529
▁akar	-12.0532
aga	-12.0532
▁niçin	-12.0536
beş	-12.0538
▁verecektir	-12.0538
▁num	-12.0539
▁terket	-12.0539
tk	-12.0541
08	-12.0543
▁amk	-12.0543
▁fair	-12.0544
▁görüntüley	-12.0545
masında	-12.0546
mazlar	-12.0548
▁105	-12.0551
▁karşılık	-12.0551
▁özelleştirilme	-12.0551
▁tüzük	-12.0554
lacivertliler	-12.0556
doğ	-12.0557
▁çed	-12.0558
▁kabullen	-12.0562
▁zar	-12.0563
▁yorgo	-12.057
▁yönünde	-12.0571
edd	-12.0575
▁yükseltil	-12.0577
aday	-12.0578
▁piş	-12.0578
yit	-12.0581
gah	-12.0581
▁toparlan	-12.0583
▁havlu	-12.0586
▁iştirak	-12.0589
ges	-12.059
▁cani	-12.0594
▁ilçesi	-12.0596
layın	-12.0599
üzel	-12.0602
liktir	-12.0605
▁boşaltıl	-12.0606
uf	-12.0608
▁depp	-12.0615
▁doktorlar	-12.0616
rio	-12.0619
adil	-12.062
▁yapabilme	-12.0621
yting	-12.0624
39	-12.0625
mızda	-12.0626
▁efendim	-12.0633
▁işgalin	-12.0634
▁üstlendi	-12.0642
▁etsin	-12.0644
▁uzaklaştı	-12.0644
▁107	-12.0646
ep	-12.0647
mesini	-12.065
▁pal	-12.0651
▁ayrılır	-12.0652
▁güls	-12.0656
▁güner	-12.0657
▁vermiyor	-12.0658
nat	-12.0661
ting	-12.0663
▁imkanları	-12.0669
tas	-12.067
amayız	-12.067
ıldığı	-12.067
lanan	-12.0671
▁guc	-12.0672
▁kararda	-12.0672
mel	-12.0672
▁cafer	-12.0678
▁feli	-12.0681
▁yillar	-12.0688
iki	-12.0689
lma	-12.069
▁federasyonu	-12.0692
▁olma	-12.0695
▁mega	-12.0696
▁günlerde	-12.0696
▁araştırılma	-12.0699
sav	-12.07
▁one	-12.0702
kamu	-12.0703
▁tüzüğ	-12.0704
▁sark	-12.0714
▁başlanacak	-12.0718
▁abart	-12.072
mann	-12.0727
▁anıl	-12.0729
DE	-12.073
TA	-12.073
▁sadi	-12.073
▁haram	-12.0736
▁nitelendiril	-12.0737
ob	-12.0757
lem	-12.076
one	-12.0763
deniz	-12.0766
ello	-12.0766
▁bşb	-12.0767
▁ras	-12.0767
▁dolayl	-12.0768
▁song	-12.0769
▁android	-12.077
▁cömert	-12.077
▁hentbol	-12.077
▁husumet	-12.077
▁kayınvalide	-12.077
▁mücevher	-12.077
▁nostalji	-12.077
▁tarantino	-12.077
▁viktor	-12.077
▁zulüm	-12.077
▁kozmetik	-12.077
▁onkoloji	-12.077
▁ümraniye	-12.077
▁mandalina	-12.077
▁caretta	-12.077
▁cihad	-12.077
rıfat	-12.077
▁ateist	-12.077
▁gediz	-12.077
▁cunku	-12.077
▁hokey	-12.077
▁cihangir	-12.077
▁kefalet	-12.077
▁slovenya	-12.077
▁bikini	-12.077
▁nobre	-12.077
▁perihan	-12.077
▁ımdb	-12.077
▁1986	-12.077
▁bildiriliyor	-12.077
▁ambar	-12.0771
▁lokma	-12.0771
▁mazot	-12.0772
▁1975	-12.0772
▁reyhanlı	-12.0772
▁staj	-12.0772
▁miami	-12.0772
▁kumsal	-12.0772
▁1972	-12.0772
▁baysal	-12.0773
▁çatlak	-12.0773
▁pepe	-12.0773
▁üsteğmen	-12.0774
▁yardımcısı	-12.0774
▁kaçarken	-12.0774
▁kavra	-12.0774
▁hissedar	-12.0775
▁kabahat	-12.0777
▁kıymetli	-12.0777
▁milano	-12.0778
▁refik	-12.0778
▁berkin	-12.078
kardeş	-12.078
▁uludere	-12.0781
▁özellikleri	-12.0781
▁bulunmuştur	-12.0781
▁ören	-12.0781
▁aliyev	-12.0783
dayken	-12.0783
▁kırkpınar	-12.0784
sevgi	-12.0785
▁kürek	-12.0785
çünkü	-12.0785
▁sınırla	-12.0786
▁beklerken	-12.0787
▁edildiğini	-12.0787
tekin	-12.0788
▁söylerk	-12.0789
▁soyer	-12.079
▁makarna	-12.0793
▁yığıl	-12.0794
▁okuma	-12.0795
▁pak	-12.0797
▁iddiaları	-12.0797
▁şişman	-12.0799
▁guy	-12.0801
▁açıktır	-12.0803
▁üvey	-12.0803
▁dalış	-12.0803
▁kam	-12.0809
▁1988	-12.0813
▁başlarken	-12.0814
amamıştı	-12.0814
▁misin	-12.0815
▁erdil	-12.0815
▁bilgilendirme	-12.0816
▁hayalet	-12.0816
▁öğüt	-12.0817
▁alkışla	-12.0818
▁çalıştım	-12.082
▁hadis	-12.0823
▁kota	-12.0824
▁vahim	-12.0824
▁tarihinde	-12.0826
▁sincan	-12.0826
▁genişletil	-12.083
▁özelliği	-12.0839
▁masal	-12.0844
▁yapabiliriz	-12.0845
ital	-12.0845
sün	-12.0845
kas	-12.0847
▁atik	-12.0848
hil	-12.0849
larara	-12.085
▁seren	-12.0851
▁gidişat	-12.0852
tigi	-12.0852
▁sgk	-12.0857
▁nerede	-12.0858
sınlar	-12.0859
abilirler	-12.086
narak	-12.0861
▁bra	-12.0863
▁meral	-12.0869
▁alma	-12.0883
▁sahi	-12.0884
▁alınmış	-12.0885
mezler	-12.0888
ras	-12.0888
işi	-12.0893
▁halka	-12.0895
▁arma	-12.0897
roz	-12.0901
▁yazıyor	-12.0903
▁tura	-12.0904
▁kristal	-12.0904
▁suud	-12.0905
▁çekmişti	-12.0906
▁imtiyaz	-12.0907
▁indirildi	-12.091
ping	-12.0913
▁kullanarak	-12.0916
▁04	-12.0916
▁dok	-12.0923
kap	-12.0925
anti	-12.0937
▁ezan	-12.094
▁cil	-12.0945
▁nazar	-12.0948
▁düzenliyor	-12.0949
▁patlak	-12.095
▁yansıtıl	-12.0952
madılar	-12.0953
▁anna	-12.0958
▁özlü	-12.0959
▁kıs	-12.0959
kurt	-12.0959
▁oyn	-12.0966
▁01	-12.0967
▁çizildi	-12.0968
▁gr	-12.0968
tuğ	-12.0968
▁yatır	-12.0968
fik	-12.0972
▁We	-12.0974
landığı	-12.0976
teki	-12.0979
▁birlikleri	-12.0981
▁iken	-12.0982
ros	-12.0987
▁diri	-12.0988
▁finaller	-12.099
▁08	-12.0998
▁anlaşılma	-12.1002
▁andy	-12.1003
miyordu	-12.1003
▁süreci	-12.1004
▁fuarı	-12.1005
irsiniz	-12.1011
▁paketi	-12.1011
▁desen	-12.1012
▁İ	-12.1015
beyazlı	-12.1016
vos	-12.1018
lıklar	-12.102
bah	-12.1027
▁tuzak	-12.1032
enler	-12.1037
vu	-12.1038
.15	-12.1044
▁ju	-12.1045
▁törene	-12.1047
▁185	-12.1048
▁jenni	-12.1052
sp	-12.1052
cilik	-12.1057
kov	-12.1063
▁göksu	-12.1064
▁taslağ	-12.1068
sman	-12.1071
▁alerji	-12.1076
▁kurulacak	-12.1077
▁alfabe	-12.1079
▁zeybek	-12.1081
▁reyhan	-12.1082
üyükçekmece	-12.1082
▁0-0	-12.1082
▁alexander	-12.1082
▁brifing	-12.1082
▁kütük	-12.1082
▁migros	-12.1082
▁mülakat	-12.1082
▁şarampol	-12.1082
▁beykoz	-12.1082
▁maradona	-12.1082
▁street	-12.1082
▁cevher	-12.1082
▁aytaç	-12.1082
▁eczacıbaşı	-12.1082
▁bertaraf	-12.1082
▁görüşülme	-12.1082
▁sesleniyorum	-12.1082
▁tofaş	-12.1082
▁niyazi	-12.1082
▁kidman	-12.1082
▁gürses	-12.1082
▁hayrettin	-12.1082
▁düşünmüyorum	-12.1083
▁nicole	-12.1083
▁hükümdar	-12.1083
▁düşündüm	-12.1083
▁hotel	-12.1084
▁karakuş	-12.1084
▁otururken	-12.1084
▁kocadon	-12.1084
▁oynanma	-12.1084
▁hacim	-12.1085
▁öymen	-12.1085
▁sunuluyor	-12.1085
▁soba	-12.1086
▁çetinkaya	-12.1086
▁uslu	-12.1087
▁oturan	-12.1087
▁hitaben	-12.1088
▁porto	-12.1088
▁(29)	-12.1091
▁çayır	-12.1092
▁günde	-12.1093
▁kurulmuştur	-12.1094
▁caferi	-12.1096
▁töre	-12.1096
▁rastgele	-12.1097
▁düşeni	-12.1097
▁salata	-12.1097
▁vu	-12.1098
▁bakıyorum	-12.1098
▁ayırdı	-12.1098
▁hazırlandı	-12.1099
▁doldur	-12.1099
veya	-12.1102
ml	-12.1103
▁alves	-12.1103
▁dusun	-12.1104
▁dilerim	-12.1105
gazete	-12.1107
▁eşsiz	-12.1107
▁sattı	-12.1107
menin	-12.1108
▁kullanırken	-12.1108
▁dolan	-12.1109
kuş	-12.1109
▁salgın	-12.1111
yü	-12.1111
gol	-12.1112
kolojik	-12.1113
▁şarkıcı	-12.1113
engel	-12.1115
▁ogün	-12.1115
▁kalça	-12.1116
▁ceyhan	-12.1116
▁yapıldığı	-12.1117
çalışma	-12.112
▁charli	-12.1126
▁pyd	-12.1127
▁taşlı	-12.1129
▁eklenti	-12.1129
▁delta	-12.113
▁yapılmıştı	-12.1133
batı	-12.1134
▁başlamıştır	-12.1135
▁kesk	-12.1137
futbol	-12.1139
▁www	-12.1139
▁dikkatle	-12.1143
▁marina	-12.1144
▁bağırdı	-12.1146
cam	-12.1148
▁loto	-12.1149
▁mola	-12.115
▁veriyorum	-12.1155
▁biç	-12.1166
▁müdürü	-12.1168
▁eker	-12.1169
▁sektörü	-12.1171
▁kazanıyor	-12.1175
▁kazandır	-12.1176
▁buldum	-12.118
▁karne	-12.1181
▁stra	-12.1184
▁göstermektedir	-12.1185
▁Wei	-12.119
▁yup	-12.119
▁edecekler	-12.119
▁batu	-12.1191
▁parla	-12.1192
▁news	-12.1193
▁sıva	-12.1194
▁kızım	-12.1197
liyoruz	-12.1199
▁240	-12.1206
▁102	-12.1207
▁ırmak	-12.1207
dak	-12.1209
▁orantı	-12.1216
▁çan	-12.1218
56	-12.1219
▁şüpheli	-12.122
vatan	-12.1222
▁ıso	-12.1222
▁yaramaz	-12.1224
▁bildirmişti	-12.1225
gs	-12.1232
▁söylüyorlar	-12.1237
tüt	-12.1239
ttı	-12.124
▁çöktü	-12.1245
▁mel	-12.1248
▁tanrıça	-12.1253
iy	-12.1255
▁başında	-12.1259
▁idil	-12.126
▁kırıldı	-12.1262
▁108	-12.1263
▁uçur	-12.1263
▁cemaati	-12.1265
▁küs	-12.1268
▁kullanımı	-12.1269
field	-12.1271
▁yürüyüş	-12.1272
lanmıştı	-12.1276
68	-12.1277
▁3,5	-12.128
andırıcı	-12.1286
▁yaralanmıştı	-12.1287
haf	-12.1287
▁parker	-12.1294
▁seribaş	-12.1297
▁pr	-12.1304
▁evli	-12.1307
▁seçti	-12.1309
kel	-12.1311
▁gl	-12.1312
▁4-	-12.1314
▁soğu	-12.1318
▁yönetecek	-12.132
▁hiz	-12.132
iwan	-12.1321
▁arıcı	-12.1322
▁etkilendi	-12.1326
▁bağlandı	-12.1328
▁kase	-12.1328
▁sorunları	-12.1329
▁ayı	-12.1329
ssi	-12.1332
▁tbmmn	-12.1332
cy	-12.1334
▁başlaması	-12.1342
amamış	-12.1343
▁kazanan	-12.1346
▁gitmiş	-12.1353
▁mah	-12.1356
şan	-12.1362
72	-12.1362
▁dönecek	-12.1366
ym	-12.1367
▁alması	-12.1368
akıl	-12.1369
diğinde	-12.1375
▁lisesi	-12.1378
nak	-12.1381
▁soruyor	-12.1382
▁tanıttı	-12.1383
▁avukatları	-12.1392
▁simav	-12.1393
▁paten	-12.1393
▁gelsin	-12.1393
▁belki	-12.1393
▁sch	-12.1393
hh	-12.1395
▁kardem	-12.1396
▁fin	-12.1397
aşılma	-12.1399
ümgeneral	-12.1401
▁fal	-12.1402
▁tesadüf	-12.1402
▁pitt	-12.1404
behçet	-12.1405
▁arçelik	-12.1405
▁eşgüdüm	-12.1405
▁gökbakar	-12.1405
▁koordine	-12.1405
▁muhakkak	-12.1405
▁sağduyu	-12.1405
▁tramvay	-12.1405
▁yörük	-12.1405
▁antibiyotik	-12.1405
▁centilmen	-12.1405
▁rıdv	-12.1405
▁acayip	-12.1405
▁avrasya	-12.1405
▁cazibe	-12.1405
▁carrey	-12.1405
▁yegane	-12.1405
▁aıds	-12.1405
▁düşünülüyor	-12.1405
▁barbar	-12.1405
▁hakikaten	-12.1405
▁limited	-12.1405
▁miydi	-12.1406
▁ısır	-12.1406
▁karbon	-12.1406
▁1981	-12.1407
▁medical	-12.1407
▁korner	-12.1407
▁ciğer	-12.1407
▁yaralanan	-12.1407
▁spot	-12.1408
dınız	-12.1408
▁öncesinde	-12.1408
▁kanalıyla	-12.1408
▁bulunamadı	-12.1408
▁fotograf	-12.1408
▁tırnak	-12.1409
▁kürtaj	-12.141
▁bellek	-12.141
▁anlaşılıyor	-12.141
▁twitter	-12.1411
▁canaydın	-12.1411
▁5-10	-12.1411
▁göksel	-12.1411
▁ımfnin	-12.1412
▁dolap	-12.1413
▁durur	-12.1414
▁tabanca	-12.1415
▁bekleyen	-12.1415
▁artarken	-12.1415
▁eminim	-12.1417
▁doruk	-12.1419
▁getireceğiz	-12.142
ayrı	-12.142
▁sandal	-12.1421
▁soğutma	-12.1422
leşiyor	-12.1422
▁kürk	-12.1423
rom	-12.1423
suç	-12.1426
lla	-12.1428
merkez	-12.1428
▁etmiyorum	-12.1428
▁brad	-12.143
▁harvard	-12.143
▁kronik	-12.143
▁göbek	-12.143
▁görmedim	-12.1431
▁suni	-12.1432
▁tuğla	-12.1434
▁kazanmıştır	-12.1435
▁saklı	-12.1436
zede	-12.1439
▁buzul	-12.1439
belki	-12.144
▁sözü	-12.144
▁şantaj	-12.144
pkk	-12.144
▁festivale	-12.1442
▁alınır	-12.1443
hedef	-12.1444
▁twitterdan	-12.1445
▁vezir	-12.1446
lıktır	-12.1446
▁aroma	-12.145
amık	-12.145
▁dortmund	-12.145
▁üret	-12.1453
▁zalim	-12.1453
▁geçerk	-12.1453
▁belirleyecek	-12.1456
▁girerk	-12.1459
▁oyak	-12.146
vir	-12.1461
▁yineledi	-12.1463
▁yapılmaktadır	-12.1463
▁hareketi	-12.1464
▁arpa	-12.1466
▁je	-12.1469
▁serap	-12.1471
▁davası	-12.1472
▁ilişkin	-12.1474
▁güncelleme	-12.1474
▁oyuncusu	-12.1474
▁içerir	-12.1482
kır	-12.1484
▁pervi	-12.1485
arız	-12.1486
▁bombala	-12.1487
▁gösterdiler	-12.1488
▁batur	-12.1495
‘‘	-12.1498
▁yaparlar	-12.1498
rseniz	-12.1499
üj	-12.15
▁280	-12.1502
ebilirler	-12.1503
▁giderek	-12.1513
/83	-12.1513
bri	-12.1515
▁fan	-12.1518
▁yasaklanma	-12.1519
▁ağırladı	-12.152
67	-12.1521
gur	-12.1522
▁jon	-12.1524
▁Wars	-12.1524
▁illa	-12.1525
▁harman	-12.1526
▁kud	-12.1528
▁planı	-12.1531
▁Ankara	-12.1531
▁nabi	-12.154
▁terapi	-12.1545
amıyoruz	-12.1545
▁22.	-12.1546
▁kaçır	-12.1547
▁bozuldu	-12.1554
▁terked	-12.1554
▁yaratır	-12.1558
▁geçmesi	-12.156
▁justin	-12.1564
▁yine	-12.1568
▁alıyorlar	-12.1574
ımda	-12.1576
▁yazık	-12.1578
jan	-12.1582
▁öğrendik	-12.1583
▁sit	-12.1587
mayalım	-12.1588
hel	-12.1592
rım	-12.1592
▁takib	-12.1593
layacağız	-12.1595
▁apps	-12.1596
▁sira	-12.1596
▁onem	-12.16
▁kov	-12.1607
▁galat	-12.1609
▁tanıştı	-12.1609
▁çalışır	-12.1613
▁aşağıla	-12.1615
▁haşla	-12.1616
▁bddk	-12.1617
▁affet	-12.1618
▁aras	-12.1622
memeli	-12.1622
▁söylemiş	-12.1623
▁verip	-12.1625
▁kitabı	-12.1635
▁ödenecek	-12.1636
▁had	-12.1638
▁peker	-12.1645
anlar	-12.1645
▁tuş	-12.1645
53	-12.1649
▁6-3	-12.1649
ilirk	-12.1652
sarı	-12.1652
''	-12.1655
▁kapkaç	-12.1658
▁yönetti	-12.1659
asuman	-12.166
▁gerçekleştirdik	-12.1661
▁ülkeleri	-12.1663
hum	-12.1663
esi	-12.1665
öte	-12.167
▁refleks	-12.1677
lim	-12.1677
▁etmey	-12.1687
▁forması	-12.1688
▁nick	-12.169
ulus	-12.1693
başbak	-12.1694
yal	-12.1701
ebildi	-12.1709
▁löse	-12.1712
▁karama	-12.1712
▁che	-12.1712
▁milletvekilleri	-12.1713
maktı	-12.1713
▁kazanır	-12.1714
▁açıklamaları	-12.1714
▁1200	-12.1716
▁olacaklar	-12.1718
acı	-12.1719
▁mama	-12.172
▁kopar	-12.1728
200	-12.1729
▁azeri	-12.173
▁aksesuar	-12.1735
yamadı	-12.1736
▁demirör	-12.1737
bakan	-12.1737
▁Wimbledon	-12.1738
▁anthony	-12.1738
▁frekans	-12.1738
▁konsorsiyum	-12.1738
▁kubilay	-12.1738
▁matbaa	-12.1738
▁patlıcan	-12.1738
▁sinemia	-12.1738
▁talabani	-12.1738
▁vatikan	-12.1738
▁yurdakul	-12.1738
▁medrese	-12.1738
▁molekül	-12.1738
▁konfeksiyon	-12.1738
▁spurs	-12.1738
▁çeçenistan	-12.1738
▁gübre	-12.1738
▁23.00	-12.1738
▁çağatay	-12.1738
▁siverek	-12.1738
▁sarsıntı	-12.1738
▁yerleşke	-12.1738
▁kombine	-12.1738
▁vurguluyor	-12.1738
▁kırgın	-12.1738
▁libero	-12.1738
▁mithat	-12.1739
▁fırça	-12.1739
▁eğlendi	-12.1739
▁şahsiyet	-12.1739
▁ihrac	-12.1739
▁mahalli	-12.1739
▁çıkartıldı	-12.1739
▁1955	-12.1739
▁arabulu	-12.174
▁göstergesidir	-12.174
cık	-12.174
▁enzim	-12.174
ğuta	-12.174
▁1976	-12.174
▁gayrı	-12.174
▁masaüstü	-12.174
▁cannes	-12.174
▁jest	-12.174
▁kısıtlı	-12.1741
ethem	-12.1741
▁saygun	-12.1741
▁(2	-12.1741
▁anlatıldı	-12.1741
▁ışıkkent	-12.1741
▁çalındı	-12.1741
▁müziksever	-12.1741
▁mezra	-12.1742
▁kanadalı	-12.1742
▁zammı	-12.1742
▁şaşırdı	-12.1742
▁eğitimi	-12.1743
▁acıbadem	-12.1743
▁şeria	-12.1743
▁joe	-12.1743
▁5-6	-12.1744
▁sahra	-12.1745
▁kaşık	-12.1745
▁bilemiyorum	-12.1745
deyk	-12.1745
▁castro	-12.1746
▁sağlayacağız	-12.1746
▁sakal	-12.1746
▁koyalım	-12.1748
▁20.30	-12.1748
ih	-12.1749
▁ekvador	-12.1749
▁beklerk	-12.1749
russia	-12.1749
▁katılın	-12.175
▁bariz	-12.175
▁bros	-12.175
▁hard	-12.1751
rasim	-12.1752
▁fasulye	-12.1754
▁zeynel	-12.1754
▁sancak	-12.1754
▁sağlanıyor	-12.1758
▁öncesi	-12.1759
▁tarikat	-12.1759
▁açılması	-12.1762
▁kazanmıştı	-12.1764
73	-12.1765
▁hakları	-12.1768
▁bon	-12.1772
▁diyar	-12.1774
▁alamadı	-12.1774
▁kreş	-12.1775
▁şemsiye	-12.1776
▁anka	-12.1777
▁(7)	-12.1777
▁dergisi	-12.1777
uyla	-12.1778
▁lamba	-12.1779
▁çıkıyoruz	-12.1781
▁ydu	-12.1782
inşallah	-12.1784
muştu	-12.1785
cumhuriyet	-12.1785
mehmet	-12.1785
▁burası	-12.1786
lerim	-12.1786
sıkı	-12.1786
gizli	-12.1788
suriye	-12.1789
▁muhsin	-12.1791
▁ajansı	-12.1791
oc	-12.1792
proje	-12.1793
ımf	-12.1793
▁halat	-12.1793
▁ihsanoğ	-12.1794
▁abant	-12.1797
▁yaşadım	-12.1799
52	-12.1802
▁maçında	-12.1803
▁bridge	-12.1807
▁bağlıdır	-12.1808
tireceğiz	-12.1811
liyiz	-12.1812
▁(2)	-12.1816
▁attım	-12.1816
tatvan	-12.1817
lendirilme	-12.1818
yabilirsiniz	-12.182
▁fı	-12.1825
▁başak	-12.1826
▁reçete	-12.1827
▁attılar	-12.1827
tz	-12.1828
DES	-12.1829
▁fbı	-12.183
pat	-12.1832
▁yeşim	-12.1833
▁delik	-12.1836
▁endeksi	-12.1837
▁big	-12.1844
2012	-12.1844
▁hakemler	-12.1845
mik	-12.185
▁örgütleri	-12.1851
▁prix	-12.1853
▁mtv	-12.1854
▁Wer	-12.1855
▁yürürk	-12.186
▁kurulması	-12.1861
▁yetkilisi	-12.1862
▁konseri	-12.1863
alp	-12.1864
mba	-12.1865
▁kesiş	-12.1865
▁savcı	-12.1866
▁nazik	-12.1869
▁odağı	-12.1872
mümin	-12.1872
▁savunu	-12.1873
▁yenildi	-12.1874
nd	-12.1875
▁kel	-12.1877
▁bitir	-12.1877
▁açar	-12.1879
vak	-12.188
tion	-12.1895
lamak	-12.1898
-21	-12.1904
dost	-12.1905
bes	-12.1909
and	-12.1912
lenmesi	-12.1918
eg	-12.192
▁manuel	-12.1922
▁inanan	-12.1923
▁bach	-12.1924
fire	-12.1928
▁os	-12.1929
▁olacağını	-12.193
▁açacak	-12.193
est	-12.1934
▁116	-12.1941
▁cemevi	-12.1944
▁sergisi	-12.1944
▁patri	-12.1946
▁sızma	-12.1947
klarını	-12.1948
▁press	-12.1953
zin	-12.1955
siydi	-12.1956
▁kefe	-12.1956
ons	-12.1957
▁hayr	-12.1959
▁suçlanıyor	-12.196
▁yüküm	-12.1966
▁salak	-12.1968
ju	-12.197
▁yürütülme	-12.1972
ord	-12.1974
likleri	-12.1974
▁dönüşüm	-12.1975
tası	-12.1976
▁kolon	-12.1976
mit	-12.1977
▁jack	-12.1983
▁çalışmalar	-12.1984
▁R	-12.1984
▁nedeni	-12.1985
hasta	-12.1988
▁enişte	-12.1992
▁but	-12.1994
▁komitesi	-12.2004
▁etmeyin	-12.2012
▁teknolojisi	-12.2017
▁afrin	-12.2017
▁aranıyor	-12.2025
▁nuh	-12.2027
▁sürücü	-12.2036
▁olmus	-12.2036
▁öldüğü	-12.2037
gm	-12.2038
ost	-12.204
▁nasır	-12.204
eceksiniz	-12.2044
▁fit	-12.2046
▁gerçekleşecek	-12.2051
▁iyidir	-12.2053
▁iştah	-12.2054
▁(8	-12.2055
▁keşfet	-12.2057
▁istanbulda	-12.2061
▁sömürü	-12.2065
▁yavaşla	-12.2069
malısınız	-12.2071
▁kaf	-12.2074
▁örgü	-12.2078
▁kısıtlama	-12.2078
▁mahrum	-12.2083
▁şaşırttı	-12.2083
opotam	-12.2083
▁aktivist	-12.2083
▁akvaryum	-12.2083
▁başesgioğlu	-12.2083
▁capital	-12.2083
▁delgado	-12.2083
▁filozof	-12.2083
▁gaddar	-12.2083
▁gelibolu	-12.2083
▁karanfil	-12.2083
▁kebap	-12.2083
▁müzayede	-12.2083
▁tebligat	-12.2083
▁fehmi	-12.2083
▁mehmed	-12.2083
▁tuncer	-12.2083
▁tüfeği	-12.2083
▁erdinç	-12.2083
▁lopez	-12.2083
▁rahip	-12.2083
▁timsah	-12.2083
▁lincoln	-12.2083
▁tayfur	-12.2083
▁klip	-12.2083
▁menzil	-12.2083
▁kargaşa	-12.2083
▁filtre	-12.2083
▁sömürge	-12.2083
▁(33)	-12.2083
▁(32)	-12.2083
▁müsait	-12.2083
▁diyadin	-12.2083
▁bebeğe	-12.2083
▁mahrumiyet	-12.2083
▁yaşıt	-12.2083
▁ronaldinho	-12.2083
▁barbaros	-12.2083
▁bagaj	-12.2083
ençlerbirliği	-12.2083
▁kunter	-12.2083
▁selvitopu	-12.2084
▁fesat	-12.2084
▁yeşilçam	-12.2084
tro	-12.2084
▁üzgün	-12.2084
▁hobi	-12.2084
ildiğini	-12.2084
▁pırlanta	-12.2085
▁aktarıldı	-12.2086
▁dudak	-12.2087
▁sürdürüyoruz	-12.2087
▁speed	-12.2088
▁6-4	-12.2089
▁sağlayacaktır	-12.2089
▁ruhsal	-12.209
▁kazandırdı	-12.2091
▁diyelim	-12.2091
meyecektir	-12.2092
▁kaynaklanıyor	-12.2092
▁kenya	-12.2093
▁nbade	-12.2094
▁vatansever	-12.2095
▁atmıştı	-12.2095
▁mektupta	-12.2097
▁yüksekova	-12.2098
▁slam	-12.2099
▁üşü	-12.2099
▁güvenilir	-12.2099
▁(30)	-12.21
:‘‘	-12.21
▁adapt	-12.2101
mamalı	-12.2103
▁yazarken	-12.2104
▁1944	-12.2105
▁kırca	-12.2107
bata	-12.2108
▁6.5	-12.2108
▁linux	-12.211
▁anımsatıl	-12.211
polen	-12.2113
▁muhabiri	-12.2114
▁törenine	-12.2118
▁sordum	-12.2119
tırma	-12.2119
rmik	-12.212
▁kosgeb	-12.2121
▁teneke	-12.2121
▁bayramı	-12.2121
▁manyeti	-12.2121
sco	-12.2123
▁onu	-12.2124
▁ertaş	-12.2125
▁sporcu	-12.2125
▁hikayesi	-12.2125
▁niteledi	-12.2126
▁sport	-12.2126
-300	-12.2127
▁çalka	-12.2128
sonu	-12.213
▁süresi	-12.2131
▁kelebek	-12.2132
▁tedaş	-12.2134
▁elit	-12.2135
▁bere	-12.2135
▁görüşünde	-12.2139
tarih	-12.2141
özgür	-12.2142
mustafa	-12.2143
barış	-12.2143
linç	-12.2145
vergi	-12.2146
galatasaray	-12.2146
aynı	-12.2147
▁haliç	-12.2153
▁state	-12.2154
▁ey	-12.2154
kaç	-12.2155
▁sürücüler	-12.2158
▁onar	-12.2159
▁kus	-12.216
▁car	-12.2161
▁toy	-12.2163
▁850	-12.2163
saat	-12.2164
malarda	-12.2166
▁your	-12.217
▁ödemiş	-12.217
▁yöneltti	-12.2172
▁attık	-12.2173
dp	-12.2173
▁elena	-12.2175
▁tutu	-12.2181
vey	-12.2182
▁toparla	-12.2183
▁çıkmıştır	-12.2191
des	-12.2191
▁simon	-12.2192
▁hükmetti	-12.2194
pit	-12.2194
▁asil	-12.2197
▁petek	-12.22
▁denet	-12.22
▁selamla	-12.2204
▁anıldı	-12.2204
inan	-12.2204
▁chi	-12.2212
▁fırlatıl	-12.2212
nter	-12.2213
cel	-12.2213
▁dig	-12.2217
▁serdi	-12.2221
▁petrolü	-12.2221
▁üretiyor	-12.2224
▁sinyal	-12.2224
sret	-12.2224
zer	-12.2227
▁sitesi	-12.2235
▁kimdir	-12.2238
▁organizatör	-12.2238
▁off	-12.224
▁takim	-12.2244
▁talihsiz	-12.2246
babam	-12.2247
▁https	-12.2247
iro	-12.2248
▁tamamlanacak	-12.2252
göl	-12.2259
ska	-12.2261
▁adedi	-12.2263
klerini	-12.2267
▁chang	-12.2271
▁gözlemle	-12.2276
▁doktora	-12.2277
▁bond	-12.2281
▁şubesi	-12.2282
muz	-12.2284
meyeceğim	-12.2284
ves	-12.2291
▁yöneten	-12.2291
▁öden	-12.2296
alm	-12.2296
▁afad	-12.2297
▁yapabilir	-12.2301
red	-12.2307
luğu	-12.2309
▁sanayii	-12.2314
die	-12.2325
dil	-12.2327
▁saate	-12.2328
▁beni	-12.2329
▁West	-12.2329
soru	-12.2333
▁8.5	-12.2336
▁önünde	-12.2338
▁ezber	-12.2346
ila	-12.2352
▁(6	-12.2355
.500	-12.2359
tic	-12.2359
▁sıfatı	-12.2365
SA	-12.2372
gov	-12.2374
aşk	-12.2375
▁ayin	-12.238
bit	-12.2384
▁seslendi	-12.2385
saha	-12.2385
miştik	-12.2386
▁havaalan	-12.2386
▁kontrolleri	-12.2389
▁basma	-12.2396
▁tartışma	-12.2397
▁anaf	-12.2404
▁başlattık	-12.241
▁izni	-12.241
▁kaybeder	-12.2412
▁ödüllendiril	-12.2413
afiyet	-12.2415
▁esat	-12.2416
leşti	-12.2417
▁blue	-12.2417
yabilir	-12.2418
ahi	-12.2422
▁ııı	-12.2422
▁üretimi	-12.2423
uyorlar	-12.2426
▁opsiyon	-12.2431
▁12.00	-12.2431
▁yönlendirme	-12.2432
▁cığ	-12.2435
eriz	-12.2436
lanladı	-12.2436
▁goster	-12.2439
▁nezaret	-12.244
▁affleck	-12.244
▁akabinde	-12.244
▁ebeveyn	-12.244
▁houston	-12.244
▁muvazzaf	-12.244
▁nazilli	-12.244
▁radyasyon	-12.244
▁kalaşnikof	-12.244
▁bieber	-12.244
▁klozet	-12.244
▁obezite	-12.244
▁estonya	-12.244
▁sıyrıl	-12.244
▁akçakale	-12.244
▁zavallı	-12.244
▁(34)	-12.244
▁zico	-12.244
▁değiştirildi	-12.244
▁ambargo	-12.244
▁buluşturdu	-12.244
▁bünya	-12.244
▁music	-12.244
▁balayı	-12.244
▁tertip	-12.244
saf	-12.2441
▁batarya	-12.2441
cl	-12.2441
▁bartın	-12.2441
▁aktris	-12.2441
▁server	-12.2441
▁chow	-12.2441
▁1978	-12.2441
▁osmangazi	-12.2441
▁vardiya	-12.2442
▁asena	-12.2442
▁inat	-12.2442
hd	-12.2442
▁hırvat	-12.2442
▁gomez	-12.2442
▁aviv	-12.2443
▁semra	-12.2443
▁çalgı	-12.2443
▁kaynat	-12.2443
▁1971	-12.2443
▁kurdele	-12.2443
▁7-8	-12.2444
▁sınai	-12.2444
▁ayrica	-12.2444
▁yayımladı	-12.2444
▁yazdırdı	-12.2444
▁şahane	-12.2446
▁enstrüman	-12.2446
▁meğer	-12.2446
▁trans	-12.2447
▁ferit	-12.2448
▁kısmet	-12.2449
▁hile	-12.2451
▁atar	-12.2452
▁hasat	-12.2453
▁ergun	-12.2453
▁barınak	-12.2453
▁sinyaller	-12.2453
yeceğiz	-12.2454
▁isviçreli	-12.2456
▁long	-12.2456
vez	-12.2457
▁cameron	-12.2457
▁dow	-12.246
▁yiyecek	-12.246
▁arttırılma	-12.2462
▁tacik	-12.2463
▁aylin	-12.2465
gerçekleştirecek	-12.2466
▁ediyorsunuz	-12.2466
▁aynur	-12.2467
▁zer	-12.2468
▁söylerken	-12.2469
▁rüştü	-12.2471
▁çevrili	-12.2471
▁yapılacaktır	-12.2475
▁yetiştirilme	-12.2477
▁luis	-12.2478
▁gi	-12.2478
▁tav	-12.2479
4)	-12.2479
▁ypg	-12.2479
▁tmsfn	-12.248
▁joker	-12.248
▁kazık	-12.2481
▁psikiyatri	-12.2485
nia	-12.2486
▁çıkış	-12.2486
▁that	-12.2487
▁mönü	-12.2488
▁isterken	-12.2488
vil	-12.2492
▁özdağ	-12.2492
▁anlatılıyor	-12.2492
▁şenel	-12.2493
▁cüce	-12.2493
amayan	-12.2494
rman	-12.2495
▁mumcu	-12.2495
▁etkinlik	-12.2495
ğım	-12.2499
▁belgesi	-12.25
mes	-12.2501
tha	-12.2501
▁123	-12.2503
▁ahali	-12.2503
▁erten	-12.2506
eğit	-12.2511
▁dizel	-12.2511
▁valiz	-12.2511
şampiyon	-12.2513
▁diyordu	-12.2516
▁susam	-12.2516
üyor	-12.2516
▁emil	-12.2519
yerel	-12.252
şir	-12.2521
rie	-12.2521
▁korudu	-12.2521
oh	-12.2522
▁rick	-12.2522
sra	-12.2523
▁urfa	-12.2526
▁light	-12.2527
nasıl	-12.2528
▁dog	-12.253
▁mahir	-12.2532
▁derecesi	-12.2532
▁dul	-12.2533
ami	-12.2534
55	-12.2534
all	-12.2536
6.4	-12.2537
▁yapıyordu	-12.2537
▁sihir	-12.2538
▁çivi	-12.2538
▁sudan	-12.2544
▁önleme	-12.2545
▁halleri	-12.2545
▁lale	-12.2546
▁gaza	-12.255
▁haberal	-12.2551
▁büyüdü	-12.2551
ria	-12.256
▁saatle	-12.2563
rabia	-12.2566
▁sanki	-12.2568
▁yorumladı	-12.257
alan	-12.2572
▁sızdır	-12.2573
▁alınmadı	-12.2574
bı	-12.2576
▁çeker	-12.2576
▁taşıyan	-12.2576
acagi	-12.2578
mun	-12.2581
erdoğ	-12.2587
med	-12.259
62	-12.2592
▁oyları	-12.2596
▁metropol	-12.2597
▁175	-12.2597
▁yırtı	-12.26
▁olabilirdi	-12.26
▁fert	-12.2603
▁aralık	-12.2605
▁kalkıyor	-12.2606
▁düşer	-12.2607
▁dedirt	-12.2615
eti	-12.2621
ava	-12.2624
▁kattı	-12.2625
ilan	-12.2627
arta	-12.2631
▁yalanla	-12.2631
▁1.1	-12.2632
▁147	-12.2633
▁sana	-12.2634
▁Will	-12.2635
eksiksiz	-12.2643
amazlar	-12.2643
▁çeken	-12.2646
▁sınırlama	-12.2646
sil	-12.2647
hap	-12.2647
▁back	-12.2655
▁avlan	-12.2657
uydu	-12.2662
▁kıran	-12.2662
▁alıyorum	-12.2663
▁atlı	-12.2665
▁pişiril	-12.2665
51	-12.2667
uyg	-12.2668
▁gerileme	-12.267
▁bekliyordu	-12.267
sert	-12.2674
stan	-12.2676
▁salt	-12.2677
▁cezai	-12.268
▁sara	-12.2682
▁kayd	-12.2688
kanlı	-12.2688
iyordum	-12.2689
hn	-12.2689
▁uyarla	-12.2689
▁vaziyet	-12.2689
▁tetikle	-12.2694
▁dark	-12.2696
tch	-12.2697
.19	-12.27
▁konakla	-12.27
▁İstanbul	-12.2719
▁kuruluşları	-12.272
chuan	-12.2722
▁katılması	-12.2723
▁dekor	-12.2723
▁şaşırtı	-12.2723
▁vol	-12.2727
lığında	-12.2728
▁gülb	-12.2732
▁tanığ	-12.2737
▁götürüyor	-12.2738
ato	-12.2739
▁yaşayacak	-12.2742
şeh	-12.2745
iao	-12.2745
▁iphone	-12.2747
▁harfler	-12.2747
bugüne	-12.2749
mix	-12.2752
▁olayları	-12.2753
▁olabilme	-12.276
▁gereği	-12.2767
hey	-12.277
▁yılan	-12.2772
yecektir	-12.2774
mışım	-12.2775
siyon	-12.2776
▁yapsın	-12.278
eira	-12.279
▁ps	-12.2792
pol	-12.2792
▁arındırıl	-12.2792
▁kıyaslan	-12.2795
▁stockholm	-12.2795
▁Kara	-12.2795
!!!	-12.2797
▁otomobi	-12.2797
▁4-1	-12.2799
oba	-12.28
▁biyoloji	-12.2801
▁yakin	-12.2804
▁serinle	-12.2804
▁andrew	-12.2805
Mİ	-12.2805
▁hassa	-12.2805
▁slovak	-12.2807
▁alparsl	-12.2808
▁sabıka	-12.2808
▁gönen	-12.2809
▁provok	-12.281
▁felluce	-12.281
▁narenciye	-12.281
▁neslihan	-12.281
▁spekülasyon	-12.281
▁university	-12.281
▁valencia	-12.281
▁üslup	-12.281
▁hanımefendi	-12.281
▁kübra	-12.281
▁kıvam	-12.281
▁külliye	-12.281
▁akkaş	-12.281
▁gencecik	-12.281
▁lüksemburg	-12.281
▁inovasyon	-12.281
▁marvel	-12.281
motive	-12.281
▁kağan	-12.281
▁orjinal	-12.281
▁taylor	-12.281
▁fenomen	-12.281
▁alıkoy	-12.281
▁tiryaki	-12.281
▁sürdürürk	-12.2811
▁rauf	-12.2811
▁müddet	-12.2811
▁egzo	-12.2811
▁kervansaray	-12.2811
▁mercan	-12.2811
▁gürcü	-12.2811
Türk	-12.2811
▁düdük	-12.2811
▁perspektif	-12.2811
▁sofya	-12.2811
▁kınık	-12.2812
▁victoria	-12.2812
▁pazaryeri	-12.2813
▁1974	-12.2813
▁bilimadam	-12.2813
▁uyurken	-12.2813
▁civarında	-12.2813
▁spiker	-12.2813
▁kaydediliyor	-12.2814
▁bmW	-12.2814
check	-12.2814
▁pastane	-12.2815
▁19.30	-12.2815
▁artvin	-12.2815
▁karatay	-12.2815
▁çarpışma	-12.2817
▁senegal	-12.2818
▁özhan	-12.2819
▁bildirimi	-12.2819
▁keman	-12.282
▁tutsak	-12.282
▁doldurdu	-12.2821
▁kalmaz	-12.2821
▁gideceğiz	-12.2823
▁mekanik	-12.2823
▁terry	-12.2824
▁kabile	-12.2825
▁görmüş	-12.2825
mişlerdi	-12.2826
▁balcı	-12.2826
▁safha	-12.2827
▁beylikdüzü	-12.2828
▁samsung	-12.2829
▁ettirdi	-12.283
bra	-12.2833
mazken	-12.2834
▁Wall	-12.2834
▁cha	-12.2836
▁aydemir	-12.2837
▁cehalet	-12.284
▁karasu	-12.284
▁gereklidir	-12.284
▁vakıfbank	-12.284
▁biçer	-12.2841
▁gülay	-12.2841
▁(17)	-12.2842
oviç	-12.2845
▁yoksun	-12.2846
▁eseri	-12.2848
▁1923	-12.2851
▁görülebilir	-12.2851
▁yaparız	-12.2851
▁sociedad	-12.2851
▁faşizm	-12.2852
▁fr	-12.2852
▁taha	-12.2853
▁deg	-12.2855
lle	-12.2856
▁2019	-12.2858
▁dolandır	-12.286
▁moldova	-12.2861
▁(4)	-12.2863
▁büyükbaş	-12.2864
▁yaptigi	-12.2864
ekonomik	-12.2866
lanarak	-12.2867
landırıl	-12.2868
▁(4	-12.2869
hm	-12.2869
▁verdiği	-12.287
▁kahverengi	-12.2872
▁nuray	-12.2874
▁tipik	-12.2875
▁genelev	-12.2876
▁verdiğini	-12.2877
▁xxx	-12.2878
görev	-12.288
▁night	-12.2881
gara	-12.2883
▁girmiş	-12.2884
▁imkansız	-12.2895
demokratik	-12.2897
sosyal	-12.2897
demokrasi	-12.2897
üniversite	-12.2898
pazar	-12.2898
▁türkçe	-12.2898
▁vaat	-12.29
engiz	-12.29
lerken	-12.29
▁çıkabilir	-12.2901
▁more	-12.2904
▁alınan	-12.2905
berk	-12.2906
▁basını	-12.2908
▁şili	-12.2908
KA	-12.2913
▁altıpar	-12.2913
▁bilgiç	-12.2916
▁işler	-12.2918
rse	-12.2921
▁subaşı	-12.2921
-17	-12.2922
▁hav	-12.2922
▁düzeltilme	-12.2923
▁134	-12.2925
▁beraberlik	-12.2925
zmi	-12.2928
▁arkadas	-12.293
▁peri	-12.2933
▁spk	-12.2933
▁marie	-12.2937
kke	-12.2939
fed	-12.294
▁yakalan	-12.2943
▁kalmıyor	-12.2945
▁çabala	-12.2946
Ba	-12.2948
müştür	-12.295
▁fast	-12.2953
▁döşe	-12.2955
▁uzattı	-12.2959
▁julian	-12.296
▁bilic	-12.2961
▁hijyen	-12.2961
mayıp	-12.2962
▁serik	-12.2963
▁istemiş	-12.2963
▁havale	-12.2963
93	-12.2964
rad	-12.2964
▁başlat	-12.2964
landırılma	-12.2965
ders	-12.2965
▁allen	-12.2967
urken	-12.2973
emek	-12.2975
▁görüşü	-12.2977
▁miller	-12.2981
▁1.7	-12.2987
cep	-12.2998
afineri	-12.3
aset	-12.3
▁alo	-12.3001
tum	-12.3001
▁kazandık	-12.3004
mamak	-12.3007
▁uyarlama	-12.3009
▁biten	-12.3009
▁rey	-12.301
/2	-12.3013
mikrofo	-12.3019
▁döneminde	-12.302
ılan	-12.302
▁vah	-12.3021
▁gö	-12.3021
annem	-12.3023
ılabiliyor	-12.3025
giz	-12.3031
masınlar	-12.3032
osman	-12.3032
▁bakım	-12.3033
▁işgü	-12.3034
▁filmleri	-12.3038
▁4,5	-12.3042
▁terminali	-12.3044
▁deniyor	-12.3045
cılık	-12.3047
▁saplan	-12.3053
mor	-12.3056
▁kadrosu	-12.3065
köprü	-12.3073
▁tava	-12.3074
▁üçer	-12.3078
row	-12.3081
▁siper	-12.3083
iv	-12.3083
▁çıta	-12.3085
oku	-12.3086
▁ishal	-12.3088
▁anlatacak	-12.309
amazsın	-12.309
▁tehlikesi	-12.3092
▁umur	-12.3092
▁inanc	-12.3094
mazsa	-12.3098
▁derle	-12.3099
▁1.8	-12.3102
▁müdürleri	-12.3105
seydi	-12.3107
birliği	-12.3109
thy	-12.3109
▁tüik	-12.3111
▁lokal	-12.3115
ph	-12.3116
lenmişti	-12.3116
key	-12.3118
▁dağıtılma	-12.3121
sson	-12.3122
▁yayınları	-12.3123
▁arayan	-12.3125
yazı	-12.3127
▁sağlığı	-12.313
eminist	-12.313
▁düşünen	-12.3131
▁denek	-12.3132
▁düşecek	-12.3134
deydi	-12.3137
ebe	-12.3138
.10	-12.3139
▁bırakıyor	-12.3142
▁bull	-12.3144
ath	-12.3146
üzü	-12.315
▁ozel	-12.3151
raz	-12.3152
▁alacaklar	-12.3156
▁firması	-12.3156
▁dağıtım	-12.316
▁arttırma	-12.3163
58	-12.3164
▁imzası	-12.3164
▁kralı	-12.3164
meyeceğiz	-12.3165
▁yansıt	-12.3167
▁26.	-12.3168
dok	-12.317
▁bağışlan	-12.317
afiz	-12.3172
▁rob	-12.3173
▁karala	-12.3179
300	-12.318
▁kıvılcım	-12.3183
ruh	-12.3188
nazi	-12.3188
▁ritm	-12.3188
mezse	-12.3188
▁1930	-12.3189
aka	-12.3189
▁belirtilmişti	-12.3191
▁apple	-12.3193
▁ölmüştü	-12.3194
▁litera	-12.3194
fkan	-12.3195
▁yüzölç	-12.3195
▁yapılmalı	-12.3195
▁zaaf	-12.3195
hunharca	-12.3195
▁bürokrasi	-12.3195
▁cevdet	-12.3195
▁entelektüel	-12.3195
▁evsahibi	-12.3195
▁hububat	-12.3195
▁kennedy	-12.3195
▁muhakeme	-12.3195
▁orgazm	-12.3195
▁promosyon	-12.3195
▁susurluk	-12.3195
▁şampyon	-12.3195
Ancak	-12.3195
▁nikotin	-12.3195
▁elverişli	-12.3195
▁infilak	-12.3195
▁oramiral	-12.3195
▁çapkın	-12.3195
onservatuvar	-12.3195
▁beach	-12.3195
▁irtica	-12.3195
▁koskoca	-12.3195
▁şeyler	-12.3195
▁palmiye	-12.3195
▁Warner	-12.3195
▁enteresan	-12.3195
▁lozan	-12.3195
▁françoi	-12.3195
▁reaksiyon	-12.3195
▁refakat	-12.3195
▁carter	-12.3195
▁çomar	-12.3195
▁yanılgı	-12.3195
Saray	-12.3195
▁doçent	-12.3196
▁bavul	-12.3196
▁pusula	-12.3196
▁1949	-12.3196
▁etkileşim	-12.3197
▁1963	-12.3197
▁beygir	-12.3197
▁dallas	-12.3197
▁latince	-12.3197
▁1948	-12.3197
ici	-12.3197
▁elebaşı	-12.3198
▁tesadüfen	-12.3198
▁mangal	-12.3198
emiyorum	-12.3198
yacağım	-12.3198
▁elazığspor	-12.3198
▁sepet	-12.3198
▁yanındayız	-12.3198
▁faik	-12.3199
▁yaprağ	-12.3199
ima	-12.3199
▁sosyete	-12.32
▁sıkışık	-12.32
▁1962	-12.32
▁memnunum	-12.3201
▁sempatik	-12.3201
▁şaşırdım	-12.3202
8)	-12.3203
smart	-12.3203
▁arthur	-12.3204
▁gönderdik	-12.3204
▁ağaoğlu	-12.3204
▁siyasetçi	-12.3204
▁savcılık	-12.3205
▁sosyalizm	-12.3205
▁batak	-12.3206
minal	-12.3206
▁musun	-12.3206
▁ulaşırken	-12.3207
▁ihtiyat	-12.3208
▁tepsi	-12.3209
▁buradayız	-12.3209
▁pierr	-12.3209
▁zahmet	-12.3209
nos	-12.3211
▁dondurul	-12.3211
▁katı	-12.3212
▁asıldı	-12.3212
▁ivedi	-12.3212
likle	-12.3213
▁prodüktör	-12.3213
▁meçhul	-12.3213
▁yıprat	-12.3214
▁mülki	-12.3215
▁çürü	-12.3217
▁eğitmen	-12.3217
04	-12.3218
▁lazer	-12.3219
▁biçil	-12.322
Sa	-12.3221
▁hall	-12.3222
▁okuyan	-12.3223
▁135	-12.3223
▁provokasyon	-12.3226
▁2)	-12.3226
▁ödülleri	-12.3227
▁gerekirdi	-12.3228
▁gösterecek	-12.3229
cc	-12.3229
▁sıraladı	-12.3229
▁gönderi	-12.323
▁baskısı	-12.3231
mayacağım	-12.3231
▁döşeme	-12.3232
▁söyleyen	-12.3235
▁aittir	-12.3236
▁group	-12.3237
▁zordur	-12.324
▁önseç	-12.324
başarı	-12.3241
gor	-12.3243
▁imzalama	-12.3247
▁hilal	-12.3249
▁hd	-12.3262
▁pizza	-12.3262
▁pfdk	-12.3262
▁artacak	-12.3264
▁ji	-12.3265
▁gittiler	-12.3267
mışken	-12.3268
▁bahsetti	-12.3268
▁utah	-12.3268
irdi	-12.3271
mıyorlar	-12.3271
▁yaptıklarını	-12.3271
▁diya	-12.3272
▁düşür	-12.3273
▁savas	-12.3273
▁tutuklanmıştı	-12.3273
▁kpss	-12.3274
▁pers	-12.3274
▁kuyruğu	-12.3275
▁sulak	-12.3276
miyoruz	-12.3278
▁geçerken	-12.3281
cısı	-12.3282
▁durumdur	-12.3282
▁türeli	-12.3283
porta	-12.3283
▁katip	-12.3283
misi	-12.3283
▁ilerliyor	-12.3284
landırıldı	-12.3285
▁org	-12.3287
▁güvenlik	-12.329
▁adayları	-12.3291
ano	-12.3292
▁hazırlıyor	-12.3293
şifre	-12.3295
▁ural	-12.3296
tobb	-12.3296
aktif	-12.3297
elektrik	-12.3297
karşıyaka	-12.3297
hukuk	-12.3297
▁olmasi	-12.3298
▁tvn	-12.3298
▁chicago	-12.3298
▁kemalin	-12.3301
▁harfleri	-12.3302
değer	-12.3302
▁şüphesi	-12.3303
tabii	-12.3303
▁album	-12.3304
larca	-12.3305
▁sanılıyor	-12.3306
▁bize	-12.3306
▁yayınlanacak	-12.3307
▁taşer	-12.3308
▁olmasay	-12.3308
başbakan	-12.3308
▁başlayan	-12.3309
▁çıktım	-12.3312
▁imzalanma	-12.3312
indeydi	-12.3313
▁mecburi	-12.3314
dava	-12.3317
▁hol	-12.3319
▁nabu	-12.332
ommy	-12.332
▁albert	-12.3321
▁ikaz	-12.3321
▁ry	-12.3323
▁(10	-12.3325
▁toparlanma	-12.3328
▁göstermişti	-12.3332
▁derler	-12.3339
banka	-12.3339
▁gam	-12.3342
dai	-12.3349
▁duş	-12.3349
▁koza	-12.3351
üne	-12.3351
▁tri	-12.3354
▁doyur	-12.3357
gerek	-12.3362
dugu	-12.3366
asker	-12.3373
▁hayalleri	-12.338
▁kullanacak	-12.3382
▁sine	-12.3383
▁bölgede	-12.3384
eceg	-12.3394
basi	-12.3395
▁açabilir	-12.3396
▁hı	-12.3396
posta	-12.3397
▁bük	-12.3398
▁avla	-12.3398
▁halis	-12.3401
▁anlaşması	-12.3401
▁eğitil	-12.3408
▁tanınıyor	-12.3409
▁142	-12.3411
▁114	-12.3412
▁eğer	-12.3413
▁talan	-12.3415
▁markası	-12.3417
▁diyecek	-12.3419
.50	-12.342
▁fel	-12.3425
▁davada	-12.3427
▁teker	-12.3429
▁mudur	-12.3443
cg	-12.3445
rol	-12.3446
▁devred	-12.3447
▁Wood	-12.3451
2008	-12.3452
pazarı	-12.3452
hı	-12.3454
pon	-12.3455
AT	-12.3456
▁protokolün	-12.3456
▁devret	-12.3456
▁doldu	-12.3459
▁op	-12.346
işme	-12.3465
▁çinin	-12.3466
▁döşen	-12.3468
▁yapmaktadır	-12.3468
ovic	-12.3469
▁karşısında	-12.3472
▁1)	-12.3473
gra	-12.3476
▁vahi	-12.3487
▁olmalıyız	-12.3492
yd	-12.3494
kaza	-12.3495
ust	-12.3498
vin	-12.3498
▁vaatler	-12.3502
▁değerlendiriyor	-12.3504
▁bulamadı	-12.3505
yasa	-12.351
acaklarını	-12.351
ladım	-12.3511
▁sindir	-12.3512
▁araçlar	-12.3514
▁ox	-12.3515
ırsa	-12.3519
▁aski	-12.352
▁şüpheliler	-12.352
▁arkadaşlar	-12.3521
▁akredit	-12.3522
ight	-12.3523
▁enes	-12.353
▁oluyordu	-12.353
-12	-12.3532
▁yakalanmıştı	-12.3532
▁baca	-12.3537
▁cemaatin	-12.3542
▁bulunduk	-12.3547
▁aileler	-12.3547
▁korkusu	-12.3547
üş	-12.3548
▁geleceği	-12.3548
tıklarını	-12.355
▁kaldırıl	-12.3552
kça	-12.3552
ari	-12.3552
▁mini	-12.3553
▁erik	-12.3553
▁albümü	-12.3556
hon	-12.356
▁melis	-12.356
▁değerlendirildi	-12.3561
▁yazarı	-12.3564
▁esp	-12.3565
▁taktı	-12.3566
▁bre	-12.3567
inmektedir	-12.3569
▁uyuş	-12.3571
▁arama	-12.3577
▁süratle	-12.3578
▁tetik	-12.3578
▁yazıldı	-12.3578
tah	-12.3579
sy	-12.3579
konu	-12.358
▁serisi	-12.358
▁hel	-12.3581
▁gıyab	-12.3581
Ak	-12.3587
tıldı	-12.3591
▁elektr	-12.3592
▁mobe	-12.3592
▁böbr	-12.3594
▁süpür	-12.3595
▁Wallace	-12.3595
▁bahtiyar	-12.3595
▁barbie	-12.3595
▁benjamin	-12.3595
▁dedektif	-12.3595
▁jessica	-12.3595
▁karabiber	-12.3595
▁laboratuar	-12.3595
▁pavyon	-12.3595
▁schumacher	-12.3595
▁serüven	-12.3595
▁spielberg	-12.3595
▁süveyda	-12.3595
▁teşekkül	-12.3595
▁vodafone	-12.3595
▁örümcek	-12.3595
wood	-12.3595
▁schalke	-12.3595
▁venezuela	-12.3595
▁jeffrey	-12.3595
▁toraman	-12.3595
▁yakışıklı	-12.3595
▁cbs	-12.3595
▁tahıl	-12.3595
▁börek	-12.3595
▁chaplin	-12.3595
▁lakabı	-12.3595
▁teknisyen	-12.3595
▁şaibe	-12.3595
detroit	-12.3595
▁manidar	-12.3595
▁(37)	-12.3595
▁başörtüsü	-12.3595
▁howard	-12.3595
önizleme	-12.3595
▁geliyordu	-12.3595
▁domuz	-12.3595
▁sentez	-12.3595
▁bölükbaşı	-12.3595
▁patrick	-12.3595
▁sevindirdi	-12.3595
▁beceriksiz	-12.3595
▁şayet	-12.3595
▁bilemem	-12.3595
▁bulunmamaktadır	-12.3595
▁resul	-12.3595
▁müessese	-12.3595
▁pırıl	-12.3596
▁hammadde	-12.3596
▁bahri	-12.3596
▁belgrad	-12.3596
▁plus	-12.3596
▁sembolik	-12.3596
▁özçelik	-12.3596
▁geçersiz	-12.3596
▁lennon	-12.3596
beyazıt	-12.3596
▁horoz	-12.3596
▁psv	-12.3596
▁kontör	-12.3596
deyim	-12.3597
▁vahşice	-12.3597
▁bağırsak	-12.3597
▁sığır	-12.3597
▁tampon	-12.3597
▁ataköy	-12.3597
▁karanlığ	-12.3597
bl	-12.3597
▁1984	-12.3597
▁1977	-12.3598
▁banvit	-12.3598
▁slovakya	-12.3598
▁hezi	-12.3599
▁alındığını	-12.3599
▁gönderilecek	-12.3599
▁dicaprio	-12.3599
▁jeo	-12.3599
▁yasama	-12.3599
angelina	-12.3601
▁karayip	-12.3601
▁bitmedi	-12.3601
▁geliştirdi	-12.3602
▁uğurlandı	-12.3602
▁aff	-12.3602
▁ispanyolca	-12.3603
▁bölümünde	-12.3604
▁görmüştü	-12.3604
▁karaköy	-12.3606
giller	-12.3606
▁pide	-12.3607
abilirsin	-12.3608
vel	-12.3609
▁göreceksiniz	-12.3609
▁etmiyoruz	-12.3612
▁muaf	-12.3612
▁aykırıdır	-12.3613
▁bangladeş	-12.3614
▁sarah	-12.3614
▁açıklanmıştı	-12.3615
▁tıklayın	-12.3616
▁muzik	-12.3617
lev	-12.3618
▁gidiyorum	-12.3619
▁sürer	-12.3619
yabiliyor	-12.362
▁güveniyorum	-12.362
▁toplanacak	-12.362
▁187	-12.3622
▁gülcan	-12.3625
▁türkeş	-12.3625
▁leverkusen	-12.3627
▁segment	-12.3627
▁pey	-12.3627
▁nevruz	-12.3627
▁okulu	-12.3629
▁modena	-12.3629
▁demiryol	-12.363
▁övün	-12.363
▁von	-12.3631
▁göstermiştir	-12.3631
ınız	-12.3633
▁yapması	-12.3634
▁anlatır	-12.3635
▁salonu	-12.3635
▁yazısı	-12.3636
▁ürünler	-12.3637
▁aktürk	-12.3638
▁mendil	-12.3638
▁çağrıldı	-12.3639
▁disney	-12.3639
zincirleme	-12.3639
▁doğrudur	-12.3641
led	-12.3643
▁verebil	-12.3643
▁ersun	-12.3645
▁görevliler	-12.3645
▁parasal	-12.3647
▁değişir	-12.3648
▁üreten	-12.3651
▁bülbül	-12.3652
anado	-12.3652
▁bog	-12.3655
fterdar	-12.3655
▁otobüsü	-12.3656
:"	-12.3659
▁seher	-12.366
▁yuvarlağ	-12.3661
kaf	-12.3661
emre	-12.3662
lah	-12.3662
▁kaçırdı	-12.3664
▁ceren	-12.3664
1959	-12.3665
uç	-12.3665
▁davis	-12.3665
dadır	-12.3667
▁çıkardık	-12.367
iste	-12.3671
▁ödedi	-12.3672
acaktı	-12.3676
▁karıştırın	-12.3676
▁ezeli	-12.3677
pr	-12.368
▁gözetle	-12.3681
meyeceğini	-12.3683
uluyor	-12.3684
ünde	-12.3687
▁aradım	-12.3687
▁elver	-12.369
▁karşılaşma	-12.3693
cumhurbaş	-12.3694
yoruz	-12.3695
▁götürülme	-12.3696
▁püskürt	-12.3698
▁cor	-12.3698
▁best	-12.3702
▁verirler	-12.3704
▁ayma	-12.3705
▁çar	-12.3706
emiyoruz	-12.3706
▁burgaz	-12.3706
▁yapılabilir	-12.3706
http	-12.3708
▁çırpın	-12.3709
▁free	-12.3709
▁hapsi	-12.3711
▁aldığını	-12.3712
kötü	-12.3714
▁osb	-12.3714
.25	-12.3714
sabah	-12.3716
▁blog	-12.3716
▁2.0	-12.3717
silah	-12.3718
birlik	-12.3719
kurtar	-12.3721
▁geçtik	-12.3721
▁simgele	-12.3722
aziz	-12.3722
abdnin	-12.3722
şimdi	-12.3722
stat	-12.3726
zy	-12.3728
▁ispatla	-12.373
800	-12.3735
▁engelledi	-12.3737
▁ex	-12.3742
▁ast	-12.3743
aşa	-12.3746
ası	-12.3749
500	-12.375
etti	-12.3753
▁jar	-12.3754
böyle	-12.3755
▁orada	-12.3759
rdik	-12.3761
▁taşınacak	-12.3762
çak	-12.3764
▁görünce	-12.3767
▁macar	-12.3767
▁cemev	-12.3768
2009	-12.3771
age	-12.3773
▁işletil	-12.3773
anın	-12.3778
▁keser	-12.378
▁gelişti	-12.3781
▁yarıştı	-12.3785
▁ilkay	-12.3785
▁cs	-12.3785
▁lah	-12.3787
uncu	-12.379
▁111	-12.3791
▁kondu	-12.3791
ix	-12.3792
▁erit	-12.3795
▁olmaktadır	-12.3796
▁ash	-12.38
▁parkı	-12.3801
▁yattı	-12.3804
▁üslub	-12.3808
▁War	-12.3809
▁yumuşa	-12.3809
▁evre	-12.3811
doç	-12.3811
arap	-12.3813
namaz	-12.3816
▁koli	-12.3816
▁akalın	-12.3819
tiner	-12.3819
▁özçe	-12.382
▁mevzi	-12.382
▁artırıyor	-12.3824
▁üretilme	-12.3831
▁çoğal	-12.3831
▁inisiyatif	-12.3831
acaklardır	-12.3834
wal	-12.384
tırılacak	-12.3845
▁bed	-12.3846
▁ederse	-12.3846
▁delir	-12.385
▁kartı	-12.385
▁ateşi	-12.3853
▁gezen	-12.3855
▁krizi	-12.3857
▁sonraki	-12.3864
▁bakılıyor	-12.3864
▁103	-12.3865
▁cezalandırıl	-12.3866
tif	-12.3866
▁kaste	-12.3871
kom	-12.3873
bro	-12.3878
yacağını	-12.3879
fr	-12.388
▁suret	-12.388
▁hos	-12.3885
zak	-12.3887
▁küçül	-12.389
akut	-12.3895
▁hayatı	-12.39
▁1961	-12.3901
▁oynayan	-12.3905
cle	-12.3905
▁aci	-12.3911
▁kaçış	-12.3912
▁ring	-12.3912
▁yükseltme	-12.3915
ack	-12.3915
tos	-12.3916
▁şarkısı	-12.3919
▁adaylar	-12.392
eder	-12.3922
aha	-12.3925
lenebilir	-12.3934
▁izl	-12.3942
▁fm	-12.3949
▁öss	-12.3953
▁kak	-12.3953
▁0.5	-12.3955
▁bulduk	-12.3955
▁uzaklaştırıl	-12.3956
▁destekliyor	-12.3956
▁derinleştir	-12.3957
▁memuru	-12.3962
▁akpde	-12.3964
▁bitiyor	-12.3964
▁alanda	-12.3966
▁serp	-12.3966
▁gününde	-12.3967
▁değiller	-12.3981
iyla	-12.3984
▁aşılama	-12.3985
▁sonuncu	-12.3985
esih	-12.3986
▁reddedildi	-12.3987
▁değirmen	-12.3987
▁veriyorlar	-12.399
▁batır	-12.399
und	-12.3991
▁türel	-12.3995
▁sistemleri	-12.3996
▁lens	-12.4
▁yazmış	-12.4002
▁konsantr	-12.4003
▁roger	-12.4004
▁şarab	-12.4005
▁iğrenç	-12.4006
▁22.00	-12.4006
▁124	-12.4009
olunay	-12.4009
abat	-12.401
▁çeliş	-12.4011
▁pendik	-12.4011
▁Kırmızı	-12.4012
hiladelphia	-12.4012
▁ayçiçeği	-12.4012
▁dumlupınar	-12.4012
▁enternasyonal	-12.4012
▁garcia	-12.4012
▁göteborg	-12.4012
▁manevra	-12.4012
▁midilli	-12.4012
▁müdahil	-12.4012
▁reçine	-12.4012
▁taahhüd	-12.4012
▁tanzanya	-12.4012
▁temayül	-12.4012
▁toshiba	-12.4012
▁crowe	-12.4012
▁federer	-12.4012
uanzhou	-12.4012
▁moğolistan	-12.4012
▁acente	-12.4012
▁misafirperver	-12.4012
▁lazio	-12.4012
▁yüzünden	-12.4012
▁çorap	-12.4012
▁Karaosmanoğlu	-12.4012
▁metraj	-12.4012
▁pasif	-12.4012
▁cambridge	-12.4012
▁rozet	-12.4012
▁hangzhou	-12.4012
▁yanardağ	-12.4012
▁russell	-12.4012
▁karmaşa	-12.4012
▁bernard	-12.4012
▁salkım	-12.4012
▁makbuz	-12.4012
▁tetikçi	-12.4012
▁macao	-12.4012
▁johnny	-12.4012
▁avuç	-12.4012
▁söyleyeyim	-12.4012
▁müşteki	-12.4013
▁fatsa	-12.4013
▁ataşehir	-12.4013
▁kapsıyor	-12.4013
▁uzantı	-12.4013
▁tulum	-12.4013
▁bozkır	-12.4013
▁ızgara	-12.4013
▁1943	-12.4013
▁grammy	-12.4013
▁1965	-12.4013
▁sofuoğ	-12.4013
▁emsal	-12.4014
▁arıtma	-12.4014
▁olmert	-12.4014
▁koyduk	-12.4014
▁dağıtılacak	-12.4014
▁salça	-12.4014
▁demirağ	-12.4014
▁takson	-12.4015
▁yonca	-12.4015
▁sms	-12.4015
▁gerektirir	-12.4015
▁hitit	-12.4015
▁kemeraltı	-12.4016
▁beslenen	-12.4016
▁bağışık	-12.4016
▁bld	-12.4016
▁lastiği	-12.4016
▁çavuşoğlu	-12.4017
▁sunuyorum	-12.4018
▁kocatepe	-12.4019
yda	-12.4019
▁istila	-12.4019
▁serum	-12.4019
▁mavericks	-12.4021
▁powellın	-12.4021
▁filmde	-12.4021
▁dilekçesinde	-12.4022
▁tanju	-12.4022
▁yedinci	-12.4022
▁ettiklerini	-12.4023
▁defne	-12.4023
▁dinçer	-12.4025
▁degildir	-12.4025
▁haç	-12.4026
hor	-12.4026
▁veririm	-12.4029
▁başlayacağız	-12.4029
▁gerekirse	-12.403
▁açısından	-12.403
▁okudum	-12.4031
▁cimnastik	-12.4032
▁matrix	-12.4032
srin	-12.4033
▁çark	-12.4033
▁çekiliyor	-12.4033
▁calis	-12.4034
▁aştı	-12.4036
▁demirspor	-12.4039
mediler	-12.4039
▁adale	-12.404
▁çelen	-12.404
▁leon	-12.4042
gas	-12.4042
▁birlik	-12.4042
▁vazgeçti	-12.4043
▁bölük	-12.4044
▁başörtü	-12.4044
▁mlkp	-12.4045
▁(18)	-12.4045
▁çekiç	-12.4046
▁karton	-12.4048
▁aksine	-12.4049
▁gönderiliyor	-12.405
vı	-12.405
▁tomas	-12.4051
eç	-12.4054
▁linn	-12.4057
▁mozart	-12.4058
▁yobaz	-12.4059
alerjik	-12.4062
▁ziyarette	-12.4065
mina	-12.4066
▁jor	-12.407
▁izledim	-12.4073
▁bizim	-12.4075
▁onarıl	-12.4077
▁tanıyor	-12.4077
kil	-12.4077
▁colo	-12.4078
▁yelek	-12.4079
ulusal	-12.408
şen	-12.4082
▁yaparım	-12.4083
▁dayanıyor	-12.4083
öğren	-12.4085
leştirilmesi	-12.4085
▁edilirk	-12.4086
▁rolleri	-12.4087
▁parası	-12.4091
▁480	-12.4093
▁done	-12.4095
▁korunması	-12.4095
▁listesi	-12.4096
sunda	-12.4098
▁aslen	-12.4098
▁konseyi	-12.4099
ingli	-12.41
▁makro	-12.41
▁takıl	-12.4102
▁dizisi	-12.4102
▁yuvarlan	-12.4103
DA	-12.4103
8.3	-12.4104
baz	-12.4105
▁şap	-12.4109
▁liderleri	-12.411
▁kutluyor	-12.4115
▁ron	-12.4116
diye	-12.4117
▁menü	-12.4119
ermeni	-12.4128
▁ergül	-12.4128
▁balat	-12.4129
▁adayı	-12.413
▁musa	-12.413
▁imal	-12.413
lly	-12.4133
▁sıkıştı	-12.4134
opec	-12.4135
▁patlatıl	-12.4135
▁amacımız	-12.4135
▁olmayacaktır	-12.4136
▁açıklıyor	-12.4136
▁bob	-12.4138
▁yolcular	-12.4139
▁tıka	-12.4139
bilgi	-12.4139
afet	-12.4143
ıyordum	-12.4147
resmi	-12.415
tibet	-12.4153
ive	-12.4156
artarak	-12.4158
sinden	-12.416
▁115	-12.416
düz	-12.4165
▁güçlenme	-12.4166
▁france	-12.4167
▁üçleme	-12.4167
▁louis	-12.4167
▁center	-12.4169
▁koşar	-12.4171
▁kilitle	-12.4176
deyiz	-12.4177
▁tark	-12.4179
▁klas	-12.418
laf	-12.4182
▁kadı	-12.4189
▁res	-12.419
▁baris	-12.4191
lanabilir	-12.4195
▁sokuyor	-12.4199
klasik	-12.42
▁5.5	-12.4201
memektedir	-12.4204
ünkü	-12.4204
▁(!)	-12.4205
▁askerleri	-12.4206
▁verebilir	-12.4209
▁andre	-12.4211
▁budak	-12.4212
lalett	-12.4212
ulan	-12.4213
cra	-12.4215
mezdi	-12.4219
▁metaller	-12.4221
lor	-12.4222
hl	-12.4228
mc	-12.4228
▁(20	-12.4228
hassa	-12.4229
▁köylü	-12.423
▁iti	-12.4231
▁tskn	-12.4234
▁insanoğlu	-12.4237
imdir	-12.4239
▁köylüler	-12.424
▁bakar	-12.4242
gc	-12.4245
ful	-12.4245
sudur	-12.4251
Dİ	-12.4252
▁ölüyor	-12.4252
▁taç	-12.4252
▁sınırlandır	-12.4255
ars	-12.4256
rsın	-12.4261
▁ıntel	-12.4263
▁kullanıl	-12.4264
sıra	-12.4266
▁yönlendiril	-12.427
asib	-12.4273
RA	-12.4279
▁ayaz	-12.4281
şma	-12.4281
▁düzenleme	-12.4281
ydü	-12.4287
-13	-12.4287
▁yapabiliyor	-12.4289
hra	-12.4291
▁atta	-12.4295
▁şik	-12.4295
ache	-12.4296
▁kos	-12.4306
▁istemez	-12.4307
lenerek	-12.4308
rome	-12.4309
▁savaşma	-12.4309
▁görmez	-12.431
▁terminal	-12.4311
▁kazıl	-12.4316
lüyor	-12.432
▁sergilendi	-12.4322
sain	-12.4323
▁azmi	-12.4325
▁değilmiş	-12.4326
▁yandı	-12.4328
sızlık	-12.4328
▁evi	-12.4329
▁almıyor	-12.4329
▁peşinde	-12.4331
uyoruz	-12.4342
▁tuttur	-12.4343
iyim	-12.4345
▁kutlandı	-12.4347
▁donan	-12.4348
kir	-12.435
3.7	-12.4353
▁ky	-12.4353
aplı	-12.4357
▁motorin	-12.4358
emedik	-12.4361
▁bulunması	-12.4361
▁destekledi	-12.4361
86	-12.4364
▁kanı	-12.4365
eve	-12.4367
yunca	-12.4368
▁mani	-12.4373
ırsak	-12.4374
▁onaylandı	-12.4374
▁katkısı	-12.4377
sene	-12.4379
▁doğrusu	-12.438
seni	-12.4381
▁hızlandırılma	-12.4381
▁jane	-12.4382
▁mineral	-12.4382
▁arası	-12.4383
59	-12.4395
▁çkp	-12.4397
▁tamamlanması	-12.4398
/1	-12.4398
▁açıklanacak	-12.4399
▁televizyonu	-12.44
400	-12.4403
▁fire	-12.4403
lov	-12.4407
arko	-12.4408
riot	-12.4411
bre	-12.4414
▁taka	-12.4415
ates	-12.4418
▁ayırt	-12.4423
ıc	-12.4424
▁abartı	-12.4427
▁kra	-12.4428
▁kamer	-12.4428
▁meb	-12.4428
dullah	-12.4433
isa	-12.4433
▁elektron	-12.4434
hk	-12.4434
▁yazılan	-12.4434
▁ulaşacak	-12.4436
mamaktadır	-12.444
ravel	-12.4445
zami	-12.4445
▁düzeltme	-12.4446
▁başpehlivan	-12.4446
▁beyefendi	-12.4446
▁cimbom	-12.4446
▁drogba	-12.4446
▁fazilet	-12.4446
▁feldkamp	-12.4446
▁fildişi	-12.4446
▁hannover	-12.4446
▁harabe	-12.4446
▁hemsworth	-12.4446
▁karamsar	-12.4446
▁keçiören	-12.4446
▁kıvran	-12.4446
▁müşerref	-12.4446
▁risotto	-12.4446
▁teveccüh	-12.4446
▁uruguay	-12.4446
▁vişne	-12.4446
▁votka	-12.4446
▁jazz	-12.4446
▁piercing	-12.4446
▁rönesans	-12.4446
▁teşhir	-12.4446
▁jiechi	-12.4446
▁çalıştırıcı	-12.4446
▁folklor	-12.4446
▁hüsran	-12.4446
▁vasıf	-12.4446
▁maksadı	-12.4446
▁öküz	-12.4446
▁papadopulos	-12.4446
▁tertemiz	-12.4446
▁musiki	-12.4446
▁sorumluluk	-12.4446
▁true	-12.4447
▁ercümen	-12.4447
▁nebze	-12.4447
▁zeytinburnu	-12.4447
▁(42)	-12.4447
dolmabahçe	-12.4447
▁hatırlıyorum	-12.4447
▁münir	-12.4447
▁karides	-12.4447
▁müşterek	-12.4447
▁platin	-12.4447
▁Wilson	-12.4447
▁mahiyet	-12.4447
▁zihin	-12.4447
höyük	-12.4447
ulkadir	-12.4447
▁battal	-12.4447
naylon	-12.4448
▁azgın	-12.4448
▁tırmanış	-12.4448
▁uzaklaştırdı	-12.4448
▁düzenleniyor	-12.4448
▁madsen	-12.4449
▁kekik	-12.4449
▁çıkarılacak	-12.4449
▁santraller	-12.4449
▁kıç	-12.4449
▁protez	-12.4449
▁tereyağı	-12.445
▁yöntemleri	-12.445
emeyiz	-12.445
▁barut	-12.4451
▁teğmen	-12.4451
▁serez	-12.4451
▁konağı	-12.4452
▁görünür	-12.4452
▁oynayacağız	-12.4452
▁dümen	-12.4453
▁bilirim	-12.4454
▁egemenlik	-12.4454
▁seviyoruz	-12.4454
▁15-20	-12.4455
pur	-12.4456
▁makinist	-12.4456
▁yemekhane	-12.4456
▁hurma	-12.4457
▁kurnaz	-12.4458
▁akdemir	-12.4459
uyorsunuz	-12.4459
▁kayık	-12.4459
▁bayar	-12.4459
▁seyr	-12.4459
▁yaşanırken	-12.446
müsiad	-12.4462
▁tıraş	-12.4463
▁bahanesi	-12.4464
▁devasa	-12.4464
▁periyo	-12.4464
▁iptaline	-12.4464
▁oynatıl	-12.4466
▁okurken	-12.4466
aktör	-12.4467
tırıyor	-12.4467
▁kaliforniya	-12.4467
▁kadifekale	-12.4467
▁okundu	-12.4469
▁rağ	-12.447
▁yükseltilme	-12.447
▁tabaka	-12.4473
▁melodi	-12.4474
▁sağlanması	-12.4474
tığı	-12.4475
▁hayranları	-12.4475
▁çıktığını	-12.4476
▁olursak	-12.4476
▁yağdırdı	-12.4477
▁bindiril	-12.4478
▁nota	-12.4479
▁ariel	-12.4481
▁Kahramanmaraş	-12.4481
▁inkılap	-12.4481
-23	-12.4481
▁sauna	-12.4481
berg	-12.4483
▁yalancı	-12.4483
▁misal	-12.4484
▁(21)	-12.4484
▁oğlum	-12.4486
▁başaran	-12.4486
▁yüzde	-12.4488
telif	-12.4488
▁haydar	-12.4489
lıdere	-12.449
0.7	-12.4491
ırsınız	-12.4492
▁journal	-12.4495
▁sürerk	-12.4496
▁açıklarken	-12.4497
yağ	-12.4498
▁kazaz	-12.45
▁oturuyor	-12.45
verdi	-12.4503
▁ibra	-12.4504
▁drama	-12.4504
▁oluyorlar	-12.4507
▁zurna	-12.4508
▁genişletilme	-12.4509
▁şudur	-12.451
mali	-12.4513
▁kardeşi	-12.4514
▁satıyor	-12.4515
▁bolt	-12.4516
iti	-12.4516
▁sadece	-12.4522
▁chpyi	-12.4522
fen	-12.4525
▁yazdım	-12.4529
▁önal	-12.453
▁"1	-12.4531
▁demokratikleş	-12.4531
▁guo	-12.4535
ateş	-12.4538
▁harcanma	-12.454
▁vergisi	-12.4543
alın	-12.4545
aaa	-12.455
rel	-12.4554
▁gelişmeler	-12.4554
demre	-12.4555
▁yokken	-12.4555
laştırdı	-12.4556
▁cevapladı	-12.4557
▁açtık	-12.456
paz	-12.4562
eceksin	-12.4563
▁yut	-12.4567
▁kaldırılması	-12.457
zig	-12.4571
▁karıştırdı	-12.4572
lendirilecek	-12.4572
abiliyorlar	-12.4573
vekil	-12.458
▁rifa	-12.4584
thyn	-12.4585
▁bindi	-12.4587
▁görevlisi	-12.4587
vali	-12.459
▁saldırma	-12.4592
▁chen	-12.4594
▁hastanesi	-12.4595
▁olmamıştır	-12.4597
twitter	-12.4598
▁çilek	-12.4599
▁ork	-12.4599
▁yalvar	-12.4601
ılmaz	-12.4602
hürriyet	-12.4603
tbmm	-12.4603
meclis	-12.4603
fotoğraf	-12.4603
tom	-12.4604
▁koruma	-12.4608
So	-12.4609
mesine	-12.4613
shi	-12.4614
amp	-12.4621
▁merkezleri	-12.4622
wei	-12.4623
mahkeme	-12.4625
▁3.2	-12.4629
sunu	-12.4631
örneğ	-12.4633
▁bırakın	-12.4636
▁mike	-12.4641
▁ezel	-12.4642
▁artun	-12.4643
▁duyu	-12.4645
▁tıkla	-12.4653
uc	-12.4654
sky	-12.4654
tarım	-12.466
▁153	-12.466
▁çamlı	-12.466
▁esirgeme	-12.4662
ersin	-12.4663
▁haberlerde	-12.467
▁vay	-12.4672
▁yapacaklar	-12.4674
▁aga	-12.4674
▁görüştük	-12.4676
▁Wil	-12.4677
▁ulvi	-12.4678
▁rad	-12.4682
▁kaçmadı	-12.4686
layacak	-12.469
▁mide	-12.469
güç	-12.4692
uruz	-12.4696
▁girişimi	-12.4699
başka	-12.47
▁kaynaş	-12.4702
▁akça	-12.4703
▁muka	-12.4703
▁suçlu	-12.4705
önü	-12.4707
cor	-12.4717
▁paylaşıyor	-12.4717
▁santra	-12.4723
▁konuştuk	-12.4723
ymuş	-12.4724
▁cadı	-12.4727
ilen	-12.4727
stra	-12.4729
▁yayıldı	-12.4731
tiğini	-12.4734
illa	-12.4735
▁işbir	-12.4735
▁kovala	-12.4736
lenen	-12.4737
▁dize	-12.474
▁sabun	-12.4741
lha	-12.4742
sıydı	-12.4743
▁yedik	-12.4745
ayd	-12.4745
▁"3	-12.4746
▁thor	-12.4746
gb	-12.4746
herke	-12.4747
▁abde	-12.4748
▁bürün	-12.4749
▁denetlen	-12.4756
güneş	-12.4758
▁2.6	-12.4759
pil	-12.4772
geliş	-12.4773
▁ark	-12.4774
▁hiza	-12.4775
▁meydanı	-12.4776
▁koşusu	-12.478
bü	-12.478
ugu	-12.4783
▁özdeşleş	-12.4784
▁kurtulmuş	-12.479
sayd	-12.4792
▁(17	-12.4792
mayacağı	-12.4793
▁direğ	-12.4794
▁derim	-12.4795
▁rid	-12.48
▁yasaklı	-12.48
▁kaybetmiş	-12.4804
▁atarak	-12.4806
▁lou	-12.4807
▁kıvrıkoğ	-12.481
▁dışı	-12.4817
▁kaka	-12.4819
▁teması	-12.4819
▁oluşacak	-12.482
İR	-12.4821
▁macun	-12.4823
▁nüz	-12.4829
cağı	-12.4835
tele	-12.4836
▁eserleri	-12.4837
▁reddedilme	-12.4837
▁zombi	-12.4837
▁yükseliyor	-12.4839
▁biçimi	-12.4839
▁cos	-12.484
▁açılıyor	-12.4843
▁itü	-12.4844
▁buldan	-12.4844
▁söyledik	-12.4849
▁teom	-12.4853
▁edebi	-12.4854
maktadir	-12.4858
▁yansıtma	-12.4859
▁pus	-12.4859
▁kari	-12.4866
tirirken	-12.4868
▁azaltma	-12.4869
yuz	-12.487
slat	-12.4872
card	-12.4874
▁hasıla	-12.4877
▁sabih	-12.4878
▁başrolün	-12.4881
▁24.00	-12.4883
▁bilgiler	-12.4888
▁firar	-12.4888
▁gerekli	-12.489
▁sosyoloji	-12.4891
▁elektriğ	-12.4893
▁popül	-12.4894
▁petrolün	-12.4894
▁redd	-12.4895
▁mono	-12.4897
▁öldürülmüştü	-12.4897
▁guven	-12.4898
▁07.00	-12.49
▁gidin	-12.49
üçükçekmece	-12.4901
▁bağdaş	-12.4901
▁sarnı	-12.4901
İzmir	-12.4901
▁trajik	-12.4901
▁alzheimer	-12.4901
▁bilimkurgu	-12.4901
▁eldiven	-12.4901
▁greenpeace	-12.4901
▁kalifiye	-12.4901
▁köpük	-12.4901
▁mozaik	-12.4901
▁müdahele	-12.4901
▁nautilus	-12.4901
▁petersburg	-12.4901
▁silisyum	-12.4901
▁taarruz	-12.4901
▁volkswagen	-12.4901
▁çarşaf	-12.4901
▁airbus	-12.4901
▁ejderha	-12.4901
▁gömleğ	-12.4901
▁muavin	-12.4901
▁nargile	-12.4901
▁columbi	-12.4901
▁kriminal	-12.4901
▁jeneratör	-12.4901
▁rastlantı	-12.4901
▁rögar	-12.4901
▁yahoo	-12.4901
▁dinamo	-12.4901
▁franco	-12.4901
▁sezaryen	-12.4901
▁sondaj	-12.4901
▁potter	-12.4901
▁amblem	-12.4901
▁ındiana	-12.4901
▁karizmatik	-12.4901
▁kamalak	-12.4901
▁kupon	-12.4901
▁(48)	-12.4901
▁ındependent	-12.4901
▁dağınık	-12.4901
▁(40)	-12.4901
artholomeos	-12.4901
▁vokal	-12.4901
▁musluk	-12.4901
▁dekorasyon	-12.4901
▁gökçeada	-12.4901
▁viski	-12.4901
▁alındığında	-12.4901
edil	-12.4902
▁oryantal	-12.4902
▁260	-12.4902
▁bulunmadığını	-12.4902
▁abhaz	-12.4902
▁çorlu	-12.4902
▁altuntaş	-12.4902
▁neo	-12.4902
▁jason	-12.4902
▁pişmanım	-12.4903
▁hissettim	-12.4903
▁saydam	-12.4903
▁forbes	-12.4903
arçın	-12.4903
▁alanları	-12.4903
▁molotofkokteyli	-12.4903
▁berkay	-12.4903
▁feryat	-12.4903
▁yorulmaz	-12.4903
▁akyürek	-12.4903
▁1954	-12.4903
▁kelly	-12.4904
▁1968	-12.4904
▁gerede	-12.4904
▁tang	-12.4904
▁dramatik	-12.4904
▁yüreğir	-12.4904
▁zulme	-12.4904
▁üzülmez	-12.4904
▁çığır	-12.4904
frame	-12.4904
▁ezik	-12.4905
▁1915	-12.4905
▁bezci	-12.4905
▁ipuç	-12.4905
▁eşdeğer	-12.4905
▁repo	-12.4906
▁20-25	-12.4906
▁estet	-12.4907
▁köyünde	-12.4908
savar	-12.4908
▁dururken	-12.4908
▁kalitesiz	-12.4908
▁açıkgöz	-12.4908
▁onbin	-12.4909
▁edilmeli	-12.4909
▁zindan	-12.491
witch	-12.491
▁havayolları	-12.491
▁belirtilme	-12.4911
▁meze	-12.4911
▁230	-12.4911
▁kubbe	-12.4912
▁şekerspor	-12.4913
▁üçgen	-12.4914
▁manyak	-12.4915
▁işleyen	-12.4916
xx	-12.4916
▁sporsever	-12.4916
efe	-12.4917
▁soluk	-12.4917
▁henri	-12.4917
▁gap	-12.4918
▁armut	-12.4919
▁edilmedi	-12.492
kova	-12.492
▁(28)	-12.492
▁tutuklama	-12.4921
▁getirilecek	-12.4923
ede	-12.4924
▁kayısı	-12.4924
▁uzağ	-12.4925
▁paça	-12.4925
▁tour	-12.4926
▁dönmez	-12.4926
▁açacağız	-12.4927
▁izah	-12.4928
▁marco	-12.4928
▁(31)	-12.4928
▁çekerk	-12.4928
▁uyandır	-12.4929
▁kefeli	-12.4929
▁iskelet	-12.493
▁call	-12.493
▁bedir	-12.4931
▁max	-12.4932
▁beter	-12.4934
kçe	-12.4934
▁58.	-12.4935
▁kck	-12.4937
amayınca	-12.4937
▁marc	-12.4937
▁bonzai	-12.4937
▁mecidiyeköy	-12.4937
▁toptan	-12.4937
▁cansun	-12.4939
▁zorba	-12.4939
▁ytlyi	-12.4939
▁89.	-12.494
ırdı	-12.4945
▁şeh	-12.4948
▁baykan	-12.495
▁çeyreğ	-12.495
▁koptu	-12.4951
▁oynar	-12.4951
sunun	-12.4953
▁(21	-12.4953
▁örneği	-12.4954
kele	-12.4954
▁edat	-12.4957
▁yapmıyor	-12.4957
adalet	-12.496
▁alba	-12.496
▁öze	-12.4961
▁boo	-12.4963
▁ming	-12.4963
▁gidip	-12.4963
▁maksat	-12.4964
▁tmmob	-12.4966
kofi	-12.4967
akdi	-12.4971
▁gerici	-12.4973
▁marj	-12.4974
▁fadi	-12.4974
▁kullanın	-12.4975
kemalett	-12.4977
gate	-12.4977
▁şems	-12.4978
▁tasvir	-12.4978
▁kendisine	-12.4979
▁turkiye	-12.4982
uyorum	-12.4986
▁götürülürk	-12.4988
▁getirip	-12.4988
▁etmeli	-12.4988
▁düşen	-12.4988
▁kesinleşti	-12.4989
fur	-12.4989
uin	-12.499
▁ilyas	-12.4994
ank	-12.4996
▁canlandırıyor	-12.4998
▁dereli	-12.4998
▁143	-12.5
▁kilisesi	-12.5005
ganda	-12.5005
▁körükle	-12.5008
▁hitler	-12.501
-50	-12.5012
▁uygulanıyor	-12.5013
▁arık	-12.5014
▁olmamalı	-12.5015
▁bulunabilir	-12.5016
erin	-12.5016
▁olabilecek	-12.5018
▁öneriyor	-12.5022
▁bıyık	-12.5024
yüp	-12.5025
-29	-12.5026
▁önledi	-12.5027
▁fakültesi	-12.503
▁anladım	-12.503
▁faydalan	-12.503
cre	-12.5031
▁mecburiyet	-12.5032
▁kabulü	-12.5032
yazma	-12.5034
wo	-12.5039
▁tanıtılma	-12.5039
▁büyüyor	-12.5041
▁hırsız	-12.505
▁geçmiştir	-12.505
lug	-12.5051
▁antreman	-12.5052
uad	-12.5052
▁zoru	-12.5054
▁bae	-12.5058
▁elendi	-12.5062
▁ılım	-12.5063
▁fide	-12.5064
▁izmirde	-12.5067
cdi	-12.5069
▁söndürül	-12.507
▁gösterdik	-12.5072
▁teşekkürler	-12.5072
▁we	-12.5073
▁çalışıyordu	-12.5073
▁size	-12.5076
youtube	-12.5077
tüik	-12.5078
▁özendir	-12.5078
paralel	-12.5078
mhp	-12.5079
bornova	-12.5079
siyasi	-12.5079
▁bah	-12.508
▁uydur	-12.508
manisa	-12.5081
▁taşla	-12.5081
hangi	-12.5081
çift	-12.5083
kulak	-12.5083
idas	-12.5083
▁edeceğini	-12.5091
▁savasi	-12.5091
▁sarki	-12.5093
▁umursa	-12.5096
-28	-12.5098
▁farkli	-12.5099
▁seni	-12.5099
▁hedefi	-12.5103
uygunsuz	-12.5104
▁küçümse	-12.5104
malett	-12.5105
şnin	-12.5105
▁oturacak	-12.5107
turk	-12.5111
▁takın	-12.5112
▁veriler	-12.5113
▁cels	-12.5114
▁etmesin	-12.5118
▁düzenleyecek	-12.5118
▁ekspres	-12.5119
▁savaşı	-12.5121
▁kaynağı	-12.5121
▁tayvan	-12.5124
tıracağız	-12.5124
50.000	-12.5131
▁tapınağı	-12.5135
ntv	-12.5138
▁bırakılmıştı	-12.5139
▁hacmin	-12.5141
mezken	-12.5143
cami	-12.5145
▁elleri	-12.5156
▁makas	-12.5159
muk	-12.5163
uvar	-12.5165
tlyi	-12.5167
▁tor	-12.5167
▁yumuşat	-12.5171
▁aydınlatma	-12.5171
oda	-12.5176
▁144	-12.5179
biri	-12.5179
▁priz	-12.518
▁kurduk	-12.5182
▁oluşturduk	-12.5182
ografi	-12.5182
▁artı	-12.5183
▁çit	-12.5185
▁eklenme	-12.5186
▁uygulaması	-12.5188
▁umudu	-12.5191
▁32.	-12.5192
not	-12.5193
▁kaleci	-12.5193
ET	-12.5194
▁olmayabilir	-12.5196
▁juan	-12.5196
▁ıver	-12.5198
amı	-12.5199
yad	-12.52
▁hazırladık	-12.5202
ura	-12.5202
▁sonuçları	-12.5207
▁insanlarin	-12.5208
▁sabahatti	-12.5211
▁bad	-12.5214
▁lot	-12.5216
▁açan	-12.5217
▁reviz	-12.522
▁gelişmiş	-12.5222
orman	-12.5223
▁luc	-12.5224
▁bele	-12.5225
▁over	-12.5227
koca	-12.5229
▁kınay	-12.523
pass	-12.5235
▁950	-12.524
▁yüzden	-12.5247
▁viya	-12.525
tiriliyor	-12.5257
▁bölgesinde	-12.5258
kapa	-12.5259
▁119	-12.5261
mde	-12.5264
▁semboller	-12.5264
▁olmasını	-12.5266
▁blu	-12.5267
emeyen	-12.5267
seven	-12.527
-52	-12.5271
▁yetişti	-12.5273
▁okan	-12.5273
▁college	-12.5273
▁açılır	-12.5275
▁etab	-12.5276
zet	-12.5281
▁yetiştir	-12.5282
nica	-12.5284
ıyorduk	-12.5287
▁atacak	-12.5291
lenecektir	-12.5292
abilirim	-12.5293
▁kullanır	-12.5296
uzu	-12.5296
▁boğdu	-12.5296
eth	-12.5302
öst	-12.5302
▁lisa	-12.5304
▁oyle	-12.5304
▁yurtiç	-12.5309
▁kupası	-12.531
▁isteyecek	-12.5313
▁verme	-12.5315
▁cook	-12.5317
ayev	-12.5319
▁sembol	-12.532
▁töreninde	-12.5325
ımızı	-12.5338
▁hawk	-12.5343
▁amacı	-12.5344
▁yskn	-12.5345
▁farked	-12.5345
ote	-12.5351
matik	-12.5351
tter	-12.5351
▁koyar	-12.5352
▁gra	-12.5357
lugu	-12.536
▁harcadı	-12.536
▁hafız	-12.5361
lışı	-12.5361
tme	-12.5362
▁home	-12.5362
▁klib	-12.5365
▁murad	-12.5366
▁izlendi	-12.5366
▁hasa	-12.5366
▁yatırıldı	-12.5371
▁137	-12.5374
▁trump	-12.5374
▁aker	-12.5375
▁ulaşıldı	-12.5376
▁Müdürlüğü	-12.5377
lvegözü	-12.5377
prodüksiyon	-12.5377
▁03.00	-12.5377
▁eindhoven	-12.5377
▁kafeterya	-12.5377
▁müjdat	-12.5377
▁oklahoma	-12.5377
▁panasonic	-12.5377
▁parantez	-12.5377
▁savunuldu	-12.5377
▁souza	-12.5377
▁tespih	-12.5377
▁thompson	-12.5377
▁tiflis	-12.5377
▁trajedi	-12.5377
▁travesti	-12.5377
▁virginia	-12.5377
▁etiyopya	-12.5377
▁güvercin	-12.5377
▁kilometrekare	-12.5377
▁çavdar	-12.5377
▁hutbe	-12.5377
▁klaus	-12.5377
▁parampar	-12.5377
▁dream	-12.5377
▁marifet	-12.5377
▁tavuğ	-12.5377
▁ziyafet	-12.5377
▁mehter	-12.5377
▁paranoya	-12.5377
▁battaniye	-12.5377
▁mercek	-12.5377
▁çerkezköy	-12.5377
▁shakespeare	-12.5377
▁varoş	-12.5377
▁bandrol	-12.5377
▁menşe	-12.5377
▁üzgünüm	-12.5377
▁beckham	-12.5377
▁pancar	-12.5377
▁saracoğ	-12.5377
▁ralli	-12.5377
▁stopaj	-12.5377
▁düşünmüyor	-12.5377
▁sound	-12.5377
▁akıbet	-12.5377
▁çubuğ	-12.5378
▁pdf	-12.5378
▁kepen	-12.5378
▁altınok	-12.5378
▁sörf	-12.5378
▁entegrasyon	-12.5378
▁liyakat	-12.5378
▁özdil	-12.5378
▁drolma	-12.5378
html	-12.5378
▁prusya	-12.5378
▁vuruldu	-12.5378
▁saruhan	-12.5378
▁fincan	-12.5378
▁vasat	-12.5378
▁mütevazı	-12.5379
▁yalçındağ	-12.5379
▁zeybekci	-12.5379
▁raşit	-12.5379
▁yuvarlandı	-12.5379
▁lewinsky	-12.5379
▁tezcan	-12.5379
▁tembel	-12.5379
▁shang	-12.538
▁duruşu	-12.538
▁from	-12.538
▁1964	-12.538
▁selamet	-12.538
steau	-12.538
▁sow	-12.5381
▁smaç	-12.5381
▁etkinlikte	-12.5381
▁fethiyespor	-12.5381
▁hanife	-12.5381
▁turkey	-12.5382
▁optik	-12.5382
▁sevilla	-12.5382
▁köpekba	-12.5383
▁vermektedir	-12.5383
▁düzenek	-12.5383
▁destekleyen	-12.5383
▁kaygan	-12.5383
▁özmen	-12.5384
▁isti	-12.5384
▁anneanne	-12.5384
ple	-12.5384
▁21.30	-12.5384
▁alındığı	-12.5384
▁nd	-12.5384
▁durumdayız	-12.5385
▁devleti	-12.5385
▁eşbaşkan	-12.5385
süp	-12.5386
▁sergiliyor	-12.5386
▁18.30	-12.5386
▁hakkinda	-12.5386
▁hollande	-12.5386
▁emperyalist	-12.5387
▁ipucu	-12.5387
▁joel	-12.5387
▁hintli	-12.5387
▁uluç	-12.5388
▁bilmiyoruz	-12.5388
win	-12.5389
laştırıyor	-12.5389
▁hece	-12.5389
▁vurgularken	-12.5389
▁operasyonu	-12.539
▁soruyorum	-12.539
▁eraslan	-12.539
▁edilmelidir	-12.5391
▁bombalama	-12.5391
▁bakarken	-12.5392
TE	-12.5393
▁valeri	-12.5393
▁boyner	-12.5394
▁edersiniz	-12.5395
▁bandıra	-12.5395
▁karahan	-12.5395
▁anavatan	-12.5396
▁farkındalığ	-12.5396
lenirk	-12.5397
▁erkin	-12.5397
▁bucak	-12.5397
değerlendirirken	-12.5397
▁elele	-12.5399
▁ölçer	-12.5399
▁zeren	-12.5399
▁insanları	-12.54
ella	-12.54
▁halilzad	-12.54
▁farsça	-12.54
▁340	-12.54
▁çekirge	-12.5401
▁argo	-12.5401
▁gas	-12.5406
▁tuzağ	-12.5406
▁gösterirken	-12.5409
▁(5	-12.5409
▁bag	-12.5414
▁arttırdı	-12.5415
▁alıyordu	-12.5415
▁yattara	-12.5415
▁mkyk	-12.5415
▁maça	-12.5416
▁sinek	-12.5417
8.4	-12.5422
▁istediğini	-12.5422
▁nesir	-12.5423
▁agora	-12.5424
▁mudan	-12.5425
▁tanıkları	-12.5428
▁05	-12.5429
▁sağol	-12.543
▁götürür	-12.5431
▁four	-12.5433
▁yaşanmıştı	-12.5433
amazdı	-12.5434
▁said	-12.5439
▁kahveci	-12.5439
▁özden	-12.5439
▁gerekecek	-12.5439
ıştır	-12.5442
▁lg	-12.5444
ebileceği	-12.5445
▁gaga	-12.5445
▁kaydırıl	-12.5446
üncü	-12.5447
▁selami	-12.5448
▁dağı	-12.5451
▁bulunmuş	-12.5452
▁katır	-12.5453
gökova	-12.5455
▁ılgaz	-12.5458
are	-12.5462
▁berna	-12.5462
▁mühür	-12.5463
gy	-12.5465
liğinde	-12.5467
▁yapın	-12.547
itli	-12.5471
▁çilingir	-12.5476
▁cristiano	-12.5477
▁döngü	-12.5479
gren	-12.5481
ics	-12.5483
▁law	-12.5484
▁ihmali	-12.5486
▁ayten	-12.5488
▁yöneldi	-12.5489
diz	-12.5489
▁bazıları	-12.5494
▁gelecektir	-12.5499
nıyordu	-12.5499
▁milliler	-12.5503
▁dick	-12.5504
rme	-12.5505
▁dikiş	-12.5508
▁çokluğu	-12.5509
▁bl	-12.5511
ebiliyorlar	-12.5511
luyor	-12.5512
▁sağlıklı	-12.5513
▁turka	-12.5515
▁valiliği	-12.5515
indedir	-12.5517
▁uçakları	-12.5518
şti	-12.5519
cker	-12.552
▁geçtiğini	-12.5521
▁projeleri	-12.5521
▁görme	-12.5523
▁kavuşacak	-12.5524
▁kırmızılılar	-12.5524
▁yalın	-12.5525
▁kaldırılırke	-12.5525
▁yöneticisi	-12.5525
▁aver	-12.5526
miyorlar	-12.5531
▁sağladık	-12.5533
▁hizmetleri	-12.5534
Bir	-12.5534
ülmüş	-12.5534
zole	-12.5535
▁(9	-12.5535
umut	-12.5537
rry	-12.5538
▁mahur	-12.5539
vari	-12.5539
▁mescid	-12.5544
▁girdim	-12.5547
acti	-12.5551
▁(15	-12.5552
▁fri	-12.5554
▁yapmayın	-12.5554
spi	-12.5555
▁sayılıyor	-12.5556
ürkmenistan	-12.556
▁artırılması	-12.5561
▁işçileri	-12.5562
rum	-12.5562
▁kaçar	-12.5563
lattı	-12.5565
▁por	-12.5565
▁6-1	-12.5566
▁altan	-12.5566
▁alabilme	-12.5569
cap	-12.5572
▁moderniz	-12.5572
[...]
